{"learner":{"attributes":{"best_iteration":"99","best_ntree_limit":"100","scikit_learn":"{\"n_estimators\": 100, \"objective\": \"reg:squarederror\", \"max_depth\": null, \"max_leaves\": null, \"max_bin\": null, \"grow_policy\": null, \"learning_rate\": null, \"verbosity\": null, \"booster\": null, \"tree_method\": null, \"gamma\": null, \"min_child_weight\": null, \"max_delta_step\": null, \"subsample\": null, \"sampling_method\": null, \"colsample_bytree\": null, \"colsample_bylevel\": null, \"colsample_bynode\": null, \"reg_alpha\": null, \"reg_lambda\": null, \"scale_pos_weight\": null, \"base_score\": null, \"missing\": NaN, \"num_parallel_tree\": null, \"random_state\": null, \"n_jobs\": null, \"monotone_constraints\": null, \"interaction_constraints\": null, \"importance_type\": null, \"gpu_id\": null, \"validate_parameters\": null, \"predictor\": null, \"enable_categorical\": false, \"max_cat_to_onehot\": null, \"eval_metric\": null, \"early_stopping_rounds\": null, \"callbacks\": null, \"_estimator_type\": \"regressor\"}"},"feature_names":[],"feature_types":[],"gradient_booster":{"model":{"gbtree_model_param":{"num_parallel_tree":"1","num_trees":"100","size_leaf_vector":"0"},"tree_info":[0,0,0,0,0,0,0,0,0,0,0,0,0,0,0,0,0,0,0,0,0,0,0,0,0,0,0,0,0,0,0,0,0,0,0,0,0,0,0,0,0,0,0,0,0,0,0,0,0,0,0,0,0,0,0,0,0,0,0,0,0,0,0,0,0,0,0,0,0,0,0,0,0,0,0,0,0,0,0,0,0,0,0,0,0,0,0,0,0,0,0,0,0,0,0,0,0,0,0,0],"trees":[{"base_weights":[-5.614337E-1,4.411934E-1,-6.357557E-1,2.751529E0,-1.9514576E-1,-2.1821036E0,-6.0124946E-1,4.1043787E0,5.778036E-1,-4.9428025E-1,1.4327625E0,-3.305328E0,-3.207871E-1,-6.4996284E-1,4.1884896E-1,8.288247E-1,-2.1314043E-1,2.0226376E-1,-1.0472735E0,3.9859933E-1,2.3340592E0,1.3182323E-1,-5.800481E-1,-1.2257224E0,-5.582944E-1,1.6000906E0,-3.2629037E-1,2.0118949E-1,9.709733E-1,-8.459064E-1,5.347985E-1,-2.4660239E-1,-1.5343732E0,5.8870763E-2,4.922186E-1,-2.4356246E-2,2.2209108E-1,-1.0556884E0,-2.58156E0,-6.106387E-1,4.543902E-1,2.056057E0,2.8813562E-1,-6.087945E-1,1.2891619E0,-3.5763204E-1,7.490478E-1,1.3369016E-1,-6.603175E-1,-1.774048E0,-3.038911E-1,-3.4855673E0,-9.347416E-1,-6.969987E-1,-2.7512116E0,-7.7233267E-1,-3.1248978E-1,1.2868636E0,-7.22109E-1,2.268418E-1,-8.1908303E-1],"categories":[],"categories_nodes":[],"categories_segments":[],"categories_sizes":[],"default_left":[1,1,1,1,1,1,1,0,1,1,1,0,1,1,1,1,0,1,1,1,0,1,0,1,1,1,1,0,0,0,1,1,1,0,0,0,0,1,1,1,1,0,0,1,0,0,0,0,0,0,0,0,0,0,0,0,0,0,0,0,0],"id":0,"left_children":[1,3,5,7,9,11,13,-1,15,17,19,-1,21,23,25,27,-1,29,31,33,-1,35,-1,37,39,41,43,-1,-1,-1,45,47,49,-1,-1,-1,-1,51,53,55,57,-1,-1,59,-1,-1,-1,-1,-1,-1,-1,-1,-1,-1,-1,-1,-1,-1,-1,-1,-1],"loss_changes":[4.931285E1,6.816417E1,3.1396927E1,2.7035713E1,1.8725836E1,2.611848E1,3.013742E1,0E0,1.1693742E0,1.253772E1,4.662174E0,0E0,7.8052896E-1,2.9610825E1,2.5167404E1,1.6152024E-1,0E0,5.6806846E0,6.641739E0,9.8243296E-2,0E0,4.770326E-2,0E0,1.5256691E1,2.6622543E1,5.987856E0,8.999531E0,0E0,0E0,0E0,2.5623155E0,1.34694E0,2.7049541E0,0E0,0E0,0E0,0E0,1.7607803E1,6.401634E-1,2.2561462E1,2.5414362E1,0E0,0E0,2.997398E0,0E0,0E0,0E0,0E0,0E0,0E0,0E0,0E0,0E0,0E0,0E0,0E0,0E0,0E0,0E0,0E0,0E0],"parents":[2147483647,0,0,1,1,2,2,3,3,4,4,5,5,6,6,8,8,9,9,10,10,12,12,13,13,14,14,15,15,17,17,18,18,19,19,21,21,23,23,24,24,25,25,26,26,30,30,31,31,32,32,37,37,38,38,39,39,40,40,43,43],"right_children":[2,4,6,8,10,12,14,-1,16,18,20,-1,22,24,26,28,-1,30,32,34,-1,36,-1,38,40,42,44,-1,-1,-1,46,48,50,-1,-1,-1,-1,52,54,56,58,-1,-1,60,-1,-1,-1,-1,-1,-1,-1,-1,-1,-1,-1,-1,-1,-1,-1,-1,-1],"split_conditions":[-2.3070526E0,-2.086652E0,-3.585825E0,6.2308943E-1,2.1669805E0,-4.3469596E-1,2.8700056E0,1.2313137E0,6.854096E-1,-3.3896118E-1,1.327822E0,-9.915984E-1,-4.6572357E-2,-1.5504935E0,-4.8666942E-1,-1.5409821E0,-6.3942134E-2,-7.813734E-1,-5.9872143E-2,-2.4362116E0,7.002178E-1,5.2186877E-1,-1.7401443E-1,-1.656053E0,2.4809647E0,1.2164633E0,2.6125422E0,6.0356848E-2,2.91292E-1,-2.5377193E-1,-8.6609846E-1,4.5466796E-1,1.4308808E0,1.7661229E-2,1.4766559E-1,-7.3068743E-3,6.662732E-2,-5.4506254E0,-3.0148277E0,4.320107E-1,2.7653858E-1,6.168171E-1,8.644069E-2,-3.1452737E0,3.8674858E-1,-1.0728962E-1,2.2471435E-1,4.010705E-2,-1.9809525E-1,-5.322144E-1,-9.116733E-2,-1.0456703E0,-2.804225E-1,-2.0909962E-1,-8.253635E-1,-2.3169981E-1,-9.374694E-2,3.8605908E-1,-2.1663271E-1,6.8052545E-2,-2.4572492E-1],"split_indices":[56,58,58,4,41,51,18,0,0,26,2,0,3,40,31,0,0,42,14,1,0,0,0,40,36,39,5,0,0,0,7,1,20,0,0,0,0,51,0,0,12,0,0,2,0,0,0,0,0,0,0,0,0,0,0,0,0,0,0,0,0],"split_type":[0,0,0,0,0,0,0,0,0,0,0,0,0,0,0,0,0,0,0,0,0,0,0,0,0,0,0,0,0,0,0,0,0,0,0,0,0,0,0,0,0,0,0,0,0,0,0,0,0,0,0,0,0,0,0,0,0,0,0,0,0],"sum_hessian":[6.57E2,4.5E1,6.12E2,9E0,3.6E1,1.2E1,6E2,5E0,4E0,3.1E1,5E0,7E0,5E0,5.73E2,2.7E1,3E0,1E0,1.4E1,1.7E1,3E0,2E0,2E0,3E0,7.7E1,4.96E2,1E1,1.7E1,1E0,2E0,3E0,1.1E1,7E0,1E1,1E0,2E0,1E0,1E0,7E1,7E0,4.72E2,2.4E1,7E0,3E0,1.5E1,2E0,2E0,9E0,4E0,3E0,8E0,2E0,2E0,6.8E1,1E0,6E0,3.05E2,1.67E2,1.4E1,1E1,3E0,1.2E1],"tree_param":{"num_deleted":"0","num_feature":"60","num_nodes":"61","size_leaf_vector":"0"}},{"base_weights":[-3.9489368E-1,7.757003E-1,-4.385147E-1,2.858995E0,-2.503031E-1,2.7203193E0,-4.4778782E-1,1.6569564E-1,3.220081E0,1.2765317E0,-8.1829315E-1,1.2880248E-1,-5.027814E-1,1.6476878E0,-1.04046464E-1,-1.5070544E0,-1.9943553E-1,8.655643E-1,-6.388723E-1,-5.4446954E-1,4.4280717E-1,-5.1600426E-1,2.4613425E-1,-4.6626425E-1,1.2332702E0,-4.018107E-1,-2.480449E0,-1.8641596E0,-5.0687283E-1,1.0979726E0,-2.4642035E-1,7.524963E-2,2.780126E-1,-9.8392755E-1,-6.2413447E-2,1.6805329E0,-2.9120883E-2,3.543157E-1,-6.990318E-1,-9.549062E-1,-3.0688884E0,-1.3101695E0,-4.5547605E-1,-7.0800334E-2,1.4556845E0,-1.1022778E0,1.2056467E-1],"categories":[],"categories_nodes":[],"categories_segments":[],"categories_sizes":[],"default_left":[1,1,1,1,1,0,1,0,0,1,1,1,1,0,0,0,1,1,1,1,1,0,1,1,1,1,0,1,1,1,1,0,0,0,0,0,0,0,0,0,0,0,0,0,0,0,0],"id":1,"left_children":[1,3,5,7,9,-1,11,-1,-1,13,15,17,19,-1,-1,-1,21,23,25,27,29,-1,31,33,35,37,-1,39,41,43,45,-1,-1,-1,-1,-1,-1,-1,-1,-1,-1,-1,-1,-1,-1,-1,-1],"loss_changes":[3.393931E1,5.201483E1,1.981868E1,7.2465515E0,1.57874365E1,0E0,2.0168114E1,0E0,0E0,2.7334862E0,5.2406273E0,3.2226223E1,2.30652E1,0E0,0E0,0E0,1.255434E0,1.4776943E1,1.122721E1,2.659198E1,1.1559515E1,0E0,8.697361E-4,1.4020007E0,1.303521E1,6.0908327E0,0E0,1.3500561E1,2.173944E1,5.5381536E0,4.2160254E0,0E0,0E0,0E0,0E0,0E0,0E0,0E0,0E0,0E0,0E0,0E0,0E0,0E0,0E0,0E0,0E0],"parents":[2147483647,0,0,1,1,2,2,3,3,4,4,6,6,9,9,10,10,11,11,12,12,16,16,17,17,18,18,19,19,20,20,22,22,23,23,24,24,25,25,27,27,28,28,29,29,30,30],"right_children":[2,4,6,8,10,-1,12,-1,-1,14,16,18,20,-1,-1,-1,22,24,26,28,30,-1,32,34,36,38,-1,40,42,44,46,-1,-1,-1,-1,-1,-1,-1,-1,-1,-1,-1,-1,-1,-1,-1,-1],"split_conditions":[-3.1993403E0,-1.1554992E0,-7.512407E0,-3.4289548E0,-8.095597E-1,8.160958E-1,-2.0058527E0,4.9708694E-2,9.6602434E-1,9.324875E-1,-1.7647547E-1,-2.0452906E-1,2.8700056E0,4.9430636E-1,-3.1213941E-2,-4.5211634E-1,5.7365E-1,-1.3001416E0,3.952753E0,-3.5725698E0,-1.08977154E-1,-1.5480128E-1,-1.1010313E0,-2.891677E-1,9.143815E-1,-6.699697E-1,-7.441347E-1,1.6731462E0,-2.4874592E0,-2.5351148E0,2.2888777E-1,2.2574889E-2,8.340378E-2,-2.9517826E-1,-1.8724035E-2,5.041599E-1,-8.736265E-3,1.06294714E-1,-2.0970954E-1,-2.8647187E-1,-9.206666E-1,-3.9305085E-1,-1.3664281E-1,-2.12401E-2,4.3670538E-1,-3.3068335E-1,3.6169402E-2],"split_indices":[44,19,26,0,4,0,47,0,0,0,12,37,18,0,0,0,4,11,49,16,59,0,1,9,46,58,0,23,37,1,56,0,0,0,0,0,0,0,0,0,0,0,0,0,0,0,0],"split_type":[0,0,0,0,0,0,0,0,0,0,0,0,0,0,0,0,0,0,0,0,0,0,0,0,0,0,0,0,0,0,0,0,0,0,0,0,0,0,0,0,0,0,0,0,0,0,0],"sum_hessian":[6.57E2,2.3E1,6.34E2,7E0,1.6E1,1E0,6.33E2,1E0,6E0,4E0,1.2E1,5.5E1,5.78E2,3E0,1E0,5E0,7E0,2.8E1,2.7E1,5.54E2,2.4E1,4E0,3E0,6E0,2.2E1,2.5E1,2E0,1.4E1,5.4E2,1.2E1,1.2E1,1E0,2E0,2E0,4E0,1.6E1,6E0,7E0,1.8E1,9E0,5E0,3.1E1,5.09E2,3E0,9E0,3E0,9E0],"tree_param":{"num_deleted":"0","num_feature":"60","num_nodes":"47","size_leaf_vector":"0"}},{"base_weights":[-2.771671E-1,2.3423386E0,-2.9274094E-1,3.5264843E0,-6.0504943E-1,-4.02171E-1,-4.7102693E-2,-1.8119522E0,-3.629865E-1,1.8868567E0,-9.545794E-2,-2.3517377E0,-8.802106E-1,-4.216139E-1,3.7641412E-1,4.9451035E-1,-2.7606612E-1,-9.582224E-1,-2.4507578E-1,-4.6049085E-1,7.1094024E-1,2.0800226E0,6.970872E-2,1.0002902E0,8.281084E-2,-4.139438E-2,-6.705765E-1,-8.743634E-1,-3.5163626E-1,-4.02788E-1,1.5965849E0,2.3863463E0,4.2736417E-1,-1.1383624E0,3.6882195E-1,1.5448031E0,1.02628194E-1,1.1654154E0,-1.5613844E-1,1.0098961E-1,-8.2649285E-1,5.6788874E-1,-8.5531944E-1],"categories":[],"categories_nodes":[],"categories_segments":[],"categories_sizes":[],"default_left":[1,1,1,0,0,1,1,1,1,0,1,0,1,1,1,1,1,0,0,1,1,1,1,1,1,1,1,0,0,0,0,0,0,0,0,0,0,0,0,0,0,0,0],"id":2,"left_children":[1,3,5,-1,-1,7,9,11,13,-1,15,-1,17,19,21,23,25,-1,-1,27,29,31,33,35,37,39,41,-1,-1,-1,-1,-1,-1,-1,-1,-1,-1,-1,-1,-1,-1,-1,-1],"loss_changes":[2.7529282E1,1.6094244E1,1.7587593E1,0E0,0E0,2.4366714E1,1.9164083E1,3.9652634E0,1.931902E1,0E0,2.1340584E1,0E0,6.2450886E-2,1.8379776E1,1.7097702E1,9.703942E0,1.4137051E1,0E0,0E0,1.7578156E1,1.4452231E1,1.5114021E0,1.0899005E1,1.010602E1,7.16653E0,1.0926656E1,1.3527195E1,0E0,0E0,0E0,0E0,0E0,0E0,0E0,0E0,0E0,0E0,0E0,0E0,0E0,0E0,0E0,0E0],"parents":[2147483647,0,0,1,1,2,2,5,5,6,6,7,7,8,8,10,10,12,12,13,13,14,14,15,15,16,16,19,19,20,20,21,21,22,22,23,23,24,24,25,25,26,26],"right_children":[2,4,6,-1,-1,8,10,12,14,-1,16,-1,18,20,22,24,26,-1,-1,28,30,32,34,36,38,40,42,-1,-1,-1,-1,-1,-1,-1,-1,-1,-1,-1,-1,-1,-1,-1,-1],"split_conditions":[-5.8223467E0,-5.003739E-1,5.591158E-1,1.0579454E0,-1.8151483E-1,-3.2922156E0,-4.0655646E0,3.0653548E-1,1.977293E0,5.66057E-1,-1.0237156E0,-7.0552135E-1,1.8144283E0,2.6098542E0,-1.7929612E0,-1.545524E-1,3.9607704E-1,-2.8746673E-1,-7.352274E-2,-9.98376E-1,3.087144E-1,1.1352513E0,-1.6082919E0,1.6753432E-1,-2.173187E0,1.1501467E0,-1.6496973E0,-2.6230904E-1,-1.05490886E-1,-1.2083641E-1,4.789755E-1,7.1590394E-1,1.2820926E-1,-3.4150875E-1,1.1064659E-1,4.6344095E-1,3.0788459E-2,3.4962463E-1,-4.6841532E-2,3.0296884E-2,-2.4794786E-1,1.7036663E-1,-2.5659585E-1],"split_indices":[56,0,22,0,0,16,33,28,20,0,13,0,0,13,55,6,59,0,0,15,9,3,41,37,9,37,38,0,0,0,0,0,0,0,0,0,0,0,0,0,0,0,0],"split_type":[0,0,0,0,0,0,0,0,0,0,0,0,0,0,0,0,0,0,0,0,0,0,0,0,0,0,0,0,0,0,0,0,0,0,0,0,0,0,0,0,0,0,0],"sum_hessian":[6.57E2,3E0,6.54E2,2E0,1E0,4.52E2,2.02E2,1.1E1,4.41E2,4E0,1.98E2,6E0,5E0,4.09E2,3.2E1,4.6E1,1.52E2,4E0,1E0,3.96E2,1.3E1,4E0,2.8E1,2E1,2.6E1,9.6E1,5.6E1,8.1E1,3.15E2,6E0,7E0,3E0,1E0,5E0,2.3E1,1.2E1,8E0,4E0,2.2E1,8.2E1,1.4E1,7E0,4.9E1],"tree_param":{"num_deleted":"0","num_feature":"60","num_nodes":"43","size_leaf_vector":"0"}},{"base_weights":[-1.9177882E-1,9.8138005E-2,-2.813121E-1,3.5845097E-2,2.4563074E0,-6.872556E-1,-1.7761174E-1,1.1277383E-1,-1.5847791E0,5.9013397E-1,2.8816538E0,-1.2611148E0,-2.645356E-1,-1.08649306E-1,-9.7159445E-1,4.9395546E-1,-1.341296E-1,-3.6486003E-1,-1.9997747E0,-1.7275871E0,-2.7519417E-1,4.3276486E-1,-5.9823006E-1,1.2051597E-1,-2.9684106E-1,-2.1292253E0,-4.9699983E-1,-1.0869713E0,6.6360843E-1,-7.9943925E-1,1.4864369E-1,-2.615652E0,-7.243498E-1,1.19917296E-1,-8.8784754E-1,-6.0897317E-2,1.0428962E0,-3.0046928E-1,-1.4912416E0,-1.2950486E0,2.0878723E-1,-1.3241378E0,-2.2573847E-1,-7.721182E-1,-3.060487E0,-1.1637755E-1,-1.6194705E0,-4.2633814E-1,-1.3107034E0,-1.5306193E-1,8.811426E-1,9.8470725E-2,-1.2538649E0,-2.0340085E-2,8.826017E-1,-6.127539E-1,-2.8766553E0,2.8979653E-2,-1.3871355E0,4.4106767E-1,-2.8944662E-1,-3.8162538E-1,-1.0455523E0,3.9380994E-1,-3.3747718E-1,1.4023921E0,4.748209E-1,-7.1816987E-1,1.6211693E-1,-1.7936289E0,-1.8779482E-1,-1.8776501E0,-3.3691695E-1,3.7541503E-1,-4.9133453E-1,5.493218E-1,-1.9411079E0,-1.3736683E-1,-9.788662E-1,-9.3856335E-1,-5.3168755E-2,-6.4584327E-1,3.2740143E-1],"categories":[],"categories_nodes":[],"categories_segments":[],"categories_sizes":[],"default_left":[1,1,1,1,1,1,1,1,1,0,0,1,1,1,1,1,1,0,0,1,1,1,1,1,1,1,1,1,1,1,1,1,1,1,1,1,1,1,1,1,1,1,1,1,0,1,0,0,0,0,0,0,0,0,0,0,0,0,0,0,0,0,0,0,0,0,0,0,0,0,0,0,0,0,0,0,0,0,0,0,0,0,0],"id":3,"left_children":[1,3,5,7,9,11,13,15,17,-1,-1,19,21,23,25,27,29,-1,-1,31,33,35,37,39,41,43,45,47,49,51,53,55,57,59,61,63,65,67,69,71,73,75,77,79,-1,81,-1,-1,-1,-1,-1,-1,-1,-1,-1,-1,-1,-1,-1,-1,-1,-1,-1,-1,-1,-1,-1,-1,-1,-1,-1,-1,-1,-1,-1,-1,-1,-1,-1,-1,-1,-1,-1],"loss_changes":[1.7107449E1,2.282792E1,2.1052479E1,1.9253626E1,1.4745197E0,2.4409737E1,2.1905935E1,1.3901168E1,2.81419E0,0E0,0E0,1.9300476E1,1.4220012E1,1.6035896E1,1.6522745E1,1.627744E1,1.7050694E1,0E0,0E0,2.3942612E1,3.737464E0,6.0874853E0,1.0453985E1,2.1262604E1,1.4601957E1,9.011341E0,1.0065227E1,3.280263E-1,9.550514E0,1.11403675E1,7.9556794E0,6.0787582E0,7.529639E0,1.4423392E0,7.999277E-2,1.6420565E0,1.172101E0,6.299549E0,3.6046238E0,4.949478E0,1.8733355E1,1.609258E1,1.2644122E1,5.4842615E-1,0E0,4.6757994E0,0E0,0E0,0E0,0E0,0E0,0E0,0E0,0E0,0E0,0E0,0E0,0E0,0E0,0E0,0E0,0E0,0E0,0E0,0E0,0E0,0E0,0E0,0E0,0E0,0E0,0E0,0E0,0E0,0E0,0E0,0E0,0E0,0E0,0E0,0E0,0E0,0E0],"parents":[2147483647,0,0,1,1,2,2,3,3,4,4,5,5,6,6,7,7,8,8,11,11,12,12,13,13,14,14,15,15,16,16,19,19,20,20,21,21,22,22,23,23,24,24,25,25,26,26,27,27,28,28,29,29,30,30,31,31,32,32,33,33,34,34,35,35,36,36,37,37,38,38,39,39,40,40,41,41,42,42,43,43,45,45],"right_children":[2,4,6,8,10,12,14,16,18,-1,-1,20,22,24,26,28,30,-1,-1,32,34,36,38,40,42,44,46,48,50,52,54,56,58,60,62,64,66,68,70,72,74,76,78,80,-1,82,-1,-1,-1,-1,-1,-1,-1,-1,-1,-1,-1,-1,-1,-1,-1,-1,-1,-1,-1,-1,-1,-1,-1,-1,-1,-1,-1,-1,-1,-1,-1,-1,-1,-1,-1,-1,-1],"split_conditions":[-9.3969697E-1,3.4598818E0,-1.0761027E0,3.2090685E0,-1.3977478E0,-3.183607E-1,2.0974903E0,-3.736221E-1,-1.3977478E0,1.7704019E-1,8.644962E-1,7.058118E-1,-8.1878066E-1,-4.9888004E-2,-3.378865E-1,-4.284005E0,-7.7291876E-1,-1.09458014E-1,-5.9993243E-1,3.746228E-1,7.2333825E-1,-1.7928627E-1,1.072181E0,-2.7892246E0,-2.493729E0,-1.3769242E-1,1.2709029E0,-8.325449E-1,-8.529334E-1,3.3519134E-2,1.9616618E0,-2.0871959E0,9.184595E-2,7.139816E-1,7.753855E-2,-1.3324894E-1,-2.256692E-1,1.8704972E-1,1.2085837E0,1.9547407E-1,1.1226009E0,1.60772E-1,1.5427928E0,-2.9523695E-1,-9.1814613E-1,-2.1760242E-1,-4.8584116E-1,-1.2790145E-1,-3.9321104E-1,-4.591858E-2,2.6434278E-1,2.9541219E-2,-3.761595E-1,-6.102026E-3,2.6478052E-1,-1.8382618E-1,-8.6299664E-1,8.693896E-3,-4.1614068E-1,1.323203E-1,-8.683399E-2,-1.1448762E-1,-3.136657E-1,1.18142985E-1,-1.0124316E-1,4.2071766E-1,1.4244628E-1,-2.1545097E-1,4.863508E-2,-5.380887E-1,-5.6338448E-2,-5.6329507E-1,-1.0107509E-1,1.1262451E-1,-1.4740036E-1,1.6479653E-1,-5.823324E-1,-4.121005E-2,-2.9365987E-1,-2.81569E-1,-1.5950628E-2,-1.9375299E-1,9.822043E-2],"split_indices":[55,46,26,48,0,46,17,18,2,0,0,17,2,35,5,55,49,0,0,35,39,5,50,40,52,51,53,1,14,47,18,17,13,6,1,58,6,52,19,53,4,35,52,2,0,35,0,0,0,0,0,0,0,0,0,0,0,0,0,0,0,0,0,0,0,0,0,0,0,0,0,0,0,0,0,0,0,0,0,0,0,0,0],"split_type":[0,0,0,0,0,0,0,0,0,0,0,0,0,0,0,0,0,0,0,0,0,0,0,0,0,0,0,0,0,0,0,0,0,0,0,0,0,0,0,0,0,0,0,0,0,0,0,0,0,0,0,0,0,0,0,0,0,0,0,0,0,0,0,0,0,0,0,0,0,0,0,0,0,0,0,0,0,0,0,0,0,0,0],"sum_hessian":[6.57E2,1.55E2,5.02E2,1.52E2,3E0,1.01E2,4.01E2,1.46E2,6E0,1E0,2E0,4.2E1,5.9E1,3.7E2,3.1E1,5.7E1,8.9E1,2E0,4E0,2.8E1,1.4E1,1.9E1,4E1,1.67E2,2.03E2,8E0,2.3E1,5E0,5.2E1,2.6E1,6.3E1,1.4E1,1.4E1,9E0,5E0,1.1E1,8E0,3.1E1,9E0,9E0,1.58E2,1.2E1,1.91E2,4E0,4E0,1.8E1,5E0,2E0,3E0,1.1E1,4.1E1,9E0,1.7E1,5.2E1,1.1E1,2E0,1.2E1,7E0,7E0,5E0,4E0,2E0,3E0,4E0,7E0,4E0,4E0,1.6E1,1.5E1,7E0,2E0,5E0,4E0,1.28E2,3E1,3E0,9E0,1.72E2,1.9E1,3E0,1E0,8E0,1E1],"tree_param":{"num_deleted":"0","num_feature":"60","num_nodes":"83","size_leaf_vector":"0"}},{"base_weights":[-1.4233817E-1,1.7173586E0,-1.5347779E-1,2.4449077E0,-2.3264447E-1,7.6482177E-1,-1.7326395E-1,2.9043384E0,7.6302326E-1,-7.794949E-1,1.460498E0,-2.2343813E-1,1.8713482E-1,1.8327221E-2,-1.3174853E0,5.7446074E-1,1.6101997E0,-2.4008122E-1,9.632667E-1,-2.5503853E-1,4.3489742E-1,4.2663015E-2,-1.51721835E-2,-8.382081E-1,-1.9959456E-1,-2.5891066E-2,1.5619396E0,1.6251631E-1,-6.5559083E-1,-1.3182032E-1,6.322435E-1,-1.4698676E0,1.0199571E-1,6.124845E-2,-3.1267524E-1,6.790223E-2,-1.5363547E-1,4.5558125E-1,1.7246338E0,-3.826353E-1,5.684657E-1,-5.965218E-2,-7.996045E-1,4.8912134E-2,-5.9587944E-1,2.3327546E-1,9.79651E-1],"categories":[],"categories_nodes":[],"categories_segments":[],"categories_sizes":[],"default_left":[1,1,1,1,0,1,1,0,0,1,1,1,1,1,0,0,0,1,1,1,1,0,0,1,1,1,1,1,1,1,1,0,0,0,0,0,0,0,0,0,0,0,0,0,0,0,0],"id":4,"left_children":[1,3,5,7,-1,9,11,-1,-1,13,15,17,19,21,-1,-1,-1,23,25,27,29,-1,-1,31,33,35,37,39,41,43,45,-1,-1,-1,-1,-1,-1,-1,-1,-1,-1,-1,-1,-1,-1,-1,-1],"loss_changes":[1.3894909E1,6.2436876E0,1.2033621E1,1.0205078E-1,0E0,1.617927E1,1.1650913E1,0E0,0E0,2.1702492E0,4.0141678E-1,1.1370504E1,8.765683E0,3.092995E-3,0E0,0E0,0E0,1.3321102E1,4.7778955E0,4.956867E0,5.787159E0,0E0,0E0,2.0936022E1,1.5445719E1,5.8358464E-2,1.142807E-1,3.5370748E0,1.2396517E0,1.2033335E0,5.0384426E0,0E0,0E0,0E0,0E0,0E0,0E0,0E0,0E0,0E0,0E0,0E0,0E0,0E0,0E0,0E0,0E0],"parents":[2147483647,0,0,1,1,2,2,3,3,5,5,6,6,9,9,10,10,11,11,12,12,13,13,17,17,18,18,19,19,20,20,23,23,24,24,25,25,26,26,27,27,28,28,29,29,30,30],"right_children":[2,4,6,8,-1,10,12,-1,-1,14,16,18,20,22,-1,-1,-1,24,26,28,30,-1,-1,32,34,36,38,40,42,44,46,-1,-1,-1,-1,-1,-1,-1,-1,-1,-1,-1,-1,-1,-1,-1,-1],"split_conditions":[-5.8223467E0,-5.003739E-1,-3.9622526E0,-9.7457373E-1,-6.979334E-2,-1.0711136E0,1.4453043E0,8.7130153E-1,2.2890699E-1,4.6047473E-1,-1.1442957E0,4.1938543E0,-4.6390212E-1,-5.618902E-1,-3.952456E-1,1.7233823E-1,4.830599E-1,-2.5050912E0,2.4584597E-1,3.2079238E-1,-1.2800043E0,1.2798905E-2,-4.551655E-3,4.1566938E-1,-5.602851E-1,2.0893397E0,-2.7966163E-1,-2.4181E-1,-1.1687158E-1,1.6446667E0,-1.2654439E-1,-4.409603E-1,3.0598713E-2,1.8374536E-2,-9.380258E-2,2.037067E-2,-4.6090644E-2,1.3667437E-1,5.173902E-1,-1.14790596E-1,1.7053972E-1,-1.7895654E-2,-2.3988135E-1,1.4673641E-2,-1.7876384E-1,6.998264E-2,2.938953E-1],"split_indices":[56,0,38,0,0,1,5,0,0,2,0,13,36,0,0,0,0,52,10,40,40,0,0,9,3,0,1,40,35,19,42,0,0,0,0,0,0,0,0,0,0,0,0,0,0,0,0],"split_type":[0,0,0,0,0,0,0,0,0,0,0,0,0,0,0,0,0,0,0,0,0,0,0,0,0,0,0,0,0,0,0,0,0,0,0,0,0,0,0,0,0,0,0,0,0,0,0],"sum_hessian":[6.57E2,3E0,6.54E2,2E0,1E0,1.3E1,6.41E2,1E0,1E0,4E0,9E0,5.63E2,7.8E1,2E0,2E0,2E0,7E0,5.56E2,7E0,2.8E1,5E1,1E0,1E0,3.4E1,5.22E2,3E0,4E0,1.4E1,1.4E1,1.3E1,3.7E1,2E1,1.4E1,1.58E2,3.64E2,2E0,1E0,1E0,3E0,6E0,8E0,3E0,1.1E1,1E1,3E0,1.8E1,1.9E1],"tree_param":{"num_deleted":"0","num_feature":"60","num_nodes":"47","size_leaf_vector":"0"}},{"base_weights":[-9.7449586E-2,-5.475744E-1,-6.430127E-2,4.274108E-1,-8.031933E-1,-1.07415795E-1,4.1375554E-1,-2.0979384E-1,8.871795E-1,8.759506E-1,-9.2772967E-1,2.8264454E-1,-1.5790881E-1,8.0975646E-4,1.4047714E0,5.2880853E-2,-6.302463E-1,2.5624368E-1,9.6211797E-1,-3.8604304E-1,-1.1700127E0,-4.56929E-1,5.33463E-1,-1.3724111E0,-1.4286856E-1,1.7203018E-1,-5.5099046E-1,2.4434133E0,4.4085318E-1,9.0122424E-2,-2.9421926E-2,1.4754719E-1,-1.1625788E0,-1.8422891E-1,-1.2551241E0,-1.3919251E0,4.864649E-2,-3.0049518E-1,6.796107E-1,-2.396839E0,-2.609874E-1,-1.2302911E-1,-1.0927789E0,-1.3974243E-1,5.1605386E-1,-1.5577622E-1,-8.3600664E-1,4.8878732E-1,3.1275063E0,8.61066E-1,-6.75303E-2,-6.416632E-2,3.7530228E-1,3.2135278E-2,-3.0847865E-1,-4.173218E-1,-1.3715732E0,-1.6563038E0,-3.501612E-2,-3.56331E-1,3.8882056E-1,2.5443444E-1,-5.2787745E-1,8.1712383E-1,-6.960444E-3,-3.968976E-1,-8.338481E-2,-1.0612639E0,-1.031017E-1,-1.7802329E0,-4.9278177E-2,9.8146313E-1,-3.7001917E-1,4.2114735E-2,7.0141804E-1,-2.1275222E-1,-4.6874817E-2,-2.3174879E-1,1.191983E-1],"categories":[],"categories_nodes":[],"categories_segments":[],"categories_sizes":[],"default_left":[1,1,1,1,1,1,1,1,1,0,1,1,1,1,1,1,0,0,0,1,1,1,1,1,1,1,1,1,1,0,0,1,0,1,1,1,1,1,1,0,1,1,1,1,1,1,0,0,0,0,1,0,0,0,0,0,0,0,0,0,0,0,0,0,0,0,0,0,0,0,0,0,0,0,0,0,0,0,0],"id":5,"left_children":[1,3,5,7,9,11,13,15,17,-1,19,21,23,25,27,29,-1,-1,-1,31,33,35,37,39,41,43,45,47,49,-1,-1,51,-1,53,55,57,59,61,63,-1,65,67,69,71,73,75,-1,-1,-1,-1,77,-1,-1,-1,-1,-1,-1,-1,-1,-1,-1,-1,-1,-1,-1,-1,-1,-1,-1,-1,-1,-1,-1,-1,-1,-1,-1,-1,-1],"loss_changes":[9.78273E0,1.1558399E1,1.2699718E1,3.1157928E0,8.340769E0,1.1152794E1,2.0869892E1,5.8553904E-1,3.7151337E-2,0E0,4.010536E0,1.230117E1,8.937132E0,3.5905275E0,1.3940304E1,1.4911913E-2,0E0,0E0,0E0,5.143758E0,1.6985035E0,8.103802E0,6.1763935E0,6.2058945E0,9.194177E0,3.1825724E0,8.835521E-1,7.831337E0,1.9808114E0,0E0,0E0,4.0983248E-1,0E0,9.056262E-2,1.4763985E0,2.094428E0,1.7917029E0,1.1437595E0,3.971012E0,0E0,6.34568E-2,8.977126E0,7.085863E0,4.494161E0,1.2003787E0,2.1051116E-2,0E0,0E0,0E0,0E0,1.8094552E-1,0E0,0E0,0E0,0E0,0E0,0E0,0E0,0E0,0E0,0E0,0E0,0E0,0E0,0E0,0E0,0E0,0E0,0E0,0E0,0E0,0E0,0E0,0E0,0E0,0E0,0E0,0E0,0E0],"parents":[2147483647,0,0,1,1,2,2,3,3,4,4,5,5,6,6,7,7,8,8,10,10,11,11,12,12,13,13,14,14,15,15,19,19,20,20,21,21,22,22,23,23,24,24,25,25,26,26,27,27,28,28,31,31,33,33,34,34,35,35,36,36,37,37,38,38,40,40,41,41,42,42,43,43,44,44,45,45,50,50],"right_children":[2,4,6,8,10,12,14,16,18,-1,20,22,24,26,28,30,-1,-1,-1,32,34,36,38,40,42,44,46,48,50,-1,-1,52,-1,54,56,58,60,62,64,-1,66,68,70,72,74,76,-1,-1,-1,-1,78,-1,-1,-1,-1,-1,-1,-1,-1,-1,-1,-1,-1,-1,-1,-1,-1,-1,-1,-1,-1,-1,-1,-1,-1,-1,-1,-1,-1],"split_conditions":[-2.5950694E0,-1.5356953E0,1.8233571E0,-2.642447E0,-2.2123833E0,-1.8612814E0,9.5067054E-1,2.9508936E0,-1.7022524E0,2.627852E-1,-6.484395E-1,-1.060914E0,-5.680971E0,9.6302736E-1,-3.1887138E-1,1.3316907E0,-1.8907389E-1,7.687311E-2,2.886354E-1,1.0488197E0,-1.7418149E0,-7.511796E-1,-1.1731981E0,-8.736297E-1,2.8568754E0,-1.7269723E-1,-1.00681245E-1,-7.3619574E-1,3.179149E-1,2.7036728E-2,-8.826578E-3,1.5949951E-1,-3.4877366E-1,-4.5154217E-1,-1.6349221E0,1.156448E0,-3.496035E0,-3.712943E0,8.9331514E-1,-7.190517E-1,-1.2006783E0,-3.6211987E0,3.032096E-1,-2.0472133E0,-8.657131E-1,2.5745916E-1,-2.50802E-1,1.466362E-1,9.382519E-1,2.583198E-1,-3.1771025E-1,-1.9249897E-2,1.1259069E-1,9.640584E-3,-9.25436E-2,-1.2519655E-1,-4.11472E-1,-4.9689114E-1,-1.0504836E-2,-1.068993E-1,1.1664617E-1,7.6330334E-2,-1.5836324E-1,2.4513716E-1,-2.0881332E-3,-1.19069286E-1,-2.5015445E-2,-3.183792E-1,-3.0930512E-2,-5.340699E-1,-1.4783454E-2,2.9443896E-1,-1.1100575E-1,1.2634421E-2,2.1042542E-1,-6.382567E-2,-1.4062446E-2,-6.952464E-2,3.575949E-2],"split_indices":[5,23,14,2,57,17,11,0,1,0,52,46,58,40,37,0,0,0,0,41,1,52,48,10,38,59,43,9,10,0,0,3,0,0,14,2,17,17,34,0,0,42,8,56,45,0,0,0,0,0,7,0,0,0,0,0,0,0,0,0,0,0,0,0,0,0,0,0,0,0,0,0,0,0,0,0,0,0,0],"split_type":[0,0,0,0,0,0,0,0,0,0,0,0,0,0,0,0,0,0,0,0,0,0,0,0,0,0,0,0,0,0,0,0,0,0,0,0,0,0,0,0,0,0,0,0,0,0,0,0,0,0,0,0,0,0,0,0,0,0,0,0,0,0,0,0,0,0,0,0,0,0,0,0,0,0,0,0,0,0,0],"sum_hessian":[6.57E2,4.4E1,6.13E2,9E0,3.5E1,5.63E2,5E1,4E0,5E0,2E0,3.3E1,6.4E1,4.99E2,3.6E1,1.4E1,3E0,1E0,1E0,4E0,1.1E1,2.2E1,1.6E1,4.8E1,5E0,4.94E2,2.8E1,8E0,6E0,8E0,2E0,1E0,7E0,4E0,2E0,2E1,5E0,1.1E1,7E0,4.1E1,2E0,3E0,4.85E2,9E0,1.5E1,1.3E1,4E0,4E0,2E0,4E0,4E0,4E0,4E0,3E0,1E0,1E0,3E0,1.7E1,4E0,1E0,5E0,6E0,2E0,5E0,3.4E1,7E0,1E0,2E0,9E0,4.76E2,5E0,4E0,2E0,1.3E1,4E0,9E0,2E0,2E0,2E0,2E0],"tree_param":{"num_deleted":"0","num_feature":"60","num_nodes":"79","size_leaf_vector":"0"}},{"base_weights":[-6.992938E-2,1.0370077E-1,-1.4597684E-1,-4.0805352E-1,2.2164567E-1,-1.0439668E-1,-6.962503E-1,-7.010056E-1,4.8231286E-1,3.724834E-1,-1.1039873E-1,-1.400236E0,-8.572504E-2,-1.0625477E0,2.7910068E-3,-9.263031E-2,-1.2626472E0,-2.7271828E-1,1.0311201E0,1.0372527E-1,6.540151E-1,-1.4780079E0,3.495863E-3,1.3029084E-1,-2.1980722E0,-9.340925E-1,-6.0746606E-2,-3.2720864E-1,-1.7012916E0,3.5760772E-1,-5.654739E-1,2.4951407E-1,-6.4743257E-1,-5.038538E-1,-1.8636097E0,8.682393E-2,-5.413544E-1,1.3752387E0,5.1525104E-1,2.0794664E-1,-8.5155463E-1,9.9180967E-1,-3.8217116E-2,-1.7228485E0,-3.717429E-1,2.8331697E-1,-2.9978934E-1,-1.593975E0,-8.5475E-3,4.6897445E-2,-2.6281306E-1,-7.0681745E-1,1.0693495E-1,-8.607453E-1,-2.537798E0,6.0946107E-1,-4.66109E-2,-1.457619E-1,-6.3396144E-1,4.7213015E-1,-6.752804E-2,-2.8176218E-1,-9.1918224E-1,4.0840337E-1,-6.925196E-1,-2.229596E0,-5.1043403E-1,1.2440589E-1,5.830005E-3,1.1086376E-1,1.1371862E0,1.564671E0,3.667478E-1,-4.9955487E-1,5.298865E-1,3.9931127E-1,-1.30827E0,4.3731356E-1,-4.2591423E-1,-2.06771E0,-2.7309185E-1,-1.0057542E0,3.920447E-1,1.2120137E0,1.5708428E-2,-3.4552503E-1,8.718083E-1,-1.18952274E-1,1.7590284E-1,6.701385E-1,1.8337567E-1,1.4602062E-2,-1.15124896E-1],"categories":[],"categories_nodes":[],"categories_segments":[],"categories_sizes":[],"default_left":[1,1,1,1,1,1,1,1,1,1,1,1,1,1,1,1,1,1,1,1,1,1,1,0,0,1,1,1,1,1,1,1,1,1,1,1,0,0,0,1,0,1,1,0,0,1,1,1,1,1,1,0,1,0,0,1,1,0,0,0,0,0,0,0,0,0,0,0,0,0,0,0,0,0,0,0,0,0,0,0,0,0,0,0,0,0,0,0,0,0,0,0,0],"id":6,"left_children":[1,3,5,7,9,11,13,15,17,19,21,23,25,27,29,31,33,35,37,39,41,43,45,-1,-1,47,49,51,53,55,57,59,61,63,65,67,-1,-1,-1,69,-1,71,73,-1,-1,75,77,79,81,83,85,-1,87,-1,-1,89,91,-1,-1,-1,-1,-1,-1,-1,-1,-1,-1,-1,-1,-1,-1,-1,-1,-1,-1,-1,-1,-1,-1,-1,-1,-1,-1,-1,-1,-1,-1,-1,-1,-1,-1,-1,-1],"loss_changes":[8.703456E0,1.2222563E1,1.0406565E1,1.0249823E1,8.255032E0,1.0211421E1,8.19679E0,9.792018E0,4.4248705E0,8.482188E0,8.104858E0,7.6130466E0,8.885812E0,9.306881E0,2.6217766E0,3.0088806E0,5.901108E0,5.2993274E-1,3.5652733E-1,6.051152E0,1.289868E1,4.429779E-1,4.24335E0,0E0,0E0,7.315387E0,8.95209E0,1.8884356E0,5.549946E0,8.4283805E-1,5.131781E-2,7.376688E-1,3.3723402E-1,1.6597211E0,2.8238888E0,8.4064435E-3,0E0,0E0,0E0,4.7454433E0,0E0,1.2674892E1,5.2443724E0,0E0,0E0,5.3223968E0,2.4174662E0,3.815565E0,2.7911398E0,9.756107E0,1.3721315E1,0E0,1.14397846E-1,0E0,0E0,6.38175E-3,1.8456839E-2,0E0,0E0,0E0,0E0,0E0,0E0,0E0,0E0,0E0,0E0,0E0,0E0,0E0,0E0,0E0,0E0,0E0,0E0,0E0,0E0,0E0,0E0,0E0,0E0,0E0,0E0,0E0,0E0,0E0,0E0,0E0,0E0,0E0,0E0,0E0,0E0],"parents":[2147483647,0,0,1,1,2,2,3,3,4,4,5,5,6,6,7,7,8,8,9,9,10,10,11,11,12,12,13,13,14,14,15,15,16,16,17,17,18,18,19,19,20,20,21,21,22,22,25,25,26,26,27,27,28,28,29,29,30,30,31,31,32,32,33,33,34,34,35,35,39,39,41,41,42,42,45,45,46,46,47,47,48,48,49,49,50,50,52,52,55,55,56,56],"right_children":[2,4,6,8,10,12,14,16,18,20,22,24,26,28,30,32,34,36,38,40,42,44,46,-1,-1,48,50,52,54,56,58,60,62,64,66,68,-1,-1,-1,70,-1,72,74,-1,-1,76,78,80,82,84,86,-1,88,-1,-1,90,92,-1,-1,-1,-1,-1,-1,-1,-1,-1,-1,-1,-1,-1,-1,-1,-1,-1,-1,-1,-1,-1,-1,-1,-1,-1,-1,-1,-1,-1,-1,-1,-1,-1,-1,-1,-1],"split_conditions":[-6.743993E-1,-8.937447E-1,2.0974903E0,1.1355026E0,5.5387926E-1,-5.128566E0,5.405364E-1,5.1411474E-1,1.0330606E0,-3.6433917E-2,-3.6211987E0,-5.66744E-1,-3.01307E0,-3.9483002E-1,5.274852E-1,2.1165031E-1,-2.2654146E-2,4.8340598E-1,2.8628594E-1,2.7911806E0,4.6596757E-1,-5.4380673E-1,1.946106E-1,3.908725E-2,-6.594217E-1,1.391448E0,4.4924623E-1,-1.4542836E-1,5.4814246E-2,-4.569956E-1,-2.5420961E0,3.2194448E-1,1.5582916E-1,-9.94531E-1,8.1466484E-1,4.7246763E-1,-1.6240633E-1,4.125716E-1,1.5457532E-1,3.0440106E0,-2.554664E-1,7.043142E-1,2.0103006E-1,-5.168546E-1,-1.11522876E-1,2.5491748E0,-1.8703777E0,3.1726488E-1,-1.2839093E0,-3.8306546E0,2.089189E0,-2.1204524E-1,-2.0938368E0,-2.582236E-1,-7.613394E-1,-4.886329E-1,2.4309964E0,-4.3728575E-2,-1.9018844E-1,1.4163905E-1,-2.0258412E-2,-8.4528655E-2,-2.757547E-1,1.2252101E-1,-2.077559E-1,-6.688788E-1,-1.5313022E-1,3.732177E-2,1.7490016E-3,3.325913E-2,3.4115586E-1,4.6940133E-1,1.1002434E-1,-1.4986646E-1,1.5896595E-1,1.19793385E-1,-3.92481E-1,1.3119407E-1,-1.2777427E-1,-6.20313E-1,-8.192756E-2,-3.0172628E-1,1.1761341E-1,3.6360413E-1,4.7125285E-3,-1.03657514E-1,2.615425E-1,-3.5685685E-2,5.2770857E-2,2.0104155E-1,5.5012703E-2,4.3806187E-3,-3.453747E-2],"split_indices":[33,31,17,15,36,57,56,59,52,26,59,3,49,51,5,3,13,2,12,58,35,0,7,0,0,50,41,30,9,23,0,11,4,3,0,0,0,0,0,3,0,26,47,0,0,54,56,6,4,59,58,0,2,0,0,0,0,0,0,0,0,0,0,0,0,0,0,0,0,0,0,0,0,0,0,0,0,0,0,0,0,0,0,0,0,0,0,0,0,0,0,0,0],"split_type":[0,0,0,0,0,0,0,0,0,0,0,0,0,0,0,0,0,0,0,0,0,0,0,0,0,0,0,0,0,0,0,0,0,0,0,0,0,0,0,0,0,0,0,0,0,0,0,0,0,0,0,0,0,0,0,0,0,0,0,0,0,0,0,0,0,0,0,0,0,0,0,0,0,0,0,0,0,0,0,0,0,0,0,0,0,0,0,0,0,0,0,0,0],"sum_hessian":[6.57E2,2E2,4.57E2,3.7E1,1.63E2,4.26E2,3.1E1,2.8E1,9E0,1.12E2,5.1E1,5E0,4.21E2,2E1,1.1E1,1.4E1,1.4E1,4E0,5E0,5.8E1,5.4E1,3E0,4.8E1,2E0,3E0,1.1E1,4.1E2,1E1,1E1,7E0,4E0,9E0,5E0,7E0,7E0,2E0,2E0,2E0,3E0,5.3E1,5E0,3.6E1,1.8E1,2E0,1E0,2.5E1,2.3E1,6E0,5E0,2.68E2,1.42E2,5E0,5E0,6E0,4E0,4E0,3E0,1E0,3E0,5E0,4E0,3E0,2E0,1E0,6E0,5E0,2E0,1E0,1E0,4.9E1,4E0,1.8E1,1.8E1,1E1,8E0,2.4E1,1E0,3E0,2E1,4E0,2E0,1E0,4E0,6E0,2.62E2,1.33E2,9E0,1E0,4E0,3E0,1E0,2E0,1E0],"tree_param":{"num_deleted":"0","num_feature":"60","num_nodes":"93","size_leaf_vector":"0"}},{"base_weights":[-5.3655032E-2,-1.03506505E-1,1.2986778E-1,1.0785656E0,-1.1713014E-1,2.871765E-1,-2.6081628E-1,1.4245137E0,-3.2558757E-1,1.5478574E-2,-2.2753482E-1,2.5475103E-1,1.7648609E0,-5.125944E-1,3.903637E-1,4.3030536E-1,1.5654894E0,1.4674903E-1,-4.7053173E-1,-7.5217104E-1,-1.5680687E-1,1.9580932E-1,9.081045E-1,-9.1297895E-1,-1.051967E-1,1.1151781E0,-2.866721E-1,-8.161218E-1,2.0062381E-1,-1.20144226E-1,-9.4867903E-1,-2.9571363E-1,-1.5263287E0,5.1786333E-1,-1.9633272E-1,-1.3419877E-1,3.1910932E-1,1.0872656E0,4.5712692E-1,-1.1930693E0,-2.9399848E-1,-2.799039E-1,7.451691E-1,3.3594525E-1,1.2038357E0,-5.583714E-1,2.6171753E-1,2.6716998E-2,-1.664304E0,-1.5665429E0,2.2993919E-1,1.3495529E-1,-4.213262E-1,-1.2357227E0,-2.51162E-2,-5.8473762E-2,-6.318964E-1,-2.0445287E0,-3.91943E-1,1.8686336E-1,1.0762906E0,-4.9152544E-1,-1.0766932E-1,6.7997925E-2,-5.2368116E-1,-2.9858688E-1,3.6238077E-1,-1.5164266E0,-7.247602E-1,6.993536E-2,-3.8077232E-1,-5.0155246E-1,-1.0103774E-1,3.2867628E-1,6.3900016E-2],"categories":[],"categories_nodes":[],"categories_segments":[],"categories_sizes":[],"default_left":[1,1,1,1,1,1,1,1,0,1,1,1,0,1,1,0,0,1,1,1,1,1,1,1,1,1,1,1,1,1,1,1,1,1,1,1,1,0,0,1,1,1,0,0,0,0,1,0,0,0,0,0,0,0,0,0,0,0,0,0,0,0,0,0,0,0,0,0,0,0,0,0,0,0,0],"id":7,"left_children":[1,3,5,7,9,11,13,15,-1,17,19,21,-1,23,25,-1,-1,27,29,31,33,35,37,39,41,43,45,47,49,51,53,55,57,59,61,63,65,-1,-1,67,69,71,-1,-1,-1,-1,73,-1,-1,-1,-1,-1,-1,-1,-1,-1,-1,-1,-1,-1,-1,-1,-1,-1,-1,-1,-1,-1,-1,-1,-1,-1,-1,-1,-1],"loss_changes":[6.0334063E0,8.468267E0,8.740478E0,3.378389E0,7.5141616E0,4.3897734E0,6.922166E0,2.715683E-2,0E0,1.4997969E1,1.0271857E1,3.673161E0,0E0,4.79743E0,6.208394E0,0E0,0E0,9.760507E0,8.262863E0,1.1209852E1,6.7150702E0,3.8269947E0,1.4936352E-1,2.2497969E0,2.5856159E0,1.0086536E-2,1.1891153E0,7.1932745E0,9.477919E0,2.3618016E0,5.5361214E0,1.7176813E0,6.2527275E0,2.386633E0,6.097684E0,2.0831628E0,1.9257464E0,0E0,0E0,4.1526604E-1,2.161091E-1,5.043602E-1,0E0,0E0,0E0,0E0,1.873441E-2,0E0,0E0,0E0,0E0,0E0,0E0,0E0,0E0,0E0,0E0,0E0,0E0,0E0,0E0,0E0,0E0,0E0,0E0,0E0,0E0,0E0,0E0,0E0,0E0,0E0,0E0,0E0,0E0],"parents":[2147483647,0,0,1,1,2,2,3,3,4,4,5,5,6,6,7,7,9,9,10,10,11,11,13,13,14,14,17,17,18,18,19,19,20,20,21,21,22,22,23,23,24,24,25,25,26,26,27,27,28,28,29,29,30,30,31,31,32,32,33,33,34,34,35,35,36,36,39,39,40,40,41,41,46,46],"right_children":[2,4,6,8,10,12,14,16,-1,18,20,22,-1,24,26,-1,-1,28,30,32,34,36,38,40,42,44,46,48,50,52,54,56,58,60,62,64,66,-1,-1,68,70,72,-1,-1,-1,-1,74,-1,-1,-1,-1,-1,-1,-1,-1,-1,-1,-1,-1,-1,-1,-1,-1,-1,-1,-1,-1,-1,-1,-1,-1,-1,-1,-1,-1],"split_conditions":[9.285499E-1,-5.434781E0,7.900265E-1,1.1234733E0,-5.847983E-2,4.42216E0,9.9953073E-1,-2.8622801E0,-9.767628E-2,9.990039E-1,-1.8030915E0,1.4275391E0,5.294583E-1,1.3805299E0,1.4476754E-1,1.2909162E-1,4.6964684E-1,-2.7892246E0,4.2956084E-1,4.4331732E-1,-2.556336E0,-1.3098323E0,-2.9226065E-2,8.2353103E-1,9.6804833E-1,-1.6763291E0,-2.4966799E-1,1.615985E-1,-5.385248E0,5.100616E-1,6.912949E-1,2.3891912E-1,7.013866E-1,6.880738E-1,-7.6149875E-1,6.565684E-1,-2.6258829E0,3.2617968E-1,1.3713808E-1,1.1146878E-1,-7.4142724E-1,-8.593716E-1,2.2355074E-1,1.0078358E-1,3.6115074E-1,-1.6751143E-1,-4.663956E-1,8.0151E-3,-4.992912E-1,-4.6996287E-1,6.898176E-2,4.048659E-2,-1.2639786E-1,-3.707168E-1,-7.53486E-3,-1.754213E-2,-1.8956892E-1,-6.133586E-1,-1.1758291E-1,5.605901E-2,3.2288718E-1,-1.4745764E-1,-3.23008E-2,2.0399379E-2,-1.5710436E-1,-8.9576066E-2,1.0871424E-1,-4.5492798E-1,-2.1742806E-1,2.0980608E-2,-1.142317E-1,-1.5046574E-1,-3.0311324E-2,9.860289E-2,1.9170005E-2],"split_indices":[46,13,17,0,35,47,15,0,0,10,26,59,0,17,7,0,0,40,33,37,14,40,27,30,5,2,9,55,57,19,42,49,1,16,49,34,47,0,0,8,0,54,0,0,0,0,0,0,0,0,0,0,0,0,0,0,0,0,0,0,0,0,0,0,0,0,0,0,0,0,0,0,0,0,0],"split_type":[0,0,0,0,0,0,0,0,0,0,0,0,0,0,0,0,0,0,0,0,0,0,0,0,0,0,0,0,0,0,0,0,0,0,0,0,0,0,0,0,0,0,0,0,0,0,0,0,0,0,0,0,0,0,0,0,0,0,0,0,0,0,0,0,0,0,0,0,0,0,0,0,0,0,0],"sum_hessian":[6.57E2,5.17E2,1.4E2,5E0,5.12E2,1E2,4E1,4E0,1E0,2.33E2,2.79E2,9.9E1,1E0,2.9E1,1.1E1,1E0,3E0,1.84E2,4.9E1,3.2E1,2.47E2,9.2E1,7E0,1.4E1,1.5E1,5E0,6E0,9E0,1.75E2,2.9E1,2E1,2.1E1,1.1E1,1.3E1,2.34E2,2.5E1,6.7E1,4E0,3E0,9E0,5E0,1.3E1,2E0,1E0,4E0,4E0,2E0,5E0,4E0,2E0,1.73E2,1.6E1,1.3E1,1.5E1,5E0,1.3E1,8E0,7E0,4E0,9E0,4E0,5.3E1,1.81E2,1.7E1,8E0,4E0,6.3E1,4E0,5E0,1E0,4E0,5E0,8E0,1E0,1E0],"tree_param":{"num_deleted":"0","num_feature":"60","num_nodes":"75","size_leaf_vector":"0"}},{"base_weights":[-3.912334E-2,-8.080836E-2,1.54316E-1,-3.7964648E-1,-4.35183E-2,1.1371335E0,1.0028723E-1,-5.347865E-1,5.5890125E-1,-5.7263125E-2,8.993102E-1,-1.3022704E-1,3.022367E-1,-2.5173175E-1,-8.807369E-1,9.8698825E-1,1.8035968E-1,-9.237473E-2,3.0859214E-1,1.3330576E0,2.4073516E-1,3.1363237E-1,-3.4853932E-1,3.7143177E-1,-3.8242412E-1,-9.412454E-1,-1.0945098E-1,-1.1975023E0,-4.905767E-1,2.635389E-1,-1.17768176E-1,-4.357891E-2,-4.1605955E-1,-1.6164452E-1,5.758216E-1,8.519286E-2,3.5368103E-1,7.272332E-2,7.833299E-1,-4.5807755E-1,6.4228576E-1,2.2584125E-2,5.1396966E-1,-5.5097306E-1,-3.0217545E-2,1.4079884E-1,-3.7053147E-1,-4.6960402E-1,-1.3879569E0,-1.3923681E-1,-6.4884204E-1,5.4315016E-2,3.022661E-1,1.2208855E0,-5.6879386E-2,-1.5913568E-2,-7.511525E-1,-5.5134284E-1,1.2730876E-1,1.1168501E0,2.4326004E-1,-6.7514256E-2,2.475862E-1,-9.131107E-2,-7.5864345E-1,-1.1285254E-1,9.31616E-1,2.2787856E-1,-2.3685694E-1,2.1499203E-1,6.551896E-1],"categories":[],"categories_nodes":[],"categories_segments":[],"categories_sizes":[],"default_left":[1,1,1,1,1,0,1,1,1,1,1,1,1,1,1,0,1,1,1,0,1,1,1,1,1,0,1,1,1,1,0,1,1,1,1,0,0,1,0,1,1,1,1,0,0,0,0,0,0,0,0,0,0,0,0,0,0,0,0,0,0,0,0,0,0,0,0,0,0,0,0],"id":8,"left_children":[1,3,5,7,9,-1,11,13,15,17,19,21,23,25,27,-1,29,31,33,-1,35,37,39,41,43,-1,45,47,49,51,-1,53,55,57,59,-1,-1,61,-1,63,65,67,69,-1,-1,-1,-1,-1,-1,-1,-1,-1,-1,-1,-1,-1,-1,-1,-1,-1,-1,-1,-1,-1,-1,-1,-1,-1,-1,-1,-1],"loss_changes":[5.318267E0,6.023359E0,6.0987077E0,9.035274E0,6.3107E0,0E0,5.25321E0,4.870281E0,1.2804253E0,6.155936E0,1.6786733E0,5.2450113E0,2.9845533E0,2.8401155E0,2.255085E0,0E0,1.7982472E-1,6.8682547E0,5.370844E0,0E0,4.014033E-2,1.9798126E0,4.201412E0,2.7232132E0,3.3953518E-1,0E0,1.7508895E0,1.0117893E0,5.7691646E-1,2.4095684E-2,0E0,6.4602747E0,7.6309547E0,1.8718646E0,4.586297E0,0E0,0E0,3.355061E-1,0E0,3.568565E0,9.790727E-1,9.594253E-1,1.5057821E0,0E0,0E0,0E0,0E0,0E0,0E0,0E0,0E0,0E0,0E0,0E0,0E0,0E0,0E0,0E0,0E0,0E0,0E0,0E0,0E0,0E0,0E0,0E0,0E0,0E0,0E0,0E0,0E0],"parents":[2147483647,0,0,1,1,2,2,3,3,4,4,6,6,7,7,8,8,9,9,10,10,11,11,12,12,13,13,14,14,16,16,17,17,18,18,20,20,21,21,22,22,23,23,24,24,26,26,27,27,28,28,29,29,31,31,32,32,33,33,34,34,37,37,39,39,40,40,41,41,42,42],"right_children":[2,4,6,8,10,-1,12,14,16,18,20,22,24,26,28,-1,30,32,34,-1,36,38,40,42,44,-1,46,48,50,52,-1,54,56,58,60,-1,-1,62,-1,64,66,68,70,-1,-1,-1,-1,-1,-1,-1,-1,-1,-1,-1,-1,-1,-1,-1,-1,-1,-1,-1,-1,-1,-1,-1,-1,-1,-1,-1,-1],"split_conditions":[1.1436974E0,-1.9558415E0,-4.676049E0,2.0255103E0,4.5053477E0,3.4114006E-1,-1.0424883E-1,4.80522E-2,-3.8857865E-1,1.6302073E0,-2.2560064E-1,-1.1187195E0,1.7860148E0,-2.3203225E0,-9.059008E-1,2.9609647E-1,1.0369812E0,1.3634804E0,-7.7291876E-1,3.999173E-1,7.2934675E-1,8.067682E-1,1.8825107E0,-8.458341E-1,-2.5387037E-1,-2.8237364E-1,-5.0451577E-1,-2.1974676E0,-8.806487E-1,-2.302099E0,-3.5330456E-2,-4.4072657E0,-6.0244143E-1,-3.9008084E-1,-9.2840564E-1,2.5557859E-2,1.06104314E-1,4.474709E-1,2.3499899E-1,-2.2605719E-1,2.997961E-1,4.0548944E-1,-8.106107E-1,-1.6529192E-1,-9.065264E-3,4.223965E-2,-1.11159444E-1,-1.4088121E-1,-4.1638708E-1,-4.1771043E-2,-1.9465262E-1,1.6294505E-2,9.067983E-2,3.6626565E-1,-1.7063817E-2,-4.774071E-3,-2.2534576E-1,-1.6540286E-1,3.819263E-2,3.3505505E-1,7.297801E-2,-2.0254277E-2,7.4275866E-2,-2.739332E-2,-2.2759305E-1,-3.3855766E-2,2.794848E-1,6.836357E-2,-7.105708E-2,6.449761E-2,1.9655688E-1],"split_indices":[39,5,33,33,47,0,22,8,6,11,19,23,53,7,4,0,1,21,42,0,0,43,16,14,0,0,39,18,14,3,0,18,13,9,34,0,0,21,0,34,3,17,41,0,0,0,0,0,0,0,0,0,0,0,0,0,0,0,0,0,0,0,0,0,0,0,0,0,0,0,0],"split_type":[0,0,0,0,0,0,0,0,0,0,0,0,0,0,0,0,0,0,0,0,0,0,0,0,0,0,0,0,0,0,0,0,0,0,0,0,0,0,0,0,0,0,0,0,0,0,0,0,0,0,0,0,0,0,0,0,0,0,0,0,0,0,0,0,0,0,0,0,0,0,0],"sum_hessian":[6.57E2,5.41E2,1.16E2,5.9E1,4.82E2,5E0,1.11E2,5.1E1,8E0,4.76E2,6E0,5.2E1,5.9E1,2.9E1,2.2E1,3E0,5E0,4.35E2,4.1E1,3E0,3E0,1.7E1,3.5E1,5.4E1,5E0,4E0,2.5E1,1.1E1,1.1E1,4E0,1E0,3.79E2,5.6E1,1.5E1,2.6E1,2E0,1E0,1.2E1,5E0,3.2E1,3E0,1.6E1,3.8E1,3E0,2E0,1.3E1,1.2E1,3E0,8E0,4E0,7E0,1E0,3E0,3E0,3.76E2,2.6E1,3E1,6E0,9E0,9E0,1.7E1,7E0,5E0,1.5E1,1.7E1,1E0,2E0,9E0,7E0,1.3E1,2.5E1],"tree_param":{"num_deleted":"0","num_feature":"60","num_nodes":"71","size_leaf_vector":"0"}},{"base_weights":[-2.6080795E-2,-3.303053E-2,8.881606E-1,2.4163198E-1,-5.5675313E-2,1.4519067E-1,1.3350769E0,2.1541402E-2,9.3679035E-1,-2.1629626E-1,-1.2120226E-2,2.919546E-1,-7.416859E-2,1.049819E0,-9.3310036E-2,1.7089914E0,1.4107652E-1,-1.0164798E0,-1.549909E-1,6.916715E-3,-5.9891915E-1,9.006435E-2,-8.6587024E-1,5.7486403E-1,-1.4741129E-1,-1.4194553E0,-1.5789668E-1,-1.3289783E-3,-4.0549773E-1,-1.3526963E-1,7.8910716E-2,-1.0127223E0,-1.1025116E-1,-2.4943333E-2,5.542523E-1,-3.4862286E-1,-1.4393258E0,-2.6939324E-1,2.3707747E-2,-4.3682587E-1,-1.8015635E0,-3.3797678E-1,1.9117182E-1,6.5999605E-2,-5.818719E-1,2.2186574E-1,-6.3344556E-1,-6.2370095E-2,-8.163672E-1,-4.6311706E-1,1.0436657E-1,1.5043923E-1,-2.9675326E-1],"categories":[],"categories_nodes":[],"categories_segments":[],"categories_sizes":[],"default_left":[1,1,1,1,1,1,0,1,1,1,1,0,0,0,1,0,1,1,1,1,1,1,1,0,1,1,1,1,1,1,1,0,1,0,0,0,0,0,0,0,0,0,0,0,0,0,0,0,0,0,0,0,0],"id":9,"left_children":[1,3,5,7,9,11,-1,13,15,17,19,-1,-1,-1,21,-1,23,25,27,29,31,33,35,-1,37,39,41,43,45,47,49,-1,51,-1,-1,-1,-1,-1,-1,-1,-1,-1,-1,-1,-1,-1,-1,-1,-1,-1,-1,-1,-1],"loss_changes":[4.210094E0,4.0811195E0,1.4663863E0,7.62971E0,4.229873E0,1.1823595E-1,0E0,4.7038255E0,7.1323147E0,6.17062E0,5.3326416E0,0E0,0E0,0E0,5.178023E0,0E0,9.607383E-1,2.8897648E0,4.657158E0,4.7502027E0,2.9215302E0,1.6153803E0,1.5745468E0,0E0,1.1075386E-1,1.4658546E0,3.160528E-1,3.0090256E0,6.718823E0,7.6947474E0,4.298051E0,0E0,4.3359774E-1,0E0,0E0,0E0,0E0,0E0,0E0,0E0,0E0,0E0,0E0,0E0,0E0,0E0,0E0,0E0,0E0,0E0,0E0,0E0,0E0],"parents":[2147483647,0,0,1,1,2,2,3,3,4,4,5,5,7,7,8,8,9,9,10,10,14,14,16,16,17,17,18,18,19,19,20,20,21,21,22,22,24,24,25,25,26,26,27,27,28,28,29,29,30,30,32,32],"right_children":[2,4,6,8,10,12,-1,14,16,18,20,-1,-1,-1,22,-1,24,26,28,30,32,34,36,-1,38,40,42,44,46,48,50,-1,52,-1,-1,-1,-1,-1,-1,-1,-1,-1,-1,-1,-1,-1,-1,-1,-1,-1,-1,-1,-1],"split_conditions":[4.7842464E0,-2.3070526E0,-2.361866E-1,6.7742854E-1,-1.0108188E0,4.089052E0,4.005231E-1,-2.5208163E0,-3.4327228E-2,-2.5241888E0,2.9848342E0,8.758639E-2,-2.2250578E-2,3.149457E-1,7.2934675E-1,5.1269746E-1,-3.955206E-1,5.3715974E-1,-1.5589459E0,-5.3029966E-1,1.7607832E-1,1.5852377E0,1.369863E-1,1.7245921E-1,1.0566522E0,-1.1441927E0,6.2219167E-1,2.412346E0,-5.807774E-1,-6.561105E-1,-2.8635504E0,-3.0381668E-1,-2.0339487E0,-7.4830004E-3,1.6627571E-1,-1.0458686E-1,-4.3179777E-1,-8.0817975E-2,7.1123247E-3,-1.3104777E-1,-5.4046905E-1,-1.0139304E-1,5.735155E-2,1.9799883E-2,-1.7456159E-1,6.6559725E-2,-1.9003367E-1,-1.8711029E-2,-2.4491017E-1,-1.3893512E-1,3.1309973E-2,4.5131773E-2,-8.902598E-2],"split_indices":[13,55,5,38,48,0,0,34,56,52,35,0,0,0,49,0,8,39,48,58,48,24,17,0,4,4,0,41,35,58,31,0,12,0,0,0,0,0,0,0,0,0,0,0,0,0,0,0,0,0,0,0,0],"split_type":[0,0,0,0,0,0,0,0,0,0,0,0,0,0,0,0,0,0,0,0,0,0,0,0,0,0,0,0,0,0,0,0,0,0,0,0,0,0,0,0,0,0,0,0,0,0,0,0,0,0,0,0,0],"sum_hessian":[6.57E2,6.53E2,4E0,4.9E1,6.04E2,2E0,2E0,3.8E1,1.1E1,1.28E2,4.76E2,1E0,1E0,3E0,3.5E1,5E0,6E0,8E0,1.2E2,4.62E2,1.4E1,2.9E1,6E0,2E0,4E0,5E0,3E0,7.5E1,4.5E1,1.55E2,3.07E2,7E0,7E0,2.4E1,5E0,4E0,2E0,2E0,2E0,2E0,3E0,2E0,1E0,6.8E1,7E0,1.2E1,3.3E1,1.41E2,1.4E1,1.3E1,2.94E2,3E0,4E0],"tree_param":{"num_deleted":"0","num_feature":"60","num_nodes":"53","size_leaf_vector":"0"}},{"base_weights":[-1.9317482E-2,1.9420808E-2,-1.5293875E-1,1.1017691E0,1.0860151E-2,-4.674275E-1,-2.8065236E-2,2.715993E-1,1.2879592E0,4.8065078E-2,-2.1881053E-1,-1.1380128E0,-2.761718E-1,6.4088655E-1,-8.130073E-2,1.8117777E-1,-1.2479636E-2,4.8873853E-2,-5.4657817E-1,-1.3469291E0,-2.7120355E-1,-1.5626548E-1,-1.1364027E0,1.5138929E-1,7.7882075E-1,3.1669176E-1,-1.6663282E-1,-6.612319E-1,2.4557558E-1,-5.7972807E-1,2.128156E-2,2.8883308E-1,-2.3154598E-1,-1.3935287E0,-2.975308E-1,4.1524923E-1,-2.8214327E-1,1.8950129E-1,3.7582636E-2,-1.7181605E-1,4.68538E-1,-9.9146646E-1,-1.1231888E-1,-8.880819E-1,1.6411221E-1,1.7432126E-1,7.7073663E-1,-9.377991E-2,-2.1356144E0,1.9854532E-1,-8.578976E-2,-2.2320338E-1,4.1501915E-1,-4.1819036E-1,3.7469628E-1,-3.697147E-1,-1.5025454E0,-1.3539658E-1,-1.1554198E0,-2.3285049E-1,5.914393E-1,-4.0688434E-1,3.231461E-1,1.7926335E-2,-4.653928E-1,5.368759E-1,3.9006915E-2,-3.0417985E-1,-1.3482643E0,-3.0614737E-1,8.431759E-2],"categories":[],"categories_nodes":[],"categories_segments":[],"categories_sizes":[],"default_left":[1,1,1,1,1,1,1,0,0,1,1,1,1,1,1,1,1,1,1,0,0,1,0,1,0,1,1,1,1,1,1,1,1,1,1,1,1,0,0,1,1,1,1,0,0,0,0,0,0,0,0,0,0,0,0,0,0,0,0,0,0,0,0,0,0,0,0,0,0,0,0],"id":10,"left_children":[1,3,5,7,9,11,13,-1,-1,15,17,19,21,23,25,27,29,31,33,-1,-1,35,-1,37,-1,39,41,43,45,47,49,51,53,55,57,59,61,-1,-1,63,65,67,69,-1,-1,-1,-1,-1,-1,-1,-1,-1,-1,-1,-1,-1,-1,-1,-1,-1,-1,-1,-1,-1,-1,-1,-1,-1,-1,-1,-1],"loss_changes":[3.4089491E0,4.7227626E0,5.799036E0,2.6846933E-1,4.351317E0,5.0723505E0,3.8625858E0,0E0,0E0,3.5322208E0,6.256131E0,1.2645235E0,3.3294222E0,4.2224216E-1,3.4489245E0,7.594541E0,5.795935E0,2.7584512E0,6.335168E0,0E0,0E0,2.3473313E0,0E0,5.8902428E-3,0E0,1.4157076E0,3.6070366E0,2.0180387E0,4.655402E0,1.2653084E1,5.4452744E0,1.514095E0,2.3065767E0,2.2577667E-1,3.4599822E0,8.228493E-1,2.0945988E0,0E0,0E0,2.8686252E-1,3.9000368E-1,8.1599665E-1,3.0368E0,0E0,0E0,0E0,0E0,0E0,0E0,0E0,0E0,0E0,0E0,0E0,0E0,0E0,0E0,0E0,0E0,0E0,0E0,0E0,0E0,0E0,0E0,0E0,0E0,0E0,0E0,0E0,0E0],"parents":[2147483647,0,0,1,1,2,2,3,3,4,4,5,5,6,6,9,9,10,10,11,11,12,12,13,13,14,14,15,15,16,16,17,17,18,18,21,21,23,23,25,25,26,26,27,27,28,28,29,29,30,30,31,31,32,32,33,33,34,34,35,35,36,36,39,39,40,40,41,41,42,42],"right_children":[2,4,6,8,10,12,14,-1,-1,16,18,20,22,24,26,28,30,32,34,-1,-1,36,-1,38,-1,40,42,44,46,48,50,52,54,56,58,60,62,-1,-1,64,66,68,70,-1,-1,-1,-1,-1,-1,-1,-1,-1,-1,-1,-1,-1,-1,-1,-1,-1,-1,-1,-1,-1,-1,-1,-1,-1,-1,-1,-1],"split_conditions":[8.6033136E-1,-5.681491E0,-5.268776E-1,-1.3788929E0,1.3755913E0,-1.7896008E0,-3.3901364E-1,8.147979E-2,3.863878E-1,-4.248698E-1,2.3569219E-1,1.2624974E0,-5.442693E-1,-3.6984462E-1,-1.7331941E0,-2.9829242E0,-2.3036842E0,-1.5099223E-1,-8.9980483E-1,-4.0407875E-1,-8.136107E-2,-1.0209514E0,-3.4092084E-1,-3.059687E0,2.3364623E-1,-8.081247E-1,-3.3656154E0,9.332527E-1,1.8687727E0,-2.7694883E0,-3.3095637E-1,-1.0247661E0,5.969191E-1,-1.3634961E0,1.1874006E0,-2.835545E0,6.2955964E-1,5.685039E-2,1.1274791E-2,8.001024E-1,2.603051E0,3.3550522E-1,-2.1097697E-1,-2.664246E-1,4.9233664E-2,5.229638E-2,2.31221E-1,-2.8133973E-2,-6.4068437E-1,5.95636E-2,-2.573693E-2,-6.696101E-2,1.2450575E-1,-1.2545711E-1,1.1240889E-1,-1.1091442E-1,-4.507636E-1,-4.061898E-2,-3.4662595E-1,-6.985515E-2,1.7743179E-1,-1.22065306E-1,9.694383E-2,5.377901E-3,-1.3961785E-1,1.6106278E-1,1.1702075E-2,-9.125396E-2,-4.0447932E-1,-9.1844216E-2,2.5295278E-2],"split_indices":[29,13,57,0,21,58,57,0,0,18,25,4,57,12,20,43,23,27,7,0,0,55,0,0,0,16,25,1,6,23,34,24,30,0,58,0,16,0,0,1,13,6,51,0,0,0,0,0,0,0,0,0,0,0,0,0,0,0,0,0,0,0,0,0,0,0,0,0,0,0,0],"split_type":[0,0,0,0,0,0,0,0,0,0,0,0,0,0,0,0,0,0,0,0,0,0,0,0,0,0,0,0,0,0,0,0,0,0,0,0,0,0,0,0,0,0,0,0,0,0,0,0,0,0,0,0,0,0,0,0,0,0,0,0,0,0,0,0,0,0,0,0,0,0,0],"sum_hessian":[6.57E2,5.1E2,1.47E2,3E0,5.07E2,4.1E1,1.06E2,1E0,2E0,4.37E2,7E1,8E0,3.3E1,7E0,9.9E1,1.36E2,3.01E2,3.9E1,3.1E1,6E0,2E0,3E1,3E0,2E0,5E0,1.7E1,8.2E1,9E0,1.27E2,1.6E1,2.85E2,2.1E1,1.8E1,6E0,2.5E1,5E0,2.5E1,1E0,1E0,4E0,1.3E1,4E0,7.8E1,7E0,2E0,1.13E2,1.4E1,1.3E1,3E0,1.07E2,1.78E2,4E0,1.7E1,1.4E1,4E0,1E0,5E0,2.2E1,3E0,1E0,4E0,2.1E1,4E0,3E0,1E0,1.1E1,2E0,2E0,2E0,3.9E1,3.9E1],"tree_param":{"num_deleted":"0","num_feature":"60","num_nodes":"71","size_leaf_vector":"0"}},{"base_weights":[-1.6517853E-2,-3.0656097E-2,3.026875E-1,-7.114036E-2,8.134004E-2,-1.4190476E-1,6.450007E-1,-9.232403E-2,3.8013086E-1,2.2056444E-1,-7.456385E-2,3.470372E-1,-6.105746E-1,1.0059988E0,3.2780194E-1,-3.1013343E-2,-2.3545645E-1,9.3202174E-1,9.723971E-2,9.5972246E-1,1.6514166E-1,-2.1763872E-1,2.3096235E-1,8.980009E-2,5.17515E-1,3.9858673E-2,-7.2562325E-1,1.0735072E-2,4.6215415E-1,1.377701E-1,-1.1853187E-1,-3.8789898E-1,1.040714E-1,2.915068E-1,1.1299264E0,-2.1729203E-1,3.9961648E-1,2.888813E-1,1.0361145E0,1.5988182E-2,3.541748E-1,-3.461463E-1,1.1723268E-1,4.990327E-1,-1.2337249E-1,-2.0628494E-1,-7.8823394E-1,-1.4179285E-1,1.0884199E-1,-2.6830867E-1,2.7142882E-1,-1.8928279E-1,2.2082761E-1,-4.6724948E-1,6.423924E-1,5.2820045E-1,-4.497519E-2,1.8841158E-1,-3.8392848E-1,4.4514933E-1,4.0443294E-2,1.5567756E-1,-3.3437726E-1,5.3009236E-1,1.390344E-1,-2.1900636E-1,-9.142337E-1,-1.2078823E-1,4.40515E-1,1.522412E-1,6.112986E-1,2.8385743E-1,-4.5480207E-1],"categories":[],"categories_nodes":[],"categories_segments":[],"categories_sizes":[],"default_left":[1,1,1,1,1,1,1,1,1,1,1,1,1,0,1,1,1,1,1,1,1,1,1,0,0,0,1,1,0,1,1,1,1,0,0,1,1,0,0,1,1,1,1,1,1,0,0,0,0,0,0,0,0,0,0,0,0,0,0,0,0,0,0,0,0,0,0,0,0,0,0,0,0],"id":11,"left_children":[1,3,5,7,9,11,13,15,17,19,21,23,25,-1,27,29,31,33,35,37,39,41,43,-1,-1,-1,45,47,-1,49,51,53,55,-1,-1,57,59,-1,-1,61,63,65,67,69,71,-1,-1,-1,-1,-1,-1,-1,-1,-1,-1,-1,-1,-1,-1,-1,-1,-1,-1,-1,-1,-1,-1,-1,-1,-1,-1,-1,-1],"loss_changes":[2.9788353E0,2.8667912E0,4.3528433E0,4.470743E0,3.662991E0,3.190873E0,1.5023623E0,3.889041E0,3.1879961E0,3.4875007E0,3.5473158E0,2.6049966E-1,5.527425E-1,0E0,4.2102504E-1,4.6250935E0,6.9242487E0,5.5794525E-1,1.5134398E0,8.167267E-3,2.3627129E0,2.4074225E0,2.5312204E0,0E0,0E0,0E0,3.2495975E-2,7.528919E-2,0E0,5.8803554E0,4.987859E0,7.821535E0,2.6787853E0,0E0,0E0,6.131767E-1,1.1283016E-1,0E0,0E0,2.4012866E0,1.3266368E0,2.6888413E0,1.2843764E0,4.9092793E-1,1.7487155E0,0E0,0E0,0E0,0E0,0E0,0E0,0E0,0E0,0E0,0E0,0E0,0E0,0E0,0E0,0E0,0E0,0E0,0E0,0E0,0E0,0E0,0E0,0E0,0E0,0E0,0E0,0E0,0E0],"parents":[2147483647,0,0,1,1,2,2,3,3,4,4,5,5,6,6,7,7,8,8,9,9,10,10,11,11,12,12,14,14,15,15,16,16,17,17,18,18,19,19,20,20,21,21,22,22,26,26,27,27,29,29,30,30,31,31,32,32,35,35,36,36,39,39,40,40,41,41,42,42,43,43,44,44],"right_children":[2,4,6,8,10,12,14,16,18,20,22,24,26,-1,28,30,32,34,36,38,40,42,44,-1,-1,-1,46,48,-1,50,52,54,56,-1,-1,58,60,-1,-1,62,64,66,68,70,72,-1,-1,-1,-1,-1,-1,-1,-1,-1,-1,-1,-1,-1,-1,-1,-1,-1,-1,-1,-1,-1,-1,-1,-1,-1,-1,-1,-1],"split_conditions":[2.8700056E0,7.550416E-1,4.1476855E-1,2.618481E0,1.6790602E-1,-1.1781591E0,-2.9099116E-1,5.993674E-1,-4.970004E-1,8.122636E-1,4.673058E-1,-6.475864E-1,-3.0857205E-1,3.0179965E-1,3.762324E-1,-4.0246654E-1,4.5218393E-1,-5.3227723E-2,3.7887406E-1,-2.1089692E0,2.1170259E-1,8.6378115E-1,2.0319188E0,2.6940027E-2,1.5525451E-1,1.1957603E-2,-4.1309264E-1,4.806605E-1,1.3864625E-1,-1.0537875E0,1.4591198E0,2.3933787E0,-1.0547125E0,8.745204E-2,3.3897793E-1,-1.6921744E-1,2.1750274E0,8.666439E-2,3.1083435E-1,4.5280284E-1,3.9725193E-1,1.5987514E0,-5.2427673E-1,-7.718276E-1,8.73199E-1,-6.1885484E-2,-2.364702E-1,-4.2537857E-2,3.2652598E-2,-8.04926E-2,8.142865E-2,-5.678484E-2,6.624828E-2,-1.4017485E-1,1.9271773E-1,1.5846014E-1,-1.3492558E-2,5.6523476E-2,-1.1517855E-1,1.335448E-1,1.2132988E-2,4.6703268E-2,-1.0031318E-1,1.5902771E-1,4.1710325E-2,-6.570191E-2,-2.7427012E-1,-3.6236472E-2,1.3215451E-1,4.567236E-2,1.8338959E-1,8.515723E-2,-1.3644062E-1],"split_indices":[53,0,17,3,50,28,57,27,57,0,40,15,4,0,4,30,26,16,45,1,25,36,0,0,0,0,0,1,0,7,30,30,51,0,0,44,2,0,0,11,22,9,45,7,4,0,0,0,0,0,0,0,0,0,0,0,0,0,0,0,0,0,0,0,0,0,0,0,0,0,0,0,0],"split_type":[0,0,0,0,0,0,0,0,0,0,0,0,0,0,0,0,0,0,0,0,0,0,0,0,0,0,0,0,0,0,0,0,0,0,0,0,0,0,0,0,0,0,0,0,0,0,0,0,0,0,0,0,0,0,0,0,0,0,0,0,0,0,0,0,0,0,0,0,0,0,0,0,0],"sum_hessian":[6.57E2,6.3E2,2.7E1,4.63E2,1.67E2,1.2E1,1.5E1,4.43E2,2E1,8.8E1,7.9E1,6E0,6E0,6E0,9E0,3.11E2,1.32E2,6E0,1.4E1,5E0,8.3E1,5.4E1,2.5E1,3E0,3E0,1E0,5E0,3E0,6E0,1.06E2,2.05E2,9.1E1,4.1E1,2E0,4E0,7E0,7E0,1E0,4E0,4.7E1,3.6E1,3.9E1,1.5E1,1.4E1,1.1E1,1E0,4E0,1E0,2E0,2.6E1,8E1,1.7E2,3.5E1,8.5E1,6E0,1E1,3.1E1,2E0,5E0,6E0,1E0,3.4E1,1.3E1,1.9E1,1.7E1,3.3E1,6E0,9E0,6E0,4E0,1E1,5E0,6E0],"tree_param":{"num_deleted":"0","num_feature":"60","num_nodes":"73","size_leaf_vector":"0"}},{"base_weights":[-9.243238E-3,4.2449753E-3,-2.5691646E-1,-1.2938423E-1,4.237683E-2,8.8503554E-2,-6.510455E-1,-5.4149106E-2,-6.661216E-1,6.1540735E-1,3.0300092E-2,-1.5875402E-1,3.2691076E-1,-1.9376256E-1,-1.2113003E0,-1.6662724E-1,1.4451583E-1,-2.738777E-1,-1.1873447E0,8.5093504E-1,3.1656632E-1,-3.465076E-1,4.9239296E-2,2.2668655E-1,-2.8344998E-1,6.601997E-1,8.975842E-2,-3.4864607E-1,3.085019E-2,-1.5164998E0,-2.9886785E-1,-3.331522E-1,1.3197279E-1,6.7715965E-2,6.3242894E-1,7.199799E-2,-4.1258085E-1,-3.107504E-1,-1.4758323E0,-2.0652628E-1,-1.2108742E0,2.9182568E-1,1.9984463E-2,-1.0339462E-1,-3.26236E-1,-3.877483E-2,2.7406102E-1,1.2513068E-1,-7.37137E-2,-2.9641818E-2,-5.124352E-1,5.2001183E-3,6.17068E-1,-1.3515984E-1,1.9484784E-1,-1.9527704E-2,1.0901579E-1,-4.8190594E-1,-1.3640378E-1,-4.3710965E-1,2.8370272E-3,4.3006745E-1,-3.7036753E-1,-5.0469875E-1,3.990899E-2,-8.944998E-2,2.4825266E-2],"categories":[],"categories_nodes":[],"categories_segments":[],"categories_sizes":[],"default_left":[1,1,1,1,1,1,1,1,1,1,1,1,1,1,1,1,1,1,1,0,0,1,1,0,1,0,1,0,1,0,0,1,1,1,0,1,1,0,0,1,0,1,1,0,0,1,0,0,0,0,0,0,0,0,0,0,0,0,0,0,0,0,0,0,0,0,0],"id":12,"left_children":[1,3,5,7,9,11,13,15,17,19,21,23,25,27,29,31,33,35,37,-1,-1,39,41,-1,43,-1,45,-1,47,-1,-1,49,51,53,-1,55,57,-1,-1,59,-1,61,63,-1,-1,65,-1,-1,-1,-1,-1,-1,-1,-1,-1,-1,-1,-1,-1,-1,-1,-1,-1,-1,-1,-1,-1],"loss_changes":[2.199251E0,3.190189E0,4.686382E0,5.576959E0,3.3515587E0,1.1719103E0,3.8644147E0,2.772572E0,3.150404E0,4.3447614E-1,3.4282787E0,5.4488313E-1,7.311441E-1,3.5864392E-1,1.4960842E0,3.972192E0,1.6433994E0,5.574195E-1,1.3115911E0,0E0,0E0,2.5328116E0,3.23032E0,0E0,2.7899802E-2,0E0,1.7644978E-1,0E0,5.851552E-2,0E0,0E0,2.7599368E0,1.7801988E0,1.0580148E0,0E0,1.568115E-2,8.743417E-2,0E0,0E0,1.0150297E0,0E0,4.6448784E0,4.2854E0,0E0,0E0,1.8335342E-2,0E0,0E0,0E0,0E0,0E0,0E0,0E0,0E0,0E0,0E0,0E0,0E0,0E0,0E0,0E0,0E0,0E0,0E0,0E0,0E0,0E0],"parents":[2147483647,0,0,1,1,2,2,3,3,4,4,5,5,6,6,7,7,8,8,9,9,10,10,11,11,12,12,13,13,14,14,15,15,16,16,17,17,18,18,21,21,22,22,24,24,26,26,28,28,31,31,32,32,33,33,35,35,36,36,39,39,41,41,42,42,45,45],"right_children":[2,4,6,8,10,12,14,16,18,20,22,24,26,28,30,32,34,36,38,-1,-1,40,42,-1,44,-1,46,-1,48,-1,-1,50,52,54,-1,56,58,-1,-1,60,-1,62,64,-1,-1,66,-1,-1,-1,-1,-1,-1,-1,-1,-1,-1,-1,-1,-1,-1,-1,-1,-1,-1,-1,-1,-1],"split_conditions":[2.5813189E0,-9.756372E-1,-1.184454E-1,-1.0901282E0,-3.9622526E0,-6.1329484E-2,-1.2788601E0,3.4471905E-1,-5.4870173E-3,8.5280883E-1,-3.0891027E0,-1.9723489E0,-8.509463E-1,7.7110493E-1,8.0895126E-1,2.8738308E-1,1.8094616E0,-1.1377962E0,-2.843722E-1,2.5528052E-1,9.49699E-2,1.0842149E0,-1.359653E0,6.800597E-2,-1.4574177E0,1.9805992E-1,6.385525E-1,-1.0459383E-1,2.1972269E-1,-4.5494995E-1,-8.966036E-2,-1.0445421E0,4.9301282E-1,-4.0097615E-1,1.8972869E-1,1.2046902E0,3.764274E-1,-9.322512E-2,-4.427497E-1,-4.9912682E-1,-3.6326227E-1,4.9729145E-1,-2.5646374E0,-3.1018388E-2,-9.7870804E-2,-2.0938368E0,8.221831E-2,3.7539206E-2,-2.211411E-2,-8.8925455E-3,-1.5373057E-1,1.5600355E-3,1.851204E-1,-4.0547952E-2,5.8454353E-2,-5.8583114E-3,3.270474E-2,-1.4457178E-1,-4.0921137E-2,-1.311329E-1,8.5110817E-4,1.2902024E-1,-1.1111026E-1,-1.5140963E-1,1.1972697E-2,-2.6834995E-2,7.44758E-3],"split_indices":[17,1,51,1,38,6,11,48,49,39,34,28,42,45,4,17,55,35,0,0,0,7,34,0,3,0,2,0,0,0,0,17,16,26,0,0,11,0,0,27,0,17,35,0,0,2,0,0,0,0,0,0,0,0,0,0,0,0,0,0,0,0,0,0,0,0,0],"split_type":[0,0,0,0,0,0,0,0,0,0,0,0,0,0,0,0,0,0,0,0,0,0,0,0,0,0,0,0,0,0,0,0,0,0,0,0,0,0,0,0,0,0,0,0,0,0,0,0,0,0,0,0,0,0,0,0,0,0,0,0,0,0,0,0,0,0,0],"sum_hessian":[6.57E2,6.24E2,3.3E1,1.38E2,4.86E2,1.8E1,1.5E1,1.22E2,1.6E1,9E0,4.77E2,9E0,9E0,9E0,6E0,7.8E1,4.4E1,1E1,6E0,4E0,5E0,2.2E1,4.55E2,2E0,7E0,3E0,6E0,5E0,4E0,4E0,2E0,5E1,2.8E1,3.9E1,5E0,3E0,7E0,2E0,4E0,2E1,2E0,4.8E1,4.07E2,2E0,5E0,4E0,2E0,2E0,2E0,1.9E1,3.1E1,2.3E1,5E0,1.5E1,2.4E1,1E0,2E0,5E0,2E0,9E0,1.1E1,4E1,8E0,1.4E1,3.93E2,2E0,2E0],"tree_param":{"num_deleted":"0","num_feature":"60","num_nodes":"67","size_leaf_vector":"0"}},{"base_weights":[-8.235496E-3,9.419527E-2,-4.1880615E-2,-2.676037E-1,1.6167772E-1,3.2349892E-2,-1.12731524E-1,-3.0712033E-2,-7.96771E-1,8.260013E-2,4.6938965E-1,-1.5311629E-1,1.009365E-1,7.1315005E-2,-2.1072797E-1,-2.4459088E-1,3.7087896E-1,-1.0725105E0,2.0298496E-2,2.743252E-1,-1.3238813E-1,2.77767E-1,8.430633E-1,-3.6231014E-1,-2.4950502E-2,2.0483167E-1,-1.0680453E-1,3.074596E-1,-7.333198E-2,-2.9935464E-1,7.592987E-2,1.5088874E-1,-3.7832364E-1,9.652457E-2,5.525136E-1,-1.3943194E0,-5.630262E-1,1.119537E-1,-8.1505954E-2,1.0805571E-2,4.4238478E-1,-9.047421E-2,-1.155956E0,-1.8251136E-1,4.0424356E-1,1.6579634E-1,9.0699714E-1,-6.713473E-1,-7.154183E-2,1.7791018E-1,-1.5663055E-1,2.474552E-2,3.8150397E-1,-4.874772E-2,-1.1936346E0,1.3061391E-1,6.207922E-1,-1.8946066E-2,-6.2427914E-1,-3.998264E-1,-1.0463492E-3,-4.4005498E-1,2.6259333E-1,-1.6533834E-1,-4.9275744E-1,-2.6928857E-1,3.1334043E-1,7.977777E-2,7.284815E-1,-2.4320597E-2,-5.935985E-1,-2.5281695E-1,4.93555E-2,4.6926203E-1,9.18726E-2,-8.358022E-1,-1.3348702E-1,2.2858004E-1,-2.1444859E-1,-2.9129118E-2,3.6518168E-1,-7.7841975E-2,-3.5936496E-1,-3.1664523E-1,1.2590988E-1,6.2715536E-1,9.7285055E-2,-5.236099E-1,2.6696296E-2,4.2447183E-1,-2.4478415E-2,8.9723957E-1,2.9515275E-1,5.289111E-1,-6.328245E-2,-7.822677E-1,3.837645E-3,-5.2101415E-1,-3.9660193E-2,9.0089366E-2,-6.843026E-1,-4.717206E-2,-5.8148956E-1,-6.2098518E-2,4.8250446E-1],"categories":[],"categories_nodes":[],"categories_segments":[],"categories_sizes":[],"default_left":[1,1,1,1,1,1,1,1,1,1,1,1,1,1,1,1,1,1,1,1,1,1,1,1,1,1,1,1,1,1,1,0,1,0,0,0,0,0,0,1,1,1,0,1,1,0,0,1,1,1,1,1,1,1,0,1,1,1,1,1,1,1,1,0,0,0,0,0,0,0,0,0,0,0,0,0,0,0,0,0,0,0,0,0,0,0,0,0,0,0,0,0,0,0,0,0,0,0,0,0,0,0,0,0,0],"id":13,"left_children":[1,3,5,7,9,11,13,15,17,19,21,23,25,27,29,31,33,35,37,39,41,43,45,47,49,51,53,55,57,59,61,-1,63,-1,-1,-1,-1,-1,-1,65,67,69,-1,71,73,-1,-1,75,77,79,81,83,85,87,-1,89,91,93,95,97,99,101,103,-1,-1,-1,-1,-1,-1,-1,-1,-1,-1,-1,-1,-1,-1,-1,-1,-1,-1,-1,-1,-1,-1,-1,-1,-1,-1,-1,-1,-1,-1,-1,-1,-1,-1,-1,-1,-1,-1,-1,-1,-1,-1],"loss_changes":[2.271607E0,4.022924E0,2.6122591E0,3.2347682E0,3.3191981E0,3.1065357E0,4.5961485E0,1.722658E0,1.8241572E0,4.6115856E0,1.7707462E0,1.7605188E0,3.8637028E0,3.0625734E0,4.240047E0,7.446364E-1,2.9549474E-1,1.987009E-1,3.7117615E-2,2.6081529E0,2.1692083E0,1.2380675E0,2.3932552E-1,2.1984258E0,1.1497997E0,3.776691E0,3.727686E0,1.8029075E0,1.6661432E0,3.8059702E0,3.968176E0,0E0,1.622554E-1,0E0,0E0,0E0,0E0,0E0,0E0,2.118097E0,3.6765475E0,1.7163047E0,0E0,9.398559E-2,2.818458E-1,0E0,0E0,9.498763E-1,6.4947087E-1,6.697709E-1,3.8732845E-1,2.1120634E0,4.1281137E0,2.091858E0,0E0,1.0586177E0,8.154435E-1,1.2965512E0,4.9917853E-1,4.1258717E0,2.116527E0,5.838096E-1,2.1720634E0,0E0,0E0,0E0,0E0,0E0,0E0,0E0,0E0,0E0,0E0,0E0,0E0,0E0,0E0,0E0,0E0,0E0,0E0,0E0,0E0,0E0,0E0,0E0,0E0,0E0,0E0,0E0,0E0,0E0,0E0,0E0,0E0,0E0,0E0,0E0,0E0,0E0,0E0,0E0,0E0,0E0,0E0],"parents":[2147483647,0,0,1,1,2,2,3,3,4,4,5,5,6,6,7,7,8,8,9,9,10,10,11,11,12,12,13,13,14,14,15,15,16,16,17,17,18,18,19,19,20,20,21,21,22,22,23,23,24,24,25,25,26,26,27,27,28,28,29,29,30,30,32,32,39,39,40,40,41,41,43,43,44,44,47,47,48,48,49,49,50,50,51,51,52,52,53,53,55,55,56,56,57,57,58,58,59,59,60,60,61,61,62,62],"right_children":[2,4,6,8,10,12,14,16,18,20,22,24,26,28,30,32,34,36,38,40,42,44,46,48,50,52,54,56,58,60,62,-1,64,-1,-1,-1,-1,-1,-1,66,68,70,-1,72,74,-1,-1,76,78,80,82,84,86,88,-1,90,92,94,96,98,100,102,104,-1,-1,-1,-1,-1,-1,-1,-1,-1,-1,-1,-1,-1,-1,-1,-1,-1,-1,-1,-1,-1,-1,-1,-1,-1,-1,-1,-1,-1,-1,-1,-1,-1,-1,-1,-1,-1,-1,-1,-1,-1,-1],"split_conditions":[-8.937447E-1,-1.5261652E0,-1.1606314E-2,2.6183504E-1,-1.2089775E0,-1.0004467E0,-4.0246654E-1,9.310734E-2,2.607476E-1,3.495745E-1,8.825717E-1,2.522395E-1,4.6402282E-1,-3.3010662E-1,7.151158E-1,-1.8465023E0,-3.3054373E-1,-9.8415804E-1,5.975199E-1,-5.762379E-1,-1.2746289E0,-5.008078E-1,-2.3604198E0,-1.5547164E-1,2.9377198E-1,1.3211785E-1,3.299958E0,7.3090327E-1,1.434571E0,8.722675E-1,-6.1794895E-1,4.5266625E-2,-8.4272027E-1,2.895737E-2,1.6575408E-1,-4.1829583E-1,-1.6890787E-1,3.358611E-2,-2.4451787E-2,4.2514402E-1,3.412902E-2,2.2460284E0,-3.4678683E-1,-2.8444588E-1,1.0825297E0,4.9738903E-2,2.7209917E-1,9.8417616E-1,-4.0085517E-2,4.7423816E-1,1.7366871E0,-6.306721E-1,3.9322814E-1,-2.588513E0,-3.580904E-1,-2.3537439E-1,-3.920518E-3,-2.007273E0,7.123986E-1,8.605744E-1,2.2450209E0,-9.5526636E-1,6.963217E-1,-4.9601503E-2,-1.4782724E-1,-8.078657E-2,9.4002135E-2,2.3933332E-2,2.1854445E-1,-7.2961794E-3,-1.7807955E-1,-7.5845085E-2,1.4806651E-2,1.4077862E-1,2.7561782E-2,-2.5074068E-1,-4.0046107E-2,6.857402E-2,-6.433458E-2,-8.738736E-3,1.0955451E-1,-2.3352593E-2,-1.0780949E-1,-9.499358E-2,3.7772965E-2,1.8814662E-1,2.9185517E-2,-1.5708297E-1,8.008889E-3,1.2734155E-1,-7.3435246E-3,2.691719E-1,8.854583E-2,1.5867335E-1,-1.8984737E-2,-2.3468031E-1,1.1512935E-3,-1.5630426E-1,-1.18980585E-2,2.7026812E-2,-2.052908E-1,-1.4151618E-2,-1.7444688E-1,-1.8629557E-2,1.4475134E-1],"split_indices":[21,46,2,11,21,5,18,12,0,40,45,21,49,50,49,12,23,2,0,16,21,38,3,39,59,16,23,6,31,0,52,0,41,0,0,0,0,0,0,50,24,0,0,1,28,0,0,8,58,43,59,38,0,53,0,1,11,0,0,48,24,3,2,0,0,0,0,0,0,0,0,0,0,0,0,0,0,0,0,0,0,0,0,0,0,0,0,0,0,0,0,0,0,0,0,0,0,0,0,0,0,0,0,0,0],"split_type":[0,0,0,0,0,0,0,0,0,0,0,0,0,0,0,0,0,0,0,0,0,0,0,0,0,0,0,0,0,0,0,0,0,0,0,0,0,0,0,0,0,0,0,0,0,0,0,0,0,0,0,0,0,0,0,0,0,0,0,0,0,0,0,0,0,0,0,0,0,0,0,0,0,0,0,0,0,0,0,0,0,0,0,0,0,0,0,0,0,0,0,0,0,0,0,0,0,0,0,0,0,0,0,0,0],"sum_hessian":[6.57E2,1.62E2,4.95E2,2.5E1,1.37E2,2.42E2,2.53E2,1.8E1,7E0,1.1E2,2.7E1,6.5E1,1.77E2,8.8E1,1.65E2,1.2E1,6E0,5E0,2E0,5.8E1,5.2E1,1.9E1,8E0,2.4E1,4.1E1,1.18E2,5.9E1,3.3E1,5.5E1,1.26E2,3.9E1,3E0,9E0,3E0,3E0,2E0,3E0,1E0,1E0,2.3E1,3.5E1,5.1E1,1E0,4E0,1.5E1,1E0,7E0,1.1E1,1.3E1,1.6E1,2.5E1,5.9E1,5.9E1,5.7E1,2E0,2.2E1,1.1E1,5.1E1,4E0,9.4E1,3.2E1,1E1,2.9E1,4E0,5E0,1.2E1,1.1E1,1.6E1,1.9E1,4.6E1,5E0,3E0,1E0,1.2E1,3E0,8E0,3E0,4E0,9E0,8E0,8E0,1.9E1,6E0,1.3E1,4.6E1,3.1E1,2.8E1,7E0,5E1,7E0,1.5E1,5E0,6E0,3E0,4.8E1,3E0,1E0,7E1,2.4E1,2.9E1,3E0,3E0,7E0,1.2E1,1.7E1],"tree_param":{"num_deleted":"0","num_feature":"60","num_nodes":"105","size_leaf_vector":"0"}},{"base_weights":[-7.393815E-3,-7.324039E-2,2.7456332E-2,1.3116147E-1,-1.1224887E-1,3.5459197E-1,1.0674569E-2,4.6733472E-1,-4.8895095E-2,-1.7970206E-2,-2.385011E-1,6.552442E-1,2.17041E-2,-1.1868626E0,1.6490178E-2,1.4659543E-1,6.4947236E-1,-3.5636207E-1,1.1675772E-1,3.181417E-2,-2.6070583E-1,-8.069782E-1,-1.7468353E-1,7.683207E-2,7.7524334E-1,1.9776937E-1,-2.291281E-1,-6.098302E-3,3.645967E-1,2.2340149E-1,-4.677774E-3,8.148583E-1,3.872691E-1,-4.9892724E-1,-1.425245E-1,-1.3036315E-1,2.0282285E-1,1.4043137E-1,-1.2217968E-1,7.5307265E-2,-4.2158166E-1,-1.0150406E0,-1.2186068E-1,-3.639834E-1,-1.728165E-2,4.011003E-1,8.954648E-1,-2.8784862E-2,2.9414806E-1,-6.966549E-2,-2.5157738E-1,-1.16374746E-1,5.435758E-2,6.139431E-1,4.3309476E-2,-2.698216E-2,1.99655E-2,-1.9000043E-1,2.3689628E-2,-5.2846253E-2,-1.6442567E-1,2.720632E-1,-1.18666016E-1,2.7941552E-1,-9.789609E-2,-2.0599958E-1,1.8010882E-1,1.6208573E-1,-2.2268176E-1,-1.2470785E-1,-5.915393E-1,-2.1580163E-1,3.3010602E-2,-5.959432E-1,9.955192E-3,1.2907451E-1,-3.939283E-1,-2.041161E-4,-4.2973176E-2,8.45781E-2,3.25396E-1,-2.345636E-1,2.2099491E-2,1.2644738E-1,-1.0041382E-1,-5.978896E-2,7.312142E-1,1.42311E-1,-1.9027135E-1],"categories":[],"categories_nodes":[],"categories_segments":[],"categories_sizes":[],"default_left":[1,1,1,1,1,1,1,1,1,1,1,1,1,0,1,1,1,1,1,1,1,1,1,0,1,1,1,1,1,0,1,0,0,0,1,1,1,1,1,1,1,0,1,1,1,0,0,1,1,0,0,1,1,1,1,0,0,0,0,0,0,0,0,0,0,0,0,0,0,0,0,0,0,0,0,0,0,0,0,0,0,0,0,0,0,0,0,0,0],"id":14,"left_children":[1,3,5,7,9,11,13,15,17,19,21,23,25,-1,27,29,31,33,35,37,39,41,43,-1,45,47,49,51,53,-1,55,-1,-1,-1,57,59,61,63,65,67,69,-1,71,73,75,-1,-1,77,79,-1,-1,81,83,85,87,-1,-1,-1,-1,-1,-1,-1,-1,-1,-1,-1,-1,-1,-1,-1,-1,-1,-1,-1,-1,-1,-1,-1,-1,-1,-1,-1,-1,-1,-1,-1,-1,-1,-1],"loss_changes":[1.5119649E0,1.8326591E0,2.3623672E0,2.2624679E0,2.2810693E0,2.0875318E0,2.881943E0,6.642332E-1,1.3149273E0,1.3496672E0,2.833898E0,7.0393515E-1,5.311058E-1,0E0,3.2261345E0,7.075721E-2,3.1348467E-2,2.032628E-1,3.8800496E-1,1.5727113E0,1.0588195E0,1.016684E0,2.2284212E0,0E0,4.5648575E-2,1.6131198E-1,3.7282705E-4,2.5797336E0,1.9762058E0,0E0,2.1876716E-3,0E0,0E0,0E0,4.39569E-2,4.5128167E-3,3.2166457E-1,1.8491595E0,1.0252762E0,2.1710674E-1,5.821581E-1,0E0,5.0770003E-2,2.95505E0,2.3660774E0,0E0,0E0,1.2077664E-3,5.221784E-3,0E0,0E0,2.2473412E0,2.8020568E0,1.1498489E0,3.04576E-1,0E0,0E0,0E0,0E0,0E0,0E0,0E0,0E0,0E0,0E0,0E0,0E0,0E0,0E0,0E0,0E0,0E0,0E0,0E0,0E0,0E0,0E0,0E0,0E0,0E0,0E0,0E0,0E0,0E0,0E0,0E0,0E0,0E0,0E0],"parents":[2147483647,0,0,1,1,2,2,3,3,4,4,5,5,6,6,7,7,8,8,9,9,10,10,11,11,12,12,14,14,15,15,16,16,17,17,18,18,19,19,20,20,21,21,22,22,24,24,25,25,26,26,27,27,28,28,30,30,34,34,35,35,36,36,37,37,38,38,39,39,40,40,42,42,43,43,44,44,47,47,48,48,51,51,52,52,53,53,54,54],"right_children":[2,4,6,8,10,12,14,16,18,20,22,24,26,-1,28,30,32,34,36,38,40,42,44,-1,46,48,50,52,54,-1,56,-1,-1,-1,58,60,62,64,66,68,70,-1,72,74,76,-1,-1,78,80,-1,-1,82,84,86,88,-1,-1,-1,-1,-1,-1,-1,-1,-1,-1,-1,-1,-1,-1,-1,-1,-1,-1,-1,-1,-1,-1,-1,-1,-1,-1,-1,-1,-1,-1,-1,-1,-1,-1],"split_conditions":[-5.500895E-1,-1.7047884E0,-4.407066E-1,-1.1224126E0,2.0810457E-1,-9.213145E-2,-4.2939258E-1,-5.764361E-1,-4.1821834E-1,1.2098807E0,-1.6027182E0,-2.1849587E0,3.92578E-1,-3.5605878E-1,2.0835085E0,5.5946684E-1,-1.077262E-1,-9.506592E-1,1.6734914E-1,2.032403E-1,-1.9026579E-1,5.2097327E-1,-1.1606314E-2,2.3049623E-2,-7.7264175E-2,-1.3388302E0,5.654436E-1,-4.1737622E-1,4.0598223E-1,6.7020446E-2,2.3712283E-1,2.444575E-1,1.1618074E-1,-1.4967817E-1,6.447294E-1,-3.774604E-1,2.837369E0,6.4637756E-1,1.093704E0,-9.287096E-1,-6.186913E-2,-3.045122E-1,2.2535774E-1,4.7606665E-1,1.1056454E0,1.20330095E-1,2.6863945E-1,-7.2461E-1,-1.8732831E0,-2.0899648E-2,-7.547322E-2,2.1247002E-1,4.8608166E-1,-3.3637285E-1,3.6478207E-1,-8.094649E-3,5.9896503E-3,-5.700013E-2,7.1068886E-3,-1.5853876E-2,-4.9327705E-2,8.1618965E-2,-3.5599805E-2,8.382466E-2,-2.9368829E-2,-6.1799876E-2,5.4032646E-2,4.862572E-2,-6.680453E-2,-3.7412357E-2,-1.774618E-1,-6.4740494E-2,9.903181E-3,-1.7878297E-1,2.9865578E-3,3.8722355E-2,-1.18178494E-1,-6.123484E-5,-1.2891953E-2,2.537343E-2,9.76188E-2,-7.036909E-2,6.6298475E-3,3.7934214E-2,-3.0124148E-2,-1.793669E-2,2.1936427E-1,4.2693302E-2,-5.7081405E-2],"split_indices":[10,9,10,32,14,38,10,41,17,57,39,15,0,0,18,3,5,19,40,5,6,1,4,0,2,12,0,31,42,0,0,0,0,0,8,0,15,18,33,0,47,0,0,34,4,0,0,0,0,0,0,12,4,16,0,0,0,0,0,0,0,0,0,0,0,0,0,0,0,0,0,0,0,0,0,0,0,0,0,0,0,0,0,0,0,0,0,0,0],"split_type":[0,0,0,0,0,0,0,0,0,0,0,0,0,0,0,0,0,0,0,0,0,0,0,0,0,0,0,0,0,0,0,0,0,0,0,0,0,0,0,0,0,0,0,0,0,0,0,0,0,0,0,0,0,0,0,0,0,0,0,0,0,0,0,0,0,0,0,0,0,0,0,0,0,0,0,0,0,0,0,0,0,0,0,0,0,0,0,0,0],"sum_hessian":[6.57E2,2.27E2,4.3E2,3.6E1,1.91E2,2E1,4.1E2,1.2E1,2.4E1,1.1E2,8.1E1,1E1,1E1,1E0,4.09E2,5E0,7E0,8E0,1.6E1,9.2E1,1.8E1,7E0,7.4E1,2E0,8E0,6E0,4E0,3.85E2,2.4E1,3E0,2E0,3E0,4E0,4E0,4E0,4E0,1.2E1,5.4E1,3.8E1,6E0,1.2E1,5E0,2E0,3.3E1,4.1E1,3E0,5E0,2E0,4E0,1E0,3E0,1.36E2,2.49E2,1.3E1,1.1E1,1E0,1E0,3E0,1E0,2E0,2E0,1E1,2E0,3.4E1,2E1,3E1,8E0,5E0,1E0,5E0,7E0,1E0,1E0,2E1,1.3E1,3E1,1.1E1,1E0,1E0,1E0,3E0,7.3E1,6.3E1,1.7E2,7.9E1,2E0,1.1E1,8E0,3E0],"tree_param":{"num_deleted":"0","num_feature":"60","num_nodes":"89","size_leaf_vector":"0"}},{"base_weights":[-5.7735555E-3,6.625524E-2,-2.9432667E-2,-4.440946E-2,1.634383E-1,1.8156087E-3,-1.24208465E-1,-5.5748266E-1,6.800709E-3,3.1329054E-2,3.786677E-1,2.2107586E-1,-2.3639647E-2,-7.074243E-1,-9.350081E-2,-1.2260932E0,-4.481987E-2,-3.606178E-1,7.294502E-2,-1.9689924E-1,2.2808261E-1,5.62627E-1,9.853357E-3,1.0407908E-1,4.013321E-1,6.288099E-2,-1.03597954E-1,1.0933777E-1,-1.1431397E0,-4.3714482E-1,-4.679112E-2,-2.1765761E-1,3.2326555E-1,2.748667E-2,-5.8631843E-1,1.2893555E-1,-2.6488203E-1,-3.4847017E-2,-4.5269808E-1,3.9332148E-1,1.1143792E-2,-3.437298E-2,6.586993E-1,-3.605807E-1,1.1999825E-1,-5.506966E-2,2.5522175E-1,-6.0289174E-2,4.769884E-1,5.6356776E-1,3.663341E-2,5.0081417E-2,-1.8421398E-1,-1.0572362E-1,2.6973027E-1,-5.2561015E-2,-7.1901256E-1,-1.2943475E-2,-6.031201E-1,-2.4559037E-1,-6.692967E-2,-1.2851016E-1,1.7432128E-1,-2.315295E-1,-7.9452777E-1,2.5548646E-1,4.4496022E-2,-5.584638E-2,-3.600921E-1,-3.4522578E-1,8.720997E-2,-1.1575323E-1,-5.2246517E-1,5.606898E-1,1.3494584E-1,-2.0530811E-1,1.1825537E-1,-2.1934688E-1,1.0040061E-1,1.6015089E-1,7.4216765E-1,-4.388656E-1,-1.0200548E-1,2.853531E-1,8.367154E-3,-1.5400074E-1,2.0602545E-1,7.494825E-2,3.2701573E-1,3.578001E-1,6.55712E-1,-1.23972446E-1,1.0008864E0,-1.6834226E-2,3.1533846E-1,2.5281683E-1,-8.825551E-2,-3.114319E-1,-5.3819954E-2,1.06648415E-1,-1.3757446E-1,-7.6886994E-1,-1.8500532E-1,1.5621725E-1,-9.484583E-2,2.4128184E-3,-1.2094573E0],"categories":[],"categories_nodes":[],"categories_segments":[],"categories_sizes":[],"default_left":[1,1,1,1,1,1,1,1,1,1,1,1,1,1,1,0,1,1,1,1,1,1,1,1,1,1,1,1,0,1,1,1,0,1,1,1,1,1,1,1,1,1,1,1,1,1,1,0,1,1,1,1,1,0,0,1,1,1,1,0,0,0,0,0,0,0,0,0,0,0,0,0,0,0,0,0,0,0,0,0,0,0,0,0,0,0,0,0,0,0,0,0,0,0,0,0,0,0,0,0,0,0,0,0,0,0,0],"id":15,"left_children":[1,3,5,7,9,11,13,15,17,19,21,23,25,27,29,-1,31,33,35,37,39,41,43,45,47,49,51,53,-1,55,57,59,-1,61,63,65,67,69,71,73,75,77,79,81,83,85,87,-1,89,91,93,95,97,-1,-1,99,101,103,105,-1,-1,-1,-1,-1,-1,-1,-1,-1,-1,-1,-1,-1,-1,-1,-1,-1,-1,-1,-1,-1,-1,-1,-1,-1,-1,-1,-1,-1,-1,-1,-1,-1,-1,-1,-1,-1,-1,-1,-1,-1,-1,-1,-1,-1,-1,-1,-1],"loss_changes":[1.1232724E0,1.7602799E0,1.4691694E0,2.0269327E0,2.4618773E0,2.092642E0,2.1366856E0,2.3444486E0,1.7517929E0,2.5146692E0,2.2334013E0,7.807163E-1,2.3309772E0,2.260244E0,1.8736229E0,0E0,3.8845646E-1,9.796655E-1,1.1879749E0,1.0619969E0,1.0710186E0,1.2844548E0,5.328861E-1,6.15409E-1,5.526254E-1,2.1083288E0,2.1773043E0,1.3199958E-1,0E0,1.4798326E0,1.9693885E0,4.0370226E-4,0E0,1.3693075E-1,3.3313608E-1,5.5498457E-1,1.5901083E-1,6.741334E-1,1.7459941E-1,6.594837E-1,3.4886184E-1,1.2174095E-1,6.7178917E-1,1.5960932E-2,1.8219984E-1,3.6752352E-1,1.4374393E-1,0E0,4.2309284E-2,2.5294755E0,2.315072E0,1.7331058E0,1.8909116E0,0E0,0E0,1.0941671E-1,7.0748806E-2,1.4002827E0,2.2058609E0,0E0,0E0,0E0,0E0,0E0,0E0,0E0,0E0,0E0,0E0,0E0,0E0,0E0,0E0,0E0,0E0,0E0,0E0,0E0,0E0,0E0,0E0,0E0,0E0,0E0,0E0,0E0,0E0,0E0,0E0,0E0,0E0,0E0,0E0,0E0,0E0,0E0,0E0,0E0,0E0,0E0,0E0,0E0,0E0,0E0,0E0,0E0,0E0],"parents":[2147483647,0,0,1,1,2,2,3,3,4,4,5,5,6,6,7,7,8,8,9,9,10,10,11,11,12,12,13,13,14,14,16,16,17,17,18,18,19,19,20,20,21,21,22,22,23,23,24,24,25,25,26,26,27,27,29,29,30,30,31,31,33,33,34,34,35,35,36,36,37,37,38,38,39,39,40,40,41,41,42,42,43,43,44,44,45,45,46,46,48,48,49,49,50,50,51,51,52,52,55,55,56,56,57,57,58,58],"right_children":[2,4,6,8,10,12,14,16,18,20,22,24,26,28,30,-1,32,34,36,38,40,42,44,46,48,50,52,54,-1,56,58,60,-1,62,64,66,68,70,72,74,76,78,80,82,84,86,88,-1,90,92,94,96,98,-1,-1,100,102,104,106,-1,-1,-1,-1,-1,-1,-1,-1,-1,-1,-1,-1,-1,-1,-1,-1,-1,-1,-1,-1,-1,-1,-1,-1,-1,-1,-1,-1,-1,-1,-1,-1,-1,-1,-1,-1,-1,-1,-1,-1,-1,-1,-1,-1,-1,-1,-1,-1],"split_conditions":[-8.937447E-1,-3.8176596E-1,7.878537E-1,-2.6225538E0,3.2451046E-1,-1.8579559E0,8.21653E-1,-6.6474485E-1,-1.6767648E0,-1.700953E-1,5.7120275E-1,-1.6419601E-1,3.924845E-2,-8.818503E-1,-1.7401266E0,-3.6782795E-1,1.4470522E0,-3.6839418E-2,-7.704675E-1,2.7218542E-1,2.0110588E-1,-2.2304707E0,-1.0130014E0,2.3758742E-1,-7.600057E-1,-2.9968922E0,-3.266849E-1,-1.7757264E0,-3.4294194E-1,-1.6203388E0,2.848909E0,-1.4802611E-1,9.697967E-2,4.128515E-1,-1.3506646E0,-9.245865E-2,-1.8148758E0,-9.335821E-1,-1.455103E0,2.2010195E-1,-2.5524628E-1,4.152058E-2,-2.6136017E0,3.4774534E-2,-7.269984E-2,1.2293675E0,-6.8480957E-1,-1.8086754E-2,6.576953E-1,3.4369573E-2,1.050714E0,-1.7610061E-1,1.577498E-1,-3.1717088E-2,8.091909E-2,-6.885793E-1,1.129668E0,-5.1822865E-1,1.2542139E0,-7.3677115E-2,-2.0078901E-2,-3.855305E-2,5.2296385E-2,-6.945886E-2,-2.3835833E-1,7.664594E-2,1.3348808E-2,-1.6753914E-2,-1.0802764E-1,-1.0356774E-1,2.6162991E-2,-3.472597E-2,-1.5673956E-1,1.6820695E-1,4.0483754E-2,-6.1592434E-2,3.5476614E-2,-6.5804064E-2,3.0120185E-2,4.8045266E-2,2.226503E-1,-1.3165969E-1,-3.0601645E-2,8.5605934E-2,2.5101462E-3,-4.6200223E-2,6.1807636E-2,2.2484476E-2,9.810472E-2,1.0734003E-1,1.9671361E-1,-3.7191734E-2,3.0026594E-1,-5.050268E-3,9.460154E-2,7.584505E-2,-2.6476653E-2,-9.342958E-2,-1.6145987E-2,3.1994525E-2,-4.1272342E-2,-2.3066099E-1,-5.55016E-2,4.6865176E-2,-2.845375E-2,7.2384556E-4,-3.628372E-1],"split_indices":[21,10,10,59,9,35,10,1,57,8,26,46,43,0,58,0,0,17,10,5,15,7,48,53,2,59,20,0,0,5,17,0,0,0,2,35,30,18,6,40,29,0,3,0,0,26,26,0,8,9,28,56,52,0,0,4,2,7,1,0,0,0,0,0,0,0,0,0,0,0,0,0,0,0,0,0,0,0,0,0,0,0,0,0,0,0,0,0,0,0,0,0,0,0,0,0,0,0,0,0,0,0,0,0,0,0,0],"split_type":[0,0,0,0,0,0,0,0,0,0,0,0,0,0,0,0,0,0,0,0,0,0,0,0,0,0,0,0,0,0,0,0,0,0,0,0,0,0,0,0,0,0,0,0,0,0,0,0,0,0,0,0,0,0,0,0,0,0,0,0,0,0,0,0,0,0,0,0,0,0,0,0,0,0,0,0,0,0,0,0,0,0,0,0,0,0,0,0,0,0,0,0,0,0,0,0,0,0,0,0,0,0,0,0,0,0,0],"sum_hessian":[6.57E2,1.62E2,4.95E2,7.6E1,8.6E1,3.73E2,1.22E2,6E0,7E1,5.4E1,3.2E1,3.8E1,3.35E2,5E0,1.17E2,2E0,4E0,1E1,6E1,2.5E1,2.9E1,2.1E1,1.1E1,2.4E1,1.4E1,1.61E2,1.74E2,2E0,3E0,1.3E1,1.04E2,3E0,1E0,4E0,6E0,5.2E1,8E0,1.6E1,9E0,1.6E1,1.3E1,3E0,1.8E1,2E0,9E0,1.2E1,1.2E1,2E0,1.2E1,7E0,1.54E2,6E1,1.14E2,1E0,1E0,6E0,7E0,9.9E1,5E0,2E0,1E0,2E0,2E0,3E0,3E0,2E1,3.2E1,3E0,5E0,4E0,1.2E1,2E0,7E0,9E0,7E0,4E0,9E0,1E0,2E0,3E0,1.5E1,1E0,1E0,3E0,6E0,9E0,3E0,4E0,8E0,9E0,3E0,3E0,4E0,1.3E2,2.4E1,2.4E1,3.6E1,5.7E1,5.7E1,2E0,4E0,6E0,1E0,3.2E1,6.7E1,3E0,2E0],"tree_param":{"num_deleted":"0","num_feature":"60","num_nodes":"107","size_leaf_vector":"0"}},{"base_weights":[-5.313823E-3,-1.08373575E-2,2.6957214E-1,-1.6033493E-1,-1.2300503E-3,4.1359503E-2,6.264404E-1,-1.1096205E-1,-3.7018782E-1,-8.853913E-2,1.8232878E-2,1.11320406E-1,-2.5916386E-1,1.1910987E-1,7.234956E-1,-3.165781E-1,-4.3427803E-2,-4.3066815E-2,-4.175302E-1,-2.7934343E-2,-3.4694374E-1,-2.2406574E-2,7.594708E-2,2.9919028E-2,1.1867503E-1,-3.5837165E-1,-1.2011647E-2,3.9892178E-2,-1.2981641E-1,-7.467867E-2,2.8602234E-1,-9.4063985E-1,-1.9573662E-1,-1.4144525E-1,3.0220326E-2,-3.043981E-1,9.896347E-2,7.865574E-2,-4.561338E-2,-2.0009576E-1,-1.4474546E-2,1.13454506E-1,-1.4799564E-1,-1.2301484E-1,3.8013127E-1,5.922547E-2,-3.2815313E-1,-2.1479113E-1,2.720603E-1,-5.83771E-2,9.7935416E-2,-6.611506E-1,4.4875193E-2,1.5762322E-1,-4.5820195E-2],"categories":[],"categories_nodes":[],"categories_segments":[],"categories_sizes":[],"default_left":[1,1,1,1,1,1,1,1,1,1,1,1,0,0,0,1,1,0,0,1,1,1,1,0,0,0,0,1,1,1,1,0,1,1,1,1,1,0,0,0,0,0,0,0,0,0,0,0,0,0,0,0,0,0,0],"id":16,"left_children":[1,3,5,7,9,11,13,15,17,19,21,23,-1,-1,-1,25,27,-1,-1,29,31,33,35,-1,-1,-1,-1,37,39,41,43,-1,45,47,49,51,53,-1,-1,-1,-1,-1,-1,-1,-1,-1,-1,-1,-1,-1,-1,-1,-1,-1,-1],"loss_changes":[1.0019907E0,9.276327E-1,1.0328348E0,3.6300385E-1,1.0347829E0,2.1807419E-1,1.6002E-1,4.4449383E-1,9.042513E-2,1.7286302E0,1.1697476E0,1.2387708E-3,0E0,0E0,0E0,9.752667E-2,1.92324E-1,0E0,0E0,1.3568479E0,1.7010751E0,1.8398131E0,1.8334836E0,0E0,0E0,0E0,0E0,4.999075E-2,1.0248366E-1,1.120259E0,5.0869036E-1,0E0,6.2713635E-1,2.7880394E0,1.2295913E0,1.5249186E0,1.663352E0,0E0,0E0,0E0,0E0,0E0,0E0,0E0,0E0,0E0,0E0,0E0,0E0,0E0,0E0,0E0,0E0,0E0,0E0],"parents":[2147483647,0,0,1,1,2,2,3,3,4,4,5,5,6,6,7,7,8,8,9,9,10,10,11,11,15,15,16,16,19,19,20,20,21,21,22,22,27,27,28,28,29,29,30,30,32,32,33,33,34,34,35,35,36,36],"right_children":[2,4,6,8,10,12,14,16,18,20,22,24,-1,-1,-1,26,28,-1,-1,30,32,34,36,-1,-1,-1,-1,38,40,42,44,-1,46,48,50,52,54,-1,-1,-1,-1,-1,-1,-1,-1,-1,-1,-1,-1,-1,-1,-1,-1,-1,-1],"split_conditions":[3.752213E0,-2.7694883E0,-1.9219822E-1,9.495871E-1,-1.2208421E0,4.1820426E0,-3.1121745E0,-7.8423417E-1,-5.1271257E0,1.0871365E0,2.7272174E-1,-3.0234811E0,-7.774916E-2,3.5732962E-2,2.1704869E-1,1.9890599E0,-3.7140287E-3,-1.2920045E-2,-1.2525907E-1,6.7658496E-1,-1.2727647E0,-6.793333E-1,-2.428938E0,8.975709E-3,3.560251E-2,-1.075115E-1,-3.6034943E-3,5.0867224E-1,-2.1825397E-1,-4.9693775E-1,-1.5203689E0,-2.8219196E-1,-1.6703564E-1,1.190458E0,-2.5208956E-1,8.4592566E-2,5.5265516E-1,2.3596724E-2,-1.3684014E-2,-6.0028728E-2,-4.3423637E-3,3.4036353E-2,-4.439869E-2,-3.6904454E-2,1.14039384E-1,1.7767642E-2,-9.8445944E-2,-6.4437345E-2,8.161809E-2,-1.751313E-2,2.9380625E-2,-1.9834518E-1,1.3462558E-2,4.728697E-2,-1.37460595E-2],"split_indices":[9,5,1,15,48,0,0,32,3,23,25,4,0,0,0,8,34,0,0,23,39,30,12,0,0,0,0,14,15,21,0,0,27,2,46,29,2,0,0,0,0,0,0,0,0,0,0,0,0,0,0,0,0,0,0],"split_type":[0,0,0,0,0,0,0,0,0,0,0,0,0,0,0,0,0,0,0,0,0,0,0,0,0,0,0,0,0,0,0,0,0,0,0,0,0,0,0,0,0,0,0,0,0,0,0,0,0,0,0,0,0,0,0],"sum_hessian":[6.57E2,6.45E2,1.2E1,3.8E1,6.07E2,8E0,4E0,3.2E1,6E0,1.1E2,4.97E2,7E0,1E0,1E0,3E0,7E0,2.5E1,1E0,5E0,9E1,2E1,2.92E2,2.05E2,1E0,6E0,6E0,1E0,1.3E1,1.2E1,7.9E1,1.1E1,3E0,1.7E1,8.9E1,2.03E2,1.1E1,1.94E2,9E0,4E0,7E0,5E0,2.2E1,5.7E1,2E0,9E0,6E0,1.1E1,7.6E1,1.3E1,8.8E1,1.15E2,5E0,6E0,1.38E2,5.6E1],"tree_param":{"num_deleted":"0","num_feature":"60","num_nodes":"55","size_leaf_vector":"0"}},{"base_weights":[-4.4834046E-3,-1.4499708E-2,1.0345078E-1,1.1776102E-2,-1.1609559E-1,3.431156E-4,3.6119848E-1,6.4887E-2,-5.9786756E-2,-2.0893197E-1,4.0443417E-2,-5.83462E-2,2.937407E-1,6.3110644E-1,1.3614307E-1,-9.4332114E-2,1.16379894E-1,-3.3652794E-1,-3.1348947E-2,-3.261577E-1,1.2048174E-2,2.6648465E-1,-6.352816E-2,-1.5708269E-1,5.5438478E-2,9.9274255E-2,3.516724E-1,6.823599E-2,7.1354556E-1,2.3453419E-1,-7.0077136E-2,1.423371E-1,-1.7601277E-1,1.7415626E-1,-4.0745817E-2,-6.7552286E-1,-8.248736E-2,-4.096896E-2,5.723347E-1,1.8732196E-1,-3.9878434E-1,-2.2118676E-1,7.2368234E-2,3.881437E-1,-5.4462157E-2,-1.453657E-1,1.13362E-1,-2.2000895E-1,6.311265E-2,2.1442597E-1,-7.7295355E-2,-7.121272E-2,2.8470632E-1,2.2623141E-1,-2.2465305E-1,3.029654E-1,6.1871868E-2,-1.6444802E-1,1.7914598E-1,-9.5462847E-1,-3.1713378E-1,9.786961E-2,-2.2529514E-1,1.6934339E-2,-1.4812788E-1,2.9179218E-1,-4.923572E-2,-5.583849E-1,-1.5099496E-1,1.1618367E-1,-3.1189758E-1,-2.6002605E-2,1.6470839E-1,4.707237E-1,1.1022451E-2,-2.7389795E-2,-8.137581E-2,5.121006E-2,-2.3456822E-1,1.6563033E-1,-8.1230305E-2,-3.2393825E-1,-1.1472963E-1,-7.0635006E-3,1.7190862E-1,8.114343E-2,2.4532956E-1,-1.3666835E-1,9.4113145E-3],"categories":[],"categories_nodes":[],"categories_segments":[],"categories_sizes":[],"default_left":[1,1,1,1,1,1,1,1,1,1,1,1,1,1,1,1,1,1,1,1,1,1,1,1,1,0,0,0,0,0,0,1,1,1,1,1,1,1,0,1,1,1,1,1,1,1,1,1,1,1,1,0,0,0,0,0,0,0,0,0,0,0,0,0,0,0,0,0,0,0,0,0,0,0,0,0,0,0,0,0,0,0,0,0,0,0,0,0,0],"id":17,"left_children":[1,3,5,7,9,11,13,15,17,19,21,23,25,27,29,31,33,35,37,39,41,43,45,47,49,-1,-1,-1,-1,-1,-1,51,53,55,57,59,61,63,-1,65,67,69,71,73,75,77,79,81,83,85,87,-1,-1,-1,-1,-1,-1,-1,-1,-1,-1,-1,-1,-1,-1,-1,-1,-1,-1,-1,-1,-1,-1,-1,-1,-1,-1,-1,-1,-1,-1,-1,-1,-1,-1,-1,-1,-1,-1],"loss_changes":[7.128648E-1,1.6110841E0,1.4881186E0,1.828248E0,1.8104815E0,7.2313005E-1,8.859875E-1,2.2738063E0,1.6027822E0,2.024485E0,1.1215168E0,4.019229E-1,4.3948412E-2,2.7612805E-1,2.1933784E-1,1.3395815E0,1.9044304E0,1.5805287E0,1.1094398E0,1.9766088E0,4.0993172E-1,6.0683024E-1,4.9419534E-1,2.7715072E-1,3.7532547E-1,0E0,0E0,0E0,0E0,0E0,0E0,5.675273E-1,1.0486519E0,2.1941333E0,1.5799229E0,4.974823E-1,3.311261E-1,1.1504067E0,0E0,1.8735926E-1,1.6953168E0,2.1985629E-1,2.1320516E-1,3.37381E-1,1.4142133E-3,4.153185E-1,1.2533534E-1,1.2695879E-1,3.9388686E-2,1.3044387E-2,5.276658E-2,0E0,0E0,0E0,0E0,0E0,0E0,0E0,0E0,0E0,0E0,0E0,0E0,0E0,0E0,0E0,0E0,0E0,0E0,0E0,0E0,0E0,0E0,0E0,0E0,0E0,0E0,0E0,0E0,0E0,0E0,0E0,0E0,0E0,0E0,0E0,0E0,0E0,0E0],"parents":[2147483647,0,0,1,1,2,2,3,3,4,4,5,5,6,6,7,7,8,8,9,9,10,10,11,11,12,12,13,13,14,14,15,15,16,16,17,17,18,18,19,19,20,20,21,21,22,22,23,23,24,24,31,31,32,32,33,33,34,34,35,35,36,36,37,37,39,39,40,40,41,41,42,42,43,43,44,44,45,45,46,46,47,47,48,48,49,49,50,50],"right_children":[2,4,6,8,10,12,14,16,18,20,22,24,26,28,30,32,34,36,38,40,42,44,46,48,50,-1,-1,-1,-1,-1,-1,52,54,56,58,60,62,64,-1,66,68,70,72,74,76,78,80,82,84,86,88,-1,-1,-1,-1,-1,-1,-1,-1,-1,-1,-1,-1,-1,-1,-1,-1,-1,-1,-1,-1,-1,-1,-1,-1,-1,-1,-1,-1,-1,-1,-1,-1,-1,-1,-1,-1,-1,-1],"split_conditions":[1.8233571E0,7.016843E-1,9.5067054E-1,3.4828955E-1,3.008641E-1,1.4396284E0,-3.1887138E-1,-8.2353455E-1,4.3109858E-1,4.1235834E-1,-6.1539674E-1,-8.130135E-2,-7.370519E-1,-1.6870954E0,7.799159E-1,-1.35391E0,6.550114E-1,-6.434839E-1,4.698381E0,-2.3173182E0,-1.3016009E0,2.0047088E0,4.6822172E-1,1.1120765E0,5.7890918E-2,2.9782278E-2,1.05501726E-1,2.0470798E-2,2.1406367E-1,7.036026E-2,-2.1023141E-2,8.887284E-2,-2.0929894E0,6.0867496E-2,4.0666103E-1,2.856945E-1,1.6341642E-1,5.230016E-1,1.7170042E-1,4.6148956E-1,5.409988E-1,-2.5840921E0,3.9184952E-1,9.364852E-1,-7.707524E-2,-8.8166976E-1,1.1577618E0,1.04830734E-1,1.7476296E0,-8.6478937E-1,-1.1127933E-1,-2.1363815E-2,8.54119E-2,6.7869425E-2,-6.739592E-2,9.0889625E-2,1.856156E-2,-4.933441E-2,5.3743795E-2,-2.8638855E-1,-9.514014E-2,2.9360885E-2,-6.7588545E-2,5.080302E-3,-4.4438366E-2,8.753766E-2,-1.4770716E-2,-1.6751547E-1,-4.5298487E-2,3.48551E-2,-9.356928E-2,-7.8007816E-3,4.941252E-2,1.4121711E-1,3.3067355E-3,-8.216939E-3,-2.4412744E-2,1.5363019E-2,-7.037047E-2,4.96891E-2,-2.4369093E-2,-9.718148E-2,-3.441889E-2,-2.1190504E-3,5.1572587E-2,2.434303E-2,7.359887E-2,-4.1000508E-2,2.8233945E-3],"split_indices":[14,14,11,11,32,51,37,7,11,22,51,59,0,0,41,29,45,59,13,19,46,32,6,38,39,0,0,0,0,0,0,59,54,56,5,4,21,20,0,2,13,0,30,27,0,21,13,53,4,3,5,0,0,0,0,0,0,0,0,0,0,0,0,0,0,0,0,0,0,0,0,0,0,0,0,0,0,0,0,0,0,0,0,0,0,0,0,0,0],"split_type":[0,0,0,0,0,0,0,0,0,0,0,0,0,0,0,0,0,0,0,0,0,0,0,0,0,0,0,0,0,0,0,0,0,0,0,0,0,0,0,0,0,0,0,0,0,0,0,0,0,0,0,0,0,0,0,0,0,0,0,0,0,0,0,0,0,0,0,0,0,0,0,0,0,0,0,0,0,0,0,0,0,0,0,0,0,0,0,0,0],"sum_hessian":[6.57E2,6.02E2,5.5E1,4.79E2,1.23E2,4E1,1.5E1,2.75E2,2.04E2,7.7E1,4.6E1,3.4E1,6E0,6E0,9E0,6.7E1,2.08E2,1.8E1,1.86E2,5E1,2.7E1,1.4E1,3.2E1,1.8E1,1.6E1,2E0,4E0,1E0,5E0,6E0,3E0,1.7E1,5E1,1.52E2,5.6E1,7E0,1.1E1,1.84E2,2E0,6E0,4.4E1,5E0,2.2E1,1E1,4E0,2.2E1,1E1,1.4E1,4E0,7E0,9E0,7E0,1E1,5E0,4.5E1,7E1,8.2E1,3.6E1,2E1,3E0,4E0,5E0,6E0,1.2E2,6.4E1,4E0,2E0,2.6E1,1.8E1,1E0,4E0,1.1E1,1.1E1,8E0,2E0,3E0,1E0,7E0,1.5E1,8E0,2E0,6E0,8E0,3E0,1E0,2E0,5E0,5E0,4E0],"tree_param":{"num_deleted":"0","num_feature":"60","num_nodes":"89","size_leaf_vector":"0"}},{"base_weights":[-2.81498E-3,-1.597881E-2,6.363384E-2,8.057278E-3,-1.3118383E-1,1.9016948E-1,-6.405879E-2,1.275094E-1,-1.00162355E-2,9.659708E-3,-2.9465383E-1,2.4361098E-1,-1.100438E-1,-1.9688442E-1,1.0320734E-1,2.191776E-1,-5.3168546E-2,-1.5571299E-1,9.521551E-3,-7.9464954E-1,5.772507E-2,-4.559788E-1,-1.1609521E-2,4.352525E-1,1.2050569E-1,1.781423E-2,-2.1589306E-1,1.8373893E-1,-2.6007822E-1,-1.3132747E-1,2.213018E-1,7.4160405E-2,3.755566E-1,-4.9979466E-1,2.014971E-2,1.1101146E-2,-3.160391E-1,1.3822849E-1,-1.9113053E-2,-1.4329848E-1,1.6562504E-1,-5.55482E-1,1.4464209E-3,-3.7636736E-1,9.3436256E-2,5.5628705E-1,9.305274E-3,-6.3474006E-3,2.0542705E-1,-2.9847568E-2,5.953795E-2,1.5308221E-2,2.9092333E-1,-3.6496267E-1,-7.434056E-2,1.2036788E-1,-2.7723643E-1,3.798672E-2,3.4582368E-1,-6.0270958E-2,1.5528339E-1,5.3036535E-1,9.639882E-2,1.8788825E-1,-7.1721025E-2,-9.1881536E-2,1.6446505E-1,-5.992448E-1,-7.094611E-2,-1.680842E-1,2.0497423E-1,-7.577207E-1,-1.38993645E-2,-2.0996425E-1,1.4252278E-1,-5.904343E-2,2.5233585E-1,-2.6881593E-1,-7.5531614E-1,5.0073735E-2,-6.3872136E-2,-8.360155E-2,1.7261153E-1,6.958652E-1,2.5420523E-1,-8.248806E-3,1.5755996E-2,-1.5804917E-1,1.4626114E-1,-1.13583066E-1,2.5240228E-1,3.3270657E-2,-1.0308325E-2,-1.12621784E-1,-4.9236482E-1,-1.6208103E-1,-1.0487145E-3,1.468825E-1,2.0411998E-2,-4.087776E-2,-3.1633264E-1,1.02335244E-1,-1.0337257E-1,3.8119563E-1,1.3738096E-2],"categories":[],"categories_nodes":[],"categories_segments":[],"categories_sizes":[],"default_left":[1,1,1,1,1,1,1,1,1,1,1,1,1,1,1,1,1,1,1,0,1,1,1,1,1,1,0,1,1,1,1,1,1,0,1,1,1,1,1,1,1,1,1,0,1,1,1,1,1,0,0,1,0,1,1,1,1,1,1,0,0,0,0,0,0,0,0,0,0,0,0,0,0,0,0,0,0,0,0,0,0,0,0,0,0,0,0,0,0,0,0,0,0,0,0,0,0,0,0,0,0,0,0,0,0],"id":18,"left_children":[1,3,5,7,9,11,13,15,17,19,21,23,25,27,29,31,33,35,37,-1,39,41,43,45,47,49,-1,51,53,55,57,59,61,-1,63,65,67,69,71,73,75,77,79,-1,81,83,85,87,89,-1,-1,91,-1,93,95,97,99,101,103,-1,-1,-1,-1,-1,-1,-1,-1,-1,-1,-1,-1,-1,-1,-1,-1,-1,-1,-1,-1,-1,-1,-1,-1,-1,-1,-1,-1,-1,-1,-1,-1,-1,-1,-1,-1,-1,-1,-1,-1,-1,-1,-1,-1,-1,-1],"loss_changes":[5.765831E-1,1.5240498E0,1.773368E0,9.8574454E-1,2.190097E0,9.0921926E-1,1.2422675E0,1.0053986E0,1.1315796E0,2.0561607E0,2.0038393E0,1.0563774E0,1.2564908E-1,7.9343057E-1,7.214945E-1,8.792542E-1,6.977335E-1,1.2605072E0,1.2962428E0,0E0,1.1082555E0,1.2752304E0,6.86543E-1,9.228015E-1,3.2448E-1,1.1720201E-2,0E0,8.581221E-2,4.9885535E-1,3.6389184E-1,3.7491786E-1,2.492795E-1,7.6997876E-1,0E0,3.0627054E-1,3.9416313E-1,1.6233673E0,1.3429372E0,1.0985186E0,3.7290558E-1,6.577779E-1,1.1145296E0,2.2255914E-2,0E0,2.1066882E-1,4.1340446E-1,6.961506E-4,3.2407925E-1,2.9840887E-1,0E0,0E0,1.7233714E-3,0E0,4.9107814E-1,7.0567295E-2,7.6030083E-3,4.251334E-2,8.334875E-2,1.12228155E-1,0E0,0E0,0E0,0E0,0E0,0E0,0E0,0E0,0E0,0E0,0E0,0E0,0E0,0E0,0E0,0E0,0E0,0E0,0E0,0E0,0E0,0E0,0E0,0E0,0E0,0E0,0E0,0E0,0E0,0E0,0E0,0E0,0E0,0E0,0E0,0E0,0E0,0E0,0E0,0E0,0E0,0E0,0E0,0E0,0E0,0E0],"parents":[2147483647,0,0,1,1,2,2,3,3,4,4,5,5,6,6,7,7,8,8,9,9,10,10,11,11,12,12,13,13,14,14,15,15,16,16,17,17,18,18,20,20,21,21,22,22,23,23,24,24,25,25,27,27,28,28,29,29,30,30,31,31,32,32,34,34,35,35,36,36,37,37,38,38,39,39,40,40,41,41,42,42,44,44,45,45,46,46,47,47,48,48,51,51,53,53,54,54,55,55,56,56,57,57,58,58],"right_children":[2,4,6,8,10,12,14,16,18,20,22,24,26,28,30,32,34,36,38,-1,40,42,44,46,48,50,-1,52,54,56,58,60,62,-1,64,66,68,70,72,74,76,78,80,-1,82,84,86,88,90,-1,-1,92,-1,94,96,98,100,102,104,-1,-1,-1,-1,-1,-1,-1,-1,-1,-1,-1,-1,-1,-1,-1,-1,-1,-1,-1,-1,-1,-1,-1,-1,-1,-1,-1,-1,-1,-1,-1,-1,-1,-1,-1,-1,-1,-1,-1,-1,-1,-1,-1,-1,-1,-1],"split_conditions":[1.2169433E0,5.7156765E-1,8.276938E-2,-1.8060877E0,2.0277718E-1,3.4178572E0,4.1759562E-1,3.0527115E-1,-9.9674106E-1,-2.3262181E0,1.0499452E0,-4.20124E-1,5.102249E-1,-2.3445024E0,-7.2107846E-1,5.968324E-2,-1.6681895E0,1.3260013E-1,-4.1068542E-1,-2.3839487E-1,-3.353032E-1,1.1440101E0,-1.4386818E0,7.245611E-1,3.1691197E-1,-1.6397965E0,-6.476792E-2,-4.0963745E0,-1.1443961E-3,9.2309284E-1,-2.2179936E-1,-6.5992165E-1,-5.1332124E-2,-1.499384E-1,-1.0425706E0,5.27896E-3,6.577928E-1,-1.303454E0,-4.0298063E-1,1.8455367E0,-6.9487023E-1,-1.9821055E-1,9.890711E-1,-1.1291021E-1,-1.0127356E0,1.0087333E0,-3.528832E-1,4.907407E-1,-1.7999189E0,-8.954271E-3,1.7861387E-2,-5.036463E0,8.7277E-2,-2.4458222E0,4.6659224E-2,-2.2761102E0,-3.7769632E0,5.762E-1,1.4247458E0,-1.8081289E-2,4.658502E-2,1.591096E-1,2.8919648E-2,5.6366477E-2,-2.1516308E-2,-2.7564462E-2,4.9339518E-2,-1.7977343E-1,-2.1283835E-2,-5.0425265E-2,6.149227E-2,-2.2731622E-1,-4.1698096E-3,-6.298928E-2,4.2756837E-2,-1.7713029E-2,7.570076E-2,-8.064479E-2,-2.2659485E-1,1.5022121E-2,-1.9161642E-2,-2.5080467E-2,5.178346E-2,2.0875958E-1,7.626157E-2,-2.474642E-3,4.726799E-3,-4.7414754E-2,4.3878343E-2,-3.407492E-2,7.572068E-2,9.981197E-3,-3.0924978E-3,-3.3786535E-2,-1.4770946E-1,-4.862431E-2,-3.1461436E-4,4.4064753E-2,6.1235996E-3,-1.2263329E-2,-9.4899796E-2,3.0700574E-2,-3.1011771E-2,1.1435869E-1,4.121429E-3],"split_indices":[2,2,54,15,5,2,20,26,15,15,38,28,59,0,47,16,11,24,15,0,26,32,27,29,28,4,0,0,5,4,26,53,3,0,17,16,24,16,15,11,49,46,2,0,53,18,4,11,23,0,0,0,0,5,19,0,1,7,0,0,0,0,0,0,0,0,0,0,0,0,0,0,0,0,0,0,0,0,0,0,0,0,0,0,0,0,0,0,0,0,0,0,0,0,0,0,0,0,0,0,0,0,0,0,0],"split_type":[0,0,0,0,0,0,0,0,0,0,0,0,0,0,0,0,0,0,0,0,0,0,0,0,0,0,0,0,0,0,0,0,0,0,0,0,0,0,0,0,0,0,0,0,0,0,0,0,0,0,0,0,0,0,0,0,0,0,0,0,0,0,0,0,0,0,0,0,0,0,0,0,0,0,0,0,0,0,0,0,0,0,0,0,0,0,0,0,0,0,0,0,0,0,0,0,0,0,0,0,0,0,0,0,0],"sum_hessian":[6.57E2,5.49E2,1.08E2,4.55E2,9.4E1,5.4E1,5.4E1,5.9E1,3.96E2,5.1E1,4.3E1,4.6E1,8E0,3E1,2.4E1,3.9E1,2E1,4.6E1,3.5E2,2E0,4.9E1,2.7E1,1.6E1,1.7E1,2.9E1,4E0,4E0,4E0,2.6E1,8E0,1.6E1,2.1E1,1.8E1,2E0,1.8E1,2.3E1,2.3E1,6.3E1,2.87E2,1.7E1,3.2E1,2.2E1,5E0,3E0,1.3E1,1.3E1,4E0,1.2E1,1.7E1,2E0,2E0,2E0,2E0,1.6E1,1E1,3E0,5E0,7E0,9E0,8E0,1.3E1,1.1E1,7E0,6E0,1.2E1,1.4E1,9E0,1E1,1.3E1,1.1E1,5.2E1,1E0,2.86E2,1.4E1,3E0,9E0,2.3E1,1E1,1.2E1,3E0,2E0,4E0,9E0,8E0,5E0,1E0,3E0,6E0,6E0,2E0,1.5E1,1E0,1E0,6E0,1E1,4E0,6E0,2E0,1E0,1E0,4E0,5E0,2E0,8E0,1E0],"tree_param":{"num_deleted":"0","num_feature":"60","num_nodes":"105","size_leaf_vector":"0"}},{"base_weights":[-3.0374075E-3,8.313956E-3,-7.123403E-2,2.4456048E-4,1.5745021E-1,1.1007607E-1,-1.1562427E-1,-3.4087288E-1,4.74094E-3,2.2147316E-1,-1.9415456E-1,1.9005713E-1,-5.418534E-2,5.431726E-2,-1.8149862E-1,6.8412013E-3,-4.8132676E-1,-4.581766E-2,3.2131426E-2,-2.6210865E-2,2.847047E-1,2.0178556E-3,-2.4370213E-1,2.2347125E-1,4.1863224E-3,5.7576835E-2,-1.1040558E-1,-1.5234789E-1,1.08706616E-1,-2.89516E-1,-4.029711E-2,-1.2251735E-3,1.14869755E-2,-7.710969E-2,1.2732889E-1,-8.298415E-2,5.6657456E-2,-1.258345E-1,1.153576E-1,1.3089539E-1,3.574562E-1,8.298314E-2,2.4547048E-1,-4.914731E-3,1.1194214E-2,9.131193E-3,7.723406E-2,-2.1514595E-2,-1.2724967E-1,-2.2889753E-1,-2.5015632E-2,2.3217154E-1,9.031531E-3,-4.0046516E-1,7.9520896E-2,-1.3008974E-1,8.581076E-2,-4.62337E-3,-1.6688676E-1,-2.3048105E-2,2.509507E-1,-2.8046384E-1,6.2041874E-3,7.85707E-2,-1.0211063E-1,-3.4145832E-2,-1.4501543E-1,2.4357669E-2,1.8994649E-1,1.408949E-1,4.0833512E-1,9.481409E-2,2.9562318E-1,-3.2384764E-2,8.960624E-2,-4.942926E-1,-1.0198528E-1,-3.3160847E-2,1.2260829E-1,-1.9434887E-1,3.7298296E-2,1.8652667E-1,1.6121332E-3],"categories":[],"categories_nodes":[],"categories_segments":[],"categories_sizes":[],"default_left":[1,1,1,1,1,1,1,1,1,1,1,1,1,1,1,1,0,1,1,1,1,0,0,1,1,1,1,1,1,1,1,0,0,1,1,1,1,1,0,1,1,0,0,0,0,0,0,0,0,0,0,1,1,1,1,1,1,0,0,0,0,0,0,0,0,0,0,0,0,0,0,0,0,0,0,0,0,0,0,0,0,0,0],"id":19,"left_children":[1,3,5,7,9,11,13,15,17,19,21,23,25,27,29,31,-1,33,35,37,39,-1,-1,41,43,45,47,49,51,53,55,-1,-1,57,59,61,63,65,-1,67,69,-1,-1,-1,-1,-1,-1,-1,-1,-1,-1,71,73,75,77,79,81,-1,-1,-1,-1,-1,-1,-1,-1,-1,-1,-1,-1,-1,-1,-1,-1,-1,-1,-1,-1,-1,-1,-1,-1,-1,-1],"loss_changes":[5.0996625E-1,6.7990476E-1,7.6927686E-1,8.252632E-1,6.958124E-1,2.5991657E-1,8.6066234E-1,3.4515744E-1,7.3681396E-1,3.989985E-1,4.909107E-2,7.9803675E-2,5.033987E-2,2.638497E-1,8.272054E-1,1.2649721E-4,0E0,1.023004E0,9.787499E-1,9.913735E-2,1.7700791E-1,0E0,0E0,1.3627052E-2,2.4635412E-4,2.151681E-3,4.748717E-3,4.3010183E-2,2.1941793E-1,1.3011196E0,2.9425204E-1,0E0,0E0,1.0339384E0,5.448903E-1,1.0761261E0,9.995734E-1,2.0830259E-3,0E0,4.570271E-2,8.570695E-2,0E0,0E0,0E0,0E0,0E0,0E0,0E0,0E0,0E0,0E0,4.1695207E-2,3.9610043E-2,6.2172365E-1,4.290709E-2,1.68592E-1,9.298086E-2,0E0,0E0,0E0,0E0,0E0,0E0,0E0,0E0,0E0,0E0,0E0,0E0,0E0,0E0,0E0,0E0,0E0,0E0,0E0,0E0,0E0,0E0,0E0,0E0,0E0,0E0],"parents":[2147483647,0,0,1,1,2,2,3,3,4,4,5,5,6,6,7,7,8,8,9,9,10,10,11,11,12,12,13,13,14,14,15,15,17,17,18,18,19,19,20,20,23,23,24,24,25,25,26,26,27,27,28,28,29,29,30,30,33,33,34,34,35,35,36,36,37,37,39,39,40,40,51,51,52,52,53,53,54,54,55,55,56,56],"right_children":[2,4,6,8,10,12,14,16,18,20,22,24,26,28,30,32,-1,34,36,38,40,-1,-1,42,44,46,48,50,52,54,56,-1,-1,58,60,62,64,66,-1,68,70,-1,-1,-1,-1,-1,-1,-1,-1,-1,-1,72,74,76,78,80,82,-1,-1,-1,-1,-1,-1,-1,-1,-1,-1,-1,-1,-1,-1,-1,-1,-1,-1,-1,-1,-1,-1,-1,-1,-1,-1],"split_conditions":[1.3055606E0,2.4971871E0,-1.3731822E0,-4.6687846E0,4.4297905E0,1.22977376E-1,-1.2753029E0,-1.3668758E-1,-3.7774003E-1,-7.271201E-1,6.623991E-1,1.5919433E0,-1.5890796E0,-1.0919975E0,2.1186535E-1,4.1013834E-1,-1.4439803E-1,1.2689149E0,-9.756372E-1,4.6962118E-1,-3.7333554E-1,6.053567E-4,-7.311064E-2,-2.3108659E0,3.0118976E0,-3.1251675E-1,-1.0828779E0,2.5035462E-1,4.3236995E-1,7.783929E-1,4.7424173E-1,-3.6755207E-4,3.4460928E-3,-3.3739284E-2,-4.2805216E-1,-6.948831E-1,1.3829858E0,4.286127E-1,3.460728E-2,-1.4257264E0,-1.6430898E0,2.4894943E-2,7.3641144E-2,-1.4744193E-3,3.3582645E-3,2.739358E-3,2.3170218E-2,-6.454379E-3,-3.8174905E-2,-6.866926E-2,-7.50469E-3,-8.192117E-1,7.241818E-1,1.1025465E0,3.06589E-1,4.8618016E-1,-6.807153E-1,-1.387011E-3,-5.006603E-2,-6.9144317E-3,7.528521E-2,-8.413915E-2,1.8612563E-3,2.3571212E-2,-3.063319E-2,-1.024375E-2,-4.3504633E-2,7.307301E-3,5.6983948E-2,4.2268474E-2,1.2250054E-1,2.8444229E-2,8.868696E-2,-9.7154295E-3,2.6881874E-2,-1.4828779E-1,-3.0595586E-2,-9.948255E-3,3.678249E-2,-5.8304664E-2,1.1189489E-2,5.5958003E-2,4.8363997E-4],"split_indices":[29,51,32,22,51,40,21,3,25,55,2,0,1,57,22,0,0,2,1,2,13,0,0,0,0,0,1,1,2,48,14,0,0,2,15,17,34,0,0,18,10,0,0,0,0,0,0,0,0,0,0,11,22,26,15,55,35,0,0,0,0,0,0,0,0,0,0,0,0,0,0,0,0,0,0,0,0,0,0,0,0,0,0],"split_type":[0,0,0,0,0,0,0,0,0,0,0,0,0,0,0,0,0,0,0,0,0,0,0,0,0,0,0,0,0,0,0,0,0,0,0,0,0,0,0,0,0,0,0,0,0,0,0,0,0,0,0,0,0,0,0,0,0,0,0,0,0,0,0,0,0,0,0,0,0,0,0,0,0,0,0,0,0,0,0,0,0,0,0],"sum_hessian":[6.57E2,5.64E2,9.3E1,5.36E2,2.8E1,1.8E1,7.5E1,6E0,5.3E2,2.4E1,4E0,1.2E1,6E0,2.1E1,5.4E1,2E0,4E0,1.86E2,3.44E2,5E0,1.9E1,1E0,3E0,1E1,2E0,2E0,4E0,4E0,1.7E1,3E1,2.4E1,1E0,1E0,1.58E2,2.8E1,6E1,2.84E2,3E0,2E0,7E0,1.2E1,2E0,8E0,1E0,1E0,1E0,1E0,1E0,3E0,2E0,2E0,7E0,1E1,2.3E1,7E0,1.4E1,1E1,8.8E1,7E1,1.3E1,1.5E1,1.8E1,4.2E1,2.5E2,3.4E1,1E0,2E0,3E0,4E0,3E0,9E0,3E0,4E0,7E0,3E0,1.7E1,6E0,2E0,5E0,1E1,4E0,4E0,6E0],"tree_param":{"num_deleted":"0","num_feature":"60","num_nodes":"83","size_leaf_vector":"0"}},{"base_weights":[-2.2465903E-3,-9.8339645E-3,9.8912254E-2,-5.2181585E-3,-3.5825202E-1,4.9915933E-3,3.6460483E-1,-2.918223E-2,3.300328E-2,-5.1158285E-1,6.7827016E-2,-5.774864E-2,5.0566554E-1,1.0944077E-1,4.7850677E-1,-1.1175886E-2,-2.0838737E-1,4.952177E-2,-1.5652287E-1,-6.798723E-1,-2.574701E-1,1.1431117E-1,-1.2570649E-2,-1.13242224E-1,1.5662019E-1,-1.861018E-2,6.8662757E-1,1.20784596E-1,3.203273E-2,1.4261743E-1,5.0611705E-1,-2.810646E-3,-3.185185E-1,-7.58314E-2,-5.681727E-1,5.851503E-2,-2.2735064E-1,8.000538E-2,-3.3581662E-1,-6.2741563E-3,-1.9126719E-1,2.0580804E-1,-6.9253504E-2,-5.391098E-2,5.312815E-2,-2.1483507E-2,-5.518498E-1,-7.174187E-4,-4.8877895E-1,-8.162438E-1,-5.4022856E-2,-5.520946E-2,8.1575416E-2,-5.740615E-2,-3.4045747E-1,1.3832563E-1,-2.7476357E-2,-5.6962214E-2,-4.8702455E-1,-8.3083645E-2,1.1787586E-1,-2.9052517E-1,-1.1258569E-1],"categories":[],"categories_nodes":[],"categories_segments":[],"categories_sizes":[],"default_left":[1,1,1,1,1,1,1,1,1,1,1,1,1,1,1,1,1,1,1,0,0,0,0,1,1,0,0,0,0,0,0,1,1,1,1,1,1,1,1,1,1,0,0,0,0,0,0,0,0,0,0,0,0,0,0,0,0,0,0,0,0,0,0],"id":20,"left_children":[1,3,5,7,9,11,13,15,17,19,21,23,25,27,29,31,33,35,37,-1,-1,-1,-1,39,41,-1,-1,-1,-1,-1,-1,43,45,47,49,51,53,55,57,59,61,-1,-1,-1,-1,-1,-1,-1,-1,-1,-1,-1,-1,-1,-1,-1,-1,-1,-1,-1,-1,-1,-1],"loss_changes":[5.0600743E-1,9.839756E-1,1.146065E0,5.5602354E-1,5.5734754E-1,1.1286356E0,2.9639614E-1,1.2012784E0,7.403317E-1,8.154023E-2,1.2648619E-2,3.9841104E-1,3.9227426E-1,5.214587E-4,2.0108223E-3,8.7324286E-1,1.5784322E0,5.5114055E-1,8.326199E-1,0E0,0E0,0E0,0E0,2.1580064E-1,9.2024624E-2,0E0,0E0,0E0,0E0,0E0,0E0,9.5188326E-1,6.1191237E-1,8.061208E-1,1.1038158E0,5.552351E-1,1.1500883E-1,6.0215946E-2,4.3607283E-1,1.2422435E-1,8.443755E-2,0E0,0E0,0E0,0E0,0E0,0E0,0E0,0E0,0E0,0E0,0E0,0E0,0E0,0E0,0E0,0E0,0E0,0E0,0E0,0E0,0E0,0E0],"parents":[2147483647,0,0,1,1,2,2,3,3,4,4,5,5,6,6,7,7,8,8,9,9,10,10,11,11,12,12,13,13,14,14,15,15,16,16,17,17,18,18,23,23,24,24,31,31,32,32,33,33,34,34,35,35,36,36,37,37,38,38,39,39,40,40],"right_children":[2,4,6,8,10,12,14,16,18,20,22,24,26,28,30,32,34,36,38,-1,-1,-1,-1,40,42,-1,-1,-1,-1,-1,-1,44,46,48,50,52,54,56,58,60,62,-1,-1,-1,-1,-1,-1,-1,-1,-1,-1,-1,-1,-1,-1,-1,-1,-1,-1,-1,-1,-1,-1],"split_conditions":[2.088437E0,1.8984675E0,9.469888E-1,3.689363E-1,1.2773603E0,2.1258733E0,-1.8289307E0,2.1075371E-1,2.1472056E0,-5.506747E-1,3.1452858E-1,1.1580725E0,-1.5262308E0,-6.9760144E-1,-2.139492E0,2.718962E0,5.926882E-1,3.9083374E0,2.8609544E-2,-2.0396169E-1,-7.724103E-2,3.4293354E-2,-3.771195E-3,-1.7843248E-1,2.0356061E0,-5.583054E-3,2.0598827E-1,3.623538E-2,9.609818E-3,4.278523E-2,1.5183511E-1,1.7001115E-1,-9.3205345E-1,1.0398016E0,5.578843E-1,-1.4636829E0,-1.6057779E0,2.2904804E-1,-1.7641047E0,4.8678863E-1,-6.406779E-1,6.1742414E-2,-2.0776052E-2,-1.6173294E-2,1.5938446E-2,-6.4450526E-3,-1.6555494E-1,-2.152256E-4,-1.4663368E-1,-2.4487315E-1,-1.6206857E-2,-1.656284E-2,2.4472626E-2,-1.7221846E-2,-1.02137245E-1,4.1497692E-2,-8.242908E-3,-1.7088665E-2,-1.4610738E-1,-2.4925094E-2,3.5362758E-2,-8.7157555E-2,-3.377571E-2],"split_indices":[58,58,41,26,4,18,30,26,4,0,0,15,0,4,1,54,24,21,58,0,0,0,0,6,0,0,0,0,0,0,0,53,34,11,5,48,0,17,0,31,47,0,0,0,0,0,0,0,0,0,0,0,0,0,0,0,0,0,0,0,0,0,0],"split_type":[0,0,0,0,0,0,0,0,0,0,0,0,0,0,0,0,0,0,0,0,0,0,0,0,0,0,0,0,0,0,0,0,0,0,0,0,0,0,0,0,0,0,0,0,0,0,0,0,0,0,0,0,0,0,0,0,0,0,0,0,0,0,0],"sum_hessian":[6.57E2,6.12E2,4.5E1,6.05E2,7E0,3.4E1,1.1E1,3.72E2,2.33E2,5E0,2E0,3.1E1,3E0,4E0,7E0,3.39E2,3.3E1,2.15E2,1.8E1,2E0,3E0,1E0,1E0,2.5E1,6E0,1E0,2E0,3E0,1E0,1E0,6E0,3.31E2,8E0,2.5E1,8E0,2.09E2,6E0,8E0,1E1,1.1E1,1.4E1,5E0,1E0,1.73E2,1.58E2,4E0,4E0,2.2E1,3E0,5E0,3E0,3.5E1,1.74E2,3E0,3E0,5E0,3E0,4E0,6E0,7E0,4E0,5E0,9E0],"tree_param":{"num_deleted":"0","num_feature":"60","num_nodes":"63","size_leaf_vector":"0"}},{"base_weights":[-2.6378015E-3,2.0698343E-1,-5.536191E-3,4.6764812E-1,6.570094E-2,3.2711357E-2,-2.3229357E-2,-2.1097697E-2,1.0463993E-1,-1.0391591E-2,1.0072839E-1,2.6319006E-2,-6.378442E-2,-2.8267201E-2,-3.379345E-3,2.8881192E-2,1.1635932E-1,3.3877704E-2,-1.11149944E-1,1.7594196E-1,-4.5237593E-2,-1.5196422E-2,2.0479825E-1,-1.370984E-1,-9.640496E-3,-7.860834E-3,1.782687E-1,-2.7972123E-1,5.8621676E-3,2.6239443E-1,5.1769406E-2,-1.49005E-1,6.917302E-2,3.5938594E-2,-1.3952143E-1,5.1601005E-1,1.3032073E-1,1.929646E-2,-1.8425806E-1,3.1463E-2,-2.6194498E-1,-5.8117073E-2,9.7363524E-2,1.04356585E-2,4.287138E-1,-6.655293E-2,-4.845704E-1,-9.473934E-2,8.448748E-2,8.044736E-2,3.4520507E-1,-4.988994E-3,4.3182173E-1,-7.0022136E-2,-4.415957E-1,1.0375464E-1,-9.221113E-2,-2.739383E-1,6.429814E-2,-1.9926265E-1,1.9797418E-2,3.850516E-2,3.6068213E-1,-7.1830615E-2,3.981709E-1,4.0703364E-2,-2.285148E-1,4.6818357E-2,-5.983574E-1,-4.1235965E-1,7.630509E-2],"categories":[],"categories_nodes":[],"categories_segments":[],"categories_sizes":[],"default_left":[1,1,1,0,1,1,1,1,1,1,1,1,1,0,0,0,0,1,1,1,1,1,1,1,1,1,1,1,1,1,1,1,1,1,1,0,1,1,1,1,1,0,0,0,0,0,0,0,0,0,0,0,0,0,0,0,0,0,0,0,0,0,0,0,0,0,0,0,0,0,0],"id":21,"left_children":[1,3,5,-1,7,9,11,13,15,17,19,21,23,-1,-1,-1,-1,25,27,29,31,33,35,37,39,41,43,45,47,49,51,53,55,57,59,-1,61,63,65,67,69,-1,-1,-1,-1,-1,-1,-1,-1,-1,-1,-1,-1,-1,-1,-1,-1,-1,-1,-1,-1,-1,-1,-1,-1,-1,-1,-1,-1,-1,-1],"loss_changes":[4.0092304E-1,3.0072123E-1,4.4062796E-1,0E0,2.5866622E-2,6.049841E-1,8.9587826E-1,2.8557086E-4,1.0786355E-3,5.7024914E-1,8.86249E-1,1.4924502E0,9.712073E-1,0E0,0E0,0E0,0E0,5.3777486E-1,7.7091026E-1,5.5537236E-1,3.4272572E-1,1.0476215E0,8.1352794E-1,7.7061045E-1,1.4808663E0,3.7583113E-1,8.361854E-1,6.6642797E-1,1.9784011E-1,4.3931103E-1,4.9829108E-1,3.157233E-1,8.770027E-2,1.0458058E0,4.6080416E-1,0E0,6.6293633E-1,8.917439E-1,8.057864E-1,1.2175615E0,1.0490204E0,0E0,0E0,0E0,0E0,0E0,0E0,0E0,0E0,0E0,0E0,0E0,0E0,0E0,0E0,0E0,0E0,0E0,0E0,0E0,0E0,0E0,0E0,0E0,0E0,0E0,0E0,0E0,0E0,0E0,0E0],"parents":[2147483647,0,0,1,1,2,2,4,4,5,5,6,6,7,7,8,8,9,9,10,10,11,11,12,12,17,17,18,18,19,19,20,20,21,21,22,22,23,23,24,24,25,25,26,26,27,27,28,28,29,29,30,30,31,31,32,32,33,33,34,34,36,36,37,37,38,38,39,39,40,40],"right_children":[2,4,6,-1,8,10,12,14,16,18,20,22,24,-1,-1,-1,-1,26,28,30,32,34,36,38,40,42,44,46,48,50,52,54,56,58,60,-1,62,64,66,68,70,-1,-1,-1,-1,-1,-1,-1,-1,-1,-1,-1,-1,-1,-1,-1,-1,-1,-1,-1,-1,-1,-1,-1,-1,-1,-1,-1,-1,-1,-1],"split_conditions":[-5.0383463E0,-3.460451E-1,-5.699302E-1,1.4029445E-1,-8.0137885E-1,3.4351563E-1,-5.847983E-2,8.911656E-1,5.436077E-1,6.0508436E-1,1.63818E0,-3.0409253E-1,-1.9101289E-1,-8.4801605E-3,-1.0138035E-3,8.664358E-3,3.49078E-2,-2.4294194E-2,-3.9353597E-1,2.7558643E-1,3.365454E-1,-7.977108E-1,-1.0794579E0,-1.7985997E0,1.2402196E0,7.880827E-1,8.950882E-2,-1.5611341E0,9.66186E-2,-2.230384E-1,-7.3633826E-1,6.419572E-1,2.5062318E0,-2.8926678E0,7.045193E-1,1.5480302E-1,7.611277E-1,1.252392E0,-1.2973534E0,3.2933328E0,4.8478544E-1,-1.7435122E-2,2.9209059E-2,3.1306976E-3,1.2861414E-1,-1.996588E-2,-1.4537112E-1,-2.8421802E-2,2.5346246E-2,2.413421E-2,1.0356153E-1,-1.4966982E-3,1.2954652E-1,-2.1006642E-2,-1.3247871E-1,3.1126393E-2,-2.7663339E-2,-8.218149E-2,1.9289441E-2,-5.97788E-2,5.9392257E-3,1.1551548E-2,1.0820464E-1,-2.1549186E-2,1.1945127E-1,1.221101E-2,-6.8554446E-2,1.4045508E-2,-1.7950723E-1,-1.237079E-1,2.2891529E-2],"split_indices":[44,0,13,0,9,24,35,0,0,10,24,35,6,0,0,0,0,10,55,28,48,35,59,7,16,11,16,13,32,31,13,16,50,59,20,0,16,59,9,23,19,0,0,0,0,0,0,0,0,0,0,0,0,0,0,0,0,0,0,0,0,0,0,0,0,0,0,0,0,0,0],"split_type":[0,0,0,0,0,0,0,0,0,0,0,0,0,0,0,0,0,0,0,0,0,0,0,0,0,0,0,0,0,0,0,0,0,0,0,0,0,0,0,0,0,0,0,0,0,0,0,0,0,0,0,0,0,0,0,0,0,0,0,0,0,0,0,0,0,0,0,0,0,0,0],"sum_hessian":[6.57E2,8E0,6.49E2,2E0,6E0,2.05E2,4.44E2,2E0,4E0,1.26E2,7.9E1,2E2,2.44E2,1E0,1E0,1E0,3E0,8.8E1,3.8E1,5.2E1,2.7E1,1.63E2,3.7E1,1.03E2,1.41E2,6.9E1,1.9E1,1.5E1,2.3E1,3E1,2.2E1,1.4E1,1.3E1,1.16E2,4.7E1,6E0,3.1E1,2.4E1,7.9E1,1.22E2,1.9E1,4.7E1,2.2E1,1.2E1,7E0,8E0,7E0,1E1,1.3E1,1E1,2E1,2E1,2E0,1.2E1,2E0,1.1E1,2E0,9E0,1.07E2,3.4E1,1.3E1,2.3E1,8E0,2E1,4E0,1.3E1,6.6E1,1.2E2,2E0,1.3E1,6E0],"tree_param":{"num_deleted":"0","num_feature":"60","num_nodes":"71","size_leaf_vector":"0"}},{"base_weights":[-1.5602803E-3,-1.6342836E-2,4.0635318E-2,-8.031896E-3,-2.210691E-1,1.1403388E-1,9.5184665E-4,-6.4125575E-2,1.1599797E-2,-6.346767E-2,-4.298376E-1,3.9785497E-2,2.095977E-1,6.8373494E-2,-5.653795E-2,-1.7889932E-2,-1.7854303E-1,2.5016114E-1,1.3697795E-4,-2.938519E-1,8.8455945E-2,-2.096574E-1,-5.200142E-1,-1.3581539E-2,2.2159693E-1,4.925542E-2,3.435157E-1,1.1334236E-1,-1.0954158E-1,4.4443592E-2,-1.5569568E-1,-8.1332706E-2,5.6820877E-2,-1.6223084E-2,-3.1437966E-1,6.778511E-2,4.2406407E-1,6.760224E-2,-2.6962612E-2,2.0833148E-1,1.3775518E-2,1.3366288E-1,-6.9027916E-2,1.0629758E-1,2.6951703E-1,-1.9580437E-2,1.6330887E-1,1.4438803E-1,5.849546E-1,2.1851502E-1,5.2951917E-2,-1.8450078E-1,1.730963E-2,9.839479E-2,-1.22965455E-1,-5.429555E-1,-9.481229E-2,-1.6508304E-1,4.41719E-2,1.5096067E-1,-1.6151499E-2,-7.7024326E-2,1.08083256E-1,-4.895789E-2,-4.651292E-1,2.2699253E-1,-4.9650695E-2,4.6258858E-1,7.719618E-2,2.3899586E-1,5.275232E-4,-4.2306688E-2,4.213859E-1,2.4907868E-1,6.341854E-2,-3.8288858E-2,4.9379922E-2,1.8778284E-1,3.259723E-2,1.0059612E-1,-1.2832268E-1,4.9781263E-2,-3.4473307E-2,2.0200635E-1,-3.818407E-2,1.059773E-1,6.595546E-1,4.1848432E-2,2.7895302E-1,1.4397901E-1,-4.835939E-2,9.02015E-3,-2.1825764E-1,-1.7489275E-2,4.633866E-2,1.9637091E-2,2.5345555E-1,-4.0201494E-3,-3.1986758E-1,-4.0780194E-2,-3.352039E-1],"categories":[],"categories_nodes":[],"categories_segments":[],"categories_sizes":[],"default_left":[1,1,1,1,1,1,1,1,1,1,1,1,1,1,1,1,1,1,1,0,1,0,0,1,1,1,1,1,1,1,1,1,1,1,1,1,1,1,1,1,1,1,1,0,0,1,0,1,1,1,1,1,1,1,1,0,1,0,0,0,0,0,0,0,0,0,0,0,0,0,0,0,0,0,0,0,0,0,0,0,0,0,0,0,0,0,0,0,0,0,0,0,0,0,0,0,0,0,0,0,0],"id":22,"left_children":[1,3,5,7,9,11,13,15,17,19,21,23,25,27,29,31,33,35,37,-1,39,-1,-1,41,43,45,47,49,51,53,55,57,59,61,63,65,67,69,71,73,75,77,79,-1,-1,81,-1,83,85,87,89,91,93,95,97,-1,99,-1,-1,-1,-1,-1,-1,-1,-1,-1,-1,-1,-1,-1,-1,-1,-1,-1,-1,-1,-1,-1,-1,-1,-1,-1,-1,-1,-1,-1,-1,-1,-1,-1,-1,-1,-1,-1,-1,-1,-1,-1,-1,-1,-1],"loss_changes":[4.110974E-1,8.285406E-1,4.979648E-1,5.1831436E-1,5.9786123E-1,4.1738862E-1,4.3798402E-1,6.4220595E-1,9.543361E-1,4.4600263E-1,4.981613E-2,3.4260544E-1,5.413705E-1,4.2844892E-1,6.177188E-1,4.2172915E-1,7.666147E-1,4.7870636E-1,6.124686E-1,0E0,6.874897E-2,0E0,0E0,2.3782322E-1,1.55522525E-2,1.0526023E-1,5.886198E-1,2.55189E-1,1.07788965E-1,2.9208863E-1,6.794296E-1,5.118225E-1,2.84092E-1,1.368107E-1,7.374604E-1,1.795402E-1,7.119334E-2,1.103507E0,1.6620263E0,1.9181818E-3,1.3013027E-2,3.763613E-2,2.2412293E-1,0E0,0E0,1.10130785E-2,0E0,1.023889E-1,1.4449239E-1,1.4848685E-1,2.651808E-1,4.7697306E-2,5.8613215E-3,2.8811634E-1,1.8607876E-1,0E0,3.5001844E-1,0E0,0E0,0E0,0E0,0E0,0E0,0E0,0E0,0E0,0E0,0E0,0E0,0E0,0E0,0E0,0E0,0E0,0E0,0E0,0E0,0E0,0E0,0E0,0E0,0E0,0E0,0E0,0E0,0E0,0E0,0E0,0E0,0E0,0E0,0E0,0E0,0E0,0E0,0E0,0E0,0E0,0E0,0E0,0E0],"parents":[2147483647,0,0,1,1,2,2,3,3,4,4,5,5,6,6,7,7,8,8,9,9,10,10,11,11,12,12,13,13,14,14,15,15,16,16,17,17,18,18,20,20,23,23,24,24,25,25,26,26,27,27,28,28,29,29,30,30,31,31,32,32,33,33,34,34,35,35,36,36,37,37,38,38,39,39,40,40,41,41,42,42,45,45,47,47,48,48,49,49,50,50,51,51,52,52,53,53,54,54,56,56],"right_children":[2,4,6,8,10,12,14,16,18,20,22,24,26,28,30,32,34,36,38,-1,40,-1,-1,42,44,46,48,50,52,54,56,58,60,62,64,66,68,70,72,74,76,78,80,-1,-1,82,-1,84,86,88,90,92,94,96,98,-1,100,-1,-1,-1,-1,-1,-1,-1,-1,-1,-1,-1,-1,-1,-1,-1,-1,-1,-1,-1,-1,-1,-1,-1,-1,-1,-1,-1,-1,-1,-1,-1,-1,-1,-1,-1,-1,-1,-1,-1,-1,-1,-1,-1,-1],"split_conditions":[7.9562485E-1,7.037654E-1,1.2508239E0,-8.142364E-1,1.4301768E-1,2.4365139E-1,1.9298036E-1,6.6857946E-1,-7.1969736E-1,2.1251379E-1,-1.1978093E0,7.1009874E-1,1.1187034E-2,8.561516E-1,-4.0395804E-2,1.6350937E-1,-2.4861279E-1,4.379261E-1,-7.262851E-1,-8.8155575E-2,8.076739E-1,-6.289722E-2,-1.5600428E-1,-4.9363756E-1,1.1133251E0,-9.735694E-2,4.3693924E-1,-4.7877946E-1,4.0849355E-1,1.1736951E0,-1.242974E0,2.671687E-1,1.103095E-1,3.592595E-1,-7.906378E-1,-7.039781E-1,7.6650083E-1,-8.0796194E-1,5.5665505E-1,-1.7785943E-1,-2.2524118E0,-2.2735791E-1,8.8675714E-1,3.1889275E-2,8.0855116E-2,-2.1525178E0,4.8992664E-2,1.1018217E0,-6.2594396E-1,-9.524859E-1,2.542435E-2,-1.5214565E0,2.8969625E-1,3.7634206E-1,-6.053522E-1,-1.6288666E-1,1.3622139E0,-4.9524914E-2,1.325157E-2,4.52882E-2,-4.8454497E-3,-2.3107298E-2,3.242498E-2,-1.4687368E-2,-1.3953876E-1,6.809776E-2,-1.4895209E-2,1.3877659E-1,2.3158856E-2,7.169876E-2,1.5825697E-4,-1.2692007E-2,1.2641577E-1,7.472361E-2,1.9025562E-2,-1.1486658E-2,1.4813977E-2,5.6334853E-2,9.779169E-3,3.0178837E-2,-3.8496803E-2,1.493438E-2,-1.0341993E-2,6.060191E-2,-1.1455221E-2,3.1793192E-2,1.978664E-1,1.255453E-2,8.3685905E-2,4.3193705E-2,-1.4507818E-2,2.706045E-3,-6.54773E-2,-5.2467827E-3,1.3901598E-2,5.8911275E-3,7.603667E-2,-1.2060448E-3,-9.596028E-2,-1.2234059E-2,-1.0056117E-1],"split_indices":[35,35,35,7,37,22,59,21,7,12,0,52,27,29,56,2,6,27,56,0,12,0,0,58,35,33,17,19,19,26,45,14,54,51,36,20,0,53,35,0,5,19,35,0,0,1,0,20,0,31,43,0,5,5,17,0,6,0,0,0,0,0,0,0,0,0,0,0,0,0,0,0,0,0,0,0,0,0,0,0,0,0,0,0,0,0,0,0,0,0,0,0,0,0,0,0,0,0,0,0,0],"split_type":[0,0,0,0,0,0,0,0,0,0,0,0,0,0,0,0,0,0,0,0,0,0,0,0,0,0,0,0,0,0,0,0,0,0,0,0,0,0,0,0,0,0,0,0,0,0,0,0,0,0,0,0,0,0,0,0,0,0,0,0,0,0,0,0,0,0,0,0,0,0,0,0,0,0,0,0,0,0,0,0,0,0,0,0,0,0,0,0,0,0,0,0,0,0,0,0,0,0,0,0,0],"sum_hessian":[6.57E2,4.87E2,1.7E2,4.69E2,1.8E1,5.9E1,1.11E2,1.21E2,3.48E2,1.1E1,7E0,3.4E1,2.5E1,5.1E1,6E1,8.7E1,3.4E1,1.5E1,3.33E2,4E0,7E0,3E0,4E0,2.7E1,7E0,1.2E1,1.3E1,4.1E1,1E1,3E1,3E1,4.7E1,4E1,1.6E1,1.8E1,8E0,7E0,9.5E1,2.38E2,2E0,5E0,7E0,2E1,3E0,4E0,8E0,4E0,8E0,5E0,1.4E1,2.7E1,6E0,4E0,2.3E1,7E0,3E0,2.7E1,2.8E1,1.9E1,1.7E1,2.3E1,1.1E1,5E0,7E0,1.1E1,3E0,5E0,6E0,1E0,2.6E1,6.9E1,2.31E2,7E0,1E0,1E0,2E0,3E0,4E0,3E0,5E0,1.5E1,1E0,7E0,6E0,2E0,1E0,4E0,4E0,1E1,1.4E1,1.3E1,1E0,5E0,2E0,2E0,1.6E1,7E0,5E0,2E0,2.3E1,4E0],"tree_param":{"num_deleted":"0","num_feature":"60","num_nodes":"101","size_leaf_vector":"0"}},{"base_weights":[-5.8639306E-4,-1.2987976E-1,2.8381762E-3,-5.937754E-1,1.1938986E-2,-2.6029112E-2,1.9236322E-2,-1.158346E-1,2.0160954E-1,-6.543299E-2,2.9892122E-2,5.3512324E-2,-9.746298E-3,-1.6337487E-1,-1.5565552E-2,-7.856354E-2,2.7335685E-1,-1.499391E-1,-1.6674591E-2,-3.5920274E-2,9.782395E-2,-2.5372952E-1,6.8577126E-2,-2.082784E-1,7.6484797E-3,-2.4587512E-2,-4.3623946E-3,-2.040239E-1,1.9688707E-2,-2.8683575E-2,3.3314118E-1,1.15211934E-1,-7.6583624E-2,1.3611236E-1,-4.333818E-2,-3.4111822E-1,-5.921413E-2,1.2318873E-1,-1.6998278E-2,-8.6349115E-2,-3.87546E-1,-7.627048E-2,4.430991E-2,-3.38959E-1,-1.2029928E-1,-6.269014E-2,9.9254884E-2,-9.375453E-2,3.268673E-2,1.1063293E-2,2.0015858E-1,-1.714806E-1,2.688737E-2,4.509565E-2,2.1577261E-1,1.9065436E-2,-9.851877E-2,-7.930384E-3,1.6593748E-1,-1.5953045E-1,5.917837E-2,-1.480872E-1,7.414888E-2,-1.1272308E-1,-4.7493055E-1,8.3137795E-2,-1.0437812E-1,-4.8871793E-2,9.288649E-2],"categories":[],"categories_nodes":[],"categories_segments":[],"categories_sizes":[],"default_left":[1,1,1,0,1,1,1,1,1,1,1,1,1,0,1,0,0,1,1,1,1,1,1,1,1,0,0,1,1,1,0,1,1,1,1,0,0,1,1,1,1,1,1,0,0,0,0,0,0,0,0,0,0,0,0,0,0,0,0,0,0,0,0,0,0,0,0,0,0],"id":23,"left_children":[1,3,5,-1,7,9,11,13,15,17,19,21,23,-1,25,-1,-1,27,29,31,33,35,37,39,41,-1,-1,43,45,47,-1,49,51,53,55,-1,-1,57,59,61,63,65,67,-1,-1,-1,-1,-1,-1,-1,-1,-1,-1,-1,-1,-1,-1,-1,-1,-1,-1,-1,-1,-1,-1,-1,-1,-1,-1],"loss_changes":[2.9171395E-1,1.1255038E0,3.0440426E-1,0E0,3.6264175E-1,5.153745E-1,4.0781897E-1,4.035832E-2,1.4208588E-1,5.6199217E-1,4.371772E-1,8.87565E-1,7.7170616E-1,0E0,2.9703736E-4,0E0,0E0,4.6273124E-1,3.7923768E-1,3.1610045E-1,2.6533273E-1,1.3278699E-1,8.433078E-1,3.5997927E-1,6.3715696E-1,0E0,0E0,3.885243E-1,9.143171E-2,3.4649906E-1,0E0,9.510346E-2,3.9737394E-1,2.6578534E-1,3.9756455E-2,0E0,0E0,6.178857E-1,7.8033197E-1,1.2988657E-1,1.1457121E-1,2.9095492E-1,6.563481E-1,0E0,0E0,0E0,0E0,0E0,0E0,0E0,0E0,0E0,0E0,0E0,0E0,0E0,0E0,0E0,0E0,0E0,0E0,0E0,0E0,0E0,0E0,0E0,0E0,0E0,0E0],"parents":[2147483647,0,0,1,1,2,2,4,4,5,5,6,6,7,7,8,8,9,9,10,10,11,11,12,12,14,14,17,17,18,18,19,19,20,20,21,21,22,22,23,23,24,24,27,27,28,28,29,29,31,31,32,32,33,33,34,34,37,37,38,38,39,39,40,40,41,41,42,42],"right_children":[2,4,6,-1,8,10,12,14,16,18,20,22,24,-1,26,-1,-1,28,30,32,34,36,38,40,42,-1,-1,44,46,48,-1,50,52,54,56,-1,-1,58,60,62,64,66,68,-1,-1,-1,-1,-1,-1,-1,-1,-1,-1,-1,-1,-1,-1,-1,-1,-1,-1,-1,-1,-1,-1,-1,-1,-1,-1],"split_conditions":[-3.6211987E0,-6.53453E-1,-3.360986E-1,-1.7813262E-1,5.398221E-1,3.2069516E-1,2.5872298E-2,2.9237552E-2,-1.6118288E0,-4.2679775E-1,1.389276E-1,-3.0298166E0,1.7001115E-1,-4.9012464E-2,-1.3370467E0,-2.3569064E-2,8.200706E-2,9.633495E-1,4.7842464E0,-1.6906371E0,1.0133951E0,1.2925267E-1,4.1809237E-1,8.6765595E-2,-7.1464396E-1,-7.376254E-3,-1.3087185E-3,-9.0889856E-2,2.607772E-1,1.1564107E-1,9.994236E-2,-1.3926688E0,1.2847915E-1,-3.4853894E-1,-4.975406E-1,-1.0233547E-1,-1.776424E-2,-9.5757467E-1,-4.474756E-1,8.2019144E-1,-1.5669699E-1,-1.4026155E0,-3.0106908E-1,-1.0168771E-1,-3.6089785E-2,-1.8807042E-2,2.9776467E-2,-2.812636E-2,9.806019E-3,3.318988E-3,6.0047578E-2,-5.144418E-2,8.066212E-3,1.3528695E-2,6.4731784E-2,5.719631E-3,-2.9555632E-2,-2.3791152E-3,4.9781248E-2,-4.7859136E-2,1.7753512E-2,-4.442616E-2,2.2244664E-2,-3.3816926E-2,-1.4247917E-1,2.494134E-2,-3.1313438E-2,-1.4661538E-2,2.7865948E-2],"split_indices":[50,58,47,0,7,39,11,32,0,11,31,29,11,0,0,0,0,35,13,35,12,4,36,11,9,0,0,22,40,32,0,46,52,30,30,0,0,19,49,35,12,23,6,0,0,0,0,0,0,0,0,0,0,0,0,0,0,0,0,0,0,0,0,0,0,0,0,0,0],"split_type":[0,0,0,0,0,0,0,0,0,0,0,0,0,0,0,0,0,0,0,0,0,0,0,0,0,0,0,0,0,0,0,0,0,0,0,0,0,0,0,0,0,0,0,0,0,0,0,0,0,0,0,0,0,0,0,0,0,0,0,0,0,0,0,0,0,0,0,0,0],"sum_hessian":[6.57E2,1.6E1,6.41E2,3E0,1.3E1,2.32E2,4.09E2,8E0,5E0,1.36E2,9.6E1,1.87E2,2.22E2,5E0,3E0,1E0,4E0,4.9E1,8.7E1,4.9E1,4.7E1,8E0,1.79E2,1.7E1,2.05E2,1E0,2E0,3.7E1,1.2E1,8.5E1,2E0,1E1,3.9E1,3.7E1,1E1,5E0,3E0,1.09E2,7E1,1.1E1,6E0,6.2E1,1.43E2,1.3E1,2.4E1,6E0,6E0,4.1E1,4.4E1,5E0,5E0,2E1,1.9E1,1.8E1,1.9E1,5E0,5E0,2.7E1,8.2E1,2.4E1,4.6E1,8E0,3E0,2E0,4E0,9E0,5.3E1,4.9E1,9.4E1],"tree_param":{"num_deleted":"0","num_feature":"60","num_nodes":"69","size_leaf_vector":"0"}},{"base_weights":[-1.083142E-3,-8.687584E-3,5.3967543E-2,1.1776997E-3,-6.374476E-2,1.2332377E-2,1.3996626E-1,1.0735347E-2,-8.167833E-2,-5.33145E-1,-4.6629116E-2,1.1710638E-1,-2.2885917E-2,1.7879847E-1,-5.888868E-2,5.7750728E-2,-1.5111333E-2,-2.7310792E-2,-2.768957E-1,-1.0383673E-1,2.1755558E-2,1.7424351E-1,-2.0589162E-2,7.848376E-2,-6.604991E-2,2.1094936E-1,7.976805E-2,4.5725703E-4,-7.3839486E-2,3.7612412E-2,2.213832E-1,2.6714336E-2,-5.4842506E-2,-2.4614024E-1,-9.777481E-3,-4.000078E-1,-4.9159557E-2,-1.9011375E-1,-2.030841E-2,1.3092154E-1,-7.351304E-2,3.5968028E-2,2.2836614E-1,-9.924397E-2,2.3885533E-2,1.4794733E-1,-2.1917683E-3,-1.01623125E-1,4.447931E-2,2.9321665E-1,1.4689909E-1,5.928427E-3,9.1086574E-2,1.7574912E-2,1.451982E-1,4.1207187E-2,4.7289076E-1,-2.441159E-2,9.332679E-2,4.2007003E-2,-8.899194E-2,9.8074704E-2,-4.0774003E-2,-8.558452E-2,-4.3814763E-1,8.238633E-2,-1.0264261E-1,-2.6744893E-1,-4.009804E-2,6.478236E-2,-9.1792755E-2,-1.8259654E-2,2.1946554E-1,5.1108584E-2,-1.48376E-1,4.3575436E-2,6.572902E-3,4.2859986E-2,1.8141027E-1,-2.4654238E-2,3.5976272E-2,-1.4069069E-2,-1.4738068E-1,-4.033043E-2,1.0343124E-1],"categories":[],"categories_nodes":[],"categories_segments":[],"categories_sizes":[],"default_left":[1,1,1,1,1,1,1,1,1,0,1,1,1,1,1,1,1,1,1,1,1,1,1,1,1,1,1,0,0,1,1,1,1,0,1,1,1,1,1,1,1,1,0,0,0,1,1,1,1,0,0,0,0,0,0,0,0,0,0,0,0,0,0,0,0,0,0,0,0,0,0,0,0,0,0,0,0,0,0,0,0,0,0,0,0],"id":24,"left_children":[1,3,5,7,9,11,13,15,17,-1,19,21,23,25,27,29,31,33,35,37,39,41,43,45,47,49,51,-1,-1,53,55,57,59,-1,61,63,65,67,69,71,73,75,-1,-1,-1,77,79,81,83,-1,-1,-1,-1,-1,-1,-1,-1,-1,-1,-1,-1,-1,-1,-1,-1,-1,-1,-1,-1,-1,-1,-1,-1,-1,-1,-1,-1,-1,-1,-1,-1,-1,-1,-1,-1],"loss_changes":[2.7592722E-1,3.1456164E-1,2.8471953E-1,3.9049596E-1,6.8213975E-1,2.0562798E-1,2.1130055E-1,5.3798735E-1,5.337256E-1,0E0,3.387017E-1,1.1373292E-1,1.8895571E-1,5.32192E-2,4.470112E-3,5.0903267E-1,4.7673503E-1,1.5490235E-1,2.8874373E-1,3.3484805E-1,4.25628E-1,6.662443E-2,1.9861238E-2,7.31764E-2,1.2247652E-1,4.1234612E-2,5.3102933E-3,0E0,0E0,3.0140895E-1,7.5087917E-1,4.790656E-1,4.8991957E-1,0E0,1.3437757E-1,4.644561E-2,4.3633725E-2,2.561102E-1,1.58013E-1,2.5498027E-1,2.1283327E-1,6.080661E-4,0E0,0E0,0E0,1.6840473E-2,6.888407E-3,9.007044E-2,4.4169005E-2,0E0,0E0,0E0,0E0,0E0,0E0,0E0,0E0,0E0,0E0,0E0,0E0,0E0,0E0,0E0,0E0,0E0,0E0,0E0,0E0,0E0,0E0,0E0,0E0,0E0,0E0,0E0,0E0,0E0,0E0,0E0,0E0,0E0,0E0,0E0,0E0],"parents":[2147483647,0,0,1,1,2,2,3,3,4,4,5,5,6,6,7,7,8,8,10,10,11,11,12,12,13,13,14,14,15,15,16,16,17,17,18,18,19,19,20,20,21,21,22,22,23,23,24,24,25,25,26,26,29,29,30,30,31,31,32,32,34,34,35,35,36,36,37,37,38,38,39,39,40,40,41,41,45,45,46,46,47,47,48,48],"right_children":[2,4,6,8,10,12,14,16,18,-1,20,22,24,26,28,30,32,34,36,38,40,42,44,46,48,50,52,-1,-1,54,56,58,60,-1,62,64,66,68,70,72,74,76,-1,-1,-1,78,80,82,84,-1,-1,-1,-1,-1,-1,-1,-1,-1,-1,-1,-1,-1,-1,-1,-1,-1,-1,-1,-1,-1,-1,-1,-1,-1,-1,-1,-1,-1,-1,-1,-1,-1,-1,-1,-1],"split_conditions":[1.4453043E0,7.7372426E-1,4.996768E-1,1.4591198E0,7.861039E-1,-9.0963614E-1,1.4912989E0,-3.0889514E-1,9.532299E-1,-1.599435E-1,3.5317212E-1,9.606242E-1,-7.615032E-1,9.131713E-1,-2.598547E0,-4.582804E-1,-2.3674864E-2,-3.2798367E0,-3.3142853E-1,-2.382337E-1,5.576558E-1,-4.3363905E-1,-1.7769325E0,5.508713E-1,1.0902221E0,-5.559548E-1,-1.4685304E0,1.3717712E-4,-2.2151846E-2,1.1927847E0,4.6176073E-1,2.6890737E-1,-6.823008E-1,-7.384208E-2,-1.7491754E0,-2.010874E0,-3.8992887E0,4.1944265E-1,2.0163685E-1,-7.5919025E-2,-2.3331842E-1,4.246692E-1,6.850985E-2,-2.9773192E-2,7.16566E-3,-1.0987167E0,-8.739258E-2,-5.41679E-1,-1.6597009E0,8.7965E-2,4.406973E-2,1.7785282E-3,2.7325973E-2,5.2724737E-3,4.355946E-2,1.2362157E-2,1.4186724E-1,-7.3234774E-3,2.799804E-2,1.2602101E-2,-2.6697583E-2,2.9422412E-2,-1.2232201E-2,-2.5675358E-2,-1.3144429E-1,2.47159E-2,-3.0792784E-2,-8.0234684E-2,-1.2029413E-2,1.943471E-2,-2.7537828E-2,-5.4778964E-3,6.583966E-2,1.5332576E-2,-4.45128E-2,1.3072631E-2,1.9718707E-3,1.2857997E-2,5.4423083E-2,-7.3962715E-3,1.0792882E-2,-4.220721E-3,-4.4214204E-2,-1.2099129E-2,3.1029373E-2],"split_indices":[5,5,38,10,5,52,51,23,1,0,43,41,42,22,0,23,35,14,23,51,50,50,0,23,40,49,7,0,0,6,25,49,43,0,41,2,6,55,21,52,42,0,0,0,0,6,16,29,10,0,0,0,0,0,0,0,0,0,0,0,0,0,0,0,0,0,0,0,0,0,0,0,0,0,0,0,0,0,0,0,0,0,0,0,0],"split_type":[0,0,0,0,0,0,0,0,0,0,0,0,0,0,0,0,0,0,0,0,0,0,0,0,0,0,0,0,0,0,0,0,0,0,0,0,0,0,0,0,0,0,0,0,0,0,0,0,0,0,0,0,0,0,0,0,0,0,0,0,0,0,0,0,0,0,0,0,0,0,0,0,0,0,0,0,0,0,0,0,0,0,0,0,0],"sum_hessian":[6.57E2,5.78E2,7.9E1,4.91E2,8.7E1,5.4E1,2.5E1,4.41E2,5E1,2E0,8.5E1,1.3E1,4.1E1,2.1E1,4E0,1.56E2,2.85E2,4E1,1E1,4.6E1,3.9E1,9E0,4E0,1.2E1,2.9E1,1.5E1,6E0,1E0,3E0,1.4E2,1.6E1,1.39E2,1.46E2,2E0,3.8E1,6E0,4E0,2.2E1,2.4E1,1.8E1,2.1E1,3E0,6E0,1E0,3E0,6E0,6E0,2.2E1,7E0,5E0,1E1,1E0,5E0,1.19E2,2.1E1,1E1,6E0,7.9E1,6E1,3.8E1,1.08E2,8E0,3E1,1E0,5E0,1E0,3E0,1.4E1,8E0,1.1E1,1.3E1,7E0,1.1E1,8E0,1.3E1,2E0,1E0,2E0,4E0,4E0,2E0,8E0,1.4E1,3E0,4E0],"tree_param":{"num_deleted":"0","num_feature":"60","num_nodes":"85","size_leaf_vector":"0"}},{"base_weights":[-7.552959E-4,-1.9422619E-2,1.61338E-2,-6.2921934E-2,2.3104532E-2,7.091926E-2,-1.6761333E-2,-9.101644E-2,3.6002543E-2,4.978969E-2,-8.435812E-2,-7.582678E-2,9.9887095E-2,-1.765008E-3,-1.4960307E-1,-5.01768E-2,-1.9840163E-1,-1.9656029E-2,1.3170597E-1,-2.6117649E-2,8.212965E-2,-4.7856286E-2,-3.2790685E-1,1.565095E-2,-1.8716516E-1,1.8474202E-1,5.371523E-2,5.319924E-2,-3.627342E-2,-3.27292E-1,-6.251398E-2,1.5116524E-3,-1.5717055E-1,-3.0764922E-1,-6.6631115E-3,4.1272283E-2,-1.3905565E-1,3.2693073E-2,2.1190374E-1,2.4046445E-1,-9.1947E-2,1.3964398E-1,1.3074131E-2,-1.0010043E-1,4.673416E-2,-4.2506254E-1,-1.538341E-1,1.5488033E-1,-2.3743512E-2,-5.735307E-2,-3.67545E-1,3.1151676E-1,1.063585E-1,1.1117539E-1,-1.02048125E-2,2.1925922E-1,2.1723563E-2,-6.310035E-2,5.94611E-2,-4.3546534E-1,-1.3729566E-1,5.347422E-2,-9.3393885E-2,-4.224861E-2,1.083972E-1,-2.6883098E-1,-4.9644504E-2,-4.3034208E-1,-7.8605115E-4,-6.584679E-2,1.0120014E-1,1.1924618E-1,-5.1607378E-2,-1.7690271E-1,-1.700964E-2,-8.97034E-3,6.618322E-2,6.565589E-2,2.5727168E-1,4.3068054E-1,1.05279E-1,1.7700778E-2,-2.1739453E-1,2.2503637E-2,1.7702724E-1,-6.973463E-2,9.920359E-2,-1.8893924E-1,-1.2515746E-3,3.4469515E-3,1.2162504E-1,4.158801E-2,1.9073248E-1,-7.965338E-2,7.1793646E-3,-3.4595032E-3,-7.8218594E-2,4.62558E-1,1.4041606E-1,1.3150363E-1,-1.21873654E-1,6.1108693E-2,2.6571155E-1,-4.866896E-2,1.0632149E-1,4.1549698E-1,1.076803E-1,1.0802562E-1,-3.1429484E-2,-1.01744264E-1,-2.4570043E-3,1.6492027E-1,-6.679649E-2,1.1522144E-2,6.3617535E-2,-3.292329E-2,-1.584557E-1],"categories":[],"categories_nodes":[],"categories_segments":[],"categories_sizes":[],"default_left":[1,1,1,1,1,1,1,1,1,1,1,1,1,1,1,1,1,1,1,1,1,1,1,1,1,1,1,1,1,1,1,1,1,1,1,1,1,1,1,1,1,1,1,1,1,0,0,1,1,1,0,1,1,1,1,1,1,1,1,0,0,1,1,0,0,0,0,0,0,0,0,0,0,0,0,0,0,0,0,0,0,0,0,0,0,0,0,0,0,0,0,0,0,0,0,0,0,0,0,0,0,0,0,0,0,0,0,0,0,0,0,0,0,0,0,0,0],"id":25,"left_children":[1,3,5,7,9,11,13,15,17,19,21,23,25,27,29,31,33,35,37,39,41,43,45,47,49,51,53,55,57,59,61,63,65,67,69,71,73,75,77,79,81,83,85,87,89,-1,-1,91,93,95,-1,97,99,101,103,105,107,109,111,-1,-1,113,115,-1,-1,-1,-1,-1,-1,-1,-1,-1,-1,-1,-1,-1,-1,-1,-1,-1,-1,-1,-1,-1,-1,-1,-1,-1,-1,-1,-1,-1,-1,-1,-1,-1,-1,-1,-1,-1,-1,-1,-1,-1,-1,-1,-1,-1,-1,-1,-1,-1,-1,-1,-1,-1,-1],"loss_changes":[2.0776378E-1,5.804731E-1,6.2474126E-1,4.3405813E-1,4.6015772E-1,5.6019306E-1,4.3202987E-1,5.20699E-1,1.8902387E-1,3.1636465E-1,2.6878676E-1,2.2699891E-1,4.1712868E-1,3.7368858E-1,3.1998459E-1,4.92438E-1,6.8920016E-1,1.7305994E-1,9.6300185E-2,7.0651805E-1,3.5562563E-1,1.4799023E-1,2.2595227E-3,7.498066E-2,2.1307504E-1,3.444755E-1,2.6558012E-1,3.9247748E-1,3.1451187E-1,8.408028E-2,6.2301442E-2,2.8989735E-1,3.3483982E-1,7.9031E-1,8.965238E-2,1.22029E-1,3.394361E-2,1.0360883E-2,2.9553384E-2,1.6037393E-1,4.4400942E-1,2.1059155E-1,3.0647343E-1,1.666142E-1,3.5240754E-2,0E0,0E0,4.2531416E-3,1.9589696E-2,7.6010264E-3,0E0,2.968551E-1,1.595E-1,2.7777314E-1,1.6204752E-1,2.1801108E-1,3.015643E-1,2.2238219E-1,3.7052163E-1,0E0,0E0,9.6912123E-4,4.5929357E-2,0E0,0E0,0E0,0E0,0E0,0E0,0E0,0E0,0E0,0E0,0E0,0E0,0E0,0E0,0E0,0E0,0E0,0E0,0E0,0E0,0E0,0E0,0E0,0E0,0E0,0E0,0E0,0E0,0E0,0E0,0E0,0E0,0E0,0E0,0E0,0E0,0E0,0E0,0E0,0E0,0E0,0E0,0E0,0E0,0E0,0E0,0E0,0E0,0E0,0E0,0E0,0E0,0E0,0E0],"parents":[2147483647,0,0,1,1,2,2,3,3,4,4,5,5,6,6,7,7,8,8,9,9,10,10,11,11,12,12,13,13,14,14,15,15,16,16,17,17,18,18,19,19,20,20,21,21,22,22,23,23,24,24,25,25,26,26,27,27,28,28,29,29,30,30,31,31,32,32,33,33,34,34,35,35,36,36,37,37,38,38,39,39,40,40,41,41,42,42,43,43,44,44,47,47,48,48,49,49,51,51,52,52,53,53,54,54,55,55,56,56,57,57,58,58,61,61,62,62],"right_children":[2,4,6,8,10,12,14,16,18,20,22,24,26,28,30,32,34,36,38,40,42,44,46,48,50,52,54,56,58,60,62,64,66,68,70,72,74,76,78,80,82,84,86,88,90,-1,-1,92,94,96,-1,98,100,102,104,106,108,110,112,-1,-1,114,116,-1,-1,-1,-1,-1,-1,-1,-1,-1,-1,-1,-1,-1,-1,-1,-1,-1,-1,-1,-1,-1,-1,-1,-1,-1,-1,-1,-1,-1,-1,-1,-1,-1,-1,-1,-1,-1,-1,-1,-1,-1,-1,-1,-1,-1,-1,-1,-1,-1,-1,-1,-1,-1,-1],"split_conditions":[-7.365978E-2,-2.9859316E-2,-2.41692E-1,7.8072983E-1,1.1514363E0,-1.6325824E0,1.3994896E0,2.6890737E-1,5.771413E-1,-5.665023E-1,1.361911E0,-1.6801076E-2,-3.316548E-1,-4.4227082E-1,1.6255295E0,8.3965814E-1,1.9348794E-1,1.8800658E-1,4.3827213E-2,-1.4301196E0,2.2953424E-1,1.7586874E0,-2.8832324E0,-1.5990623E0,-4.9717894E-1,-3.4344912E-1,-5.283513E-3,-1.359653E0,9.80129E-1,-8.388989E-1,-1.8317163E0,7.134383E-1,-5.177323E-2,5.1594555E-1,6.5296936E-1,-8.2531445E-2,1.9102637E0,1.0016334E0,-1.6748115E0,-6.67105E-1,-1.8119767E-1,-5.2873456E-1,5.106878E-1,9.2192924E-1,7.599377E-1,-1.2751877E-1,-4.6150234E-2,8.578506E-1,-2.831538E0,-1.6542017E-1,-1.10263504E-1,3.2781368E-1,1.4699764E0,4.4504893E-1,9.955579E-1,-4.924457E-1,-7.372413E-2,3.7274024E-1,2.3202005E-1,-1.3063961E-1,-4.1188702E-2,7.232712E-1,-6.818451E-1,-1.2674584E-2,3.251916E-2,-8.06493E-2,-1.4893352E-2,-1.2910263E-1,-2.3581536E-4,-1.975404E-2,3.0360043E-2,3.5773855E-2,-1.5482214E-2,-5.3070817E-2,-5.1028924E-3,-2.691102E-3,1.9854967E-2,1.9696767E-2,7.71815E-2,1.2920417E-1,3.15837E-2,5.3102337E-3,-6.521836E-2,6.751091E-3,5.3108174E-2,-2.092039E-2,2.9761078E-2,-5.6681775E-2,-3.754724E-4,1.0340855E-3,3.6487516E-2,1.2476403E-2,5.7219747E-2,-2.3896016E-2,2.1538094E-3,-1.037851E-3,-2.346558E-2,1.387674E-1,4.212482E-2,3.945109E-2,-3.6562096E-2,1.8332608E-2,7.9713464E-2,-1.4600688E-2,3.189645E-2,1.246491E-1,3.230409E-2,3.2407686E-2,-9.428846E-3,-3.052328E-2,-7.371013E-4,4.9476083E-2,-2.0038947E-2,3.4566433E-3,1.9085262E-2,-9.876987E-3,-4.7536712E-2],"split_indices":[0,50,50,35,37,24,38,35,46,26,36,47,39,44,38,6,36,8,31,32,14,37,0,56,13,52,30,36,52,6,12,8,45,28,26,59,2,8,0,12,49,55,29,28,31,0,0,0,50,6,0,7,15,34,32,29,47,37,2,0,0,0,15,0,0,0,0,0,0,0,0,0,0,0,0,0,0,0,0,0,0,0,0,0,0,0,0,0,0,0,0,0,0,0,0,0,0,0,0,0,0,0,0,0,0,0,0,0,0,0,0,0,0,0,0,0,0],"split_type":[0,0,0,0,0,0,0,0,0,0,0,0,0,0,0,0,0,0,0,0,0,0,0,0,0,0,0,0,0,0,0,0,0,0,0,0,0,0,0,0,0,0,0,0,0,0,0,0,0,0,0,0,0,0,0,0,0,0,0,0,0,0,0,0,0,0,0,0,0,0,0,0,0,0,0,0,0,0,0,0,0,0,0,0,0,0,0,0,0,0,0,0,0,0,0,0,0,0,0,0,0,0,0,0,0,0,0,0,0,0,0,0,0,0,0,0,0],"sum_hessian":[6.57E2,3.12E2,3.45E2,1.54E2,1.58E2,1.29E2,2.16E2,1.2E2,3.4E1,1.27E2,3.1E1,2.1E1,1.08E2,1.95E2,2.1E1,8.8E1,3.2E1,2.2E1,1.2E1,3.8E1,8.9E1,2.8E1,3E0,1.2E1,9E0,3.7E1,7.1E1,7.5E1,1.2E2,6E0,1.5E1,6E1,2.8E1,2E1,1.2E1,1.5E1,7E0,6E0,6E0,7E0,3.1E1,4.8E1,4.1E1,1.8E1,1E1,1E0,2E0,2E0,1E1,6E0,3E0,1.3E1,2.4E1,3.7E1,3.4E1,1.1E1,6.4E1,9.4E1,2.6E1,3E0,3E0,3E0,1.2E1,4.3E1,1.7E1,1.3E1,1.5E1,1.4E1,6E0,8E0,4E0,8E0,7E0,5E0,2E0,3E0,3E0,2E0,4E0,2E0,5E0,1.7E1,1.4E1,1.2E1,3.6E1,2.1E1,2E1,9E0,9E0,7E0,3E0,1E0,1E0,3E0,7E0,2E0,4E0,6E0,7E0,2.2E1,2E0,2.9E1,8E0,2.6E1,8E0,3E0,8E0,2.4E1,4E1,5.7E1,3.7E1,1.4E1,1.2E1,1E0,2E0,7E0,5E0],"tree_param":{"num_deleted":"0","num_feature":"60","num_nodes":"117","size_leaf_vector":"0"}},{"base_weights":[-4.6514682E-4,6.4350064E-3,-2.9650198E-2,-1.0603796E-2,3.3748817E-2,-3.3402127E-1,-1.4312375E-2,-2.803107E-2,3.8194265E-2,-5.394617E-2,5.33837E-2,-4.483044E-1,-7.030331E-2,2.48002E-2,-7.6421544E-2,9.140005E-2,-3.8569424E-2,6.143542E-2,-1.4690617E-1,1.077545E-1,-1.0784481E-1,8.392443E-2,-1.2645328E-2,-7.0675462E-3,-9.838742E-2,2.3839903E-1,1.2589151E-2,-1.7985463E-1,-2.2316823E-2,1.7206042E-1,-5.1098056E-2,-8.872497E-3,-8.187512E-2,7.804144E-2,-1.5084372E-1,-3.4295192E-1,-5.5025727E-2,1.3843529E-1,2.712449E-2,-2.5514346E-1,-2.8803244E-2,6.479999E-2,2.782511E-1,1.8746668E-2,-1.5264478E-1,-2.6273359E-2,5.6796465E-2,-2.8554258E-1,-3.1783197E-3,8.013583E-2,-7.252875E-2,2.671012E-1,7.9272285E-2,-2.2102569E-3,-1.3184096E-1,-6.628115E-2,2.7201267E-2,-1.6783364E-1,-3.0074012E-2,-8.787923E-3,1.0875525E-1,-2.245239E-1,-2.3222368E-3,-9.6690215E-2,-2.5022529E-2,-1.3279915E-3,3.7051316E-2,-2.876146E-1,1.8548489E-2,1.7957237E-1,-7.613849E-2,2.8571181E-3,9.276242E-2,4.5553407E-1,8.4140144E-2,2.2695999E-1,-1.5295215E-3,-2.4259587E-4,-3.0499846E-1,-4.7283426E-2,6.1051082E-2,-4.9553987E-2,9.706479E-2,-1.6069299E-1,-4.3264374E-1,4.615967E-2,-5.172173E-2,-8.78226E-3,1.1457789E-1,1.3487726E-2,-1.4533311E-1],"categories":[],"categories_nodes":[],"categories_segments":[],"categories_sizes":[],"default_left":[1,1,1,1,1,1,1,1,1,1,1,0,1,1,1,1,1,1,1,1,1,1,1,0,0,0,1,1,1,1,1,1,1,1,1,0,1,0,1,1,1,1,1,1,1,1,1,1,1,1,1,0,0,0,0,0,0,0,0,0,0,0,0,0,0,0,0,0,0,0,0,0,0,0,0,0,0,0,0,0,0,0,0,0,0,0,0,0,0,0,0],"id":26,"left_children":[1,3,5,7,9,11,13,15,17,19,21,-1,23,25,27,29,31,33,35,37,39,41,43,-1,-1,-1,45,47,49,51,53,55,57,59,61,-1,63,-1,65,67,69,71,73,75,77,79,81,83,85,87,89,-1,-1,-1,-1,-1,-1,-1,-1,-1,-1,-1,-1,-1,-1,-1,-1,-1,-1,-1,-1,-1,-1,-1,-1,-1,-1,-1,-1,-1,-1,-1,-1,-1,-1,-1,-1,-1,-1,-1,-1],"loss_changes":[1.3269971E-1,2.484132E-1,5.834364E-1,2.8085786E-1,3.5586548E-1,1.4931381E-1,2.9583445E-1,3.0936688E-1,3.832947E-1,3.428077E-1,3.398458E-1,0E0,4.632404E-3,1.926187E-1,2.5900847E-1,2.3867093E-1,2.873479E-1,2.8673074E-1,1.6125652E-1,2.0982929E-2,3.302898E-1,4.0935415E-1,2.4018414E-1,0E0,0E0,0E0,1.2518875E-1,2.978534E-1,1.7043118E-1,9.3468815E-2,3.128734E-2,2.793097E-1,4.001525E-1,1.9563651E-1,6.513715E-2,0E0,7.581109E-3,0E0,1.178975E-3,9.42058E-2,2.109426E-1,1.8333471E-1,3.0579692E-1,1.9032691E-1,2.3211633E-1,7.443971E-2,1.5041679E-1,1.14132345E-1,1.9152699E-2,3.4694E-2,1.3973248E-1,0E0,0E0,0E0,0E0,0E0,0E0,0E0,0E0,0E0,0E0,0E0,0E0,0E0,0E0,0E0,0E0,0E0,0E0,0E0,0E0,0E0,0E0,0E0,0E0,0E0,0E0,0E0,0E0,0E0,0E0,0E0,0E0,0E0,0E0,0E0,0E0,0E0,0E0,0E0,0E0],"parents":[2147483647,0,0,1,1,2,2,3,3,4,4,5,5,6,6,7,7,8,8,9,9,10,10,12,12,13,13,14,14,15,15,16,16,17,17,18,18,19,19,20,20,21,21,22,22,26,26,27,27,28,28,29,29,30,30,31,31,32,32,33,33,34,34,36,36,38,38,39,39,40,40,41,41,42,42,43,43,44,44,45,45,46,46,47,47,48,48,49,49,50,50],"right_children":[2,4,6,8,10,12,14,16,18,20,22,-1,24,26,28,30,32,34,36,38,40,42,44,-1,-1,-1,46,48,50,52,54,56,58,60,62,-1,64,-1,66,68,70,72,74,76,78,80,82,84,86,88,90,-1,-1,-1,-1,-1,-1,-1,-1,-1,-1,-1,-1,-1,-1,-1,-1,-1,-1,-1,-1,-1,-1,-1,-1,-1,-1,-1,-1,-1,-1,-1,-1,-1,-1,-1,-1,-1,-1,-1,-1],"split_conditions":[1.133842E0,4.6959504E-2,-2.1844473E0,7.622692E-1,-1.2320899E0,-7.4162364E-2,3.2250845E-1,-2.3699741E0,1.4576097E0,-1.7167246E0,4.6941745E-1,-1.3449132E-1,-9.563416E-2,-3.0037427E0,7.520023E-1,4.9431574E-1,-6.1504793E-1,1.2769163E0,1.6067243E0,7.7030814E-1,-1.3765043E-1,3.0751044E-1,1.141772E0,-2.1202639E-3,-2.9516228E-2,7.151971E-2,1.7034663E-1,7.607249E-1,-2.270663E-2,-6.863446E-1,9.928713E-1,-2.0135778E-1,-4.7388265E-1,-5.334653E-1,6.60146E-1,-1.0288558E-1,-1.1577029E0,4.1530587E-2,-1.0458285E0,1.1009827E0,-1.5176562E0,-1.3561603E0,-4.3765557E-1,-1.7939782E0,-9.587436E-1,1.3236458E0,-1.0780691E0,6.402086E-1,-3.830564E-1,-1.0046427E0,-1.520782E0,8.013036E-2,2.3781687E-2,-6.630771E-4,-3.955229E-2,-1.9884344E-2,8.160381E-3,-5.0350096E-2,-9.022204E-3,-2.6363768E-3,3.2626577E-2,-6.7357175E-2,-6.966711E-4,-2.9007066E-2,-7.506759E-3,-3.9839747E-4,1.1115395E-2,-8.6284384E-2,5.5645467E-3,5.3871714E-2,-2.2841547E-2,8.5713546E-4,2.7828727E-2,1.3666023E-1,2.5242044E-2,6.8088E-2,-4.588565E-4,-7.277876E-5,-9.149954E-2,-1.4185028E-2,1.8315325E-2,-1.4866197E-2,2.911944E-2,-4.8207898E-2,-1.2979312E-1,1.38479015E-2,-1.551652E-2,-2.634678E-3,3.437337E-2,4.046318E-3,-4.3599933E-2],"split_indices":[27,27,59,16,48,1,48,59,47,46,52,0,0,55,48,4,27,41,47,11,39,52,17,0,0,0,18,54,33,53,2,42,47,45,2,0,18,0,0,5,10,52,19,15,13,52,14,55,28,7,5,0,0,0,0,0,0,0,0,0,0,0,0,0,0,0,0,0,0,0,0,0,0,0,0,0,0,0,0,0,0,0,0,0,0,0,0,0,0,0,0],"split_type":[0,0,0,0,0,0,0,0,0,0,0,0,0,0,0,0,0,0,0,0,0,0,0,0,0,0,0,0,0,0,0,0,0,0,0,0,0,0,0,0,0,0,0,0,0,0,0,0,0,0,0,0,0,0,0,0,0,0,0,0,0,0,0,0,0,0,0,0,0,0,0,0,0,0,0,0,0,0,0,0,0,0,0,0,0,0,0,0,0,0,0],"sum_hessian":[6.57E2,5.32E2,1.25E2,3.28E2,2.04E2,5E0,1.2E2,2.42E2,8.6E1,3.7E1,1.67E2,3E0,2E0,7.4E1,4.6E1,1.9E1,2.23E2,7.7E1,9E0,9E0,2.8E1,1.14E2,5.3E1,1E0,1E0,3E0,7.1E1,1.5E1,3.1E1,1.2E1,7E0,1.33E2,9E1,7.2E1,5E0,2E0,7E0,6E0,3E0,9E0,1.9E1,1.05E2,9E0,4.4E1,9E0,3.8E1,3.3E1,9E0,6E0,1E1,2.1E1,5E0,7E0,5E0,2E0,5.1E1,8.2E1,3.3E1,5.7E1,1.9E1,5.3E1,3E0,2E0,2E0,5E0,1E0,2E0,8E0,1E0,3E0,1.6E1,3.3E1,7.2E1,4E0,5E0,3E0,4.1E1,5E0,4E0,3.1E1,7E0,9E0,2.4E1,6E0,3E0,3E0,3E0,3E0,7E0,1E1,1.1E1],"tree_param":{"num_deleted":"0","num_feature":"60","num_nodes":"91","size_leaf_vector":"0"}},{"base_weights":[-7.501768E-4,1.1539091E-2,-1.7176786E-2,-1.6497662E-2,3.297128E-2,-3.6930904E-2,2.2096375E-2,-6.572104E-2,1.8179527E-2,1.19319655E-1,1.5998146E-2,1.3875027E-2,-5.8590047E-2,-2.0897549E-2,8.173546E-2,5.447614E-2,-8.738393E-2,-8.06196E-2,6.362122E-2,4.0979512E-2,2.6605663E-1,-3.128258E-2,4.854745E-2,-3.3545513E-2,6.7806944E-2,-8.7157115E-2,1.711343E-2,-1.9991653E-1,-3.282309E-3,1.24727316E-1,-1.7149737E-2,1.4747429E-1,1.167547E-3,-1.3153875E-1,-1.9350503E-2,-1.3203776E-1,1.1453374E-1,1.1053027E-1,-1.46019105E-2,-4.8097085E-2,7.334377E-2,-3.439671E-3,4.0123475E-1,-3.0132174E-1,-1.5628507E-2,-6.7598976E-2,6.675873E-2,8.313697E-3,-1.2228122E-1,9.7877234E-2,-8.407779E-2,-2.8903536E-2,-1.4480853E-1,6.46335E-2,-3.6637396E-2,-2.7206215E-1,4.433298E-2,-7.637249E-2,2.3039352E-2,-8.86426E-3,1.8847407E-1,3.3823654E-2,-1.05471894E-1,-2.2094846E-2,1.9543951E-2,-1.680293E-1,1.2620507E-2,-4.343918E-2,6.015539E-2,-2.5633866E-1,-6.945749E-2,-4.9432516E-3,1.3527045E-1,3.0112993E-2,1.5409124E-1,8.0138765E-2,-6.116103E-2,-2.0688795E-2,-1.0627341E-1,-1.2786704E-2,1.0745447E-1,1.278621E-2,-1.8518994E-2,6.6797286E-2,4.3946907E-1,-3.8366672E-1,-2.7143389E-2,-3.16702E-2,9.839984E-2,1.294577E-1,-1.2765129E-1,3.0707614E-2,1.22986674E-1,-8.000939E-2,7.561502E-2,-1.5430391E-2,-1.4706513E-1,-1.3317859E-2,1.2198767E-1,-9.340201E-2,-2.3390457E-2,-5.64954E-3,-3.8358164E-1,-2.259799E-1,-3.8606945E-2,-3.7448797E-2,9.249463E-2,-6.553273E-2,8.087944E-2,-1.1982028E-1,1.5279502E-3,-5.462256E-3,1.5411274E-1,6.040657E-2,-6.5112576E-2,2.489252E-1,7.423815E-2,5.88397E-2,2.0428777E-3,-2.552259E-2,-1.1907858E-1],"categories":[],"categories_nodes":[],"categories_segments":[],"categories_sizes":[],"default_left":[1,1,1,1,1,1,1,1,1,1,1,1,1,1,1,1,1,1,1,1,1,1,1,1,1,1,1,1,1,1,1,0,1,1,1,1,1,1,1,1,1,1,1,1,1,1,1,1,1,1,1,1,1,1,1,0,0,1,1,1,1,1,1,0,0,0,0,0,0,0,0,0,0,0,0,0,0,0,0,0,0,0,0,0,0,0,0,0,0,0,0,0,0,0,0,0,0,0,0,0,0,0,0,0,0,0,0,0,0,0,0,0,0,0,0,0,0,0,0,0,0],"id":27,"left_children":[1,3,5,7,9,11,13,15,17,19,21,23,25,27,29,31,33,35,37,39,41,43,45,47,49,51,53,55,57,59,61,-1,63,65,67,69,71,73,75,77,79,81,83,85,87,89,91,93,95,97,99,101,103,105,107,-1,-1,109,111,113,115,117,119,-1,-1,-1,-1,-1,-1,-1,-1,-1,-1,-1,-1,-1,-1,-1,-1,-1,-1,-1,-1,-1,-1,-1,-1,-1,-1,-1,-1,-1,-1,-1,-1,-1,-1,-1,-1,-1,-1,-1,-1,-1,-1,-1,-1,-1,-1,-1,-1,-1,-1,-1,-1,-1,-1,-1,-1,-1,-1],"loss_changes":[1.3302934E-1,2.2707911E-1,2.195935E-1,2.8113103E-1,3.1173003E-1,2.0769057E-1,2.4529928E-1,1.8182003E-1,4.4062033E-1,3.91436E-1,2.7853057E-1,1.4805101E-1,2.8695828E-1,1.759377E-1,1.7218938E-1,5.4361418E-2,1.7168683E-1,3.2618994E-1,2.4746192E-1,7.2717175E-2,4.3854004E-1,3.0810452E-1,2.3083654E-1,1.1616322E-1,1.3154422E-1,3.1822103E-1,9.6875E-2,1.00169E-1,1.0180003E-1,2.4011958E-1,6.2094487E-2,0E0,3.8516538E-3,1.8623638E-1,4.8577707E-2,1.7666495E-1,1.8011585E-2,1.4248818E-1,1.1958847E-1,8.962927E-3,5.4257475E-2,1.4601642E-3,7.294059E-2,7.989481E-2,1.3299009E-1,1.9403106E-1,1.8474182E-1,1.3682364E-1,2.421254E-2,6.328674E-2,6.4459443E-4,4.019694E-1,4.050609E-1,6.0346365E-2,6.6422634E-2,0E0,0E0,4.756751E-2,1.465381E-1,4.28969E-2,1.1272836E-1,7.0350626E-3,2.4000295E-3,0E0,0E0,0E0,0E0,0E0,0E0,0E0,0E0,0E0,0E0,0E0,0E0,0E0,0E0,0E0,0E0,0E0,0E0,0E0,0E0,0E0,0E0,0E0,0E0,0E0,0E0,0E0,0E0,0E0,0E0,0E0,0E0,0E0,0E0,0E0,0E0,0E0,0E0,0E0,0E0,0E0,0E0,0E0,0E0,0E0,0E0,0E0,0E0,0E0,0E0,0E0,0E0,0E0,0E0,0E0,0E0,0E0,0E0],"parents":[2147483647,0,0,1,1,2,2,3,3,4,4,5,5,6,6,7,7,8,8,9,9,10,10,11,11,12,12,13,13,14,14,15,15,16,16,17,17,18,18,19,19,20,20,21,21,22,22,23,23,24,24,25,25,26,26,27,27,28,28,29,29,30,30,32,32,33,33,34,34,35,35,36,36,37,37,38,38,39,39,40,40,41,41,42,42,43,43,44,44,45,45,46,46,47,47,48,48,49,49,50,50,51,51,52,52,53,53,54,54,57,57,58,58,59,59,60,60,61,61,62,62],"right_children":[2,4,6,8,10,12,14,16,18,20,22,24,26,28,30,32,34,36,38,40,42,44,46,48,50,52,54,56,58,60,62,-1,64,66,68,70,72,74,76,78,80,82,84,86,88,90,92,94,96,98,100,102,104,106,108,-1,-1,110,112,114,116,118,120,-1,-1,-1,-1,-1,-1,-1,-1,-1,-1,-1,-1,-1,-1,-1,-1,-1,-1,-1,-1,-1,-1,-1,-1,-1,-1,-1,-1,-1,-1,-1,-1,-1,-1,-1,-1,-1,-1,-1,-1,-1,-1,-1,-1,-1,-1,-1,-1,-1,-1,-1,-1,-1,-1,-1,-1,-1,-1],"split_conditions":[3.0038962E-1,-1.11852914E-1,5.3942156E-1,-2.0091417E-1,1.4850107E-1,-1.1042907E0,3.8799617E-1,-2.0929098E0,-6.118471E-1,-2.025927E-1,-2.0408738E-1,1.6829391E-1,8.137189E-1,-2.6869724E0,7.668251E-1,-1.193377E0,7.514578E-1,1.7292525E0,5.291935E-1,-1.0590773E0,-2.1058449E-1,1.9577163E-1,-1.6587279E0,2.8236407E-1,1.4812454E0,-1.0883783E-1,-1.1996161E-2,3.0432907E-1,-1.0780284E0,-1.1981666E0,-3.3222012E-2,4.424229E-2,-2.5105074E-1,1.1130173E0,-2.4148494E-1,-5.181874E-1,-1.5146635E0,-3.678078E-1,-9.0219045E-1,1.3853576E0,-2.8306717E-1,7.5930405E-1,-2.334601E0,-4.0027723E-1,1.5067546E0,-2.3899968E0,2.021099E-1,-3.4191847E-1,-1.2522473E0,-2.0108905E0,1.3280975E0,2.435132E0,1.6274995E-1,-1.8384566E0,3.457093E-1,-8.161865E-2,1.32998945E-2,3.3534193E-1,1.2268739E0,9.911256E-1,1.6227598E0,-4.4992998E-1,-9.924628E-1,-6.628454E-3,5.8631855E-3,-5.040879E-2,3.7861522E-3,-1.3031755E-2,1.8046618E-2,-7.69016E-2,-2.083725E-2,-1.4829756E-3,4.0581137E-2,9.033898E-3,4.6227373E-2,2.404163E-2,-1.834831E-2,-6.2066386E-3,-3.1882025E-2,-3.8360113E-3,3.223634E-2,3.835863E-3,-5.555698E-3,2.0039186E-2,1.3184072E-1,-1.1510002E-1,-8.143017E-3,-9.5010605E-3,2.9519953E-2,3.883731E-2,-3.829539E-2,9.212284E-3,3.6896005E-2,-2.4002818E-2,2.2684507E-2,-4.6291174E-3,-4.411954E-2,-3.995358E-3,3.6596302E-2,-2.8020605E-2,-7.0171375E-3,-1.6948621E-3,-1.1507449E-1,-6.779397E-2,-1.1582084E-2,-1.1234639E-2,2.774839E-2,-1.965982E-2,2.4263835E-2,-3.5946086E-2,4.5838507E-4,-1.6386769E-3,4.6233825E-2,1.812197E-2,-1.9533774E-2,7.4677564E-2,2.2271447E-2,1.7651912E-2,6.1286334E-4,-7.6567773E-3,-3.5723574E-2],"split_indices":[15,32,55,36,32,55,2,32,49,15,58,24,49,41,39,9,49,57,4,25,31,32,31,33,59,45,19,0,33,39,22,0,13,57,15,21,4,55,44,0,29,2,0,0,26,6,10,53,3,54,6,1,39,39,40,0,0,18,56,2,2,0,0,0,0,0,0,0,0,0,0,0,0,0,0,0,0,0,0,0,0,0,0,0,0,0,0,0,0,0,0,0,0,0,0,0,0,0,0,0,0,0,0,0,0,0,0,0,0,0,0,0,0,0,0,0,0,0,0,0,0],"split_type":[0,0,0,0,0,0,0,0,0,0,0,0,0,0,0,0,0,0,0,0,0,0,0,0,0,0,0,0,0,0,0,0,0,0,0,0,0,0,0,0,0,0,0,0,0,0,0,0,0,0,0,0,0,0,0,0,0,0,0,0,0,0,0,0,0,0,0,0,0,0,0,0,0,0,0,0,0,0,0,0,0,0,0,0,0,0,0,0,0,0,0,0,0,0,0,0,0,0,0,0,0,0,0,0,0,0,0,0,0,0,0,0,0,0,0,0,0,0,0,0,0],"sum_hessian":[6.57E2,3.76E2,2.81E2,1.63E2,2.13E2,1.87E2,9.4E1,6.7E1,9.6E1,3.4E1,1.79E2,5.6E1,1.31E2,5.5E1,3.9E1,1E1,5.7E1,3E1,6.6E1,2.3E1,1.1E1,7.3E1,1.06E2,3E1,2.6E1,9.5E1,3.6E1,4E0,5.1E1,2.7E1,1.2E1,3E0,7E0,3.4E1,2.3E1,2.4E1,6E0,4.1E1,2.5E1,6E0,1.7E1,4E0,7E0,3E0,7E1,1.4E1,9.2E1,2.1E1,9E0,2.2E1,4E0,4.8E1,4.7E1,1.9E1,1.7E1,3E0,1E0,1.3E1,3.8E1,9E0,1.8E1,8E0,4E0,3E0,4E0,2.7E1,7E0,1.8E1,5E0,7E0,1.7E1,1E0,5E0,1.5E1,2.6E1,8E0,1.7E1,5E0,1E0,5E0,1.2E1,2E0,2E0,1E0,6E0,2E0,1E0,6.2E1,8E0,3E0,1.1E1,5.7E1,3.5E1,9E0,1.2E1,2E0,7E0,4E0,1.8E1,3E0,1E0,4.6E1,2E0,2.6E1,2.1E1,4E0,1.5E1,1.4E1,3E0,8E0,5E0,3.2E1,6E0,4E0,5E0,1.1E1,7E0,4E0,4E0,1E0,3E0],"tree_param":{"num_deleted":"0","num_feature":"60","num_nodes":"121","size_leaf_vector":"0"}},{"base_weights":[-7.20015E-4,-3.9992E-3,4.2994343E-2,-2.1041848E-3,-1.4704672E-1,2.3541158E-2,2.413675E-1,-1.4974237E-2,1.13362875E-2,-2.1518849E-1,3.8252395E-2,-1.0561934E-2,1.1252098E-1,-6.952077E-3,3.2645807E-1,-4.4114947E-2,1.22685E-2,3.933127E-2,-1.8281424E-2,-2.356231E-1,-5.6507707E-2,6.9052875E-2,-1.1674285E-2,7.022E-3,-1.3540497E-1,2.0085488E-1,4.324716E-2,1.8427696E-2,-6.942113E-2,6.293261E-2,-1.3888457E-2,4.6507455E-2,-6.793898E-2,6.254756E-3,-9.006959E-2,-1.3156625E-2,7.232006E-2,-1.3710856E-3,7.0292324E-2,6.978692E-2,-3.610366E-2,-9.4800375E-2,4.5718603E-2,1.1358181E-2,1.1225945E-1,-5.0459616E-2,4.1716516E-2,-3.993121E-2,5.686801E-2,-8.110231E-3,-1.0647311E-1,2.2036983E-2,-9.411633E-2,-2.1887308E-1,-1.9488987E-2,4.8831735E-2,-2.4896467E-2,-4.20177E-3,8.577399E-2,-5.0098896E-3,4.772663E-3],"categories":[],"categories_nodes":[],"categories_segments":[],"categories_sizes":[],"default_left":[1,1,1,1,1,1,1,1,1,1,1,1,1,0,0,1,1,1,1,0,0,0,0,1,0,0,1,1,1,1,1,1,1,1,1,1,1,1,0,0,0,0,0,0,0,0,0,0,0,0,0,0,0,0,0,0,0,0,0,0,0],"id":28,"left_children":[1,3,5,7,9,11,13,15,17,19,21,23,25,-1,-1,27,29,31,33,-1,-1,-1,-1,35,-1,-1,37,39,41,43,45,47,49,51,53,55,57,59,-1,-1,-1,-1,-1,-1,-1,-1,-1,-1,-1,-1,-1,-1,-1,-1,-1,-1,-1,-1,-1,-1,-1],"loss_changes":[9.449458E-2,1.6586094E-1,1.7183146E-1,1.04995385E-1,1.0924433E-1,1.3167137E-1,8.678815E-2,2.4664178E-1,2.4697575E-1,6.140977E-3,5.4194396E-3,7.1198225E-2,6.474432E-2,0E0,0E0,2.3868656E-1,2.1423429E-1,1.20937794E-1,2.5596744E-1,0E0,0E0,0E0,0E0,3.9162613E-2,0E0,0E0,9.750039E-3,1.2574983E-1,3.1700522E-1,1.386451E-1,2.196936E-1,1.3123035E-1,2.2190966E-2,1.7473868E-1,3.321024E-1,1.7953606E-2,7.567037E-3,1.133341E-4,0E0,0E0,0E0,0E0,0E0,0E0,0E0,0E0,0E0,0E0,0E0,0E0,0E0,0E0,0E0,0E0,0E0,0E0,0E0,0E0,0E0,0E0,0E0],"parents":[2147483647,0,0,1,1,2,2,3,3,4,4,5,5,6,6,7,7,8,8,9,9,10,10,11,11,12,12,15,15,16,16,17,17,18,18,23,23,26,26,27,27,28,28,29,29,30,30,31,31,32,32,33,33,34,34,35,35,36,36,37,37],"right_children":[2,4,6,8,10,12,14,16,18,20,22,24,26,-1,-1,28,30,32,34,-1,-1,-1,-1,36,-1,-1,38,40,42,44,46,48,50,52,54,56,58,60,-1,-1,-1,-1,-1,-1,-1,-1,-1,-1,-1,-1,-1,-1,-1,-1,-1,-1,-1,-1,-1,-1,-1],"split_conditions":[2.088437E0,1.8984675E0,2.1258733E0,3.9090797E-2,1.2773603E0,9.469888E-1,-1.5262308E0,-1.2521913E-2,1.5047902E-1,9.9416447E-1,3.1452858E-1,6.7658496E-1,-1.752547E-1,-2.0856233E-3,9.793743E-2,-1.571132E0,-5.8013284E-1,2.3733654E0,7.043142E-1,-7.068694E-2,-1.6952313E-2,2.0715863E-2,-3.5022856E-3,5.726322E-1,-4.0621493E-2,6.0256466E-2,-7.1019226E-1,2.5879496E-1,1.1605611E0,-3.896886E-1,3.1105632E-1,-2.100667E0,4.9926348E-2,1.2276165E0,-6.877073E-1,-2.7482116E0,-1.460041E0,1.2646437E-1,2.1087699E-2,2.0936077E-2,-1.0831098E-2,-2.8440114E-2,1.3715581E-2,3.4074544E-3,3.3677835E-2,-1.5137886E-2,1.2514955E-2,-1.1979364E-2,1.7060403E-2,-2.4330693E-3,-3.1941935E-2,6.6110953E-3,-2.82349E-2,-6.566193E-2,-5.846696E-3,1.4649521E-2,-7.46894E-3,-1.260531E-3,2.5732199E-2,-1.502967E-3,1.431799E-3],"split_indices":[58,58,18,0,4,41,0,50,50,3,0,19,55,0,0,0,19,48,38,0,0,0,0,33,0,0,11,44,20,5,48,6,33,24,41,15,4,0,0,0,0,0,0,0,0,0,0,0,0,0,0,0,0,0,0,0,0,0,0,0,0],"split_type":[0,0,0,0,0,0,0,0,0,0,0,0,0,0,0,0,0,0,0,0,0,0,0,0,0,0,0,0,0,0,0,0,0,0,0,0,0,0,0,0,0,0,0,0,0,0,0,0,0,0,0,0,0,0,0,0,0,0,0,0,0],"sum_hessian":[6.57E2,6.12E2,4.5E1,6.05E2,7E0,4.2E1,3E0,3.09E2,2.96E2,5E0,2E0,3.1E1,1.1E1,1E0,2E0,1.49E2,1.6E2,1.52E2,1.44E2,4E0,1E0,1E0,1E0,2.8E1,3E0,4E0,7E0,4.3E1,1.06E2,5.4E1,1.06E2,1.43E2,9E0,1.08E2,3.6E1,2.2E1,6E0,3E0,4E0,2.2E1,2.1E1,8.7E1,1.9E1,2.7E1,2.7E1,6.4E1,4.2E1,1.5E1,1.28E2,4E0,5E0,9.4E1,1.4E1,1.2E1,2.4E1,3E0,1.9E1,1E0,5E0,2E0,1E0],"tree_param":{"num_deleted":"0","num_feature":"60","num_nodes":"61","size_leaf_vector":"0"}},{"base_weights":[-4.96195E-4,-3.5012238E-2,2.3998814E-3,7.1211797E-3,-5.6288395E-2,5.3007517E-4,7.6284215E-2,-3.0622039E-2,4.8266847E-2,-8.154658E-2,-1.8858252E-2,2.0262051E-2,-6.1223437E-3,-9.893165E-3,1.2036222E-1,-1.9300679E-3,-5.8927998E-2,2.4518222E-3,7.0765726E-2,-1.0843787E-1,-2.7654912E-2,-3.6373086E-2,1.3476178E-2,4.7208395E-2,-1.6684731E-2,-1.3997274E-2,4.368045E-2,1.1346857E-2,-2.3349889E-2,3.087216E-2,1.7487691E-1,-7.427603E-3,6.043335E-3,-6.510695E-3,1.4669687E-2,-2.0132503E-2,-1.2266317E-1,5.3144097E-3,-4.8499387E-2,-5.4778814E-2,-1.49727985E-2,-9.624198E-3,3.978462E-2,9.813135E-2,7.5627794E-3,-2.4803758E-1,-9.07536E-3,5.056513E-2,-1.9202631E-2,1.4305404E-2,1.188685E-1,1.7339647E-2,-3.193617E-4,4.493233E-2,-1.2684256E-2,-1.3605356E-3,-8.996447E-3,6.2312186E-4,8.44188E-3,-2.8422892E-2,-1.7758608E-3,2.5231123E-2,-9.734869E-3,-1.6417624E-2,-3.8743317E-3,-1.4360885E-2,2.292931E-3,1.5753096E-1,2.338007E-2,-1.01893246E-1,2.4804356E-2,-3.5864435E-2,3.9073657E-2,8.946432E-2,-2.1221217E-2,-2.789636E-2,1.6840179E-2,-9.186373E-3,1.0929322E-1,1.9384297E-2,2.582196E-1],"categories":[],"categories_nodes":[],"categories_segments":[],"categories_sizes":[],"default_left":[1,1,1,1,1,1,1,1,1,1,1,1,1,1,1,1,0,1,0,1,1,1,1,1,1,1,1,1,0,1,0,1,1,0,0,1,0,1,0,0,1,1,0,1,1,0,1,1,1,1,1,0,0,0,0,0,0,0,0,0,0,0,0,0,0,0,0,0,0,0,0,0,0,0,0,0,0,0,0,0,0],"id":29,"left_children":[1,3,5,7,9,11,13,15,17,19,21,23,25,27,29,31,-1,33,-1,35,37,39,41,43,45,47,49,51,-1,53,-1,55,57,-1,-1,59,-1,61,-1,-1,63,65,-1,67,69,-1,71,73,75,77,79,-1,-1,-1,-1,-1,-1,-1,-1,-1,-1,-1,-1,-1,-1,-1,-1,-1,-1,-1,-1,-1,-1,-1,-1,-1,-1,-1,-1,-1,-1],"loss_changes":[6.585843E-2,4.611914E-2,8.3954394E-2,2.9431487E-2,3.0606374E-2,7.809568E-2,5.816868E-2,8.007803E-3,9.103574E-3,2.5985494E-2,8.9851525E-3,1.5012476E-1,1.7513755E-1,1.9798747E-3,4.33864E-2,3.0789184E-4,0E0,5.335212E-4,0E0,1.3860688E-2,5.7555716E-3,3.1186873E-3,4.0293043E-3,1.7489971E-1,1.1041777E-1,1.3035809E-1,1.3302734E-1,2.1527719E-4,0E0,3.6319853E-3,0E0,2.5833142E-5,3.3741562E-5,0E0,0E0,4.0607608E-4,0E0,1.4445505E-3,0E0,0E0,3.260479E-5,2.5871934E-4,0E0,1.6504443E-1,9.688713E-2,0E0,8.266301E-2,8.2879044E-2,1.1233446E-1,1.0141847E-1,2.3066953E-1,0E0,0E0,0E0,0E0,0E0,0E0,0E0,0E0,0E0,0E0,0E0,0E0,0E0,0E0,0E0,0E0,0E0,0E0,0E0,0E0,0E0,0E0,0E0,0E0,0E0,0E0,0E0,0E0,0E0,0E0],"parents":[2147483647,0,0,1,1,2,2,3,3,4,4,5,5,6,6,7,7,8,8,9,9,10,10,11,11,12,12,13,13,14,14,15,15,17,17,19,19,20,20,21,21,22,22,23,23,24,24,25,25,26,26,27,27,29,29,31,31,32,32,35,35,37,37,40,40,41,41,43,43,44,44,46,46,47,47,48,48,49,49,50,50],"right_children":[2,4,6,8,10,12,14,16,18,20,22,24,26,28,30,32,-1,34,-1,36,38,40,42,44,46,48,50,52,-1,54,-1,56,58,-1,-1,60,-1,62,-1,-1,64,66,-1,68,70,-1,72,74,76,78,80,-1,-1,-1,-1,-1,-1,-1,-1,-1,-1,-1,-1,-1,-1,-1,-1,-1,-1,-1,-1,-1,-1,-1,-1,-1,-1,-1,-1,-1,-1],"split_conditions":[-2.4740932E0,-6.351731E-1,3.233112E0,2.0616847E-1,3.2473996E-1,-8.640778E-1,1.7273752E-1,-4.33413E-2,-6.989896E-1,3.4045863E-1,2.5929794E-1,3.5520908E-1,1.2169433E0,-8.91818E-1,-8.2633483E-1,-2.1960673E-1,-1.76784E-2,1.29197E0,2.1229718E-2,-9.2574185E-1,-7.5499E-1,-7.015996E-1,-2.054231E-1,-5.378462E-1,-3.502213E0,-2.1451185E0,7.282572E-1,-3.7446566E0,-7.004967E-3,4.8701152E-1,5.2463077E-2,1.1574504E-1,-8.87675E-1,-1.9532086E-3,4.400906E-3,-4.9934626E-2,-3.6798954E-2,4.175985E-3,-1.4549817E-2,-1.6433645E-2,2.346807E0,-1.3229936E-2,1.1935387E-2,7.85416E-1,-2.3070526E0,-7.441127E-2,3.7012672E-1,9.5531213E-1,9.285499E-1,1.2748832E0,-3.6254182E-1,5.2018943E-3,-9.580851E-5,1.3479699E-2,-3.805277E-3,-4.081607E-4,-2.6989342E-3,1.8693657E-4,2.532564E-3,-8.526868E-3,-5.3275825E-4,7.5693373E-3,-2.920461E-3,-4.9252873E-3,-1.1622995E-3,-4.3082656E-3,6.8787934E-4,4.725929E-2,7.0140217E-3,-3.0567976E-2,7.441307E-3,-1.0759331E-2,1.1722098E-2,2.6839297E-2,-6.366365E-3,-8.368908E-3,5.052054E-3,-2.755912E-3,3.2787967E-2,5.815289E-3,7.7465884E-2],"split_indices":[5,51,9,40,3,55,40,31,7,41,6,5,26,0,32,2,0,0,0,14,27,13,2,44,33,47,44,0,0,0,0,0,0,0,0,0,0,0,0,0,2,0,0,13,57,0,24,42,46,13,14,0,0,0,0,0,0,0,0,0,0,0,0,0,0,0,0,0,0,0,0,0,0,0,0,0,0,0,0,0,0],"split_type":[0,0,0,0,0,0,0,0,0,0,0,0,0,0,0,0,0,0,0,0,0,0,0,0,0,0,0,0,0,0,0,0,0,0,0,0,0,0,0,0,0,0,0,0,0,0,0,0,0,0,0,0,0,0,0,0,0,0,0,0,0,0,0,0,0,0,0,0,0,0,0,0,0,0,0,0,0,0,0,0,0],"sum_hessian":[6.57E2,5E1,6.07E2,1.7E1,3.3E1,5.93E2,1.4E1,9E0,8E0,1.9E1,1.4E1,1.49E2,4.44E2,5E0,9E0,5E0,4E0,3E0,5E0,1.2E1,7E0,9E0,5E0,8.6E1,6.3E1,3.84E2,6E1,2E0,3E0,4E0,5E0,3E0,2E0,2E0,1E0,2E0,1E1,3E0,4E0,4E0,5E0,3E0,2E0,3.7E1,4.9E1,1E0,6.2E1,2.8E1,3.56E2,4.4E1,1.6E1,1E0,1E0,3E0,1E0,1E0,2E0,1E0,1E0,1E0,1E0,1E0,2E0,4E0,1E0,2E0,1E0,2E1,1.7E1,6E0,4.3E1,4E1,2.2E1,1.8E1,1E1,2.87E2,6.9E1,3.6E1,8E0,1E1,6E0],"tree_param":{"num_deleted":"0","num_feature":"60","num_nodes":"81","size_leaf_vector":"0"}},{"base_weights":[-2.1959974E-4,-2.4644402E-3,4.1052308E-2,-2.4825701E-2,2.1504334E-3,-1.2414469E-3,1.0946848E-1,2.3364134E-2,-4.9589057E-2,-2.1438174E-2,9.375709E-3,2.9720815E-2,-4.9267028E-2,7.1187496E-2,2.1334262E-1,7.2918516E-3,1.2476838E-1,-1.9253451E-2,-1.0135247E-1,-5.840851E-2,2.1745693E-2,6.5242994E-4,5.6639727E-2,-3.4463942E-2,5.0358836E-2,1.6022325E-3,-6.402999E-2,1.7793048E-2,8.898628E-2,-1.5121459E-2,4.7775265E-2,1.7101331E-1,3.6933977E-2,-8.6781286E-2,7.1322937E-3,-2.0297754E-1,-4.490924E-2,-1.5372664E-1,-1.9461572E-2,-1.1714344E-2,9.489323E-2,-5.3789474E-2,1.0324502E-2,1.4393738E-1,2.3146257E-2,-6.636381E-3,-4.152767E-2,6.814906E-2,2.188675E-3,4.631698E-3,2.0636266E-2,-4.3147802E-2,1.6827414E-2,6.897321E-2,-1.1863932E-2,-3.58487E-2,-1.611037E-1,2.7874652E-2,-7.685604E-2,-3.1446242E-1,-5.0897148E-2,-1.5948796E-1,-2.0618903E-2,-2.0680572E-1,-3.3190265E-2,6.564109E-2,-4.965249E-2,-4.208976E-2,2.7749488E-2,1.5186052E-1,4.7015687E-3,5.1436834E-2,-9.114155E-2,-3.0229563E-2,2.1633754E-2,2.4254271E-1,2.9338997E-2,6.7932725E-2,-2.459381E-2,1.4260173E-2,-6.5885484E-3],"categories":[],"categories_nodes":[],"categories_segments":[],"categories_sizes":[],"default_left":[1,1,1,1,1,1,1,1,1,1,1,1,1,1,0,1,1,1,1,1,1,1,1,1,1,0,0,1,0,1,1,0,0,1,1,1,1,1,1,1,1,1,1,1,1,0,0,0,1,0,0,0,0,0,0,0,0,0,0,0,0,0,0,0,0,0,0,0,0,0,0,0,0,0,0,0,0,0,0,0,0],"id":30,"left_children":[1,3,5,7,9,11,13,15,17,19,21,23,25,27,-1,29,31,33,35,37,39,41,43,45,47,-1,-1,49,-1,51,53,-1,-1,55,57,59,61,63,65,67,69,71,73,75,77,-1,-1,-1,79,-1,-1,-1,-1,-1,-1,-1,-1,-1,-1,-1,-1,-1,-1,-1,-1,-1,-1,-1,-1,-1,-1,-1,-1,-1,-1,-1,-1,-1,-1,-1,-1],"loss_changes":[6.106411E-2,6.4549886E-2,9.851751E-2,1.288462E-1,8.8656336E-2,3.417783E-2,3.6505938E-2,5.9392724E-2,1.0953811E-1,1.9604582E-1,1.6405734E-1,2.0280613E-2,6.8614203E-3,8.870579E-3,0E0,3.0665554E-2,1.3993278E-2,8.258048E-2,1.4002165E-1,2.4202329E-1,1.4062023E-1,1.7800808E-1,1.7795026E-1,5.1067164E-4,9.277383E-3,6.8234203E-7,0E0,5.4101343E-5,0E0,2.0425089E-2,1.5989035E-2,0E0,0E0,4.343526E-2,6.1374288E-2,1.3658679E-1,4.680834E-2,1.1469728E-1,1.2658694E-1,4.9117185E-2,9.176956E-2,2.051395E-1,1.3228254E-1,1.849842E-1,1.0002375E-1,0E0,0E0,0E0,5.1777076E-4,0E0,0E0,0E0,0E0,0E0,0E0,0E0,0E0,0E0,0E0,0E0,0E0,0E0,0E0,0E0,0E0,0E0,0E0,0E0,0E0,0E0,0E0,0E0,0E0,0E0,0E0,0E0,0E0,0E0,0E0,0E0,0E0],"parents":[2147483647,0,0,1,1,2,2,3,3,4,4,5,5,6,6,7,7,8,8,9,9,10,10,11,11,12,12,13,13,15,15,16,16,17,17,18,18,19,19,20,20,21,21,22,22,23,23,24,24,27,27,29,29,30,30,33,33,34,34,35,35,36,36,37,37,38,38,39,39,40,40,41,41,42,42,43,43,44,44,48,48],"right_children":[2,4,6,8,10,12,14,16,18,20,22,24,26,28,-1,30,32,34,36,38,40,42,44,46,48,-1,-1,50,-1,52,54,-1,-1,56,58,60,62,64,66,68,70,72,74,76,78,-1,-1,-1,80,-1,-1,-1,-1,-1,-1,-1,-1,-1,-1,-1,-1,-1,-1,-1,-1,-1,-1,-1,-1,-1,-1,-1,-1,-1,-1,-1,-1,-1,-1,-1,-1],"split_conditions":[2.5206594E0,-1.4285786E0,4.598652E-1,-7.691019E-1,-8.8754946E-1,1.1896625E0,6.814908E-1,-1.0393543E0,8.083426E-1,-2.284227E-2,1.0628029E0,-1.752547E-1,-4.8538846E-1,-1.1203399E0,6.400279E-2,6.1099017E-1,7.354332E-1,-2.3331848E-1,-6.336375E-2,-7.5527006E-1,3.4719098E-1,-1.2922549E0,1.2928026E0,-3.3173301E0,2.2472892E0,4.8066975E-4,-1.9208997E-2,-3.613778E0,2.6695885E-2,-2.2749136E-1,1.9624208E-1,5.1303994E-2,1.1080193E-2,3.120223E-1,1.1073043E0,2.2036913E-1,-1.9055909E0,7.045193E-1,-1.2754924E0,2.863797E-1,5.251837E-1,-1.017869E0,-8.9026606E-1,-7.371193E-2,-4.2095885E-2,-1.9909143E-3,-1.2458301E-2,2.044472E-2,-4.6504335E0,1.3895095E-3,6.19088E-3,-1.2944342E-2,5.0482242E-3,2.0691965E-2,-3.5591798E-3,-1.075461E-2,-4.833111E-2,8.362396E-3,-2.3056813E-2,-9.433873E-2,-1.5269144E-2,-4.784639E-2,-6.185671E-3,-6.204172E-2,-9.95708E-3,1.9692328E-2,-1.4895747E-2,-1.2626928E-2,8.324847E-3,4.555816E-2,1.4104707E-3,1.5431051E-2,-2.7342467E-2,-9.068869E-3,6.4901263E-3,7.276282E-2,8.8017E-3,2.0379819E-2,-7.3781433E-3,4.278052E-3,-1.9765645E-3],"split_indices":[3,10,55,19,38,0,16,19,29,52,21,17,21,17,0,44,1,19,51,0,30,19,21,0,7,0,0,0,0,30,41,0,0,50,18,17,59,31,37,40,21,51,1,9,25,0,0,0,0,0,0,0,0,0,0,0,0,0,0,0,0,0,0,0,0,0,0,0,0,0,0,0,0,0,0,0,0,0,0,0,0],"split_type":[0,0,0,0,0,0,0,0,0,0,0,0,0,0,0,0,0,0,0,0,0,0,0,0,0,0,0,0,0,0,0,0,0,0,0,0,0,0,0,0,0,0,0,0,0,0,0,0,0,0,0,0,0,0,0,0,0,0,0,0,0,0,0,0,0,0,0,0,0,0,0,0,0,0,0,0,0,0,0,0,0],"sum_hessian":[6.57E2,6.24E2,3.3E1,1.06E2,5.18E2,2.1E1,1.2E1,3.6E1,7E1,1.21E2,3.97E2,1.3E1,8E0,1E1,2E0,3.2E1,4E0,4.5E1,2.5E1,6.5E1,5.6E1,3.36E2,6.1E1,3E0,1E1,2E0,6E0,3E0,7E0,2.1E1,1.1E1,2E0,2E0,1.2E1,3.3E1,8E0,1.7E1,1.8E1,4.7E1,3.9E1,1.7E1,5E1,2.86E2,1.6E1,4.5E1,1E0,2E0,7E0,3E0,1E0,2E0,1.1E1,1E1,8E0,3E0,8E0,4E0,2.7E1,6E0,4E0,4E0,2E0,1.5E1,1.2E1,6E0,1.2E1,3.5E1,2.2E1,1.7E1,1E1,7E0,1.3E1,3.7E1,6.2E1,2.24E2,8E0,8E0,2.3E1,2.2E1,1E0,2E0],"tree_param":{"num_deleted":"0","num_feature":"60","num_nodes":"81","size_leaf_vector":"0"}},{"base_weights":[-1.8778203E-4,-3.5575952E-3,2.4554996E-2,1.2242186E-2,-1.1842106E-2,-5.2829697E-3,4.9658477E-2,8.321924E-2,2.5490136E-3,-2.109563E-2,1.8312015E-2,2.6036078E-2,-4.3660443E-2,8.726235E-2,6.108594E-3,9.317274E-3,1.073356E-1,2.3223244E-2,-3.093208E-2,1.905543E-2,-3.4812298E-2,-3.8237013E-2,4.4467013E-2,-7.755849E-2,4.1022796E-2,3.794831E-3,-5.8553975E-2,9.967978E-2,3.359571E-3,2.942253E-2,-3.545437E-2,3.0386519E-2,-2.8903892E-2,5.95434E-2,1.4851186E-1,-2.710807E-2,3.470918E-2,5.1450428E-2,-6.161879E-2,-2.4172433E-2,8.470297E-2,-2.7713487E-2,-1.3627258E-1,2.9625375E-2,-7.025635E-2,3.5635827E-3,8.525549E-2,6.956693E-2,1.3939158E-2,2.5613606E-2,-8.063264E-3,-6.776828E-2,-2.08797E-2,1.1517579E-1,4.432648E-2,1.7064214E-2,-1.8877178E-2,6.996858E-2,-8.773431E-4,-5.2723736E-3,-5.250909E-2,3.6762834E-2,2.4406314E-3,7.403313E-2,1.9300517E-2,9.1506846E-2,1.9689143E-1,6.0840815E-2,-5.8394648E-2,-1.1356237E-2,5.069218E-2,1.6493292E-1,-1.3613254E-2,4.3518465E-2,-8.268109E-2,-5.758202E-2,3.6207575E-2,1.4592229E-2,1.4513785E-1,-2.0438286E-2,-1.2550813E-1,-2.2749452E-1,-3.94193E-2,-1.3410047E-2,7.5342804E-2,-2.360594E-2,-1.1454617E-1,1.3648677E-1,-9.847522E-3,1.284186E-1,2.3670388E-2,2.6884481E-2,-1.5436279E-2,-1.0853629E-2,1.539141E-4,-7.149758E-2,-1.7102301E-2,1.2814626E-1,4.747045E-2,9.152323E-3,4.9530845E-2,7.922717E-2,1.1837829E-2,1.2117511E-2,-3.090622E-2,-4.3202937E-4,-6.741812E-3],"categories":[],"categories_nodes":[],"categories_segments":[],"categories_sizes":[],"default_left":[1,1,1,1,1,1,1,1,1,1,1,1,1,1,1,1,1,1,1,1,1,1,1,0,1,1,1,1,1,1,1,1,0,1,1,1,1,1,1,1,1,1,1,1,1,1,1,0,1,0,1,1,0,1,1,0,0,1,1,1,0,0,0,0,0,0,0,0,0,0,0,0,0,0,0,0,0,0,0,0,0,0,0,0,0,0,0,0,0,0,0,0,0,0,0,0,0,0,0,0,0,0,0,0,0,0,0],"id":31,"left_children":[1,3,5,7,9,11,13,15,17,19,21,23,25,27,29,31,33,35,37,39,41,43,45,-1,47,49,51,53,55,57,59,61,-1,63,65,67,69,71,73,75,77,79,81,83,85,87,89,-1,91,-1,93,95,-1,97,99,-1,-1,101,103,105,-1,-1,-1,-1,-1,-1,-1,-1,-1,-1,-1,-1,-1,-1,-1,-1,-1,-1,-1,-1,-1,-1,-1,-1,-1,-1,-1,-1,-1,-1,-1,-1,-1,-1,-1,-1,-1,-1,-1,-1,-1,-1,-1,-1,-1,-1,-1],"loss_changes":[5.495043E-2,7.606317E-2,5.9436247E-2,1.3738643E-1,1.06697455E-1,4.5608744E-2,6.988565E-2,4.177384E-2,1.2323701E-1,1.6147907E-1,1.3481385E-1,3.5785053E-2,1.2237404E-2,2.3627847E-2,2.139208E-2,6.515326E-3,2.657938E-2,6.453216E-2,1.7507759E-1,2.1488269E-1,1.5323737E-1,6.509573E-2,1.0313627E-1,0E0,1.3718795E-2,1.5001749E-3,3.0978732E-3,1.2049764E-2,1.541111E-3,1.726095E-2,3.841116E-3,8.012345E-4,0E0,4.402209E-3,6.8039894E-3,6.1336793E-2,6.683938E-2,1.4253347E-1,1.1431977E-1,9.4879396E-2,1.2499617E-1,1.4328735E-1,1.1472434E-1,2.068504E-2,3.8618803E-2,5.838875E-2,7.93646E-2,0E0,4.598016E-3,0E0,9.338619E-5,6.667152E-4,0E0,7.0893764E-3,6.450331E-4,0E0,0E0,2.291372E-3,3.8864943E-3,2.553768E-5,0E0,0E0,0E0,0E0,0E0,0E0,0E0,0E0,0E0,0E0,0E0,0E0,0E0,0E0,0E0,0E0,0E0,0E0,0E0,0E0,0E0,0E0,0E0,0E0,0E0,0E0,0E0,0E0,0E0,0E0,0E0,0E0,0E0,0E0,0E0,0E0,0E0,0E0,0E0,0E0,0E0,0E0,0E0,0E0,0E0,0E0,0E0],"parents":[2147483647,0,0,1,1,2,2,3,3,4,4,5,5,6,6,7,7,8,8,9,9,10,10,11,11,12,12,13,13,14,14,15,15,16,16,17,17,18,18,19,19,20,20,21,21,22,22,24,24,25,25,26,26,27,27,28,28,29,29,30,30,31,31,33,33,34,34,35,35,36,36,37,37,38,38,39,39,40,40,41,41,42,42,43,43,44,44,45,45,46,46,48,48,50,50,51,51,53,53,54,54,57,57,58,58,59,59],"right_children":[2,4,6,8,10,12,14,16,18,20,22,24,26,28,30,32,34,36,38,40,42,44,46,-1,48,50,52,54,56,58,60,62,-1,64,66,68,70,72,74,76,78,80,82,84,86,88,90,-1,92,-1,94,96,-1,98,100,-1,-1,102,104,106,-1,-1,-1,-1,-1,-1,-1,-1,-1,-1,-1,-1,-1,-1,-1,-1,-1,-1,-1,-1,-1,-1,-1,-1,-1,-1,-1,-1,-1,-1,-1,-1,-1,-1,-1,-1,-1,-1,-1,-1,-1,-1,-1,-1,-1,-1,-1],"split_conditions":[1.4551922E0,-5.0390613E-1,1.9529702E-2,-2.069671E0,9.444884E-1,2.6934898E-1,1.0089064E0,-1.2867734E0,4.1743886E-1,-9.1371167E-1,-3.591063E-1,-1.6190858E0,-5.5966634E-1,1.3584206E0,8.571537E-2,8.618357E-1,-8.190824E-2,-1.718251E0,-8.798116E-1,1.6853434E-1,1.4953992E0,-7.6373005E-1,-3.3942584E-2,-2.3267547E-2,1.9374497E-1,-2.5892196E0,6.931692E-1,9.716582E-1,-2.1916558E-1,-2.8816783E-1,4.5296818E-1,6.631638E-1,-8.671168E-3,5.0340287E-2,8.9592874E-2,-8.8809945E-2,-8.5732114E-1,1.2391574E-2,-2.0058527E0,4.779181E-1,-1.8221332E-1,1.8267423E0,2.5269532E-1,1.7450556E-1,-3.0294475E-1,-1.560139E-1,8.3963335E-1,2.0870078E-2,7.953897E-1,7.6840823E-3,-2.1167524E-1,3.5228596E0,-6.2639103E-3,9.323912E-1,-1.85168E0,5.119264E-3,-5.6631537E-3,2.0393262E0,1.4738855E0,-1.120208E0,-1.5752729E-2,1.102885E-2,7.3218945E-4,2.220994E-2,5.7901554E-3,2.7452055E-2,5.906743E-2,1.8252246E-2,-1.7518396E-2,-3.4068713E-3,1.5207654E-2,4.947988E-2,-4.083976E-3,1.305554E-2,-2.4804328E-2,-1.7274607E-2,1.0862273E-2,4.377669E-3,4.3541357E-2,-6.131486E-3,-3.765244E-2,-6.824836E-2,-1.1825791E-2,-4.023014E-3,2.2602841E-2,-7.0817824E-3,-3.4363855E-2,4.0946033E-2,-2.9542567E-3,3.852558E-2,7.1011167E-3,8.065345E-3,-4.6308837E-3,-3.2560888E-3,4.617423E-5,-2.1449275E-2,-5.1306905E-3,3.844388E-2,1.4241136E-2,2.745697E-3,1.48592545E-2,2.3768153E-2,3.5513488E-3,3.6352533E-3,-9.271867E-3,-1.2960882E-4,-2.0225437E-3],"split_indices":[5,14,26,46,58,51,26,16,6,8,11,17,39,42,12,10,4,5,20,31,31,10,50,0,19,0,58,21,1,53,48,2,0,44,34,3,42,26,0,30,15,1,8,56,16,11,7,0,50,0,1,6,0,41,3,0,0,1,0,0,0,0,0,0,0,0,0,0,0,0,0,0,0,0,0,0,0,0,0,0,0,0,0,0,0,0,0,0,0,0,0,0,0,0,0,0,0,0,0,0,0,0,0,0,0,0,0],"split_type":[0,0,0,0,0,0,0,0,0,0,0,0,0,0,0,0,0,0,0,0,0,0,0,0,0,0,0,0,0,0,0,0,0,0,0,0,0,0,0,0,0,0,0,0,0,0,0,0,0,0,0,0,0,0,0,0,0,0,0,0,0,0,0,0,0,0,0,0,0,0,0,0,0,0,0,0,0,0,0,0,0,0,0,0,0,0,0,0,0,0,0,0,0,0,0,0,0,0,0,0,0,0,0,0,0,0,0],"sum_hessian":[6.57E2,5.79E2,7.8E1,1.99E2,3.8E2,3.6E1,4.2E1,2.3E1,1.76E2,2.91E2,8.9E1,2E1,1.6E1,2.2E1,2E1,6E0,1.7E1,1.09E2,6.7E1,7.4E1,2.17E2,2.8E1,6.1E1,2E0,1.8E1,4E0,1.2E1,1.9E1,3E0,1.3E1,7E0,4E0,2E0,9E0,8E0,2E1,8.9E1,1.8E1,4.9E1,4.5E1,2.9E1,2.04E2,1.3E1,9E0,1.9E1,3.1E1,3E1,8E0,1E1,1E0,3E0,9E0,3E0,1.4E1,5E0,2E0,1E0,5E0,8E0,3E0,4E0,3E0,1E0,6E0,3E0,5E0,3E0,5E0,1.5E1,2.3E1,6.6E1,6E0,1.2E1,8E0,4.1E1,2.9E1,1.6E1,1.4E1,1.5E1,1.91E2,1.3E1,6E0,7E0,5E0,4E0,1E1,9E0,2E0,2.9E1,1.7E1,1.3E1,7E0,3E0,2E0,1E0,8E0,1E0,1.1E1,3E0,1E0,4E0,4E0,1E0,6E0,2E0,1E0,2E0],"tree_param":{"num_deleted":"0","num_feature":"60","num_nodes":"107","size_leaf_vector":"0"}},{"base_weights":[1.5484999E-4,6.8540536E-3,-9.743428E-3,4.1017123E-3,9.389909E-2,-1.10951945E-1,-4.104445E-3,-2.4230964E-2,1.1687292E-2,1.4454782E-2,2.4917401E-1,-5.324324E-2,-2.419129E-1,1.8447854E-2,-2.0229034E-2,-4.18445E-2,4.99393E-2,-1.6670702E-2,2.3804698E-2,-4.166657E-2,4.9459886E-2,-8.156918E-2,1.6719446E-2,-1.0411407E-2,5.0978456E-2,-3.766488E-2,1.8040864E-2,-1.1458505E-1,-1.8203454E-2,8.677513E-2,-2.5916265E-2,-6.324937E-2,1.9310564E-3,3.2610066E-2,-3.070154E-2,-4.7250416E-2,-1.245752E-2,6.4078555E-2,1.3481696E-2,-3.5012398E-2,-9.125271E-2,2.4580618E-2,-3.4320354E-3,1.0304325E-1,-2.5779469E-2,1.3071955E-2,7.797723E-2,-8.244585E-3,-8.9126356E-2,-5.682898E-2,3.7268694E-2,-1.4398083E-2,-2.4134E-1,-7.983175E-2,-1.2250463E-3,1.3936453E-1,1.972321E-2,2.6763873E-3,-5.5401046E-2,-1.8122785E-3,-1.2454706E-1,3.2755718E-2,-2.9886201E-2,-1.7152106E-2,4.449404E-2,2.2211155E-2,-5.4436084E-2,1.1289385E-1,2.1969825E-2,-5.4769266E-2,4.201845E-3,-1.2927652E-2,3.58156E-2,4.1381013E-2,1.2637345E-1,-5.070194E-2,1.722395E-2,3.8485113E-3,-1.6834742E-1,-1.3163114E-1,-5.966463E-3,4.654215E-2,-5.31912E-2],"categories":[],"categories_nodes":[],"categories_segments":[],"categories_sizes":[],"default_left":[1,1,1,1,1,1,1,1,1,1,0,1,0,1,1,1,1,1,1,1,1,1,1,1,1,1,1,1,1,1,1,1,1,1,1,0,0,0,0,0,0,0,0,1,1,1,1,1,1,1,1,0,0,0,0,0,0,0,0,0,0,0,0,0,0,0,0,0,0,0,0,0,0,0,0,0,0,0,0,0,0,0,0],"id":32,"left_children":[1,3,5,7,9,11,13,15,17,19,-1,21,-1,23,25,27,29,31,33,35,37,39,41,43,45,47,49,51,53,55,57,59,61,63,65,-1,-1,-1,-1,-1,-1,-1,-1,67,69,71,73,75,77,79,81,-1,-1,-1,-1,-1,-1,-1,-1,-1,-1,-1,-1,-1,-1,-1,-1,-1,-1,-1,-1,-1,-1,-1,-1,-1,-1,-1,-1,-1,-1,-1,-1],"loss_changes":[4.3699145E-2,9.376888E-2,1.5135428E-1,8.238255E-2,1.4442673E-1,9.2925996E-2,9.237576E-2,1.0790813E-1,1.0417171E-1,1.9741628E-2,0E0,2.3163136E-2,0E0,1.0004451E-1,9.943518E-2,1.11411884E-1,4.695613E-2,7.896865E-2,1.0275005E-1,6.377231E-5,2.2918321E-3,4.1169673E-4,7.180186E-4,1.0204036E-1,5.0152138E-2,1.536944E-1,6.977843E-2,1.9971225E-1,5.326607E-2,3.6039703E-2,5.206563E-3,9.768904E-2,6.5708846E-2,1.0898431E-1,3.888485E-2,0E0,0E0,0E0,0E0,0E0,0E0,0E0,0E0,3.1100959E-3,4.4556897E-2,1.3472179E-2,4.6132997E-2,7.224084E-2,2.7317393E-1,3.726089E-2,3.4352906E-2,0E0,0E0,0E0,0E0,0E0,0E0,0E0,0E0,0E0,0E0,0E0,0E0,0E0,0E0,0E0,0E0,0E0,0E0,0E0,0E0,0E0,0E0,0E0,0E0,0E0,0E0,0E0,0E0,0E0,0E0,0E0,0E0],"parents":[2147483647,0,0,1,1,2,2,3,3,4,4,5,5,6,6,7,7,8,8,9,9,11,11,13,13,14,14,15,15,16,16,17,17,18,18,19,19,20,20,21,21,22,22,23,23,24,24,25,25,26,26,27,27,28,28,29,29,30,30,31,31,32,32,33,33,34,34,43,43,44,44,45,45,46,46,47,47,48,48,49,49,50,50],"right_children":[2,4,6,8,10,12,14,16,18,20,-1,22,-1,24,26,28,30,32,34,36,38,40,42,44,46,48,50,52,54,56,58,60,62,64,66,-1,-1,-1,-1,-1,-1,-1,-1,68,70,72,74,76,78,80,82,-1,-1,-1,-1,-1,-1,-1,-1,-1,-1,-1,-1,-1,-1,-1,-1,-1,-1,-1,-1,-1,-1,-1,-1,-1,-1,-1,-1,-1,-1,-1,-1],"split_conditions":[3.557177E-1,2.997331E-1,4.0404457E-1,-1.0393431E0,8.3943474E-1,1.341208E0,-2.7570757E-1,1.2249144E0,-5.069371E-1,-1.087421E-1,7.4752204E-2,4.6941745E-1,-7.257387E-2,2.9036049E-2,7.6245475E-1,-6.214151E-1,6.365771E-1,-6.0408026E-1,1.7477401E0,4.3006992E-1,1.1979236E-1,-8.8487744E-1,-7.697785E-2,-2.9148521E0,-6.74131E-1,3.9159572E-1,-8.579298E-1,6.784055E-2,-4.817133E-1,3.974157E-2,-7.9633564E-1,-1.2785184E-1,2.8464457E-1,-9.3378484E-1,-2.7661508E-1,-1.4175125E-2,-3.7372562E-3,1.9223567E-2,4.044509E-3,-1.050372E-2,-2.7375814E-2,7.3741856E-3,-1.0296106E-3,1.9613997E0,1.2035185E-1,-2.9256666E-1,-4.9127236E-2,-5.035183E-1,-1.746013E-1,3.298923E-1,2.011943E0,-4.319425E-3,-7.2402E-2,-2.3949526E-2,-3.6751392E-4,4.1809358E-2,5.9169633E-3,8.0291624E-4,-1.6620314E-2,-5.436836E-4,-3.7364118E-2,9.826716E-3,-8.965861E-3,-5.145632E-3,1.3348212E-2,6.6633467E-3,-1.6330825E-2,3.3868156E-2,6.590948E-3,-1.643078E-2,1.2605535E-3,-3.878296E-3,1.0744681E-2,1.2414305E-2,3.7912037E-2,-1.5210582E-2,5.1671853E-3,1.1545534E-3,-5.0504226E-2,-3.9489344E-2,-1.789939E-3,1.3962645E-2,-1.5957361E-2],"split_indices":[20,20,20,11,13,36,34,51,26,21,0,36,0,7,4,50,39,53,11,0,4,4,0,24,1,35,59,35,57,2,0,9,15,38,38,0,0,0,0,0,0,0,0,0,41,10,37,44,43,28,46,0,0,0,0,0,0,0,0,0,0,0,0,0,0,0,0,0,0,0,0,0,0,0,0,0,0,0,0,0,0,0,0],"split_type":[0,0,0,0,0,0,0,0,0,0,0,0,0,0,0,0,0,0,0,0,0,0,0,0,0,0,0,0,0,0,0,0,0,0,0,0,0,0,0,0,0,0,0,0,0,0,0,0,0,0,0,0,0,0,0,0,0,0,0,0,0,0,0,0,0,0,0,0,0,0,0,0,0,0,0,0,0,0,0,0,0,0,0],"sum_hessian":[6.57E2,3.92E2,2.65E2,3.81E2,1.1E1,1.3E1,2.52E2,8E1,3.01E2,8E0,3E0,1E1,3E0,1.05E2,1.47E2,6.5E1,1.5E1,9E1,2.11E2,3E0,5E0,7E0,3E0,5.6E1,4.9E1,1.01E2,4.6E1,1.5E1,5E1,1E1,5E0,2.5E1,6.5E1,1.82E2,2.9E1,2E0,1E0,3E0,2E0,2E0,5E0,2E0,1E0,6E0,5E1,2.1E1,2.8E1,6.5E1,3.6E1,9E0,3.7E1,9E0,6E0,1E1,4E1,5E0,5E0,3E0,2E0,1.3E1,1.2E1,3.3E1,3.2E1,3.5E1,1.47E2,9E0,2E1,5E0,1E0,2.5E1,2.5E1,1E1,1.1E1,1.7E1,1.1E1,2.4E1,4.1E1,1.7E1,1.9E1,3E0,6E0,3.4E1,3E0],"tree_param":{"num_deleted":"0","num_feature":"60","num_nodes":"83","size_leaf_vector":"0"}},{"base_weights":[-1.2234536E-4,-2.5836914E-3,2.4452131E-2,-7.307781E-4,-5.6188993E-2,4.149852E-2,-2.1106295E-2,-4.9292943E-3,2.0226054E-2,7.0956373E-3,-8.381781E-2,5.588323E-2,-3.0218065E-2,-7.8140624E-2,-3.3031811E-3,-1.4004154E-2,1.1914883E-2,5.3584144E-2,-7.329169E-3,2.3352992E-2,-2.2365168E-2,-2.8419241E-2,-9.634294E-2,6.4482135E-3,7.655004E-2,-1.7265776E-3,-7.712835E-2,-1.2751159E-2,2.3504555E-2,1.32553E-2,-2.4966847E-2,-6.4292075E-3,2.9489465E-2,1.161435E-1,2.3603009E-2,-1.0611274E-1,4.916353E-3,6.779512E-3,3.2142144E-2,-3.4315098E-2,-5.3658336E-3,-3.0974517E-2,-1.0742765E-1,-3.240792E-2,1.7460233E-2,1.1931073E-1,4.6893742E-2,-1.4318258E-2,1.5637854E-2,-1.887936E-2,-1.6214475E-3,2.6489854E-2,7.2743297E-3,4.8398066E-2,-2.2175623E-2,-3.6222357E-2,1.7292472E-2,-4.3072205E-2,8.945861E-3,-1.5066638E-2,4.389469E-2,5.8247164E-2,1.8363076E-1,8.264491E-3,1.017104E-1,-2.4220824E-2,-1.4100349E-1,-7.6003815E-3,6.1390772E-2,-5.754789E-3,2.3983337E-2,6.7905016E-2,1.7944305E-1,6.176085E-2,9.343897E-3,-2.201968E-2,-7.352372E-3,-4.3027103E-3,4.551802E-3],"categories":[],"categories_nodes":[],"categories_segments":[],"categories_sizes":[],"default_left":[1,1,1,1,1,1,1,1,1,1,1,1,1,0,1,1,1,1,1,1,0,1,1,1,1,1,0,1,1,1,1,1,1,1,1,1,1,0,0,0,0,0,0,0,1,1,1,0,0,1,1,0,0,0,0,0,0,0,0,0,0,0,0,0,0,0,0,0,0,0,0,0,0,0,0,0,0,0,0],"id":33,"left_children":[1,3,5,7,9,11,13,15,17,19,21,23,25,-1,27,29,31,33,35,37,-1,39,41,43,45,47,-1,49,51,53,55,57,59,61,63,65,67,-1,-1,-1,-1,-1,-1,-1,69,71,73,-1,-1,75,77,-1,-1,-1,-1,-1,-1,-1,-1,-1,-1,-1,-1,-1,-1,-1,-1,-1,-1,-1,-1,-1,-1,-1,-1,-1,-1,-1,-1],"loss_changes":[3.9863154E-2,5.94552E-2,4.7472283E-2,5.1132508E-2,3.5564333E-2,4.7080055E-2,1.7003495E-2,7.415039E-2,8.955413E-2,3.874977E-3,6.976247E-3,3.7307955E-2,1.0559183E-2,0E0,3.8456148E-3,9.446462E-2,5.499585E-2,7.978508E-2,6.5843135E-2,5.10426E-4,0E0,3.5954942E-4,4.642971E-3,5.7004634E-3,2.7376294E-2,1.5357911E-3,0E0,7.1964413E-4,1.1124648E-6,1.1438105E-1,1.0764766E-1,4.7709957E-2,5.6501493E-2,4.4005767E-2,3.6299016E-2,1.3728403E-2,3.5103485E-2,0E0,0E0,0E0,0E0,0E0,0E0,0E0,1.6523588E-3,1.8726364E-2,8.9132935E-3,0E0,0E0,9.14922E-5,1.02345606E-4,0E0,0E0,0E0,0E0,0E0,0E0,0E0,0E0,0E0,0E0,0E0,0E0,0E0,0E0,0E0,0E0,0E0,0E0,0E0,0E0,0E0,0E0,0E0,0E0,0E0,0E0,0E0,0E0],"parents":[2147483647,0,0,1,1,2,2,3,3,4,4,5,5,6,6,7,7,8,8,9,9,10,10,11,11,12,12,14,14,15,15,16,16,17,17,18,18,19,19,21,21,22,22,23,23,24,24,25,25,27,27,28,28,29,29,30,30,31,31,32,32,33,33,34,34,35,35,36,36,44,44,45,45,46,46,49,49,50,50],"right_children":[2,4,6,8,10,12,14,16,18,20,22,24,26,-1,28,30,32,34,36,38,-1,40,42,44,46,48,-1,50,52,54,56,58,60,62,64,66,68,-1,-1,-1,-1,-1,-1,-1,70,72,74,-1,-1,76,78,-1,-1,-1,-1,-1,-1,-1,-1,-1,-1,-1,-1,-1,-1,-1,-1,-1,-1,-1,-1,-1,-1,-1,-1,-1,-1,-1,-1],"split_conditions":[1.8743191E0,1.5745817E0,3.6601045E0,1.2230022E0,-1.2654439E-1,1.6067243E0,-1.5402595E0,4.1275615E-1,-3.6256686E-2,7.284432E-1,-9.076882E-1,-1.3446072E0,-1.4087003E-1,-2.3442188E-2,7.6869525E-2,-5.731245E-1,-1.305483E-2,1.5728655E0,-1.7440681E0,-5.110034E-1,-6.7095505E-3,-5.2596766E-1,-2.2791274E0,-2.1684577E0,-2.2391403E-1,8.8873684E-1,-2.3138506E-2,3.1622568E-1,1.21755E0,3.1712818E-1,1.0088328E0,-3.8445467E-1,-9.522928E-1,2.4474606E-1,1.390312E0,2.1143394E0,1.2113404E0,2.0338537E-3,9.642644E-3,-1.029453E-2,-1.6097502E-3,-9.292356E-3,-3.2228295E-2,-9.722376E-3,-7.483752E-1,5.7338994E-2,6.822456E-1,-4.2954776E-3,4.6913563E-3,6.8714947E-1,-1.8087019E-1,7.946957E-3,2.182299E-3,1.451942E-2,-6.652687E-3,-1.0866707E-2,5.1877415E-3,-1.2921662E-2,2.6837583E-3,-4.5199916E-3,1.3168408E-2,1.747415E-2,5.508923E-2,2.4793474E-3,3.051312E-2,-7.2662476E-3,-4.2301048E-2,-2.2801145E-3,1.8417232E-2,-1.7264368E-3,7.1950015E-3,2.0371506E-2,5.3832915E-2,1.8528257E-2,2.8031692E-3,-6.6059045E-3,-2.2057118E-3,-1.2908131E-3,1.3655405E-3],"split_indices":[25,25,25,2,43,34,49,30,54,12,38,0,10,0,37,12,36,2,43,10,0,0,55,52,40,6,0,3,0,11,28,21,46,17,12,2,1,0,0,0,0,0,0,0,8,3,22,0,0,4,0,0,0,0,0,0,0,0,0,0,0,0,0,0,0,0,0,0,0,0,0,0,0,0,0,0,0,0,0],"split_type":[0,0,0,0,0,0,0,0,0,0,0,0,0,0,0,0,0,0,0,0,0,0,0,0,0,0,0,0,0,0,0,0,0,0,0,0,0,0,0,0,0,0,0,0,0,0,0,0,0,0,0,0,0,0,0,0,0,0,0,0,0,0,0,0,0,0,0,0,0,0,0,0,0,0,0,0,0,0,0],"sum_hessian":[6.57E2,5.98E2,5.9E1,5.79E2,1.9E1,4.3E1,1.6E1,4.83E2,9.6E1,6E0,1.3E1,3.6E1,7E0,3E0,1.3E1,3.14E2,1.69E2,4.3E1,5.3E1,4E0,2E0,3E0,1E1,1.1E1,2.5E1,5E0,2E0,1E1,3E0,9E1,2.24E2,8.3E1,8.6E1,1.3E1,3E1,5E0,4.8E1,2E0,2E0,2E0,1E0,2E0,8E0,2E0,9E0,9E0,1.6E1,3E0,2E0,6E0,4E0,2E0,1E0,4.5E1,4.5E1,1.77E2,4.7E1,2.4E1,5.9E1,2.1E1,6.5E1,8E0,5E0,2.6E1,4E0,2E0,3E0,4E1,8E0,2E0,7E0,6E0,3E0,1.1E1,5E0,4E0,2E0,3E0,1E0],"tree_param":{"num_deleted":"0","num_feature":"60","num_nodes":"79","size_leaf_vector":"0"}},{"base_weights":[2.1891514E-5,6.634617E-3,-8.655937E-3,3.6979718E-3,5.3452857E-2,-5.728754E-2,-4.1680965E-3,-6.8677817E-3,2.1017134E-2,8.52468E-2,-2.6855139E-2,-4.2098896E-3,-1.629166E-1,1.1154716E-3,-4.3575183E-2,2.3637736E-2,-2.2809517E-2,3.3327196E-2,-2.6775496E-2,1.2427821E-1,4.1080344E-2,1.9814447E-3,-9.993732E-2,5.0246328E-2,-3.8481127E-2,-3.9864708E-2,-2.7600232E-1,3.1066932E-2,-8.14546E-3,-1.390098E-1,-2.428821E-2,-2.4282152E-2,3.6821075E-2,1.6577734E-2,-3.9031286E-2,4.87802E-2,-2.2146951E-2,-6.9736905E-2,1.5106852E-2,2.6075877E-2,1.34582E-1,4.4433475E-3,5.8658283E-2,1.0283839E-2,-9.748896E-3,1.4636368E-2,6.1563037E-2,-6.3550696E-2,4.3124855E-3,6.816745E-3,-7.325792E-2,8.229799E-2,3.919447E-3,-4.7909636E-2,-8.458235E-5,-1.7396578E-1,4.070364E-4,-1.0490389E-2,-1.0100308E-1,-1.080315E-3,-9.9418044E-2,7.3083945E-2,1.5420967E-2,4.5756027E-2,-4.7131307E-2,5.5603283E-3,-5.4946207E-2,1.507455E-3,8.251568E-2,7.7871513E-3,-7.290236E-2,-1.3039405E-2,-9.97867E-2,3.3315808E-2,-1.7759217E-2,9.572327E-3,-4.5708814E-4,2.1809489E-3,1.2257819E-2,1.276054E-2,-5.573064E-3,1.7093599E-2,-6.8684816E-3,1.6846445E-1,4.8089303E-2,1.1399513E-1,-5.6275954E-3,-2.9376239E-2,-1.6103268E-1,-1.3133284E-1,3.5118398E-3,-8.022686E-2,-2.2759128E-1,-4.234298E-2,1.528596E-2],"categories":[],"categories_nodes":[],"categories_segments":[],"categories_sizes":[],"default_left":[1,1,1,1,1,1,1,1,1,1,1,1,1,1,1,1,1,1,1,1,1,1,0,1,1,1,0,1,1,1,1,1,1,1,1,1,1,1,1,0,0,1,0,1,0,0,0,0,1,1,0,1,1,1,1,1,0,1,0,0,0,0,0,0,0,0,0,0,0,0,0,0,0,0,0,0,0,0,0,0,0,0,0,0,0,0,0,0,0,0,0,0,0,0,0],"id":34,"left_children":[1,3,5,7,9,11,13,15,17,19,21,23,25,27,29,31,33,35,37,39,41,43,-1,45,47,49,-1,51,53,55,57,59,61,63,65,67,69,71,73,-1,-1,75,-1,77,-1,-1,-1,-1,79,81,-1,83,85,87,89,91,-1,93,-1,-1,-1,-1,-1,-1,-1,-1,-1,-1,-1,-1,-1,-1,-1,-1,-1,-1,-1,-1,-1,-1,-1,-1,-1,-1,-1,-1,-1,-1,-1,-1,-1,-1,-1,-1,-1],"loss_changes":[3.7816167E-2,5.1223055E-2,6.1962724E-2,6.473981E-2,5.846209E-2,1.3387114E-1,5.4599635E-2,1.07527554E-1,7.97286E-2,2.2476673E-2,1.4950103E-2,3.366033E-2,1.0032055E-1,6.460485E-2,5.3683702E-2,4.8906647E-2,9.329204E-2,9.2805244E-2,5.143459E-2,4.5855045E-3,5.5353865E-3,6.8459555E-4,0E0,1.9198563E-3,1.207505E-2,8.2936E-3,0E0,7.617112E-2,5.7051033E-2,2.443806E-2,2.7519885E-2,2.952854E-2,4.5434743E-2,8.209015E-2,7.3401734E-2,1.3383618E-1,3.7031326E-2,2.2551313E-2,9.568514E-3,0E0,0E0,1.0491234E-4,0E0,3.7246093E-5,0E0,0E0,0E0,0E0,4.886836E-4,5.3933024E-4,0E0,4.7903836E-2,3.952471E-2,5.8166094E-2,7.079282E-2,1.8482506E-3,0E0,2.0352297E-2,0E0,0E0,0E0,0E0,0E0,0E0,0E0,0E0,0E0,0E0,0E0,0E0,0E0,0E0,0E0,0E0,0E0,0E0,0E0,0E0,0E0,0E0,0E0,0E0,0E0,0E0,0E0,0E0,0E0,0E0,0E0,0E0,0E0,0E0,0E0,0E0,0E0],"parents":[2147483647,0,0,1,1,2,2,3,3,4,4,5,5,6,6,7,7,8,8,9,9,10,10,11,11,12,12,13,13,14,14,15,15,16,16,17,17,18,18,19,19,20,20,21,21,23,23,24,24,25,25,27,27,28,28,29,29,30,30,31,31,32,32,33,33,34,34,35,35,36,36,37,37,38,38,41,41,43,43,48,48,49,49,51,51,52,52,53,53,54,54,55,55,57,57],"right_children":[2,4,6,8,10,12,14,16,18,20,22,24,26,28,30,32,34,36,38,40,42,44,-1,46,48,50,-1,52,54,56,58,60,62,64,66,68,70,72,74,-1,-1,76,-1,78,-1,-1,-1,-1,80,82,-1,84,86,88,90,92,-1,94,-1,-1,-1,-1,-1,-1,-1,-1,-1,-1,-1,-1,-1,-1,-1,-1,-1,-1,-1,-1,-1,-1,-1,-1,-1,-1,-1,-1,-1,-1,-1,-1,-1,-1,-1,-1,-1],"split_conditions":[2.7659464E-1,1.9298036E-1,-2.5145419E0,3.9723063E-1,9.1663027E-1,-3.0188155E0,1.5543563E0,-4.855374E-1,1.021302E0,2.0525926E-1,8.748169E-1,-7.137627E-1,-1.363611E0,-9.060317E-1,-2.1017303E0,-8.167293E-1,-5.4461825E-1,2.1313272E0,9.6087106E-2,-2.4879446E0,-5.495857E-1,8.306495E-1,-2.9981198E-2,-3.6273766E0,-2.55717E-1,-2.2784522E-1,-8.28007E-2,-2.4912778E-1,-1.2325778E0,1.2059722E0,1.5357854E0,1.02927215E-1,2.3647765E-2,8.293214E-1,-6.8573517E-1,-3.380653E-1,6.3093084E-1,-8.529334E-1,1.3951066E0,7.822763E-3,4.03746E-2,-7.340326E-1,1.7597485E-2,-1.4741865E0,-2.9246688E-3,4.3909103E-3,1.8468913E-2,-1.9065209E-2,-3.6278195E0,-1.6191983E0,-2.1977378E-2,-5.819004E-1,-2.1486063E0,9.6410215E-1,-3.1633935E0,3.4585822E-1,1.2211093E-4,1.041043E-1,-3.0300925E-2,-3.240945E-4,-2.9825414E-2,2.1925185E-2,4.6262904E-3,1.3726809E-2,-1.4139392E-2,1.6680985E-3,-1.6483862E-2,4.5223653E-4,2.4754705E-2,2.3361454E-3,-2.1870708E-2,-3.9118216E-3,-2.993601E-2,9.994742E-3,-5.3277654E-3,2.8716982E-3,-1.3712645E-4,6.5428467E-4,3.6773458E-3,3.828162E-3,-1.6719192E-3,5.12808E-3,-2.0605447E-3,5.0539337E-2,1.4426791E-2,3.419854E-2,-1.6882786E-3,-8.812872E-3,-4.8309807E-2,-3.9399855E-2,1.053552E-3,-2.406806E-2,-6.827739E-2,-1.2702894E-2,4.585788E-3],"split_indices":[15,15,2,17,27,2,1,20,29,23,3,58,3,52,57,13,27,17,37,2,36,0,0,2,17,0,0,39,36,2,59,15,13,54,42,27,38,18,23,0,0,0,0,0,0,0,0,0,2,0,0,2,48,50,23,0,0,21,0,0,0,0,0,0,0,0,0,0,0,0,0,0,0,0,0,0,0,0,0,0,0,0,0,0,0,0,0,0,0,0,0,0,0,0,0],"split_type":[0,0,0,0,0,0,0,0,0,0,0,0,0,0,0,0,0,0,0,0,0,0,0,0,0,0,0,0,0,0,0,0,0,0,0,0,0,0,0,0,0,0,0,0,0,0,0,0,0,0,0,0,0,0,0,0,0,0,0,0,0,0,0,0,0,0,0,0,0,0,0,0,0,0,0,0,0,0,0,0,0,0,0,0,0,0,0,0,0,0,0,0,0,0,0],"sum_hessian":[6.57E2,3.73E2,2.84E2,3.52E2,2.1E1,2.3E1,2.61E2,2.19E2,1.33E2,1.5E1,6E0,1.6E1,7E0,2.31E2,3E1,7.5E1,1.44E2,1.06E2,2.7E1,7E0,8E0,5E0,1E0,6E0,1E1,4E0,3E0,5.4E1,1.77E2,4E0,2.6E1,1.6E1,5.9E1,4.2E1,1.02E2,8.3E1,2.3E1,1.3E1,1.4E1,1E0,6E0,3E0,5E0,3E0,2E0,2E0,4E0,6E0,4E0,2E0,2E0,1.8E1,3.6E1,2.9E1,1.48E2,3E0,1E0,2.3E1,3E0,1.3E1,3E0,2.1E1,3.8E1,2.9E1,1.3E1,2.7E1,7.5E1,3.5E1,4.8E1,1.5E1,8E0,5E0,8E0,9E0,5E0,1E0,2E0,1E0,2E0,2E0,2E0,1E0,1E0,4E0,1.4E1,2E0,3.4E1,2.6E1,3E0,3E0,1.45E2,2E0,1E0,1E1,1.3E1],"tree_param":{"num_deleted":"0","num_feature":"60","num_nodes":"95","size_leaf_vector":"0"}},{"base_weights":[-3.2931872E-4,-6.339216E-3,7.908452E-3,-1.00025514E-4,-5.6696016E-2,1.08313546E-1,3.7578386E-3,3.3979267E-2,-4.373666E-3,3.2815255E-2,-8.569377E-2,5.3578634E-2,1.9070497E-1,1.8299565E-2,-2.0855257E-2,-2.0371519E-2,5.4117814E-2,-1.4255996E-2,9.621798E-3,-2.6204996E-2,5.8223475E-2,-1.1903642E-1,-3.4322042E-2,1.3094425E-2,6.4890966E-2,-4.814097E-3,3.5094302E-2,9.566184E-3,-5.5363823E-2,-5.322051E-2,1.5872726E-2,3.3792324E-2,1.2301255E-1,-5.883671E-3,-5.706954E-2,-3.0903377E-2,1.9460108E-2,-2.856642E-3,-3.3035565E-2,2.275459E-2,6.6254005E-2,-1.5459E-1,-3.600314E-2,-6.267667E-2,2.9251624E-2,1.4060147E-1,-1.097742E-2,1.9888193E-3,5.4284763E-2,6.726605E-2,-3.4685903E-3,1.093203E-2,-8.382061E-2,2.5794517E-2,-1.6868114E-2,5.325623E-2,3.1636283E-3,2.0703375E-2,1.3933371E-1,-1.0211702E-1,-2.5477093E-3,-5.129135E-3,-1.1235361E-1,1.604728E-2,-6.327363E-2,-2.0158127E-2,3.190877E-2,-4.9382992E-2,-1.9586167E-1,-5.1050138E-2,-1.1955358E-2,-7.199413E-2,1.0590255E-2,-1.5487671E-2,4.4308364E-2,2.7021404E-2,-3.5465553E-2,-2.8320609E-2,3.555547E-2,6.5560095E-2,-4.3672863E-2,1.20619655E-1,2.7168842E-2,3.0899446E-2,-2.168259E-2,2.5967864E-2,-5.786726E-2,-1.8294252E-1,-5.501787E-2],"categories":[],"categories_nodes":[],"categories_segments":[],"categories_sizes":[],"default_left":[1,1,1,1,1,1,1,1,1,1,1,1,0,1,1,1,1,1,1,1,1,1,1,0,0,1,1,1,1,0,1,1,1,1,1,1,1,0,0,0,0,1,1,1,1,0,1,1,1,1,1,1,1,0,0,0,0,0,0,0,0,0,0,0,0,0,0,0,0,0,0,0,0,0,0,0,0,0,0,0,0,0,0,0,0,0,0,0,0],"id":35,"left_children":[1,3,5,7,9,11,13,15,17,19,21,23,-1,25,27,29,31,33,35,37,39,41,43,-1,-1,45,47,49,51,-1,53,55,57,59,61,63,65,-1,-1,-1,-1,67,69,71,73,-1,75,77,79,81,83,85,87,-1,-1,-1,-1,-1,-1,-1,-1,-1,-1,-1,-1,-1,-1,-1,-1,-1,-1,-1,-1,-1,-1,-1,-1,-1,-1,-1,-1,-1,-1,-1,-1,-1,-1,-1,-1],"loss_changes":[3.2626502E-2,1.19699076E-1,1.1544746E-1,4.966711E-2,1.1182833E-1,3.9388835E-2,9.630337E-2,4.2695206E-2,4.204443E-2,1.8021341E-2,5.0726265E-2,2.8140564E-3,0E0,6.57727E-2,1.0550965E-1,1.3941211E-2,3.505206E-2,6.3468136E-2,5.0837483E-2,5.4355944E-4,7.710885E-4,5.052474E-2,2.70699E-2,0E0,0E0,6.607295E-2,6.2152356E-2,4.0846974E-2,8.958498E-2,0E0,2.3841914E-3,1.3543056E-2,7.134147E-3,4.789445E-2,8.269655E-2,3.9010487E-2,5.0949022E-2,0E0,0E0,0E0,0E0,4.6774685E-2,1.9226056E-3,7.5890534E-3,4.054373E-3,0E0,6.609475E-2,3.8650237E-2,7.13425E-2,1.811621E-2,2.8839055E-2,1.701951E-2,8.414933E-2,0E0,0E0,0E0,0E0,0E0,0E0,0E0,0E0,0E0,0E0,0E0,0E0,0E0,0E0,0E0,0E0,0E0,0E0,0E0,0E0,0E0,0E0,0E0,0E0,0E0,0E0,0E0,0E0,0E0,0E0,0E0,0E0,0E0,0E0,0E0,0E0],"parents":[2147483647,0,0,1,1,2,2,3,3,4,4,5,5,6,6,7,7,8,8,9,9,10,10,11,11,13,13,14,14,15,15,16,16,17,17,18,18,19,19,20,20,21,21,22,22,25,25,26,26,27,27,28,28,30,30,31,31,32,32,33,33,34,34,35,35,36,36,41,41,42,42,43,43,44,44,46,46,47,47,48,48,49,49,50,50,51,51,52,52],"right_children":[2,4,6,8,10,12,14,16,18,20,22,24,-1,26,28,30,32,34,36,38,40,42,44,-1,-1,46,48,50,52,-1,54,56,58,60,62,64,66,-1,-1,-1,-1,68,70,72,74,-1,76,78,80,82,84,86,88,-1,-1,-1,-1,-1,-1,-1,-1,-1,-1,-1,-1,-1,-1,-1,-1,-1,-1,-1,-1,-1,-1,-1,-1,-1,-1,-1,-1,-1,-1,-1,-1,-1,-1,-1,-1],"split_conditions":[2.6299626E-1,5.15249E-2,2.9625922E-1,-1.8612814E0,-8.133272E-1,9.3654716E-1,3.9159572E-1,-9.038701E-1,2.64813E-1,-2.5477952E-1,2.6991075E-1,-4.843703E-1,5.7211492E-2,-2.3442338E-1,2.5099617E-1,2.0507182E-1,1.2149225E0,2.3166625E-2,-9.924993E-1,-1.1506035E0,-1.5391803E0,6.137053E-1,3.3043063E-1,3.928328E-3,1.946729E-2,-2.5449739E0,-2.782942E-1,-1.2898381E0,-5.604049E-1,-1.5966155E-2,1.9719368E-1,9.6668684E-1,-1.6017973E0,-3.351685E0,2.93273E-1,-1.9426993E-1,-1.0061857E0,-8.569926E-4,-9.91067E-3,6.826377E-3,1.9876203E-2,-3.9370528E-1,-2.2202314E-1,6.853751E-1,-7.3095936E-1,4.218044E-2,-2.4518074E-2,4.123382E-1,1.3232472E0,7.954657E-2,-7.9872835E-1,5.2267677E-1,-1.1947751E0,7.7383555E-3,-5.0604343E-3,1.5976869E-2,9.4908854E-4,6.211013E-3,4.1800115E-2,-3.0635105E-2,-7.643128E-4,-1.5387406E-3,-3.3706084E-2,4.8141843E-3,-1.898209E-2,-6.0474384E-3,9.572631E-3,-1.4814898E-2,-5.87585E-2,-1.5315042E-2,-3.5866075E-3,-2.159824E-2,3.1770768E-3,-4.6463013E-3,1.329251E-2,8.106422E-3,-1.0639667E-2,-8.496183E-3,1.0666641E-2,1.966803E-2,-1.310186E-2,3.6185898E-2,8.150653E-3,9.2698345E-3,-6.5047774E-3,7.7903597E-3,-1.7360179E-2,-5.488276E-2,-1.6505362E-2],"split_indices":[34,34,34,38,49,17,41,44,2,24,39,13,0,9,6,25,41,2,49,4,18,5,24,0,0,32,47,14,33,0,5,39,1,51,10,9,46,0,0,0,0,28,10,2,0,0,47,55,25,15,27,20,16,0,0,0,0,0,0,0,0,0,0,0,0,0,0,0,0,0,0,0,0,0,0,0,0,0,0,0,0,0,0,0,0,0,0,0,0],"split_type":[0,0,0,0,0,0,0,0,0,0,0,0,0,0,0,0,0,0,0,0,0,0,0,0,0,0,0,0,0,0,0,0,0,0,0,0,0,0,0,0,0,0,0,0,0,0,0,0,0,0,0,0,0,0,0,0,0,0,0,0,0,0,0,0,0,0,0,0,0,0,0,0,0,0,0,0,0,0,0,0,0,0,0,0,0,0,0,0,0],"sum_hessian":[6.57E2,3.8E2,2.77E2,3.39E2,4.1E1,1E1,2.67E2,3.7E1,3.02E2,1E1,3.1E1,7E0,3E0,1.68E2,9.9E1,1E1,2.7E1,1.77E2,1.25E2,3E0,7E0,1.8E1,1.3E1,2E0,5E0,7.1E1,9.7E1,5.3E1,4.6E1,5E0,5E0,2.2E1,5E0,1.49E2,2.8E1,2.4E1,1.01E2,1E0,2E0,2E0,5E0,1.2E1,6E0,9E0,4E0,2E0,6.9E1,3.6E1,6.1E1,9E0,4.4E1,1.4E1,3.2E1,4E0,1E0,1.3E1,9E0,1E0,4E0,4E0,1.45E2,1.5E1,1.3E1,1E1,1.4E1,2.4E1,7.7E1,4E0,8E0,3E0,3E0,8E0,1E0,1E0,3E0,2.7E1,4.2E1,1.9E1,1.7E1,5.5E1,6E0,3E0,6E0,1.5E1,2.9E1,1.2E1,2E0,6E0,2.6E1],"tree_param":{"num_deleted":"0","num_feature":"60","num_nodes":"89","size_leaf_vector":"0"}},{"base_weights":[-2.5608044E-4,1.4444409E-2,-3.3305753E-3,-1.6310477E-1,1.7459046E-2,2.3971882E-3,-1.566078E-2,1.8859063E-3,3.4439217E-2,2.5005555E-2,-5.201325E-3,-4.7077242E-2,-6.1658584E-3,-1.348116E-2,3.575595E-2,9.714292E-2,2.4577444E-2,4.964507E-2,2.329881E-3,5.432835E-3,-2.439714E-2,-1.1880929E-1,-2.543144E-2,1.7526783E-2,-2.1404201E-2,-5.0478103E-3,-5.4926787E-2,1.1020025E-2,5.691628E-2,3.1514406E-2,1.384857E-1,3.9016046E-2,-6.7382613E-3,6.582982E-2,-2.2408366E-2,2.0148907E-2,-2.7803734E-2,-6.6009006E-3,3.623649E-2,-4.993208E-2,1.2054256E-2,-2.0060667E-1,-1.3250047E-2,-8.671871E-3,-9.6610926E-2,-3.218233E-2,2.8425971E-2,-8.175962E-2,-1.1885954E-2,-1.4628933E-2,3.0314734E-2,-7.914138E-2,3.7397917E-3,2.7112495E-2,-4.227037E-3,6.7831635E-2,8.836567E-3,9.01016E-2,2.8862812E-2,-5.0988376E-2,7.3954863E-3,3.6031637E-2,1.02687955E-1,3.7615377E-2,-4.493163E-2,4.9862277E-2,-5.73162E-3,-6.446458E-2,-1.0461956E-3,1.8488074E-2,-2.0395968E-2,7.515473E-2,1.0780201E-2,-1.0017754E-1,-2.7209453E-2,-2.3609664E-2,4.2542264E-2,6.890565E-3,-2.0007841E-2,1.240352E-2,-2.179878E-2,-1.6364058E-2,-1.3264334E-1,-6.1766256E-2,2.7635127E-2,7.5056683E-3,5.315505E-2,9.8603545E-3,-1.3552251E-1,3.0485997E-3,-4.8300758E-2],"categories":[],"categories_nodes":[],"categories_segments":[],"categories_sizes":[],"default_left":[1,1,1,0,1,1,1,1,1,1,1,1,1,1,1,1,1,1,1,1,1,1,1,1,1,1,1,1,1,0,0,1,1,1,1,1,1,1,1,1,1,0,1,1,1,1,1,1,1,0,0,0,0,0,0,0,0,0,0,0,0,0,0,0,0,0,0,0,0,0,0,0,0,0,0,0,0,0,0,0,0,0,0,0,0,0,0,0,0,0,0],"id":36,"left_children":[1,3,5,-1,7,9,11,13,15,17,19,21,23,25,27,29,31,33,35,37,39,41,43,45,47,49,51,53,55,-1,-1,57,59,61,63,65,67,69,71,73,75,-1,77,79,81,83,85,87,89,-1,-1,-1,-1,-1,-1,-1,-1,-1,-1,-1,-1,-1,-1,-1,-1,-1,-1,-1,-1,-1,-1,-1,-1,-1,-1,-1,-1,-1,-1,-1,-1,-1,-1,-1,-1,-1,-1,-1,-1,-1,-1],"loss_changes":[2.9787457E-2,6.386573E-2,3.852789E-2,0E0,2.9816158E-2,6.420772E-2,5.131508E-2,3.1711023E-2,3.1004444E-2,5.2403785E-2,5.7289332E-2,5.9086412E-2,4.875405E-2,1.4402809E-2,9.317771E-3,1.4628567E-2,2.196634E-2,5.395265E-2,2.7407797E-2,6.733283E-2,9.368032E-2,7.505219E-2,3.73362E-2,2.9629631E-2,4.613538E-2,1.2640736E-2,1.0240084E-2,2.5682347E-3,4.6486706E-3,0E0,0E0,1.451597E-2,1.03838025E-2,3.6937296E-2,1.3857498E-2,2.4893716E-2,1.8570682E-2,4.571672E-2,4.9716234E-2,6.463505E-2,4.6671927E-2,0E0,8.183958E-4,7.740059E-3,1.5178341E-2,1.9403271E-2,2.2363987E-2,5.5519603E-2,3.9303645E-2,0E0,0E0,0E0,0E0,0E0,0E0,0E0,0E0,0E0,0E0,0E0,0E0,0E0,0E0,0E0,0E0,0E0,0E0,0E0,0E0,0E0,0E0,0E0,0E0,0E0,0E0,0E0,0E0,0E0,0E0,0E0,0E0,0E0,0E0,0E0,0E0,0E0,0E0,0E0,0E0,0E0,0E0],"parents":[2147483647,0,0,1,1,2,2,4,4,5,5,6,6,7,7,8,8,9,9,10,10,11,11,12,12,13,13,14,14,15,15,16,16,17,17,18,18,19,19,20,20,21,21,22,22,23,23,24,24,25,25,26,26,27,27,28,28,31,31,32,32,33,33,34,34,35,35,36,36,37,37,38,38,39,39,40,40,42,42,43,43,44,44,45,45,46,46,47,47,48,48],"right_children":[2,4,6,-1,8,10,12,14,16,18,20,22,24,26,28,30,32,34,36,38,40,42,44,46,48,50,52,54,56,-1,-1,58,60,62,64,66,68,70,72,74,76,-1,78,80,82,84,86,88,90,-1,-1,-1,-1,-1,-1,-1,-1,-1,-1,-1,-1,-1,-1,-1,-1,-1,-1,-1,-1,-1,-1,-1,-1,-1,-1,-1,-1,-1,-1,-1,-1,-1,-1,-1,-1,-1,-1,-1,-1,-1,-1],"split_conditions":[-1.3266609E0,-5.4493685E0,5.5387926E-1,-4.8931435E-2,-2.270663E-2,-7.521001E-1,-9.895382E-1,4.502818E-1,1.9057497E-1,1.2205207E-2,4.3244684E-1,-1.2956303E0,-3.3995025E-2,1.2493507E0,1.0382922E-2,-9.798318E-1,6.519939E-1,1.7713027E0,4.800653E-1,8.263912E-1,3.1068683E-1,1.1001501E0,2.1301112E0,-1.5923607E0,-1.389013E0,3.0517602E-1,1.1813647E0,-1.8508844E0,1.0644293E0,9.454322E-3,4.154571E-2,-1.6924407E0,-1.8890796E0,3.67244E-1,-2.6917166E-1,2.4851218E-1,-2.5191614E-1,-2.9083717E-1,-4.2081952E-2,8.1779414E-1,8.2536206E-2,-6.0182005E-2,-6.132318E-1,-7.4733806E-1,-8.913665E-1,1.9436085E-1,-3.3820271E-1,-1.4757781E0,8.684508E-1,-4.38868E-3,9.094421E-3,-2.3742415E-2,1.1219375E-3,8.133749E-3,-1.2681112E-3,2.0349491E-2,2.6509704E-3,2.7030481E-2,8.658844E-3,-1.5296513E-2,2.218646E-3,1.0809491E-2,3.0806387E-2,1.1284614E-2,-1.347949E-2,1.4958683E-2,-1.7194861E-3,-1.9339373E-2,-3.138587E-4,5.546422E-3,-6.1187907E-3,2.254642E-2,3.2340605E-3,-3.0053264E-2,-8.162837E-3,-7.0828996E-3,1.276268E-2,2.0671696E-3,-6.0023526E-3,3.721056E-3,-6.5396344E-3,-4.909218E-3,-3.9793003E-2,-1.8529877E-2,8.290539E-3,2.2517005E-3,1.5946515E-2,2.9581066E-3,-4.0656757E-2,9.1457996E-4,-1.4490228E-2],"split_indices":[4,39,36,0,26,49,25,36,26,33,48,49,23,16,23,15,22,59,26,17,21,6,4,47,35,16,3,12,25,0,0,59,45,18,9,15,15,19,4,48,55,0,0,43,2,3,42,28,38,0,0,0,0,0,0,0,0,0,0,0,0,0,0,0,0,0,0,0,0,0,0,0,0,0,0,0,0,0,0,0,0,0,0,0,0,0,0,0,0,0,0],"split_type":[0,0,0,0,0,0,0,0,0,0,0,0,0,0,0,0,0,0,0,0,0,0,0,0,0,0,0,0,0,0,0,0,0,0,0,0,0,0,0,0,0,0,0,0,0,0,0,0,0,0,0,0,0,0,0,0,0,0,0,0,0,0,0,0,0,0,0,0,0,0,0,0,0,0,0,0,0,0,0,0,0,0,0,0,0,0,0,0,0,0,0],"sum_hessian":[6.57E2,1.13E2,5.44E2,1E0,1.12E2,3.72E2,1.72E2,5.9E1,5.3E1,9.3E1,2.79E2,3.9E1,1.33E2,4.1E1,1.8E1,6E0,4.7E1,4.4E1,4.9E1,1.8E2,9.9E1,8E0,3.1E1,5.2E1,8.1E1,3.5E1,6E0,9E0,9E0,3E0,3E0,3.2E1,1.5E1,3.6E1,8E0,3.1E1,1.8E1,1.3E2,5E1,5.8E1,4.1E1,4E0,4E0,2.6E1,5E0,9E0,4.3E1,1E1,7.1E1,2.8E1,7E0,4E0,2E0,4E0,5E0,7E0,2E0,4E0,2.8E1,3E0,1.2E1,2.1E1,1.5E1,2E0,6E0,1.4E1,1.7E1,7E0,1.1E1,4.6E1,8.4E1,1.9E1,3.1E1,1.7E1,4.1E1,1.9E1,2.2E1,1E0,3E0,1E1,1.6E1,2E0,3E0,6E0,3E0,2.4E1,1.9E1,4E0,6E0,5.1E1,2E1],"tree_param":{"num_deleted":"0","num_feature":"60","num_nodes":"91","size_leaf_vector":"0"}},{"base_weights":[-3.200514E-4,1.7543223E-2,-2.0760733E-3,1.676454E-1,1.2064816E-2,-1.7481696E-2,8.203896E-4,3.5550892E-2,2.2712906E-3,1.0851374E-2,-3.495359E-2,1.023044E-2,-6.630747E-3,-5.700335E-3,4.4797607E-2,-5.8009274E-2,8.395675E-3,-2.2642007E-2,3.744833E-2,-4.5236073E-2,2.7197532E-2,1.7242966E-2,-1.3296431E-2,4.14668E-3,-2.1518517E-2,2.2554398E-3,-9.104073E-3,2.2558067E-2,5.86575E-2,2.0161228E-2,-1.1773294E-2,-6.06052E-2,9.992748E-3,6.51363E-2,4.7793836E-4,1.4278763E-2,-5.348869E-2,-3.5410106E-2,5.0144013E-2,2.164814E-4,3.0581072E-2,9.001901E-3,-5.591561E-2,1.9561585E-2,-8.9164255E-3,2.310063E-3,-4.579013E-2,-1.1297822E-2,-2.3582876E-3,9.663165E-3,2.5783395E-2,3.0489689E-2,-1.0753338E-2,1.10815335E-2,-2.8241128E-2,4.922147E-4,-9.7362086E-2,1.9866586E-2,-3.8544075E-3,8.0033354E-2,2.8273743E-2,2.029448E-2,-1.0914077E-2,3.3838384E-2,-2.3080196E-2,-4.3380884E-3,-6.5655835E-2,2.8920654E-2,-1.5862186E-2,5.155155E-2,8.099716E-3,2.806342E-2,-3.5138085E-2,-1.7253155E-2,-8.512025E-2,-3.3026892E-3,3.4544867E-2,-8.257451E-2,-3.6121318E-3,-2.2197085E-2,4.1016795E-2,-8.86472E-3,-6.596299E-2],"categories":[],"categories_nodes":[],"categories_segments":[],"categories_sizes":[],"default_left":[1,1,1,0,1,1,1,1,1,1,1,1,1,1,1,0,1,1,1,1,1,1,1,1,1,0,1,1,0,1,1,1,1,1,1,1,1,0,0,1,1,1,1,1,1,1,1,0,0,0,0,0,0,0,0,0,0,0,0,0,0,0,0,0,0,0,0,0,0,0,0,0,0,0,0,0,0,0,0,0,0,0,0],"id":37,"left_children":[1,3,5,-1,7,9,11,13,15,17,19,21,23,25,27,-1,29,31,33,35,37,39,41,43,45,-1,47,49,-1,51,53,55,57,59,61,63,65,-1,-1,67,69,71,73,75,77,79,81,-1,-1,-1,-1,-1,-1,-1,-1,-1,-1,-1,-1,-1,-1,-1,-1,-1,-1,-1,-1,-1,-1,-1,-1,-1,-1,-1,-1,-1,-1,-1,-1,-1,-1,-1,-1],"loss_changes":[2.0676762E-2,4.6494305E-2,2.678743E-2,0E0,1.325992E-2,4.7407378E-2,3.5546314E-2,6.739812E-3,1.5992641E-2,3.380832E-2,3.893531E-2,3.7185416E-2,4.5497105E-2,1.288512E-4,2.992127E-3,0E0,9.492029E-3,2.1667242E-2,2.1465203E-2,2.5812566E-2,1.4705231E-2,3.928186E-2,4.992085E-2,3.3399895E-2,6.893039E-2,0E0,1.7752172E-5,4.1982858E-5,0E0,8.310363E-3,5.9584975E-3,1.8013932E-2,1.4438196E-3,4.3268837E-3,2.4789989E-3,5.8960863E-3,2.66262E-2,0E0,0E0,3.5996154E-2,4.53126E-2,3.0434228E-2,1.8855628E-2,2.6150312E-2,3.48651E-2,5.8774542E-2,4.3363832E-2,0E0,0E0,0E0,0E0,0E0,0E0,0E0,0E0,0E0,0E0,0E0,0E0,0E0,0E0,0E0,0E0,0E0,0E0,0E0,0E0,0E0,0E0,0E0,0E0,0E0,0E0,0E0,0E0,0E0,0E0,0E0,0E0,0E0,0E0,0E0,0E0],"parents":[2147483647,0,0,1,1,2,2,4,4,5,5,6,6,7,7,8,8,9,9,10,10,11,11,12,12,13,13,14,14,16,16,17,17,18,18,19,19,20,20,21,21,22,22,23,23,24,24,26,26,27,27,29,29,30,30,31,31,32,32,33,33,34,34,35,35,36,36,39,39,40,40,41,41,42,42,43,43,44,44,45,45,46,46],"right_children":[2,4,6,-1,8,10,12,14,16,18,20,22,24,26,28,-1,30,32,34,36,38,40,42,44,46,-1,48,50,-1,52,54,56,58,60,62,64,66,-1,-1,68,70,72,74,76,78,80,82,-1,-1,-1,-1,-1,-1,-1,-1,-1,-1,-1,-1,-1,-1,-1,-1,-1,-1,-1,-1,-1,-1,-1,-1,-1,-1,-1,-1,-1,-1,-1,-1,-1,-1,-1,-1],"split_conditions":[-2.177836E0,-3.0158439E0,-9.9042857E-1,5.029362E-2,-5.1061225E-1,-1.2168498E-2,2.9464567E-1,-1.8651316E0,-3.8747242E-1,-1.5403138E-1,1.7091638E0,8.3721924E-1,3.0519837E-1,7.2588444E-1,5.591279E-1,-1.7402783E-2,5.840394E-2,-9.536397E-2,7.4324083E-1,-2.1035516E0,-5.7923377E-1,2.4302008E-2,2.7272174E-1,-9.542717E-2,-1.569704E-1,6.766319E-4,9.351275E-1,-2.7860613E0,1.759725E-2,7.851006E-1,8.052827E-1,-3.237084E-1,1.4736179E0,1.8585682E-1,-8.8488877E-1,9.1986465E-1,-1.3063008E0,-1.0623032E-2,1.5043205E-2,-1.6186568E-1,1.6853434E-1,3.5800532E-1,-4.8178405E-1,-2.8410742E-1,-4.6618633E-2,1.6059947E-1,-7.2466886E-1,-3.3893466E-3,-7.074863E-4,2.8989494E-3,7.735019E-3,9.146907E-3,-3.2260015E-3,3.3244602E-3,-8.472338E-3,1.4766441E-4,-2.9208627E-2,5.959976E-3,-1.1563223E-3,2.4010008E-2,8.482123E-3,6.0883444E-3,-3.2742233E-3,1.0151516E-2,-6.9240592E-3,-1.3014266E-3,-1.9696752E-2,8.676196E-3,-4.758656E-3,1.5465465E-2,2.429915E-3,8.419027E-3,-1.0541426E-2,-5.1759467E-3,-2.5536077E-2,-9.908068E-4,1.03634605E-2,-2.4772353E-2,-1.0836396E-3,-6.6591254E-3,1.2305039E-2,-2.6594163E-3,-1.9788899E-2],"split_indices":[15,57,15,0,56,31,15,30,56,49,57,53,46,0,48,0,7,52,33,26,40,48,8,30,58,0,0,4,0,58,10,17,12,53,5,3,3,0,0,11,12,35,23,38,30,12,10,0,0,0,0,0,0,0,0,0,0,0,0,0,0,0,0,0,0,0,0,0,0,0,0,0,0,0,0,0,0,0,0,0,0,0,0],"split_type":[0,0,0,0,0,0,0,0,0,0,0,0,0,0,0,0,0,0,0,0,0,0,0,0,0,0,0,0,0,0,0,0,0,0,0,0,0,0,0,0,0,0,0,0,0,0,0,0,0,0,0,0,0,0,0,0,0,0,0,0,0,0,0,0,0,0,0,0,0,0,0,0,0,0,0,0,0,0,0,0,0,0,0],"sum_hessian":[6.57E2,5.8E1,5.99E2,1E0,5.7E1,9.4E1,5.05E2,1.6E1,4.1E1,3.6E1,5.8E1,2.23E2,2.82E2,3E0,1.3E1,3E0,3.8E1,1.6E1,2E1,5E1,8E0,1.72E2,5.1E1,1.64E2,1.18E2,1E0,2E0,6E0,7E0,2.4E1,1.4E1,7E0,9E0,1.1E1,9E0,6E0,4.4E1,2E0,6E0,7.6E1,9.6E1,3.4E1,1.7E1,7.5E1,8.9E1,6E1,5.8E1,1E0,1E0,2E0,4E0,1.8E1,6E0,6E0,8E0,3E0,4E0,5E0,4E0,7E0,4E0,3E0,6E0,4E0,2E0,9E0,3.5E1,2.7E1,4.9E1,4.9E1,4.7E1,2.4E1,1E1,8E0,9E0,3E1,4.5E1,5E0,8.4E1,3.7E1,2.3E1,2.1E1,3.7E1],"tree_param":{"num_deleted":"0","num_feature":"60","num_nodes":"83","size_leaf_vector":"0"}},{"base_weights":[-2.0600653E-4,1.906279E-3,-1.3059206E-2,-3.3659593E-3,9.510993E-3,-2.3481272E-2,8.542386E-3,5.573949E-4,-3.404474E-2,8.15424E-2,6.5744137E-3,8.805687E-3,-3.3754397E-2,-1.6300187E-2,1.7891984E-2,-2.5889285E-2,3.8362786E-3,-5.113973E-2,1.8935213E-2,1.2434356E-1,2.2432769E-2,1.6741794E-2,-1.0570526E-2,2.0749599E-2,-2.162084E-2,-6.2316384E-2,-1.4539994E-2,-4.9594045E-3,-2.4380932E-2,2.0205569E-4,3.148408E-2,-6.039127E-2,-4.4343286E-4,1.0773889E-2,-1.465321E-2,4.5777815E-3,-6.5873764E-2,-5.5131563E-3,4.4486213E-2,5.303655E-2,8.843412E-3,-1.287446E-1,-7.595603E-3,2.8600642E-2,8.1317825E-3,4.191786E-3,-2.9121943E-2,-5.1492006E-3,-8.8305146E-2,2.3778784E-3,-6.136138E-2,9.0676546E-4,-6.6526383E-3,2.0668253E-2,-1.00563E-2,1.5659958E-2,3.6777027E-2,-3.0928846E-2,-1.2631512E-1,-3.0131325E-2,2.6585871E-2,1.8711282E-2,-4.2087995E-3,1.0560729E-2,-3.458996E-2,2.8010711E-2,-1.9999593E-2,-8.727671E-2,-1.4833659E-2,-1.7952472E-2,5.1946193E-3,-4.3299296E-3,8.028724E-2,4.240756E-2,-7.210103E-3,-1.9755548E-2,1.5728282E-2,1.131018E-3,1.134941E-2,5.329332E-3,-2.0897022E-2,-9.787047E-2,-2.3797253E-2,-1.6394448E-2,1.5616833E-2,-8.171501E-2,-2.0578995E-2,2.419714E-2,5.0407946E-3,-1.6920686E-2,1.038257E-3],"categories":[],"categories_nodes":[],"categories_segments":[],"categories_sizes":[],"default_left":[1,1,1,1,1,1,1,1,1,1,1,1,1,1,1,1,1,1,1,0,0,1,1,1,1,1,1,1,0,1,1,1,1,1,1,1,1,1,0,1,1,0,1,0,1,0,0,1,1,1,1,0,0,1,1,0,0,0,0,0,0,0,0,0,0,0,0,0,0,0,0,0,0,0,0,0,0,0,0,0,0,0,0,0,0,0,0,0,0,0,0],"id":38,"left_children":[1,3,5,7,9,11,13,15,17,19,21,23,25,27,29,31,33,35,37,-1,-1,39,41,43,45,47,49,51,-1,53,55,57,59,61,63,65,67,69,-1,71,73,-1,75,-1,77,-1,-1,79,81,83,85,-1,-1,87,89,-1,-1,-1,-1,-1,-1,-1,-1,-1,-1,-1,-1,-1,-1,-1,-1,-1,-1,-1,-1,-1,-1,-1,-1,-1,-1,-1,-1,-1,-1,-1,-1,-1,-1,-1,-1],"loss_changes":[1.7889349E-2,2.272514E-2,2.1137975E-2,4.034082E-2,4.8537925E-2,2.1193575E-2,7.491953E-3,2.5940565E-2,3.538463E-2,1.9980274E-2,3.9224453E-2,6.263212E-3,2.543639E-2,7.0386287E-4,5.5238316E-3,2.8944992E-2,3.4278456E-2,2.4108931E-2,6.4920625E-3,0E0,0E0,3.9951425E-2,2.855305E-2,9.5618237E-4,1.0901887E-3,2.7773686E-2,2.3909457E-2,5.569638E-5,0E0,2.5172909E-3,5.129045E-4,2.328509E-2,1.684993E-2,2.3149908E-2,3.7061222E-2,4.591642E-3,2.3830764E-2,8.924407E-4,0E0,3.9429545E-2,6.3348E-2,0E0,2.3850948E-2,0E0,1.2231874E-4,0E0,0E0,1.2664654E-3,5.692452E-3,5.9721265E-3,4.9589425E-3,0E0,0E0,9.8617515E-5,6.268266E-4,0E0,0E0,0E0,0E0,0E0,0E0,0E0,0E0,0E0,0E0,0E0,0E0,0E0,0E0,0E0,0E0,0E0,0E0,0E0,0E0,0E0,0E0,0E0,0E0,0E0,0E0,0E0,0E0,0E0,0E0,0E0,0E0,0E0,0E0,0E0,0E0],"parents":[2147483647,0,0,1,1,2,2,3,3,4,4,5,5,6,6,7,7,8,8,9,9,10,10,11,11,12,12,13,13,14,14,15,15,16,16,17,17,18,18,21,21,22,22,23,23,24,24,25,25,26,26,27,27,29,29,30,30,31,31,32,32,33,33,34,34,35,35,36,36,37,37,39,39,40,40,42,42,44,44,47,47,48,48,49,49,50,50,53,53,54,54],"right_children":[2,4,6,8,10,12,14,16,18,20,22,24,26,28,30,32,34,36,38,-1,-1,40,42,44,46,48,50,52,-1,54,56,58,60,62,64,66,68,70,-1,72,74,-1,76,-1,78,-1,-1,80,82,84,86,-1,-1,88,90,-1,-1,-1,-1,-1,-1,-1,-1,-1,-1,-1,-1,-1,-1,-1,-1,-1,-1,-1,-1,-1,-1,-1,-1,-1,-1,-1,-1,-1,-1,-1,-1,-1,-1,-1,-1],"split_conditions":[1.3839947E0,2.6299626E-1,6.551804E-1,5.15249E-2,2.9625922E-1,-8.394977E-1,-6.514193E-1,-1.9147911E0,8.340653E-1,4.5192328E-1,3.9159572E-1,5.6715715E-1,-5.1454103E-1,5.8248806E-1,-1.7290931E0,-6.956412E-1,7.863282E-1,-9.663164E-1,-3.6631036E-1,3.7303068E-2,6.729831E-3,-1.0478282E0,-4.656667E0,8.7663686E-1,-1.4327596E0,-7.168859E-1,8.657444E-2,-1.6390615E0,-7.3142797E-3,-1.2944567E0,-1.7346348E0,1.2651491E0,-2.8920755E-2,5.2167624E-1,-4.9501342E-1,1.3987412E-1,8.637729E-1,-1.1595435E0,1.3345865E-2,-1.5337179E0,-5.9502685E-1,-3.862338E-2,3.5765624E-1,8.580193E-3,-8.70318E-1,1.2575359E-3,-8.736583E-3,4.3138635E-1,1.470778E0,-3.6536306E-2,6.204627E-1,2.7202966E-4,-1.9957917E-3,7.4684095E-1,3.8193762E-3,4.697988E-3,1.1033108E-2,-9.278654E-3,-3.7894536E-2,-9.039398E-3,7.975762E-3,5.613385E-3,-1.2626399E-3,3.1682188E-3,-1.0376989E-2,8.403214E-3,-5.9998785E-3,-2.6183015E-2,-4.4500977E-3,-5.3857416E-3,1.5583859E-3,-1.2989789E-3,2.4086174E-2,1.2722269E-2,-2.163031E-3,-5.9266645E-3,4.718485E-3,3.3930544E-4,3.4048231E-3,1.5987996E-3,-6.2691066E-3,-2.9361142E-2,-7.139176E-3,-4.9183345E-3,4.6850503E-3,-2.4514504E-2,-6.1736987E-3,7.2591426E-3,1.5122384E-3,-5.076206E-3,3.114771E-4],"split_indices":[48,34,44,34,34,16,57,51,57,32,41,28,43,13,5,58,47,23,33,0,0,36,39,17,0,33,44,0,0,22,22,27,22,50,24,1,56,2,0,52,39,0,38,0,1,0,0,1,3,30,0,0,0,2,32,0,0,0,0,0,0,0,0,0,0,0,0,0,0,0,0,0,0,0,0,0,0,0,0,0,0,0,0,0,0,0,0,0,0,0,0],"split_type":[0,0,0,0,0,0,0,0,0,0,0,0,0,0,0,0,0,0,0,0,0,0,0,0,0,0,0,0,0,0,0,0,0,0,0,0,0,0,0,0,0,0,0,0,0,0,0,0,0,0,0,0,0,0,0,0,0,0,0,0,0,0,0,0,0,0,0,0,0,0,0,0,0,0,0,0,0,0,0,0,0,0,0,0,0,0,0,0,0,0,0],"sum_hessian":[6.57E2,5.65E2,9.2E1,3.34E2,2.31E2,6.2E1,3E1,2.97E2,3.7E1,8E0,2.23E2,1.5E1,4.7E1,8E0,2.2E1,3.2E1,2.65E2,2.8E1,9E0,4E0,4E0,1.4E2,8.3E1,1.1E1,4E0,1.8E1,2.9E1,4E0,4E0,1E1,1.2E1,1.3E1,1.9E1,1.93E2,7.2E1,6E0,2.2E1,5E0,4E0,2.4E1,1.16E2,1E0,8.2E1,6E0,5E0,1E0,3E0,6E0,1.2E1,2.2E1,7E0,1E0,3E0,3E0,7E0,4E0,8E0,1E1,3E0,9E0,1E1,1.26E2,6.7E1,3.2E1,4E1,3E0,3E0,1.5E1,7E0,2E0,3E0,8E0,1.6E1,3.7E1,7.9E1,5.4E1,2.8E1,2E0,3E0,4E0,2E0,1E1,2E0,9E0,1.3E1,4E0,3E0,2E0,1E0,4E0,3E0],"tree_param":{"num_deleted":"0","num_feature":"60","num_nodes":"91","size_leaf_vector":"0"}},{"base_weights":[-2.791638E-4,2.492405E-3,-7.4325115E-3,-9.635239E-3,7.3361318E-3,1.6822593E-2,-1.3446068E-2,-1.6335072E-2,1.6790371E-2,1.7104553E-2,-1.9718339E-3,-5.361142E-3,3.812093E-2,1.9789063E-3,-2.4901977E-2,-2.7874399E-2,6.873196E-3,2.0991747E-4,3.8880147E-2,4.6123717E-2,8.713679E-3,2.3451475E-3,-4.817598E-2,2.192327E-2,-2.3103988E-2,4.2588925E-3,4.9910307E-2,-1.921848E-2,2.0091556E-2,-8.079849E-2,-1.7219516E-2,-4.4118322E-2,-1.707122E-3,2.8900217E-2,-7.791087E-3,-2.5922101E-2,1.0244546E-2,1.1981152E-2,6.378229E-2,2.8213376E-2,1.07522026E-1,-5.7869987E-3,2.1225503E-2,1.3104116E-2,-1.5045851E-2,-9.378935E-2,-7.3460275E-3,7.411599E-3,2.5525227E-2,-4.23205E-2,-3.332121E-3,-5.094804E-3,1.53108565E-2,1.8185265E-2,6.551474E-2,6.7894286E-3,-3.950626E-2,4.9873106E-3,3.989806E-2,-1.8813908E-3,-1.5933932E-1,-9.837736E-3,-5.2236002E-2,-1.4516561E-2,-7.4405774E-2,8.160633E-3,-4.089362E-2,4.316017E-2,3.1692316E-4,1.5136795E-2,-2.102841E-2,-3.8682222E-3,-3.0468514E-2,1.5425351E-2,-5.2686036E-3,1.5037472E-2,2.893567E-3,1.0311365E-2,7.24142E-2,5.3471353E-2,-4.472264E-3,5.016233E-2,1.5234113E-1,3.6191046E-2,-1.574599E-2,8.063285E-2,1.4396176E-2,-4.704363E-2,1.9569756E-2,-1.324333E-1,-6.832366E-3,-4.5211993E-2,-1.4348848E-1,4.5802766E-3,-3.2725394E-2,-5.58248E-2,-2.1612152E-2,-1.0471016E-2,9.676744E-3,-8.118649E-4,-8.97181E-3,1.975679E-2,5.1638186E-3,6.92078E-2,1.7985135E-2,1.6663698E-2,-2.2062168E-2,-7.9573365E-3,-7.4004136E-2,2.1550078E-2,-1.5386742E-2,-3.7894784E-3,5.6128938E-2,1.0587017E-2,-1.0762349E-2,-1.8614313E-2,1.3625419E-2,1.658734E-2,-7.454174E-2],"categories":[],"categories_nodes":[],"categories_segments":[],"categories_sizes":[],"default_left":[1,1,1,1,1,1,1,1,1,1,1,1,1,1,1,1,1,1,1,1,1,1,1,1,1,1,1,1,1,1,1,1,1,1,1,1,1,1,1,1,1,1,1,1,1,1,1,0,0,1,1,1,0,1,1,1,1,1,1,1,0,1,1,0,0,0,0,0,0,0,0,0,0,0,0,0,0,0,0,0,0,0,0,0,0,0,0,0,0,0,0,0,0,0,0,0,0,0,0,0,0,0,0,0,0,0,0,0,0,0,0,0,0,0,0,0,0,0,0],"id":39,"left_children":[1,3,5,7,9,11,13,15,17,19,21,23,25,27,29,31,33,35,37,39,41,43,45,47,49,51,53,55,57,59,61,63,65,67,69,71,73,75,77,79,81,83,85,87,89,91,93,-1,-1,95,97,99,-1,101,103,105,107,109,111,113,-1,115,117,-1,-1,-1,-1,-1,-1,-1,-1,-1,-1,-1,-1,-1,-1,-1,-1,-1,-1,-1,-1,-1,-1,-1,-1,-1,-1,-1,-1,-1,-1,-1,-1,-1,-1,-1,-1,-1,-1,-1,-1,-1,-1,-1,-1,-1,-1,-1,-1,-1,-1,-1,-1,-1,-1,-1,-1],"loss_changes":[1.306403E-2,2.7973607E-2,2.7064335E-2,2.4352688E-2,3.0947931E-2,1.7686008E-2,2.6201934E-2,2.9382635E-2,1.0247077E-2,4.0018447E-2,3.5018902E-2,9.704474E-3,7.3724724E-3,2.4958344E-2,3.510964E-2,3.0954007E-2,1.2176552E-2,4.7233864E-3,7.2739255E-3,3.7654035E-2,2.3708723E-2,3.0321741E-2,2.7246896E-2,2.2898032E-4,4.4183396E-3,6.982661E-4,5.73932E-3,1.6097508E-2,1.0271696E-2,6.168236E-2,1.9130899E-2,3.926517E-2,1.1547519E-2,6.10027E-3,7.29889E-3,3.8347114E-4,1.126088E-3,1.5091011E-4,2.0226482E-3,2.500633E-2,1.29246935E-2,2.607146E-2,2.723905E-2,3.981E-2,5.8873087E-2,1.0412365E-2,2.8740298E-3,0E0,0E0,4.7141593E-4,7.514079E-4,5.913603E-5,0E0,2.076081E-5,3.350526E-4,4.356075E-3,1.7913425E-2,7.4180495E-3,1.08490065E-2,7.783296E-4,0E0,1.3432901E-2,2.1193467E-2,0E0,0E0,0E0,0E0,0E0,0E0,0E0,0E0,0E0,0E0,0E0,0E0,0E0,0E0,0E0,0E0,0E0,0E0,0E0,0E0,0E0,0E0,0E0,0E0,0E0,0E0,0E0,0E0,0E0,0E0,0E0,0E0,0E0,0E0,0E0,0E0,0E0,0E0,0E0,0E0,0E0,0E0,0E0,0E0,0E0,0E0,0E0,0E0,0E0,0E0,0E0,0E0,0E0,0E0,0E0,0E0],"parents":[2147483647,0,0,1,1,2,2,3,3,4,4,5,5,6,6,7,7,8,8,9,9,10,10,11,11,12,12,13,13,14,14,15,15,16,16,17,17,18,18,19,19,20,20,21,21,22,22,23,23,24,24,25,25,26,26,27,27,28,28,29,29,30,30,31,31,32,32,33,33,34,34,35,35,36,36,37,37,38,38,39,39,40,40,41,41,42,42,43,43,44,44,45,45,46,46,49,49,50,50,51,51,53,53,54,54,55,55,56,56,57,57,58,58,59,59,61,61,62,62],"right_children":[2,4,6,8,10,12,14,16,18,20,22,24,26,28,30,32,34,36,38,40,42,44,46,48,50,52,54,56,58,60,62,64,66,68,70,72,74,76,78,80,82,84,86,88,90,92,94,-1,-1,96,98,100,-1,102,104,106,108,110,112,114,-1,116,118,-1,-1,-1,-1,-1,-1,-1,-1,-1,-1,-1,-1,-1,-1,-1,-1,-1,-1,-1,-1,-1,-1,-1,-1,-1,-1,-1,-1,-1,-1,-1,-1,-1,-1,-1,-1,-1,-1,-1,-1,-1,-1,-1,-1,-1,-1,-1,-1,-1,-1,-1,-1,-1,-1,-1,-1],"split_conditions":[7.006581E-1,-7.3325646E-1,-1.0828159E0,1.4314035E0,-1.1235955E-2,-2.7816957E-1,-2.622556E-1,7.283746E-1,3.329929E-1,-4.9658872E-2,1.5985236E0,-1.9417867E-1,-8.0958676E-1,-2.1690446E-1,-1.3801036E0,5.180534E-1,-4.3135434E-1,-7.670493E-1,-1.2992315E-2,5.034618E-1,7.2324105E-2,3.7450507E-1,1.9733168E-1,-9.640569E-1,6.7450774E-1,6.345967E-1,-1.5467358E0,-3.764941E-1,1.0981339E-1,-2.786114E-1,1.2662728E0,1.4154466E-2,1.0785478E0,3.572237E-1,-1.8855162E0,-3.3644176E0,1.2911878E0,-2.5129218E0,-1.9796929E0,4.14942E-3,-2.859918E-1,-1.379211E0,-1.4360012E0,-1.9672766E0,3.9322814E-1,7.9000515E-1,1.6187909E0,2.2234798E-3,7.6575684E-3,1.3274434E-1,1.1960545E0,4.960716E-3,4.5932573E-3,1.3926941E0,8.010776E-1,1.9036155E0,-2.5816388E-2,2.9985043E-1,-4.282111E-1,1.8050948E-1,-4.78018E-2,1.0385718E0,-2.6768896E-1,-4.3549687E-3,-2.2321733E-2,2.44819E-3,-1.2268087E-2,1.2948052E-2,9.507695E-5,4.5410385E-3,-6.3085235E-3,-1.1604667E-3,-9.140555E-3,4.6276054E-3,-1.5805812E-3,4.511242E-3,8.680702E-4,3.0934096E-3,2.172426E-2,1.6041407E-2,-1.3416792E-3,1.5048699E-2,4.570234E-2,1.0857314E-2,-4.723797E-3,2.4189856E-2,4.318853E-3,-1.4113089E-2,5.870927E-3,-3.972999E-2,-2.04971E-3,-1.35635985E-2,-4.3046545E-2,1.374083E-3,-9.817619E-3,-1.6747441E-2,-6.483646E-3,-3.141305E-3,2.9030233E-3,-2.4355948E-4,-2.6915432E-3,5.9270374E-3,1.5491457E-3,2.0762341E-2,5.395541E-3,4.9991095E-3,-6.6186506E-3,-2.387201E-3,-2.2201242E-2,6.465024E-3,-4.6160226E-3,-1.1368436E-3,1.6838683E-2,3.1761052E-3,-3.2287047E-3,-5.584294E-3,4.087626E-3,4.976202E-3,-2.2362523E-2],"split_indices":[36,3,4,11,33,10,32,42,9,3,20,42,5,12,19,43,39,42,7,25,15,14,53,22,21,2,6,8,56,10,9,51,55,43,2,1,1,3,1,13,33,56,55,59,14,15,28,0,0,5,11,0,0,3,0,48,17,40,3,2,0,15,33,0,0,0,0,0,0,0,0,0,0,0,0,0,0,0,0,0,0,0,0,0,0,0,0,0,0,0,0,0,0,0,0,0,0,0,0,0,0,0,0,0,0,0,0,0,0,0,0,0,0,0,0,0,0,0,0],"split_type":[0,0,0,0,0,0,0,0,0,0,0,0,0,0,0,0,0,0,0,0,0,0,0,0,0,0,0,0,0,0,0,0,0,0,0,0,0,0,0,0,0,0,0,0,0,0,0,0,0,0,0,0,0,0,0,0,0,0,0,0,0,0,0,0,0,0,0,0,0,0,0,0,0,0,0,0,0,0,0,0,0,0,0,0,0,0,0,0,0,0,0,0,0,0,0,0,0,0,0,0,0,0,0,0,0,0,0,0,0,0,0,0,0,0,0,0,0,0,0],"sum_hessian":[6.57E2,4.74E2,1.83E2,1.35E2,3.39E2,3.6E1,1.47E2,1.08E2,2.7E1,1.65E2,1.74E2,1.8E1,1.8E1,6.3E1,8.4E1,7.2E1,3.6E1,1.6E1,1.1E1,3.6E1,1.29E2,1.6E2,1.4E1,7E0,1.1E1,5E0,1.3E1,2.9E1,3.4E1,9E0,7.5E1,4.4E1,2.8E1,1.4E1,2.2E1,4E0,1.2E1,6E0,5E0,2.9E1,7E0,6E1,6.9E1,9.9E1,6.1E1,6E0,8E0,2E0,5E0,5E0,6E0,3E0,2E0,5E0,8E0,1.3E1,1.6E1,2E1,1.4E1,5E0,4E0,6.3E1,1.2E1,2.3E1,2.1E1,2.3E1,5E0,9E0,5E0,8E0,1.4E1,1E0,3E0,9E0,3E0,4E0,2E0,1E0,4E0,1.6E1,1.3E1,4E0,3E0,1.1E1,4.9E1,6E0,6.3E1,9E0,9E1,3E0,5.8E1,4E0,2E0,6E0,2E0,2E0,3E0,4E0,2E0,2E0,1E0,4E0,1E0,7E0,1E0,1E1,3E0,9E0,7E0,1.1E1,9E0,4E0,1E1,2E0,3E0,4.6E1,1.7E1,3E0,9E0],"tree_param":{"num_deleted":"0","num_feature":"60","num_nodes":"119","size_leaf_vector":"0"}},{"base_weights":[-2.880508E-4,-2.003964E-3,8.977345E-3,-6.100379E-3,4.327507E-3,2.0951001E-2,-1.853318E-3,-1.3429128E-2,3.1745138E-3,1.2289489E-2,-8.1286905E-3,2.9754803E-2,-8.673622E-3,6.954328E-2,-5.8596665E-3,2.5578616E-3,-2.4204075E-2,8.612009E-2,-2.7961016E-4,1.961967E-2,-6.74517E-3,1.2356674E-2,-2.5390092E-2,1.0105922E-2,4.6933502E-2,-3.0600667E-2,1.1360076E-2,-1.6807135E-2,1.3044013E-2,1.784182E-2,-1.836141E-2,-1.0918125E-2,-4.817798E-2,-2.8779358E-3,1.0449529E-1,8.984257E-3,-2.3212051E-2,5.7583593E-2,1.3058781E-2,1.4658501E-2,-2.8920341E-2,2.059233E-2,-2.3159988E-2,-1.4647878E-2,-7.592741E-2,-1.0975557E-2,1.841899E-2,7.6229325E-3,5.9528828E-2,-3.5916947E-2,-2.0096302E-3,2.4653064E-2,-4.7729313E-3,6.8569267E-3,-2.4352113E-2,3.007971E-2,-6.9996566E-3,1.07604384E-1,1.3356208E-2,-5.1787447E-2,-1.5767226E-3,5.1980824E-3,-3.0031255E-2,-1.0905288E-1,-2.9551353E-2,-3.4193161E-3,3.6999147E-2,-1.1923219E-2,-8.895784E-2,2.3981506E-2,1.1327104E-1,8.486597E-3,5.021736E-2,2.090779E-2,-2.7723392E-2,-3.8541988E-2,1.6796328E-2,3.419556E-2,-6.0629547E-3,-2.3145557E-3,-4.3426782E-2,1.807394E-3,-2.8193437E-2,-1.1446825E-1,-2.990925E-2,-1.5062523E-2,4.729634E-3,-2.5371015E-3,2.4364933E-2,-1.4614344E-2,1.4993256E-2,7.542741E-2,2.3109715E-2,-8.430421E-3,-7.4362755E-4,-8.290937E-3,2.0633405E-2,1.3580948E-2,-2.9890379E-2,4.14986E-2,-2.779998E-4,1.0777797E-3,-1.9385256E-2],"categories":[],"categories_nodes":[],"categories_segments":[],"categories_sizes":[],"default_left":[1,1,1,1,1,1,1,1,1,1,1,1,1,0,1,1,1,1,1,1,1,1,1,1,1,1,1,1,1,1,1,1,1,0,0,1,1,1,1,1,1,1,1,1,1,1,1,1,1,0,0,0,1,1,1,1,1,0,0,0,0,0,0,0,0,0,0,0,0,0,0,0,0,0,0,0,0,0,0,0,0,0,0,0,0,0,0,0,0,0,0,0,0,0,0,0,0,0,0,0,0,0,0],"id":40,"left_children":[1,3,5,7,9,11,13,15,17,19,21,23,25,-1,27,29,31,33,35,37,39,41,43,45,47,49,51,53,55,57,59,61,63,-1,-1,65,67,69,71,73,75,77,79,81,83,85,87,89,91,-1,-1,-1,93,95,97,99,101,-1,-1,-1,-1,-1,-1,-1,-1,-1,-1,-1,-1,-1,-1,-1,-1,-1,-1,-1,-1,-1,-1,-1,-1,-1,-1,-1,-1,-1,-1,-1,-1,-1,-1,-1,-1,-1,-1,-1,-1,-1,-1,-1,-1,-1,-1],"loss_changes":[1.047928E-2,1.4447001E-2,1.339614E-2,2.3017623E-2,2.1819444E-2,1.3037739E-2,1.6139682E-2,3.2618858E-2,4.299973E-2,1.8829022E-2,3.0723862E-2,1.2352295E-2,5.6189834E-3,0E0,1.1187445E-2,2.4946757E-2,3.5466306E-2,1.0112867E-2,3.1012788E-2,2.3408502E-2,1.8459873E-2,1.2177037E-2,2.4403308E-2,3.5319424E-3,9.448804E-3,8.39808E-4,1.6188583E-3,6.237505E-3,7.0397053E-3,1.6681615E-2,1.8432852E-2,2.2950407E-2,4.2133108E-2,0E0,0E0,3.6264926E-2,3.0111443E-2,2.3480598E-2,1.3845078E-2,5.8767674E-3,9.004885E-3,1.217306E-2,3.2792469E-3,8.9667905E-3,1.0764971E-2,4.563596E-4,1.806268E-3,1.2024922E-3,6.9420785E-3,0E0,0E0,0E0,5.267946E-5,2.0492284E-3,5.868107E-3,3.8247025E-3,1.0213319E-3,0E0,0E0,0E0,0E0,0E0,0E0,0E0,0E0,0E0,0E0,0E0,0E0,0E0,0E0,0E0,0E0,0E0,0E0,0E0,0E0,0E0,0E0,0E0,0E0,0E0,0E0,0E0,0E0,0E0,0E0,0E0,0E0,0E0,0E0,0E0,0E0,0E0,0E0,0E0,0E0,0E0,0E0,0E0,0E0,0E0,0E0],"parents":[2147483647,0,0,1,1,2,2,3,3,4,4,5,5,6,6,7,7,8,8,9,9,10,10,11,11,12,12,14,14,15,15,16,16,17,17,18,18,19,19,20,20,21,21,22,22,23,23,24,24,25,25,26,26,27,27,28,28,29,29,30,30,31,31,32,32,35,35,36,36,37,37,38,38,39,39,40,40,41,41,42,42,43,43,44,44,45,45,46,46,47,47,48,48,52,52,53,53,54,54,55,55,56,56],"right_children":[2,4,6,8,10,12,14,16,18,20,22,24,26,-1,28,30,32,34,36,38,40,42,44,46,48,50,52,54,56,58,60,62,64,-1,-1,66,68,70,72,74,76,78,80,82,84,86,88,90,92,-1,-1,-1,94,96,98,100,102,-1,-1,-1,-1,-1,-1,-1,-1,-1,-1,-1,-1,-1,-1,-1,-1,-1,-1,-1,-1,-1,-1,-1,-1,-1,-1,-1,-1,-1,-1,-1,-1,-1,-1,-1,-1,-1,-1,-1,-1,-1,-1,-1,-1,-1,-1],"split_conditions":[1.212744E0,3.5978207E-1,2.9593447E-1,2.4349031E-1,4.3011546E-1,8.5239804E-1,-3.1308131E0,-4.0967143E-1,2.6682925E-1,7.7372426E-1,-2.9730058E-1,9.8260775E-2,-6.65842E-2,2.0862985E-2,2.4971871E0,2.7064365E-1,4.9297422E-1,-7.7936095E-1,5.562898E-1,-1.2780226E0,3.5832737E-2,8.468522E-1,1.6180692E0,-1.4942218E-1,-2.646237E0,1.5899043E0,1.7977026E-1,-1.3680161E0,3.1391535E0,-2.6766593E0,-7.98844E-1,-1.0984321E-1,-1.406035E0,-8.633808E-4,3.1348586E-2,4.1804898E-1,7.490526E-1,-1.6785796E0,1.4842174E0,2.158618E0,1.3240649E0,3.0682525E-1,-4.5421833E-1,1.6350937E-1,-1.5295684E-1,1.0790387E0,-2.6819474E-1,-3.22151E0,9.3430334E-1,-1.0775085E-2,-6.028891E-4,7.3959194E-3,-4.063572E-1,-6.1736524E-1,-1.4353712E0,7.9759455E-1,-1.2658414E-1,3.2281317E-2,4.0068626E-3,-1.5536235E-2,-4.730168E-4,1.5594248E-3,-9.009377E-3,-3.2715864E-2,-8.865407E-3,-1.0257949E-3,1.1099745E-2,-3.5769658E-3,-2.6687352E-2,7.194452E-3,3.3981316E-2,2.545979E-3,1.5065209E-2,6.272337E-3,-8.317018E-3,-1.1562597E-2,5.0388984E-3,1.0258669E-2,-1.8188865E-3,-6.9436675E-4,-1.3028035E-2,5.422182E-4,-8.458031E-3,-3.4340475E-2,-8.972775E-3,-4.518757E-3,1.4188903E-3,-7.611305E-4,7.30948E-3,-4.3843035E-3,4.497977E-3,2.2628225E-2,6.9329147E-3,-2.5291266E-3,-2.2308827E-4,-2.4872813E-3,6.190022E-3,4.074285E-3,-8.967114E-3,1.2449581E-2,-8.339994E-5,3.2333392E-4,-5.8155768E-3],"split_indices":[51,26,31,48,48,57,55,13,48,4,0,7,13,0,51,39,21,0,56,18,54,5,15,50,46,3,1,32,51,57,55,16,39,0,0,46,51,18,59,13,5,45,16,38,1,1,56,16,38,0,0,0,0,18,30,45,7,0,0,0,0,0,0,0,0,0,0,0,0,0,0,0,0,0,0,0,0,0,0,0,0,0,0,0,0,0,0,0,0,0,0,0,0,0,0,0,0,0,0,0,0,0,0],"split_type":[0,0,0,0,0,0,0,0,0,0,0,0,0,0,0,0,0,0,0,0,0,0,0,0,0,0,0,0,0,0,0,0,0,0,0,0,0,0,0,0,0,0,0,0,0,0,0,0,0,0,0,0,0,0,0,0,0,0,0,0,0,0,0,0,0,0,0,0,0,0,0,0,0,0,0,0,0,0,0,0,0,0,0,0,0,0,0,0,0,0,0,0,0,0,0,0,0,0,0,0,0,0,0],"sum_hessian":[6.57E2,5.55E2,1.02E2,3.37E2,2.18E2,4.8E1,5.4E1,1.88E2,1.49E2,1.33E2,8.5E1,3.7E1,1.1E1,2E0,5.2E1,7.6E1,1.12E2,5E0,1.44E2,9.6E1,3.7E1,3.9E1,4.6E1,1.8E1,1.9E1,5E0,6E0,3.3E1,1.9E1,4.4E1,3.2E1,7.3E1,3.9E1,1E0,4E0,1.03E2,4.1E1,1.3E1,8.3E1,1.9E1,1.8E1,3.2E1,7E0,3.9E1,7E0,5E0,1.3E1,5E0,1.4E1,4E0,1E0,3E0,3E0,8E0,2.5E1,1E1,9E0,1E0,4.3E1,1E1,2.2E1,4E1,3.3E1,8E0,3.1E1,7.2E1,3.1E1,3.6E1,5E0,9E0,4E0,7.5E1,8E0,1.7E1,2E0,1.5E1,3E0,2.1E1,1.1E1,4E0,3E0,1.8E1,2.1E1,3E0,4E0,4E0,1E0,3E0,1E1,1E0,4E0,9E0,5E0,1E0,2E0,4E0,4E0,3E0,2.2E1,7E0,3E0,6E0,3E0],"tree_param":{"num_deleted":"0","num_feature":"60","num_nodes":"103","size_leaf_vector":"0"}},{"base_weights":[-1.5880326E-4,4.0630167E-3,-3.4356911E-3,5.991844E-4,2.4915881E-2,6.0820975E-3,-8.180732E-3,4.496309E-3,-1.1421449E-2,4.160651E-2,7.0387847E-3,-4.0716264E-2,9.660573E-3,-3.318851E-2,-3.9156578E-3,-8.858695E-3,1.0374888E-2,-1.2835993E-4,-3.4565862E-2,7.2947475E-3,6.2160302E-2,2.2401296E-2,-8.963616E-3,-1.4662146E-2,-8.793712E-2,-1.3947647E-2,1.472424E-2,-1.0623911E-1,-2.0737214E-2,-1.3152162E-2,6.653114E-3,1.9162305E-2,-1.6585093E-2,-1.6292024E-2,1.4226737E-2,-3.1937256E-2,1.0809959E-2,-5.422705E-2,1.7043035E-3,-5.7076276E-3,1.8838173E-2,8.096899E-2,1.5872598E-2,-2.9120445E-3,2.8350042E-2,-1.7563963E-2,1.0477982E-2,6.3009285E-3,-2.430756E-2,-5.0410837E-2,-5.0698468E-3,-3.708073E-3,2.5360946E-2,-1.8188402E-2,-1.2370469E-1,-6.107617E-3,-4.8111208E-2,1.6479006E-3,-3.1466905E-2,2.4146287E-2,-2.7243735E-3,-4.10353E-3,3.4216393E-2,-2.5167424E-2,-4.6420743E-4,-2.8974324E-2,1.597356E-3,2.849E-2,6.5325634E-3,-4.2128783E-2,-1.1281669E-2,4.4369088E-3,3.7687026E-2,-2.9751495E-2,-8.7437645E-2,1.4624601E-2,-1.4872145E-2,-1.0130654E-2,6.179412E-4,4.1177273E-3,2.1488853E-2,3.7442777E-2,9.6491635E-2,-6.0967207E-3,2.2889107E-2,-6.457567E-4,-3.72231E-3,3.010457E-2,7.1569085E-3,-1.2948513E-3,-1.9703144E-2,1.6290128E-2,3.1105578E-3,8.520573E-3,9.3081966E-4,-2.6721254E-2,-7.3263943E-3,8.86521E-3,-2.8234253E-2,2.4689452E-3,-5.3741455E-2,3.0929172E-2,-2.7609223E-3,-1.7562576E-2,1.238983E-2,-6.500707E-2,-2.2916868E-3,1.1600256E-2,-2.6549803E-2,-9.021695E-3,-4.818321E-2,1.3121343E-3,3.600271E-2,1.5012454E-2,-2.733194E-2],"categories":[],"categories_nodes":[],"categories_segments":[],"categories_sizes":[],"default_left":[1,1,1,1,1,1,1,1,1,1,1,1,1,1,1,1,1,1,1,1,1,1,1,1,0,1,1,1,1,1,1,1,1,1,1,1,1,1,1,1,1,1,1,1,1,1,1,1,1,0,1,1,1,0,0,1,1,1,1,1,1,0,0,0,0,0,0,0,0,0,0,0,0,0,0,0,0,0,0,0,0,0,0,0,0,0,0,0,0,0,0,0,0,0,0,0,0,0,0,0,0,0,0,0,0,0,0,0,0,0,0,0,0,0,0],"id":41,"left_children":[1,3,5,7,9,11,13,15,17,19,21,23,25,27,29,31,33,35,37,39,41,43,45,47,-1,49,51,53,55,57,59,61,63,65,67,69,71,73,75,77,79,81,83,85,87,89,91,93,95,-1,97,99,101,-1,-1,103,105,107,109,111,113,-1,-1,-1,-1,-1,-1,-1,-1,-1,-1,-1,-1,-1,-1,-1,-1,-1,-1,-1,-1,-1,-1,-1,-1,-1,-1,-1,-1,-1,-1,-1,-1,-1,-1,-1,-1,-1,-1,-1,-1,-1,-1,-1,-1,-1,-1,-1,-1,-1,-1,-1,-1,-1,-1],"loss_changes":[9.117016E-3,2.0787548E-2,1.6804967E-2,1.1669138E-2,1.1940718E-2,2.1159224E-2,2.6321732E-2,1.4851496E-2,1.593925E-2,1.43565275E-2,5.363375E-3,9.783332E-3,1.4072492E-2,3.0541584E-2,2.0880243E-2,1.2874889E-2,1.3687696E-2,1.49585465E-2,1.4354713E-2,1.4583488E-3,1.0032754E-2,1.738966E-3,2.0232846E-3,1.5685434E-3,0E0,6.5423963E-3,1.8915713E-2,5.4392964E-3,1.2521211E-2,3.0952616E-2,1.6469985E-2,4.693605E-3,6.352638E-3,3.9032171E-3,1.2434449E-2,1.8403484E-3,5.3140307E-3,7.965617E-3,1.9308806E-3,1.4615094E-4,1.0661071E-4,2.4678633E-3,9.102883E-4,3.1051786E-6,1.19199976E-4,2.5290786E-4,1.2061081E-4,2.7828086E-5,9.166077E-6,0E0,6.0606543E-3,1.1258741E-2,9.637319E-3,0E0,0E0,4.879122E-3,8.366788E-3,1.8268535E-2,1.8700559E-2,9.428356E-3,2.9216694E-2,0E0,0E0,0E0,0E0,0E0,0E0,0E0,0E0,0E0,0E0,0E0,0E0,0E0,0E0,0E0,0E0,0E0,0E0,0E0,0E0,0E0,0E0,0E0,0E0,0E0,0E0,0E0,0E0,0E0,0E0,0E0,0E0,0E0,0E0,0E0,0E0,0E0,0E0,0E0,0E0,0E0,0E0,0E0,0E0,0E0,0E0,0E0,0E0,0E0,0E0,0E0,0E0,0E0,0E0],"parents":[2147483647,0,0,1,1,2,2,3,3,4,4,5,5,6,6,7,7,8,8,9,9,10,10,11,11,12,12,13,13,14,14,15,15,16,16,17,17,18,18,19,19,20,20,21,21,22,22,23,23,25,25,26,26,27,27,28,28,29,29,30,30,31,31,32,32,33,33,34,34,35,35,36,36,37,37,38,38,39,39,40,40,41,41,42,42,43,43,44,44,45,45,46,46,47,47,48,48,50,50,51,51,52,52,55,55,56,56,57,57,58,58,59,59,60,60],"right_children":[2,4,6,8,10,12,14,16,18,20,22,24,26,28,30,32,34,36,38,40,42,44,46,48,-1,50,52,54,56,58,60,62,64,66,68,70,72,74,76,78,80,82,84,86,88,90,92,94,96,-1,98,100,102,-1,-1,104,106,108,110,112,114,-1,-1,-1,-1,-1,-1,-1,-1,-1,-1,-1,-1,-1,-1,-1,-1,-1,-1,-1,-1,-1,-1,-1,-1,-1,-1,-1,-1,-1,-1,-1,-1,-1,-1,-1,-1,-1,-1,-1,-1,-1,-1,-1,-1,-1,-1,-1,-1,-1,-1,-1,-1,-1,-1],"split_conditions":[-1.0306843E-1,-3.0409253E-1,-3.999629E-1,7.2165424E-1,1.5930715E-1,-2.611307E-2,-1.2872741E0,-5.0829995E-1,6.327422E-1,-7.728257E-1,-3.1865537E-1,7.293179E-1,-1.3534214E0,-1.7176204E0,2.338861E-1,-1.3854554E0,-2.0058527E0,-7.021454E-1,4.7554976E-1,3.63599E-1,1.1099336E0,-1.6806258E0,1.02017E0,-2.7511847E-1,-2.6381137E-2,-9.438989E-1,-5.4903007E-1,-1.2488243E-1,3.0749273E-1,1.1739808E-1,-4.5524472E-1,-1.1868093E0,9.8469126E-1,4.2563558E-1,2.7150583E-1,8.991052E-1,1.7766037E0,2.3712072E-1,-6.030366E-2,7.5521874E-1,6.1411375E-1,-5.0808334E-1,-4.7805858E-1,-1.1266285E-1,8.5499835E-1,-5.3100586E-1,1.5138614E0,-6.3544124E-1,7.812754E-1,-1.5123252E-2,8.9518386E-1,1.4827392E0,8.2433534E-1,-5.4565207E-3,-3.711141E-2,6.331498E-1,5.7631E-1,9.313654E-1,-2.8448054E-1,-6.947727E-1,1.635792E-1,-1.2310591E-3,1.0264918E-2,-7.5502275E-3,-1.3926224E-4,-8.692298E-3,4.7920682E-4,8.547001E-3,1.959769E-3,-1.2638635E-2,-3.384501E-3,1.3310726E-3,1.1306108E-2,-8.925449E-3,-2.6231294E-2,4.3873806E-3,-4.4616438E-3,-3.0391964E-3,1.8538236E-4,1.2353183E-3,6.4466563E-3,1.1232833E-2,2.8947491E-2,-1.8290163E-3,6.8667326E-3,-1.9372703E-4,-1.116693E-3,9.031371E-3,2.1470727E-3,-3.884554E-4,-5.9109437E-3,4.887039E-3,9.3316735E-4,2.5561722E-3,2.792459E-4,-8.016377E-3,-2.1979185E-3,2.6595632E-3,-8.470276E-3,7.406836E-4,-1.6122438E-2,9.278752E-3,-8.2827674E-4,-5.268773E-3,3.7169491E-3,-1.9502122E-2,-6.8750605E-4,3.480077E-3,-7.964942E-3,-2.7065086E-3,-1.4454964E-2,3.936403E-4,1.0800813E-2,4.5037363E-3,-8.199583E-3],"split_indices":[35,35,23,19,11,35,45,20,55,2,25,9,1,19,2,23,21,51,56,0,58,15,0,10,0,36,6,0,54,12,22,19,23,25,20,43,18,0,17,1,0,47,1,0,0,4,0,0,7,0,26,10,33,0,0,3,28,21,5,19,13,0,0,0,0,0,0,0,0,0,0,0,0,0,0,0,0,0,0,0,0,0,0,0,0,0,0,0,0,0,0,0,0,0,0,0,0,0,0,0,0,0,0,0,0,0,0,0,0,0,0,0,0,0,0],"split_type":[0,0,0,0,0,0,0,0,0,0,0,0,0,0,0,0,0,0,0,0,0,0,0,0,0,0,0,0,0,0,0,0,0,0,0,0,0,0,0,0,0,0,0,0,0,0,0,0,0,0,0,0,0,0,0,0,0,0,0,0,0,0,0,0,0,0,0,0,0,0,0,0,0,0,0,0,0,0,0,0,0,0,0,0,0,0,0,0,0,0,0,0,0,0,0,0,0,0,0,0,0,0,0,0,0,0,0,0,0,0,0,0,0,0,0],"sum_hessian":[6.57E2,2.87E2,3.7E2,2.47E2,4E1,1.23E2,2.47E2,1.87E2,6E1,2E1,2E1,8E0,1.15E2,3.5E1,2.12E2,5.7E1,1.3E2,4.1E1,1.9E1,8E0,1.2E1,1E1,1E1,6E0,2E0,2E1,9.5E1,4E0,3.1E1,1.13E2,9.9E1,1.2E1,4.5E1,1.6E1,1.14E2,1E1,3.1E1,1.2E1,7E0,4E0,4E0,8E0,4E0,2E0,8E0,7E0,3E0,2E0,4E0,3E0,1.7E1,3.5E1,6E1,1E0,3E0,2.1E1,1E1,6.3E1,5E1,3.4E1,6.5E1,5E0,7E0,2.9E1,1.6E1,9E0,7E0,3.9E1,7.5E1,6E0,4E0,2.6E1,5E0,8E0,4E0,4E0,3E0,2E0,2E0,1E0,3E0,3E0,5E0,1E0,3E0,1E0,1E0,7E0,1E0,1E0,6E0,1E0,2E0,1E0,1E0,3E0,1E0,1.1E1,6E0,3.2E1,3E0,5E1,1E1,1.3E1,8E0,7E0,3E0,4.7E1,1.6E1,2.2E1,2.8E1,1.2E1,2.2E1,3.8E1,2.7E1],"tree_param":{"num_deleted":"0","num_feature":"60","num_nodes":"115","size_leaf_vector":"0"}},{"base_weights":[-2.868866E-4,8.609936E-3,-1.4118061E-3,-2.6568833E-3,1.994856E-2,-3.6097807E-3,5.3445585E-3,-1.6125841E-2,1.1660804E-2,1.5868824E-2,8.340955E-2,-2.423948E-3,-4.25558E-2,-2.569871E-2,9.1534555E-3,-9.995292E-6,-3.224069E-2,-2.3010157E-3,2.4456542E-2,-4.537672E-4,2.1326493E-2,5.697556E-3,-6.406057E-3,-8.065287E-2,1.6206673E-3,-4.1490756E-2,-8.805923E-3,-1.9012891E-3,1.8793833E-2,-8.104446E-3,8.086122E-3,-6.959057E-3,-4.7935266E-2,1.4071916E-2,-8.153238E-3,1.0492633E-2,3.6321927E-2,-5.93319E-3,6.212294E-3,1.2574988E-2,2.9783886E-2,-1.0185745E-2,1.1391535E-2,-2.668368E-2,-3.5068428E-3,-9.015316E-2,-1.1825573E-2,-1.044925E-2,8.538485E-3,-1.7767712E-2,-5.2171044E-2,4.1767843E-3,-2.0027447E-2,3.5296371E-3,-3.3672154E-2,5.99619E-3,3.428784E-2,-1.4772415E-3,-9.134439E-3,2.1554828E-3,1.051257E-2,-1.0843813E-2,4.2899847E-3,-1.0589511E-2,-5.62946E-4,-6.5095066E-3,-1.5258044E-3,1.2292117E-3,7.150762E-3,-9.865984E-4,1.6047603E-2,1.052668E-2,3.7173014E-2,-2.5001282E-2,1.7256144E-3,-1.5352554E-2,1.567472E-2,-3.539453E-3,-4.502209E-2,5.249599E-3,-1.0125475E-2,2.7073324E-3,1.5931547E-2,-1.4056662E-3,8.366973E-3,-2.222073E-2,-5.6271553E-3,2.4970634E-2,-2.0373538E-3,-5.1585413E-3,-6.802454E-2,3.3239126E-2,-3.2846618E-3,4.193477E-2,-2.7812619E-2],"categories":[],"categories_nodes":[],"categories_segments":[],"categories_sizes":[],"default_left":[1,1,1,1,1,1,1,1,1,1,0,1,1,1,1,1,1,1,1,1,1,1,1,1,1,1,1,1,1,1,1,1,0,0,1,0,0,1,1,1,1,1,1,1,1,0,0,0,1,0,0,1,1,1,1,1,1,0,0,0,0,0,0,0,0,0,0,0,0,0,0,0,0,0,0,0,0,0,0,0,0,0,0,0,0,0,0,0,0,0,0,0,0,0,0],"id":42,"left_children":[1,3,5,7,9,11,13,15,17,19,-1,21,23,25,27,29,31,33,35,37,39,41,43,45,47,49,51,53,55,57,59,61,-1,-1,63,-1,-1,65,67,69,71,73,75,77,79,-1,-1,-1,81,-1,-1,83,85,87,89,91,93,-1,-1,-1,-1,-1,-1,-1,-1,-1,-1,-1,-1,-1,-1,-1,-1,-1,-1,-1,-1,-1,-1,-1,-1,-1,-1,-1,-1,-1,-1,-1,-1,-1,-1,-1,-1,-1,-1],"loss_changes":[6.597557E-3,9.506519E-3,8.706728E-3,7.5161248E-3,8.255842E-3,2.0309938E-2,1.7261881E-2,5.1937653E-3,3.450659E-3,3.2166764E-3,0E0,1.3943007E-2,2.200963E-2,3.902982E-3,1.3783508E-2,7.864033E-4,3.634261E-3,1.0729121E-3,1.2757587E-3,4.0212047E-4,1.6238708E-3,1.2958394E-2,1.6896497E-2,3.5110414E-3,6.7370315E-4,1.0999907E-3,1.394822E-3,1.0644109E-2,1.3476191E-2,2.7462083E-5,6.368267E-5,2.6501872E-4,0E0,0E0,1.4197489E-4,0E0,0E0,5.3080585E-6,1.45925005E-5,7.2224485E-4,1.4585126E-3,6.7491233E-3,1.2268382E-2,1.5120065E-2,1.4773894E-2,0E0,0E0,0E0,1.724184E-4,0E0,0E0,1.2871879E-4,3.288011E-5,6.377051E-3,8.464688E-3,9.969847E-3,1.5887525E-2,0E0,0E0,0E0,0E0,0E0,0E0,0E0,0E0,0E0,0E0,0E0,0E0,0E0,0E0,0E0,0E0,0E0,0E0,0E0,0E0,0E0,0E0,0E0,0E0,0E0,0E0,0E0,0E0,0E0,0E0,0E0,0E0,0E0,0E0,0E0,0E0,0E0,0E0],"parents":[2147483647,0,0,1,1,2,2,3,3,4,4,5,5,6,6,7,7,8,8,9,9,11,11,12,12,13,13,14,14,15,15,16,16,17,17,18,18,19,19,20,20,21,21,22,22,23,23,24,24,25,25,26,26,27,27,28,28,29,29,30,30,31,31,34,34,37,37,38,38,39,39,40,40,41,41,42,42,43,43,44,44,48,48,51,51,52,52,53,53,54,54,55,55,56,56],"right_children":[2,4,6,8,10,12,14,16,18,20,-1,22,24,26,28,30,32,34,36,38,40,42,44,46,48,50,52,54,56,58,60,62,-1,-1,64,-1,-1,66,68,70,72,74,76,78,80,-1,-1,-1,82,-1,-1,84,86,88,90,92,94,-1,-1,-1,-1,-1,-1,-1,-1,-1,-1,-1,-1,-1,-1,-1,-1,-1,-1,-1,-1,-1,-1,-1,-1,-1,-1,-1,-1,-1,-1,-1,-1,-1,-1,-1,-1,-1,-1],"split_conditions":[-1.8579559E0,2.2669953E-1,7.622692E-1,-4.770663E-2,3.4759197E0,7.010801E-1,-1.976246E0,-9.655838E-2,-1.781917E-1,-1.0362959E0,2.5022866E-2,-5.8770216E-1,1.9966984E-1,-3.2706046E-1,-1.5506457E-1,-8.524612E-1,-1.2076824E0,-5.0383463E0,-2.354167E0,5.9416735E-1,-7.577213E-1,-8.9620066E-1,-1.8431126E0,2.2479463E0,-4.9090907E-1,-1.0051627E0,2.0268431E-1,1.4222498E0,9.738052E-2,-3.3572001E0,-1.6098117E0,8.219532E-1,-1.4380581E-2,4.221575E-3,2.0093987E0,3.14779E-3,1.0896578E-2,6.906904E0,-2.2409549E0,-1.2990817E0,-7.144588E-1,6.895827E-3,-1.7284298E0,-8.2689285E-2,-1.7331249E-1,-2.7045948E-2,-3.547672E-3,-3.1347752E-3,6.0385394E-1,-5.330314E-3,-1.5651314E-2,-2.0518656E0,3.7786913E-1,-1.2994447E0,4.4508427E-1,-1.1818457E0,2.0789003E0,-4.4317247E-4,-2.7403317E-3,6.4664485E-4,3.1537712E-3,-3.2531442E-3,1.2869955E-3,-3.1768535E-3,-1.6888381E-4,-1.952852E-3,-4.5774135E-4,3.6876352E-4,2.1452287E-3,-2.9597955E-4,4.814281E-3,3.1580043E-3,1.1151904E-2,-7.500385E-3,5.176843E-4,-4.6057664E-3,4.7024162E-3,-1.0618359E-3,-1.3506628E-2,1.5748797E-3,-3.0376427E-3,8.121997E-4,4.779464E-3,-4.216999E-4,2.510092E-3,-6.6662193E-3,-1.6881466E-3,7.4911905E-3,-6.1120617E-4,-1.5475624E-3,-2.0407362E-2,9.971738E-3,-9.853985E-4,1.2580431E-2,-8.343786E-3],"split_indices":[4,23,16,26,25,16,45,34,44,43,0,51,13,58,24,30,28,4,4,28,18,14,19,1,5,8,55,55,23,4,2,0,0,0,11,0,0,3,2,26,49,24,34,52,1,0,0,0,0,0,0,0,1,43,23,56,38,0,0,0,0,0,0,0,0,0,0,0,0,0,0,0,0,0,0,0,0,0,0,0,0,0,0,0,0,0,0,0,0,0,0,0,0,0,0],"split_type":[0,0,0,0,0,0,0,0,0,0,0,0,0,0,0,0,0,0,0,0,0,0,0,0,0,0,0,0,0,0,0,0,0,0,0,0,0,0,0,0,0,0,0,0,0,0,0,0,0,0,0,0,0,0,0,0,0,0,0,0,0,0,0,0,0,0,0,0,0,0,0,0,0,0,0,0,0,0,0,0,0,0,0,0,0,0,0,0,0,0,0,0,0,0,0],"sum_hessian":[6.57E2,7.3E1,5.84E2,3.7E1,3.6E1,4.41E2,1.43E2,1.9E1,1.8E1,3.5E1,1E0,4.29E2,1.2E1,1.5E1,1.28E2,1E1,9E0,9E0,9E0,9E0,2.6E1,1.41E2,2.88E2,6E0,6E0,7E0,8E0,6E1,6.8E1,5E0,5E0,4E0,5E0,2E0,7E0,5E0,4E0,5E0,4E0,1.4E1,1.2E1,3.7E1,1.04E2,3.5E1,2.53E2,5E0,1E0,2E0,4E0,3E0,4E0,4E0,4E0,5.2E1,8E0,3.8E1,3E1,1E0,4E0,2E0,3E0,3E0,1E0,5E0,2E0,4E0,1E0,1E0,3E0,3E0,1.1E1,4E0,8E0,1.6E1,2.1E1,1.4E1,9E1,1.6E1,1.9E1,1.09E2,1.44E2,3E0,1E0,2E0,2E0,3E0,1E0,1E1,4.2E1,5E0,3E0,9E0,2.9E1,2.7E1,3E0],"tree_param":{"num_deleted":"0","num_feature":"60","num_nodes":"95","size_leaf_vector":"0"}},{"base_weights":[-2.5706433E-4,1.4990441E-3,-4.9647456E-3,-1.172677E-3,8.777701E-3,-3.6509782E-2,-2.6819766E-3,1.625655E-3,-1.3790572E-2,-3.4963336E-2,1.1574018E-2,-4.0332247E-3,-8.117032E-2,1.452138E-2,-5.650046E-3,-5.883737E-3,8.4326975E-3,5.841411E-3,-2.284696E-2,-5.4032606E-4,-4.6347618E-2,1.8088497E-2,-2.2328768E-3,4.476887E-3,-1.3662558E-2,1.6728594E-3,3.3626873E-2,5.1386957E-3,-1.2985926E-2,-1.1988167E-2,7.88159E-3,1.0308697E-2,-4.878342E-2,-1.01983575E-2,1.0215378E-2,-4.580611E-2,-8.091512E-3,-9.457767E-3,8.647278E-3,2.5945894E-2,2.5627962E-3,3.0124305E-2,-1.0009379E-2,-1.247555E-3,6.2198867E-3,-5.8835894E-3,-1.8499732E-2,5.348588E-3,-1.6038159E-2,4.428073E-2,-5.992373E-3,1.3555717E-2,-9.633373E-3,-2.107353E-2,4.5195925E-3,7.187469E-3,-1.8128265E-2,2.0379252E-3,5.1885854E-2,1.33939935E-2,-2.0178715E-2,-7.458147E-2,-6.7242384E-3,-1.1754159E-2,-1.9875765E-3,2.2061528E-3,1.2510051E-2,-2.367309E-2,-7.404285E-2,-1.7175931E-2,5.4523745E-3,6.575799E-3,3.5191458E-2,3.979086E-2,-3.2631673E-3,3.9925016E-2,4.8144162E-4,-2.3987208E-2,4.5572366E-3,-2.0119227E-3,1.1120461E-2,2.2776937E-2,6.0090292E-2,2.1821903E-2,-2.1735947E-3,2.211327E-3,-1.9688232E-2,-9.685884E-3,-4.4537734E-2,-4.8937746E-3,1.9512413E-2],"categories":[],"categories_nodes":[],"categories_segments":[],"categories_sizes":[],"default_left":[1,1,1,1,1,1,1,1,1,1,1,1,0,1,1,1,1,1,1,1,0,1,1,1,1,1,1,1,1,1,1,1,1,1,1,1,1,0,0,1,1,1,1,0,0,0,0,1,0,1,0,1,1,1,1,0,0,0,0,0,0,0,0,0,0,0,0,0,0,0,0,0,0,0,0,0,0,0,0,0,0,0,0,0,0,0,0,0,0,0,0],"id":43,"left_children":[1,3,5,7,9,11,13,15,17,19,21,23,-1,25,27,29,31,33,35,37,-1,39,41,43,45,47,49,51,53,55,57,59,61,63,65,67,69,-1,-1,71,73,75,77,-1,-1,-1,-1,79,-1,81,-1,83,85,87,89,-1,-1,-1,-1,-1,-1,-1,-1,-1,-1,-1,-1,-1,-1,-1,-1,-1,-1,-1,-1,-1,-1,-1,-1,-1,-1,-1,-1,-1,-1,-1,-1,-1,-1,-1,-1],"loss_changes":[5.447259E-3,9.344634E-3,1.2791879E-2,1.2451207E-2,1.6183142E-2,1.7077668E-2,8.660252E-3,1.48223555E-2,1.1512329E-2,3.1100074E-3,1.1013648E-2,7.1673933E-4,0E0,6.0806796E-3,1.1463597E-2,1.1690554E-2,1.681818E-2,1.5774858E-3,1.4535351E-2,3.2757368E-4,0E0,1.0058809E-2,1.0366553E-2,5.7648147E-5,4.166807E-5,1.1273959E-3,4.486326E-3,7.466459E-3,1.2270924E-2,1.1433361E-2,1.0951546E-2,1.4191553E-2,4.923719E-3,4.0509447E-5,2.8483628E-4,8.87157E-3,3.5387236E-3,0E0,0E0,9.618398E-3,6.419635E-3,2.304948E-3,6.828434E-3,0E0,0E0,0E0,0E0,6.171485E-4,0E0,1.351051E-3,0E0,4.988246E-3,2.6636666E-3,1.5333533E-2,4.0472113E-3,0E0,0E0,0E0,0E0,0E0,0E0,0E0,0E0,0E0,0E0,0E0,0E0,0E0,0E0,0E0,0E0,0E0,0E0,0E0,0E0,0E0,0E0,0E0,0E0,0E0,0E0,0E0,0E0,0E0,0E0,0E0,0E0,0E0,0E0,0E0,0E0],"parents":[2147483647,0,0,1,1,2,2,3,3,4,4,5,5,6,6,7,7,8,8,9,9,10,10,11,11,13,13,14,14,15,15,16,16,17,17,18,18,19,19,21,21,22,22,23,23,24,24,25,25,26,26,27,27,28,28,29,29,30,30,31,31,32,32,33,33,34,34,35,35,36,36,39,39,40,40,41,41,42,42,47,47,49,49,51,51,52,52,53,53,54,54],"right_children":[2,4,6,8,10,12,14,16,18,20,22,24,-1,26,28,30,32,34,36,38,-1,40,42,44,46,48,50,52,54,56,58,60,62,64,66,68,70,-1,-1,72,74,76,78,-1,-1,-1,-1,80,-1,82,-1,84,86,88,90,-1,-1,-1,-1,-1,-1,-1,-1,-1,-1,-1,-1,-1,-1,-1,-1,-1,-1,-1,-1,-1,-1,-1,-1,-1,-1,-1,-1,-1,-1,-1,-1,-1,-1,-1,-1],"split_conditions":[7.247662E-1,1.8711992E-1,7.920053E-1,1.0385506E0,-2.3682904E0,-2.9837656E-1,-1.2715654E0,-2.2161645E-1,-1.304127E0,5.192272E-2,5.847886E-1,-9.974598E-1,-2.4351098E-2,6.3448393E-1,-2.9648364E-1,6.8611825E-1,1.6702838E-1,-2.6517637E0,-4.7012123E-1,2.0180517E-1,-1.3904286E-2,5.3231215E-1,2.64813E-1,-2.0542188E0,4.7138202E-1,7.925557E-1,9.765698E-1,3.6117905E-1,6.683432E-1,-1.3806053E0,1.8889785E0,1.4176512E0,-2.8030348E-1,-2.1823525E-1,-4.7861233E-1,6.508362E-1,3.0813786E-1,-2.83733E-3,2.5941834E-3,-1.8912949E-1,-2.326823E0,-3.2522184E-1,1.9445354E-1,-3.7426653E-4,1.8659661E-3,-1.7650769E-3,-5.54992E-3,9.1160476E-2,-4.811448E-3,-3.0186385E-1,-1.797712E-3,2.0824221E-1,1.7328241E-1,4.3896502E-1,4.744419E-1,2.1562409E-3,-5.4384796E-3,6.113776E-4,1.5565757E-2,4.0181982E-3,-6.053615E-3,-2.237444E-2,-2.0172717E-3,-3.5262478E-3,-5.96273E-4,6.6184584E-4,3.7530155E-3,-7.101927E-3,-2.2212856E-2,-5.1527796E-3,1.6357125E-3,1.9727398E-3,1.0557437E-2,1.1937259E-2,-9.789503E-4,1.1977506E-2,1.4443249E-4,-7.1961624E-3,1.3671711E-3,-6.0357683E-4,3.3361383E-3,6.8330816E-3,1.8027088E-2,6.5465714E-3,-6.520784E-4,6.633981E-4,-5.9064697E-3,-2.9057653E-3,-1.3361321E-2,-1.4681325E-3,5.853724E-3],"split_indices":[36,36,36,32,57,51,50,32,13,2,4,6,0,34,34,47,36,21,3,0,0,39,36,0,1,30,4,26,47,47,1,31,8,4,44,25,39,0,0,5,41,10,20,0,0,0,0,44,0,6,0,24,30,44,32,0,0,0,0,0,0,0,0,0,0,0,0,0,0,0,0,0,0,0,0,0,0,0,0,0,0,0,0,0,0,0,0,0,0,0,0],"split_type":[0,0,0,0,0,0,0,0,0,0,0,0,0,0,0,0,0,0,0,0,0,0,0,0,0,0,0,0,0,0,0,0,0,0,0,0,0,0,0,0,0,0,0,0,0,0,0,0,0,0,0,0,0,0,0,0,0,0,0,0,0,0,0,0,0,0,0,0,0,0,0,0,0,0,0,0,0,0,0,0,0,0,0,0,0,0,0,0,0,0,0],"sum_hessian":[6.57E2,4.79E2,1.78E2,3.51E2,1.28E2,1.1E1,1.67E2,2.88E2,6.3E1,7E0,1.21E2,7E0,4E0,2.4E1,1.43E2,1.37E2,1.51E2,2E1,4.3E1,2E0,5E0,8.2E1,3.9E1,4E0,3E0,1.5E1,9E0,5.8E1,8.5E1,9.5E1,4.2E1,1.47E2,4E0,4E0,1.6E1,1.6E1,2.7E1,1E0,1E0,5.4E1,2.8E1,7E0,3.2E1,1E0,3E0,2E0,1E0,1.3E1,2E0,7E0,2E0,3.7E1,2.1E1,5.8E1,2.7E1,2.3E1,7.2E1,3.8E1,4E0,1.34E2,1.3E1,2E0,2E0,3E0,1E0,4E0,1.2E1,1E1,6E0,1.6E1,1.1E1,1.8E1,3.6E1,3E0,2.5E1,5E0,2E0,1.6E1,1.6E1,6E0,7E0,4E0,3E0,2.4E1,1.3E1,1E1,1.1E1,4E1,1.8E1,1.7E1,1E1],"tree_param":{"num_deleted":"0","num_feature":"60","num_nodes":"91","size_leaf_vector":"0"}},{"base_weights":[-2.5723592E-4,2.9694221E-3,-2.7613337E-3,1.014427E-3,2.1086719E-2,-5.464774E-3,6.261286E-3,4.250145E-3,-5.505861E-3,3.219507E-2,-2.1278188E-3,3.9962367E-3,-9.352755E-3,-9.316337E-4,3.551088E-2,2.148162E-3,3.027884E-2,-2.074734E-4,-2.0240178E-2,4.8444746E-3,3.9165597E-2,-9.057005E-3,6.612769E-3,-3.2979024E-3,1.5952272E-2,-1.0387661E-2,4.4730697E-2,-6.1480317E-2,1.7533323E-3,1.0447387E-2,9.357379E-2,-2.2820637E-3,1.6781328E-2,7.465378E-4,5.548559E-2,-1.1437712E-2,6.645294E-3,-8.308295E-3,-4.6326157E-2,8.614644E-3,-5.118102E-3,2.656699E-2,5.3635675E-2,-1.9471844E-3,-1.212512E-2,3.1763949E-3,-1.9911217E-2,3.0263186E-2,-4.60913E-3,-1.4442547E-2,2.0658497E-3,-6.6873035E-3,1.6538717E-2,5.1225543E-2,-1.6236915E-3,-7.3940386E-3,1.0703263E-2,1.0550132E-2,4.825602E-2,1.8748425E-2,-5.378514E-3,6.170693E-2,9.078786E-3,2.1174466E-3,-2.0615648E-2,-1.6193801E-3,1.9660058E-2,2.6809513E-3,-2.1006316E-2,-1.5394267E-2,-6.567651E-2,9.846468E-3,2.4595857E-3,4.263431E-3,2.857145E-2,6.660922E-3,-2.1850575E-2,-4.455834E-2,1.4711254E-3,3.8341977E-2,1.4362104E-2,1.5506471E-3,-1.3080607E-2,-1.7691134E-2,7.7202497E-3,-2.1999693E-2,9.4176615E-3,-4.4862606E-2,-1.7482082E-3,8.235777E-3,5.8070213E-2,-9.649915E-3,6.6731474E-3],"categories":[],"categories_nodes":[],"categories_segments":[],"categories_sizes":[],"default_left":[1,1,1,1,1,1,1,1,1,1,1,1,1,1,1,1,1,1,1,1,1,1,0,1,1,1,0,0,1,1,0,1,1,1,1,1,1,1,1,1,0,1,0,0,0,1,1,1,1,1,1,1,1,0,1,0,0,0,0,0,0,0,0,0,0,0,0,0,0,0,0,0,0,0,0,0,0,0,0,0,0,0,0,0,0,0,0,0,0,0,0,0,0],"id":44,"left_children":[1,3,5,7,9,11,13,15,17,19,21,23,25,27,29,31,33,35,37,39,41,43,-1,45,47,49,-1,-1,51,53,-1,55,57,59,61,63,65,67,69,71,-1,73,-1,-1,-1,75,77,79,81,83,85,87,89,-1,91,-1,-1,-1,-1,-1,-1,-1,-1,-1,-1,-1,-1,-1,-1,-1,-1,-1,-1,-1,-1,-1,-1,-1,-1,-1,-1,-1,-1,-1,-1,-1,-1,-1,-1,-1,-1,-1,-1],"loss_changes":[5.3247525E-3,1.0179347E-2,9.083691E-3,5.52993E-3,7.28901E-3,1.0557665E-2,1.812662E-2,9.509533E-3,6.7877276E-3,3.4325775E-3,6.655435E-4,7.3781637E-3,1.1826811E-2,1.1487776E-2,2.3761807E-2,1.0605298E-2,9.635951E-3,5.0782906E-3,6.77397E-3,2.3189363E-4,1.3096053E-3,1.07272645E-4,0E0,5.763901E-3,9.555567E-3,1.0129353E-2,0E0,0E0,8.596866E-3,6.482247E-3,0E0,8.443103E-3,6.943641E-3,8.726761E-4,1.4607627E-3,3.1538622E-3,4.441911E-3,2.4285256E-3,3.1787595E-3,6.1095925E-6,0E0,3.2525323E-4,0E0,0E0,0E0,3.546624E-3,7.9707485E-3,1.890095E-3,7.5083715E-4,1.100824E-2,9.053452E-3,8.217834E-3,8.142585E-3,0E0,7.969104E-4,0E0,0E0,0E0,0E0,0E0,0E0,0E0,0E0,0E0,0E0,0E0,0E0,0E0,0E0,0E0,0E0,0E0,0E0,0E0,0E0,0E0,0E0,0E0,0E0,0E0,0E0,0E0,0E0,0E0,0E0,0E0,0E0,0E0,0E0,0E0,0E0,0E0,0E0],"parents":[2147483647,0,0,1,1,2,2,3,3,4,4,5,5,6,6,7,7,8,8,9,9,10,10,11,11,12,12,13,13,14,14,15,15,16,16,17,17,18,18,19,19,20,20,21,21,23,23,24,24,25,25,28,28,29,29,31,31,32,32,33,33,34,34,35,35,36,36,37,37,38,38,39,39,41,41,45,45,46,46,47,47,48,48,49,49,50,50,51,51,52,52,54,54],"right_children":[2,4,6,8,10,12,14,16,18,20,22,24,26,28,30,32,34,36,38,40,42,44,-1,46,48,50,-1,-1,52,54,-1,56,58,60,62,64,66,68,70,72,-1,74,-1,-1,-1,76,78,80,82,84,86,88,90,-1,92,-1,-1,-1,-1,-1,-1,-1,-1,-1,-1,-1,-1,-1,-1,-1,-1,-1,-1,-1,-1,-1,-1,-1,-1,-1,-1,-1,-1,-1,-1,-1,-1,-1,-1,-1,-1,-1,-1],"split_conditions":[-1.0306843E-1,-2.452954E-1,9.7478056E-1,5.6256026E-1,5.157602E-1,-6.823008E-1,8.609129E-1,4.2119443E-1,6.428958E-1,-9.8562515E-1,3.255554E-1,2.7498078E-1,3.9083374E0,-1.9315403E0,2.533366E-1,8.6764586E-1,2.0122245E-1,-3.5988826E-1,4.696135E-1,1.175919E0,2.5278914E-1,2.692826E-1,1.9838307E-3,9.276632E-1,2.5433472E-1,7.8894794E-1,1.341921E-2,-1.8444097E-2,4.047631E-1,-7.1603316E-1,2.8072137E-2,8.237413E-1,1.7766037E0,4.5154342E-1,6.760325E-1,-3.1852862E-1,2.3137462E-1,-1.0811709E-1,-1.5510072E0,1.3837095E0,-1.5354307E-3,-1.6016188E0,1.6090704E-2,-5.841554E-4,-3.637536E-3,1.3259615E0,3.1512243E-1,2.4685583E-1,4.1238433E-1,1.3414137E0,-4.8710215E-1,-1.0287521E0,1.2609557E0,1.5367663E-2,-1.2805296E-1,-2.2182118E-3,3.210979E-3,3.1650397E-3,1.4476807E-2,5.6245276E-3,-1.6135543E-3,1.851208E-2,2.7236359E-3,6.35234E-4,-6.184695E-3,-4.8581403E-4,5.8980174E-3,8.042854E-4,-6.3018952E-3,-4.61828E-3,-1.9702954E-2,2.9539408E-3,7.3787576E-4,1.2790293E-3,8.571435E-3,1.9982767E-3,-6.5551726E-3,-1.3367502E-2,4.4133764E-4,1.1502594E-2,4.3086316E-3,4.6519414E-4,-3.924182E-3,-5.30734E-3,2.316075E-3,-6.599908E-3,2.8252986E-3,-1.3458782E-2,-5.244625E-4,2.4707331E-3,1.7421065E-2,-2.8949745E-3,2.0019442E-3],"split_indices":[35,35,6,1,47,43,17,1,19,7,31,3,0,43,37,30,51,56,30,1,34,2,0,54,53,48,0,0,19,44,0,17,41,1,7,16,28,17,9,0,0,1,0,0,0,44,28,42,7,49,28,18,8,0,8,0,0,0,0,0,0,0,0,0,0,0,0,0,0,0,0,0,0,0,0,0,0,0,0,0,0,0,0,0,0,0,0,0,0,0,0,0,0],"split_type":[0,0,0,0,0,0,0,0,0,0,0,0,0,0,0,0,0,0,0,0,0,0,0,0,0,0,0,0,0,0,0,0,0,0,0,0,0,0,0,0,0,0,0,0,0,0,0,0,0,0,0,0,0,0,0,0,0,0,0,0,0,0,0,0,0,0,0,0,0,0,0,0,0,0,0,0,0,0,0,0,0,0,0,0,0,0,0,0,0,0,0,0,0],"sum_hessian":[6.57E2,2.87E2,3.7E2,2.6E2,2.7E1,2.85E2,8.5E1,1.74E2,8.6E1,1.8E1,9E0,8.3E1,2.02E2,6.9E1,1.6E1,1.62E2,1.2E1,6.4E1,2.2E1,4E0,1.4E1,5E0,4E0,5.2E1,3.1E1,1.99E2,3E0,2E0,6.7E1,1.2E1,4E0,1.25E2,3.7E1,6E0,6E0,2.4E1,4E1,1.6E1,6E0,3E0,1E0,9E0,5E0,2E0,3E0,3.8E1,1.4E1,1.8E1,1.3E1,1.5E2,4.9E1,4.3E1,2.4E1,2E0,1E1,9E1,3.5E1,3.2E1,5E0,1E0,5E0,5E0,1E0,1E1,1.4E1,2.5E1,1.5E1,9E0,7E0,3E0,3E0,2E0,1E0,1E0,8E0,3.4E1,4E0,6E0,8E0,1.1E1,7E0,8E0,5E0,1.31E2,1.9E1,1.1E1,3.8E1,4E0,3.9E1,2.1E1,3E0,5E0,5E0],"tree_param":{"num_deleted":"0","num_feature":"60","num_nodes":"93","size_leaf_vector":"0"}},{"base_weights":[-7.167718E-5,-8.355184E-4,8.154536E-3,-2.433847E-3,3.7998687E-3,1.4524222E-2,-7.312641E-3,1.6346562E-3,-7.241036E-3,6.4906124E-3,-1.2761929E-2,1.1838539E-2,5.9632957E-2,5.996953E-3,-1.5117597E-2,-4.0104906E-3,1.0231018E-2,2.4549544E-3,-1.3937086E-2,-6.904246E-3,1.2264002E-2,-5.8415294E-2,-7.8062788E-3,1.2595952E-3,1.6493639E-2,-1.8458018E-3,9.503216E-3,-6.5801637E-3,-2.8413065E-2,-8.641072E-3,1.5288826E-2,-2.6169566E-3,1.60229E-2,6.2228437E-4,5.2340508E-2,-2.3681672E-2,9.32542E-5,-1.3435945E-2,1.2130927E-2,-2.505906E-3,1.7948171E-2,2.4110647E-3,-2.16973E-2,-7.6653995E-3,4.7036335E-3,2.3712613E-2,3.8376234E-3,4.221201E-4,-3.190823E-3,-2.2900503E-3,-7.6285265E-3,-2.1467856E-3,-1.8007347E-2,2.5405778E-2,-6.4739594E-3,-1.9795964E-2,7.821295E-3,1.0225605E-2,4.1741706E-2,1.2799965E-2,-8.088759E-3,-1.1218616E-2,-4.403793E-2,-2.1251986E-2,5.173234E-3,-6.2227494E-4,-2.5409868E-2,2.8376844E-2,-1.2062873E-3,6.5987324E-3,-1.4436598E-2,-5.2702804E-3,2.4065368E-2,1.0783681E-2,-6.305989E-3,-6.4293444E-3,-2.8259719E-2,-9.548609E-3,-1.0078847E-3,7.298549E-3,6.4900814E-4,6.562464E-3,2.6918896E-2,1.1050438E-2,-7.0278407E-3,-8.427091E-3,-1.8178523E-3],"categories":[],"categories_nodes":[],"categories_segments":[],"categories_sizes":[],"default_left":[1,1,1,1,1,1,1,1,1,1,1,1,0,1,1,1,1,1,1,1,1,0,1,1,1,1,0,1,0,1,1,1,1,1,0,1,1,1,1,1,1,1,1,1,1,1,1,0,0,0,1,0,0,0,0,0,0,0,0,0,0,0,0,0,0,0,0,0,0,0,0,0,0,0,0,0,0,0,0,0,0,0,0,0,0,0,0],"id":45,"left_children":[1,3,5,7,9,11,13,15,17,19,21,23,-1,25,27,29,31,33,35,37,39,-1,41,43,45,47,-1,49,-1,51,53,55,57,59,-1,61,63,65,67,69,71,73,75,77,79,81,83,-1,-1,-1,85,-1,-1,-1,-1,-1,-1,-1,-1,-1,-1,-1,-1,-1,-1,-1,-1,-1,-1,-1,-1,-1,-1,-1,-1,-1,-1,-1,-1,-1,-1,-1,-1,-1,-1,-1,-1],"loss_changes":[4.14137E-3,4.4767973E-3,5.6233904E-3,8.793407E-3,6.990184E-3,4.139946E-3,1.856633E-3,1.1881796E-2,1.3408731E-2,1.0447394E-2,4.521321E-3,1.8998208E-3,0E0,2.1003236E-4,1.0616384E-3,1.3358434E-2,7.260086E-3,7.738449E-3,1.6682034E-2,5.2606035E-3,7.936714E-3,0E0,3.0328296E-3,4.3564953E-4,2.3758127E-3,1.049812E-5,0E0,1.8511055E-5,0E0,7.260616E-3,6.549494E-3,5.7137134E-3,9.562837E-3,8.908201E-3,0E0,1.777244E-2,5.640044E-3,4.7405143E-3,2.4176587E-3,3.0281285E-3,9.784995E-3,1.0168008E-3,7.2006136E-4,4.0526094E-5,1.0047731E-4,7.5814594E-4,9.3973696E-4,0E0,0E0,0E0,1.2521952E-5,0E0,0E0,0E0,0E0,0E0,0E0,0E0,0E0,0E0,0E0,0E0,0E0,0E0,0E0,0E0,0E0,0E0,0E0,0E0,0E0,0E0,0E0,0E0,0E0,0E0,0E0,0E0,0E0,0E0,0E0,0E0,0E0,0E0,0E0,0E0,0E0],"parents":[2147483647,0,0,1,1,2,2,3,3,4,4,5,5,6,6,7,7,8,8,9,9,10,10,11,11,13,13,14,14,15,15,16,16,17,17,18,18,19,19,20,20,22,22,23,23,24,24,25,25,27,27,29,29,30,30,31,31,32,32,33,33,35,35,36,36,37,37,38,38,39,39,40,40,41,41,42,42,43,43,44,44,45,45,46,46,50,50],"right_children":[2,4,6,8,10,12,14,16,18,20,22,24,-1,26,28,30,32,34,36,38,40,-1,42,44,46,48,-1,50,-1,52,54,56,58,60,-1,62,64,66,68,70,72,74,76,78,80,82,84,-1,-1,-1,86,-1,-1,-1,-1,-1,-1,-1,-1,-1,-1,-1,-1,-1,-1,-1,-1,-1,-1,-1,-1,-1,-1,-1,-1,-1,-1,-1,-1,-1,-1,-1,-1,-1,-1,-1,-1],"split_conditions":[2.029421E0,8.0512184E-1,3.6601045E0,1.2917905E-1,1.4133103E0,2.307829E0,-6.589656E-1,3.70243E-1,-2.41692E-1,-4.8272684E-1,1.4545647E0,-1.3446072E0,1.7889887E-2,-1.6814268E0,9.7977495E-1,1.066876E0,-6.118471E-1,2.9183524E0,4.0835297E-1,6.700263E-1,-9.3011355E-1,-1.7524589E-2,4.7328115E-1,-8.21674E-1,3.4181282E-1,-6.048833E-1,2.8509647E-3,-5.5248106E-1,-8.52392E-3,-2.880026E-2,3.8885307E-1,-3.576146E-2,9.9758446E-1,-3.5147958E-2,1.5702153E-2,-2.41692E-1,-1.1822841E0,-2.2118443E-1,-1.8534926E0,-1.3478732E-1,-1.6904676E0,2.4364847E-1,-1.8460763E0,-1.6920292E0,-1.6664681E-1,-1.268951E0,-2.4187845E-1,1.2663603E-4,-9.572469E-4,-6.870151E-4,5.48205E-1,-6.440357E-4,-5.4022046E-3,7.6217335E-3,-1.9421879E-3,-5.9387893E-3,2.3463888E-3,3.0676818E-3,1.2522512E-2,3.8399897E-3,-2.4266278E-3,-3.3655849E-3,-1.321138E-2,-6.375596E-3,1.5519703E-3,-1.8668249E-4,-7.6229605E-3,8.513054E-3,-3.618862E-4,1.9796197E-3,-4.3309797E-3,-1.5810842E-3,7.2196107E-3,3.2351043E-3,-1.8917967E-3,-1.9288034E-3,-8.477916E-3,-2.864583E-3,-3.0236543E-4,2.1895648E-3,1.9470246E-4,1.9687393E-3,8.075669E-3,3.3151314E-3,-2.1083523E-3,-2.5281273E-3,-5.453557E-4],"split_indices":[25,18,25,46,19,24,59,17,29,50,19,0,0,11,18,56,37,43,39,44,5,0,31,51,6,0,0,1,0,56,48,12,6,37,0,39,5,13,50,43,10,27,6,0,36,53,19,0,0,0,1,0,0,0,0,0,0,0,0,0,0,0,0,0,0,0,0,0,0,0,0,0,0,0,0,0,0,0,0,0,0,0,0,0,0,0,0],"split_type":[0,0,0,0,0,0,0,0,0,0,0,0,0,0,0,0,0,0,0,0,0,0,0,0,0,0,0,0,0,0,0,0,0,0,0,0,0,0,0,0,0,0,0,0,0,0,0,0,0,0,0,0,0,0,0,0,0,0,0,0,0,0,0,0,0,0,0,0,0,0,0,0,0,0,0,0,0,0,0,0,0,0,0,0,0,0,0],"sum_hessian":[6.57E2,6.02E2,5.5E1,4.48E2,1.54E2,3.9E1,1.6E1,2.43E2,2.05E2,1.33E2,2.1E1,3.8E1,1E0,6E0,1E1,1.47E2,9.6E1,8.4E1,1.21E2,4E1,9.3E1,1E0,2E1,1.2E1,2.6E1,2E0,4E0,7E0,3E0,1.19E2,2.8E1,3E1,6.6E1,8.2E1,2E0,7.1E1,5E1,3E1,1E1,2.6E1,6.7E1,1.2E1,8E0,3E0,9E0,1.6E1,1E1,1E0,1E0,2E0,5E0,7.1E1,4.8E1,1.9E1,9E0,1.1E1,1.9E1,5.5E1,1.1E1,3.4E1,4.8E1,4.5E1,2.6E1,9E0,4.1E1,1.5E1,1.5E1,4E0,6E0,1.5E1,1.1E1,1.4E1,5.3E1,6E0,6E0,3E0,5E0,2E0,1E0,5E0,4E0,3E0,1.3E1,6E0,4E0,4E0,1E0],"tree_param":{"num_deleted":"0","num_feature":"60","num_nodes":"87","size_leaf_vector":"0"}},{"base_weights":[-4.6403282E-5,-1.831256E-3,2.6755037E-3,-4.529927E-3,3.6412925E-3,-3.0880538E-3,6.33305E-3,3.3333576E-3,-7.73417E-3,-9.768599E-3,6.86574E-3,-1.9097602E-2,-5.350009E-4,1.1703543E-2,-3.0588717E-3,1.0823149E-2,-4.835454E-3,2.0315643E-2,-9.2411535E-3,-5.2426606E-2,3.7043E-4,1.2425214E-2,-4.925899E-3,-1.6023326E-3,-4.215757E-2,-4.6590315E-3,7.3312186E-3,-7.597567E-3,1.5929943E-2,-1.4537716E-2,6.4256033E-3,1.4987471E-2,-5.648599E-3,-1.7509643E-2,1.6876204E-3,9.749128E-3,3.3728138E-2,6.4628426E-4,-1.4398023E-2,-3.409505E-3,-6.3828506E-2,-8.550293E-3,2.0707736E-2,-2.24186E-3,1.8002259E-2,-5.860406E-2,-1.6234808E-3,-7.0758513E-3,7.0085283E-3,-5.1122714E-2,1.3340712E-3,3.2874846E-3,-9.13704E-3,9.999385E-3,-1.3178751E-2,-2.1210276E-2,2.1107027E-3,-1.4865726E-2,1.8489426E-2,-4.378015E-3,-3.8119756E-2,-1.0266382E-2,1.131446E-2,6.2762955E-3,2.502246E-2,3.7802309E-3,-1.8379694E-2,-2.8923701E-2,-9.222984E-3,6.4846557E-3,-1.5383273E-2,1.18904365E-2,-1.5493631E-3,-1.834614E-2,5.951237E-3,2.683986E-2,-1.6442139E-2,-1.1694368E-2,3.8055256E-3,1.1064063E-2,3.9284885E-2,-2.3941234E-2,6.0355216E-3,1.0663545E-2,3.167956E-2,-1.0188665E-2,9.7448047E-4,-8.0755055E-3,-1.0387897E-3,1.8856812E-2,-1.2199666E-3,-4.622518E-3,-2.1315448E-2,4.783524E-3,1.7625393E-2,-4.3179193E-3,-1.9880623E-2,-1.1996627E-3,-2.7680537E-2,-6.677732E-3,7.3396363E-3,-2.3720719E-2,-2.294302E-3,2.8918372E-2,9.77346E-3,6.8163495E-3,-1.8817388E-2,-4.2815916E-2,-2.6233196E-3,-5.3178817E-3,-1.2171906E-2,-5.062666E-4,1.7602272E-2],"categories":[],"categories_nodes":[],"categories_segments":[],"categories_sizes":[],"default_left":[1,1,1,1,1,1,1,1,1,1,1,1,1,1,1,1,1,1,1,1,1,1,1,1,1,1,1,1,1,1,1,1,1,1,1,1,0,1,1,0,0,1,1,1,1,0,1,1,0,0,0,1,1,1,1,1,1,1,1,1,1,1,1,0,0,0,0,0,0,0,0,0,0,0,0,0,0,0,0,0,0,0,0,0,0,0,0,0,0,0,0,0,0,0,0,0,0,0,0,0,0,0,0,0,0,0,0,0,0,0,0,0,0],"id":46,"left_children":[1,3,5,7,9,11,13,15,17,19,21,23,25,27,29,31,33,35,37,39,41,43,45,47,49,51,53,55,57,59,61,63,65,67,69,71,-1,73,75,-1,-1,77,79,81,83,-1,85,87,-1,-1,-1,89,91,93,95,97,99,101,103,105,107,109,111,-1,-1,-1,-1,-1,-1,-1,-1,-1,-1,-1,-1,-1,-1,-1,-1,-1,-1,-1,-1,-1,-1,-1,-1,-1,-1,-1,-1,-1,-1,-1,-1,-1,-1,-1,-1,-1,-1,-1,-1,-1,-1,-1,-1,-1,-1,-1,-1,-1,-1],"loss_changes":[3.2015971E-3,5.8944E-3,5.521562E-3,6.75308E-3,5.774681E-3,4.158851E-3,8.10608E-3,4.8245853E-3,8.219155E-3,1.12646995E-2,7.075624E-3,5.5806143E-3,2.9213636E-3,8.441596E-3,6.516792E-3,2.8969976E-3,3.1711874E-3,1.0884134E-3,9.238173E-3,2.5768168E-3,4.168373E-3,6.0116807E-3,6.1092284E-3,4.7377666E-4,2.4076542E-3,2.1295273E-3,1.8282238E-3,2.5557294E-3,6.8958253E-3,6.301946E-3,2.8091148E-3,2.727698E-3,1.1498334E-3,9.6283434E-4,2.228887E-3,1.8777745E-4,0E0,6.456679E-3,1.0472415E-2,0E0,0E0,6.6606526E-4,8.194132E-4,3.916392E-3,4.9819928E-3,0E0,7.664972E-4,2.7821108E-5,0E0,0E0,0E0,1.5669202E-3,1.9906969E-3,1.029422E-3,1.5169365E-4,1.0025837E-3,6.0046185E-4,7.248167E-4,6.807439E-3,3.361058E-3,1.2212563E-3,1.0707125E-5,1.9414008E-3,0E0,0E0,0E0,0E0,0E0,0E0,0E0,0E0,0E0,0E0,0E0,0E0,0E0,0E0,0E0,0E0,0E0,0E0,0E0,0E0,0E0,0E0,0E0,0E0,0E0,0E0,0E0,0E0,0E0,0E0,0E0,0E0,0E0,0E0,0E0,0E0,0E0,0E0,0E0,0E0,0E0,0E0,0E0,0E0,0E0,0E0,0E0,0E0,0E0,0E0],"parents":[2147483647,0,0,1,1,2,2,3,3,4,4,5,5,6,6,7,7,8,8,9,9,10,10,11,11,12,12,13,13,14,14,15,15,16,16,17,17,18,18,19,19,20,20,21,21,22,22,23,23,24,24,25,25,26,26,27,27,28,28,29,29,30,30,31,31,32,32,33,33,34,34,35,35,37,37,38,38,41,41,42,42,43,43,44,44,46,46,47,47,51,51,52,52,53,53,54,54,55,55,56,56,57,57,58,58,59,59,60,60,61,61,62,62],"right_children":[2,4,6,8,10,12,14,16,18,20,22,24,26,28,30,32,34,36,38,40,42,44,46,48,50,52,54,56,58,60,62,64,66,68,70,72,-1,74,76,-1,-1,78,80,82,84,-1,86,88,-1,-1,-1,90,92,94,96,98,100,102,104,106,108,110,112,-1,-1,-1,-1,-1,-1,-1,-1,-1,-1,-1,-1,-1,-1,-1,-1,-1,-1,-1,-1,-1,-1,-1,-1,-1,-1,-1,-1,-1,-1,-1,-1,-1,-1,-1,-1,-1,-1,-1,-1,-1,-1,-1,-1,-1,-1,-1,-1,-1,-1],"split_conditions":[3.6297876E-1,5.089178E-1,-5.814872E-1,-7.279843E-1,-1.4375422E0,-2.0257092E0,4.6596757E-1,-2.5580153E-2,-3.2831578E0,-2.7487236E-1,7.6719147E-1,-8.158218E-3,4.7588575E-1,-1.0547125E0,1.4089116E-1,6.6696197E-1,-5.412968E-1,6.7242795E-1,-5.262809E-1,-8.9245754E-1,6.3673747E-1,-8.134481E-1,8.084125E-1,2.3189883E0,1.0721656E0,-6.073407E-1,3.229988E0,-6.56412E-1,-1.2011764E0,1.6042747E-1,-9.969446E-1,2.3588361E-1,-3.0235392E-1,-2.2179276E-1,1.1065236E0,2.5378733E0,1.0118442E-2,-7.9674304E-1,-2.5261927E0,-1.0228516E-3,-1.9148553E-2,1.3533244E0,-1.2783659E0,-6.201849E-1,4.6025646E-1,-1.7581219E-2,-7.812498E-1,3.588484E0,2.1025585E-3,-1.5336814E-2,4.0022135E-4,-1.1224126E0,5.766683E-1,3.637044E-1,9.392541E-1,-4.0435806E-1,-4.0216118E-1,1.3541763E0,2.6668328E-1,3.7759754E-1,8.712036E-1,-1.5989039E0,-6.0303017E-2,1.8828887E-3,7.5067384E-3,1.1340693E-3,-5.5139083E-3,-8.677111E-3,-2.7668953E-3,1.9453968E-3,-4.6149823E-3,3.567131E-3,-4.6480895E-4,-5.503842E-3,1.7853711E-3,8.051958E-3,-4.932642E-3,-3.5083105E-3,1.1416577E-3,3.319219E-3,1.1785466E-2,-7.1823704E-3,1.8106565E-3,3.1990635E-3,9.503868E-3,-3.0565998E-3,2.9234416E-4,-2.4226517E-3,-3.1163695E-4,5.657044E-3,-3.6598998E-4,-1.3867555E-3,-6.3946345E-3,1.4350573E-3,5.2876184E-3,-1.2953759E-3,-5.964187E-3,-3.598988E-4,-8.304161E-3,-2.0033196E-3,2.201891E-3,-7.116216E-3,-6.8829063E-4,8.675512E-3,2.9320382E-3,2.044905E-3,-5.6452164E-3,-1.2844776E-2,-7.869959E-4,-1.5953645E-3,-3.6515722E-3,-1.5187998E-4,5.280682E-3],"split_indices":[42,58,17,59,2,40,52,30,7,43,48,20,59,30,32,55,57,16,20,0,35,4,48,45,1,7,25,15,31,56,15,10,7,25,28,9,0,40,11,0,0,16,0,46,10,0,26,0,0,0,0,43,5,39,0,24,29,6,4,43,0,11,0,0,0,0,0,0,0,0,0,0,0,0,0,0,0,0,0,0,0,0,0,0,0,0,0,0,0,0,0,0,0,0,0,0,0,0,0,0,0,0,0,0,0,0,0,0,0,0,0,0,0],"split_type":[0,0,0,0,0,0,0,0,0,0,0,0,0,0,0,0,0,0,0,0,0,0,0,0,0,0,0,0,0,0,0,0,0,0,0,0,0,0,0,0,0,0,0,0,0,0,0,0,0,0,0,0,0,0,0,0,0,0,0,0,0,0,0,0,0,0,0,0,0,0,0,0,0,0,0,0,0,0,0,0,0,0,0,0,0,0,0,0,0,0,0,0,0,0,0,0,0,0,0,0,0,0,0,0,0,0,0,0,0,0,0,0,0],"sum_hessian":[6.57E2,3.97E2,2.6E2,2.66E2,1.31E2,1.01E2,1.59E2,7.7E1,1.89E2,2.5E1,1.06E2,1.3E1,8.8E1,1.01E2,5.8E1,4E1,3.7E1,9E0,1.8E2,4E0,2.1E1,7.2E1,3.4E1,8E0,5E0,5.8E1,3E1,1.8E1,8.3E1,2.6E1,3.2E1,3.2E1,8E0,1.2E1,2.5E1,6E0,3E0,6.2E1,1.18E2,1E0,3E0,1.5E1,6E0,2E1,5.2E1,1E0,3.3E1,5E0,3E0,4E0,1E0,2.1E1,3.7E1,2.7E1,3E0,7E0,1.1E1,6E0,7.7E1,1.9E1,7E0,7E0,2.5E1,1.8E1,1.4E1,5E0,3E0,4E0,8E0,2E1,5E0,5E0,1E0,1.3E1,4.9E1,5E0,1.13E2,1.2E1,3E0,5E0,1E0,5E0,1.5E1,3.5E1,1.7E1,7E0,2.6E1,4E0,1E0,4E0,1.7E1,2.8E1,9E0,1.7E1,1E1,2E0,1E0,2E0,5E0,4E0,7E0,3E0,3E0,3.4E1,4.3E1,1.1E1,8E0,6E0,1E0,3E0,4E0,9E0,1.6E1],"tree_param":{"num_deleted":"0","num_feature":"60","num_nodes":"113","size_leaf_vector":"0"}},{"base_weights":[-1.1992732E-4,-2.1201542E-3,2.0253472E-3,-3.9123883E-3,5.406767E-3,4.2138416E-3,-4.324635E-3,-8.6619E-3,4.3828643E-4,7.637792E-3,-1.8176446E-2,-3.1925396E-3,7.212815E-3,-4.757452E-2,-2.0800252E-3,-3.921906E-3,-2.119294E-2,7.4307593E-3,-6.007916E-3,1.4384213E-2,3.1758996E-3,3.1517744E-3,-4.0555257E-2,8.108991E-3,-7.970899E-3,1.1588203E-3,1.2030802E-2,5.8093825E-3,-1.0745159E-2,-6.97188E-3,1.0841022E-2,-1.622969E-2,-7.037881E-2,3.1963314E-3,2.7630799E-2,2.1938768E-3,-1.4712343E-2,1.8204039E-2,-3.7719347E-3,-6.180691E-4,1.3860819E-2,-3.2948852E-3,6.398956E-3,-5.0685653E-3,1.2543763E-2,3.7380436E-3,-1.4890222E-2,8.2298005E-3,-7.817973E-3,-1.7982377E-3,1.6281316E-2,2.0050494E-2,-2.0272622E-3,1.217736E-2,-1.5423674E-2,-4.8657693E-3,-3.24873E-2,2.9257134E-2,4.8049176E-3,3.7678315E-3,-2.252769E-2,1.7280836E-2,-3.4085931E-3,3.5373844E-2,3.301246E-3,1.6137566E-2,-6.817839E-3,-2.3634693E-2,1.6339964E-3,-4.9403706E-3,2.1050105E-2,-8.436223E-3,7.4426085E-3,-5.6718457E-3,4.4769123E-3,3.2029971E-3,1.7970886E-2,-6.980906E-3,-2.3671687E-3,7.463973E-3,2.2226507E-2,-9.587564E-4,1.4074236E-2,-2.2458311E-2,9.11607E-4,-1.2219364E-2,1.325302E-2,2.452761E-3,-1.8232986E-2,-1.0245302E-2,5.4876036E-3,4.07395E-2,1.2140632E-2,4.240119E-2,4.6350276E-3,1.0832116E-2,-7.712619E-3,-5.4695085E-3,2.677989E-2,-8.668335E-3,-3.8311552E-2],"categories":[],"categories_nodes":[],"categories_segments":[],"categories_sizes":[],"default_left":[1,1,1,1,1,1,1,1,1,1,1,1,1,0,1,1,1,1,1,1,1,1,0,1,1,1,1,1,1,1,1,1,0,1,1,1,1,1,1,1,1,0,0,1,1,1,1,1,1,1,1,1,1,1,1,0,0,0,0,0,0,0,0,0,0,0,0,0,0,0,0,0,0,0,0,0,0,0,0,0,0,0,0,0,0,0,0,0,0,0,0,0,0,0,0,0,0,0,0,0,0],"id":47,"left_children":[1,3,5,7,9,11,13,15,17,19,21,23,25,-1,27,29,31,33,35,37,39,41,-1,43,45,47,49,51,53,55,57,59,-1,61,63,65,67,69,71,73,75,-1,-1,77,79,81,83,85,87,89,91,93,95,97,99,-1,-1,-1,-1,-1,-1,-1,-1,-1,-1,-1,-1,-1,-1,-1,-1,-1,-1,-1,-1,-1,-1,-1,-1,-1,-1,-1,-1,-1,-1,-1,-1,-1,-1,-1,-1,-1,-1,-1,-1,-1,-1,-1,-1,-1,-1],"loss_changes":[2.8277957E-3,4.621245E-3,4.4374377E-3,5.7069445E-3,3.6114003E-3,5.2871625E-3,7.861531E-3,7.757293E-3,6.5805027E-3,1.7905268E-3,2.9916228E-3,3.7908272E-3,4.915462E-3,0E0,5.463082E-3,4.443157E-3,7.64616E-3,5.899175E-3,5.458062E-3,1.7331447E-3,1.5490204E-3,1.0481772E-4,0E0,1.2908074E-3,4.0255403E-3,4.8884195E-3,5.554648E-3,4.727954E-3,4.263067E-3,4.1947262E-3,1.7491686E-3,4.3669892E-3,0E0,5.547501E-3,2.1438412E-3,5.1362854E-3,5.434986E-3,1.4214055E-3,3.243268E-4,7.721105E-4,3.80483E-4,0E0,0E0,1.4470963E-5,6.210827E-4,9.3588734E-4,3.7277527E-3,4.5789313E-3,3.6816956E-3,1.4717334E-3,6.7970995E-3,4.971666E-3,2.130628E-3,1.9502952E-3,4.6155946E-3,0E0,0E0,0E0,0E0,0E0,0E0,0E0,0E0,0E0,0E0,0E0,0E0,0E0,0E0,0E0,0E0,0E0,0E0,0E0,0E0,0E0,0E0,0E0,0E0,0E0,0E0,0E0,0E0,0E0,0E0,0E0,0E0,0E0,0E0,0E0,0E0,0E0,0E0,0E0,0E0,0E0,0E0,0E0,0E0,0E0,0E0],"parents":[2147483647,0,0,1,1,2,2,3,3,4,4,5,5,6,6,7,7,8,8,9,9,10,10,11,11,12,12,14,14,15,15,16,16,17,17,18,18,19,19,20,20,21,21,23,23,24,24,25,25,26,26,27,27,28,28,29,29,30,30,31,31,33,33,34,34,35,35,36,36,37,37,38,38,39,39,40,40,43,43,44,44,45,45,46,46,47,47,48,48,49,49,50,50,51,51,52,52,53,53,54,54],"right_children":[2,4,6,8,10,12,14,16,18,20,22,24,26,-1,28,30,32,34,36,38,40,42,-1,44,46,48,50,52,54,56,58,60,-1,62,64,66,68,70,72,74,76,-1,-1,78,80,82,84,86,88,90,92,94,96,98,100,-1,-1,-1,-1,-1,-1,-1,-1,-1,-1,-1,-1,-1,-1,-1,-1,-1,-1,-1,-1,-1,-1,-1,-1,-1,-1,-1,-1,-1,-1,-1,-1,-1,-1,-1,-1,-1,-1,-1,-1,-1,-1,-1,-1,-1,-1],"split_conditions":[1.4076775E-1,1.014013E0,6.4110357E-1,-1.6801076E-2,1.6853597E0,-8.633069E-1,6.588972E-1,-4.8710215E-1,3.6859564E-2,-4.74077E-1,-1.6181486E0,-6.523789E-1,-3.0379847E-2,-1.4272356E-2,-6.816742E-2,1.4576097E0,1.1257411E0,7.9279655E-1,-2.4483636E-2,1.0404048E0,5.409988E-1,-2.844948E0,-1.2166577E-2,-2.1953055E-1,-6.0798526E-1,2.7973336E-1,-7.1734285E-1,-3.339947E-1,-1.5871536E0,2.001179E0,-1.7365147E0,-9.142037E-1,-2.1113643E-2,-6.511643E-1,5.176374E-1,-2.9525977E-1,6.4199126E-1,-1.223279E0,1.5642003E0,4.0947076E-2,4.1655E-1,-9.884656E-4,1.9196868E-3,-5.613326E-1,6.9343805E-1,5.054034E-1,2.816495E-1,-1.0318999E0,4.6655588E-2,-5.4483587E-1,-2.3762622E-1,-8.0324036E-1,-8.128673E-1,-5.041431E-1,7.9245555E-1,-1.4597308E-3,-9.74619E-3,8.777141E-3,1.4414754E-3,1.1303495E-3,-6.758307E-3,5.184251E-3,-1.022578E-3,1.0612153E-2,9.903739E-4,4.84127E-3,-2.0453518E-3,-7.090408E-3,4.9019896E-4,-1.4821113E-3,6.3150316E-3,-2.5308668E-3,2.2327825E-3,-1.7015538E-3,1.3430738E-3,9.6089917E-4,5.391266E-3,-2.0942718E-3,-7.1015063E-4,2.239192E-3,6.6679525E-3,-2.8762693E-4,4.222271E-3,-6.7374934E-3,2.7348212E-4,-3.6658093E-3,3.9759064E-3,7.358283E-4,-5.469896E-3,-3.0735906E-3,1.6462811E-3,1.222185E-2,3.6421895E-3,1.2720358E-2,1.3905084E-3,3.249635E-3,-2.3137857E-3,-1.6408527E-3,8.033968E-3,-2.6005006E-3,-1.1493466E-2],"split_indices":[31,5,54,53,36,2,54,53,33,49,2,27,39,0,13,59,2,41,19,47,45,0,0,23,25,17,3,11,41,22,21,48,0,50,12,26,28,57,0,33,19,0,0,10,46,38,25,6,45,41,3,14,53,11,5,0,0,0,0,0,0,0,0,0,0,0,0,0,0,0,0,0,0,0,0,0,0,0,0,0,0,0,0,0,0,0,0,0,0,0,0,0,0,0,0,0,0,0,0,0,0],"split_type":[0,0,0,0,0,0,0,0,0,0,0,0,0,0,0,0,0,0,0,0,0,0,0,0,0,0,0,0,0,0,0,0,0,0,0,0,0,0,0,0,0,0,0,0,0,0,0,0,0,0,0,0,0,0,0,0,0,0,0,0,0,0,0,0,0,0,0,0,0,0,0,0,0,0,0,0,0,0,0,0,0,0,0,0,0,0,0,0,0,0,0,0,0,0,0,0,0,0,0,0,0],"sum_hessian":[6.57E2,3.4E2,3.17E2,2.75E2,6.5E1,2.36E2,8.1E1,1.31E2,1.44E2,6E1,5E0,6.8E1,1.68E2,3E0,7.8E1,9.6E1,3.5E1,6.9E1,7.5E1,2.3E1,3.7E1,3E0,2E0,2E1,4.8E1,7.5E1,9.3E1,4.1E1,3.7E1,8E1,1.6E1,3.3E1,2E0,5.8E1,1.1E1,3.9E1,3.6E1,1.9E1,4E0,2.8E1,9E0,1E0,2E0,5E0,1.5E1,1.8E1,3E1,4.2E1,3.3E1,2.2E1,7.1E1,1.4E1,2.7E1,6E0,3.1E1,7.5E1,5E0,3E0,1.3E1,8E0,2.5E1,1.8E1,4E1,8E0,3E0,1.5E1,2.4E1,2.3E1,1.3E1,2E0,1.7E1,3E0,1E0,1.4E1,1.4E1,3E0,6E0,2E0,3E0,1.1E1,4E0,1.3E1,5E0,2E1,1E1,8E0,3.4E1,1.7E1,1.6E1,1E1,1.2E1,9E0,6.2E1,5E0,9E0,8E0,1.9E1,3E0,3E0,2.5E1,6E0],"tree_param":{"num_deleted":"0","num_feature":"60","num_nodes":"101","size_leaf_vector":"0"}},{"base_weights":[-9.8863275E-5,-1.7075979E-3,1.973843E-3,1.2356164E-4,-8.477498E-3,-3.9267517E-3,3.9955648E-3,5.773676E-3,-2.8338742E-3,-3.1235795E-3,-2.2207035E-2,-1.6018644E-2,1.166614E-3,-4.478115E-3,6.0786437E-3,1.1194461E-2,-1.5031244E-3,1.1927879E-2,-4.235659E-3,-1.1830033E-2,2.9358051E-3,1.4708498E-3,-3.335477E-2,-8.687337E-3,-4.6837687E-2,-1.2443091E-2,4.2332145E-3,2.9987828E-3,-1.1751463E-2,1.32846E-2,2.8720784E-3,1.0103538E-3,1.7858006E-2,-7.7480213E-3,7.947728E-3,8.136597E-4,2.171678E-2,-5.552861E-4,-9.119375E-3,4.6537593E-3,-1.8891227E-2,-6.2539564E-3,8.6503895E-3,-3.7274987E-3,7.601073E-3,-9.259539E-3,-5.9569385E-2,-2.2546243E-2,-5.5659335E-4,8.2013506E-4,-2.5870344E-2,-1.7140172E-2,6.215174E-3,1.04785375E-2,-7.024777E-3,3.8155436E-3,-1.5422772E-2,6.3491184E-3,3.0431215E-2,2.346093E-2,5.999122E-4,-9.526148E-3,5.9092753E-3,3.0122548E-2,3.1001065E-3,2.1302626E-3,-1.4672483E-2,1.8237472E-2,-4.368401E-3,4.9183764E-3,-5.5468306E-3,3.4886599E-3,3.0249394E-2,8.305179E-4,-1.9481272E-2,-5.392581E-3,-2.8546223E-2,-3.3278976E-4,1.9779801E-2,-2.4376165E-2,-8.521423E-4,-1.1735515E-3,-9.917566E-3,-4.6329754E-3,1.3921212E-2,-8.716583E-4,-5.3408393E-3,8.899815E-3,1.852423E-3,-1.5958235E-2,3.1033903E-3,-8.322328E-3,-6.672351E-2,-3.8396835E-2,-1.3505004E-2,9.470075E-3,-4.5116013E-3,-2.8442517E-3,5.4326057E-3,-2.9301822E-2,-6.072213E-3,-3.1816382E-3,-2.0732472E-2,2.2602591E-3,1.3681063E-2,1.9063128E-2,3.9701376E-4,-1.1456439E-3,-1.5557066E-2,5.9110224E-3,-2.2831857E-3,-5.0156293E-3,-2.1589532E-2,-1.4679487E-3,2.2096172E-2,1.5024E-2,5.8240842E-2,9.706986E-3,6.1487097E-2,9.928971E-3,-3.7042585E-3],"categories":[],"categories_nodes":[],"categories_segments":[],"categories_sizes":[],"default_left":[1,1,1,1,1,1,1,1,1,1,1,1,1,1,1,1,1,1,1,1,1,1,1,1,0,1,1,1,1,1,1,1,1,1,1,1,1,1,1,1,1,1,1,1,1,1,1,1,1,1,1,1,1,1,1,1,1,1,1,1,1,0,0,0,0,0,0,0,0,0,0,0,0,0,0,0,0,0,0,0,0,0,0,0,0,0,0,0,0,0,0,0,0,0,0,0,0,0,0,0,0,0,0,0,0,0,0,0,0,0,0,0,0,0,0,0,0,0,0,0,0],"id":48,"left_children":[1,3,5,7,9,11,13,15,17,19,21,23,25,27,29,31,33,35,37,39,41,43,45,47,-1,49,51,53,55,57,59,61,63,65,67,69,71,73,75,77,79,81,83,85,87,89,91,93,95,97,99,101,103,105,107,109,111,113,115,117,119,-1,-1,-1,-1,-1,-1,-1,-1,-1,-1,-1,-1,-1,-1,-1,-1,-1,-1,-1,-1,-1,-1,-1,-1,-1,-1,-1,-1,-1,-1,-1,-1,-1,-1,-1,-1,-1,-1,-1,-1,-1,-1,-1,-1,-1,-1,-1,-1,-1,-1,-1,-1,-1,-1,-1,-1,-1,-1,-1,-1],"loss_changes":[2.1974281E-3,4.600248E-3,3.451345E-3,4.912348E-3,5.737673E-3,4.576231E-3,3.8222598E-3,4.0008696E-3,4.0442334E-3,3.094564E-3,5.856066E-3,4.56387E-3,2.2646575E-3,2.3736695E-3,3.959248E-3,3.917968E-3,2.6584417E-3,1.8318619E-3,3.1763155E-3,2.8814017E-3,1.8921474E-3,2.8326927E-4,8.923123E-3,2.128432E-3,0E0,1.802104E-3,1.9704215E-3,1.7230323E-3,1.3161744E-3,6.1095497E-3,5.6464616E-3,1.2951125E-3,6.2415795E-3,1.8781049E-3,2.3608052E-3,2.622535E-4,1.294272E-3,2.6914056E-3,5.348451E-3,6.0999655E-4,1.6612634E-3,2.4893793E-4,1.6048102E-3,1.8381827E-5,1.3377852E-5,7.9486414E-4,2.0110998E-3,4.8461347E-4,5.5824744E-4,1.1686296E-4,1.6175723E-4,1.3460976E-4,1.1796824E-3,1.1175264E-3,4.8380182E-4,7.7394754E-5,1.0469253E-3,4.8331716E-3,5.5520227E-3,5.679263E-3,4.453704E-3,0E0,0E0,0E0,0E0,0E0,0E0,0E0,0E0,0E0,0E0,0E0,0E0,0E0,0E0,0E0,0E0,0E0,0E0,0E0,0E0,0E0,0E0,0E0,0E0,0E0,0E0,0E0,0E0,0E0,0E0,0E0,0E0,0E0,0E0,0E0,0E0,0E0,0E0,0E0,0E0,0E0,0E0,0E0,0E0,0E0,0E0,0E0,0E0,0E0,0E0,0E0,0E0,0E0,0E0,0E0,0E0,0E0,0E0,0E0,0E0],"parents":[2147483647,0,0,1,1,2,2,3,3,4,4,5,5,6,6,7,7,8,8,9,9,10,10,11,11,12,12,13,13,14,14,15,15,16,16,17,17,18,18,19,19,20,20,21,21,22,22,23,23,25,25,26,26,27,27,28,28,29,29,30,30,31,31,32,32,33,33,34,34,35,35,36,36,37,37,38,38,39,39,40,40,41,41,42,42,43,43,44,44,45,45,46,46,47,47,48,48,49,49,50,50,51,51,52,52,53,53,54,54,55,55,56,56,57,57,58,58,59,59,60,60],"right_children":[2,4,6,8,10,12,14,16,18,20,22,24,26,28,30,32,34,36,38,40,42,44,46,48,-1,50,52,54,56,58,60,62,64,66,68,70,72,74,76,78,80,82,84,86,88,90,92,94,96,98,100,102,104,106,108,110,112,114,116,118,120,-1,-1,-1,-1,-1,-1,-1,-1,-1,-1,-1,-1,-1,-1,-1,-1,-1,-1,-1,-1,-1,-1,-1,-1,-1,-1,-1,-1,-1,-1,-1,-1,-1,-1,-1,-1,-1,-1,-1,-1,-1,-1,-1,-1,-1,-1,-1,-1,-1,-1,-1,-1,-1,-1,-1,-1,-1,-1,-1,-1],"split_conditions":[2.0313443E-1,-1.291799E-1,-8.5389066E-1,-6.1808044E-1,3.929845E-1,-1.3474826E0,-1.2780226E0,2.4750596E-1,-2.3243299E0,-1.9525221E-1,-9.328804E-1,-1.6215782E0,-7.895181E-1,-3.478362E-1,-5.033786E-1,-5.0451577E-1,5.9455884E-1,5.3528287E-2,1.389276E-1,-7.056212E-1,-2.1488363E-1,-6.6329837E-1,3.4711057E-1,-5.703193E-1,-1.4051307E-2,-6.9495296E-1,-2.291683E0,-3.5591707E-1,-2.3158869E-1,4.8885316E-1,-1.6434397E0,-4.9744225E-1,1.5153775E-1,-4.1677386E-1,2.1569353E-1,-3.0248308E-1,-4.8388115E-1,3.5228596E0,1.1380751E0,1.7829772E0,4.167635E-1,1.7292073E-1,-2.160336E-1,-3.4826818E-1,1.1895225E0,1.111799E0,-8.0269545E-1,4.342093E-1,-1.2296729E0,8.934451E-2,4.2052346E-1,-6.9788456E-2,3.641618E-1,1.500023E-1,4.901665E-2,1.9216342E-1,1.961982E-1,1.0754066E0,-8.813214E-1,2.2424126E0,-6.048062E-1,-2.8578446E-3,1.7727826E-3,9.0367645E-3,9.30032E-4,6.390788E-4,-4.4017453E-3,5.4712417E-3,-1.3105203E-3,1.475513E-3,-1.6640492E-3,1.046598E-3,9.074818E-3,2.491554E-4,-5.8443816E-3,-1.6177745E-3,-8.563868E-3,-9.983693E-5,5.933941E-3,-7.3128496E-3,-2.556427E-4,-3.520655E-4,-2.97527E-3,-1.3898927E-3,4.176364E-3,-2.614975E-4,-1.6022519E-3,2.6699447E-3,5.5572693E-4,-4.7874707E-3,9.3101716E-4,-2.4966986E-3,-2.0017054E-2,-1.1519051E-2,-4.0515014E-3,2.8410228E-3,-1.3534804E-3,-8.5327553E-4,1.6297818E-3,-8.790547E-3,-1.8216639E-3,-9.544915E-4,-6.219742E-3,6.7807775E-4,4.104319E-3,5.7189385E-3,1.1910413E-4,-3.436932E-4,-4.66712E-3,1.7733068E-3,-6.8495574E-4,-1.5046889E-3,-6.47686E-3,-4.403846E-4,6.628852E-3,4.5072003E-3,1.7472254E-2,2.912096E-3,1.844613E-2,2.9786914E-3,-1.1112776E-3],"split_indices":[19,19,38,51,54,52,34,5,32,26,26,52,54,57,28,37,45,14,26,38,52,14,23,3,0,56,33,23,8,37,37,11,53,4,35,16,16,45,24,3,51,59,32,0,1,4,6,15,28,3,0,2,18,0,12,2,55,15,28,18,14,0,0,0,0,0,0,0,0,0,0,0,0,0,0,0,0,0,0,0,0,0,0,0,0,0,0,0,0,0,0,0,0,0,0,0,0,0,0,0,0,0,0,0,0,0,0,0,0,0,0,0,0,0,0,0,0,0,0,0,0],"split_type":[0,0,0,0,0,0,0,0,0,0,0,0,0,0,0,0,0,0,0,0,0,0,0,0,0,0,0,0,0,0,0,0,0,0,0,0,0,0,0,0,0,0,0,0,0,0,0,0,0,0,0,0,0,0,0,0,0,0,0,0,0,0,0,0,0,0,0,0,0,0,0,0,0,0,0,0,0,0,0,0,0,0,0,0,0,0,0,0,0,0,0,0,0,0,0,0,0,0,0,0,0,0,0,0,0,0,0,0,0,0,0,0,0,0,0,0,0,0,0,0,0],"sum_hessian":[6.57E2,3.7E2,2.87E2,2.92E2,7.8E1,7.3E1,2.14E2,1E2,1.92E2,5.7E1,2.1E1,2.1E1,5.2E1,4.2E1,1.72E2,5.7E1,4.3E1,1.6E1,1.76E2,2.3E1,3.4E1,7E0,1.4E1,1.8E1,3E0,9E0,4.3E1,2.1E1,2.1E1,5.2E1,1.2E2,2.3E1,3.4E1,2.6E1,1.7E1,8E0,8E0,1.01E2,7.5E1,7E0,1.6E1,1.3E1,2.1E1,4E0,3E0,8E0,6E0,6E0,1.2E1,5E0,4E0,3E0,4E1,1.2E1,9E0,4E0,1.7E1,3.8E1,1.4E1,1.1E1,1.09E2,7E0,1.6E1,1.8E1,1.6E1,1.1E1,1.5E1,9E0,8E0,5E0,3E0,3E0,5E0,9.5E1,6E0,6.4E1,1.1E1,6E0,1E0,1.2E1,4E0,6E0,7E0,6E0,1.5E1,2E0,2E0,2E0,1E0,5E0,3E0,1E0,5E0,1E0,5E0,3E0,9E0,3E0,2E0,3E0,1E0,1E0,2E0,2.7E1,1.3E1,6E0,6E0,6E0,3E0,3E0,1E0,7E0,1E1,2.6E1,1.2E1,1E1,4E0,9E0,2E0,3.4E1,7.5E1],"tree_param":{"num_deleted":"0","num_feature":"60","num_nodes":"121","size_leaf_vector":"0"}},{"base_weights":[-9.790304E-5,-7.746958E-4,4.022125E-3,-1.7025659E-3,3.5140389E-3,1.8745262E-2,2.2214882E-3,-2.5265717E-3,5.8758906E-3,2.9295573E-2,9.812661E-4,6.6187024E-2,6.119842E-3,5.8311587E-3,-2.0930336E-3,-4.2806636E-3,9.870904E-4,3.502202E-2,4.449932E-3,9.84472E-4,5.174756E-2,-1.6163955E-2,2.7850983E-3,1.2661229E-2,-5.2221976E-3,2.1659266E-2,3.8080232E-3,9.817771E-3,-5.993534E-3,-6.8474873E-3,2.860845E-3,-5.3044604E-3,4.5022774E-3,2.3800293E-2,2.9964196E-3,5.9202015E-3,-4.2794147E-3,-1.9346919E-2,4.6498775E-3,-2.6987676E-4,1.7059641E-2,1.4212263E-2,2.4530292E-3,-1.3671517E-3,2.775766E-2,-3.6941415E-3,6.2678913E-3,3.371789E-3,1.8643796E-2,-8.585934E-3,5.8070547E-3,-5.685574E-3,-3.5039376E-2,-1.6841519E-3,1.0550096E-2,-1.1889053E-2,4.668245E-3,1.0870597E-2,-2.5473055E-3,5.2813734E-3,-5.0720647E-3,-1.1302656E-2,-2.4565518E-2,-3.8226962E-2,8.1846677E-4,-1.3678378E-3,2.6410162E-2,3.073424E-3,-5.5395365E-3,8.420447E-3,-4.4632577E-3,4.0893754E-4,4.475142E-3,-1.2739288E-2,-1.0819733E-3,1.6347617E-3,9.434427E-3],"categories":[],"categories_nodes":[],"categories_segments":[],"categories_sizes":[],"default_left":[1,1,1,1,1,1,1,1,1,1,1,0,1,1,1,1,1,0,1,1,0,1,1,1,0,1,1,1,1,1,1,1,1,0,1,0,0,1,0,1,1,0,0,0,0,1,1,1,0,1,1,0,0,0,0,0,0,0,0,0,0,0,0,0,0,0,0,0,0,0,0,0,0,0,0,0,0],"id":49,"left_children":[1,3,5,7,9,11,13,15,17,19,21,-1,23,25,27,29,31,-1,33,35,-1,37,39,41,-1,43,45,47,49,51,53,55,57,-1,59,-1,-1,61,-1,63,65,-1,-1,-1,-1,67,69,71,-1,73,75,-1,-1,-1,-1,-1,-1,-1,-1,-1,-1,-1,-1,-1,-1,-1,-1,-1,-1,-1,-1,-1,-1,-1,-1,-1,-1],"loss_changes":[1.8378866E-3,2.258317E-3,2.4238834E-3,2.9248723E-3,6.5664286E-3,5.584668E-3,1.320421E-3,2.5989688E-3,1.7559688E-3,5.66982E-3,2.9212385E-3,0E0,7.338534E-4,1.390552E-3,1.8707089E-3,5.1705986E-3,3.1422349E-3,0E0,1.1943536E-3,1.5524062E-4,0E0,6.862078E-4,3.7113153E-3,6.013643E-5,0E0,7.4006943E-4,7.9823664E-4,5.06061E-4,9.6761435E-4,6.581383E-3,2.6388394E-3,3.4044771E-3,4.1130446E-3,0E0,8.1954023E-4,0E0,0E0,5.8182748E-5,0E0,2.9643222E-3,2.620723E-3,0E0,0E0,0E0,0E0,1.544025E-4,7.767634E-4,2.1053442E-5,0E0,7.6538173E-4,7.538371E-5,0E0,0E0,0E0,0E0,0E0,0E0,0E0,0E0,0E0,0E0,0E0,0E0,0E0,0E0,0E0,0E0,0E0,0E0,0E0,0E0,0E0,0E0,0E0,0E0,0E0,0E0],"parents":[2147483647,0,0,1,1,2,2,3,3,4,4,5,5,6,6,7,7,8,8,9,9,10,10,12,12,13,13,14,14,15,15,16,16,18,18,19,19,21,21,22,22,23,23,25,25,26,26,27,27,28,28,29,29,30,30,31,31,32,32,34,34,37,37,39,39,40,40,45,45,46,46,47,47,49,49,50,50],"right_children":[2,4,6,8,10,12,14,16,18,20,22,-1,24,26,28,30,32,-1,34,36,-1,38,40,42,-1,44,46,48,50,52,54,56,58,-1,60,-1,-1,62,-1,64,66,-1,-1,-1,-1,68,70,72,-1,74,76,-1,-1,-1,-1,-1,-1,-1,-1,-1,-1,-1,-1,-1,-1,-1,-1,-1,-1,-1,-1,-1,-1,-1,-1,-1,-1],"split_conditions":[1.2561059E0,1.0289288E0,1.350103E0,1.8145683E0,1.111799E0,-7.366635E-1,2.871281E-1,4.7588575E-1,-2.5644202E0,-2.4517536E-2,-1.976246E0,1.9856108E-2,1.6577278E-1,1.4808828E0,-6.859544E-1,8.974893E-1,-4.5061025E-1,1.0506607E-2,-3.179958E0,-3.6798146E-1,1.5524269E-2,1.8056239E0,8.0442E-1,1.117449E0,-1.5666593E-3,2.1244098E-1,-1.2840343E0,2.7723855E-1,1.9997609E0,7.236979E-1,4.2445853E-1,3.9339188E-1,-9.464293E-2,7.1400884E-3,1.4416311E0,1.7760606E-3,-1.2838244E-3,-7.60303E-2,1.3949634E-3,-3.0018759E0,-2.4572207E-1,4.263679E-3,7.359088E-4,-4.1014553E-4,8.327298E-3,-1.5611569E0,8.8626313E-1,-6.7560935E-1,5.593139E-3,3.545404E-1,-7.6943046E-1,-1.7056722E-3,-1.0511814E-2,-5.052456E-4,3.1650288E-3,-3.5667159E-3,1.4004735E-3,3.2611794E-3,-7.641917E-4,1.5844121E-3,-1.5216195E-3,-3.3907967E-3,-7.3696557E-3,-1.1468089E-2,2.4554005E-4,-4.1035135E-4,7.923049E-3,9.220273E-4,-1.661861E-3,2.5261343E-3,-1.3389774E-3,1.2268127E-4,1.3425426E-3,-3.8217865E-3,-3.24592E-4,4.9042853E-4,2.8303282E-3],"split_indices":[26,16,26,25,16,18,40,19,54,42,45,0,31,26,31,0,38,0,40,3,0,2,24,3,0,2,48,44,35,0,30,42,16,0,27,0,0,40,0,52,15,0,0,0,0,2,20,14,0,7,3,0,0,0,0,0,0,0,0,0,0,0,0,0,0,0,0,0,0,0,0,0,0,0,0,0,0],"split_type":[0,0,0,0,0,0,0,0,0,0,0,0,0,0,0,0,0,0,0,0,0,0,0,0,0,0,0,0,0,0,0,0,0,0,0,0,0,0,0,0,0,0,0,0,0,0,0,0,0,0,0,0,0,0,0,0,0,0,0,0,0,0,0,0,0,0,0,0,0,0,0,0,0,0,0,0,0],"sum_hessian":[6.57E2,5.65E2,9.2E1,4.65E2,1E2,9E0,8.3E1,4.2E2,4.5E1,8E0,9.2E1,1E0,8E0,4.5E1,3.8E1,2.8E2,1.4E2,1E0,4.4E1,4E0,4E0,8E0,8.4E1,5E0,3E0,4E0,4.1E1,9E0,2.9E1,2.06E2,7.4E1,5E1,9E1,2E0,4.2E1,2E0,2E0,7E0,1E0,7E1,1.4E1,4E0,1E0,1E0,3E0,1E1,3.1E1,6E0,3E0,2.4E1,5E0,1.99E2,7E0,4.7E1,2.7E1,3E1,2E1,4.7E1,4.3E1,3.3E1,9E0,4E0,3E0,1E0,6.9E1,5E0,9E0,2E0,8E0,2.6E1,5E0,2E0,4E0,1.5E1,9E0,3E0,2E0],"tree_param":{"num_deleted":"0","num_feature":"60","num_nodes":"77","size_leaf_vector":"0"}},{"base_weights":[6.4034925E-6,9.344142E-4,-2.4074735E-3,5.021214E-3,-3.3685722E-4,2.8740505E-3,-5.0717937E-3,-5.7702896E-4,1.0531366E-2,-2.3422965E-3,3.709953E-3,-3.4633887E-3,6.7003197E-3,6.0315053E-3,-7.5748344E-3,-7.964874E-3,4.654892E-3,3.1992886E-2,7.3791696E-3,-4.5084986E-3,3.820592E-3,4.6250224E-2,2.606333E-3,-2.0839004E-2,1.11756935E-5,4.1414024E-3,1.7806599E-2,9.95988E-3,-4.3704766E-3,-2.489498E-2,-5.373763E-3,-3.583385E-3,-2.051211E-2,-7.2940914E-3,1.2399219E-2,4.1373324E-2,5.6945286E-3,1.5620357E-2,2.7991533E-3,-6.0822093E-3,7.7713076E-3,5.9223955E-4,1.9321542E-2,1.3116419E-2,5.6258917E-2,8.262095E-3,-2.3831825E-3,-3.5948644E-3,3.6161998E-3,9.2359283E-4,7.1155997E-3,4.1974485E-3,2.2410769E-2,3.2667369E-3,1.4318407E-2,-8.3489865E-3,7.006526E-4,-9.1043655E-3,-6.39685E-2,2.5086887E-3,-9.1622835E-3,-6.2231678E-3,5.052641E-3,1.6533056E-3,-1.2448568E-2,1.8636019E-3,2.0145632E-2,9.951047E-3,3.2975182E-2,-3.945732E-3,6.196521E-3,-8.0659585E-3,2.166841E-3,1.4065393E-2,-4.214756E-3,-2.6796956E-3,1.0132032E-2,2.645031E-2,2.336204E-4,-3.1848734E-3,1.47099905E-2,4.200802E-3,-6.7113987E-3,7.6413155E-4,-6.194881E-3,-1.1620522E-3,4.2102304E-3,-2.1006868E-3,4.588493E-3,8.630068E-3,1.754862E-3,4.599149E-3,-4.8699975E-4,4.2433143E-3,1.8030116E-2,-6.388426E-4,1.3600985E-3,-2.8853297E-2,6.6008634E-4,1.40842125E-2,-1.6266537E-3,-1.5380668E-2,-1.2841632E-3],"categories":[],"categories_nodes":[],"categories_segments":[],"categories_sizes":[],"default_left":[1,1,1,1,1,1,1,1,1,1,1,1,1,1,1,1,1,1,1,1,1,1,1,0,1,1,1,1,1,1,1,1,0,1,1,0,0,1,1,1,1,1,1,0,0,1,1,1,1,1,1,0,0,1,1,0,1,1,0,1,1,0,0,0,0,0,0,0,0,0,0,0,0,0,0,0,0,0,0,0,0,0,0,0,0,0,0,0,0,0,0,0,0,0,0,0,0,0,0,0,0,0,0],"id":50,"left_children":[1,3,5,7,9,11,13,15,17,19,21,23,25,27,29,31,33,35,37,39,41,43,45,-1,47,49,51,53,55,57,59,61,-1,63,65,-1,-1,67,69,71,73,75,77,-1,-1,79,81,83,85,87,89,-1,-1,91,93,-1,95,97,-1,99,101,-1,-1,-1,-1,-1,-1,-1,-1,-1,-1,-1,-1,-1,-1,-1,-1,-1,-1,-1,-1,-1,-1,-1,-1,-1,-1,-1,-1,-1,-1,-1,-1,-1,-1,-1,-1,-1,-1,-1,-1,-1,-1],"loss_changes":[1.4762378E-3,2.474717E-3,2.5896924E-3,3.4918073E-3,2.9627797E-3,1.5266282E-3,3.4363128E-3,2.2402748E-3,3.620022E-3,3.27464E-3,5.5601997E-3,1.4491775E-3,1.0346376E-3,9.833756E-4,3.678508E-3,1.2459109E-3,3.2366938E-3,1.491229E-3,1.8812597E-3,3.545067E-3,3.1912788E-3,2.569626E-4,3.377812E-3,0E0,2.8599685E-4,3.092513E-4,3.4454395E-4,4.491536E-4,1.470785E-4,6.204552E-3,2.7106407E-3,4.645909E-4,0E0,6.662493E-4,1.6763343E-3,0E0,0E0,1.4428804E-3,8.03555E-4,2.6520896E-3,1.6435497E-3,1.7126844E-3,1.4906279E-3,0E0,0E0,4.1801454E-3,1.8519956E-3,1.294018E-4,3.611522E-5,1.9806159E-4,1.2287276E-4,0E0,0E0,4.2251973E-5,2.974507E-4,0E0,4.402187E-6,1.7545831E-3,0E0,1.4589728E-3,2.9685888E-3,0E0,0E0,0E0,0E0,0E0,0E0,0E0,0E0,0E0,0E0,0E0,0E0,0E0,0E0,0E0,0E0,0E0,0E0,0E0,0E0,0E0,0E0,0E0,0E0,0E0,0E0,0E0,0E0,0E0,0E0,0E0,0E0,0E0,0E0,0E0,0E0,0E0,0E0,0E0,0E0,0E0,0E0],"parents":[2147483647,0,0,1,1,2,2,3,3,4,4,5,5,6,6,7,7,8,8,9,9,10,10,11,11,12,12,13,13,14,14,15,15,16,16,17,17,18,18,19,19,20,20,21,21,22,22,24,24,25,25,26,26,27,27,28,28,29,29,30,30,31,31,33,33,34,34,37,37,38,38,39,39,40,40,41,41,42,42,45,45,46,46,47,47,48,48,49,49,50,50,53,53,54,54,56,56,57,57,59,59,60,60],"right_children":[2,4,6,8,10,12,14,16,18,20,22,24,26,28,30,32,34,36,38,40,42,44,46,-1,48,50,52,54,56,58,60,62,-1,64,66,-1,-1,68,70,72,74,76,78,-1,-1,80,82,84,86,88,90,-1,-1,92,94,-1,96,98,-1,100,102,-1,-1,-1,-1,-1,-1,-1,-1,-1,-1,-1,-1,-1,-1,-1,-1,-1,-1,-1,-1,-1,-1,-1,-1,-1,-1,-1,-1,-1,-1,-1,-1,-1,-1,-1,-1,-1,-1,-1,-1,-1,-1],"split_conditions":[7.016843E-1,-8.0057156E-1,-4.8893055E-1,3.8821947E-2,4.442671E-1,-7.032155E-1,-1.7446439E0,-2.3248686E-1,1.4850107E-1,1.8050948E-1,4.5852065E-1,-1.3248284E0,1.1944058E0,1.2246747E0,-1.0040616E0,1.3388921E0,-5.475459E-1,9.1633016E-1,-6.052585E-2,1.530121E0,1.1149392E0,-2.0124005E-1,-6.854838E-2,-6.2517016E-3,2.7474161E-2,-6.0419357E-1,-3.9046288E-1,-2.7334195E-1,-2.5807875E-1,3.5787264E-1,-5.844346E-1,1.309737E0,-6.1536334E-3,-3.3312306E-1,-2.2861119E-1,1.2411998E-2,1.7083586E-3,-2.1647063E-1,-6.049195E-1,1.1534909E0,6.342745E-1,4.841318E-1,5.205388E-1,3.934926E-3,1.6877675E-2,-5.6967723E-1,-2.1650909E-1,-1.5970987E-1,-2.9949675E0,7.093504E-2,6.0873854E-1,1.2592346E-3,6.723231E-3,-3.1485015E-1,-7.3686194E-1,-2.5046961E-3,1.6720456E-1,-8.1649715E-1,-1.9190552E-2,-4.7225082E-1,3.10193E-1,-1.8669504E-3,1.5157923E-3,4.959917E-4,-3.7345705E-3,5.5908057E-4,6.04369E-3,2.9853142E-3,9.892555E-3,-1.1837196E-3,1.8589564E-3,-2.4197877E-3,6.5005233E-4,4.219618E-3,-1.2644269E-3,-8.0390874E-4,3.0396099E-3,7.935094E-3,7.008613E-5,-9.5546205E-4,4.4129975E-3,1.2602407E-3,-2.0134198E-3,2.2923948E-4,-1.8584644E-3,-3.4861566E-4,1.2630692E-3,-6.302061E-4,1.376548E-3,2.5890204E-3,5.264586E-4,1.3797447E-3,-1.4609993E-4,1.2729943E-3,5.409035E-3,-1.9165278E-4,4.0802956E-4,-8.65599E-3,1.9802591E-4,4.225264E-3,-4.8799612E-4,-4.614201E-3,-3.8524898E-4],"split_indices":[36,49,24,48,1,48,28,12,48,36,1,56,20,56,28,4,4,8,56,38,30,0,30,0,27,7,2,31,20,4,50,6,0,8,9,0,0,56,11,5,9,47,40,0,0,56,48,51,28,47,31,0,0,16,26,0,0,15,0,4,43,0,0,0,0,0,0,0,0,0,0,0,0,0,0,0,0,0,0,0,0,0,0,0,0,0,0,0,0,0,0,0,0,0,0,0,0,0,0,0,0,0,0],"split_type":[0,0,0,0,0,0,0,0,0,0,0,0,0,0,0,0,0,0,0,0,0,0,0,0,0,0,0,0,0,0,0,0,0,0,0,0,0,0,0,0,0,0,0,0,0,0,0,0,0,0,0,0,0,0,0,0,0,0,0,0,0,0,0,0,0,0,0,0,0,0,0,0,0,0,0,0,0,0,0,0,0,0,0,0,0,0,0,0,0,0,0,0,0,0,0,0,0,0,0,0,0,0,0],"sum_hessian":[6.57E2,4.75E2,1.82E2,1.12E2,3.63E2,6.1E1,1.21E2,5.6E1,5.6E1,2.43E2,1.2E2,2.3E1,3.8E1,2.2E1,9.9E1,2.3E1,3.3E1,6E0,5E1,1.8E2,6.3E1,2E0,1.18E2,3E0,2E1,3.2E1,6E0,1.6E1,6E0,1E1,8.9E1,1.8E1,5E0,1.3E1,2E1,4E0,2E0,1.7E1,3.3E1,1.6E2,2E1,5.3E1,1E1,1E0,1E0,5.5E1,6.3E1,1E1,1E1,1.6E1,1.6E1,2E0,4E0,7E0,9E0,3E0,3E0,8E0,2E0,2.9E1,6E1,1.4E1,4E0,5E0,8E0,9E0,1.1E1,1.4E1,3E0,1.1E1,2.2E1,1.29E2,3.1E1,1.3E1,7E0,4E1,1.3E1,7E0,3E0,2E1,3.5E1,2.5E1,3.8E1,4E0,6E0,1E0,9E0,9E0,7E0,1.2E1,4E0,5E0,2E0,3E0,6E0,1E0,2E0,2E0,6E0,7E0,2.2E1,3.3E1,2.7E1],"tree_param":{"num_deleted":"0","num_feature":"60","num_nodes":"103","size_leaf_vector":"0"}},{"base_weights":[6.6900975E-5,1.6695358E-3,-1.0809934E-3,4.543334E-3,-4.2440224E-4,-2.2496365E-3,3.928562E-3,3.7511871E-3,4.782009E-2,-5.367419E-3,1.3804634E-3,-9.127631E-3,-1.0258944E-3,7.3254835E-3,-2.8865458E-3,1.6430004E-2,2.9025367E-3,2.2261933E-4,-1.2440238E-2,-1.6903978E-4,1.50818275E-2,-4.3461337E-3,-2.8833268E-2,-1.4746128E-2,-3.1963884E-4,1.1473112E-2,1.7274906E-4,-2.0136992E-2,-5.109856E-4,2.8063217E-2,6.164074E-3,1.617367E-3,1.3156211E-2,7.216024E-3,-3.4928669E-3,-4.9087363E-3,-2.0263158E-2,-7.825592E-3,1.7915787E-3,6.4852126E-3,2.5820047E-2,-8.484372E-3,3.649603E-3,-5.3576604E-2,-7.532167E-3,-3.4811214E-2,-5.245481E-3,-4.9257716E-5,-3.436303E-2,2.017803E-2,6.367054E-3,-6.2217005E-3,4.42132E-3,9.539431E-3,-3.1289381E-3,-2.239813E-3,3.9936863E-3,1.731959E-2,4.995542E-4,1.1126237E-3,8.800907E-3,1.0694922E-3,-1.0163307E-2,-5.695753E-3,1.4807135E-3,-7.991989E-3,-2.8481694E-2,-3.717645E-3,-2.1049082E-2,5.060087E-3,-3.6111798E-3,1.038029E-2,2.0721077E-3,1.148051E-2,3.15529E-2,-1.7018167E-2,1.3585149E-3,-1.4726609E-3,1.316421E-2,-9.527419E-3,-2.3611088E-3,-1.5157081E-2,3.888432E-3,2.2118853E-3,-4.4658016E-3,5.850506E-3,2.75294E-2,2.9234816E-3,1.2836559E-2,1.4244802E-3,-1.1094305E-2,1.5358329E-3,6.262977E-3,-6.1148223E-3,2.8632663E-3],"categories":[],"categories_nodes":[],"categories_segments":[],"categories_sizes":[],"default_left":[1,1,1,1,1,1,1,1,0,1,1,1,1,1,1,1,1,1,1,1,1,1,1,1,1,1,1,0,1,0,0,1,1,1,1,1,1,1,1,1,1,1,1,0,1,0,1,1,0,1,1,1,1,0,1,0,0,0,0,0,0,0,0,0,0,0,0,0,0,0,0,0,0,0,0,0,0,0,0,0,0,0,0,0,0,0,0,0,0,0,0,0,0,0,0],"id":51,"left_children":[1,3,5,7,9,11,13,15,-1,17,19,21,23,25,27,29,31,33,35,37,39,41,43,45,47,49,51,-1,53,-1,-1,55,57,59,61,63,65,67,69,71,73,75,77,-1,79,-1,81,83,-1,85,87,89,91,-1,93,-1,-1,-1,-1,-1,-1,-1,-1,-1,-1,-1,-1,-1,-1,-1,-1,-1,-1,-1,-1,-1,-1,-1,-1,-1,-1,-1,-1,-1,-1,-1,-1,-1,-1,-1,-1,-1,-1,-1,-1],"loss_changes":[1.2122982E-3,1.6567557E-3,2.2569206E-3,3.7972757E-3,1.4348467E-3,2.6167058E-3,1.7111235E-3,1.1896978E-3,0E0,1.7028744E-3,2.5077257E-3,4.3031415E-3,2.5728242E-3,1.4516953E-3,1.0141971E-3,6.6299667E-4,1.415092E-3,6.748021E-4,1.0199817E-3,1.620259E-3,9.402996E-4,1.3214067E-3,4.3399944E-3,2.2956054E-3,2.336299E-3,1.2494079E-3,5.4368627E-4,0E0,6.3501316E-4,0E0,0E0,9.072025E-4,6.236816E-4,7.726648E-5,5.2822963E-4,6.374839E-5,6.8003405E-4,1.1168176E-3,1.5369435E-3,1.16006006E-4,4.878873E-5,2.2070464E-3,7.0169504E-4,0E0,3.9410137E-5,0E0,9.6425414E-4,2.5364466E-3,0E0,9.975354E-4,4.3031498E-4,3.1385815E-4,5.4150034E-5,0E0,3.5745688E-4,0E0,0E0,0E0,0E0,0E0,0E0,0E0,0E0,0E0,0E0,0E0,0E0,0E0,0E0,0E0,0E0,0E0,0E0,0E0,0E0,0E0,0E0,0E0,0E0,0E0,0E0,0E0,0E0,0E0,0E0,0E0,0E0,0E0,0E0,0E0,0E0,0E0,0E0,0E0,0E0],"parents":[2147483647,0,0,1,1,2,2,3,3,4,4,5,5,6,6,7,7,9,9,10,10,11,11,12,12,13,13,14,14,15,15,16,16,17,17,18,18,19,19,20,20,21,21,22,22,23,23,24,24,25,25,26,26,28,28,31,31,32,32,33,33,34,34,35,35,36,36,37,37,38,38,39,39,40,40,41,41,42,42,44,44,46,46,47,47,49,49,50,50,51,51,52,52,54,54],"right_children":[2,4,6,8,10,12,14,16,-1,18,20,22,24,26,28,30,32,34,36,38,40,42,44,46,48,50,52,-1,54,-1,-1,56,58,60,62,64,66,68,70,72,74,76,78,-1,80,-1,82,84,-1,86,88,90,92,-1,94,-1,-1,-1,-1,-1,-1,-1,-1,-1,-1,-1,-1,-1,-1,-1,-1,-1,-1,-1,-1,-1,-1,-1,-1,-1,-1,-1,-1,-1,-1,-1,-1,-1,-1,-1,-1,-1,-1,-1,-1],"split_conditions":[-1.8733245E-1,-1.7331249E-1,1.2230022E0,-1.8221332E-1,-7.6564336E-1,-1.3294237E0,4.6392632E-1,-3.1308131E0,1.4346028E-2,-9.2901304E-2,1.3236439E0,-1.5607786E0,-9.422432E-2,6.614843E-1,-1.9475622E0,-3.1155113E-2,1.4170732E0,-1.2228288E-1,-5.1809037E-1,-1.0195509E0,3.0405837E-1,1.2562101E0,-2.760665E-1,-2.7599785E-1,3.7209082E0,1.5563574E0,4.9941847E-1,-6.041098E-3,1.3276336E0,8.418965E-3,1.8492222E-3,-5.3029966E-1,-1.4533043E-2,-9.190109E-1,-1.6268028E-1,5.640766E-1,-6.564105E-1,1.11744E0,5.347179E-1,6.488049E-1,7.0216197E-1,2.41324E-1,1.0589409E0,-1.6072981E-2,1.121318E0,-1.0443364E-2,2.5341785E-1,4.4235456E-1,-1.030891E-2,-1.5961947E0,3.5941698E-2,7.308631E-1,-2.8816783E-1,2.8618295E-3,7.3598564E-1,-6.7194394E-4,1.198106E-3,5.195877E-3,1.4986628E-4,3.3378712E-4,2.6402723E-3,3.2084767E-4,-3.0489923E-3,-1.7087259E-3,4.4421406E-4,-2.3975968E-3,-8.544508E-3,-1.1152936E-3,-6.314725E-3,1.5180261E-3,-1.083354E-3,3.1140873E-3,6.216323E-4,3.4441531E-3,9.46587E-3,-5.1054503E-3,4.0755447E-4,-4.417983E-4,3.949263E-3,-2.8582257E-3,-7.0833263E-4,-4.5471247E-3,1.1665296E-3,6.635656E-4,-1.3397406E-3,1.7551519E-3,8.2588205E-3,8.770445E-4,3.8509679E-3,4.273441E-4,-3.3282915E-3,4.6074987E-4,1.8788932E-3,-1.8344468E-3,8.5897994E-4],"split_indices":[23,53,2,53,22,33,54,55,0,10,20,33,23,3,51,2,5,1,38,3,51,23,16,6,15,2,23,0,2,0,0,1,0,27,47,5,37,48,52,9,2,12,18,0,1,0,10,41,0,7,3,6,50,0,11,0,0,0,0,0,0,0,0,0,0,0,0,0,0,0,0,0,0,0,0,0,0,0,0,0,0,0,0,0,0,0,0,0,0,0,0,0,0,0,0],"split_type":[0,0,0,0,0,0,0,0,0,0,0,0,0,0,0,0,0,0,0,0,0,0,0,0,0,0,0,0,0,0,0,0,0,0,0,0,0,0,0,0,0,0,0,0,0,0,0,0,0,0,0,0,0,0,0,0,0,0,0,0,0,0,0,0,0,0,0,0,0,0,0,0,0,0,0,0,0,0,0,0,0,0,0,0,0,0,0,0,0,0,0,0,0,0,0],"sum_hessian":[6.57E2,2.74E2,3.83E2,1.15E2,1.59E2,3.11E2,7.2E1,1.14E2,1E0,4.2E1,1.17E2,4.6E1,2.65E2,4.8E1,2.4E1,6E0,1.08E2,2.4E1,1.8E1,1.06E2,1.1E1,3.8E1,8E0,1.2E1,2.53E2,3E1,1.8E1,2E0,2.2E1,2E0,4E0,9.7E1,1.1E1,8E0,1.6E1,1E1,8E0,2.1E1,8.5E1,7E0,4E0,2.5E1,1.3E1,3E0,5E0,3E0,9E0,2.52E2,1E0,1E1,2E1,7E0,1.1E1,4E0,1.8E1,3.7E1,6E1,8E0,3E0,2E0,6E0,1E1,6E0,9E0,1E0,4E0,4E0,1.7E1,4E0,5.3E1,3.2E1,3E0,4E0,2E0,2E0,1.3E1,1.2E1,9E0,4E0,3E0,2E0,4E0,5E0,1.67E2,8.5E1,4E0,6E0,1.4E1,6E0,3E0,4E0,5E0,6E0,1.2E1,6E0],"tree_param":{"num_deleted":"0","num_feature":"60","num_nodes":"95","size_leaf_vector":"0"}},{"base_weights":[3.55307E-5,-4.833472E-4,2.8361187E-3,-6.7639037E-4,1.2824658E-2,2.8048694E-2,2.3139494E-3,-2.7179646E-3,3.9434075E-4,5.736418E-3,2.2726253E-2,-5.5345165E-4,5.6811944E-3,-3.5935063E-3,1.1776572E-2,-2.7109953E-3,2.691588E-3,-1.5938282E-4,6.947455E-3,-4.7114277E-3,4.425422E-3,1.06483605E-2,3.0200742E-3,-4.846248E-4,-7.434689E-3,2.1207761E-2,3.3576402E-3,8.481512E-3,-4.640667E-3,2.0750733E-4,6.915056E-3,8.114353E-4,-1.0656578E-2,-4.6810508E-4,1.0173545E-2,3.593007E-3,1.3528702E-2,-3.857476E-5,6.489115E-3,1.0861923E-4,-2.9607892E-2,-1.8060131E-2,-3.0929677E-3,-3.5827954E-3,6.850374E-3,4.064703E-2,5.1718503E-3,2.8618579E-3,-6.5971436E-3,-2.10164E-3,6.6671907E-3,9.945464E-3,-7.43217E-3,-7.7453554E-3,5.022211E-3,-2.4467409E-3,-1.4516822E-2,2.8988975E-3,-3.0348732E-3,2.0980895E-2,4.239885E-3,4.5487396E-3,-5.928278E-4,1.4599333E-2,5.807241E-3,2.6122418E-3,-7.453146E-3,8.802747E-3,3.3643427E-3],"categories":[],"categories_nodes":[],"categories_segments":[],"categories_sizes":[],"default_left":[1,1,1,1,1,0,1,1,1,1,0,1,1,1,1,1,1,0,0,1,1,1,1,1,1,0,1,1,1,1,1,1,1,1,1,1,1,1,1,0,0,0,0,0,0,0,0,0,0,0,0,0,0,0,0,0,0,0,0,0,0,0,0,0,0,0,0,0,0],"id":52,"left_children":[1,3,5,7,9,-1,11,13,15,17,-1,19,21,23,25,27,29,-1,-1,31,33,35,37,39,41,-1,43,45,47,49,51,53,55,57,59,61,63,65,67,-1,-1,-1,-1,-1,-1,-1,-1,-1,-1,-1,-1,-1,-1,-1,-1,-1,-1,-1,-1,-1,-1,-1,-1,-1,-1,-1,-1,-1,-1],"loss_changes":[9.575522E-4,1.4370494E-3,1.2911157E-3,1.2011733E-3,4.3111178E-4,0E0,9.87979E-4,2.4408367E-3,2.5825717E-3,4.3947482E-5,0E0,1.1801642E-3,5.890976E-4,2.1339757E-3,8.0219796E-4,3.365431E-3,2.1807835E-3,0E0,0E0,1.0265089E-3,7.361059E-4,2.7654052E-4,3.3978876E-4,1.7309365E-3,3.6347564E-3,0E0,1.9423114E-4,2.2382902E-3,1.9564438E-3,1.9829716E-3,3.4217183E-3,6.5142114E-4,4.3986063E-4,1.384325E-4,6.80569E-4,2.6699847E-5,6.1532483E-6,3.7325342E-4,7.882813E-5,0E0,0E0,0E0,0E0,0E0,0E0,0E0,0E0,0E0,0E0,0E0,0E0,0E0,0E0,0E0,0E0,0E0,0E0,0E0,0E0,0E0,0E0,0E0,0E0,0E0,0E0,0E0,0E0,0E0,0E0],"parents":[2147483647,0,0,1,1,2,2,3,3,4,4,6,6,7,7,8,8,9,9,11,11,12,12,13,13,14,14,15,15,16,16,19,19,20,20,21,21,22,22,23,23,24,24,26,26,27,27,28,28,29,29,30,30,31,31,32,32,33,33,34,34,35,35,36,36,37,37,38,38],"right_children":[2,4,6,8,10,-1,12,14,16,18,-1,20,22,24,26,28,30,-1,-1,32,34,36,38,40,42,-1,44,46,48,50,52,54,56,58,60,62,64,66,68,-1,-1,-1,-1,-1,-1,-1,-1,-1,-1,-1,-1,-1,-1,-1,-1,-1,-1,-1,-1,-1,-1,-1,-1,-1,-1,-1,-1,-1,-1],"split_conditions":[1.212744E0,3.8999224E0,1.2288843E0,-3.7685397E-1,1.1008483E0,8.414608E-3,2.237198E-1,2.123026E0,-2.5576744E-2,-2.3413892E0,6.817876E-3,3.6075037E-2,-9.040977E-1,1.9875136E-1,-9.411622E-1,-1.2995815E0,6.201663E-1,-4.7814847E-5,2.0842366E-3,-2.5209126E-1,1.3351135E-1,2.518602E-1,2.4986158E-1,-4.172327E-1,-4.6420377E-1,6.362329E-3,-1.1782327E0,-2.2651136E0,-7.0088744E-1,6.201725E-1,1.0703326E0,-1.4930322E0,-3.7327173E-1,-6.878061E-1,-9.025756E-1,7.532275E-1,9.961642E-1,-1.8544906E-1,5.068905E-1,3.258577E-5,-8.882368E-3,-5.4180394E-3,-9.2789036E-4,-1.0748387E-3,2.0551123E-3,1.2194109E-2,1.5515551E-3,8.585574E-4,-1.9791431E-3,-6.30492E-4,2.0001573E-3,2.9836395E-3,-2.2296512E-3,-2.3236067E-3,1.5066634E-3,-7.340223E-4,-4.355047E-3,8.696693E-4,-9.10462E-4,6.2942686E-3,1.2719656E-3,1.3646219E-3,-1.7784834E-4,4.3798E-3,1.7421724E-3,7.8367256E-4,-2.235944E-3,2.6408243E-3,1.0093029E-3],"split_indices":[51,0,51,25,10,0,52,59,48,1,0,8,26,48,22,18,21,0,0,39,21,49,27,25,27,0,3,11,23,42,27,24,24,3,53,2,2,27,37,0,0,0,0,0,0,0,0,0,0,0,0,0,0,0,0,0,0,0,0,0,0,0,0,0,0,0,0,0,0],"split_type":[0,0,0,0,0,0,0,0,0,0,0,0,0,0,0,0,0,0,0,0,0,0,0,0,0,0,0,0,0,0,0,0,0,0,0,0,0,0,0,0,0,0,0,0,0,0,0,0,0,0,0,0,0,0,0,0,0,0,0,0,0,0,0,0,0,0,0,0,0],"sum_hessian":[6.57E2,5.55E2,1.02E2,5.48E2,7E0,1E0,1.01E2,1.88E2,3.6E2,5E0,2E0,5.5E1,4.6E1,1.78E2,1E1,1.53E2,2.07E2,1E0,4E0,3E1,2.5E1,1.5E1,3.1E1,9.9E1,7.9E1,4E0,6E0,2.2E1,1.31E2,1.31E2,7.6E1,1.6E1,1.4E1,1.4E1,1.1E1,5E0,1E1,1.7E1,1.4E1,9.8E1,1E0,2.2E1,5.7E1,2E0,4E0,1E0,2.1E1,2.7E1,1.04E2,9.7E1,3.4E1,6.3E1,1.3E1,5E0,1.1E1,5E0,9E0,6E0,8E0,3E0,8E0,4E0,1E0,8E0,2E0,1.3E1,4E0,7E0,7E0],"tree_param":{"num_deleted":"0","num_feature":"60","num_nodes":"69","size_leaf_vector":"0"}},{"base_weights":[7.85035E-5,-5.9995684E-4,1.8835258E-3,-1.4591375E-3,2.3299146E-3,-7.612699E-4,5.3518647E-3,-3.5475795E-3,3.637751E-4,-1.0843256E-3,7.595593E-3,1.4005875E-3,-6.898372E-3,9.0346355E-3,1.0267769E-3,-6.7735547E-3,8.5978623E-4,-2.239201E-3,4.1834097E-3,1.7340588E-3,-8.29572E-3,1.5139228E-2,3.7768352E-4,-3.0694883E-3,5.612145E-3,1.7854162E-3,-1.2111507E-2,2.0716223E-3,1.282625E-2,5.1335385E-3,-2.3466386E-3,3.7444688E-3,-9.449867E-3,1.096304E-2,-8.901447E-4,-8.2688144E-4,-1.1976159E-2,1.0708024E-2,3.3875913E-4,-1.634764E-2,3.2686836E-3,-1.4254441E-2,-2.6662478E-3,5.495983E-3,4.4898413E-2,7.9762405E-3,-4.2066295E-3,3.3584102E-3,-1.1207387E-2,-2.748333E-3,8.8781305E-3,-3.725418E-4,4.449474E-3,-4.0424587E-3,-2.3061225E-2,-6.4299256E-3,6.520501E-3,1.4977104E-2,3.6706924E-4,9.762575E-3,2.3912254E-3,3.2567594E-3,-4.805115E-3,7.688918E-3,-3.6263764E-3,-1.7873624E-3,-1.377193E-2,2.2917588E-3,1.7807148E-2,2.6804665E-3,-5.291933E-3,2.4511525E-3,-4.623229E-3,-4.3726014E-3,-4.0932853E-2,2.0523457E-2,1.9948417E-3,-3.73038E-3,7.602547E-3,-6.1475337E-3,-2.3473978E-2,5.2946326E-3,-7.0164036E-3,-1.6704718E-2,-3.78565E-3,1.978755E-3,-4.6554683E-3,1.5621682E-3,8.819133E-3,3.4572035E-3,9.659559E-3,-1.5840868E-2,-1.1982184E-3,-6.58172E-4,1.4178991E-2,-1.4985927E-3,-2.1942457E-2,1.2468547E-3,-5.7801604E-3,3.46735E-3,1.19920885E-2,9.654959E-4,-1.1008561E-3,5.2901357E-3,5.434137E-4,-7.377318E-3,1.4348358E-3,-7.5591267E-3,-3.9196014E-4,2.697256E-3,1.0568944E-2,7.1543623E-3,1.7952405E-2,-1.1196733E-3,3.1570196E-3,1.1386752E-2,4.3428144E-3,-1.1245707E-3,3.2068416E-3,5.651216E-4,4.22039E-3,-1.0864319E-3,-7.1635228E-3],"categories":[],"categories_nodes":[],"categories_segments":[],"categories_sizes":[],"default_left":[1,1,1,1,1,1,1,1,1,1,1,1,1,1,1,1,1,1,1,1,1,1,1,1,1,1,1,1,1,1,1,1,1,1,1,1,1,1,1,1,1,1,1,1,0,1,1,1,1,1,1,1,1,1,0,1,1,1,1,1,1,1,1,0,0,0,0,0,0,0,0,0,0,0,0,0,0,0,0,0,0,0,0,0,0,0,0,0,0,0,0,0,0,0,0,0,0,0,0,0,0,0,0,0,0,0,0,0,0,0,0,0,0,0,0,0,0,0,0,0,0,0,0],"id":53,"left_children":[1,3,5,7,9,11,13,15,17,19,21,23,25,27,29,31,33,35,37,39,41,43,45,47,49,51,53,55,57,59,61,63,65,67,69,71,73,75,77,79,81,83,85,87,-1,89,91,93,95,97,99,101,103,105,-1,107,109,111,113,115,117,119,121,-1,-1,-1,-1,-1,-1,-1,-1,-1,-1,-1,-1,-1,-1,-1,-1,-1,-1,-1,-1,-1,-1,-1,-1,-1,-1,-1,-1,-1,-1,-1,-1,-1,-1,-1,-1,-1,-1,-1,-1,-1,-1,-1,-1,-1,-1,-1,-1,-1,-1,-1,-1,-1,-1,-1,-1,-1,-1,-1,-1],"loss_changes":[8.069406E-4,1.2091812E-3,1.6552228E-3,1.4137051E-3,1.96787E-3,1.3762184E-3,1.2331314E-3,2.4655468E-3,1.9879085E-3,1.3761257E-3,2.3356013E-3,1.466827E-3,1.2439076E-3,1.0822734E-3,5.2463764E-4,2.850335E-3,1.3180785E-3,1.626549E-3,2.0282464E-3,1.4131176E-3,5.993387E-4,5.779716E-3,8.3473884E-4,2.0254033E-3,1.1166083E-3,6.4895794E-5,1.4087905E-3,6.4708403E-4,7.1804505E-4,1.9245801E-4,3.049414E-4,6.3843536E-4,2.6248107E-3,6.120093E-4,1.0200776E-3,1.3180107E-3,3.1236254E-3,2.5247685E-3,1.5653432E-3,1.4645059E-4,9.95654E-4,1.6762456E-4,1.1085131E-4,2.0845822E-4,0E0,3.5067787E-5,5.0602783E-4,9.654907E-4,1.7389352E-3,1.5255965E-4,4.4703856E-4,7.884455E-6,1.3543642E-5,2.115113E-4,0E0,3.7945603E-5,1.4175297E-4,4.0688738E-4,2.427452E-5,3.3653341E-6,3.8016806E-5,1.5771184E-5,1.2376986E-4,0E0,0E0,0E0,0E0,0E0,0E0,0E0,0E0,0E0,0E0,0E0,0E0,0E0,0E0,0E0,0E0,0E0,0E0,0E0,0E0,0E0,0E0,0E0,0E0,0E0,0E0,0E0,0E0,0E0,0E0,0E0,0E0,0E0,0E0,0E0,0E0,0E0,0E0,0E0,0E0,0E0,0E0,0E0,0E0,0E0,0E0,0E0,0E0,0E0,0E0,0E0,0E0,0E0,0E0,0E0,0E0,0E0,0E0,0E0,0E0],"parents":[2147483647,0,0,1,1,2,2,3,3,4,4,5,5,6,6,7,7,8,8,9,9,10,10,11,11,12,12,13,13,14,14,15,15,16,16,17,17,18,18,19,19,20,20,21,21,22,22,23,23,24,24,25,25,26,26,27,27,28,28,29,29,30,30,31,31,32,32,33,33,34,34,35,35,36,36,37,37,38,38,39,39,40,40,41,41,42,42,43,43,45,45,46,46,47,47,48,48,49,49,50,50,51,51,52,52,53,53,55,55,56,56,57,57,58,58,59,59,60,60,61,61,62,62],"right_children":[2,4,6,8,10,12,14,16,18,20,22,24,26,28,30,32,34,36,38,40,42,44,46,48,50,52,54,56,58,60,62,64,66,68,70,72,74,76,78,80,82,84,86,88,-1,90,92,94,96,98,100,102,104,106,-1,108,110,112,114,116,118,120,122,-1,-1,-1,-1,-1,-1,-1,-1,-1,-1,-1,-1,-1,-1,-1,-1,-1,-1,-1,-1,-1,-1,-1,-1,-1,-1,-1,-1,-1,-1,-1,-1,-1,-1,-1,-1,-1,-1,-1,-1,-1,-1,-1,-1,-1,-1,-1,-1,-1,-1,-1,-1,-1,-1,-1,-1,-1,-1,-1,-1],"split_conditions":[7.236979E-1,8.2358056E-1,1.8346003E-1,5.235608E-2,2.3989427E-1,6.306727E-1,1.3862846E0,3.955679E-1,1.9743326E-1,5.4322183E-1,2.2432323E-1,1.2127263E-1,-6.548375E-1,-6.497352E-2,-6.3849986E-2,-8.1269747E-1,-1.4041336E0,1.1712544E0,-5.8180654E-1,-2.2979238E0,1.3353093E0,-1.1414237E-1,-8.175125E-1,-6.824018E-1,-6.956412E-1,-1.1957958E-2,-1.305824E-2,-4.0423185E-1,1.6545135E0,-1.7388568E0,-6.4720786E-1,4.7316116E-1,-2.312887E-1,-5.9551157E-2,7.403429E-2,8.4592566E-2,1.3527803E0,7.5646245E-1,5.388279E-1,6.6157997E-1,1.0114899E0,6.6401994E-1,-1.1203399E0,5.9138894E-1,1.3469525E-2,-1.688933E-1,-8.021337E-1,1.0710582E0,8.512637E-2,-1.0970483E0,-5.6638986E-1,-2.60403E0,1.5734923E0,5.9773165E-1,-6.918368E-3,9.011237E-1,-5.6989767E-2,-4.8571503E-1,5.0653377E0,-4.4315332E-1,-3.1060863E0,-1.7014287E0,-1.708691E-1,2.3066755E-3,-1.0879129E-3,-5.3620874E-4,-4.1315793E-3,6.8752764E-4,5.3421445E-3,8.0414E-4,-1.5875801E-3,7.353458E-4,-1.3869688E-3,-1.3117804E-3,-1.2279856E-2,6.1570373E-3,5.984525E-4,-1.119114E-3,2.280764E-3,-1.8442601E-3,-7.042194E-3,1.5883899E-3,-2.1049213E-3,-5.0114156E-3,-1.135695E-3,5.936265E-4,-1.3966406E-3,4.6865048E-4,2.64574E-3,1.0371611E-3,2.8978677E-3,-4.7522606E-3,-3.5946554E-4,-1.974516E-4,4.2536976E-3,-4.495778E-4,-6.5827374E-3,3.7405643E-4,-1.7340482E-3,1.040205E-3,3.5976267E-3,2.8964877E-4,-3.3025685E-4,1.5870408E-3,1.6302412E-4,-2.2131954E-3,4.3045077E-4,-2.267738E-3,-1.17588046E-4,8.091768E-4,3.1706833E-3,2.1463088E-3,5.3857216E-3,-3.3590198E-4,9.4710593E-4,3.4160258E-3,1.3028444E-3,-3.3737122E-4,9.6205255E-4,1.6953648E-4,1.2661171E-3,-3.2592958E-4,-2.1490569E-3],"split_indices":[31,17,0,8,34,54,31,9,29,56,2,56,33,27,42,39,49,59,16,23,17,31,25,0,17,1,35,57,21,39,36,18,29,31,45,46,23,29,18,1,44,5,9,6,0,9,42,16,7,54,29,6,1,18,0,1,3,17,0,2,8,3,58,0,0,0,0,0,0,0,0,0,0,0,0,0,0,0,0,0,0,0,0,0,0,0,0,0,0,0,0,0,0,0,0,0,0,0,0,0,0,0,0,0,0,0,0,0,0,0,0,0,0,0,0,0,0,0,0,0,0,0,0],"split_type":[0,0,0,0,0,0,0,0,0,0,0,0,0,0,0,0,0,0,0,0,0,0,0,0,0,0,0,0,0,0,0,0,0,0,0,0,0,0,0,0,0,0,0,0,0,0,0,0,0,0,0,0,0,0,0,0,0,0,0,0,0,0,0,0,0,0,0,0,0,0,0,0,0,0,0,0,0,0,0,0,0,0,0,0,0,0,0,0,0,0,0,0,0,0,0,0,0,0,0,0,0,0,0,0,0,0,0,0,0,0,0,0,0,0,0,0,0,0,0,0,0,0,0],"sum_hessian":[6.57E2,4.78E2,1.79E2,3.7E2,1.08E2,1.02E2,7.7E1,1.72E2,1.98E2,6.6E1,4.2E1,7.6E1,2.6E1,4.1E1,3.6E1,9.9E1,7.3E1,1.18E2,8E1,4.8E1,1.8E1,2E1,2.2E1,3.7E1,3.9E1,1E1,1.6E1,1.5E1,2.6E1,1.6E1,2E1,2E1,7.9E1,1E1,6.3E1,1.04E2,1.4E1,2.9E1,5.1E1,3E0,4.5E1,8E0,1E1,1.6E1,4E0,8E0,1.4E1,2.1E1,1.6E1,1.1E1,2.8E1,6E0,4E0,1E1,6E0,5E0,1E1,2.2E1,4E0,5E0,1.1E1,6E0,1.4E1,1.3E1,7E0,2.9E1,5E1,5E0,5E0,3.5E1,2.8E1,5.6E1,4.8E1,1.2E1,2E0,1.3E1,1.6E1,3.3E1,1.8E1,2E0,1E0,3.8E1,7E0,6E0,2E0,3E0,7E0,8E0,8E0,3E0,5E0,2E0,1.2E1,1.6E1,5E0,9E0,7E0,5E0,6E0,1.1E1,1.7E1,2E0,4E0,3E0,1E0,6E0,4E0,4E0,1E0,6E0,4E0,7E0,1.5E1,3E0,1E0,3E0,2E0,2E0,9E0,2E0,4E0,6E0,8E0],"tree_param":{"num_deleted":"0","num_feature":"60","num_nodes":"123","size_leaf_vector":"0"}},{"base_weights":[5.780836E-5,-1.8530704E-4,4.2634495E-3,-1.8449564E-5,-1.1566645E-2,1.16553465E-2,9.721298E-4,1.79684E-3,-5.873816E-4,-2.3271665E-2,-1.8355238E-3,4.489258E-3,1.6878877E-2,-1.5934046E-3,5.995184E-3,-3.5023398E-3,4.648512E-3,1.5267624E-3,-1.7185326E-3,1.2813956E-3,-2.7151867E-3,5.2911937E-3,2.3978949E-4,1.83047E-2,4.8748814E-3,9.0942037E-4,-5.6563322E-3,2.8748086E-3,1.1277665E-2,8.0725895E-3,-4.9054725E-3,6.6979486E-3,-8.370093E-4,4.4686277E-3,-2.6921744E-3,-3.359356E-3,1.3207486E-3,4.8282864E-3,-1.6535483E-3,-2.166205E-3,-7.7323765E-3,-7.2824955E-4,3.5966933E-3,8.805531E-3,2.2039413E-3,3.3222474E-3,-6.941571E-3,2.3076145E-3,1.1550517E-2,-3.3826246E-3,6.9194096E-3,1.2095204E-2,3.0364923E-3,2.2431272E-3,-5.6137014E-3,-1.5793951E-3,-1.8371435E-2,5.1228167E-3,-2.301222E-3,7.985532E-5,-2.7095615E-3,-4.9750507E-4,-2.5566034E-3],"categories":[],"categories_nodes":[],"categories_segments":[],"categories_sizes":[],"default_left":[1,1,1,1,1,1,1,1,1,0,1,1,1,1,1,1,1,1,1,0,0,0,0,0,0,1,1,1,0,1,1,1,1,1,1,1,1,0,1,1,0,0,0,0,0,0,0,0,0,0,0,0,0,0,0,0,0,0,0,0,0,0,0],"id":54,"left_children":[1,3,5,7,9,11,13,15,17,-1,19,21,23,25,27,29,31,33,35,-1,-1,-1,-1,-1,-1,37,39,41,-1,43,45,47,49,51,53,55,57,-1,59,61,-1,-1,-1,-1,-1,-1,-1,-1,-1,-1,-1,-1,-1,-1,-1,-1,-1,-1,-1,-1,-1,-1,-1],"loss_changes":[6.735662E-4,1.1829017E-3,8.645169E-4,6.3621294E-4,9.824109E-4,3.359815E-4,3.4461005E-4,2.2376745E-3,1.1241981E-3,0E0,1.9930258E-5,1.9178042E-5,1.3460172E-5,1.8818233E-4,1.1592879E-4,8.8414026E-4,1.0848602E-3,2.0475236E-3,1.5304354E-3,0E0,2.7234273E-7,0E0,0E0,0E0,0E0,1.2851096E-4,3.39697E-5,2.0826239E-5,0E0,6.4013875E-6,8.1042654E-4,1.4646535E-3,5.565169E-4,1.022735E-3,9.930583E-4,5.2884454E-3,1.4990544E-3,0E0,1.486035E-5,1.3339068E-6,0E0,0E0,0E0,0E0,0E0,0E0,0E0,0E0,0E0,0E0,0E0,0E0,0E0,0E0,0E0,0E0,0E0,0E0,0E0,0E0,0E0,0E0,0E0],"parents":[2147483647,0,0,1,1,2,2,3,3,4,4,5,5,6,6,7,7,8,8,10,10,11,11,12,12,13,13,14,14,15,15,16,16,17,17,18,18,25,25,26,26,27,27,29,29,30,30,31,31,32,32,33,33,34,34,35,35,36,36,38,38,39,39],"right_children":[2,4,6,8,10,12,14,16,18,-1,20,22,24,26,28,30,32,34,36,-1,-1,-1,-1,-1,-1,38,40,42,-1,44,46,48,50,52,54,56,58,-1,60,62,-1,-1,-1,-1,-1,-1,-1,-1,-1,-1,-1,-1,-1,-1,-1,-1,-1,-1,-1,-1,-1,-1,-1],"split_conditions":[2.5169864E0,2.2518091E0,3.0508215E0,-9.895382E-1,-6.3166213E-1,3.4623685E-1,4.083305E-1,-5.054894E-1,-4.0425852E-1,-6.9815E-3,-1.1464663E0,1.9042785E0,4.4316342E-1,-8.5996166E-2,1.3426498E-1,-2.4879105E0,7.4434733E-1,2.671607E-1,4.0962124E-1,3.8441867E-4,-8.14556E-4,1.5873582E-3,7.193685E-5,5.4914104E-3,1.4624645E-3,-1.1016637E0,5.553502E-1,-4.0784817E0,3.3832998E-3,1.214396E0,-1.2858766E0,7.010424E-2,1.2095945E0,-1.6491926E0,-1.6011983E-1,2.0423768E-1,4.2180993E-2,1.448486E-3,-4.0363926E-1,1.4334584E0,-2.3197131E-3,-2.1847487E-4,1.079008E-3,2.6416595E-3,6.6118245E-4,9.966743E-4,-2.0824713E-3,6.922844E-4,3.4651551E-3,-1.0147875E-3,2.075823E-3,3.6285613E-3,9.1094774E-4,6.729382E-4,-1.6841105E-3,-4.7381857E-4,-5.5114306E-3,1.5368451E-3,-6.903666E-4,2.3956598E-5,-8.128685E-4,-1.4925153E-4,-7.6698104E-4],"split_indices":[4,4,4,21,11,42,49,29,29,0,0,3,3,2,15,39,38,4,5,0,0,0,0,0,0,10,21,3,0,6,17,38,8,57,55,5,58,0,19,2,0,0,0,0,0,0,0,0,0,0,0,0,0,0,0,0,0,0,0,0,0,0,0],"split_type":[0,0,0,0,0,0,0,0,0,0,0,0,0,0,0,0,0,0,0,0,0,0,0,0,0,0,0,0,0,0,0,0,0,0,0,0,0,0,0,0,0,0,0,0,0,0,0,0,0,0,0,0,0,0,0,0,0,0,0,0,0,0,0],"sum_hessian":[6.57E2,6.22E2,3.5E1,6.14E2,8E0,1E1,2.5E1,1.46E2,4.68E2,3E0,5E0,5E0,5E0,1.7E1,8E0,5.1E1,9.5E1,1.63E2,3.05E2,1E0,4E0,4E0,1E0,4E0,1E0,1.1E1,6E0,6E0,2E0,5E0,4.6E1,6.9E1,2.6E1,9.6E1,6.7E1,1.98E2,1.07E2,4E0,7E0,3E0,3E0,1E0,5E0,4E0,1E0,9E0,3.7E1,3.7E1,3.2E1,2E1,6E0,1.4E1,8.2E1,2.5E1,4.2E1,1.78E2,2E1,5.2E1,5.5E1,3E0,4E0,1E0,2E0],"tree_param":{"num_deleted":"0","num_feature":"60","num_nodes":"63","size_leaf_vector":"0"}},{"base_weights":[5.3676864E-5,-1.3602598E-3,7.382325E-4,-2.7102006E-3,3.5227241E-3,2.4566427E-3,-7.194185E-4,3.4393033E-3,-4.1165333E-3,5.058525E-3,-2.6655921E-3,3.6402538E-3,-4.0190243E-3,1.3682675E-3,-3.2181016E-3,5.3423434E-3,-6.794408E-4,-3.2419408E-5,-6.585621E-3,4.262394E-3,1.725769E-2,-1.061825E-2,6.498534E-4,-2.083562E-3,5.4912753E-3,-1.5164733E-2,-8.6367875E-4,2.9202115E-3,-3.3760555E-3,1.8885034E-3,-6.279831E-3,7.237962E-3,1.1202656E-3,-2.350365E-3,1.1047237E-3,5.8556222E-3,-2.2962196E-3,-1.55686475E-2,-4.309948E-3,1.774986E-3,6.0730386E-3,-1.7057616E-3,3.4319088E-3,-5.3717345E-3,5.1113474E-3,-1.7927423E-4,7.402575E-3,-2.273345E-2,-3.8048327E-3,2.6716278E-3,-5.9274267E-3,1.1936701E-2,9.2964503E-4,-1.3744573E-2,-1.033657E-3,5.020272E-3,-1.4823256E-3,-1.0844078E-2,-6.6354254E-4,4.8214896E-3,1.00590885E-2,2.1489363E-3,-1.3104975E-3,-1.1384413E-3,-3.1828086E-3,1.637077E-3,2.6678046E-5,1.0113055E-3,9.9679865E-3,4.3559144E-3,-4.740263E-3,-5.4511204E-3,-3.3208925E-2,-1.0514367E-2,-1.2472068E-3,-1.038952E-3,4.3917033E-3,7.761472E-3,5.583763E-4,-2.3490519E-3,-4.938841E-4,9.4246864E-4,3.947566E-3,-1.2698474E-2,2.1822978E-4,1.0472261E-2,-3.7819147E-3,1.22059705E-2,-2.2375057E-3,2.8117555E-3,1.0655415E-2,-7.0144334E-3,2.911985E-3,-3.01608E-3,4.81887E-3,-1.0422803E-3,-7.6290714E-3,1.938919E-2,2.3298562E-3,-1.5917482E-3,4.7981725E-3,-1.7531142E-2,-4.114291E-3,5.942059E-3,-3.2062186E-3,9.297499E-3,1.3439226E-3,5.276382E-3,-3.9241957E-3,-2.0456692E-2,-1.1698906E-3,-7.237169E-3,2.2234058E-3],"categories":[],"categories_nodes":[],"categories_segments":[],"categories_sizes":[],"default_left":[1,1,1,1,1,1,1,1,1,1,1,1,1,1,1,1,1,1,1,1,0,0,1,1,1,1,1,1,1,1,1,1,1,1,1,1,1,1,1,1,1,1,1,1,1,1,1,0,1,1,1,1,1,1,1,1,1,1,1,0,0,0,0,0,0,0,0,0,0,0,0,0,0,0,0,0,0,0,0,0,0,0,0,0,0,0,0,0,0,0,0,0,0,0,0,0,0,0,0,0,0,0,0,0,0,0,0,0,0,0,0,0,0],"id":55,"left_children":[1,3,5,7,9,11,13,15,17,19,21,23,25,27,29,31,33,35,37,39,-1,-1,41,43,45,47,49,51,53,55,57,59,61,63,65,67,69,71,73,75,77,79,81,83,85,87,89,-1,91,93,95,97,99,101,103,105,107,109,111,-1,-1,-1,-1,-1,-1,-1,-1,-1,-1,-1,-1,-1,-1,-1,-1,-1,-1,-1,-1,-1,-1,-1,-1,-1,-1,-1,-1,-1,-1,-1,-1,-1,-1,-1,-1,-1,-1,-1,-1,-1,-1,-1,-1,-1,-1,-1,-1,-1,-1,-1,-1,-1,-1],"loss_changes":[6.378945E-4,1.4267712E-3,1.1139174E-3,1.475712E-3,4.6017306E-4,1.578223E-3,1.2615714E-3,2.544501E-4,1.3913831E-3,2.9550213E-4,2.7056632E-4,1.84436E-3,1.1122965E-3,9.817646E-4,1.731714E-3,1.6796746E-4,3.538975E-5,7.1990135E-4,1.6909488E-3,1.5586149E-4,0E0,0E0,5.828163E-5,1.0447552E-3,1.4211214E-3,5.1536225E-4,4.812853E-4,1.7836951E-3,7.872705E-4,4.5082124E-4,1.7615589E-3,5.3757743E-5,2.2819815E-5,2.4297078E-6,3.3997335E-6,2.8874323E-4,6.547142E-4,2.8530657E-3,1.3170635E-3,1.2973853E-4,1.9120012E-4,2.7377864E-6,1.4143334E-6,1.2314576E-3,7.0706935E-4,8.9402875E-4,1.4334931E-3,0E0,1.06659136E-4,2.0994032E-4,8.348902E-5,1.2435345E-3,8.17226E-4,1.4666619E-4,4.4339642E-4,3.3344567E-4,3.6728714E-4,3.5098488E-3,6.233782E-4,0E0,0E0,0E0,0E0,0E0,0E0,0E0,0E0,0E0,0E0,0E0,0E0,0E0,0E0,0E0,0E0,0E0,0E0,0E0,0E0,0E0,0E0,0E0,0E0,0E0,0E0,0E0,0E0,0E0,0E0,0E0,0E0,0E0,0E0,0E0,0E0,0E0,0E0,0E0,0E0,0E0,0E0,0E0,0E0,0E0,0E0,0E0,0E0,0E0,0E0,0E0,0E0,0E0,0E0],"parents":[2147483647,0,0,1,1,2,2,3,3,4,4,5,5,6,6,7,7,8,8,9,9,10,10,11,11,12,12,13,13,14,14,15,15,16,16,17,17,18,18,19,19,22,22,23,23,24,24,25,25,26,26,27,27,28,28,29,29,30,30,31,31,32,32,33,33,34,34,35,35,36,36,37,37,38,38,39,39,40,40,41,41,42,42,43,43,44,44,45,45,46,46,48,48,49,49,50,50,51,51,52,52,53,53,54,54,55,55,56,56,57,57,58,58],"right_children":[2,4,6,8,10,12,14,16,18,20,22,24,26,28,30,32,34,36,38,40,-1,-1,42,44,46,48,50,52,54,56,58,60,62,64,66,68,70,72,74,76,78,80,82,84,86,88,90,-1,92,94,96,98,100,102,104,106,108,110,112,-1,-1,-1,-1,-1,-1,-1,-1,-1,-1,-1,-1,-1,-1,-1,-1,-1,-1,-1,-1,-1,-1,-1,-1,-1,-1,-1,-1,-1,-1,-1,-1,-1,-1,-1,-1,-1,-1,-1,-1,-1,-1,-1,-1,-1,-1,-1,-1,-1,-1,-1,-1,-1,-1],"split_conditions":[-5.635979E-1,8.497855E-1,-7.664414E-2,-1.2766252E0,1.6213114E0,1.2246747E0,1.15113474E-1,9.022094E-1,-4.167137E-1,4.225639E0,-2.5293505E0,-1.0528619E0,-2.3401907E-1,6.966475E-1,-1.8735488E-1,4.5555562E-1,6.153501E-1,-9.2625284E-1,-7.0118055E-2,-2.5209126E-1,5.1773074E-3,-3.185475E-3,4.1798395E-1,4.4319123E-1,-8.8909405E-1,8.572279E-1,4.862895E-1,-1.2082174E0,9.1986954E-1,-8.57985E-2,2.962305E-1,1.2601592E-1,-1.5388471E0,6.7770946E-1,5.67259E-1,-8.153965E-1,-6.302333E-1,1.8626085E-1,-2.5388727E-1,2.9886883E-1,7.3610127E-1,-2.96116E-1,-1.861955E0,5.0412375E-2,2.9532668E-1,-2.2691057E0,-2.7847642E-1,-6.820035E-3,1.6697613E0,-2.0983987E0,-1.4360012E0,2.668564E-1,4.8070645E-1,5.4981685E-1,-6.326717E-1,3.031931E-1,-1.5090594E0,2.863704E-1,-7.12747E-1,1.4464469E-3,3.0177266E-3,6.446809E-4,-3.9314927E-4,-3.415324E-4,-9.548426E-4,4.911231E-4,8.003414E-6,3.0339166E-4,2.990396E-3,1.3067743E-3,-1.4220789E-3,-1.6353362E-3,-9.962678E-3,-3.1543104E-3,-3.7416207E-4,-3.116856E-4,1.3175111E-3,2.3284417E-3,1.675129E-4,-7.047156E-4,-1.4816523E-4,2.827406E-4,1.1842698E-3,-3.8095424E-3,6.5468936E-5,3.1416786E-3,-1.1345744E-3,3.6617913E-3,-6.7125174E-4,8.435267E-4,3.1966248E-3,-2.10433E-3,8.7359553E-4,-9.0482406E-4,1.4456611E-3,-3.126841E-4,-2.2887215E-3,5.816757E-3,6.989569E-4,-4.7752447E-4,1.4394518E-3,-5.2593425E-3,-1.2342874E-3,1.7826179E-3,-9.618656E-4,2.7892499E-3,4.031768E-4,1.5829146E-3,-1.1772588E-3,-6.137008E-3,-3.509672E-4,-2.1711509E-3,6.670217E-4],"split_indices":[58,46,16,9,23,12,35,1,54,47,2,37,39,19,23,7,54,31,54,54,0,0,3,2,19,4,28,13,19,19,43,59,9,3,0,30,7,34,13,31,3,2,0,20,42,48,6,0,4,7,7,48,32,5,37,18,57,47,54,0,0,0,0,0,0,0,0,0,0,0,0,0,0,0,0,0,0,0,0,0,0,0,0,0,0,0,0,0,0,0,0,0,0,0,0,0,0,0,0,0,0,0,0,0,0,0,0,0,0,0,0,0,0],"split_type":[0,0,0,0,0,0,0,0,0,0,0,0,0,0,0,0,0,0,0,0,0,0,0,0,0,0,0,0,0,0,0,0,0,0,0,0,0,0,0,0,0,0,0,0,0,0,0,0,0,0,0,0,0,0,0,0,0,0,0,0,0,0,0,0,0,0,0,0,0,0,0,0,0,0,0,0,0,0,0,0,0,0,0,0,0,0,0,0,0,0,0,0,0,0,0,0,0,0,0,0,0,0,0,0,0,0,0,0,0,0,0,0,0],"sum_hessian":[6.57E2,2.14E2,4.43E2,1.68E2,4.6E1,2.03E2,2.4E2,3.1E1,1.37E2,3.7E1,9E0,1.72E2,3.1E1,1.31E2,1.09E2,2.1E1,1E1,5.2E1,8.5E1,3.6E1,1E0,2E0,7E0,4.2E1,1.3E2,6E0,2.5E1,9.9E1,3.2E1,4.1E1,6.8E1,1.4E1,7E0,5E0,5E0,1.4E1,3.8E1,1.6E1,6.9E1,1.6E1,2E1,4E0,3E0,2.9E1,1.3E1,3.3E1,9.7E1,3E0,3E0,1.5E1,1E1,1.7E1,8.2E1,5E0,2.7E1,2.1E1,2E1,3.7E1,3.1E1,9E0,5E0,5E0,2E0,3E0,2E0,3E0,2E0,7E0,7E0,1E1,2.8E1,1.1E1,5E0,2.2E1,4.7E1,8E0,8E0,1.5E1,5E0,2E0,2E0,1E0,2E0,1.2E1,1.7E1,8E0,5E0,4E0,2.9E1,4.1E1,5.6E1,2E0,1E0,4E0,1.1E1,3E0,7E0,9E0,8E0,5E1,3.2E1,3E0,2E0,6E0,2.1E1,9E0,1.2E1,5E0,1.5E1,1.8E1,1.9E1,9E0,2.2E1],"tree_param":{"num_deleted":"0","num_feature":"60","num_nodes":"113","size_leaf_vector":"0"}},{"base_weights":[2.3397391E-5,3.1010718E-3,-2.1299817E-4,2.0052264E-3,2.6754975E-2,-5.884381E-4,2.0901395E-3,5.257999E-3,-4.7850236E-4,4.73761E-4,-2.1442424E-3,-1.1045095E-3,4.1001006E-3,7.1132174E-3,-2.5637946E-4,2.193313E-3,-1.7189148E-3,-7.674151E-4,2.4333776E-3,-1.8482467E-2,-1.5840894E-3,3.9845495E-3,-2.571471E-3,8.076966E-3,-2.8619888E-5,4.1430215E-3,1.2225005E-2,8.8083744E-4,-1.0451972E-3,-1.3649464E-4,2.501601E-3,3.2964125E-4,-3.5955794E-3,-1.4304003E-3,7.195369E-3,-1.8046806E-3,5.1132897E-3,-1.0120869E-4,-2.1529144E-2,9.430058E-3,-2.0718055E-3,1.3455776E-3,5.298817E-3,4.41733E-3,-3.6291266E-3,1.7111152E-3,1.386589E-2,1.6875449E-3,-3.1148545E-3,5.3466484E-3,7.0001185E-4,9.5982745E-4,-8.555949E-4,-4.0215254E-4,-4.343667E-3,-2.80694E-3,2.8568686E-3,2.7806393E-4,1.5061136E-2,-5.9387214E-3,2.9470474E-3,-4.9756E-3,6.3921963E-3,3.482376E-3,1.3491729E-2,-1.50668E-2,-1.3085594E-3,1.3411045E-5,5.8808327E-3,-5.3854897E-3,-1.0346704E-4,-8.5339445E-4,5.272694E-3,2.4423316E-2,8.76629E-3,-2.0083413E-4,4.6836883E-3,-3.8141115E-3,-2.1188457E-4],"categories":[],"categories_nodes":[],"categories_segments":[],"categories_sizes":[],"default_left":[1,1,1,1,0,1,1,1,1,1,1,1,1,1,1,1,1,1,1,1,1,1,1,1,1,1,0,0,0,0,0,1,1,1,1,1,1,0,0,1,1,0,0,1,1,1,1,1,1,0,0,0,0,0,0,0,0,0,0,0,0,0,0,0,0,0,0,0,0,0,0,0,0,0,0,0,0,0,0],"id":56,"left_children":[1,3,5,7,-1,9,11,13,15,17,19,21,23,25,27,29,31,33,35,37,39,41,43,45,47,49,-1,-1,-1,-1,-1,51,53,55,57,59,61,-1,-1,63,65,-1,-1,67,69,71,73,75,77,-1,-1,-1,-1,-1,-1,-1,-1,-1,-1,-1,-1,-1,-1,-1,-1,-1,-1,-1,-1,-1,-1,-1,-1,-1,-1,-1,-1,-1,-1],"loss_changes":[4.7938747E-4,1.1646379E-3,5.3042016E-4,3.7415023E-4,0E0,8.7192236E-4,5.567449E-4,2.0643114E-4,9.325226E-5,7.6558744E-4,1.92923E-3,2.640716E-4,8.704575E-4,1.7709675E-4,6.3029906E-6,6.805716E-6,7.422984E-5,1.0291793E-3,1.3948581E-3,3.89833E-4,1.1368671E-3,2.0616557E-5,2.1560818E-4,9.712622E-4,1.482616E-4,4.1842388E-5,0E0,0E0,1.5903879E-7,0E0,0E0,8.290418E-6,2.214282E-5,1.064405E-3,8.119608E-4,9.604059E-4,9.99511E-4,0E0,0E0,1.7043448E-4,1.9639598E-3,8.3612804E-7,8.919742E-7,2.5701716E-5,1.480589E-4,1.3237154E-4,5.3963927E-4,1.0278202E-4,1.9491068E-5,0E0,0E0,0E0,0E0,0E0,0E0,0E0,0E0,0E0,0E0,0E0,0E0,0E0,0E0,0E0,0E0,0E0,0E0,0E0,0E0,0E0,0E0,0E0,0E0,0E0,0E0,0E0,0E0,0E0,0E0],"parents":[2147483647,0,0,1,1,2,2,3,3,5,5,6,6,7,7,8,8,9,9,10,10,11,11,12,12,13,13,14,14,15,15,16,16,17,17,18,18,19,19,20,20,21,21,22,22,23,23,24,24,25,25,31,31,32,32,33,33,34,34,35,35,36,36,39,39,40,40,43,43,44,44,45,45,46,46,47,47,48,48],"right_children":[2,4,6,8,-1,10,12,14,16,18,20,22,24,26,28,30,32,34,36,38,40,42,44,46,48,50,-1,-1,-1,-1,-1,52,54,56,58,60,62,-1,-1,64,66,-1,-1,68,70,72,74,76,78,-1,-1,-1,-1,-1,-1,-1,-1,-1,-1,-1,-1,-1,-1,-1,-1,-1,-1,-1,-1,-1,-1,-1,-1,-1,-1,-1,-1,-1,-1],"split_conditions":[-2.469359E0,-2.4874592E0,1.2531285E0,7.496515E-2,8.026493E-3,3.5978207E-1,-3.6986876E-1,4.1809237E-1,-1.106664E0,2.962305E-1,3.8666463E-1,-8.5095507E-1,7.29346E-2,-3.0977778E0,1.3392681E-1,-4.6579247E0,-1.9551617E-1,1.4867746E0,-2.9508445E-1,-1.564669E0,4.2119443E-1,1.124739E-1,-2.9331512E0,2.6668328E-1,4.861747E-1,-1.0624397E0,3.6675015E-3,2.6425126E-4,-3.135592E-4,-4.094839E-5,7.504803E-4,2.4419974E-1,-1.8352127E0,7.405945E-1,-6.277795E-1,8.454106E-2,-2.3682904E0,-3.0362608E-5,-6.4587435E-3,-5.905943E-1,4.6448025E-1,4.036733E-4,1.5896452E-3,9.341444E-2,1.209902E0,8.311565E-2,-1.1474662E0,8.767535E-2,1.0489265E0,1.6039946E-3,2.1000356E-4,2.8794823E-4,-2.5667847E-4,-1.2064577E-4,-1.3031001E-3,-8.420821E-4,8.570606E-4,8.341918E-5,4.5183413E-3,-1.7816165E-3,8.8411424E-4,-1.4926802E-3,1.917659E-3,1.0447128E-3,4.047519E-3,-4.52004E-3,-3.9256786E-4,4.0233135E-6,1.7642499E-3,-1.615647E-3,-3.1040116E-5,-2.5601833E-4,1.5818082E-3,7.326995E-3,2.629887E-3,-6.025024E-5,1.4051065E-3,-1.1442335E-3,-6.356538E-5],"split_indices":[15,15,26,42,0,44,39,52,27,58,44,31,36,15,1,0,7,19,59,0,44,6,25,17,17,25,0,0,0,0,0,4,3,0,59,57,36,0,0,3,44,0,0,0,11,7,36,34,0,0,0,0,0,0,0,0,0,0,0,0,0,0,0,0,0,0,0,0,0,0,0,0,0,0,0,0,0,0,0],"split_type":[0,0,0,0,0,0,0,0,0,0,0,0,0,0,0,0,0,0,0,0,0,0,0,0,0,0,0,0,0,0,0,0,0,0,0,0,0,0,0,0,0,0,0,0,0,0,0,0,0,0,0,0,0,0,0,0,0,0,0,0,0,0,0,0,0,0,0,0,0,0,0,0,0,0,0,0,0,0,0],"sum_hessian":[6.57E2,4.6E1,6.11E2,4.5E1,1E0,5.26E2,8.5E1,1.9E1,2.6E1,3.13E2,2.13E2,3.3E1,5.2E1,1.4E1,5E0,8E0,1.8E1,1.92E2,1.21E2,6E0,2.07E2,7E0,2.6E1,2.6E1,2.6E1,1E1,4E0,2E0,3E0,1E0,7E0,9E0,9E0,1.78E2,1.4E1,4.7E1,7.4E1,1E0,5E0,8E0,1.99E2,3E0,4E0,3E0,2.3E1,1.3E1,1.3E1,1.7E1,9E0,7E0,3E0,6E0,3E0,2E0,7E0,1.35E2,4.3E1,8E0,6E0,2.5E1,2.2E1,8E0,6.6E1,4E0,4E0,1E1,1.89E2,1E0,2E0,1.5E1,8E0,8E0,5E0,3E0,1E1,1.1E1,6E0,7E0,2E0],"tree_param":{"num_deleted":"0","num_feature":"60","num_nodes":"79","size_leaf_vector":"0"}},{"base_weights":[5.3074953E-5,1.9633565E-3,-2.847303E-4,-2.3092638E-4,4.299593E-3,7.6983846E-4,-1.558226E-3,9.4531977E-4,-5.2656922E-3,6.151305E-3,2.117129E-4,1.937281E-3,-1.7775865E-3,1.2320838E-3,-2.756516E-3,3.3256696E-3,-1.0776933E-3,-1.1250147E-3,-1.1195455E-2,9.523979E-4,8.3702905E-3,2.9621124E-3,-9.5192966E-4,-5.2624345E-3,2.5151288E-3,-4.591581E-3,3.5716263E-3,3.4646406E-3,-1.1503992E-3,-4.318998E-3,9.11388E-4,5.113619E-3,4.5429915E-6,-3.7590205E-3,7.817045E-4,4.4262037E-4,-3.362735E-3,3.0616245E-3,-2.190999E-3,4.791041E-3,1.4482504E-2,-2.0229146E-3,1.0204741E-4,1.4291778E-3,-1.0625819E-2,-1.2998447E-3,3.5640167E-3,-9.482769E-3,9.21064E-4,-3.4244275E-3,9.275059E-3,1.1116063E-4,7.165268E-3,4.305864E-4,-4.6117506E-3,3.612484E-4,-6.3673966E-3,3.6658116E-3,-2.6843837E-3,6.0657933E-3,1.454778E-3,-4.0011406E-3,1.148375E-3,1.7476082E-4,-5.4698926E-3,2.5417842E-3,-1.0760883E-3,-2.1823868E-4,9.559393E-4,1.104176E-3,4.253667E-3,-3.0780819E-3,-5.7358295E-4,3.225863E-4,6.2536434E-3,5.0407054E-4,-6.020069E-4,-3.5310388E-3,2.6422143E-3,-1.3217198E-2,-1.0373294E-3,-7.203893E-3,1.217977E-3,-4.534498E-3,4.218689E-3,-1.434821E-2,-5.1950436E-4,5.0635217E-3,-2.7882261E-3,1.4641136E-4,-5.060846E-3,1.428064E-2,-1.3460262E-3,3.6544167E-3,-3.764315E-3,-5.248878E-4,1.1694932E-2,3.7813883E-3,-1.1792979E-3,-4.0146708E-4,-6.6667087E-3,2.7429252E-3,-4.613099E-3,3.0691146E-3,-8.219181E-3,2.087581E-3,9.893842E-3,-6.6918097E-3,2.6600116E-3],"categories":[],"categories_nodes":[],"categories_segments":[],"categories_sizes":[],"default_left":[1,1,1,1,1,1,1,1,1,1,1,1,1,1,1,1,1,1,0,1,1,0,1,1,1,1,1,1,1,1,1,1,1,1,1,1,0,1,1,1,0,0,1,1,1,1,1,1,1,1,1,1,1,1,1,1,1,1,1,0,0,0,0,0,0,0,0,0,0,0,0,0,0,0,0,0,0,0,0,0,0,0,0,0,0,0,0,0,0,0,0,0,0,0,0,0,0,0,0,0,0,0,0,0,0,0,0,0,0],"id":57,"left_children":[1,3,5,7,9,11,13,15,17,19,21,23,25,27,29,31,33,35,-1,37,39,-1,41,43,45,47,49,51,53,55,57,59,61,63,65,67,-1,69,71,73,-1,-1,75,77,79,81,83,85,87,89,91,93,95,97,99,101,103,105,107,-1,-1,-1,-1,-1,-1,-1,-1,-1,-1,-1,-1,-1,-1,-1,-1,-1,-1,-1,-1,-1,-1,-1,-1,-1,-1,-1,-1,-1,-1,-1,-1,-1,-1,-1,-1,-1,-1,-1,-1,-1,-1,-1,-1,-1,-1,-1,-1,-1,-1],"loss_changes":[4.2516852E-4,5.0850294E-4,7.532733E-4,3.1292823E-4,3.6203733E-4,9.1645325E-4,8.526707E-4,2.1064964E-4,2.3293728E-4,3.7272612E-4,5.402743E-5,8.910673E-4,1.4765069E-3,4.135509E-4,1.0240605E-3,1.1873689E-4,1.2259414E-4,2.6043917E-5,0E0,7.963951E-5,4.337877E-4,0E0,1.3751956E-5,5.894212E-4,7.8892265E-4,1.734391E-3,1.3884137E-3,4.956026E-4,2.0993492E-4,1.2006762E-3,5.4467143E-4,3.646573E-5,4.1249445E-5,6.82579E-5,5.1783136E-5,1.9047802E-6,0E0,1.1636737E-5,5.4083757E-6,1.0255186E-4,0E0,0E0,2.2847767E-6,5.746515E-5,2.0991615E-4,6.479838E-4,8.3561847E-4,1.4752937E-3,4.904511E-4,9.423516E-5,1.0293513E-3,3.15856E-4,6.6798134E-4,1.5010826E-4,1.01147016E-4,4.7469762E-4,1.5454968E-3,2.8405312E-4,5.3181476E-4,0E0,0E0,0E0,0E0,0E0,0E0,0E0,0E0,0E0,0E0,0E0,0E0,0E0,0E0,0E0,0E0,0E0,0E0,0E0,0E0,0E0,0E0,0E0,0E0,0E0,0E0,0E0,0E0,0E0,0E0,0E0,0E0,0E0,0E0,0E0,0E0,0E0,0E0,0E0,0E0,0E0,0E0,0E0,0E0,0E0,0E0,0E0,0E0,0E0,0E0],"parents":[2147483647,0,0,1,1,2,2,3,3,4,4,5,5,6,6,7,7,8,8,9,9,10,10,11,11,12,12,13,13,14,14,15,15,16,16,17,17,19,19,20,20,22,22,23,23,24,24,25,25,26,26,27,27,28,28,29,29,30,30,31,31,32,32,33,33,34,34,35,35,37,37,38,38,39,39,42,42,43,43,44,44,45,45,46,46,47,47,48,48,49,49,50,50,51,51,52,52,53,53,54,54,55,55,56,56,57,57,58,58],"right_children":[2,4,6,8,10,12,14,16,18,20,22,24,26,28,30,32,34,36,-1,38,40,-1,42,44,46,48,50,52,54,56,58,60,62,64,66,68,-1,70,72,74,-1,-1,76,78,80,82,84,86,88,90,92,94,96,98,100,102,104,106,108,-1,-1,-1,-1,-1,-1,-1,-1,-1,-1,-1,-1,-1,-1,-1,-1,-1,-1,-1,-1,-1,-1,-1,-1,-1,-1,-1,-1,-1,-1,-1,-1,-1,-1,-1,-1,-1,-1,-1,-1,-1,-1,-1,-1,-1,-1,-1,-1,-1,-1],"split_conditions":[-1.5031579E0,2.2872828E-2,1.7461027E-1,2.029421E0,6.2070507E-1,6.774286E-1,-7.611285E-1,3.349903E-1,-8.420254E-1,-7.257665E-1,-1.300256E0,-2.2345583E0,7.557361E-1,-8.1063576E-2,1.2996619E0,-1.6145824E-2,-1.7263168E-1,-7.235006E-1,-3.3586365E-3,3.2621193E-1,-2.836579E-1,8.886338E-4,4.1126698E-1,-5.1939446E-1,-8.5427606E-1,5.905589E-1,-2.5E-2,2.3441162E-2,5.396416E-1,-7.2881055E-1,9.895081E-2,6.010438E-1,-5.6050986E-1,-2.3155885E0,-3.858003E-1,6.657591E-1,-1.0088206E-3,-1.2774974E0,6.780506E-1,-1.2440884E0,4.344751E-3,-6.068744E-4,-7.728527E-2,-2.3728411E0,6.33476E-1,-4.817133E-1,-1.8461087E0,3.1850094E-1,-9.267847E-2,-8.733095E-1,1.720696E0,1.6860847E-1,-1.3183372E0,8.4960006E-2,3.4615713E-1,4.4630834E-1,-1.3107134E0,8.468938E-1,2.3441162E-2,1.8197381E-3,4.3643342E-4,-1.2003422E-3,3.4451252E-4,5.2428248E-5,-1.6409679E-3,7.625353E-4,-3.228265E-4,-6.5471606E-5,2.867818E-4,3.312528E-4,1.2761E-3,-9.234246E-4,-1.7207488E-4,9.67759E-5,1.8760931E-3,1.5122117E-4,-1.8060207E-4,-1.0593117E-3,7.926643E-4,-3.9651594E-3,-3.1119885E-4,-2.161168E-3,3.6539312E-4,-1.3603494E-3,1.2656068E-3,-4.304463E-3,-1.5585132E-4,1.5190566E-3,-8.364679E-4,4.392341E-5,-1.5182538E-3,4.284192E-3,-4.0380788E-4,1.096325E-3,-1.1292945E-3,-1.5746635E-4,3.5084798E-3,1.1344166E-3,-3.537894E-4,-1.2044013E-4,-2.0000127E-3,8.2287757E-4,-1.3839297E-3,9.207344E-4,-2.4657543E-3,6.262743E-4,2.9681528E-3,-2.007543E-3,7.980035E-4],"split_indices":[47,41,41,28,8,38,12,53,41,11,52,45,18,59,41,37,51,12,0,15,36,0,2,3,12,40,48,3,22,35,11,39,9,38,45,1,0,24,0,4,0,0,3,2,4,36,35,8,20,12,38,4,1,49,39,36,55,32,28,0,0,0,0,0,0,0,0,0,0,0,0,0,0,0,0,0,0,0,0,0,0,0,0,0,0,0,0,0,0,0,0,0,0,0,0,0,0,0,0,0,0,0,0,0,0,0,0,0,0],"split_type":[0,0,0,0,0,0,0,0,0,0,0,0,0,0,0,0,0,0,0,0,0,0,0,0,0,0,0,0,0,0,0,0,0,0,0,0,0,0,0,0,0,0,0,0,0,0,0,0,0,0,0,0,0,0,0,0,0,0,0,0,0,0,0,0,0,0,0,0,0,0,0,0,0,0,0,0,0,0,0,0,0,0,0,0,0,0,0,0,0,0,0,0,0,0,0,0,0,0,0,0,0,0,0,0,0,0,0,0,0],"sum_hessian":[6.57E2,9.8E1,5.59E2,5.1E1,4.7E1,3.06E2,2.53E2,4.2E1,9E0,3.2E1,1.5E1,2.1E2,9.6E1,7.6E1,1.77E2,1.9E1,2.3E1,6E0,3E0,1E1,2.2E1,4E0,1.1E1,1.5E1,1.95E2,6.3E1,3.3E1,3.9E1,3.7E1,1.24E2,5.3E1,1.2E1,7E0,9E0,1.4E1,4E0,2E0,6E0,4E0,1.5E1,7E0,5E0,6E0,7E0,8E0,4.2E1,1.53E2,3.3E1,3E1,1.5E1,1.8E1,2.1E1,1.8E1,2.6E1,1.1E1,3.8E1,8.6E1,3E1,2.3E1,9E0,3E0,1E0,6E0,3E0,6E0,7E0,7E0,2E0,2E0,3E0,3E0,2E0,2E0,4E0,1.1E1,4E0,2E0,1E0,6E0,6E0,2E0,1.2E1,3E1,1.1E1,1.42E2,2.1E1,1.2E1,1.4E1,1.6E1,5E0,1E1,1.2E1,6E0,1.1E1,1E1,7E0,1.1E1,8E0,1.8E1,4E0,7E0,2.6E1,1.2E1,1.4E1,7.2E1,2.5E1,5E0,1.3E1,1E1],"tree_param":{"num_deleted":"0","num_feature":"60","num_nodes":"109","size_leaf_vector":"0"}},{"base_weights":[3.3560285E-5,3.1664933E-4,-1.9588291E-3,-3.2517026E-4,1.5188848E-3,3.6306126E-4,-5.790425E-3,-5.2346557E-4,1.20233325E-2,-1.636935E-3,2.718933E-3,-2.4571097E-3,2.8681045E-3,-1.2736494E-2,-7.3309237E-4,-8.640855E-5,-4.7292314E-3,2.1341642E-2,2.028767E-3,-5.1428527E-3,-1.0599667E-4,3.1687021E-3,-6.664872E-3,-1.3275544E-2,-9.3917875E-4,1.6171328E-3,8.299148E-3,6.460883E-4,-2.4299577E-2,-3.9632525E-3,1.9764109E-3,1.3973074E-3,-1.3811085E-3,-2.4314484E-2,-2.8054437E-3,3.6785007E-3,-1.4602169E-3,-2.7189052E-3,-1.2340955E-2,1.1142686E-3,-5.1263412E-3,-1.6549547E-3,3.8939544E-3,-3.972426E-4,-1.1266284E-2,-6.455414E-3,2.1102726E-4,3.2624375E-4,4.705543E-3,9.712264E-3,1.3233423E-3,-9.683787E-4,5.166445E-3,-3.0865574E-2,-5.2563897E-3,-1.0912835E-3,-6.0425713E-3,-3.608629E-4,3.3635476E-3,2.7796943E-3,-1.7345267E-3,1.7196108E-3,-2.820307E-3,-1.1129684E-2,3.035005E-4,-4.122365E-4,-5.7257577E-3,-2.6757733E-3,2.4341128E-3,-7.084012E-4,-5.6562754E-3,-3.9450834E-3,8.006692E-4,2.0335016E-3,6.3593043E-3,3.3211708E-4,-7.510682E-4,-1.585488E-3,1.8250387E-3,-6.5408426E-4,3.9209127E-3,5.881822E-3,1.1765634E-3,-7.772725E-5,-1.833121E-3,-6.814003E-3,-1.0705814E-3,1.6156833E-4,-1.9803743E-3,3.8820405E-3,1.2629479E-4],"categories":[],"categories_nodes":[],"categories_segments":[],"categories_sizes":[],"default_left":[1,1,1,1,1,1,1,1,1,1,1,1,1,1,1,1,1,0,1,1,1,1,1,0,1,1,1,1,1,1,1,1,1,0,1,0,0,1,0,1,1,1,1,1,0,0,1,1,1,0,0,1,0,0,1,1,0,0,1,0,0,0,0,0,0,0,0,0,0,0,0,0,0,0,0,0,0,0,0,0,0,0,0,0,0,0,0,0,0,0,0],"id":58,"left_children":[1,3,5,7,9,11,13,15,17,19,21,23,25,27,29,31,33,-1,35,37,39,41,43,-1,45,47,49,51,53,55,57,59,61,-1,63,-1,-1,65,-1,67,69,71,73,75,-1,-1,77,79,81,-1,-1,83,-1,-1,85,87,-1,-1,89,-1,-1,-1,-1,-1,-1,-1,-1,-1,-1,-1,-1,-1,-1,-1,-1,-1,-1,-1,-1,-1,-1,-1,-1,-1,-1,-1,-1,-1,-1,-1,-1],"loss_changes":[3.717478E-4,4.4571765E-4,7.3161896E-4,9.294348E-4,7.6566497E-4,3.7440908E-4,1.0796488E-3,6.833866E-4,5.1549746E-4,3.0002612E-4,6.3731894E-4,3.980728E-4,1.7681345E-4,2.0273705E-3,1.7412347E-4,6.512167E-4,1.2505124E-3,0E0,2.8394988E-5,2.6305913E-4,2.507582E-4,4.962159E-4,1.9740418E-4,0E0,1.4729283E-4,9.414792E-5,3.6435464E-5,5.6088837E-5,7.130215E-4,4.7151494E-5,3.6877078E-5,6.8886764E-4,8.1257144E-4,0E0,8.5740455E-4,0E0,0E0,9.4741E-5,0E0,1.715879E-4,1.4722813E-5,1.100089E-4,5.4664165E-4,1.281707E-6,0E0,0E0,6.0885497E-5,6.599579E-5,2.2137116E-5,0E0,0E0,4.47862E-6,0E0,0E0,1.2264667E-5,5.88946E-6,0E0,3.115847E-7,1.1259166E-5,0E0,0E0,0E0,0E0,0E0,0E0,0E0,0E0,0E0,0E0,0E0,0E0,0E0,0E0,0E0,0E0,0E0,0E0,0E0,0E0,0E0,0E0,0E0,0E0,0E0,0E0,0E0,0E0,0E0,0E0,0E0,0E0],"parents":[2147483647,0,0,1,1,2,2,3,3,4,4,5,5,6,6,7,7,8,8,9,9,10,10,11,11,12,12,13,13,14,14,15,15,16,16,18,18,19,19,20,20,21,21,22,22,24,24,25,25,26,26,27,27,28,28,29,29,30,30,31,31,32,32,34,34,37,37,39,39,40,40,41,41,42,42,43,43,46,46,47,47,48,48,51,51,54,54,55,55,58,58],"right_children":[2,4,6,8,10,12,14,16,18,20,22,24,26,28,30,32,34,-1,36,38,40,42,44,-1,46,48,50,52,54,56,58,60,62,-1,64,-1,-1,66,-1,68,70,72,74,76,-1,-1,78,80,82,-1,-1,84,-1,-1,86,88,-1,-1,90,-1,-1,-1,-1,-1,-1,-1,-1,-1,-1,-1,-1,-1,-1,-1,-1,-1,-1,-1,-1,-1,-1,-1,-1,-1,-1,-1,-1,-1,-1,-1,-1],"split_conditions":[1.4801486E0,4.3316102E-1,3.3453998E-1,1.2945642E0,-8.5389066E-1,-1.5694797E-1,2.3853564E0,2.896129E-1,-6.1545265E-1,-7.124605E-1,2.28338E0,-2.0375292E0,1.028265E0,-6.274239E-1,-8.5173875E-1,-9.344007E-2,-1.3315465E0,6.402493E-3,1.0066395E0,9.2455626E-1,1.5242019E0,-1.6754172E0,-2.2753145E-1,-3.9826636E-3,-2.0604024E0,8.806157E-1,-4.2700797E-2,1.7513821E0,5.4461338E-2,7.087843E-1,-6.400854E-1,5.0068927E-1,-7.5326926E-1,-7.294345E-3,-4.8957843E-1,1.1035502E-3,-4.380651E-4,-2.3201857E-2,-3.7022869E-3,-6.6781265E-1,-9.558873E-1,4.3207335E-1,3.284372E-1,-1.068168E0,-3.3798853E-3,-1.9366243E-3,-6.584629E-1,5.467428E-1,6.682908E-1,2.9136792E-3,3.970027E-4,-6.258226E-1,1.5499336E-3,-9.259673E-3,6.7016876E-1,-4.5564196E-1,-1.8127714E-3,-1.0825888E-4,2.2144682E0,8.339083E-4,-5.2035804E-4,5.1588326E-4,-8.460921E-4,-3.3389053E-3,9.1050155E-5,-1.2367095E-4,-1.7177274E-3,-8.02732E-4,7.3023385E-4,-2.1252038E-4,-1.6968827E-3,-1.1835251E-3,2.4020077E-4,6.100505E-4,1.9077914E-3,9.963513E-5,-2.2532046E-4,-4.756464E-4,5.475116E-4,-1.9622529E-4,1.1762739E-3,1.7645467E-3,3.5296904E-4,-2.3318176E-5,-5.499363E-4,-2.044201E-3,-3.2117442E-4,4.84705E-5,-5.941123E-4,1.1646122E-3,3.788844E-5],"split_indices":[22,51,56,22,42,30,22,51,5,44,54,40,33,26,13,37,25,0,2,13,3,38,5,0,2,59,3,0,30,2,21,39,27,0,38,0,0,11,0,49,0,11,10,0,0,0,4,37,1,0,0,9,0,0,0,1,0,0,0,0,0,0,0,0,0,0,0,0,0,0,0,0,0,0,0,0,0,0,0,0,0,0,0,0,0,0,0,0,0,0,0],"split_type":[0,0,0,0,0,0,0,0,0,0,0,0,0,0,0,0,0,0,0,0,0,0,0,0,0,0,0,0,0,0,0,0,0,0,0,0,0,0,0,0,0,0,0,0,0,0,0,0,0,0,0,0,0,0,0,0,0,0,0,0,0,0,0,0,0,0,0,0,0,0,0,0,0,0,0,0,0,0,0,0,0,0,0,0,0,0,0,0,0,0,0],"sum_hessian":[6.57E2,5.76E2,8.1E1,3.76E2,2E2,5.1E1,3E1,3.71E2,5E0,5.5E1,1.45E2,2.4E1,2.7E1,1.2E1,1.8E1,3.37E2,3.4E1,2E0,3E0,1.6E1,3.9E1,1.39E2,6E0,2E0,2.2E1,2.3E1,4E0,6E0,6E0,8E0,1E1,1.57E2,1.8E2,2E0,3.2E1,2E0,1E0,1.3E1,3E0,3.2E1,7E0,1.8E1,1.21E2,3E0,3E0,3E0,1.9E1,1.7E1,6E0,3E0,1E0,5E0,1E0,4E0,2E0,4E0,4E0,4E0,6E0,1.09E2,4.8E1,5.7E1,1.23E2,8E0,2.4E1,8E0,5E0,8E0,2.4E1,1E0,6E0,9E0,9E0,7E1,5.1E1,1E0,2E0,9E0,1E1,1.4E1,3E0,4E0,2E0,3E0,2E0,1E0,1E0,2E0,2E0,5E0,1E0],"tree_param":{"num_deleted":"0","num_feature":"60","num_nodes":"91","size_leaf_vector":"0"}},{"base_weights":[-1.3437425E-5,-1.698012E-4,2.8612919E-3,-1.3669385E-3,2.4159743E-4,1.7626005E-3,1.0660827E-2,2.5775859E-3,-2.4121895E-3,1.1770469E-3,-1.0530374E-3,3.6909257E-3,-8.425747E-4,4.6202173E-3,-1.5522564E-3,-6.134723E-3,-5.00647E-4,3.0128679E-3,-4.8727437E-4,-2.584712E-3,1.6207458E-3,1.7946532E-4,5.4317005E-3,-2.4720808E-3,1.1400857E-3,2.174136E-3,8.934852E-3,-4.2873747E-3,1.8974245E-3,4.2139986E-4,-9.314278E-3,2.5739276E-4,-6.211684E-3,-2.1136536E-4,4.7426517E-3,-5.763111E-3,5.195977E-4,8.7527384E-4,-4.2839344E-3,-4.104535E-3,3.3298356E-3,-7.8900653E-4,7.246554E-4,-3.4427643E-4,6.6213235E-3,-2.9762492E-3,-6.397168E-4,2.322033E-3,-3.2688305E-4,-1.0180057E-3,3.323017E-3,1.1970997E-3,9.869231E-3,-1.6169071E-3,-7.3090293E-3,-2.3196056E-3,4.919509E-3,-2.4119034E-2,-6.6783824E-3,-1.5497162E-3,3.0799503E-3,-1.3287613E-2,7.2020356E-4,7.550622E-3,-1.3421107E-3,1.3500826E-2,3.51166E-3,-2.1017378E-3,-1.8523708E-2,-2.1795598E-3,1.8299234E-3,-1.7244616E-3,2.896928E-3,-5.577469E-3,7.6888374E-4,-8.136626E-3,3.836155E-4,1.612642E-2,2.3012285E-3,7.0697186E-3,1.2928843E-3],"categories":[],"categories_nodes":[],"categories_segments":[],"categories_sizes":[],"default_left":[1,1,1,1,1,1,0,1,1,1,1,1,1,1,1,1,1,1,1,1,1,1,1,1,1,1,1,1,0,1,1,1,1,1,1,1,1,1,1,1,1,0,0,0,1,0,0,0,0,0,0,0,0,0,0,0,0,0,0,0,0,0,0,0,0,0,0,0,0,0,0,0,0,0,0,0,0,0,0,0,0],"id":59,"left_children":[1,3,5,7,9,11,-1,13,15,17,19,21,23,25,27,29,31,33,35,37,39,41,43,45,47,49,51,53,-1,55,57,59,61,63,65,67,69,71,73,75,77,-1,-1,-1,79,-1,-1,-1,-1,-1,-1,-1,-1,-1,-1,-1,-1,-1,-1,-1,-1,-1,-1,-1,-1,-1,-1,-1,-1,-1,-1,-1,-1,-1,-1,-1,-1,-1,-1,-1,-1],"loss_changes":[2.9625918E-4,3.0814315E-4,2.7256482E-4,6.659005E-4,5.655959E-4,1.5884225E-4,0E0,2.9398713E-4,9.006329E-4,8.2948036E-4,8.068809E-4,1.0905313E-4,4.8048983E-5,2.2331515E-4,1.2135839E-4,9.002838E-4,3.6958026E-4,7.2046474E-4,7.626238E-4,7.3866034E-4,7.181888E-4,4.2677666E-6,8.4734405E-5,5.486607E-6,1.2896192E-5,6.20611E-5,4.6025496E-5,4.466661E-5,4.888898E-7,1.9635145E-4,9.7061414E-4,3.9242388E-4,5.000652E-4,4.13868E-4,8.5821387E-4,1.0356582E-3,4.3193818E-4,2.2573781E-4,5.533119E-4,3.107641E-4,6.999982E-4,0E0,1.8310993E-7,0E0,1.47521205E-5,0E0,0E0,0E0,0E0,0E0,0E0,0E0,0E0,0E0,0E0,0E0,0E0,0E0,0E0,0E0,0E0,0E0,0E0,0E0,0E0,0E0,0E0,0E0,0E0,0E0,0E0,0E0,0E0,0E0,0E0,0E0,0E0,0E0,0E0,0E0,0E0],"parents":[2147483647,0,0,1,1,2,2,3,3,4,4,5,5,7,7,8,8,9,9,10,10,11,11,12,12,13,13,14,14,15,15,16,16,17,17,18,18,19,19,20,20,21,21,22,22,23,23,24,24,25,25,26,26,27,27,29,29,30,30,31,31,32,32,33,33,34,34,35,35,36,36,37,37,38,38,39,39,40,40,44,44],"right_children":[2,4,6,8,10,12,-1,14,16,18,20,22,24,26,28,30,32,34,36,38,40,42,44,46,48,50,52,54,-1,56,58,60,62,64,66,68,70,72,74,76,78,-1,-1,-1,80,-1,-1,-1,-1,-1,-1,-1,-1,-1,-1,-1,-1,-1,-1,-1,-1,-1,-1,-1,-1,-1,-1,-1,-1,-1,-1,-1,-1,-1,-1,-1,-1,-1,-1,-1,-1],"split_conditions":[2.6465535E0,-8.275664E-1,1.9573932E0,-1.4268061E0,2.3694876E-1,4.4035032E-1,3.1982483E-3,4.4755796E-1,-1.4293888E-1,-2.4518074E-2,3.6888045E-1,-3.249257E-1,2.6067746E-1,2.0507182E-1,3.1849432E-1,-2.932533E-1,1.9030721E0,-4.8266464E-1,2.2721338E-1,-5.243507E-1,-8.3682835E-1,-1.4246476E0,-1.5574427E0,1.8093607E0,-7.8378403E-1,-4.9269778E-1,-4.0459877E-1,-9.56774E-1,5.692274E-4,4.2513576E-1,-1.0279349E0,2.4147135E-1,9.269006E-1,-1.9260075E0,-2.3911163E-1,1.2602174E0,-3.4598488E-1,-2.5391084E-1,7.945612E-1,1.3377067E0,-2.173709E0,-2.3670196E-4,2.1739663E-4,-1.0328293E-4,1.9694691E0,-8.928748E-4,-1.9191505E-4,6.9660996E-4,-9.806492E-5,-3.054017E-4,9.969051E-4,3.5912992E-4,2.9607695E-3,-4.8507215E-4,-2.192709E-3,-6.9588167E-4,1.4758528E-3,-7.2357105E-3,-2.003515E-3,-4.649149E-4,9.2398515E-4,-3.986284E-3,2.1606107E-4,2.2651867E-3,-4.0263322E-4,4.0502483E-3,1.053498E-3,-6.3052133E-4,-5.5571124E-3,-6.5386796E-4,5.4897706E-4,-5.173385E-4,8.6907845E-4,-1.6732407E-3,2.3066513E-4,-2.440988E-3,1.1508465E-4,4.8379265E-3,6.903686E-4,2.1209156E-3,3.8786532E-4],"split_indices":[4,19,50,53,50,24,0,49,53,18,17,3,56,9,6,15,24,59,18,20,33,2,36,11,6,16,3,17,0,54,25,30,13,22,59,23,3,8,25,17,15,0,0,0,2,0,0,0,0,0,0,0,0,0,0,0,0,0,0,0,0,0,0,0,0,0,0,0,0,0,0,0,0,0,0,0,0,0,0,0,0],"split_type":[0,0,0,0,0,0,0,0,0,0,0,0,0,0,0,0,0,0,0,0,0,0,0,0,0,0,0,0,0,0,0,0,0,0,0,0,0,0,0,0,0,0,0,0,0,0,0,0,0,0,0,0,0,0,0,0,0,0,0,0,0,0,0,0,0,0,0,0,0,0,0,0,0,0,0,0,0,0,0,0,0],"sum_hessian":[6.57E2,6.24E2,3.3E1,1.59E2,4.65E2,3E1,3E0,3.3E1,1.26E2,2.7E2,1.95E2,1.7E1,1.3E1,2.2E1,1.1E1,4.2E1,8.4E1,1.28E2,1.42E2,1.24E2,7.1E1,6E0,1.1E1,7E0,6E0,1.5E1,7E0,6E0,5E0,1.4E1,2.8E1,7.5E1,9E0,4.5E1,8.3E1,2.2E1,1.2E2,4.1E1,8.3E1,1.6E1,5.5E1,2E0,4E0,2E0,9E0,5E0,2E0,3E0,3E0,4E0,1.1E1,1E0,6E0,4E0,2E0,9E0,5E0,3E0,2.5E1,4.6E1,2.9E1,4E0,5E0,5E0,4E1,9E0,7.4E1,1.8E1,4E0,3.9E1,8.1E1,1.8E1,2.3E1,6.6E1,1.7E1,8E0,8E0,3E0,5.2E1,8E0,1E0],"tree_param":{"num_deleted":"0","num_feature":"60","num_nodes":"81","size_leaf_vector":"0"}},{"base_weights":[-1.24209E-5,-8.0680265E-4,4.4262456E-4,-6.5603945E-4,-1.2498419E-2,5.8486164E-3,2.9614894E-4,-1.1494628E-3,3.0856878E-3,9.019089E-3,1.7033741E-3,-6.0909486E-4,1.1158065E-3,-9.7612926E-4,-1.8774748E-2,6.2952936E-3,1.234017E-3,2.0854473E-3,9.988728E-3,1.5065816E-3,-1.630263E-3,7.0327297E-3,5.3947483E-4,-3.026809E-3,6.17473E-4,7.4192137E-3,1.1997422E-3,1.9687633E-3,-1.2170256E-3,8.8871067E-4,1.377372E-2,-3.7374578E-3,4.6981347E-4,1.3998432E-2,2.7409878E-3,5.0419564E-3,-2.6400587E-5,-2.0722025E-3,-1.9222522E-2,-3.101099E-5,6.4023724E-3,9.1517786E-4,3.8928986E-3,-5.114134E-3,1.6231964E-3,3.7295222E-3,1.6931057E-2,-6.359613E-3,1.7959255E-3,1.9739629E-3,-3.4340355E-3,1.6986394E-2,4.352351E-3,1.0053746E-3,6.3947737E-3,1.1391349E-2,6.0006446E-4,3.5465742E-3,-7.2633213E-4],"categories":[],"categories_nodes":[],"categories_segments":[],"categories_sizes":[],"default_left":[1,1,1,1,0,1,1,1,1,1,0,1,1,1,0,1,1,0,0,1,1,1,1,1,1,0,0,1,0,1,1,1,1,1,1,1,1,0,0,0,0,0,0,0,0,0,0,0,0,0,0,0,0,0,0,0,0,0,0],"id":60,"left_children":[1,3,5,7,-1,9,11,13,15,17,-1,19,21,23,-1,25,27,-1,-1,29,31,33,35,37,39,-1,-1,41,-1,43,45,47,49,51,53,55,57,-1,-1,-1,-1,-1,-1,-1,-1,-1,-1,-1,-1,-1,-1,-1,-1,-1,-1,-1,-1,-1,-1],"loss_changes":[2.3821084E-4,4.1484032E-4,3.3005147E-4,4.429557E-4,0E0,1.2920325E-4,3.041535E-4,6.262894E-4,1.5863925E-4,1.9507861E-5,0E0,4.2374607E-4,7.2937977E-4,6.881422E-4,0E0,4.836879E-5,3.6613026E-5,0E0,0E0,4.7284766E-4,5.858916E-4,5.296354E-4,5.020583E-4,1.3825363E-3,4.4661685E-4,0E0,0E0,2.6845919E-5,0E0,2.8165948E-4,3.1993957E-5,9.6904114E-4,4.0020075E-4,1.2782414E-4,7.6011114E-5,6.1363744E-4,4.4272342E-4,0E0,0E0,0E0,0E0,0E0,0E0,0E0,0E0,0E0,0E0,0E0,0E0,0E0,0E0,0E0,0E0,0E0,0E0,0E0,0E0,0E0,0E0],"parents":[2147483647,0,0,1,1,2,2,3,3,5,5,6,6,7,7,8,8,9,9,11,11,12,12,13,13,15,15,16,16,19,19,20,20,21,21,22,22,23,23,24,24,27,27,29,29,30,30,31,31,32,32,33,33,34,34,35,35,36,36],"right_children":[2,4,6,8,-1,10,12,14,16,18,-1,20,22,24,-1,26,28,-1,-1,30,32,34,36,38,40,-1,-1,42,-1,44,46,48,50,52,54,56,58,-1,-1,-1,-1,-1,-1,-1,-1,-1,-1,-1,-1,-1,-1,-1,-1,-1,-1,-1,-1,-1,-1],"split_conditions":[-3.7500975E-1,-3.873635E-1,-3.1492436E-1,1.6083608E0,-3.7495259E-3,1.1277294E-1,3.9517302E-2,1.5987514E0,-6.9418633E-1,-3.1305532E0,5.110123E-4,-7.0622516E-1,1.6960254E-1,5.938395E-2,-5.6324247E-3,1.3820782E0,9.9E-1,6.256342E-4,2.9966186E-3,-7.424619E-1,7.4534625E-2,-1.3129361E-1,-1.6379089E0,-1.2521913E-2,1.3897493E0,2.225764E-3,3.5992268E-4,6.8034494E-1,-3.6510767E-4,-1.7014146E0,4.561988E-1,5.396416E-1,6.5876484E-1,9.1633016E-1,5.549581E-1,8.282286E-1,-1.200273E0,-6.216608E-4,-5.766757E-3,-9.303298E-6,1.9207118E-3,2.7455337E-4,1.1678697E-3,-1.5342402E-3,4.8695895E-4,1.1188567E-3,5.0793174E-3,-1.907884E-3,5.387777E-4,5.921889E-4,-1.0302106E-3,5.0959187E-3,1.3057054E-3,3.016124E-4,1.9184322E-3,3.4174048E-3,1.8001934E-4,1.0639722E-3,-2.1789965E-4],"split_indices":[25,25,25,59,0,36,48,59,31,2,0,51,48,31,0,20,20,0,0,51,45,1,39,31,44,0,0,28,0,41,0,17,23,8,38,48,58,0,0,0,0,0,0,0,0,0,0,0,0,0,0,0,0,0,0,0,0,0,0],"split_type":[0,0,0,0,0,0,0,0,0,0,0,0,0,0,0,0,0,0,0,0,0,0,0,0,0,0,0,0,0,0,0,0,0,0,0,0,0,0,0,0,0,0,0,0,0,0,0,0,0,0,0,0,0,0,0,0,0,0,0],"sum_hessian":[6.57E2,2.39E2,4.18E2,2.37E2,2E0,1E1,4.08E2,2.1E2,2.7E1,5E0,5E0,1.94E2,2.14E2,2.09E2,1E0,9E0,1.8E1,1E0,4E0,6.3E1,1.31E2,1.8E1,1.96E2,9.1E1,1.18E2,7E0,2E0,1.4E1,4E0,6.1E1,2E0,6.5E1,6.6E1,6E0,1.2E1,2.1E1,1.75E2,8.7E1,4E0,1.07E2,1.1E1,1E1,4E0,6E0,5.5E1,1E0,1E0,4.4E1,2.1E1,4.8E1,1.8E1,4E0,2E0,9E0,3E0,8E0,1.3E1,2.8E1,1.47E2],"tree_param":{"num_deleted":"0","num_feature":"60","num_nodes":"59","size_leaf_vector":"0"}},{"base_weights":[7.025602E-6,-1.4068275E-4,2.3550296E-3,-3.237093E-4,1.7837015E-3,1.5215635E-2,1.616181E-3,8.718829E-5,-1.509155E-3,2.9796795E-3,-1.8462129E-3,2.236296E-3,-4.2138696E-3,-7.1051763E-4,1.4658851E-3,-4.391159E-3,-3.4198054E-4,1.2233545E-3,6.668429E-3,5.8487523E-4,-4.3608546E-3,2.7807124E-3,-8.585031E-4,-1.14363145E-4,-5.103583E-3,-3.0715645E-3,2.0844664E-3,7.1249335E-5,-9.3033705E-3,1.0791696E-3,-2.1187013E-3,2.0734395E-3,-2.3808777E-3,1.0508783E-2,2.9546097E-3,-4.0096045E-4,1.2565687E-3,-6.0339767E-4,-5.743158E-3,-2.0243227E-4,3.1196706E-3,-1.4083087E-4,-1.5292317E-3,3.814702E-3,-5.9569016E-4,-8.409822E-3,3.7552303E-4,-3.5495523E-4,-8.898392E-3,-2.0567839E-4,3.6230476E-3,-1.9727435E-3,1.7953011E-3,-3.0474502E-3,-2.048616E-2,-3.0568647E-4,4.2505465E-3,-5.02409E-3,8.7496656E-4,1.27696E-3,5.736597E-3,-3.4965575E-4,-4.295548E-3,1.2371134E-2,4.522721E-3,4.053369E-3,-2.2777915E-4,1.6824603E-3,4.1182092E-4,1.12593174E-4,-1.0176897E-3,4.8193485E-3,2.2838158E-3],"categories":[],"categories_nodes":[],"categories_segments":[],"categories_sizes":[],"default_left":[1,1,1,1,1,0,1,1,1,1,1,1,0,1,1,1,1,1,1,1,1,1,1,1,1,1,1,1,1,1,1,1,1,1,1,0,1,1,0,0,1,0,0,0,0,0,0,0,0,0,0,0,0,0,0,0,0,0,0,0,0,0,0,0,0,0,0,0,0,0,0,0,0],"id":61,"left_children":[1,3,5,7,9,-1,11,13,15,17,19,21,-1,23,25,27,29,31,33,35,37,39,41,43,45,47,49,51,53,55,57,59,61,63,65,-1,67,69,-1,-1,71,-1,-1,-1,-1,-1,-1,-1,-1,-1,-1,-1,-1,-1,-1,-1,-1,-1,-1,-1,-1,-1,-1,-1,-1,-1,-1,-1,-1,-1,-1,-1,-1],"loss_changes":[2.2853873E-4,2.1894973E-4,3.459883E-4,2.763155E-4,2.3993119E-4,0E0,1.468049E-4,4.6515482E-4,4.896134E-4,2.574665E-4,8.813698E-5,6.135735E-5,0E0,7.0129376E-4,4.414538E-4,9.213152E-4,2.6741007E-4,9.37898E-5,1.543616E-4,5.80127E-6,3.2892203E-5,3.096636E-5,2.6728167E-6,4.5047852E-4,5.828457E-4,2.9759653E-4,4.834748E-4,8.459251E-5,1.3367422E-3,2.6042142E-4,4.13191E-4,6.269771E-5,2.1832759E-5,1.0937685E-5,2.8896706E-5,4.423481E-7,1.1059828E-6,1.0044728E-6,0E0,7.19078E-7,2.7351954E-5,1.8134361E-7,0E0,0E0,0E0,0E0,0E0,0E0,0E0,0E0,0E0,0E0,0E0,0E0,0E0,0E0,0E0,0E0,0E0,0E0,0E0,0E0,0E0,0E0,0E0,0E0,0E0,0E0,0E0,0E0,0E0,0E0,0E0],"parents":[2147483647,0,0,1,1,2,2,3,3,4,4,6,6,7,7,8,8,9,9,10,10,11,11,13,13,14,14,15,15,16,16,17,17,18,18,19,19,20,20,21,21,22,22,23,23,24,24,25,25,26,26,27,27,28,28,29,29,30,30,31,31,32,32,33,33,34,34,36,36,37,37,40,40],"right_children":[2,4,6,8,10,-1,12,14,16,18,20,22,-1,24,26,28,30,32,34,36,38,40,42,44,46,48,50,52,54,56,58,60,62,64,66,-1,68,70,-1,-1,72,-1,-1,-1,-1,-1,-1,-1,-1,-1,-1,-1,-1,-1,-1,-1,-1,-1,-1,-1,-1,-1,-1,-1,-1,-1,-1,-1,-1,-1,-1,-1,-1],"split_conditions":[2.2759485E0,2.029421E0,2.3039083E0,7.247662E-1,6.648735E-1,4.564691E-3,2.4839046E0,-2.3957884E-2,-7.7013874E-1,3.0248515E-2,1.9022074E-1,1.5293868E0,-1.264161E-3,-1.2598586E-1,-1.7266028E0,-1.4721241E0,-4.3035403E-2,1.0083058E0,2.589442E0,-3.6022848E-1,-1.0141207E0,-3.0192108E0,-8.0771124E-1,-1.8469512E0,1.098423E0,4.5811453E-1,-2.2890818E-1,1.3723464E0,4.8316664E-1,-5.00231E-1,3.5944158E-1,3.3760148E-1,4.0613222E-1,-2.9894772E-1,2.3593192E0,-1.2028814E-4,-3.115791E-2,-1.4314106E0,-1.7229475E-3,-6.0729686E-5,-7.611285E-1,-4.2249263E-5,-4.5876953E-4,1.1444106E-3,-1.7870705E-4,-2.5229468E-3,1.1265691E-4,-1.0648657E-4,-2.6695179E-3,-6.170352E-5,1.0869143E-3,-5.918231E-4,5.3859036E-4,-9.142351E-4,-6.145848E-3,-9.1705944E-5,1.275164E-3,-1.5072271E-3,2.6248998E-4,3.8308802E-4,1.7209791E-3,-1.0489673E-4,-1.2886644E-3,3.7113403E-3,1.3568163E-3,1.2160108E-3,-6.833375E-5,5.047381E-4,1.2354628E-4,3.3777953E-5,-3.0530692E-4,1.4458046E-3,6.8514474E-4],"split_indices":[58,35,58,36,49,0,0,36,49,24,33,43,0,36,2,49,35,0,35,38,1,40,10,55,49,17,58,36,59,35,1,49,3,4,0,0,0,0,0,0,55,0,0,0,0,0,0,0,0,0,0,0,0,0,0,0,0,0,0,0,0,0,0,0,0,0,0,0,0,0,0,0,0],"split_type":[0,0,0,0,0,0,0,0,0,0,0,0,0,0,0,0,0,0,0,0,0,0,0,0,0,0,0,0,0,0,0,0,0,0,0,0,0,0,0,0,0,0,0,0,0,0,0,0,0,0,0,0,0,0,0,0,0,0,0,0,0,0,0,0,0,0,0,0,0,0,0,0,0],"sum_hessian":[6.57E2,6.19E2,3.8E1,5.66E2,5.3E1,1E0,3.7E1,4.21E2,1.45E2,4E1,1.3E1,3.4E1,3E0,2.67E2,1.54E2,4.1E1,1.04E2,2.8E1,1.2E1,7E0,6E0,2.9E1,5E0,2.36E2,3.1E1,1.8E1,1.36E2,2.2E1,1.9E1,5.8E1,4.6E1,2.3E1,5E0,5E0,7E0,3E0,4E0,2E0,4E0,3E0,2.6E1,3E0,2E0,2.5E1,2.11E2,1.9E1,1.2E1,1.3E1,5E0,5.5E1,8.1E1,1E1,1.2E1,1.3E1,6E0,4.1E1,1.7E1,2.3E1,2.3E1,2E1,3E0,3E0,2E0,3E0,2E0,5E0,2E0,2E0,2E0,1E0,1E0,7E0,1.9E1],"tree_param":{"num_deleted":"0","num_feature":"60","num_nodes":"73","size_leaf_vector":"0"}},{"base_weights":[4.8293264E-6,2.7308357E-3,-8.4905725E-5,8.481991E-3,1.3010883E-3,6.636214E-5,-2.3480193E-3,1.0124062E-2,1.7778873E-3,-4.37877E-4,2.2070606E-3,-4.661938E-4,7.12652E-4,-1.43E-3,-1.3193592E-2,4.2661032E-4,-8.68994E-4,2.8636418E-3,7.1511866E-4,-1.3918291E-3,9.0836524E-4,1.3403654E-3,-1.9567632E-3,-5.5071595E-4,-5.245298E-3,-2.670385E-3,-1.7120004E-2,3.2411765E-3,1.1540254E-3,5.228817E-4,-2.8800094E-3,5.2687693E-3,1.8005184E-4,5.8849445E-3,7.275478E-4,-3.6970947E-3,5.844655E-4,-1.3051098E-3,1.2394615E-3,-7.1731745E-3,-2.83738E-4,1.2541525E-3,-3.0708287E-3,-4.3730005E-3,7.8139355E-4,5.8245536E-5,1.2425959E-2,-2.137673E-3,1.4930842E-3,-6.264746E-3,7.742067E-3,1.7638152E-3,-1.2785125E-3,-1.6642915E-3,-1.1889726E-2,1.7476502E-3,-2.8086354E-3,-2.8960705E-3,-2.6352605E-4,1.8029623E-3,3.1536818E-4,-1.3125837E-3,8.869767E-4],"categories":[],"categories_nodes":[],"categories_segments":[],"categories_sizes":[],"default_left":[1,1,1,1,1,1,1,0,0,1,1,1,1,1,1,0,0,1,0,1,1,1,1,1,1,0,0,0,0,1,1,1,1,1,1,1,1,1,1,0,1,0,0,0,0,0,0,0,0,0,0,0,0,0,0,0,0,0,0,0,0,0,0],"id":62,"left_children":[1,3,5,7,9,11,13,-1,-1,15,17,19,21,23,25,-1,-1,27,-1,29,31,33,35,37,39,-1,-1,-1,-1,41,43,45,47,49,51,53,55,57,59,-1,61,-1,-1,-1,-1,-1,-1,-1,-1,-1,-1,-1,-1,-1,-1,-1,-1,-1,-1,-1,-1,-1,-1],"loss_changes":[1.6119072E-4,1.6164088E-4,2.1856642E-4,2.6035006E-5,2.93246E-5,2.0649935E-4,3.7939101E-4,0E0,0E0,2.9795879E-6,9.7071315E-6,4.1986431E-4,4.567179E-4,1.245911E-4,7.8238314E-5,8.433034E-8,0E0,1.4231118E-6,1.6270792E-7,5.6284457E-4,4.214249E-4,6.084179E-4,2.3213499E-4,4.4833592E-5,6.492162E-5,0E0,0E0,0E0,0E0,2.324852E-4,6.101921E-4,7.0783775E-4,3.5316526E-4,6.351521E-4,4.0762394E-4,4.964862E-4,9.1738184E-5,3.7350546E-5,4.6386776E-6,0E0,4.7776857E-6,0E0,0E0,0E0,0E0,0E0,0E0,0E0,0E0,0E0,0E0,0E0,0E0,0E0,0E0,0E0,0E0,0E0,0E0,0E0,0E0,0E0,0E0],"parents":[2147483647,0,0,1,1,2,2,3,3,4,4,5,5,6,6,9,9,10,10,11,11,12,12,13,13,14,14,17,17,19,19,20,20,21,21,22,22,23,23,24,24,29,29,30,30,31,31,32,32,33,33,34,34,35,35,36,36,37,37,38,38,40,40],"right_children":[2,4,6,8,10,12,14,-1,-1,16,18,20,22,24,26,-1,-1,28,-1,30,32,34,36,38,40,-1,-1,-1,-1,42,44,46,48,50,52,54,56,58,60,-1,62,-1,-1,-1,-1,-1,-1,-1,-1,-1,-1,-1,-1,-1,-1,-1,-1,-1,-1,-1,-1,-1,-1],"split_conditions":[-3.1308131E0,-1.4883968E0,2.3356972E0,-3.2844138E-1,-1.5167034E0,1.15113474E-1,3.4941385E0,3.0372187E-3,5.333662E-4,4.2865794E-2,6.0275555E-1,3.2250845E-1,1.0184671E0,1.0973961E0,-3.839928E-1,1.279831E-4,-2.606982E-4,1.7874576E-1,2.1453561E-4,-5.128812E-2,-9.251112E-1,3.059426E-1,-3.6849726E-2,3.5997364E-1,5.720326E-1,-8.0111553E-4,-5.1360014E-3,9.72353E-4,3.4620764E-4,-1.0984321E-1,5.97903E-1,5.578627E-1,-3.31733E-1,-1.3301933E0,4.442671E-1,-5.1763624E-1,1.3540359E0,-1.3061832E-1,7.789773E-1,-2.1519524E-3,8.136955E-1,3.7624576E-4,-9.2124863E-4,-1.3119002E-3,2.3441807E-4,1.7473662E-5,3.7277879E-3,-6.41302E-4,4.479253E-4,-1.879424E-3,2.3226202E-3,5.291446E-4,-3.8355376E-4,-4.9928745E-4,-3.566918E-3,5.242951E-4,-8.4259064E-4,-8.6882117E-4,-7.905782E-5,5.408887E-4,9.4610456E-5,-3.9377512E-4,2.6609303E-4],"split_indices":[35,1,20,0,20,0,15,0,0,1,21,38,48,21,0,0,0,5,0,9,49,0,20,21,3,0,0,0,0,0,7,25,43,5,20,20,3,2,21,0,0,0,0,0,0,0,0,0,0,0,0,0,0,0,0,0,0,0,0,0,0,0,0],"split_type":[0,0,0,0,0,0,0,0,0,0,0,0,0,0,0,0,0,0,0,0,0,0,0,0,0,0,0,0,0,0,0,0,0,0,0,0,0,0,0,0,0,0,0,0,0,0,0,0,0,0,0,0,0,0,0,0,0,0,0,0,0,0,0],"sum_hessian":[6.57E2,2E1,6.37E2,3E0,1.7E1,5.98E2,3.9E1,2E0,1E0,6E0,1.1E1,3.28E2,2.7E2,3.7E1,2E0,2E0,4E0,7E0,4E0,1.96E2,1.32E2,2.19E2,5.1E1,3.1E1,6E0,1E0,1E0,5E0,2E0,8.6E1,1.1E2,1.8E1,1.14E2,2.5E1,1.94E2,3E1,2.1E1,2.2E1,9E0,4E0,2E0,7.2E1,1.4E1,7.8E1,3.2E1,1.1E1,7E0,4.1E1,7.3E1,3E0,2.2E1,1.28E2,6.6E1,2.5E1,5E0,1.6E1,5E0,8E0,1.4E1,5E0,4E0,1E0,1E0],"tree_param":{"num_deleted":"0","num_feature":"60","num_nodes":"63","size_leaf_vector":"0"}},{"base_weights":[-4.859254E-6,-1.8217949E-4,1.2089978E-3,-9.845458E-5,-9.707129E-3,5.4904736E-5,2.7462635E-3,2.541704E-4,-1.1172788E-3,8.576711E-4,-1.703622E-2,1.4105283E-3,-1.8197614E-3,-1.6640623E-4,4.0344945E-3,-3.325457E-4,1.4767796E-3,-3.00412E-3,6.8495603E-4,2.358079E-3,-1.0715723E-3,2.2520665E-3,-2.1907126E-3,3.7143644E-4,-5.4268874E-3,1.5966168E-3,-2.1955322E-3,5.3330427E-3,-6.649324E-5,-9.921131E-4,1.228207E-3,-9.21404E-6,3.5886164E-3,-8.506276E-3,-1.4069515E-3,5.516228E-3,-3.0709844E-4,2.9133286E-3,2.2995472E-4,-4.552183E-3,1.280685E-4,2.9094769E-3,-2.5822434E-3,-6.0156113E-3,-6.529093E-4,-6.076892E-4,2.599877E-3,-3.031522E-3,-3.4903488E-4,3.0312797E-3,7.553749E-3,-1.1081994E-3,3.0918717E-3,-5.8633566E-4,-1.4217417E-2,3.2747588E-3,-1.7289918E-4,-2.0349224E-3,1.5425885E-3,1.017884E-3,6.4072865E-3,1.5686686E-3,-1.4708109E-2,-3.1818596E-3,4.1647247E-4,-4.9019355E-4,9.331515E-3,-8.929665E-3,1.150757E-4,3.7117006E-4,3.6131474E-3,-4.117012E-4,1.2227297E-3,-3.6911108E-4,8.098036E-4,-1.1450052E-4,3.936553E-3,-7.8145665E-4,-3.146267E-3,1.0688544E-3,3.999972E-3,8.072167E-3,1.7032027E-3,-1.6335845E-3,-3.828605E-5],"categories":[],"categories_nodes":[],"categories_segments":[],"categories_sizes":[],"default_left":[1,1,1,1,1,1,1,1,1,1,0,1,1,1,1,1,1,1,1,0,0,1,1,1,1,1,1,1,1,1,1,1,1,1,1,1,1,1,1,0,1,1,1,0,0,0,0,0,0,1,1,1,0,0,0,0,0,0,0,0,0,0,0,0,0,0,0,0,0,0,0,0,0,0,0,0,0,0,0,0,0,0,0,0,0],"id":63,"left_children":[1,3,5,7,9,11,13,15,17,19,-1,21,23,25,27,29,31,33,35,-1,-1,37,39,41,43,45,47,49,51,53,55,57,59,61,63,65,67,69,71,-1,73,75,77,-1,-1,-1,-1,-1,-1,79,81,83,-1,-1,-1,-1,-1,-1,-1,-1,-1,-1,-1,-1,-1,-1,-1,-1,-1,-1,-1,-1,-1,-1,-1,-1,-1,-1,-1,-1,-1,-1,-1,-1,-1],"loss_changes":[1.4184912E-4,4.5759277E-4,1.4887762E-4,2.0542307E-4,4.0176336E-4,1.2709256E-4,1.3575025E-4,3.05354E-4,5.019357E-4,1.1210808E-5,0E0,9.28205E-5,1.679982E-4,4.6434172E-5,1.3348786E-4,2.9769196E-4,4.3310135E-4,6.2075874E-4,3.6595325E-4,0E0,0E0,3.1421565E-5,3.343739E-5,1.12464804E-4,1.8556791E-5,1.7060367E-5,8.20381E-6,7.422175E-5,2.6457026E-5,1.0810693E-3,2.4716574E-4,2.6090597E-4,4.0650286E-4,1.0228021E-3,1.8580054E-4,3.024852E-4,2.3400199E-4,3.068181E-5,4.9625387E-6,0E0,1.6546866E-6,2.5297573E-5,4.6511304E-6,0E0,0E0,0E0,0E0,0E0,0E0,1.6635466E-5,1.3548706E-5,3.310156E-6,0E0,0E0,0E0,0E0,0E0,0E0,0E0,0E0,0E0,0E0,0E0,0E0,0E0,0E0,0E0,0E0,0E0,0E0,0E0,0E0,0E0,0E0,0E0,0E0,0E0,0E0,0E0,0E0,0E0,0E0,0E0,0E0,0E0],"parents":[2147483647,0,0,1,1,2,2,3,3,4,4,5,5,6,6,7,7,8,8,9,9,11,11,12,12,13,13,14,14,15,15,16,16,17,17,18,18,21,21,22,22,23,23,24,24,25,25,26,26,27,27,28,28,29,29,30,30,31,31,32,32,33,33,34,34,35,35,36,36,37,37,38,38,40,40,41,41,42,42,49,49,50,50,51,51],"right_children":[2,4,6,8,10,12,14,16,18,20,-1,22,24,26,28,30,32,34,36,-1,-1,38,40,42,44,46,48,50,52,54,56,58,60,62,64,66,68,70,72,-1,74,76,78,-1,-1,-1,-1,-1,-1,80,82,84,-1,-1,-1,-1,-1,-1,-1,-1,-1,-1,-1,-1,-1,-1,-1,-1,-1,-1,-1,-1,-1,-1,-1,-1,-1,-1,-1,-1,-1,-1,-1,-1,-1],"split_conditions":[1.3623011E0,1.3188996E0,2.6636901E-1,7.6379514E-1,-3.9019084E-1,-7.868004E-1,-7.285127E-1,5.120361E-1,-8.164989E-2,4.5669824E-1,-5.1108664E-3,6.490752E-1,2.4856576E-1,-6.145229E-2,9.3700457E-1,6.3003373E-1,-3.9121088E-1,-8.5307664E-1,1.5954885E-1,7.074237E-4,-3.214717E-4,7.32726E-1,-1.20163426E-1,-8.857761E-2,3.3514602E0,-1.3545148E0,7.310356E-1,5.4154164E-1,1.2886767E0,5.628866E-1,1.0238574E0,-2.356262E-1,2.4231243E-1,-6.2165514E-2,-1.9022031E-1,-3.9573455E-1,2.1979924E-1,-1.6275455E0,1.0782711E-1,-1.365655E-3,-5.531134E-1,-5.022794E-1,-1.2413146E0,-1.8046835E-3,-1.958728E-4,-1.8230677E-4,7.7996316E-4,-9.0945663E-4,-1.0471047E-4,-5.1680213E-1,1.6448548E0,-4.3855184E-1,9.2756154E-4,-1.759007E-4,-4.265225E-3,9.824277E-4,-5.1869756E-5,-6.104767E-4,4.6277654E-4,3.0536522E-4,1.922186E-3,4.7060061E-4,-4.412433E-3,-9.545579E-4,1.2494174E-4,-1.4705808E-4,2.7994546E-3,-2.6788996E-3,3.4522713E-5,1.1135102E-4,1.0839442E-3,-1.2351037E-4,3.6681892E-4,-1.1073333E-4,2.429411E-4,-3.435016E-5,1.1809659E-3,-2.34437E-4,-9.438801E-4,3.206563E-4,1.1999916E-3,2.42165E-3,5.109608E-4,-4.900754E-4,-1.1485815E-5],"split_indices":[56,56,34,10,15,34,55,28,13,0,0,16,25,0,1,41,10,19,13,0,0,17,1,17,0,0,3,47,2,41,41,12,34,26,11,11,13,58,14,0,0,2,0,0,0,0,0,0,0,16,3,0,0,0,0,0,0,0,0,0,0,0,0,0,0,0,0,0,0,0,0,0,0,0,0,0,0,0,0,0,0,0,0,0,0],"split_type":[0,0,0,0,0,0,0,0,0,0,0,0,0,0,0,0,0,0,0,0,0,0,0,0,0,0,0,0,0,0,0,0,0,0,0,0,0,0,0,0,0,0,0,0,0,0,0,0,0,0,0,0,0,0,0,0,0,0,0,0,0,0,0,0,0,0,0,0,0,0,0,0,0,0,0,0,0,0,0,0,0,0,0,0,0],"sum_hessian":[6.57E2,5.74E2,8.3E1,5.7E2,4E0,4.8E1,3.5E1,4.24E2,1.46E2,2E0,2E0,2.8E1,2E1,1.1E1,2.4E1,2.87E2,1.37E2,7.1E1,7.5E1,1E0,1E0,2.3E1,5E0,1.3E1,7E0,6E0,5E0,1.8E1,6E0,2.02E2,8.5E1,8.1E1,5.6E1,1.5E1,5.6E1,1.2E1,6.3E1,1.7E1,6E0,2E0,3E0,7E0,6E0,6E0,1E0,2E0,4E0,3E0,2E0,1E1,8E0,5E0,1E0,1.97E2,5E0,3.4E1,5.1E1,3.5E1,4.6E1,3E1,2.6E1,6E0,9E0,2.8E1,2.8E1,5E0,7E0,2E0,6.1E1,4E0,1.3E1,4E0,2E0,2E0,1E0,2E0,5E0,2E0,4E0,4E0,6E0,7E0,1E0,3E0,2E0],"tree_param":{"num_deleted":"0","num_feature":"60","num_nodes":"85","size_leaf_vector":"0"}},{"base_weights":[-1.5986134E-5,1.2561008E-4,-1.2668663E-3,6.541385E-5,5.993873E-3,1.521099E-4,-5.138085E-3,4.961146E-4,-6.1492686E-4,7.801926E-3,-1.5231967E-3,-2.1622276E-3,1.023694E-3,-1.6095981E-2,-1.8734409E-3,-2.8586213E-4,1.6311276E-3,-1.222821E-3,1.9549672E-3,1.2875795E-3,-3.6709083E-3,1.4040545E-3,-2.4652928E-3,-1.9126335E-2,-3.5024583E-3,-4.1350666E-3,1.301998E-3,6.153029E-4,-1.7440217E-3,3.2256492E-3,2.920648E-4,-7.105373E-4,-5.9362007E-3,1.34437485E-2,1.087793E-3,1.801014E-3,3.4495196E-4,-4.3065557E-3,-1.6407985E-3,6.1830506E-4,2.9907755E-3,-6.7929686E-3,-6.5015146E-4,-1.167357E-4,1.5579095E-3,-1.0220996E-3,2.059543E-3,-3.2933466E-3,1.0512532E-3,1.9419689E-3,8.4084775E-3,-1.5357842E-4,8.909091E-3,-1.5968882E-3,8.703878E-4,-1.1589035E-2,1.0043052E-3,-5.368851E-4,3.2838574E-3,2.9329122E-3,8.738041E-6,1.2056628E-3,3.2535046E-3,5.197525E-4,-1.0725656E-3],"categories":[],"categories_nodes":[],"categories_segments":[],"categories_sizes":[],"default_left":[1,1,1,1,1,1,1,1,1,0,0,1,1,1,1,1,1,1,1,1,1,1,0,0,0,1,1,1,1,1,1,1,1,0,1,0,0,0,0,1,1,0,1,0,0,0,0,0,0,0,0,0,0,0,0,0,0,0,0,0,0,0,0,0,0],"id":64,"left_children":[1,3,5,7,9,11,13,15,17,-1,-1,19,21,23,25,27,29,31,33,35,37,39,-1,-1,-1,41,43,45,47,49,51,53,55,-1,57,-1,-1,-1,-1,59,61,-1,63,-1,-1,-1,-1,-1,-1,-1,-1,-1,-1,-1,-1,-1,-1,-1,-1,-1,-1,-1,-1,-1,-1],"loss_changes":[1.16704025E-4,2.0873033E-4,3.688238E-4,1.7230972E-4,9.343143E-5,1.0307045E-4,6.1377056E-4,3.1998561E-4,3.5857747E-4,0E0,0E0,7.75918E-5,5.2563086E-5,8.566212E-5,1.1310867E-4,2.8227814E-4,3.1292712E-4,4.424808E-4,4.2373798E-4,1.798624E-6,5.838141E-6,4.0540806E-5,0E0,0E0,0E0,7.89466E-5,2.7233564E-6,3.1662377E-4,3.5858684E-4,4.294283E-4,3.1241792E-4,2.3680067E-4,7.178425E-4,0E0,1.5161477E-4,0E0,0E0,0E0,0E0,3.3836168E-5,1.2363816E-6,0E0,3.0283884E-6,0E0,0E0,0E0,0E0,0E0,0E0,0E0,0E0,0E0,0E0,0E0,0E0,0E0,0E0,0E0,0E0,0E0,0E0,0E0,0E0,0E0,0E0],"parents":[2147483647,0,0,1,1,2,2,3,3,4,4,5,5,6,6,7,7,8,8,11,11,12,12,13,13,14,14,15,15,16,16,17,17,18,18,19,19,20,20,21,21,25,25,26,26,27,27,28,28,29,29,30,30,31,31,32,32,34,34,39,39,40,40,42,42],"right_children":[2,4,6,8,10,12,14,16,18,-1,-1,20,22,24,26,28,30,32,34,36,38,40,-1,-1,-1,42,44,46,48,50,52,54,56,-1,58,-1,-1,-1,-1,60,62,-1,64,-1,-1,-1,-1,-1,-1,-1,-1,-1,-1,-1,-1,-1,-1,-1,-1,-1,-1,-1,-1,-1,-1],"split_conditions":[1.7251072E0,1.5941024E0,4.4633654E-1,3.284372E-1,1.4577731E0,-8.090072E-1,4.991718E-1,3.1438273E-1,1.1736951E0,2.340578E-3,-4.5695904E-4,4.8148006E-1,1.915281E0,2.2341079E-1,7.4160135E-1,4.57782E-1,9.0117663E-1,1.3312455E0,1.2486248E0,4.6962124E-1,1.2896744E0,2.4840379E-1,-7.395879E-4,-5.7379007E-3,-1.0507376E-3,1.5050405E-1,-9.8663384E-1,-6.5715754E-1,4.3896502E-1,7.38145E-1,2.49026E-1,3.8654098E-1,3.478949E-1,4.0331245E-3,4.2986882E-1,5.4030423E-4,1.0348559E-4,-1.2919668E-3,-4.922396E-4,-1.5288289E0,-2.008427E0,-2.0378907E-3,-2.7434206E0,-3.5020712E-5,4.6737288E-4,-3.066299E-4,6.178629E-4,-9.88004E-4,3.1537598E-4,5.825907E-4,2.5225433E-3,-4.607353E-5,2.6727275E-3,-4.7906648E-4,2.6111637E-4,-3.4767108E-3,3.0129158E-4,-1.6106555E-4,9.851572E-4,8.798737E-4,2.6214125E-6,3.6169885E-4,9.7605144E-4,1.5592575E-4,-3.2176968E-4],"split_indices":[13,13,56,7,0,51,56,55,21,0,0,28,17,0,48,21,55,15,21,1,23,49,0,0,0,54,2,21,52,43,7,22,51,0,30,0,0,0,0,36,14,0,4,0,0,0,0,0,0,0,0,0,0,0,0,0,0,0,0,0,0,0,0,0,0],"split_type":[0,0,0,0,0,0,0,0,0,0,0,0,0,0,0,0,0,0,0,0,0,0,0,0,0,0,0,0,0,0,0,0,0,0,0,0,0,0,0,0,0,0,0,0,0,0,0,0,0,0,0,0,0,0,0,0,0,0,0,0,0,0,0,0,0],"sum_hessian":[6.57E2,5.91E2,6.6E1,5.86E2,5E0,4.9E1,1.7E1,3.59E2,2.27E2,4E0,1E0,1.3E1,3.6E1,3E0,1.4E1,2.13E2,1.46E2,1.84E2,4.3E1,4E0,9E0,3.3E1,3E0,2E0,1E0,8E0,6E0,1.32E2,8.1E1,6.6E1,8E1,1.67E2,1.7E1,2E0,4.1E1,2E0,2E0,6E0,3E0,2.3E1,1E1,4E0,4E0,1E0,5E0,6.2E1,7E1,5.2E1,2.9E1,5.4E1,1.2E1,7.7E1,3E0,1.07E2,6E1,9E0,8E0,2.4E1,1.7E1,4E0,1.9E1,2E0,8E0,1E0,3E0],"tree_param":{"num_deleted":"0","num_feature":"60","num_nodes":"65","size_leaf_vector":"0"}},{"base_weights":[-1.043892E-5,5.917326E-4,-3.0402496E-4,2.08383E-3,-3.9232933E-4,-2.092027E-3,8.977777E-5,-1.4946175E-4,4.7790655E-3,7.532515E-4,-1.679399E-3,-4.394877E-3,8.4464694E-4,-1.1379842E-4,2.634925E-3,-8.7301135E-3,6.165842E-4,7.041974E-3,-2.8844265E-4,-1.0675676E-3,1.9213837E-3,-7.218491E-3,-4.7537198E-4,-6.0062124E-3,1.8454194E-3,-5.9666747E-4,3.776998E-3,2.4189188E-3,-3.238203E-4,1.2706189E-3,5.2223573E-3,-1.4872551E-2,-1.7251173E-3,-1.56068E-3,1.45561E-3,1.1487048E-2,2.7201115E-3,-3.064847E-3,1.2860534E-3,3.764525E-3,-1.7979997E-3,3.20989E-3,-2.3809032E-4,-1.7195821E-3,-1.011507E-2,1.1373261E-3,-2.4042416E-3,-8.106664E-3,-1.666439E-3,-7.2064355E-4,5.874675E-3,-3.9872327E-3,4.5033553E-4,6.8581775E-3,1.379136E-3,2.630099E-4,5.842072E-3,-1.425496E-3,1.9249458E-4,1.9297494E-3,-4.79122E-4,5.843242E-4,6.464035E-3,-6.3702464E-7,-3.3806239E-3,-4.7119192E-4,2.5790774E-3,4.9818754E-3,1.6351214E-2,4.9792863E-3,1.2092292E-4,-3.272593E-4,2.147253E-3,9.934008E-4,4.3570995E-3,1.961261E-4,-2.9319534E-3,4.3921396E-3,-1.4697015E-4,1.2721098E-3,-4.1169925E-3,-2.500385E-3,-1.0967453E-2,2.8155644E-3,-1.1447797E-3,-1.0156173E-4,-4.698458E-3,-3.161418E-3,-1.2047918E-2,7.441214E-5,-3.1692274E-3,-2.1489859E-3,8.878596E-4,1.5912727E-3,6.772051E-3,-7.366538E-4,-4.490018E-3,-2.8178915E-3,1.1928398E-3,5.306184E-4,2.094999E-3,1.4385362E-3,-7.0371217E-4,1.1525989E-2,1.7595376E-3,-7.970234E-4,-5.2291825E-3,1.1521075E-3,-1.14244E-3,4.1261315E-4,3.0160248E-3],"categories":[],"categories_nodes":[],"categories_segments":[],"categories_sizes":[],"default_left":[1,1,1,1,1,1,1,1,1,1,1,1,1,1,1,1,1,1,1,1,1,1,1,1,1,1,1,1,1,1,1,0,0,1,1,1,1,0,1,1,1,1,1,0,1,1,1,1,1,1,1,1,1,0,1,1,1,1,1,1,0,0,0,0,0,0,0,0,0,0,0,0,0,0,0,0,0,0,0,0,0,0,0,0,0,0,0,0,0,0,0,0,0,0,0,0,0,0,0,0,0,0,0,0,0,0,0,0,0,0,0],"id":65,"left_children":[1,3,5,7,9,11,13,15,17,19,21,23,25,27,29,31,33,35,37,39,41,43,45,47,49,51,53,55,57,59,61,-1,-1,63,65,67,69,-1,71,73,75,77,79,-1,81,83,85,87,89,91,93,95,97,-1,99,101,103,105,107,109,-1,-1,-1,-1,-1,-1,-1,-1,-1,-1,-1,-1,-1,-1,-1,-1,-1,-1,-1,-1,-1,-1,-1,-1,-1,-1,-1,-1,-1,-1,-1,-1,-1,-1,-1,-1,-1,-1,-1,-1,-1,-1,-1,-1,-1,-1,-1,-1,-1,-1,-1],"loss_changes":[1.1650716E-4,3.1797387E-4,3.1211303E-4,5.183695E-4,1.9441696E-4,5.447296E-4,1.8889968E-4,3.208952E-4,4.4925627E-4,1.5093823E-4,4.1005996E-4,4.6356843E-4,1.5440544E-4,1.8057428E-4,8.8675704E-5,1.4645411E-4,8.447688E-5,4.8745098E-4,6.0770242E-5,1.05595056E-4,1.2041158E-4,1.5781459E-4,1.6448999E-4,3.1464815E-4,1.07626765E-4,9.0543894E-5,7.9200574E-5,1.9034364E-4,1.783124E-4,2.2837427E-5,4.8053393E-5,0E0,3.1618583E-8,3.6907324E-5,7.265031E-5,3.2988947E-4,8.747822E-5,6.9138696E-7,1.3207166E-5,2.2400418E-6,5.710619E-5,1.0779896E-4,1.0482189E-4,3.5706853E-7,1.8011604E-5,1.142908E-4,1.263111E-4,4.2968267E-4,3.4245528E-5,1.799045E-5,4.5991183E-6,6.4984706E-6,5.1894745E-5,0E0,3.747732E-6,2.0331237E-5,2.1176742E-4,2.3488347E-4,2.7545457E-4,2.1827935E-5,8.2239853E-7,6.061862E-7,0E0,0E0,0E0,0E0,0E0,0E0,0E0,0E0,0E0,0E0,0E0,0E0,0E0,0E0,0E0,0E0,0E0,0E0,0E0,0E0,0E0,0E0,0E0,0E0,0E0,0E0,0E0,0E0,0E0,0E0,0E0,0E0,0E0,0E0,0E0,0E0,0E0,0E0,0E0,0E0,0E0,0E0,0E0,0E0,0E0,0E0,0E0,0E0,0E0],"parents":[2147483647,0,0,1,1,2,2,3,3,4,4,5,5,6,6,7,7,8,8,9,9,10,10,11,11,12,12,13,13,14,14,15,15,16,16,17,17,18,18,19,19,20,20,21,21,22,22,23,23,24,24,25,25,26,26,27,27,28,28,29,29,30,30,33,33,34,34,35,35,36,36,38,38,39,39,40,40,41,41,42,42,44,44,45,45,46,46,47,47,48,48,49,49,50,50,51,51,52,52,54,54,55,55,56,56,57,57,58,58,59,59],"right_children":[2,4,6,8,10,12,14,16,18,20,22,24,26,28,30,32,34,36,38,40,42,44,46,48,50,52,54,56,58,60,62,-1,-1,64,66,68,70,-1,72,74,76,78,80,-1,82,84,86,88,90,92,94,96,98,-1,100,102,104,106,108,110,-1,-1,-1,-1,-1,-1,-1,-1,-1,-1,-1,-1,-1,-1,-1,-1,-1,-1,-1,-1,-1,-1,-1,-1,-1,-1,-1,-1,-1,-1,-1,-1,-1,-1,-1,-1,-1,-1,-1,-1,-1,-1,-1,-1,-1,-1,-1,-1,-1,-1,-1],"split_conditions":[-5.3029966E-1,-2.602557E-1,-4.9658872E-2,-1.4326572E-1,1.7901546E-1,4.5466796E-1,1.8603685E0,-3.0373757E0,8.0289245E-1,-1.1681038E0,3.3118188E-1,9.630877E-1,6.7800206E-1,-2.5050912E0,6.0300833E-1,-6.123902E-1,-7.173042E-1,-2.4798435E-1,3.6859564E-2,-1.5619286E0,3.9522654E-1,8.30466E-2,3.404007E-1,4.5723668E-1,-4.5455486E-1,-1.1539031E0,1.6823582E-1,1.5649453E-1,-4.58953E-1,2.8045738E-1,-8.452759E-1,-4.4617653E-3,-5.175352E-4,5.6910586E-1,-6.02323E-1,2.838421E-1,-2.2011578E-1,-9.1945415E-4,-5.74588E-1,-5.2271485E-1,-8.2450044E-1,5.7008505E-1,8.113843E-2,-5.1587465E-4,-2.151019E-1,3.885326E-1,-1.3627377E0,-2.3860672E-1,-1.50426E-1,-7.360595E-1,-2.4298173E-1,-1.2043992E0,-1.3910158E0,2.0574534E-3,1.7236559E0,-1.2338676E0,-4.3825173E-1,1.300463E0,3.591358E-1,-4.4888943E-1,-1.4373662E-4,1.7529726E-4,1.9392105E-3,-1.911074E-7,-1.0141872E-3,-1.4135758E-4,7.7372324E-4,1.4945627E-3,4.9053645E-3,1.493786E-3,3.6276877E-5,-9.817779E-5,6.441759E-4,2.9802026E-4,1.3071299E-3,5.883783E-5,-8.7958603E-4,1.3176419E-3,-4.4091048E-5,3.8163297E-4,-1.2350978E-3,-7.5011555E-4,-3.290236E-3,8.4466935E-4,-3.4343393E-4,-3.046852E-5,-1.4095375E-3,-9.4842544E-4,-3.6143754E-3,2.2323644E-5,-9.5076824E-4,-6.4469577E-4,2.663579E-4,4.773818E-4,2.0316155E-3,-2.2099615E-4,-1.3470054E-3,-8.453675E-4,3.5785197E-4,1.5918553E-4,6.284997E-4,4.3156088E-4,-2.1111366E-4,3.4577968E-3,5.278613E-4,-2.3910703E-4,-1.5687548E-3,3.4563226E-4,-3.42732E-4,1.2378395E-4,9.048075E-4],"split_indices":[36,30,36,10,46,17,44,52,42,46,46,18,6,14,1,0,45,41,51,8,7,41,27,39,17,42,32,34,49,42,18,0,0,48,4,25,50,0,8,0,15,48,12,0,7,50,36,23,57,10,0,1,20,0,7,12,1,1,32,22,0,0,0,0,0,0,0,0,0,0,0,0,0,0,0,0,0,0,0,0,0,0,0,0,0,0,0,0,0,0,0,0,0,0,0,0,0,0,0,0,0,0,0,0,0,0,0,0,0,0,0],"split_type":[0,0,0,0,0,0,0,0,0,0,0,0,0,0,0,0,0,0,0,0,0,0,0,0,0,0,0,0,0,0,0,0,0,0,0,0,0,0,0,0,0,0,0,0,0,0,0,0,0,0,0,0,0,0,0,0,0,0,0,0,0,0,0,0,0,0,0,0,0,0,0,0,0,0,0,0,0,0,0,0,0,0,0,0,0,0,0,0,0,0,0,0,0,0,0,0,0,0,0,0,0,0,0,0,0,0,0,0,0,0,0],"sum_hessian":[6.57E2,2.15E2,4.42E2,8.5E1,1.3E2,7.9E1,3.63E2,4.7E1,3.8E1,6.9E1,6.1E1,4.4E1,3.5E1,3.37E2,2.6E1,3E0,4.4E1,2.6E1,1.2E1,2.7E1,4.2E1,1E1,5.1E1,3.5E1,9E0,2.4E1,1.1E1,2.5E1,3.12E2,1.8E1,8E0,1E0,2E0,1.2E1,3.2E1,1.2E1,1.4E1,4E0,8E0,3E0,2.4E1,2.6E1,1.6E1,4E0,6E0,2.8E1,2.3E1,2.3E1,1.2E1,6E0,3E0,5E0,1.9E1,4E0,7E0,1.6E1,9E0,9.9E1,2.13E2,1.3E1,5E0,2E0,6E0,7E0,5E0,1.2E1,2E1,6E0,6E0,7E0,7E0,3E0,5E0,1E0,2E0,9E0,1.5E1,1.9E1,7E0,1.2E1,4E0,1E0,5E0,1.6E1,1.2E1,1.2E1,1.1E1,1.1E1,1.2E1,6E0,6E0,3E0,3E0,1E0,2E0,1E0,4E0,3E0,1.6E1,4E0,3E0,7E0,9E0,3E0,6E0,8.6E1,1.3E1,1.24E2,8.9E1,6E0,7E0],"tree_param":{"num_deleted":"0","num_feature":"60","num_nodes":"111","size_leaf_vector":"0"}},{"base_weights":[-6.1880905E-6,-2.0187361E-4,7.192903E-4,-1.5718486E-4,-7.835944E-3,1.6034382E-3,-7.623004E-4,3.0008995E-4,-8.3249935E-4,-8.354783E-4,-1.0918438E-2,-6.127046E-4,2.4440652E-3,2.2383116E-4,-3.525369E-3,-1.1099111E-3,6.7294703E-4,-1.3908816E-3,1.6371384E-3,-4.827599E-3,1.8149005E-4,3.5030574E-3,-2.484452E-4,2.535121E-3,-8.572617E-4,-5.5427086E-3,8.8201836E-5,-5.502136E-4,-9.5077455E-3,-5.062237E-4,1.3371079E-3,4.477999E-4,-2.0914124E-3,-5.718605E-4,2.4185816E-3,2.1078757E-3,-6.726468E-4,1.5667358E-3,6.1722123E-3,1.12611E-3,-4.3224217E-3,5.1720263E-3,7.884937E-4,-4.8936508E-3,-3.5855293E-4,-3.1851444E-3,-9.196122E-3,-9.874502E-4,8.7289046E-4,-9.4108994E-4,5.3527653E-3,-4.0751696E-3,-1.2902737E-2,1.8950598E-3,-1.9551062E-3,-3.8856007E-3,1.6067382E-3,2.0425944E-3,-1.1011148E-3,-8.830996E-3,-1.612711E-3,9.0073794E-5,-1.752764E-3,-3.8418173E-5,3.5261523E-3,8.0975296E-4,3.5687883E-3,6.580104E-4,-2.0855553E-3,-1.4767166E-4,2.8617708E-3,8.822323E-3,2.2473866E-3,2.5161207E-3,-4.0466455E-4,-1.3758739E-3,-5.828162E-3,1.5186907E-3,-1.1781305E-3,1.7846862E-4,-3.3567885E-3,-3.373921E-4,-3.6035378E-3],"categories":[],"categories_nodes":[],"categories_segments":[],"categories_sizes":[],"default_left":[1,1,1,1,1,1,1,1,1,0,0,1,1,1,1,1,1,1,1,0,1,1,1,1,1,1,1,1,1,1,1,1,1,1,1,1,1,1,1,1,1,0,1,0,1,1,0,0,0,0,0,0,0,0,0,0,0,0,0,0,0,0,0,0,0,0,0,0,0,0,0,0,0,0,0,0,0,0,0,0,0,0,0],"id":66,"left_children":[1,3,5,7,9,11,13,15,17,-1,-1,19,21,23,25,27,29,31,33,-1,35,37,39,41,43,45,47,49,51,53,55,57,59,61,63,65,67,69,71,73,75,-1,77,-1,79,81,-1,-1,-1,-1,-1,-1,-1,-1,-1,-1,-1,-1,-1,-1,-1,-1,-1,-1,-1,-1,-1,-1,-1,-1,-1,-1,-1,-1,-1,-1,-1,-1,-1,-1,-1,-1,-1],"loss_changes":[9.355858E-5,1.7582884E-4,1.8461465E-4,1.5990165E-4,5.5614568E-5,1.6543704E-4,1.452008E-4,1.6319712E-4,2.9048848E-4,0E0,0E0,8.456233E-5,1.8335652E-4,1.0212202E-4,1.02546095E-4,3.002848E-4,1.9255084E-4,2.211936E-4,6.870516E-5,4.943722E-7,3.761659E-5,2.2807356E-4,1.1126572E-4,5.579587E-5,5.4608878E-5,4.8227434E-5,5.926248E-6,1.4809218E-4,2.1193351E-5,3.1335183E-4,2.2733069E-4,1.20818746E-4,3.8581307E-4,8.756364E-6,7.905319E-5,1.0385273E-5,3.145387E-5,6.25887E-5,1.7779606E-4,3.293508E-5,1.4164871E-5,0E0,1.4713423E-5,0E0,4.2462125E-5,7.1245595E-6,0E0,0E0,0E0,0E0,0E0,0E0,0E0,0E0,0E0,0E0,0E0,0E0,0E0,0E0,0E0,0E0,0E0,0E0,0E0,0E0,0E0,0E0,0E0,0E0,0E0,0E0,0E0,0E0,0E0,0E0,0E0,0E0,0E0,0E0,0E0,0E0,0E0],"parents":[2147483647,0,0,1,1,2,2,3,3,4,4,5,5,6,6,7,7,8,8,11,11,12,12,13,13,14,14,15,15,16,16,17,17,18,18,20,20,21,21,22,22,23,23,24,24,25,25,26,26,27,27,28,28,29,29,30,30,31,31,32,32,33,33,34,34,35,35,36,36,37,37,38,38,39,39,40,40,42,42,44,44,45,45],"right_children":[2,4,6,8,10,12,14,16,18,-1,-1,20,22,24,26,28,30,32,34,-1,36,38,40,42,44,46,48,50,52,54,56,58,60,62,64,66,68,70,72,74,76,-1,78,-1,80,82,-1,-1,-1,-1,-1,-1,-1,-1,-1,-1,-1,-1,-1,-1,-1,-1,-1,-1,-1,-1,-1,-1,-1,-1,-1,-1,-1,-1,-1,-1,-1,-1,-1,-1,-1,-1,-1],"split_conditions":[9.4394267E-1,9.1148686E-1,4.1847926E-1,2.6596168E-1,2.154526E-1,-6.388245E-1,7.315554E-1,-1.021207E0,1.032825E0,-2.506435E-4,-3.2755316E-3,-1.8520708E0,9.0117663E-1,-7.656837E-1,2.489976E-1,2.4317868E0,-4.559484E-1,-5.3794694E-1,-8.790406E-1,-1.4482797E-3,-6.558504E-1,-3.0578315E-2,-2.0975587E-1,-4.9251997E-1,-2.764958E0,9.431197E-1,-2.9795077E-1,1.3594833E-1,2.7842638E-1,-1.755151E-1,-3.5533342E0,-3.4437813E-2,-4.3997663E-1,3.5997602E-1,-5.766274E-1,1.0193211E0,-1.4341673E-1,-3.3010662E-1,1.8437955E-1,3.4418958E-1,-1.4669701E-1,1.551608E-3,1.0973115E0,-1.4680953E-3,2.210795E0,-2.5973825E0,-2.7588368E-3,-2.9623508E-4,2.6186716E-4,-2.82327E-4,1.6058297E-3,-1.2225509E-3,-3.870821E-3,5.6851795E-4,-5.865319E-4,-1.1656802E-3,4.8202148E-4,6.1277836E-4,-3.3033444E-4,-2.6492989E-3,-4.8381332E-4,2.7022139E-5,-5.258292E-4,-1.15254525E-5,1.0578458E-3,2.429259E-4,1.0706366E-3,1.9740313E-4,-6.2566664E-4,-4.4301498E-5,8.585313E-4,2.646697E-3,6.74216E-4,7.5483625E-4,-1.2139937E-4,-4.127622E-4,-1.7484487E-3,4.5560722E-4,-3.5343916E-4,5.354059E-5,-1.0070367E-3,-1.0121763E-4,-1.0810614E-3],"split_indices":[46,46,22,10,0,14,17,57,56,0,0,8,3,53,49,1,50,12,58,0,56,3,16,50,12,11,10,10,0,18,59,45,12,40,48,6,54,53,6,13,1,0,5,0,39,1,0,0,0,0,0,0,0,0,0,0,0,0,0,0,0,0,0,0,0,0,0,0,0,0,0,0,0,0,0,0,0,0,0,0,0,0,0],"split_type":[0,0,0,0,0,0,0,0,0,0,0,0,0,0,0,0,0,0,0,0,0,0,0,0,0,0,0,0,0,0,0,0,0,0,0,0,0,0,0,0,0,0,0,0,0,0,0,0,0,0,0,0,0,0,0,0,0,0,0,0,0,0,0,0,0,0,0,0,0,0,0,0,0,0,0,0,0,0,0,0,0,0,0],"sum_hessian":[6.57E2,5.18E2,1.39E2,5.16E2,2E0,8.7E1,5.2E1,3.08E2,2.08E2,1E0,1E0,2.4E1,6.3E1,3.9E1,1.3E1,6.4E1,2.44E2,1.7E2,3.8E1,3E0,2.1E1,4.5E1,1.8E1,1.2E1,2.7E1,8E0,5E0,6.1E1,3E0,8.8E1,1.56E2,4.7E1,1.23E2,1E1,2.8E1,6E0,1.5E1,2.7E1,1.8E1,1.4E1,4E0,4E0,8E0,2E0,2.5E1,6E0,2E0,2E0,3E0,5.8E1,3E0,2E0,1E0,3.3E1,5.5E1,7E0,1.49E2,2.3E1,2.4E1,7E0,1.16E2,7E0,3E0,9E0,1.9E1,4E0,2E0,8E0,7E0,1.2E1,1.5E1,1E1,8E0,7E0,7E0,2E0,2E0,6E0,2E0,2.2E1,3E0,1E0,5E0],"tree_param":{"num_deleted":"0","num_feature":"60","num_nodes":"83","size_leaf_vector":"0"}},{"base_weights":[-2.4087163E-5,3.3530945E-4,-3.716108E-4,1.0394314E-3,-3.0077298E-4,-8.2160597E-4,1.0730189E-3,7.7147904E-4,5.270723E-3,-1.4952778E-5,-4.900983E-3,-3.043914E-4,-2.089561E-3,1.9248459E-4,4.324853E-3,1.8411293E-3,-1.3399652E-4,1.1439672E-3,1.0143176E-2,1.8382233E-3,-4.3284998E-4,-1.9949712E-3,-1.1016686E-2,-3.7664147E-3,-8.250325E-5,2.3376853E-3,-3.351175E-3,-4.0922845E-3,7.062932E-4,8.053584E-3,1.5588555E-3,9.1301345E-6,3.0026622E-3,7.770337E-5,-5.5935285E-3,1.783818E-3,-1.0276437E-3,2.2933239E-3,-3.0221243E-3,-1.5576687E-3,9.203404E-4,-3.588058E-3,-3.2150745E-4,-9.949319E-4,-8.367777E-3,-2.4162857E-3,2.7351992E-4,2.4464302E-4,3.4571046E-3,-7.625363E-3,-1.8179026E-3,-1.1185408E-3,-1.0967374E-2,-1.3546215E-3,1.5938584E-3,2.8594136E-3,9.559369E-3,3.0488223E-3,6.190152E-4,1.40461E-3,-6.5236713E-4,4.5740535E-3,2.6148465E-4,-6.7671825E-4,1.4490533E-3,1.2330087E-3,4.3947664E-3,-2.6358038E-3,1.4311792E-3,1.9724092E-3,-5.7176774E-4,-1.7058352E-3,7.5851876E-4,-4.586949E-3,8.642715E-4,6.946313E-4,-1.7777706E-3,-4.2138994E-4,8.495152E-4,9.5169246E-4,4.2776726E-3,-1.0717137E-2,7.0161297E-4,-5.087793E-3,-2.8253588E-4,-1.8713325E-3,2.580285E-4,-2.2603434E-3,1.4523237E-3,-3.268212E-3,2.0637116E-3,7.7808596E-4,-2.4724007E-4],"categories":[],"categories_nodes":[],"categories_segments":[],"categories_sizes":[],"default_left":[1,1,1,1,1,1,1,1,1,1,1,1,1,1,1,1,1,1,0,1,1,1,0,1,1,1,1,1,1,1,1,1,1,1,0,0,0,1,0,1,1,0,0,1,0,1,1,1,1,1,1,1,0,1,1,0,0,0,1,0,0,0,0,0,0,0,0,0,0,0,0,0,0,0,0,0,0,0,0,0,0,0,0,0,0,0,0,0,0,0,0,0,0],"id":67,"left_children":[1,3,5,7,9,11,13,15,17,19,21,23,25,27,29,31,33,35,-1,37,39,41,-1,43,45,47,49,51,53,55,57,59,61,63,-1,-1,-1,65,-1,67,69,-1,-1,71,-1,73,75,77,79,81,83,85,-1,87,89,-1,-1,-1,91,-1,-1,-1,-1,-1,-1,-1,-1,-1,-1,-1,-1,-1,-1,-1,-1,-1,-1,-1,-1,-1,-1,-1,-1,-1,-1,-1,-1,-1,-1,-1,-1,-1,-1],"loss_changes":[8.2308026E-5,1.4542564E-4,2.1865718E-4,1.705366E-4,2.2476315E-4,1.6724998E-4,2.2823566E-4,1.4165386E-4,1.6936334E-4,1.2625448E-4,1.5574509E-4,1.4026655E-4,4.2115926E-4,1.4378964E-4,1.6277781E-4,1.425437E-4,9.289722E-5,1.0170172E-5,0E0,7.3289135E-5,2.0387207E-4,2.0174197E-5,0E0,1.319532E-4,1.4440325E-4,3.8985105E-5,3.6624057E-4,1.3084582E-4,1.0825245E-4,2.7414964E-5,1.351637E-5,2.5840187E-5,1.7540998E-4,8.167753E-5,0E0,0E0,0E0,5.6970573E-5,0E0,2.3900616E-4,9.688557E-5,0E0,0E0,1.126618E-5,0E0,1.6774701E-4,1.3167197E-4,3.1780307E-6,1.8543433E-5,3.936962E-4,2.1946366E-4,6.700477E-6,0E0,4.904436E-5,1.00407495E-4,0E0,0E0,0E0,1.294741E-6,0E0,0E0,0E0,0E0,0E0,0E0,0E0,0E0,0E0,0E0,0E0,0E0,0E0,0E0,0E0,0E0,0E0,0E0,0E0,0E0,0E0,0E0,0E0,0E0,0E0,0E0,0E0,0E0,0E0,0E0,0E0,0E0,0E0,0E0],"parents":[2147483647,0,0,1,1,2,2,3,3,4,4,5,5,6,6,7,7,8,8,9,9,10,10,11,11,12,12,13,13,14,14,15,15,16,16,17,17,19,19,20,20,21,21,23,23,24,24,25,25,26,26,27,27,28,28,29,29,30,30,31,31,32,32,33,33,37,37,39,39,40,40,43,43,45,45,46,46,47,47,48,48,49,49,50,50,51,51,53,53,54,54,58,58],"right_children":[2,4,6,8,10,12,14,16,18,20,22,24,26,28,30,32,34,36,-1,38,40,42,-1,44,46,48,50,52,54,56,58,60,62,64,-1,-1,-1,66,-1,68,70,-1,-1,72,-1,74,76,78,80,82,84,86,-1,88,90,-1,-1,-1,92,-1,-1,-1,-1,-1,-1,-1,-1,-1,-1,-1,-1,-1,-1,-1,-1,-1,-1,-1,-1,-1,-1,-1,-1,-1,-1,-1,-1,-1,-1,-1,-1,-1,-1],"split_conditions":[-3.3995025E-2,4.0085636E-2,8.850608E-1,-1.1235955E-2,1.9412298E0,2.0508963E-1,1.1073954E0,6.0523655E-2,3.330676E-1,-1.1413813E0,2.4231243E-1,-2.6677942E0,-5.4897034E-1,-1.304458E0,-5.343218E-1,-2.657165E-1,2.1680932E0,1.0551369E0,3.0429529E-3,2.9489288E0,2.5868662E-2,-3.2292426E-1,-3.305006E-3,7.576339E-1,-1.7299488E0,2.1048114E-2,3.9840963E-1,1.4256309E0,-8.6451983E-1,3.9313823E-1,1.3453403E0,-1.8494344E0,7.7017653E-1,4.2893636E-1,-1.6780586E-3,5.351454E-4,-3.0829312E-4,5.1963216E-1,-9.0663735E-4,8.909328E-1,1.1502378E0,-1.0764175E-3,-9.645224E-5,6.2896353E-1,-2.5103332E-3,6.6696316E-1,1.2456473E0,6.72681E-1,-3.1248116E-1,3.765731E-1,-4.907773E-1,2.9344332E-1,-3.2902122E-3,1.4670768E0,-2.8036914E0,8.578241E-4,2.8678107E-3,9.146467E-4,3.2535396E0,4.21383E-4,-1.9571015E-4,1.372216E-3,7.8445395E-5,-2.0301549E-4,4.34716E-4,3.699026E-4,1.31843E-3,-7.907412E-4,4.293538E-4,5.917228E-4,-1.7153032E-4,-5.117506E-4,2.2755563E-4,-1.3760848E-3,2.5928146E-4,2.083894E-4,-5.333312E-4,-1.2641698E-4,2.5485456E-4,2.8550776E-4,1.2833019E-3,-3.2151411E-3,2.104839E-4,-1.5263379E-3,-8.4760766E-5,-5.613998E-4,7.740856E-5,-6.7810307E-4,4.3569715E-4,-9.804637E-4,6.191135E-4,2.334258E-4,-7.417202E-5],"split_indices":[14,11,35,11,24,35,6,53,19,40,41,51,3,49,44,13,54,2,0,54,26,0,0,19,39,41,14,1,51,2,6,53,56,55,0,0,0,23,0,51,11,0,0,10,0,33,48,27,26,18,41,4,0,32,8,0,0,0,0,0,0,0,0,0,0,0,0,0,0,0,0,0,0,0,0,0,0,0,0,0,0,0,0,0,0,0,0,0,0,0,0,0,0],"split_type":[0,0,0,0,0,0,0,0,0,0,0,0,0,0,0,0,0,0,0,0,0,0,0,0,0,0,0,0,0,0,0,0,0,0,0,0,0,0,0,0,0,0,0,0,0,0,0,0,0,0,0,0,0,0,0,0,0,0,0,0,0,0,0,0,0,0,0,0,0,0,0,0,0,0,0,0,0,0,0,0,0,0,0,0,0,0,0,0,0,0,0,0,0],"sum_hessian":[6.57E2,3.23E2,3.34E2,1.53E2,1.7E2,2.55E2,7.9E1,1.45E2,8E0,1.61E2,9E0,1.82E2,7.3E1,6.3E1,1.6E1,6.6E1,7.9E1,5E0,3E0,2.9E1,1.32E2,7E0,2E0,1E1,1.72E2,1.6E1,5.7E1,6E0,5.7E1,6E0,1E1,2.6E1,4E1,7.7E1,2E0,4E0,1E0,2.7E1,2E0,7.2E1,6E1,3E0,4E0,7E0,3E0,2.2E1,1.5E2,6E0,1E1,1.4E1,4.3E1,5E0,1E0,1.7E1,4E1,2E0,4E0,3E0,7E0,8E0,1.8E1,2.5E1,1.5E1,5E1,2.7E1,1.9E1,8E0,5.3E1,1.9E1,3.5E1,2.5E1,5E0,2E0,1.3E1,9E0,1.25E2,2.5E1,3E0,3E0,3E0,7E0,1E1,4E0,1.3E1,3E1,3E0,2E0,1.3E1,4E0,3E0,3.7E1,6E0,1E0],"tree_param":{"num_deleted":"0","num_feature":"60","num_nodes":"93","size_leaf_vector":"0"}},{"base_weights":[-2.7301303E-5,6.141731E-4,-1.6716578E-4,-2.9594198E-4,1.5933479E-3,-4.5726722E-4,6.833281E-4,-8.804021E-4,1.7708072E-3,2.6197885E-3,3.558291E-4,-9.123971E-4,3.2776978E-4,1.4254128E-3,-4.6246187E-4,-1.3145892E-3,1.50913E-3,-9.2884473E-4,3.9116517E-3,3.1527085E-3,-3.4050345E-3,-1.9364214E-3,9.648143E-4,-1.454508E-3,1.5738758E-4,-1.2344484E-3,9.7314554E-4,-1.7220741E-4,2.4118754E-3,-1.8506061E-3,9.4219885E-4,-2.2786122E-3,3.943618E-4,-1.3422221E-4,2.5219857E-3,-2.3401975E-4,-1.7772714E-3,5.1121213E-3,2.0682812E-4,1.8143143E-3,5.9253275E-3,1.1452039E-4,-2.9905224E-3,1.5218884E-3,-2.0030141E-4,-2.3910268E-3,-2.072538E-4,7.532487E-3,-1.0476167E-4,-1.6933463E-3,2.6836246E-3,1.5498293E-3,-1.1753145E-3,2.661341E-3,-9.00453E-4,4.0149777E-3,4.3327836E-5,-3.358674E-3,1.706279E-3,1.9849767E-3,-6.1358634E-4,-1.7575667E-3,-4.835233E-3,1.1054584E-3,-2.0152926E-3,2.6715794E-4,-6.6918135E-4,2.186795E-3,6.028086E-3,-4.1908026E-4,7.2932243E-4,4.7401586E-4,2.6026506E-3,2.0423308E-3,7.5264373E-3,2.8375612E-4,1.9463223E-3,-7.796466E-4,5.739555E-4,-7.585421E-5,-4.1575977E-3,-4.3311673E-3,2.2031454E-4,2.0583335E-4,-4.228568E-3,-3.2359135E-4,-3.349514E-3,1.1189381E-3,3.3537697E-3,2.9821075E-3,3.0181452E-4,4.8043032E-4,-3.8042988E-3,7.444024E-4,3.9129443E-3,1.4265359E-3,-1.36717E-3,5.9400443E-3,1.2531081E-3,2.4796405E-3,-1.025267E-3,-2.1205228E-3,-7.781148E-3,3.6477484E-3,1.2758623E-4,8.398026E-4,3.1683221E-3,3.4679225E-4,-1.3491128E-3],"categories":[],"categories_nodes":[],"categories_segments":[],"categories_sizes":[],"default_left":[1,1,1,1,1,1,1,1,1,1,1,1,1,1,1,1,1,1,1,1,0,1,1,1,1,1,1,1,1,1,1,1,1,1,0,0,0,1,1,1,1,0,0,1,1,1,1,0,1,1,1,1,1,1,1,1,1,1,1,1,1,0,0,0,0,0,0,0,0,0,0,0,0,0,0,0,0,0,0,0,0,0,0,0,0,0,0,0,0,0,0,0,0,0,0,0,0,0,0,0,0,0,0,0,0,0,0,0,0],"id":68,"left_children":[1,3,5,7,9,11,13,15,17,19,21,23,25,27,29,31,33,35,37,39,-1,41,43,45,47,49,51,53,55,57,59,61,63,65,-1,-1,-1,67,69,71,73,-1,-1,75,77,79,81,-1,83,85,87,89,91,93,95,97,99,101,103,105,107,-1,-1,-1,-1,-1,-1,-1,-1,-1,-1,-1,-1,-1,-1,-1,-1,-1,-1,-1,-1,-1,-1,-1,-1,-1,-1,-1,-1,-1,-1,-1,-1,-1,-1,-1,-1,-1,-1,-1,-1,-1,-1,-1,-1,-1,-1,-1,-1],"loss_changes":[5.913809E-5,1.0562863E-4,1.3379312E-4,7.645084E-5,7.147147E-5,1.4464575E-4,1.1799691E-4,5.2821568E-5,8.45468E-5,1.1026829E-4,3.9558843E-5,1.4869406E-4,1.5142575E-4,1.327987E-4,1.0898658E-4,7.009227E-5,1.3654335E-5,3.7106392E-6,3.4522905E-5,9.6864445E-5,0E0,1.3313875E-5,1.4584062E-5,1.9807753E-4,1.689929E-4,8.3656116E-5,1.3315363E-4,7.049254E-5,1.9727129E-4,1.5592352E-4,4.664343E-5,2.746888E-5,2.9643774E-5,1.037665E-6,0E0,9.3024903E-7,0E0,2.8947834E-6,1.2867454E-6,2.0955027E-5,4.058247E-5,9.74228E-7,5.357324E-7,7.330298E-6,4.0359787E-6,3.964065E-4,1.3143508E-4,0E0,1.0974125E-4,8.965787E-5,1.4901743E-6,1.492503E-4,1.0194502E-4,1.3881927E-5,3.1273543E-5,1.5737675E-4,5.9817776E-5,9.301372E-5,2.7119451E-5,2.037656E-5,8.944468E-6,0E0,0E0,0E0,0E0,0E0,0E0,0E0,0E0,0E0,0E0,0E0,0E0,0E0,0E0,0E0,0E0,0E0,0E0,0E0,0E0,0E0,0E0,0E0,0E0,0E0,0E0,0E0,0E0,0E0,0E0,0E0,0E0,0E0,0E0,0E0,0E0,0E0,0E0,0E0,0E0,0E0,0E0,0E0,0E0,0E0,0E0,0E0,0E0],"parents":[2147483647,0,0,1,1,2,2,3,3,4,4,5,5,6,6,7,7,8,8,9,9,10,10,11,11,12,12,13,13,14,14,15,15,16,16,17,17,18,18,19,19,21,21,22,22,23,23,24,24,25,25,26,26,27,27,28,28,29,29,30,30,31,31,32,32,33,33,37,37,38,38,39,39,40,40,43,43,44,44,45,45,46,46,48,48,49,49,50,50,51,51,52,52,53,53,54,54,55,55,56,56,57,57,58,58,59,59,60,60],"right_children":[2,4,6,8,10,12,14,16,18,20,22,24,26,28,30,32,34,36,38,40,-1,42,44,46,48,50,52,54,56,58,60,62,64,66,-1,-1,-1,68,70,72,74,-1,-1,76,78,80,82,-1,84,86,88,90,92,94,96,98,100,102,104,106,108,-1,-1,-1,-1,-1,-1,-1,-1,-1,-1,-1,-1,-1,-1,-1,-1,-1,-1,-1,-1,-1,-1,-1,-1,-1,-1,-1,-1,-1,-1,-1,-1,-1,-1,-1,-1,-1,-1,-1,-1,-1,-1,-1,-1,-1,-1,-1,-1],"split_conditions":[-1.2333379E0,1.4710468E-1,8.305417E-1,1.3377067E0,3.32227E-1,4.7336268E-1,4.744419E-1,1.1084223E0,-4.965881E-1,1.8864214E0,-1.922658E0,4.153074E-1,-6.715442E-1,-5.035183E-1,2.1945402E-1,6.7800206E-1,-1.4292683E-2,1.7900404E0,5.28565E-1,5.0152135E-1,-1.0215105E-3,-7.257607E-1,1.842345E-1,4.3611598E-1,4.8885316E-1,1.4923865E0,1.1637352E0,-1.6105351E0,6.6484714E-1,9.6062243E-1,2.4394214E-1,2.0054412E0,7.852657E-1,1.9002701E0,7.5659575E-4,-7.0205926E-5,-5.331814E-4,1.6292694E-1,-3.6278164E-1,-6.674286E-1,7.074192E-3,3.435612E-5,-8.971568E-4,-1.9441085E0,-2.38051E-1,-5.3794694E-1,-1.4398822E0,2.2597462E-3,2.385076E0,4.3018103E-1,2.3961544E0,1.5153775E-1,5.371871E-1,-1.1963875E0,-3.0373757E0,6.2746954E-1,-4.327808E-1,4.373754E-1,-1.0325003E0,4.242168E-1,1.3912843E-1,-5.2727E-4,-1.45057E-3,3.316375E-4,-6.0458784E-4,8.014739E-5,-2.0075441E-4,6.560385E-4,1.8084259E-3,-1.2572408E-4,2.1879673E-4,1.4220476E-4,7.807952E-4,6.1269925E-4,2.2579313E-3,8.512684E-5,5.838967E-4,-2.33894E-4,1.7218664E-4,-2.2756263E-5,-1.2472793E-3,-1.2993503E-3,6.609436E-5,6.1750005E-5,-1.2685705E-3,-9.7077405E-5,-1.0048542E-3,3.3568143E-4,1.006131E-3,8.9463225E-4,9.054436E-5,1.441291E-4,-1.1412897E-3,2.2332073E-4,1.1738833E-3,4.279608E-4,-4.1015103E-4,1.7820133E-3,3.7593246E-4,7.438922E-4,-3.075801E-4,-6.361569E-4,-2.3343444E-3,1.0943245E-3,3.827587E-5,2.519408E-4,9.504967E-4,1.0403768E-4,-4.0473387E-4],"split_indices":[50,35,18,34,27,39,35,12,29,24,16,3,15,10,28,43,0,21,11,53,0,8,48,12,3,0,7,23,10,37,42,18,15,1,0,0,0,0,0,10,7,0,0,21,51,12,10,0,45,3,0,50,23,3,2,20,32,16,16,58,55,0,0,0,0,0,0,0,0,0,0,0,0,0,0,0,0,0,0,0,0,0,0,0,0,0,0,0,0,0,0,0,0,0,0,0,0,0,0,0,0,0,0,0,0,0,0,0,0],"split_type":[0,0,0,0,0,0,0,0,0,0,0,0,0,0,0,0,0,0,0,0,0,0,0,0,0,0,0,0,0,0,0,0,0,0,0,0,0,0,0,0,0,0,0,0,0,0,0,0,0,0,0,0,0,0,0,0,0,0,0,0,0,0,0,0,0,0,0,0,0,0,0,0,0,0,0,0,0,0,0,0,0,0,0,0,0,0,0,0,0,0,0,0,0,0,0,0,0,0,0,0,0,0,0,0,0,0,0,0,0],"sum_hessian":[6.57E2,1.17E2,5.4E2,6.1E1,5.6E1,4.03E2,1.37E2,4.8E1,1.3E1,3E1,2.6E1,2.55E2,1.48E2,8.3E1,5.4E1,4.1E1,7E0,6E0,7E0,2.8E1,2E0,5E0,2.1E1,1.69E2,8.6E1,4.3E1,1.05E2,3.2E1,5.1E1,2.7E1,2.7E1,2.6E1,1.5E1,3E0,4E0,4E0,2E0,5E0,2E0,2E1,8E0,2E0,3E0,1.4E1,7E0,9.6E1,7.3E1,2E0,8.4E1,3.9E1,4E0,8.3E1,2.2E1,6E0,2.6E1,3E1,2.1E1,1.9E1,8E0,1.6E1,1.1E1,2.3E1,3E0,1.2E1,3E0,2E0,1E0,2E0,3E0,1E0,1E0,8E0,1.2E1,3E0,5E0,4E0,1E1,4E0,3E0,4.2E1,5.4E1,6E0,6.7E1,7.9E1,5E0,2.2E1,1.7E1,2E0,2E0,3.8E1,4.5E1,1.4E1,8E0,3E0,3E0,4E0,2.2E1,1.7E1,1.3E1,6E0,1.5E1,1.6E1,3E0,3E0,5E0,9E0,7E0,5E0,6E0],"tree_param":{"num_deleted":"0","num_feature":"60","num_nodes":"109","size_leaf_vector":"0"}},{"base_weights":[-1.1956976E-5,4.4723466E-4,-1.871371E-4,-1.0766255E-3,7.3129125E-4,-3.1029994E-3,-3.9330578E-5,-3.3831475E-3,7.5051625E-4,1.7750589E-3,1.8177187E-4,-5.6565553E-3,-2.9086028E-4,4.4070717E-4,-5.026458E-4,-7.1014524E-3,-9.4151724E-4,1.8051009E-3,-1.0139048E-3,1.365281E-3,3.9093997E-3,-7.461731E-4,1.3276652E-3,3.8462877E-4,-6.903255E-3,-2.5937408E-3,7.6496E-4,1.9549836E-5,1.6181887E-3,-7.461961E-4,2.1162971E-3,-4.1391794E-4,-1.4975369E-3,2.4925917E-3,4.815936E-4,-3.673965E-4,-1.4069369E-3,-2.65147E-4,1.6164738E-3,6.032482E-3,2.7819723E-4,1.661443E-3,-1.1731603E-3,2.2873862E-3,-4.440581E-4,-6.391704E-4,1.2161136E-3,-7.924846E-3,-3.3896565E-3,-2.4101634E-4,2.0826845E-3,1.0797862E-3,-7.088908E-4,3.8939551E-3,-1.6969706E-4,2.0183495E-4,-1.5869477E-3,3.401786E-4,3.53856E-3,-3.604889E-4,7.8223646E-4,2.9040375E-4,-1.7992258E-3,-4.7919154E-4,1.7993437E-3,-5.688071E-4,7.501344E-4,2.7476102E-3,6.604244E-4,-2.436132E-3,-2.1814073E-4,3.6977744E-3,6.3047954E-4,-2.2720397E-3,1.0994077E-4,-1.7465216E-4,2.4155437E-3,-7.3740746E-5,-2.3998932E-3,6.498388E-3,-9.229764E-4,4.2251556E-4,-1.8616782E-3,-7.1241066E-4,1.3104419E-3,-1.018088E-3,-3.893682E-3,1.5366301E-3,-3.921049E-4,9.943485E-4,4.850345E-3],"categories":[],"categories_nodes":[],"categories_segments":[],"categories_sizes":[],"default_left":[1,1,1,1,1,1,1,1,1,1,1,1,1,1,1,0,1,1,1,1,1,1,1,1,1,0,1,1,1,1,1,0,0,0,1,0,0,1,1,0,1,1,1,1,1,0,0,0,0,0,0,1,1,1,1,1,1,1,1,0,0,0,0,0,0,0,0,0,0,0,0,0,0,0,0,0,0,0,0,0,0,0,0,0,0,0,0,0,0,0,0],"id":69,"left_children":[1,3,5,7,9,11,13,15,17,19,21,23,25,27,29,-1,31,33,35,37,39,41,43,45,47,-1,49,51,53,55,57,-1,-1,-1,59,-1,-1,61,63,-1,65,67,69,71,73,-1,-1,-1,-1,-1,-1,75,77,79,81,83,85,87,89,-1,-1,-1,-1,-1,-1,-1,-1,-1,-1,-1,-1,-1,-1,-1,-1,-1,-1,-1,-1,-1,-1,-1,-1,-1,-1,-1,-1,-1,-1,-1,-1],"loss_changes":[5.301404E-5,7.95683E-5,2.0545708E-4,1.2475505E-4,8.8007204E-5,1.6351668E-4,1.01417514E-4,1.1133727E-4,3.3462635E-5,4.101667E-5,1.0944991E-4,9.303368E-5,3.1161242E-5,1.1105109E-4,1.4955905E-4,0E0,2.0203433E-6,8.808471E-6,1.2617861E-6,1.9267995E-5,5.9996513E-5,6.054635E-5,7.92323E-5,3.331124E-6,9.032112E-6,5.6672616E-7,1.2432358E-5,1.2897045E-4,2.407206E-4,1.7009379E-4,4.9318398E-5,1.6749425E-7,0E0,0E0,1.547818E-6,7.991798E-8,0E0,6.4883125E-6,1.6191589E-5,0E0,2.0256132E-6,7.970872E-6,5.8570542E-5,6.777508E-5,1.7465685E-5,0E0,0E0,0E0,0E0,8.648665E-7,0E0,1.143644E-4,1.0615302E-4,3.3217765E-4,3.4855017E-5,1.0330102E-4,1.4431542E-4,9.363936E-6,3.188911E-5,0E0,0E0,0E0,0E0,0E0,0E0,0E0,0E0,0E0,0E0,0E0,0E0,0E0,0E0,0E0,0E0,0E0,0E0,0E0,0E0,0E0,0E0,0E0,0E0,0E0,0E0,0E0,0E0,0E0,0E0,0E0,0E0],"parents":[2147483647,0,0,1,1,2,2,3,3,4,4,5,5,6,6,7,7,8,8,9,9,10,10,11,11,12,12,13,13,14,14,16,16,17,17,18,18,19,19,20,20,21,21,22,22,23,23,24,24,26,26,27,27,28,28,29,29,30,30,34,34,37,37,38,38,40,40,41,41,42,42,43,43,44,44,51,51,52,52,53,53,54,54,55,55,56,56,57,57,58,58],"right_children":[2,4,6,8,10,12,14,16,18,20,22,24,26,28,30,-1,32,34,36,38,40,42,44,46,48,-1,50,52,54,56,58,-1,-1,-1,60,-1,-1,62,64,-1,66,68,70,72,74,-1,-1,-1,-1,-1,-1,76,78,80,82,84,86,88,90,-1,-1,-1,-1,-1,-1,-1,-1,-1,-1,-1,-1,-1,-1,-1,-1,-1,-1,-1,-1,-1,-1,-1,-1,-1,-1,-1,-1,-1,-1,-1,-1],"split_conditions":[-7.5741386E-1,-1.5848255E0,-6.0499144E-1,4.2155646E-2,-4.2939258E-1,2.7313426E-1,-1.1961723E-2,4.5486894E-1,6.6201377E-1,1.1724105E0,2.5201595E-1,-1.9626651E0,-9.973153E-1,7.4832296E-1,1.6583259E0,-2.1304358E-3,9.439915E-1,7.8879136E-1,3.8097656E-1,-1.3448291E0,1.1674628E-2,-1.9066362E0,8.7608874E-1,1.153101E0,9.4413996E-1,-7.781223E-4,1.8819064E-1,-2.6753175E-1,1.3222532E0,-7.664414E-2,-1.1090481E0,-1.2417539E-4,-4.4926108E-4,7.477776E-4,-1.8100555E-1,-1.10218956E-4,-4.220811E-4,1.871494E0,-2.0516977E0,1.8097446E-3,-7.691024E-2,4.1672522E-1,-3.3943914E-4,5.201025E-1,-1.3648849E0,-1.9175113E-4,3.648341E-4,-2.377454E-3,-1.016897E-3,-7.230491E-5,6.248054E-4,3.6190993E-1,8.9453197E-1,9.7304076E-1,7.433289E-1,3.6221397E-1,1.019582E0,-1.8852103E0,-2.482505E-1,-1.0814667E-4,2.3467095E-4,8.712113E-5,-5.397678E-4,-1.4375747E-4,5.398031E-4,-1.7064215E-4,2.2504033E-4,8.242831E-4,1.9812734E-4,-7.308396E-4,-6.5442226E-5,1.1093323E-3,1.8914387E-4,-6.8161194E-4,3.2982232E-5,-5.239565E-5,7.2466314E-4,-2.2122225E-5,-7.19968E-4,1.9495165E-3,-2.7689294E-4,1.2675468E-4,-5.585035E-4,-2.1372321E-4,3.931326E-4,-3.054264E-4,-1.1681047E-3,4.6098905E-4,-1.17631476E-4,2.9830457E-4,1.4551036E-3],"split_indices":[26,8,26,48,57,12,14,54,58,16,35,27,36,21,35,0,47,51,7,7,30,0,48,0,15,0,3,54,21,12,8,0,0,0,0,0,0,0,27,0,0,21,2,5,41,0,0,0,0,0,0,9,15,35,38,29,23,4,2,0,0,0,0,0,0,0,0,0,0,0,0,0,0,0,0,0,0,0,0,0,0,0,0,0,0,0,0,0,0,0,0],"split_type":[0,0,0,0,0,0,0,0,0,0,0,0,0,0,0,0,0,0,0,0,0,0,0,0,0,0,0,0,0,0,0,0,0,0,0,0,0,0,0,0,0,0,0,0,0,0,0,0,0,0,0,0,0,0,0,0,0,0,0,0,0,0,0,0,0,0,0,0,0,0,0,0,0,0,0,0,0,0,0,0,0,0,0,0,0,0,0,0,0,0,0],"sum_hessian":[6.57E2,1.81E2,4.76E2,2.8E1,1.53E2,2.2E1,4.54E2,1.2E1,1.6E1,5.2E1,1.01E2,1.1E1,1.1E1,2.23E2,2.31E2,4E0,8E0,1E1,6E0,4.5E1,7E0,5.6E1,4.5E1,2E0,9E0,3E0,8E0,1.65E2,5.8E1,2.12E2,1.9E1,5E0,3E0,6E0,4E0,3E0,3E0,6E0,3.9E1,4E0,3E0,8E0,4.8E1,2.9E1,1.6E1,1E0,1E0,6E0,3E0,5E0,3E0,6.7E1,9.8E1,2.5E1,3.3E1,1E2,1.12E2,9E0,1E1,1E0,3E0,5E0,1E0,3E0,3.6E1,1E0,2E0,3E0,5E0,2E1,2.8E1,1.5E1,1.4E1,3E0,1.3E1,3.5E1,3.2E1,7.2E1,2.6E1,1.6E1,9E0,2.5E1,8E0,5.5E1,4.5E1,9.1E1,2.1E1,3E0,6E0,4E0,6E0],"tree_param":{"num_deleted":"0","num_feature":"60","num_nodes":"91","size_leaf_vector":"0"}},{"base_weights":[-1.0118713E-5,-2.761529E-4,2.5353485E-4,4.919024E-4,-6.8760244E-4,6.588019E-4,-5.236734E-4,6.5028726E-4,-2.4938036E-3,8.1546255E-5,-1.5329574E-3,3.0271308E-3,4.305166E-4,6.639852E-4,-1.1262394E-3,-6.825687E-4,1.0709638E-3,-6.129384E-3,-5.408108E-4,1.0303713E-3,-9.026216E-4,-5.1930756E-3,-1.0786719E-3,7.2904606E-4,5.4995534E-3,1.5297015E-4,2.6691665E-3,1.2744259E-3,-2.9058426E-3,-1.4634791E-3,1.9232333E-3,-1.5764511E-3,1.3763395E-4,-3.145238E-4,1.5985168E-3,5.3700537E-4,4.046783E-3,-1.9356338E-3,5.5537955E-4,-2.055559E-3,-8.546984E-3,-2.1956298E-3,6.410121E-4,1.2971504E-3,-2.121091E-4,1.9643854E-3,6.228975E-3,2.7914843E-4,-3.5316944E-3,1.7431661E-3,6.4003766E-3,9.3157555E-4,4.506687E-3,-5.2901846E-3,-3.9112568E-4,-2.028266E-4,-2.2210174E-3,-8.9883804E-5,2.2236619E-3,-5.8218837E-4,-3.6679953E-3,7.344669E-4,-8.8002655E-4,-1.0539114E-3,8.2601013E-4,9.4700407E-4,3.5333557E-3,1.2398909E-3,-4.458844E-4,1.485908E-3,6.2361807E-3,-2.9696752E-3,4.024194E-4,-2.003373E-3,1.1672988E-3,-2.590842E-3,-4.7823414E-4,-4.988351E-3,-1.2353105E-3,7.055044E-3,2.6687107E-4,1.4990568E-3,4.285574E-5,1.7092476E-3,1.6365808E-5,-4.474322E-5,-5.263984E-3,5.53485E-4,3.309792E-3,-5.75205E-4,1.3764823E-3,1.1432171E-3,-1.2836456E-3,6.314308E-4,-1.0225965E-3,-3.2257016E-3,-3.240062E-4],"categories":[],"categories_nodes":[],"categories_segments":[],"categories_sizes":[],"default_left":[1,1,1,1,1,1,1,1,1,1,1,1,1,1,1,1,1,0,0,1,1,1,1,1,1,1,1,1,1,1,1,1,1,1,1,1,1,1,1,1,0,1,1,1,0,0,0,1,1,1,0,1,0,0,1,1,1,0,0,0,0,0,0,0,0,0,0,0,0,0,0,0,0,0,0,0,0,0,0,0,0,0,0,0,0,0,0,0,0,0,0,0,0,0,0,0,0],"id":70,"left_children":[1,3,5,7,9,11,13,15,17,19,21,23,25,27,29,31,33,-1,-1,35,37,39,41,43,45,47,49,51,53,55,57,59,61,63,65,67,69,71,73,75,-1,77,79,81,-1,-1,-1,83,85,87,-1,89,-1,-1,91,93,95,-1,-1,-1,-1,-1,-1,-1,-1,-1,-1,-1,-1,-1,-1,-1,-1,-1,-1,-1,-1,-1,-1,-1,-1,-1,-1,-1,-1,-1,-1,-1,-1,-1,-1,-1,-1,-1,-1,-1,-1],"loss_changes":[4.62227E-5,1.0399149E-4,1.04602346E-4,5.6004108E-5,1.3926861E-4,1.1655948E-4,8.233107E-5,6.240813E-5,3.9286737E-5,1.06449785E-4,1.6399771E-4,1.0394544E-4,1.2385756E-4,8.869084E-5,8.0973274E-5,2.0012423E-5,6.18999E-5,0E0,6.060277E-7,8.414215E-5,8.541848E-5,9.818355E-5,1.7812237E-4,6.1565543E-6,1.0971562E-5,8.420736E-5,6.4855325E-5,3.347986E-5,3.390654E-5,6.5443994E-5,5.0382587E-6,2.4898614E-5,9.75695E-6,2.1109663E-5,7.35488E-5,3.5786663E-5,3.55878E-5,8.0977305E-5,3.9916533E-5,4.6711775E-6,0E0,1.4402447E-4,8.690805E-5,1.7085085E-6,1.6400134E-7,0E0,0E0,6.536213E-5,3.600693E-5,3.358E-5,0E0,2.2243821E-5,0E0,0E0,6.9452117E-6,1.9110976E-5,8.0908416E-5,0E0,0E0,0E0,0E0,0E0,0E0,0E0,0E0,0E0,0E0,0E0,0E0,0E0,0E0,0E0,0E0,0E0,0E0,0E0,0E0,0E0,0E0,0E0,0E0,0E0,0E0,0E0,0E0,0E0,0E0,0E0,0E0,0E0,0E0,0E0,0E0,0E0,0E0,0E0,0E0],"parents":[2147483647,0,0,1,1,2,2,3,3,4,4,5,5,6,6,7,7,8,8,9,9,10,10,11,11,12,12,13,13,14,14,15,15,16,16,19,19,20,20,21,21,22,22,23,23,24,24,25,25,26,26,27,27,28,28,29,29,30,30,31,31,32,32,33,33,34,34,35,35,36,36,37,37,38,38,39,39,41,41,42,42,43,43,47,47,48,48,49,49,51,51,54,54,55,55,56,56],"right_children":[2,4,6,8,10,12,14,16,18,20,22,24,26,28,30,32,34,-1,-1,36,38,40,42,44,46,48,50,52,54,56,58,60,62,64,66,68,70,72,74,76,-1,78,80,82,-1,-1,-1,84,86,88,-1,90,-1,-1,92,94,96,-1,-1,-1,-1,-1,-1,-1,-1,-1,-1,-1,-1,-1,-1,-1,-1,-1,-1,-1,-1,-1,-1,-1,-1,-1,-1,-1,-1,-1,-1,-1,-1,-1,-1,-1,-1,-1,-1,-1,-1],"split_conditions":[4.631399E-2,-5.3029966E-1,4.5275006E-1,2.7493978E0,1.4076775E-1,1.8993688E-1,-7.62238E-1,-8.3443165E-1,-5.473269E-1,3.0171898E-1,2.789824E-1,4.2353582E-1,2.997331E-1,1.3634804E0,2.426528E0,-4.4008005E-1,-9.485204E-1,-1.8388153E-3,-1.6224325E-4,-2.356262E-1,1.7606333E-1,1.4713807E-1,3.2644352E-1,2.3712283E-1,7.324976E-2,2.8049989E0,1.0547216E0,2.8271527E0,-1.3109158E0,-2.562733E-1,-2.7231228E0,-9.649333E-1,1.5471435E0,7.149642E-1,9.628785E-1,5.456032E-1,-5.3526556E-1,1.3214855E0,5.647883E-1,-8.713306E-1,-2.5640952E-3,-1.2014529E0,3.4853175E-1,9.1657776E-1,-6.363273E-5,5.8931566E-4,1.8686926E-3,-1.1688759E0,-8.824845E-1,7.911114E-1,1.920113E-3,-1.1090481E0,1.3520062E-3,-1.5870555E-3,6.669817E-1,-1.2194679E-1,5.615101E-1,-2.6965143E-5,6.6709856E-4,-1.7465651E-4,-1.1003986E-3,2.2034008E-4,-2.6400798E-4,-3.1617342E-4,2.4780305E-4,2.8410123E-4,1.0600068E-3,3.719673E-4,-1.3376532E-4,4.4577243E-4,1.8708543E-3,-8.909026E-4,1.20725825E-4,-6.0101197E-4,3.5018963E-4,-7.7725266E-4,-1.4347024E-4,-1.4965053E-3,-3.7059316E-4,2.1165134E-3,8.006132E-5,4.4971707E-4,1.2856723E-5,5.127743E-4,4.9097425E-6,-1.3422967E-5,-1.5791954E-3,1.660455E-4,9.929376E-4,-1.7256151E-4,4.129447E-4,3.4296513E-4,-3.850937E-4,1.8942925E-4,-3.0677897E-4,-9.677105E-4,-9.720186E-5],"split_indices":[27,36,52,50,24,27,31,18,1,38,24,2,52,57,52,0,12,0,0,24,1,6,55,5,27,37,17,8,14,17,10,0,42,45,28,31,38,8,38,5,0,16,55,1,0,0,0,39,3,31,0,12,0,0,0,33,6,0,0,0,0,0,0,0,0,0,0,0,0,0,0,0,0,0,0,0,0,0,0,0,0,0,0,0,0,0,0,0,0,0,0,0,0,0,0,0,0],"split_type":[0,0,0,0,0,0,0,0,0,0,0,0,0,0,0,0,0,0,0,0,0,0,0,0,0,0,0,0,0,0,0,0,0,0,0,0,0,0,0,0,0,0,0,0,0,0,0,0,0,0,0,0,0,0,0,0,0,0,0,0,0,0,0,0,0,0,0,0,0,0,0,0,0,0,0,0,0,0,0,0,0,0,0,0,0,0,0,0,0,0,0,0,0,0,0,0,0],"sum_hessian":[6.57E2,3.27E2,3.3E2,1.14E2,2.13E2,2.17E2,1.13E2,1.09E2,5E0,1.12E2,1.01E2,1.8E1,1.99E2,3.8E1,7.5E1,2.6E1,8.3E1,1E0,4E0,5.7E1,5.5E1,1E1,9.1E1,1E1,8E0,1.78E2,2.1E1,3.3E1,5E0,6.8E1,7E0,1.2E1,1.4E1,2.3E1,6E1,5E1,7E0,3.2E1,2.3E1,6E0,4E0,5.5E1,3.6E1,6E0,4E0,2E0,6E0,1.73E2,5E0,1.8E1,3E0,3.1E1,2E0,2E0,3E0,2.6E1,4.2E1,1E0,6E0,9E0,3E0,9E0,5E0,1.4E1,9E0,4.6E1,1.4E1,2.9E1,2.1E1,4E0,3E0,2.2E1,1E1,4E0,1.9E1,4E0,2E0,1.3E1,4.2E1,1E0,3.5E1,5E0,1E0,2.6E1,1.47E2,2E0,3E0,1.1E1,7E0,7E0,2.4E1,1E0,2E0,1.3E1,1.3E1,2.7E1,1.5E1],"tree_param":{"num_deleted":"0","num_feature":"60","num_nodes":"97","size_leaf_vector":"0"}},{"base_weights":[-6.1467026E-6,-1.1325763E-3,5.324359E-5,-2.956055E-4,-4.8496774E-3,6.3664006E-4,-5.103443E-5,1.9619358E-3,-1.0004775E-3,-9.509683E-3,-2.0157397E-3,5.6177378E-6,1.2809688E-3,2.5414902E-4,-4.205885E-4,2.5195752E-3,-6.919503E-4,4.688576E-4,-1.7174244E-3,-2.3133308E-3,-4.1268766E-4,8.755073E-4,-5.744959E-4,-9.3837196E-5,1.755012E-3,-3.0578205E-3,3.3432257E-4,3.2510926E-4,-8.671972E-4,3.4236263E-3,1.2116432E-3,9.859413E-4,-2.9471144E-4,-2.6382718E-3,-8.1038475E-4,1.2768069E-3,-1.0488927E-3,-1.0666088E-3,5.163908E-4,6.347656E-4,-4.8819018E-4,2.2756397E-3,4.122203E-4,-5.2539855E-3,-1.1285574E-3,7.2316796E-4,-2.7623336E-4,-5.326219E-4,9.786504E-4,-1.5475933E-3,8.189748E-5,-2.8556187E-3,-6.670952E-4,-6.556511E-5,1.4601608E-3,-1.5982748E-3,-4.379783E-4,3.5190584E-5,8.3132583E-4,2.7307915E-3,7.151365E-4,-5.277932E-4,1.0247699E-3,1.1693318E-3,-5.534511E-4,-1.4962868E-3,3.7050067E-4,7.9553743E-4,-2.042458E-3,3.2216345E-3,3.6790097E-4,-4.792237E-3,-1.1172892E-3,2.6176317E-4,-3.662626E-3],"categories":[],"categories_nodes":[],"categories_segments":[],"categories_sizes":[],"default_left":[1,1,1,1,1,1,1,1,1,0,1,1,1,1,1,1,0,1,1,0,0,1,1,1,1,1,1,1,1,0,0,0,0,1,0,1,0,1,1,0,0,1,1,0,0,1,1,1,1,1,1,0,0,0,0,0,0,0,0,0,0,0,0,0,0,0,0,0,0,0,0,0,0,0,0],"id":71,"left_children":[1,3,5,7,9,11,13,15,17,-1,19,21,23,25,27,29,-1,31,33,-1,-1,35,37,39,41,43,45,47,49,-1,-1,-1,-1,51,-1,53,-1,55,57,-1,-1,59,61,-1,-1,63,65,67,69,71,73,-1,-1,-1,-1,-1,-1,-1,-1,-1,-1,-1,-1,-1,-1,-1,-1,-1,-1,-1,-1,-1,-1,-1,-1],"loss_changes":[4.4079832E-5,1.0123288E-4,3.8115468E-5,4.651865E-5,6.0067934E-5,3.861846E-5,6.0106806E-5,1.2102801E-5,2.3980805E-5,0E0,1.430586E-6,2.5230082E-5,3.0795403E-5,7.855776E-5,8.054338E-5,2.9464063E-6,0E0,3.449201E-6,1.03906605E-5,0E0,0E0,1.6784452E-5,1.665597E-5,4.0451337E-6,2.353025E-5,2.3729444E-5,6.809956E-5,5.1532446E-5,9.763657E-5,0E0,0E0,0E0,3.1036987E-7,1.0940348E-6,8.74938E-7,4.279931E-6,0E0,6.3186417E-6,1.4862133E-6,4.8168795E-7,8.9847845E-7,1.5803758E-5,6.87472E-6,0E0,0E0,1.00323894E-4,8.892799E-5,8.1836966E-5,7.0049624E-5,1.1750986E-4,4.4063465E-5,0E0,0E0,0E0,0E0,0E0,0E0,0E0,0E0,0E0,0E0,0E0,0E0,0E0,0E0,0E0,0E0,0E0,0E0,0E0,0E0,0E0,0E0,0E0,0E0],"parents":[2147483647,0,0,1,1,2,2,3,3,4,4,5,5,6,6,7,7,8,8,10,10,11,11,12,12,13,13,14,14,15,15,17,17,18,18,21,21,22,22,23,23,24,24,25,25,26,26,27,27,28,28,33,33,35,35,37,37,38,38,41,41,42,42,45,45,46,46,47,47,48,48,49,49,50,50],"right_children":[2,4,6,8,10,12,14,16,18,-1,20,22,24,26,28,30,-1,32,34,-1,-1,36,38,40,42,44,46,48,50,-1,-1,-1,-1,52,-1,54,-1,56,58,-1,-1,60,62,-1,-1,64,66,68,70,72,74,-1,-1,-1,-1,-1,-1,-1,-1,-1,-1,-1,-1,-1,-1,-1,-1,-1,-1,-1,-1,-1,-1,-1,-1],"split_conditions":[-3.0052786E0,-3.0891027E0,-1.5031579E0,-1.7290988E0,-7.269306E-1,2.2872828E-2,1.7461027E-1,5.053032E-1,4.0183563E-2,-2.8529048E-3,2.708886E0,-5.906151E-1,-1.2922873E0,-1.3290818E0,-2.4869813E-1,-8.393088E-1,-2.0758511E-4,3.9110816E-1,4.306485E-1,-6.9399923E-4,-1.238063E-4,2.736239E0,4.5605987E-1,-1.3628297E0,5.9468997E-1,-4.259157E-1,3.183505E-1,-1.3119559E-1,8.3312297E-1,1.0270879E-3,3.63493E-4,2.957824E-4,-8.8413435E-5,2.67422E0,-2.4311543E-4,-2.7267985E0,-3.1466782E-4,4.8867248E-2,-3.728284E-2,1.904297E-4,-1.4645707E-4,7.145847E-1,-1.7600703E-1,-1.5761957E-3,-3.3856722E-4,1.0306228E0,-2.5730225E-1,-1.7610061E-1,3.406098E-1,-1.9930401E0,2.9766817E0,-8.566856E-4,-2.0012856E-4,-1.9669533E-5,4.3804827E-4,-4.7948246E-4,-1.3139349E-4,1.0557175E-5,2.4939777E-4,8.192375E-4,2.1454097E-4,-1.5833796E-4,3.0743098E-4,3.5079956E-4,-1.6603533E-4,-4.4888607E-4,1.11150206E-4,2.3866123E-4,-6.127374E-4,9.664904E-4,1.10370296E-4,-1.4376712E-3,-3.3518678E-4,7.852895E-5,-1.0987879E-3],"split_indices":[52,52,47,45,0,41,41,5,39,0,0,9,35,47,30,31,0,1,39,0,0,39,21,33,57,3,54,15,30,0,0,0,0,8,0,44,0,35,48,0,0,8,20,0,0,35,32,10,15,39,50,0,0,0,0,0,0,0,0,0,0,0,0,0,0,0,0,0,0,0,0,0,0,0,0],"split_type":[0,0,0,0,0,0,0,0,0,0,0,0,0,0,0,0,0,0,0,0,0,0,0,0,0,0,0,0,0,0,0,0,0,0,0,0,0,0,0,0,0,0,0,0,0,0,0,0,0,0,0,0,0,0,0,0,0,0,0,0,0,0,0,0,0,0,0,0,0,0,0,0,0,0,0],"sum_hessian":[6.57E2,3.2E1,6.25E2,2.7E1,5E0,9.4E1,5.31E2,6E0,2.1E1,1E0,4E0,4.8E1,4.6E1,2.91E2,2.4E2,5E0,1E0,7E0,1.4E1,3E0,1E0,1.9E1,2.9E1,1.2E1,3.4E1,6E0,2.85E2,9E1,1.5E2,2E0,3E0,4E0,3E0,6E0,8E0,1.6E1,3E0,2E1,9E0,4E0,8E0,2.4E1,1E1,2E0,4E0,1.74E2,1.11E2,3.9E1,5.1E1,8.7E1,6.3E1,5E0,1E0,2E0,1.4E1,1E1,1E1,4E0,5E0,1.8E1,6E0,4E0,6E0,1.29E2,4.5E1,3.8E1,7.3E1,2.1E1,1.8E1,1E1,4.1E1,9E0,7.8E1,6.1E1,2E0],"tree_param":{"num_deleted":"0","num_feature":"60","num_nodes":"75","size_leaf_vector":"0"}},{"base_weights":[-1.4571796E-5,5.834868E-5,-6.586666E-4,3.065226E-5,2.758257E-3,3.9017348E-5,-2.560085E-3,5.0439856E-5,-2.866E-3,3.6277205E-3,-7.945299E-4,6.683135E-4,-5.675758E-4,-7.7866316E-3,-9.956668E-4,3.277687E-5,5.173981E-3,1.7282367E-4,-3.936549E-3,1.0882884E-3,3.4864654E-5,1.3474748E-4,-1.5375391E-3,-8.8257985E-3,-2.334565E-3,-2.1383543E-3,6.15741E-4,4.2416883E-4,-1.3751589E-4,-4.4884905E-4,1.5099769E-3,4.4374765E-4,-2.6217528E-4,5.9208274E-4,-2.0443995E-3,-2.6485696E-4,-1.9816877E-3,-1.1469703E-4,-3.1310667E-3,1.0594865E-3,1.8060207E-5,9.0427056E-4,-1.6925794E-4,-3.2980586E-4,4.8885896E-4,-4.5330526E-4,1.0555685E-3],"categories":[],"categories_nodes":[],"categories_segments":[],"categories_sizes":[],"default_left":[1,1,1,1,1,1,1,1,1,0,0,1,1,1,1,1,0,0,0,1,1,1,1,0,0,1,1,1,1,0,0,0,0,1,0,0,0,0,0,0,0,0,0,0,0,0,0],"id":72,"left_children":[1,3,5,7,9,11,13,15,17,-1,-1,19,21,23,25,27,-1,-1,-1,29,31,33,35,-1,-1,37,39,41,43,-1,-1,-1,-1,45,-1,-1,-1,-1,-1,-1,-1,-1,-1,-1,-1,-1,-1],"loss_changes":[3.0943178E-5,4.4183907E-5,8.898135E-5,3.3790104E-5,2.1416443E-5,1.9465655E-5,1.3942418E-4,5.268069E-5,1.3693167E-5,0E0,0E0,6.6128723E-6,1.7919103E-5,2.0580192E-6,2.8936705E-5,3.891599E-5,0E0,0E0,0E0,1.04006485E-5,1.45234E-6,1.7156066E-5,5.6929966E-6,0E0,0E0,1.7721068E-5,1.8373926E-6,5.0581282E-5,4.9182592E-5,5.2418966E-7,8.9545574E-7,0E0,9.989054E-8,7.261808E-6,0E0,0E0,1.4569014E-7,8.775096E-9,0E0,0E0,6.344652E-8,0E0,0E0,0E0,0E0,0E0,0E0],"parents":[2147483647,0,0,1,1,2,2,3,3,4,4,5,5,6,6,7,7,8,8,11,11,12,12,13,13,14,14,15,15,19,19,20,20,21,21,22,22,25,25,26,26,27,27,28,28,33,33],"right_children":[2,4,6,8,10,12,14,16,18,-1,-1,20,22,24,26,28,-1,-1,-1,30,32,34,36,-1,-1,38,40,42,44,-1,-1,-1,-1,46,-1,-1,-1,-1,-1,-1,-1,-1,-1,-1,-1,-1,-1],"split_conditions":[1.7251072E0,1.5941024E0,4.4633654E-1,1.5427928E0,1.4577731E0,-2.307221E-1,4.991718E-1,1.5212711E0,-5.807747E-1,1.0883162E-3,-2.3835899E-4,4.8464674E-1,5.5803525E-1,2.2341079E-1,7.238593E-1,-6.256386E-1,1.5521945E-3,5.1847102E-5,-1.1809648E-3,-1.817369E0,5.877814E-1,1.5171596E0,-1.4356608E0,-2.6477396E-3,-7.003695E-4,2.2510111E-2,4.9161625E-1,4.9591787E-2,7.721983E-1,-1.3465472E-4,4.529931E-4,1.331243E-4,-7.8652585E-5,-2.525698E-1,-6.1331986E-4,-7.9457095E-5,-5.9450633E-4,-3.440911E-5,-9.3932E-4,3.1784596E-4,5.4180623E-6,2.7128117E-4,-5.0777384E-5,-9.894176E-5,1.466577E-4,-1.3599158E-4,3.1667054E-4],"split_indices":[13,13,56,13,0,19,56,13,2,0,0,17,41,0,37,43,0,0,0,57,49,6,49,0,0,9,7,51,16,0,0,0,0,31,0,0,0,0,0,0,0,0,0,0,0,0,0],"split_type":[0,0,0,0,0,0,0,0,0,0,0,0,0,0,0,0,0,0,0,0,0,0,0,0,0,0,0,0,0,0,0,0,0,0,0,0,0,0,0,0,0,0,0,0,0,0,0],"sum_hessian":[6.57E2,5.91E2,6.6E1,5.86E2,5E0,4.9E1,1.7E1,5.83E2,3E0,4E0,1E0,2.4E1,2.5E1,3E0,1.4E1,5.82E2,1E0,1E0,2E0,1.4E1,1E1,1.5E1,1E1,2E0,1E0,8E0,6E0,1.76E2,4.06E2,3E0,1.1E1,4E0,6E0,1.3E1,2E0,3E0,7E0,3E0,5E0,3E0,3E0,9.7E1,7.9E1,3.11E2,9.5E1,4E0,9E0],"tree_param":{"num_deleted":"0","num_feature":"60","num_nodes":"47","size_leaf_vector":"0"}},{"base_weights":[-1.5051623E-5,-1.0635385E-4,4.2156913E-4,1.8919414E-5,-1.5331908E-3,-2.3395267E-4,9.559432E-4,-9.254151E-5,8.907203E-4,-2.642363E-3,6.531806E-5,5.39059E-4,-8.656191E-4,1.8352012E-3,-1.0878071E-5,-3.30019E-4,4.3987212E-4,1.6386266E-4,3.1115073E-3,-1.4830824E-3,-7.214725E-3,1.1994137E-3,-5.503732E-4,1.1356608E-3,3.179615E-5,-1.4058282E-3,7.281583E-4,4.4809673E-3,9.505347E-4,-4.7577624E-4,1.1784037E-3,-8.6917885E-4,9.328998E-5,-2.6279204E-3,6.2386045E-4,-8.9593296E-4,1.2643825E-3,1.2170672E-3,5.4345825E-3,-3.1342374E-3,-3.156912E-4,1.5120476E-3,2.7855238E-4,-1.0291437E-3,4.2148828E-4,2.0362437E-4,1.8784205E-3,3.4830187E-4,-2.4912087E-4,-2.4348039E-3,-5.061678E-4,2.4996698E-5,1.1450559E-3,1.8373609E-3,-7.7627024E-5,-2.0623207E-3,-2.2647102E-4,5.203113E-4,1.8709414E-3,4.0405028E-4,-1.3491134E-3,5.950872E-4,-8.227806E-4,-6.759405E-3,-1.072079E-3,1.076149E-3,-4.319998E-4,-9.292946E-5,-2.3899483E-3,2.6300089E-3,-9.280691E-5,-3.6752223E-5,2.2274733E-3,-3.390029E-3,-5.43952E-4,1.2552788E-3,-6.821261E-4,-1.7380714E-4,-1.248696E-3,-2.915002E-3,-9.857565E-4,-5.2922303E-5,-1.2207761E-3,5.425967E-4,3.0546114E-3,-1.429061E-3,2.980029E-4,4.1986365E-4,-5.1299576E-4],"categories":[],"categories_nodes":[],"categories_segments":[],"categories_sizes":[],"default_left":[1,1,1,1,1,1,1,1,1,1,1,1,1,1,1,1,1,1,1,1,0,1,1,1,1,1,1,0,1,1,1,1,1,1,1,1,1,1,0,1,1,0,0,1,0,0,0,0,0,1,1,0,0,1,1,0,1,0,0,0,0,0,0,0,0,0,0,0,0,0,0,0,0,0,0,0,0,0,0,0,0,0,0,0,0,0,0,0,0],"id":73,"left_children":[1,3,5,7,9,11,13,15,17,19,21,23,25,27,29,31,33,35,37,39,-1,41,43,45,47,49,51,-1,53,55,57,59,61,63,65,67,69,71,-1,73,75,-1,-1,77,-1,-1,-1,-1,-1,79,81,-1,-1,83,85,-1,87,-1,-1,-1,-1,-1,-1,-1,-1,-1,-1,-1,-1,-1,-1,-1,-1,-1,-1,-1,-1,-1,-1,-1,-1,-1,-1,-1,-1,-1,-1,-1,-1],"loss_changes":[2.6275642E-5,9.7444776E-5,4.0157145E-5,4.886264E-5,7.818555E-5,2.5857467E-5,5.3575342E-5,5.6535733E-5,9.1499314E-5,1.271169E-4,1.3926928E-5,7.227105E-6,2.5991885E-5,7.298116E-5,1.7700399E-5,7.0604525E-5,7.95319E-5,5.2451156E-5,5.4998716E-5,4.141651E-5,0E0,1.5940641E-6,6.4826536E-6,7.2325774E-6,1.3315351E-6,1.9133611E-5,2.3165485E-6,0E0,2.3849449E-5,8.6302225E-6,3.1283125E-6,8.3650186E-5,8.047424E-5,4.417686E-5,6.30244E-5,2.7370994E-5,4.101918E-5,1.1483665E-5,0E0,4.119145E-6,8.915474E-6,0E0,0E0,1.4730877E-6,7.973109E-7,2.6349264E-7,0E0,4.174887E-7,9.254546E-8,4.0848136E-6,4.146003E-6,3.468756E-8,0E0,2.0407308E-5,7.0251726E-6,0E0,4.1043972E-6,7.0716953E-7,0E0,0E0,0E0,0E0,0E0,0E0,0E0,0E0,0E0,0E0,0E0,0E0,0E0,0E0,0E0,0E0,0E0,0E0,0E0,0E0,0E0,0E0,0E0,0E0,0E0,0E0,0E0,0E0,0E0,0E0,0E0],"parents":[2147483647,0,0,1,1,2,2,3,3,4,4,5,5,6,6,7,7,8,8,9,9,10,10,11,11,12,12,13,13,14,14,15,15,16,16,17,17,18,18,19,19,21,21,22,22,23,23,24,24,25,25,26,26,28,28,29,29,30,30,31,31,32,32,33,33,34,34,35,35,36,36,37,37,39,39,40,40,43,43,49,49,50,50,53,53,54,54,56,56],"right_children":[2,4,6,8,10,12,14,16,18,20,22,24,26,28,30,32,34,36,38,40,-1,42,44,46,48,50,52,-1,54,56,58,60,62,64,66,68,70,72,-1,74,76,-1,-1,78,-1,-1,-1,-1,-1,80,82,-1,-1,84,86,-1,88,-1,-1,-1,-1,-1,-1,-1,-1,-1,-1,-1,-1,-1,-1,-1,-1,-1,-1,-1,-1,-1,-1,-1,-1,-1,-1,-1,-1,-1,-1,-1,-1],"split_conditions":[1.1470637E0,8.270552E-1,-2.6769316E-1,4.849306E-1,5.943277E-1,-1.2047134E-1,-2.2943936E-1,5.3987837E-1,1.0505619E0,1.3052229E0,-3.879546E-1,-6.499362E-1,7.8978354E-1,1.366164E0,8.66084E-1,-4.733669E-2,-2.2142444E0,3.0200315E-1,2.8502536E-1,2.211867E-1,-2.1644176E-3,2.0245856E-1,7.181001E-1,1.0382876E-2,1.05936944E-1,-4.437526E-1,4.140979E-1,1.3442902E-3,-6.435003E-2,-1.7230145E0,9.227716E-2,-4.8380888E-1,5.3215784E-1,-1.4808068E0,5.025476E-1,4.7002578E-1,3.085248E-1,2.8641252E-2,1.6303748E-3,1.3177447E0,-1.9111133E0,4.536143E-4,8.356572E-5,-4.9130556E-1,1.264465E-4,6.108731E-5,5.635262E-4,1.04490566E-4,-7.4736265E-5,2.0906857E-1,6.307967E-1,7.49901E-6,3.4351676E-4,1.0743108E-1,-9.3906486E-1,-6.186962E-4,8.347026E-2,1.5609339E-4,5.6128245E-4,1.2121509E-4,-4.0473405E-4,1.7852616E-4,-2.4683418E-4,-2.0278217E-3,-3.216237E-4,3.2284472E-4,-1.2959994E-4,-2.787884E-5,-7.169845E-4,7.890027E-4,-2.7842076E-5,-1.1025667E-5,6.68242E-4,-1.0170088E-3,-1.631856E-4,3.7658366E-4,-2.0463784E-4,-5.2142146E-5,-3.7460882E-4,-8.745006E-4,-2.9572696E-4,-1.5876692E-5,-3.6623285E-4,1.62779E-4,9.1638346E-4,-4.2871834E-4,8.940088E-5,1.259591E-4,-1.5389873E-4],"split_indices":[51,51,59,51,31,12,26,13,8,22,37,4,22,51,3,30,52,38,48,41,0,3,2,22,52,0,32,0,35,12,37,5,49,8,42,52,25,12,0,2,33,0,0,19,0,0,0,0,0,20,16,0,0,50,10,0,33,0,0,0,0,0,0,0,0,0,0,0,0,0,0,0,0,0,0,0,0,0,0,0,0,0,0,0,0,0,0,0,0],"split_type":[0,0,0,0,0,0,0,0,0,0,0,0,0,0,0,0,0,0,0,0,0,0,0,0,0,0,0,0,0,0,0,0,0,0,0,0,0,0,0,0,0,0,0,0,0,0,0,0,0,0,0,0,0,0,0,0,0,0,0,0,0,0,0,0,0,0,0,0,0,0,0,0,0,0,0,0,0,0,0,0,0,0,0,0,0,0,0,0,0],"sum_hessian":[6.57E2,5.44E2,1.13E2,5.01E2,4.3E1,5.1E1,6.2E1,4.45E2,5.6E1,2.5E1,1.8E1,2.3E1,2.8E1,3.2E1,3E1,3.08E2,1.37E2,4.3E1,1.3E1,2.1E1,4E0,6E0,1.2E1,1E1,1.3E1,2.1E1,7E0,7E0,2.5E1,2.2E1,8E0,1.35E2,1.73E2,7E0,1.3E2,2.2E1,2.1E1,8E0,5E0,8E0,1.3E1,4E0,2E0,8E0,4E0,5E0,5E0,6E0,7E0,9E0,1.2E1,3E0,4E0,1.3E1,1.2E1,2E0,2E1,5E0,3E0,3.7E1,9.8E1,1.12E2,6.1E1,1E0,6E0,9.1E1,3.9E1,1.5E1,7E0,1E1,1.1E1,4E0,4E0,7E0,1E0,2E0,1.1E1,2E0,6E0,6E0,3E0,8E0,4E0,7E0,6E0,2E0,1E1,6E0,1.4E1],"tree_param":{"num_deleted":"0","num_feature":"60","num_nodes":"89","size_leaf_vector":"0"}},{"base_weights":[-1.2860217E-5,3.484868E-4,-1.059308E-4,2.5129324E-4,6.6862106E-3,-2.6359365E-4,3.5032432E-4,-8.938629E-4,4.3669558E-4,-1.6467723E-4,-1.5873708E-3,5.6666794E-4,-9.2198496E-4,-3.8927406E-4,-1.9222597E-3,1.8652761E-3,1.5526981E-4,3.7049432E-4,-4.5302018E-4,3.0990403E-5,-2.8841258E-3,9.580753E-4,-2.6195968E-4,-4.071713E-4,-5.3517222E-3,1.0936521E-4,-7.769242E-4,-6.701946E-4,-2.3807436E-3,3.7237426E-4,3.4826812E-3,4.371025E-4,-7.3192694E-4,-6.446414E-4,8.7375415E-4,-7.495688E-4,4.34291E-4,6.678836E-4,-2.3146148E-3,-3.3699474E-4,-4.123992E-3,1.3287166E-3,-5.8436976E-4,-5.354213E-4,1.2857392E-3,5.805474E-4,-1.0317195E-3,-2.907634E-4,-1.1903942E-3,-4.0609838E-4,8.7522983E-4,5.2930415E-3,1.6953275E-3,6.6933373E-4,-6.2257156E-4,-2.7843297E-3,-4.5277277E-5,-1.6299663E-3,2.8303097E-4,1.4409713E-3,-2.3308347E-4,-1.716494E-3,-2.798892E-4,3.946157E-3,1.1297633E-4,1.2706816E-3,1.4190163E-4,-2.2590074E-3,-6.356716E-3,2.9327755E-3,8.2092464E-4,6.3164986E-4,-1.8793456E-3,4.6167895E-4,-8.2162826E-4,1.8038123E-3,-6.5231323E-4,8.2720566E-4,-1.0628501E-4,-1.7911622E-4,-1.85447E-3],"categories":[],"categories_nodes":[],"categories_segments":[],"categories_sizes":[],"default_left":[1,1,1,1,0,1,1,1,1,1,1,1,1,1,1,1,1,1,1,1,1,1,1,1,0,0,1,0,0,1,1,1,1,1,1,1,1,1,0,0,1,1,1,1,1,1,1,0,0,0,0,0,0,0,0,0,0,0,0,0,0,0,0,0,0,0,0,0,0,0,0,0,0,0,0,0,0,0,0,0,0],"id":74,"left_children":[1,3,5,7,-1,9,11,13,15,17,19,21,23,25,27,29,31,33,35,37,39,41,43,45,-1,-1,47,-1,-1,49,51,53,55,57,59,61,63,65,-1,-1,67,69,71,73,75,77,79,-1,-1,-1,-1,-1,-1,-1,-1,-1,-1,-1,-1,-1,-1,-1,-1,-1,-1,-1,-1,-1,-1,-1,-1,-1,-1,-1,-1,-1,-1,-1,-1,-1,-1],"loss_changes":[2.2165965E-5,8.147789E-5,3.7786012E-5,2.8840508E-5,0E0,5.0806484E-5,3.7682017E-5,9.111147E-6,4.6346955E-5,5.6337754E-5,5.6752062E-5,3.7873364E-5,4.3430715E-5,2.7911349E-6,1.8487481E-6,4.458105E-5,2.482395E-5,6.595552E-5,6.2687555E-5,2.0966592E-5,4.5981753E-5,4.594028E-5,1.677139E-5,1.2319642E-5,0E0,7.16043E-7,1.2619798E-6,0E0,0E0,4.6614814E-6,2.0148349E-5,1.8873416E-5,3.3696695E-5,3.976586E-5,5.4328142E-5,8.035738E-5,6.725901E-5,3.307358E-6,0E0,6.2647865E-7,2.7280097E-5,4.972222E-5,2.6382546E-5,9.79677E-6,7.200968E-6,1.443223E-6,8.085592E-6,0E0,0E0,0E0,0E0,0E0,0E0,0E0,0E0,0E0,0E0,0E0,0E0,0E0,0E0,0E0,0E0,0E0,0E0,0E0,0E0,0E0,0E0,0E0,0E0,0E0,0E0,0E0,0E0,0E0,0E0,0E0,0E0,0E0,0E0],"parents":[2147483647,0,0,1,1,2,2,3,3,5,5,6,6,7,7,8,8,9,9,10,10,11,11,12,12,13,13,14,14,15,15,16,16,17,17,18,18,19,19,20,20,21,21,22,22,23,23,26,26,29,29,30,30,31,31,32,32,33,33,34,34,35,35,36,36,37,37,40,40,41,41,42,42,43,43,44,44,45,45,46,46],"right_children":[2,4,6,8,-1,10,12,14,16,18,20,22,24,26,28,30,32,34,36,38,40,42,44,46,-1,-1,48,-1,-1,50,52,54,56,58,60,62,64,66,-1,-1,68,70,72,74,76,78,80,-1,-1,-1,-1,-1,-1,-1,-1,-1,-1,-1,-1,-1,-1,-1,-1,-1,-1,-1,-1,-1,-1,-1,-1,-1,-1,-1,-1,-1,-1,-1,-1,-1,-1],"split_conditions":[-1.0308963E0,-1.0349195E0,8.305417E-1,-1.5807142E0,2.0058632E-3,6.730889E-1,1.4213302E0,9.6062243E-1,-8.794206E-1,-2.6151475E-1,-1.39555E-1,6.8776107E-1,1.3174212E0,-2.8863347E-1,-9.868421E-1,-1.3186248E-1,8.477284E-1,-9.9351513E-1,8.843018E-1,1.1824484E0,-6.698529E-1,1.327351E0,5.3326017E-1,-3.405612E-1,-1.6055168E-3,3.2809563E-5,4.5743096E-1,-2.010584E-4,-7.1422313E-4,-1.5055928E0,-1.0899751E0,9.241129E-1,-1.0576614E0,9.376155E-2,4.8736393E-1,2.6887512E-1,9.089595E-1,-1.8919386E-1,-6.9438445E-4,-1.0109843E-4,4.2956007E-1,-1.0797007E0,-5.9259903E-1,-1.9162064E0,7.056905E-1,3.8027897E-1,2.7433303E-1,-8.722902E-5,-3.5711826E-4,-1.21829515E-4,2.6256897E-4,1.5879126E-3,5.085983E-4,2.0080013E-4,-1.8677147E-4,-8.3529897E-4,-1.3583183E-5,-4.889899E-4,8.490929E-5,4.322914E-4,-6.9925045E-5,-5.149482E-4,-8.396676E-5,1.1838472E-3,3.3892902E-5,3.812045E-4,4.2570493E-5,-6.7770225E-4,-1.9070149E-3,8.798327E-4,2.462774E-4,1.8949497E-4,-5.638037E-4,1.3850369E-4,-2.464885E-4,5.411437E-4,-1.9569398E-4,2.481617E-4,-3.1885505E-5,-5.3734868E-5,-5.56341E-4],"split_indices":[50,50,18,44,0,18,39,21,44,26,5,40,19,26,13,12,43,18,5,12,14,16,52,40,0,0,15,0,0,12,16,19,57,53,21,26,5,34,0,0,24,44,48,13,0,14,53,0,0,0,0,0,0,0,0,0,0,0,0,0,0,0,0,0,0,0,0,0,0,0,0,0,0,0,0,0,0,0,0,0,0],"split_type":[0,0,0,0,0,0,0,0,0,0,0,0,0,0,0,0,0,0,0,0,0,0,0,0,0,0,0,0,0,0,0,0,0,0,0,0,0,0,0,0,0,0,0,0,0,0,0,0,0,0,0,0,0,0,0,0,0,0,0,0,0,0,0,0,0,0,0,0,0,0,0,0,0,0,0,0,0,0,0,0,0],"sum_hessian":[6.57E2,1.34E2,5.23E2,1.33E2,1E0,3.89E2,1.34E2,1.8E1,1.15E2,3.63E2,2.6E1,1.15E2,1.9E1,1.3E1,5E0,1.8E1,9.7E1,1.27E2,2.36E2,1.2E1,1.4E1,7.8E1,3.7E1,1.8E1,1E0,6E0,7E0,2E0,3E0,1E1,8E0,7.4E1,2.3E1,4.2E1,8.5E1,1.77E2,5.9E1,1E1,2E0,5E0,9E0,6.3E1,1.5E1,3.2E1,5E0,7E0,1.1E1,4E0,3E0,4E0,6E0,3E0,5E0,6.1E1,1.3E1,5E0,1.8E1,2E1,2.2E1,5.6E1,2.9E1,5.7E1,1.2E2,4E0,5.5E1,4E0,6E0,6E0,3E0,1.4E1,4.9E1,8E0,7E0,7E0,2.5E1,4E0,1E0,5E0,2E0,6E0,5E0],"tree_param":{"num_deleted":"0","num_feature":"60","num_nodes":"81","size_leaf_vector":"0"}},{"base_weights":[-1.0987703E-5,-9.049774E-5,3.5363875E-4,-7.0339265E-5,-5.488038E-3,9.954129E-4,-4.2541616E-4,-2.9895283E-4,2.1883074E-4,-5.791207E-4,1.5213653E-3,6.144191E-4,-8.411071E-4,-8.445605E-4,2.2549864E-5,7.29518E-4,-1.7999143E-4,8.886576E-4,-1.099103E-3,4.786131E-4,2.286336E-3,1.3376822E-3,1.6405569E-4,-1.7587289E-3,-1.2629511E-4,-1.6351827E-4,-1.5473949E-3,-6.773595E-4,3.2532745E-4,-3.0981703E-4,1.4553441E-3,-1.158865E-3,2.297475E-4,-1.8196957E-3,-4.2127073E-4,1.3222346E-3,-9.790169E-5,5.4487213E-4,3.0825625E-3,4.623362E-4,-2.8634816E-4,-1.093083E-4,-3.212735E-3,-7.984787E-4,2.854347E-4,-6.993173E-4,1.0659972E-3,-2.5487076E-3,1.9514539E-4,-9.76823E-4,6.909682E-4,2.2305925E-3,-8.851931E-6,-1.5376688E-3,4.467293E-4,-9.538621E-4,1.882452E-3,6.929279E-5,-1.7527668E-3,6.004341E-4,-6.0577743E-4,-4.3976307E-4,-2.3997212E-3,-2.8133392E-4,1.5578475E-3,5.8258325E-4,-8.616128E-4,1.4650683E-3,-1.2016892E-3,3.6079173E-3,8.8998524E-4,-6.098648E-4,6.688535E-4,-7.0850056E-4,-3.8270163E-3,-1.1962032E-3,-2.272427E-6,4.8847E-4,-3.9502978E-4],"categories":[],"categories_nodes":[],"categories_segments":[],"categories_sizes":[],"default_left":[1,1,1,1,0,1,1,1,1,1,1,1,1,1,1,1,1,0,1,1,1,0,1,1,1,1,1,1,1,1,1,1,1,1,0,1,1,1,1,0,0,1,1,1,1,0,0,0,0,0,0,0,0,0,0,0,0,0,0,0,0,0,0,0,0,0,0,0,0,0,0,0,0,0,0,0,0,0,0],"id":75,"left_children":[1,3,5,7,-1,9,11,13,15,17,19,21,23,25,27,29,31,-1,33,35,37,-1,39,41,43,45,47,49,51,53,55,57,59,61,-1,63,65,67,69,-1,-1,71,73,75,77,-1,-1,-1,-1,-1,-1,-1,-1,-1,-1,-1,-1,-1,-1,-1,-1,-1,-1,-1,-1,-1,-1,-1,-1,-1,-1,-1,-1,-1,-1,-1,-1,-1,-1],"loss_changes":[1.9108387E-5,5.8478126E-5,5.9420792E-5,3.5763842E-5,0E0,5.4709482E-5,2.38583E-5,5.299417E-5,4.8809252E-5,1.3951445E-5,3.799179E-5,4.9922455E-6,2.5359035E-5,5.3356875E-5,4.0696486E-5,7.966044E-5,5.4412405E-5,2.0345851E-7,5.583148E-6,1.0829376E-5,3.7145175E-5,3.2910884E-7,1.6102026E-6,4.0419367E-5,6.5933486E-6,3.8954317E-5,9.64629E-5,2.4441273E-5,8.533758E-5,4.15597E-5,6.5593034E-5,2.9297655E-5,3.0096644E-5,3.7470672E-6,6.796673E-7,3.838668E-6,7.777676E-6,1.7832348E-5,1.867475E-5,4.179359E-7,0E0,3.913536E-6,1.1133299E-5,2.8473182E-6,2.2653348E-6,0E0,0E0,0E0,0E0,0E0,0E0,0E0,0E0,0E0,0E0,0E0,0E0,0E0,0E0,0E0,0E0,0E0,0E0,0E0,0E0,0E0,0E0,0E0,0E0,0E0,0E0,0E0,0E0,0E0,0E0,0E0,0E0,0E0,0E0],"parents":[2147483647,0,0,1,1,2,2,3,3,5,5,6,6,7,7,8,8,9,9,10,10,11,11,12,12,13,13,14,14,15,15,16,16,18,18,19,19,20,20,22,22,23,23,24,24,25,25,26,26,27,27,28,28,29,29,30,30,31,31,32,32,33,33,35,35,36,36,37,37,38,38,41,41,42,42,43,43,44,44],"right_children":[2,4,6,8,-1,10,12,14,16,18,20,22,24,26,28,30,32,-1,34,36,38,-1,40,42,44,46,48,50,52,54,56,58,60,62,-1,64,66,68,70,-1,-1,72,74,76,78,-1,-1,-1,-1,-1,-1,-1,-1,-1,-1,-1,-1,-1,-1,-1,-1,-1,-1,-1,-1,-1,-1,-1,-1,-1,-1,-1,-1,-1,-1,-1,-1,-1,-1],"split_conditions":[1.1370316E0,1.1345496E0,1.6155948E-1,2.1598874E-1,-1.6464115E-3,-8.939825E-1,-1.5722647E0,-2.452954E-1,-7.917696E-2,-1.1560062E0,-1.8221332E-1,1.3034158E0,1.726827E-1,1.4316542E-1,-6.19427E-1,-4.404856E-1,-6.588563E-1,2.665973E-4,4.4984517E-1,-1.7746635E-2,-3.9230996E-1,4.013047E-4,-1.7851161E0,-2.8865337E-1,-2.0730104E-1,3.809616E-1,7.654536E-1,8.0919814E-1,-2.3911163E-1,-6.564659E-1,-1.474028E0,-5.8591324E-1,2.821906E-1,-3.309224E0,-1.2638123E-4,-1.8464761E0,-7.213805E-1,-2.6360777E-1,4.9064767E-1,1.3870087E-4,-8.590445E-5,-4.720484E-1,-1.1453907E0,-1.7273223E-1,4.998806E-1,-2.0979521E-4,3.1979918E-4,-7.6461234E-4,5.8543617E-5,-2.9304693E-4,2.0729046E-4,6.691778E-4,-2.6555795E-6,-4.6130063E-4,1.340188E-4,-2.8615864E-4,5.647356E-4,2.0787838E-5,-5.258301E-4,1.8013023E-4,-1.8173324E-4,-1.3192893E-4,-7.1991637E-4,-8.440018E-5,4.6735426E-4,1.7477498E-4,-2.5848384E-4,4.3952052E-4,-3.605068E-4,1.0823753E-3,2.6699557E-4,-1.8295944E-4,2.0065607E-4,-2.1255018E-4,-1.1481049E-3,-3.5886097E-4,-6.817281E-7,1.4654102E-4,-1.1850894E-4],"split_indices":[33,33,59,42,0,20,11,27,18,53,15,33,31,24,16,47,48,0,29,43,23,0,0,52,2,52,55,4,16,30,6,11,33,6,0,3,46,59,5,0,0,18,5,45,14,0,0,0,0,0,0,0,0,0,0,0,0,0,0,0,0,0,0,0,0,0,0,0,0,0,0,0,0,0,0,0,0,0,0],"split_type":[0,0,0,0,0,0,0,0,0,0,0,0,0,0,0,0,0,0,0,0,0,0,0,0,0,0,0,0,0,0,0,0,0,0,0,0,0,0,0,0,0,0,0,0,0,0,0,0,0,0,0,0,0,0,0,0,0,0,0,0,0,0,0,0,0,0,0,0,0,0,0,0,0,0,0,0,0,0,0],"sum_hessian":[6.57E2,5.4E2,1.17E2,5.39E2,1E0,6.4E1,5.3E1,3.01E2,2.38E2,1.6E1,4.8E1,1.5E1,3.8E1,1.11E2,1.9E2,1.04E2,1.34E2,4E0,1.2E1,2.1E1,2.7E1,5E0,1E1,1.6E1,2.2E1,5.7E1,5.4E1,5.7E1,1.33E2,4.3E1,6.1E1,3.9E1,9.5E1,5E0,7E0,8E0,1.3E1,9E0,1.8E1,6E0,4E0,8E0,8E0,8E0,1.4E1,4E1,1.7E1,3.4E1,2E1,4.7E1,1E1,1.9E1,1.14E2,1.6E1,2.7E1,9E0,5.2E1,1.3E1,2.6E1,6.6E1,2.9E1,2E0,3E0,1E0,7E0,7E0,6E0,6E0,3E0,1.4E1,4E0,5E0,3E0,2E0,6E0,5E0,3E0,1.1E1,3E0],"tree_param":{"num_deleted":"0","num_feature":"60","num_nodes":"79","size_leaf_vector":"0"}},{"base_weights":[-1.1371766E-5,3.5499284E-4,-7.611949E-5,-1.1546115E-3,4.4757404E-4,-1.4943343E-3,-4.2336804E-5,-1.9632976E-3,-2.5944412E-4,3.1403015E-5,7.5526733E-4,-6.730082E-4,-4.0077516E-3,3.7081522E-4,-1.4225746E-4,2.5451634E-4,-7.901684E-4,1.0588254E-3,1.4035385E-4,-8.622876E-5,-1.3598979E-3,7.1682327E-4,-3.6145336E-4,-2.2801278E-4,7.754574E-4,6.518215E-4,-2.0835921E-4,2.0641685E-3,6.978642E-4,-1.8496731E-4,8.760442E-4,3.836751E-4,-3.5092531E-4,1.2781431E-3,-2.2960771E-6,6.855279E-4,-6.476818E-4,-2.7024045E-3,-1.9659141E-4,1.6027163E-3,1.6625744E-4,9.69554E-4,1.4019864E-5,-6.2177924E-4,4.1200646E-4,2.7041137E-3,5.8820844E-4,4.7337264E-5,9.124524E-4,-9.055833E-4,1.0600624E-5,1.9397587E-4,1.493454E-3,2.0693569E-3,1.521835E-4,1.2268455E-3,-3.2087739E-4,-3.4213066E-5,1.1242151E-3,-1.2206096E-3,-2.6157696E-4,-3.7820128E-4,3.465884E-4,1.836334E-4,2.4358027E-3,-4.230176E-4,8.475591E-4],"categories":[],"categories_nodes":[],"categories_segments":[],"categories_sizes":[],"default_left":[1,1,1,1,1,1,1,0,0,1,1,1,0,1,1,1,0,1,1,1,0,1,1,1,1,1,1,1,1,1,1,0,0,1,1,1,1,0,1,1,1,0,0,0,0,0,0,0,0,0,0,0,0,0,0,0,0,0,0,0,0,0,0,0,0,0,0],"id":76,"left_children":[1,3,5,7,9,11,13,-1,-1,15,17,19,-1,21,23,25,-1,27,29,31,-1,33,35,37,39,41,43,45,47,49,51,-1,-1,53,55,57,59,-1,61,63,65,-1,-1,-1,-1,-1,-1,-1,-1,-1,-1,-1,-1,-1,-1,-1,-1,-1,-1,-1,-1,-1,-1,-1,-1,-1,-1],"loss_changes":[1.563562E-5,1.4353114E-5,2.6766955E-5,3.8340895E-6,1.201327E-5,2.413911E-5,2.2675518E-5,0E0,5.0901923E-7,7.716556E-6,9.931133E-6,4.3163172E-6,0E0,2.7369773E-5,3.4961744E-5,6.2046065E-6,9.930536E-7,1.1623528E-5,4.709417E-6,1.0053149E-6,6.596747E-8,2.9469822E-5,1.09326575E-5,3.0956995E-5,1.8884248E-5,3.6341125E-6,4.359723E-6,6.9102207E-6,3.865478E-6,1.9826111E-6,2.2369995E-6,0E0,0E0,3.6210942E-5,1.3315859E-5,2.5643922E-6,5.8746027E-6,0E0,3.9688453E-5,1.8468203E-5,9.592435E-6,0E0,0E0,0E0,0E0,0E0,0E0,0E0,0E0,0E0,0E0,0E0,0E0,0E0,0E0,0E0,0E0,0E0,0E0,0E0,0E0,0E0,0E0,0E0,0E0,0E0,0E0],"parents":[2147483647,0,0,1,1,2,2,3,3,4,4,5,5,6,6,9,9,10,10,11,11,13,13,14,14,15,15,17,17,18,18,19,19,21,21,22,22,23,23,24,24,25,25,26,26,27,27,28,28,29,29,30,30,33,33,34,34,35,35,36,36,38,38,39,39,40,40],"right_children":[2,4,6,8,10,12,14,-1,-1,16,18,20,-1,22,24,26,-1,28,30,32,-1,34,36,38,40,42,44,46,48,50,52,-1,-1,54,56,58,60,-1,62,64,66,-1,-1,-1,-1,-1,-1,-1,-1,-1,-1,-1,-1,-1,-1,-1,-1,-1,-1,-1,-1,-1,-1,-1,-1,-1,-1],"split_conditions":[-1.5031579E0,-3.4173791E0,-1.3290818E0,-7.180045E-1,-2.6806474E-1,1.2479175E0,-1.1105063E0,-5.889893E-4,-7.783324E-5,7.911529E-1,4.7213653E-1,7.19598E-1,-1.2023256E-3,6.876288E-1,1.8145683E0,1.1606255E-1,-2.3705054E-4,-8.0345565E-1,1.4312853E0,-9.4104755E-1,-4.0796938E-4,3.9633137E-1,-1.5823578E0,-1.04789E0,3.2707328E-1,1.2553813E0,5.508299E-1,2.088598E-1,-7.9323596E-1,-2.0315742E0,5.3015643E-1,1.15102535E-4,-1.052776E-4,3.5831273E-1,-9.186255E-1,-5.8909327E-1,-7.012912E-1,-8.1072137E-4,7.037654E-1,-1.6965246E-1,5.291712E-1,2.908662E-4,4.205959E-6,-1.8653378E-4,1.2360195E-4,8.112342E-4,1.7646253E-4,1.42011795E-5,2.7373573E-4,-2.71675E-4,3.1801872E-6,5.8192763E-5,4.480362E-4,6.2080706E-4,4.5655048E-5,3.6805368E-4,-9.626322E-5,-1.0263921E-5,3.3726453E-4,-3.661829E-4,-7.8473095E-5,-1.1346039E-4,1.0397653E-4,5.5090022E-5,7.3074084E-4,-1.2690529E-4,2.5426774E-4],"split_indices":[47,51,47,7,19,16,13,0,0,27,34,13,0,43,25,10,0,2,52,14,0,19,29,13,13,11,36,9,11,10,0,0,0,8,49,21,58,0,43,34,11,0,0,0,0,0,0,0,0,0,0,0,0,0,0,0,0,0,0,0,0,0,0,0,0,0,0],"split_type":[0,0,0,0,0,0,0,0,0,0,0,0,0,0,0,0,0,0,0,0,0,0,0,0,0,0,0,0,0,0,0,0,0,0,0,0,0,0,0,0,0,0,0,0,0,0,0,0,0,0,0,0,0,0,0,0,0,0,0,0,0,0,0,0,0,0,0],"sum_hessian":[6.57E2,9.8E1,5.59E2,5E0,9.3E1,1.2E1,5.47E2,2E0,3E0,4E1,5.3E1,1E1,2E0,1.06E2,4.41E2,3.2E1,8E0,3.5E1,1.8E1,6E0,4E0,7.2E1,3.4E1,4.04E2,3.7E1,1.7E1,1.5E1,8E0,2.7E1,1.3E1,5E0,2E0,4E0,4E1,3.2E1,7E0,2.7E1,4E0,4E2,1.5E1,2.2E1,1.1E1,6E0,9E0,6E0,5E0,3E0,7E0,2E1,2E0,1.1E1,3E0,2E0,2.3E1,1.7E1,6E0,2.6E1,3E0,4E0,1E1,1.7E1,3E2,1E2,6E0,9E0,1.2E1,1E1],"tree_param":{"num_deleted":"0","num_feature":"60","num_nodes":"67","size_leaf_vector":"0"}},{"base_weights":[-7.714874E-6,1.4792319E-3,-2.3667195E-5,1.16191804E-4,2.0012097E-3,-9.24199E-5,2.9481444E-4,1.8348866E-4,-2.7437054E-4,-3.5464548E-4,7.1143894E-4,-4.2523193E-4,4.402743E-4,4.9008266E-4,-4.2907632E-4,-1.9216537E-3,-1.5965295E-4,1.1808011E-3,-1.4633399E-4,1.7280283E-4,-1.4988071E-3,2.8611592E-3,2.848321E-4,8.784834E-4,-6.042182E-4,-5.3191263E-5,-8.915034E-4,-3.2197237E-3,-7.9220533E-4,2.4101595E-4,-5.717988E-4,5.898736E-4,3.9139725E-3,9.0396404E-4,-5.808629E-4,-1.1176817E-4,2.9041693E-3,-3.8052127E-3,-6.467381E-4,1.5651035E-3,4.931569E-3,-3.25331E-4,6.586988E-4,1.8057246E-3,2.7408564E-4,-1.0254302E-3,4.4329168E-4,-1.185904E-3,1.4039689E-4,-2.7877104E-4,-1.6991913E-3,-1.8632412E-4,5.511994E-4,-9.1325876E-4,4.340609E-4,1.0167379E-3,-3.420656E-4,5.2177906E-3,1.3057068E-3,1.2985289E-3,1.8476695E-4,6.571412E-6,-1.110211E-3],"categories":[],"categories_nodes":[],"categories_segments":[],"categories_sizes":[],"default_left":[1,1,1,0,0,1,1,1,1,1,1,1,1,1,1,1,1,1,1,1,1,1,1,1,1,1,1,0,0,1,1,1,1,1,1,0,0,0,0,0,0,0,0,0,0,0,0,0,0,0,0,0,0,0,0,0,0,0,0,0,0,0,0],"id":77,"left_children":[1,3,5,-1,-1,7,9,11,13,15,17,19,21,23,25,27,29,31,33,35,37,39,41,43,45,47,49,-1,-1,51,53,55,57,59,61,-1,-1,-1,-1,-1,-1,-1,-1,-1,-1,-1,-1,-1,-1,-1,-1,-1,-1,-1,-1,-1,-1,-1,-1,-1,-1,-1,-1],"loss_changes":[1.5642936E-5,4.7478115E-6,1.4303747E-5,0E0,2.096931E-8,2.7008678E-5,3.1639694E-5,3.3637712E-5,3.852825E-5,1.3748728E-5,2.8757826E-5,4.1349253E-5,5.6007517E-5,2.3907298E-5,4.6883833E-5,4.779835E-6,7.0734413E-6,7.198614E-5,1.2391087E-5,3.2969838E-5,4.2739E-5,1.6431877E-5,3.2835404E-5,2.24824E-5,7.0729197E-6,3.3058463E-5,5.9408783E-5,0E0,0E0,3.0188858E-6,7.6090864E-6,1.5862443E-5,2.039272E-5,2.030234E-6,5.9154836E-6,0E0,0E0,0E0,0E0,0E0,0E0,0E0,0E0,0E0,0E0,0E0,0E0,0E0,0E0,0E0,0E0,0E0,0E0,0E0,0E0,0E0,0E0,0E0,0E0,0E0,0E0,0E0,0E0],"parents":[2147483647,0,0,1,1,2,2,5,5,6,6,7,7,8,8,9,9,10,10,11,11,12,12,13,13,14,14,15,15,16,16,17,17,18,18,19,19,20,20,21,21,22,22,23,23,24,24,25,25,26,26,29,29,30,30,31,31,32,32,33,33,34,34],"right_children":[2,4,6,-1,-1,8,10,12,14,16,18,20,22,24,26,28,30,32,34,36,38,40,42,44,46,48,50,-1,-1,52,54,56,58,60,62,-1,-1,-1,-1,-1,-1,-1,-1,-1,-1,-1,-1,-1,-1,-1,-1,-1,-1,-1,-1,-1,-1,-1,-1,-1,-1,-1,-1],"split_conditions":[-5.680971E0,2.7232304E-1,1.1800113E0,3.485754E-5,6.003629E-4,-3.1492436E-1,-2.8210002E-1,-5.7227993E-1,-1.3294237E0,-1.8437133E0,3.133397E-1,5.837157E-1,-4.5061025E-1,7.5599575E-1,2.1189404E-1,-7.9322475E-1,3.1111652E-1,-1.0038E-1,1.366792E0,-5.4461825E-1,-8.330927E-1,1.1962512E0,-1.1127933E-1,1.5799132E-1,1.3083978E0,-1.0692973E0,2.1075371E-1,-9.6591713E-4,-2.376616E-4,-7.501793E-1,1.0644356E0,8.328079E-1,2.1624309E-1,5.024961E-1,7.745539E-2,-3.353045E-5,8.712508E-4,-1.1415639E-3,-1.9402144E-4,4.6953108E-4,1.4794708E-3,-9.75993E-5,1.9760964E-4,5.417174E-4,8.22257E-5,-3.0762906E-4,1.3298751E-4,-3.5577122E-4,4.211907E-5,-8.363131E-5,-5.0975743E-4,-5.589724E-5,1.6535983E-4,-2.7397764E-4,1.3021828E-4,3.0502139E-4,-1.0261969E-4,1.5653373E-3,3.9171206E-4,3.8955867E-4,5.5430086E-5,1.9714237E-6,-3.330633E-4],"split_indices":[44,11,28,0,0,10,1,44,55,58,20,29,44,26,35,0,37,20,28,10,50,31,12,13,59,48,48,0,0,5,20,11,9,9,46,0,0,0,0,0,0,0,0,0,0,0,0,0,0,0,0,0,0,0,0,0,0,0,0,0,0,0,0],"split_type":[0,0,0,0,0,0,0,0,0,0,0,0,0,0,0,0,0,0,0,0,0,0,0,0,0,0,0,0,0,0,0,0,0,0,0,0,0,0,0,0,0,0,0,0,0,0,0,0,0,0,0,0,0,0,0,0,0,0,0,0,0,0,0],"sum_hessian":[6.57E2,6E0,6.51E2,2E0,4E0,5.36E2,1.15E2,2.13E2,3.23E2,4.5E1,7E1,6.3E1,1.5E2,5.4E1,2.69E2,4E0,4.1E1,4.5E1,2.5E1,4.1E1,2.2E1,8E0,1.42E2,4E1,1.4E1,1.49E2,1.2E2,1E0,3E0,2.1E1,2E1,3.8E1,7E0,7E0,1.8E1,3.8E1,3E0,5E0,1.7E1,6E0,2E0,5.4E1,8.8E1,1.5E1,2.5E1,1E1,4E0,2.1E1,1.28E2,6.9E1,5.1E1,9E0,1.2E1,1.5E1,5E0,2.6E1,1.2E1,4E0,3E0,4E0,3E0,9E0,9E0],"tree_param":{"num_deleted":"0","num_feature":"60","num_nodes":"63","size_leaf_vector":"0"}},{"base_weights":[-1.2038778E-6,-6.613694E-5,3.059682E-4,-4.2033258E-5,-4.398823E-3,-5.609515E-4,4.726229E-4,3.3158122E-4,-1.4454701E-4,-5.6316853E-3,-9.665489E-4,-2.4724333E-4,-1.6755462E-3,9.034729E-4,1.12807655E-4,-9.4052666E-5,7.238689E-4,-1.0421983E-3,-4.3652344E-5,-5.746247E-4,3.9416304E-4,1.3164866E-3,9.8418546E-5,6.062451E-4,-3.334745E-4,-1.5155822E-3,3.187015E-4,1.9554016E-3,3.4959125E-4,6.5994005E-5,-2.2063043E-3,1.2532836E-4,-5.248108E-4,-8.053208E-5,-9.7294647E-4,4.8600198E-4,2.0592054E-3,-2.328844E-4,1.1505485E-3,2.2109225E-4,1.6200755E-3,-5.462907E-4,5.733694E-4,2.1445502E-4,-2.6236624E-3,-2.8772422E-4,8.15351E-4,3.7942827E-4,2.5478483E-3,8.300522E-4,-2.5595588E-4,9.332262E-4,-3.7174672E-4,-3.6258337E-3,5.536601E-4,6.9194497E-4,-4.859238E-5,1.4377672E-4,-1.120422E-3,2.8547584E-3,3.900826E-4,-3.0499697E-4,5.2783237E-4,-8.755731E-4,2.2619963E-6],"categories":[],"categories_nodes":[],"categories_segments":[],"categories_sizes":[],"default_left":[1,1,1,1,1,1,1,1,1,0,0,1,0,1,1,1,1,1,1,1,0,1,1,1,1,1,1,1,1,1,1,1,1,0,0,0,1,0,0,1,0,1,0,0,0,0,0,0,0,0,0,0,0,0,0,0,0,0,0,0,0,0,0,0,0],"id":78,"left_children":[1,3,5,7,9,11,13,15,17,-1,-1,19,-1,21,23,25,27,29,31,33,-1,35,37,39,41,43,45,47,49,51,53,55,57,-1,-1,-1,59,-1,-1,61,-1,63,-1,-1,-1,-1,-1,-1,-1,-1,-1,-1,-1,-1,-1,-1,-1,-1,-1,-1,-1,-1,-1,-1,-1],"loss_changes":[1.3144455E-5,5.662702E-5,1.6879885E-5,2.0806867E-5,7.2512667E-6,6.229224E-6,1.493564E-5,1.9603682E-5,3.853657E-5,0E0,0E0,3.5862472E-6,0E0,1.4500365E-5,1.2093634E-5,3.3927325E-5,2.7433456E-5,5.5617893E-5,3.1287473E-5,2.086533E-6,5.044086E-8,1.6886901E-5,5.8451246E-6,9.794287E-6,5.9099675E-6,2.5483916E-5,1.3787743E-5,1.21048E-5,1.4177662E-5,9.078249E-6,8.4282336E-5,2.8119342E-5,3.9982908E-5,9.85666E-8,0E0,8.545969E-7,1.8804545E-5,9.764428E-7,1.6810009E-7,3.3884407E-6,3.7339305E-7,4.33707E-6,0E0,0E0,0E0,0E0,0E0,0E0,0E0,0E0,0E0,0E0,0E0,0E0,0E0,0E0,0E0,0E0,0E0,0E0,0E0,0E0,0E0,0E0,0E0],"parents":[2147483647,0,0,1,1,2,2,3,3,4,4,5,5,6,6,7,7,8,8,11,11,13,13,14,14,15,15,16,16,17,17,18,18,19,19,21,21,22,22,23,23,24,24,25,25,26,26,27,27,28,28,29,29,30,30,31,31,32,32,36,36,39,39,41,41],"right_children":[2,4,6,8,10,12,14,16,18,-1,-1,20,-1,22,24,26,28,30,32,34,-1,36,38,40,42,44,46,48,50,52,54,56,58,-1,-1,-1,60,-1,-1,62,-1,64,-1,-1,-1,-1,-1,-1,-1,-1,-1,-1,-1,-1,-1,-1,-1,-1,-1,-1,-1,-1,-1,-1,-1],"split_conditions":[1.1439648E0,1.135498E0,-1.9098227E0,-1.0529238E0,8.726076E-1,4.968698E-1,2.5593168E-1,1.14459276E-1,-7.2264194E-1,-1.6895056E-3,-2.899647E-4,2.773742E-1,-5.026639E-4,4.4577026E-1,-2.66652E-1,-8.161879E-1,3.3534193E-1,-2.7705872E-1,7.8894794E-1,-9.5671546E-1,1.18248914E-4,-7.7186674E-2,1.2996919E0,9.3089426E-1,6.982337E-1,-2.0448172E0,2.2447677E-3,-1.979818E-1,3.8791794E-1,-6.351073E-1,7.4151814E-1,-8.106107E-1,-1.1960192E-1,-2.4159626E-5,-2.9188395E-4,1.458006E-4,8.758751E-1,-6.9865324E-5,3.4516456E-4,-1.2797757E0,4.8602268E-4,7.9340774E-1,1.7201083E-4,6.433651E-5,-7.870987E-4,-8.631727E-5,2.4460533E-4,1.13828486E-4,7.6435454E-4,2.4901566E-4,-7.678677E-5,2.7996788E-4,-1.1152402E-4,-1.0877502E-3,1.6609803E-4,2.075835E-4,-1.4577715E-5,4.313302E-5,-3.3612663E-4,8.5642753E-4,1.17024785E-4,-9.1499096E-5,1.5834972E-4,-2.6267194E-4,6.785989E-7],"split_indices":[51,51,59,59,0,19,31,0,59,0,0,7,0,34,6,29,0,46,52,19,0,37,45,29,12,29,57,55,18,27,18,21,7,0,0,0,56,0,0,32,0,5,0,0,0,0,0,0,0,0,0,0,0,0,0,0,0,0,0,0,0,0,0,0,0],"split_type":[0,0,0,0,0,0,0,0,0,0,0,0,0,0,0,0,0,0,0,0,0,0,0,0,0,0,0,0,0,0,0,0,0,0,0,0,0,0,0,0,0,0,0,0,0,0,0,0,0,0,0,0,0,0,0,0,0,0,0,0,0,0,0,0,0],"sum_hessian":[6.57E2,5.43E2,1.14E2,5.41E2,2E0,1.8E1,9.6E1,1.16E2,4.25E2,1E0,1E0,1.5E1,3E0,4.3E1,5.3E1,5.6E1,6E1,4.2E1,3.83E2,1E1,5E0,2.8E1,1.5E1,2.5E1,2.8E1,1.2E1,4.4E1,1.3E1,4.7E1,2.2E1,2E1,2.84E2,9.9E1,5E0,5E0,1.4E1,1.4E1,1.2E1,3E0,1.9E1,6E0,2.3E1,5E0,5E0,7E0,2E1,2.4E1,4E0,9E0,2.6E1,2.1E1,7E0,1.5E1,1.3E1,7E0,6.6E1,2.18E2,4.7E1,5.2E1,9E0,5E0,7E0,1.2E1,1.4E1,9E0],"tree_param":{"num_deleted":"0","num_feature":"60","num_nodes":"65","size_leaf_vector":"0"}},{"base_weights":[-2.6486805E-6,4.0521307E-4,-4.6515073E-5,7.9897174E-4,-9.756368E-5,3.9182333E-4,-9.82389E-5,1.4281421E-3,2.8155762E-4,-4.4070277E-4,5.9847086E-4,1.0040296E-3,-4.0929284E-4,-2.8583524E-4,9.98366E-5,-3.269948E-4,1.8583271E-3,-2.3569672E-4,1.151558E-3,-5.990213E-4,1.5405714E-4,1.5968308E-3,3.1011633E-4,1.7422157E-3,3.2637006E-4,-1.5456544E-3,1.2253449E-4,3.4061677E-4,-4.6306764E-4,1.6413592E-3,3.8023605E-5,2.110727E-3,7.6274574E-4,-7.4105524E-4,3.755268E-4,1.8708309E-3,5.9999526E-4,9.951248E-4,3.336209E-3,-3.5420805E-4,6.43347E-4,-3.750523E-4,-2.915144E-3,1.5500834E-3,-1.221978E-4,-9.265863E-4,8.9262234E-4,-6.2417646E-4,4.082195E-4,-3.7160664E-4,3.045271E-3,2.2597743E-4,-4.610137E-4,8.548796E-5,1.259467E-3,1.8291697E-3,4.6821833E-3,1.2948662E-3,3.4794482E-4,-6.677111E-4,1.389774E-4,-4.4825887E-5,-2.8295962E-3,1.7150227E-3,2.964823E-5,-1.084576E-3,-1.9597716E-4,1.4486217E-3,-3.04821E-4,9.97979E-4,7.412012E-5,-1.0753307E-4,-1.3216645E-3],"categories":[],"categories_nodes":[],"categories_segments":[],"categories_sizes":[],"default_left":[1,1,1,1,1,1,1,1,1,1,1,1,1,1,1,0,1,1,1,0,0,0,0,1,1,1,1,1,1,1,1,0,0,0,0,0,0,1,1,0,1,0,0,0,1,1,1,1,1,0,0,1,1,0,0,0,0,0,0,0,0,0,0,0,0,0,0,0,0,0,0,0,0],"id":79,"left_children":[1,3,5,7,9,11,13,15,17,19,21,23,25,27,29,-1,31,33,35,-1,-1,-1,-1,37,39,41,43,45,47,49,51,-1,-1,-1,-1,-1,-1,53,55,-1,57,-1,-1,-1,59,61,63,65,67,-1,-1,69,71,-1,-1,-1,-1,-1,-1,-1,-1,-1,-1,-1,-1,-1,-1,-1,-1,-1,-1,-1,-1],"loss_changes":[1.1791404E-5,1.2748204E-5,1.3528654E-5,1.1317394E-5,7.190011E-6,3.1309195E-5,1.9833878E-5,1.26882005E-5,9.72166E-6,1.9755144E-6,2.3836128E-6,1.743999E-5,1.7111142E-5,3.057929E-5,2.4711982E-5,2.9047325E-7,1.9848703E-6,4.6027044E-6,2.0513025E-6,3.1775835E-7,3.289636E-7,0E0,2.4457228E-7,1.6924641E-5,4.54243E-6,1.3334817E-5,7.1767627E-6,4.349678E-5,3.029442E-5,2.9391906E-5,2.3646966E-5,3.7446443E-7,0E0,9.909977E-7,1.824219E-7,0E0,4.9996015E-7,3.0182518E-6,1.577675E-6,1.6272764E-7,2.2439003E-6,5.019295E-7,0E0,7.1906925E-8,2.6573387E-6,3.175514E-5,3.0466694E-5,3.547028E-5,2.566443E-5,8.0572175E-7,5.156471E-8,2.1379867E-5,2.0849293E-5,0E0,0E0,0E0,0E0,0E0,0E0,0E0,0E0,0E0,0E0,0E0,0E0,0E0,0E0,0E0,0E0,0E0,0E0,0E0,0E0],"parents":[2147483647,0,0,1,1,2,2,3,3,4,4,5,5,6,6,7,7,8,8,9,9,10,10,11,11,12,12,13,13,14,14,16,16,17,17,18,18,23,23,24,24,25,25,26,26,27,27,28,28,29,29,30,30,37,37,38,38,40,40,44,44,45,45,46,46,47,47,48,48,51,51,52,52],"right_children":[2,4,6,8,10,12,14,16,18,20,22,24,26,28,30,-1,32,34,36,-1,-1,-1,-1,38,40,42,44,46,48,50,52,-1,-1,-1,-1,-1,-1,54,56,-1,58,-1,-1,-1,60,62,64,66,68,-1,-1,70,72,-1,-1,-1,-1,-1,-1,-1,-1,-1,-1,-1,-1,-1,-1,-1,-1,-1,-1,-1,-1],"split_conditions":[-1.8318663E0,6.527308E-1,-1.9295194E0,2.3518344E-2,8.9210546E-1,-1.4962082E-1,2.6682925E-1,-1.48226E0,7.4404466E-1,2.4573088E0,-1.2274894E0,2.4564633E-1,-6.327319E-1,-1.0077152E0,2.997331E-1,-9.809845E-5,8.468522E-1,2.691832E-1,-1.01705536E-1,-1.797064E-4,4.6217145E-5,4.7904925E-4,9.3034905E-5,8.498916E-1,-7.750301E-1,-2.6397318E-2,-2.1225348E0,-2.6234916E-1,1.1182622E0,1.2085284E-1,7.282572E-1,6.332181E-4,2.2882373E-4,-2.2231658E-4,1.1265805E-4,5.6124927E-4,1.7999858E-4,-7.5655884E-1,-4.1419822E-1,-1.0626242E-4,-6.725912E-1,-1.1251569E-4,-8.745432E-4,4.6502505E-4,-1.0041637E0,-6.114794E-4,4.530066E-1,8.695078E-2,-1.3520794E-1,-1.11482E-4,9.135813E-4,-1.3995174E0,3.4288418E-1,2.564639E-5,3.778401E-4,5.487509E-4,1.404655E-3,3.8845988E-4,1.0438345E-4,-2.0031333E-4,4.169322E-5,-1.3447767E-5,-8.488789E-4,5.145068E-4,8.89447E-6,-3.2537282E-4,-5.879315E-5,4.3458655E-4,-9.14463E-5,2.993937E-4,2.2236038E-5,-3.2259923E-5,-3.9649938E-4],"split_indices":[49,55,11,18,41,5,49,56,0,55,7,49,2,0,49,0,9,24,20,0,0,0,0,21,18,14,28,47,58,0,38,0,0,0,0,0,0,38,0,0,18,0,0,0,20,49,40,31,8,0,0,16,15,0,0,0,0,0,0,0,0,0,0,0,0,0,0,0,0,0,0,0,0],"split_type":[0,0,0,0,0,0,0,0,0,0,0,0,0,0,0,0,0,0,0,0,0,0,0,0,0,0,0,0,0,0,0,0,0,0,0,0,0,0,0,0,0,0,0,0,0,0,0,0,0,0,0,0,0,0,0,0,0,0,0,0,0,0,0,0,0,0,0,0,0,0,0,0,0],"sum_hessian":[6.57E2,6.3E1,5.94E2,3.5E1,2.8E1,6.2E1,5.32E2,1.5E1,2E1,1.9E1,9E0,3.5E1,2.7E1,2.73E2,2.59E2,3E0,1.2E1,1.3E1,7E0,1.5E1,4E0,1E0,8E0,1.6E1,1.9E1,8E0,1.9E1,6E1,2.13E2,9E0,2.5E2,9E0,3E0,7E0,6E0,2E0,5E0,1.2E1,4E0,6E0,1.3E1,5E0,3E0,2E0,1.7E1,1.8E1,4.2E1,1.8E2,3.3E1,4E0,5E0,1.82E2,6.8E1,3E0,9E0,3E0,1E0,3E0,1E1,5E0,1.2E1,1.3E1,5E0,2.1E1,2.1E1,8.6E1,9.4E1,1.3E1,2E1,2.9E1,1.53E2,4.9E1,1.9E1],"tree_param":{"num_deleted":"0","num_feature":"60","num_nodes":"73","size_leaf_vector":"0"}},{"base_weights":[4.5440097E-6,-9.156127E-5,1.529516E-4,-1.1658261E-5,-1.5330652E-3,7.242892E-4,-5.424864E-5,-1.8008647E-4,3.7321358E-4,-4.098314E-3,-6.883999E-4,2.3623524E-4,1.2812193E-3,2.9069636E-4,-3.845607E-4,-2.2331791E-4,1.236638E-3,-6.0395355E-4,5.9557636E-4,-5.357951E-3,4.7011673E-4,-1.5435334E-3,7.5372413E-4,-1.0364573E-3,3.7493624E-4,5.093057E-4,2.3702234E-3,-3.7046403E-4,6.064038E-4,-1.375382E-3,1.1602076E-5,1.849022E-5,-5.2416185E-4,1.6593992E-3,3.9902702E-4,-4.6242476E-3,-1.9230871E-4,-1.683073E-4,1.0645275E-3,-8.379854E-4,-2.568746E-3,9.377798E-5,9.989471E-4,-2.779919E-4,7.2768104E-4,8.595139E-4,-4.5109913E-4,2.949953E-3,3.2834336E-4,-6.395373E-5,-3.2099087E-3,1.3433212E-3,1.6024713E-4,-2.121427E-3,-2.9546294E-5,-2.1562874E-3,1.3895438E-4,8.030368E-5,-2.1650568E-3,2.5550846E-4,-8.5458526E-4,-8.768584E-4,2.964033E-4,-6.115122E-4,6.9695653E-4,-8.344017E-4,1.2952441E-3,2.6224574E-4,-1.1948213E-3,1.0428564E-3,-3.3912508E-4,1.1656085E-3,3.4317587E-4,3.3551827E-5,-9.4693404E-4,3.1812026E-3,4.3435395E-4,1.4048815E-4,-1.3768375E-3,2.06531E-3,1.260057E-4,-4.8963324E-4,4.7946422E-4,-8.911364E-4,-4.433485E-3,-4.4114556E-4,1.2151003E-3,-1.0661619E-4,9.437222E-4],"categories":[],"categories_nodes":[],"categories_segments":[],"categories_sizes":[],"default_left":[1,1,1,1,1,1,1,1,1,1,1,1,1,1,1,1,1,1,1,0,0,1,1,0,1,1,1,1,1,1,1,1,1,0,0,0,1,1,1,0,0,0,0,1,1,1,1,1,0,1,0,1,1,1,1,0,1,0,0,0,0,0,0,0,0,0,0,0,0,0,0,0,0,0,0,0,0,0,0,0,0,0,0,0,0,0,0,0,0],"id":80,"left_children":[1,3,5,7,9,11,13,15,17,19,21,23,25,27,29,31,33,35,37,-1,-1,39,41,-1,43,45,47,49,51,53,55,57,59,-1,-1,-1,61,63,65,-1,-1,-1,-1,67,69,71,73,75,-1,77,-1,79,81,83,85,-1,87,-1,-1,-1,-1,-1,-1,-1,-1,-1,-1,-1,-1,-1,-1,-1,-1,-1,-1,-1,-1,-1,-1,-1,-1,-1,-1,-1,-1,-1,-1,-1,-1],"loss_changes":[9.3988965E-6,4.6054327E-5,3.070005E-5,2.4700053E-5,4.268103E-5,1.8452352E-5,2.1874232E-5,1.6506627E-5,2.5564832E-5,3.129168E-5,2.2127944E-5,7.096506E-6,2.5692578E-5,1.9845575E-5,3.8483555E-5,1.8778292E-5,2.17073E-6,3.5519246E-5,3.4210454E-5,0E0,0E0,5.8041314E-6,1.0391582E-6,3.189516E-7,8.263383E-6,7.1145582E-6,1.4420002E-5,2.6774607E-5,2.0826697E-5,2.8050836E-5,1.990171E-5,1.9609914E-5,2.984481E-5,0E0,2.566253E-9,0E0,7.285405E-6,1.4615297E-5,2.6929505E-5,2.8498607E-7,0E0,2.7972025E-9,0E0,6.7523115E-6,8.086971E-6,1.9707159E-6,1.4736124E-6,4.43554E-6,3.7988514E-8,7.9772735E-6,0E0,2.0833078E-5,8.740332E-6,4.725022E-5,6.1712876E-6,0E0,1.3539272E-5,0E0,0E0,0E0,0E0,0E0,0E0,0E0,0E0,0E0,0E0,0E0,0E0,0E0,0E0,0E0,0E0,0E0,0E0,0E0,0E0,0E0,0E0,0E0,0E0,0E0,0E0,0E0,0E0,0E0,0E0,0E0,0E0],"parents":[2147483647,0,0,1,1,2,2,3,3,4,4,5,5,6,6,7,7,8,8,9,9,10,10,11,11,12,12,13,13,14,14,15,15,16,16,17,17,18,18,21,21,22,22,24,24,25,25,26,26,27,27,28,28,29,29,30,30,31,31,32,32,36,36,37,37,38,38,43,43,44,44,45,45,46,46,47,47,49,49,51,51,52,52,53,53,54,54,56,56],"right_children":[2,4,6,8,10,12,14,16,18,20,22,24,26,28,30,32,34,36,38,-1,-1,40,42,-1,44,46,48,50,52,54,56,58,60,-1,-1,-1,62,64,66,-1,-1,-1,-1,68,70,72,74,76,-1,78,-1,80,82,84,86,-1,88,-1,-1,-1,-1,-1,-1,-1,-1,-1,-1,-1,-1,-1,-1,-1,-1,-1,-1,-1,-1,-1,-1,-1,-1,-1,-1,-1,-1,-1,-1,-1,-1],"split_conditions":[3.9322814E-1,2.9377198E-1,-6.059841E-1,6.4973736E-1,-1.200273E0,-4.3815084E-2,-1.0921218E-1,2.4567033E-1,-1.6985999E0,-1.4723384E-1,4.9842596E-1,-1.7185547E0,4.9822975E-2,-4.6092558E-1,-4.5687655E-1,2.1979924E-1,4.003332E-1,-1.9018059E0,-2.8288355E-1,-1.6073853E-3,1.4103502E-4,3.3713022E-1,-1.3054804E0,-3.1093718E-4,-8.2370716E-1,5.3163075E-1,1.3595859E0,-5.544749E-1,-4.407066E-1,2.326718E-1,-3.881003E-2,2.1079078E-1,-7.424619E-1,4.978198E-4,1.1970811E-4,-1.3872744E-3,-2.2082105E-1,4.7188985E-1,-2.2709038E0,-2.5139563E-4,-7.7062385E-4,2.8133394E-5,2.9968412E-4,-2.55717E-1,2.4323897E0,4.3880746E-2,-1.1579559E0,2.5332255E0,9.850301E-5,1.8069919E0,-9.6297264E-4,1.3198473E-1,-5.7618165E-1,1.3095797E-2,1.3958178E0,-6.4688624E-4,1.2198532E0,2.4091105E-5,-6.4951705E-4,7.665254E-5,-2.5637558E-4,-2.6305753E-4,8.892099E-5,-1.8345368E-4,2.0908697E-4,-2.5032053E-4,3.8857324E-4,7.867372E-5,-3.584464E-4,3.1285692E-4,-1.01737525E-4,3.4968258E-4,1.0295276E-4,1.0065549E-5,-2.8408022E-4,9.543608E-4,1.3030619E-4,4.2146447E-5,-4.1305125E-4,6.19593E-4,3.7801714E-5,-1.4688997E-4,1.4383926E-4,-2.6734095E-4,-1.3300456E-3,-1.3234367E-4,3.645301E-4,-3.198486E-5,2.8311668E-4],"split_indices":[9,9,31,21,44,7,8,9,19,0,11,14,5,12,18,7,15,31,26,0,0,23,5,0,41,55,6,12,54,2,8,9,6,0,0,0,48,0,43,0,0,0,0,47,5,1,1,0,0,10,0,51,16,14,35,0,42,0,0,0,0,0,0,0,0,0,0,0,0,0,0,0,0,0,0,0,0,0,0,0,0,0,0,0,0,0,0,0,0],"split_type":[0,0,0,0,0,0,0,0,0,0,0,0,0,0,0,0,0,0,0,0,0,0,0,0,0,0,0,0,0,0,0,0,0,0,0,0,0,0,0,0,0,0,0,0,0,0,0,0,0,0,0,0,0,0,0,0,0,0,0,0,0,0,0,0,0,0,0,0,0,0,0,0,0,0,0,0,0,0,0,0,0,0,0,0,0,0,0,0,0],"sum_hessian":[6.57E2,3.99E2,2.58E2,3.79E2,2E1,6.8E1,1.9E2,2.64E2,1.15E2,4E0,1.6E1,3.7E1,3.1E1,9.3E1,9.7E1,2.57E2,7E0,2.1E1,9.4E1,3E0,1E0,1E1,6E0,3E0,3.4E1,1.9E1,1.2E1,3E1,6.3E1,2.7E1,7E1,1.43E2,1.14E2,4E0,3E0,1E0,2E1,3.6E1,5.8E1,7E0,3E0,2E0,4E0,1.2E1,2.2E1,1.4E1,5E0,9E0,3E0,2.8E1,2E0,2.3E1,4E1,1.7E1,1E1,3E0,6.7E1,1.4E2,3E0,3.4E1,8E1,8E0,1.2E1,2.4E1,1.2E1,6E0,5.2E1,8E0,4E0,1.7E1,5E0,8E0,6E0,3E0,2E0,8E0,1E0,2.5E1,3E0,1.4E1,9E0,1.3E1,2.7E1,1.2E1,5E0,8E0,2E0,5.2E1,1.5E1],"tree_param":{"num_deleted":"0","num_feature":"60","num_nodes":"89","size_leaf_vector":"0"}},{"base_weights":[-4.7310377E-6,4.3231336E-4,-3.6754274E-5,1.543084E-4,1.3898999E-3,-2.375752E-4,5.5177457E-5,-1.8121004E-3,2.6226582E-4,6.744904E-4,2.2943914E-3,-1.4789218E-4,-1.7079766E-3,-9.775078E-5,2.9877355E-4,5.4973272E-5,1.0835826E-3,-1.9511962E-4,2.7507942E-3,-2.7470929E-3,8.838177E-5,5.793581E-5,-8.6334714E-4,4.69605E-4,-3.6319296E-4,8.9679164E-4,-4.0598145E-5,3.0502677E-5,1.2540122E-3,1.3318268E-4,-5.003907E-4,3.6976933E-3,4.284978E-4,-1.2715459E-3,-3.5358667E-3,2.1359212E-5,2.6599467E-3,-1.5989123E-3,2.8796433E-4,1.8668751E-4,8.4012654E-4,2.1080318E-4,-1.1982449E-3,-1.247283E-4,6.740193E-4,3.4744633E-4,-5.254012E-4,-2.0666658E-3,-2.2349886E-4,5.2710983E-4,-1.2326811E-4,-2.8524857E-3,-4.0588775E-4,1.3734859E-6,8.609171E-4,2.6969385E-4,-1.3540983E-3,1.8133397E-3,4.7254743E-4,-6.209645E-4,7.704267E-4,-1.6193985E-4,-1.5965728E-3],"categories":[],"categories_nodes":[],"categories_segments":[],"categories_sizes":[],"default_left":[1,1,1,1,1,1,1,0,1,0,0,1,1,1,1,1,1,1,1,1,0,1,1,1,1,0,1,0,0,1,1,0,0,0,0,1,0,1,1,1,1,1,1,0,0,0,0,0,0,0,0,0,0,0,0,0,0,0,0,0,0,0,0],"id":81,"left_children":[1,3,5,7,9,11,13,-1,15,-1,-1,17,19,21,23,25,27,29,31,33,-1,35,37,39,41,-1,43,-1,-1,45,47,-1,-1,-1,-1,49,-1,51,53,55,57,59,61,-1,-1,-1,-1,-1,-1,-1,-1,-1,-1,-1,-1,-1,-1,-1,-1,-1,-1,-1,-1],"loss_changes":[9.224978E-6,1.1765148E-5,1.1348663E-5,8.117635E-6,4.9232713E-6,2.5198317E-5,1.5749854E-5,0E0,5.8992814E-6,0E0,0E0,2.5588983E-5,2.0775675E-5,3.104022E-5,1.8603361E-5,2.3695675E-6,1.2180808E-6,1.8206681E-5,5.012489E-6,3.65109E-6,4.6024795E-7,2.0595664E-5,3.7722464E-5,1.3470673E-5,1.6549355E-5,0E0,1.7073329E-6,0E0,1.2664805E-7,1.260028E-5,4.0304854E-5,0E0,0E0,0E0,0E0,1.5791225E-5,0E0,3.9221894E-5,2.9544717E-6,9.957315E-6,1.9176146E-5,1.02534195E-5,5.520502E-6,0E0,0E0,0E0,0E0,0E0,0E0,0E0,0E0,0E0,0E0,0E0,0E0,0E0,0E0,0E0,0E0,0E0,0E0,0E0,0E0],"parents":[2147483647,0,0,1,1,2,2,3,3,4,4,5,5,6,6,8,8,11,11,12,12,13,13,14,14,15,15,16,16,17,17,18,18,19,19,21,21,22,22,23,23,24,24,26,26,29,29,30,30,35,35,37,37,38,38,39,39,40,40,41,41,42,42],"right_children":[2,4,6,8,10,12,14,-1,16,-1,-1,18,20,22,24,26,28,30,32,34,-1,36,38,40,42,-1,44,-1,-1,46,48,-1,-1,-1,-1,50,-1,52,54,56,58,60,62,-1,-1,-1,-1,-1,-1,-1,-1,-1,-1,-1,-1,-1,-1,-1,-1,-1,-1,-1,-1],"split_conditions":[-2.5319567E0,6.780605E-1,-4.47676E-1,-3.2831578E0,8.6826906E-2,-4.9860796E-1,3.852328E-1,-5.4363016E-4,9.70294E-1,2.0234713E-4,6.8831746E-4,-5.21869E-1,3.9311582E-1,1.144362E0,9.715925E-1,-2.1665459E0,-1.0920968E0,-2.4128228E-2,-1.1688759E0,9.2402214E-1,2.6514532E-5,1.1246963E0,3.7478524E-1,-1.0047057E-1,3.323375E-1,2.690375E-4,3.4154716E0,9.150804E-6,3.7620368E-4,9.2933506E-1,-1.2618017E0,1.1093081E-3,1.2854935E-4,-3.814638E-4,-1.0607601E-3,-1.1860706E0,7.97984E-4,1.99579E-1,1.0088792E0,-1.815232E-1,-6.3907415E-2,-6.2641644E-1,-7.7333665E-1,-3.7418493E-5,2.0220579E-4,1.04233906E-4,-1.5762036E-4,-6.199998E-4,-6.704966E-5,1.5813296E-4,-3.6980433E-5,-8.5574575E-4,-1.2176633E-4,4.120458E-7,2.5827513E-4,8.0908154E-5,-4.0622952E-4,5.4400193E-4,1.4176423E-4,-1.8628936E-4,2.3112803E-4,-4.858196E-5,-4.7897187E-4],"split_indices":[33,17,33,0,9,33,19,0,50,0,0,33,30,15,17,9,2,47,0,5,0,15,1,17,14,0,0,0,0,20,31,0,0,0,0,27,0,42,2,17,33,0,2,0,0,0,0,0,0,0,0,0,0,0,0,0,0,0,0,0,0,0,0],"split_type":[0,0,0,0,0,0,0,0,0,0,0,0,0,0,0,0,0,0,0,0,0,0,0,0,0,0,0,0,0,0,0,0,0,0,0,0,0,0,0,0,0,0,0,0,0,0,0,0,0,0,0,0,0,0,0,0,0,0,0,0,0,0,0],"sum_hessian":[6.57E2,4.4E1,6.13E2,3.5E1,9E0,1.92E2,4.21E2,1E0,3.4E1,6E0,3E0,1.82E2,1E1,2.59E2,1.62E2,2.8E1,6E0,1.8E2,2E0,6E0,4E0,2.16E2,4.3E1,1.29E2,3.3E1,2E0,2.6E1,1E0,5E0,8.7E1,9.3E1,1E0,1E0,3E0,3E0,2.14E2,2E0,2.6E1,1.7E1,7.4E1,5.5E1,2E1,1.3E1,2.4E1,2E0,6.6E1,2.1E1,1.3E1,8E1,4.7E1,1.67E2,1.2E1,1.4E1,1.2E1,5E0,7.1E1,3E0,1.4E1,4.1E1,8E0,1.2E1,4E0,9E0],"tree_param":{"num_deleted":"0","num_feature":"60","num_nodes":"63","size_leaf_vector":"0"}},{"base_weights":[-2.8212996E-6,1.3316567E-4,-8.7555E-5,-2.4894593E-5,5.086273E-4,-1.8144131E-3,-6.585887E-5,-4.455594E-4,1.6039707E-4,-4.702638E-4,8.2600105E-4,-1.6729036E-5,-3.0072927E-3,8.2281214E-5,-2.6443155E-4,-1.2292234E-4,-1.0504021E-3,2.0721048E-4,-1.8124183E-3,6.4492226E-5,-1.3962016E-3,2.5832912E-4,1.261422E-3,1.8803096E-4,-6.060407E-4,-4.3392717E-4,3.879388E-4,-4.8014542E-4,2.0472454E-4,-3.296517E-4,-1.6661122E-3,5.4185523E-4,-9.0010806E-5,4.0680915E-4,-4.0267906E-4,2.0098686E-4,-1.6958974E-3,-3.6276504E-4,6.084828E-4,1.9914173E-3,5.0016626E-4,2.6280934E-4,-8.295668E-4,-1.2486189E-3,-3.4103937E-6,-1.9985198E-5,-8.536626E-4,-2.5618426E-4,9.1604644E-4,-2.5105104E-4,-1.219213E-3,6.384582E-4,-7.7936515E-5,-1.893634E-3,-5.040169E-4,9.1181725E-4,-6.077471E-5,-1.3358742E-3,1.834505E-4,1.0984739E-3,3.1278035E-4,1.0157471E-3,3.448243E-3,-4.7945552E-5,8.03495E-4,-1.9733129E-4,4.6452956E-4,-3.2213728E-3,-1.6248475E-4,-2.5613904E-3,-5.3839386E-4,2.2329949E-4,-7.960424E-4,3.3140002E-4,-5.281988E-4,-2.1828242E-4,-1.6512015E-3,-1.3284782E-3,-2.464652E-5,1.2431728E-3,-5.4443877E-5],"categories":[],"categories_nodes":[],"categories_segments":[],"categories_sizes":[],"default_left":[1,1,1,1,1,1,1,1,1,1,1,0,0,1,1,1,1,1,0,1,1,1,1,1,1,1,1,1,1,0,1,1,1,0,0,0,0,0,1,1,1,1,1,1,1,1,1,1,1,0,0,0,0,0,0,0,0,0,0,0,0,0,0,0,0,0,0,0,0,0,0,0,0,0,0,0,0,0,0,0,0],"id":82,"left_children":[1,3,5,7,9,11,13,15,17,19,21,-1,-1,23,25,27,29,31,-1,33,35,37,39,41,43,45,47,49,51,-1,53,55,57,-1,-1,-1,-1,-1,59,61,63,65,67,69,71,73,75,77,79,-1,-1,-1,-1,-1,-1,-1,-1,-1,-1,-1,-1,-1,-1,-1,-1,-1,-1,-1,-1,-1,-1,-1,-1,-1,-1,-1,-1,-1,-1,-1,-1],"loss_changes":[7.5935827E-6,1.5027088E-5,1.5091758E-5,1.4023743E-5,2.3689012E-5,1.0671796E-5,1.184722E-5,1.0603838E-5,1.19198285E-5,9.49791E-6,1.3763183E-5,6.3990717E-7,6.717346E-7,1.6928412E-5,1.9187053E-5,4.4288895E-6,7.882458E-6,1.2282788E-5,0E0,2.2427819E-6,3.6915499E-6,5.875175E-6,1.6786777E-5,1.5512976E-5,1.2000093E-5,2.3786155E-5,1.2480665E-5,2.7416077E-6,2.5017512E-6,9.568292E-7,1.6895938E-6,1.29865275E-5,2.2730965E-5,4.788168E-7,1.62883E-7,0E0,1.0605072E-7,6.6200096E-7,2.1195751E-6,1.923956E-5,2.8649106E-6,1.7541763E-5,2.1814009E-5,1.26064115E-5,3.2326134E-6,1.2675556E-5,3.409792E-5,4.1879584E-6,6.417142E-6,0E0,0E0,0E0,0E0,0E0,0E0,0E0,0E0,0E0,0E0,0E0,0E0,0E0,0E0,0E0,0E0,0E0,0E0,0E0,0E0,0E0,0E0,0E0,0E0,0E0,0E0,0E0,0E0,0E0,0E0,0E0,0E0],"parents":[2147483647,0,0,1,1,2,2,3,3,4,4,5,5,6,6,7,7,8,8,9,9,10,10,13,13,14,14,15,15,16,16,17,17,19,19,20,20,21,21,22,22,23,23,24,24,25,25,26,26,27,27,28,28,30,30,31,31,32,32,38,38,39,39,40,40,41,41,42,42,43,43,44,44,45,45,46,46,47,47,48,48],"right_children":[2,4,6,8,10,12,14,16,18,20,22,-1,-1,24,26,28,30,32,-1,34,36,38,40,42,44,46,48,50,52,-1,54,56,58,-1,-1,-1,-1,-1,60,62,64,66,68,70,72,74,76,78,80,-1,-1,-1,-1,-1,-1,-1,-1,-1,-1,-1,-1,-1,-1,-1,-1,-1,-1,-1,-1,-1,-1,-1,-1,-1,-1,-1,-1,-1,-1,-1,-1],"split_conditions":[-3.7500975E-1,-8.183328E-1,-3.4693322E-1,-5.49803E-1,-6.1808044E-1,5.274884E-1,3.1332088E-1,2.768199E-1,3.2935038E0,2.9324225E-1,-2.3936874E-1,-5.018711E-6,-9.0218784E-4,1.3859515E0,9.9158233E-1,3.634436E-1,-1.1881808E-1,-2.4128228E-2,-5.437255E-4,3.0919895E-1,-2.073153E0,-5.4940885E-1,2.0833239E-1,2.0108252E0,1.3055353E-1,-1.7245251E-1,-7.614446E-1,1.9668378E-1,-1.0877144E0,-9.8895514E-5,4.6292293E-1,2.93554E-1,2.0096958E-1,1.2204275E-4,-1.2080372E-4,6.029606E-5,-5.0876924E-4,-1.0882952E-4,-1.0134578E0,2.5673962E-1,-6.773172E-1,-4.2409784E-1,-2.055644E0,-2.5E-2,1.4087911E0,2.6602003E-1,-1.2730835E-1,-1.057334E0,3.92578E-1,-7.5315314E-5,-3.657639E-4,1.9153746E-4,-2.3380955E-5,-5.6809024E-4,-1.5120507E-4,2.7354519E-4,-1.8232413E-5,-4.0076228E-4,5.503515E-5,3.2954218E-4,9.383411E-5,3.0472415E-4,1.034473E-3,-1.4383666E-5,2.410485E-4,-5.919939E-5,1.3935888E-4,-9.664119E-4,-4.8745427E-5,-7.6841714E-4,-1.6151817E-4,6.698985E-5,-2.3881272E-4,9.942001E-5,-1.5845965E-4,-6.548473E-5,-4.9536047E-4,-3.985435E-4,-7.3939564E-6,3.7295185E-4,-1.6333164E-5],"split_indices":[54,54,54,11,55,1,44,33,24,38,2,0,0,31,33,36,46,47,0,25,1,8,11,13,39,23,14,36,53,0,41,20,47,0,0,0,0,0,51,37,45,38,10,12,28,46,50,45,36,0,0,0,0,0,0,0,0,0,0,0,0,0,0,0,0,0,0,0,0,0,0,0,0,0,0,0,0,0,0,0,0],"split_type":[0,0,0,0,0,0,0,0,0,0,0,0,0,0,0,0,0,0,0,0,0,0,0,0,0,0,0,0,0,0,0,0,0,0,0,0,0,0,0,0,0,0,0,0,0,0,0,0,0,0,0,0,0,0,0,0,0,0,0,0,0,0,0,0,0,0,0,0,0,0,0,0,0,0,0,0,0,0,0,0,0],"sum_hessian":[6.57E2,2.52E2,4.05E2,1.78E2,7.4E1,4E0,4.01E2,5.4E1,1.24E2,1.8E1,5.6E1,2E0,2E0,2.3E2,1.71E2,3.6E1,1.8E1,1.22E2,2E0,1.2E1,6E0,2.5E1,3.1E1,2E2,3E1,1.36E2,3.5E1,1.7E1,1.9E1,9E0,9E0,5.7E1,6.5E1,7E0,5E0,1E0,5E0,9E0,1.6E1,1.5E1,1.6E1,1.87E2,1.3E1,1.4E1,1.6E1,6.9E1,6.7E1,1.6E1,1.9E1,1.4E1,3E0,7E0,1.2E1,7E0,2E0,3.5E1,2.2E1,1.1E1,5.4E1,5E0,1.1E1,1E1,5E0,6E0,1E1,5.7E1,1.3E2,2E0,1.1E1,4E0,1E1,1.3E1,3E0,4.1E1,2.8E1,3.8E1,2.9E1,2E0,1.4E1,1.4E1,5E0],"tree_param":{"num_deleted":"0","num_feature":"60","num_nodes":"81","size_leaf_vector":"0"}},{"base_weights":[-7.914591E-6,-5.1317933E-5,2.0877949E-4,1.13314614E-4,-1.4598791E-4,8.528945E-4,-3.235916E-5,-3.1401974E-4,3.1523738E-4,-2.8128544E-4,1.14548886E-4,1.3847492E-3,5.087314E-5,2.442294E-4,-3.8487898E-4,3.7095114E-4,-6.730967E-4,-2.9222827E-4,5.2654644E-4,-5.468917E-4,4.0120995E-5,3.9259606E-4,-3.924797E-4,2.3481848E-3,8.3356735E-4,3.7486572E-4,-3.8959584E-4,1.4724447E-4,1.585265E-3,-1.522849E-3,-1.5221127E-4,4.962686E-4,-3.4837425E-4,1.1891546E-4,-1.101636E-3,8.024597E-5,-3.2920837E-3,7.0371415E-4,-2.8443433E-4,-1.1432451E-3,-2.2416346E-4,-8.3846055E-5,7.3492806E-4,-2.4200045E-4,6.623728E-4,4.4468292E-5,-8.971933E-4,3.0311276E-3,6.548663E-4,2.6113354E-4,1.0589676E-3,4.1343106E-4,-2.6021566E-4,-7.454189E-4,1.9975305E-5,1.362674E-4,6.7963335E-4,3.5677242E-4,-3.3697486E-4,-1.3910816E-3,-3.4572822E-5,-3.1768836E-4,3.547877E-4,8.072333E-4,-7.765728E-4,-6.164116E-4,2.4908595E-4,-5.29984E-4,-2.2935509E-3,-3.914525E-5,-1.4316331E-3,-7.842067E-4,8.9994195E-5,2.2434526E-6,1.4673322E-3,-4.30889E-4,1.8963777E-4,9.640637E-4,1.6601536E-4,-2.7152506E-4,6.012933E-4,2.7777566E-4,-1.307368E-3,-7.574558E-4,5.3740025E-4,-4.416704E-5,-5.2475557E-4,-9.954259E-4,-8.0267586E-5,-2.0627334E-4,2.4468737E-4],"categories":[],"categories_nodes":[],"categories_segments":[],"categories_sizes":[],"default_left":[1,1,1,1,1,1,1,1,1,1,1,1,1,1,1,1,1,1,1,1,1,1,1,1,1,0,0,1,0,0,1,1,0,1,1,1,0,1,1,1,1,1,1,1,1,1,1,0,0,0,0,1,1,1,1,0,0,0,0,0,0,0,0,0,0,0,0,0,0,0,0,0,0,0,0,0,0,0,0,0,0,0,0,0,0,0,0,0,0,0,0],"id":83,"left_children":[1,3,5,7,9,11,13,15,17,19,21,23,25,27,29,31,33,35,37,39,41,43,45,47,49,-1,-1,51,-1,-1,53,55,-1,57,59,61,-1,63,65,67,69,71,73,75,77,79,81,-1,-1,-1,-1,83,85,87,89,-1,-1,-1,-1,-1,-1,-1,-1,-1,-1,-1,-1,-1,-1,-1,-1,-1,-1,-1,-1,-1,-1,-1,-1,-1,-1,-1,-1,-1,-1,-1,-1,-1,-1,-1,-1],"loss_changes":[6.199367E-6,8.573124E-6,1.7112912E-5,1.7442984E-5,1.2334464E-5,1.2726317E-5,7.991737E-6,1.6236909E-5,1.7739603E-5,1.9656478E-5,1.707143E-5,7.6011383E-6,2.001259E-6,5.7493485E-6,9.299885E-6,2.2462007E-6,1.4725554E-5,4.0489456E-5,1.4855481E-5,2.3993696E-5,9.1056045E-6,1.3513845E-5,9.522841E-6,4.953654E-6,1.4008147E-6,2.459758E-7,6.320222E-7,4.87984E-6,0E0,0E0,3.181304E-6,1.2276187E-6,0E0,1.8552101E-6,8.599902E-6,3.717948E-6,0E0,1.3498862E-5,3.5187554E-6,2.9823721E-5,1.8486482E-5,1.1028152E-5,8.582649E-6,2.0384691E-6,8.076011E-6,4.3861382E-6,1.0002008E-5,0E0,0E0,2.8318027E-8,2.6907674E-7,4.3262116E-6,1.0055857E-6,1.0841468E-6,1.3214925E-6,0E0,0E0,0E0,0E0,0E0,0E0,0E0,0E0,0E0,0E0,0E0,0E0,0E0,0E0,0E0,0E0,0E0,0E0,0E0,0E0,0E0,0E0,0E0,0E0,0E0,0E0,0E0,0E0,0E0,0E0,0E0,0E0,0E0,0E0,0E0,0E0],"parents":[2147483647,0,0,1,1,2,2,3,3,4,4,5,5,6,6,7,7,8,8,9,9,10,10,11,11,12,12,13,13,14,14,15,15,16,16,17,17,18,18,19,19,20,20,21,21,22,22,23,23,24,24,27,27,30,30,31,31,33,33,34,34,35,35,37,37,38,38,39,39,40,40,41,41,42,42,43,43,44,44,45,45,46,46,51,51,52,52,53,53,54,54],"right_children":[2,4,6,8,10,12,14,16,18,20,22,24,26,28,30,32,34,36,38,40,42,44,46,48,50,-1,-1,52,-1,-1,54,56,-1,58,60,62,-1,64,66,68,70,72,74,76,78,80,82,-1,-1,-1,-1,84,86,88,90,-1,-1,-1,-1,-1,-1,-1,-1,-1,-1,-1,-1,-1,-1,-1,-1,-1,-1,-1,-1,-1,-1,-1,-1,-1,-1,-1,-1,-1,-1,-1,-1,-1,-1,-1,-1],"split_conditions":[1.2129734E0,-4.0298063E-1,1.4591198E0,-6.577168E-1,4.8681247E-1,3.8597025E-2,2.9840726E-1,-9.1377544E-1,-8.8251925E-1,2.6596168E-1,4.9362028E-1,3.2690865E-1,1.9089603E-1,2.5932305E0,1.6145611E0,2.9178524E0,-5.2787507E-1,-9.3285495E-1,1.4469273E0,-4.58953E-1,1.0885499E0,-4.5875135E-1,-1.2950413E-1,8.9135116E-1,-1.1810671E-1,1.1245972E-4,-1.1687876E-4,4.59729E-1,4.7557952E-4,-4.568547E-4,-3.664889E-1,-1.7680063E0,-1.0451228E-4,8.1214845E-1,1.7676942E0,-8.2516336E-1,-9.876252E-4,2.3939605E0,-8.6082584E-1,5.21515E-1,9.230411E-1,-1.1585503E0,-5.2311875E-2,9.765242E-1,4.415364E-1,-7.525117E-1,-9.591218E-1,9.093383E-4,1.9645989E-4,7.834006E-5,3.1769028E-4,-3.0427923E0,6.758528E-1,2.1777849E-1,-2.414419E-1,4.088022E-5,2.0389001E-4,1.0703173E-4,-1.0109246E-4,-4.173245E-4,-1.0371847E-5,-9.530651E-5,1.0643632E-4,2.4216999E-4,-2.3297184E-4,-1.849235E-4,7.472579E-5,-1.5899522E-4,-6.880653E-4,-1.1743575E-5,-4.2948997E-4,-2.3526202E-4,2.699826E-5,6.730358E-7,4.4019968E-4,-1.292667E-4,5.689133E-5,2.892191E-4,4.980461E-5,-8.145752E-5,1.8038799E-4,8.33327E-5,-3.9221044E-4,-2.2723676E-4,1.6122009E-4,-1.3250113E-5,-1.5742668E-4,-2.9862777E-4,-2.4080276E-5,-6.1882005E-5,7.340621E-5],"split_indices":[28,16,28,48,9,50,39,59,58,21,21,42,31,6,28,55,12,58,46,51,26,23,8,0,41,0,0,40,0,0,48,36,0,26,12,41,0,47,14,23,28,20,24,39,44,8,12,0,0,0,0,51,30,15,36,0,0,0,0,0,0,0,0,0,0,0,0,0,0,0,0,0,0,0,0,0,0,0,0,0,0,0,0,0,0,0,0,0,0,0,0],"split_type":[0,0,0,0,0,0,0,0,0,0,0,0,0,0,0,0,0,0,0,0,0,0,0,0,0,0,0,0,0,0,0,0,0,0,0,0,0,0,0,0,0,0,0,0,0,0,0,0,0,0,0,0,0,0,0,0,0,0,0,0,0,0,0,0,0,0,0,0,0,0,0,0,0,0,0,0,0,0,0,0,0,0,0,0,0,0,0,0,0,0,0],"sum_hessian":[6.57E2,5.48E2,1.09E2,2E2,3.48E2,2.9E1,8E1,6.4E1,1.36E2,2.29E2,1.19E2,1.7E1,1.2E1,4.5E1,3.5E1,2.2E1,4.2E1,3.5E1,1.01E2,1.25E2,1.04E2,7.7E1,4.2E1,5E0,1.2E1,7E0,5E0,4.3E1,2E0,5E0,3E1,1.9E1,3E0,1.5E1,2.7E1,3.2E1,3E0,8.3E1,1.8E1,4.3E1,8.2E1,8.9E1,1.5E1,2.3E1,5.4E1,2.3E1,1.9E1,3E0,2E0,4E0,8E0,2.6E1,1.7E1,6E0,2.4E1,7E0,1.2E1,1E1,5E0,2.1E1,6E0,1.3E1,1.9E1,7.8E1,5E0,1.1E1,7E0,2.9E1,1.4E1,7.2E1,1E1,1.7E1,7.2E1,8E0,7E0,1.6E1,7E0,3.3E1,2.1E1,1.5E1,8E0,5E0,1.4E1,2E0,2.4E1,1E1,7E0,4E0,2E0,1.2E1,1.2E1],"tree_param":{"num_deleted":"0","num_feature":"60","num_nodes":"91","size_leaf_vector":"0"}},{"base_weights":[-7.648441E-6,2.9575214E-4,-3.2007425E-5,1.220321E-5,7.428187E-4,6.3071995E-5,-1.4136996E-4,3.6783403E-4,-2.317654E-4,2.5005739E-3,3.8893137E-4,-5.37384E-4,1.1455803E-4,-1.212531E-3,-1.0190459E-4,6.8470463E-4,-1.15965806E-4,-4.315958E-4,1.7245753E-4,9.115381E-4,2.1006066E-5,-1.1556104E-3,2.8018095E-4,-1.6225812E-4,2.3471219E-4,-2.0707825E-5,-2.9950887E-3,2.086855E-5,-3.8131574E-4,1.475215E-4,1.1876405E-3,-2.955012E-4,-2.396524E-3,9.925656E-5,-6.1129074E-4,1.6952548E-4,7.8701973E-4,7.833168E-4,-2.8526472E-4,-3.9107542E-4,1.4963423E-4,1.8656999E-4,-6.6859025E-4,1.1397526E-4,-7.277727E-4,-1.7087524E-4,5.9620343E-4,-3.9714717E-4,-1.7738938E-3,5.29572E-4,3.3612196E-5,2.0162761E-4,1.354082E-3,-2.0828804E-4,-2.258271E-3,-3.2711044E-4,2.5477863E-4,-3.1005757E-4,3.9052608E-4,-1.5815586E-3,-3.2661128E-4],"categories":[],"categories_nodes":[],"categories_segments":[],"categories_sizes":[],"default_left":[1,1,1,1,1,1,1,1,1,0,1,1,1,1,1,0,0,0,0,1,0,1,0,1,1,1,0,1,1,0,0,1,0,1,1,1,1,0,0,1,1,1,1,0,0,0,0,0,0,0,0,0,0,0,0,0,0,0,0,0,0],"id":84,"left_children":[1,3,5,7,9,11,13,15,17,-1,19,21,23,25,27,-1,-1,-1,-1,29,-1,31,-1,33,35,37,-1,39,41,-1,-1,43,-1,45,47,49,51,-1,-1,53,55,57,59,-1,-1,-1,-1,-1,-1,-1,-1,-1,-1,-1,-1,-1,-1,-1,-1,-1,-1],"loss_changes":[4.872434E-6,6.202432E-6,6.351774E-6,2.7748968E-6,1.08463455E-5,1.01708E-5,1.188219E-5,2.0723278E-6,1.6091764E-6,0E0,3.2496164E-6,1.34652255E-5,1.0082789E-5,2.1182914E-5,9.441608E-6,1.4268949E-7,7.2831426E-8,9.460646E-7,5.6548714E-8,1.3014246E-6,9.171924E-7,1.530164E-5,5.6470986E-7,1.0864107E-5,7.463238E-6,1.7124245E-6,0E0,1.0243013E-5,1.3828421E-5,0E0,0E0,1.852998E-6,1.4348552E-7,8.022104E-6,7.760276E-6,9.279871E-6,7.029963E-6,0E0,1.6065428E-8,1.522942E-5,7.4520144E-6,3.0585018E-6,1.6967537E-5,0E0,0E0,0E0,0E0,0E0,0E0,0E0,0E0,0E0,0E0,0E0,0E0,0E0,0E0,0E0,0E0,0E0,0E0],"parents":[2147483647,0,0,1,1,2,2,3,3,4,4,5,5,6,6,7,7,8,8,10,10,11,11,12,12,13,13,14,14,19,19,21,21,23,23,24,24,25,25,27,27,28,28,31,31,33,33,34,34,35,35,36,36,39,39,40,40,41,41,42,42],"right_children":[2,4,6,8,10,12,14,16,18,-1,20,22,24,26,28,-1,-1,-1,-1,30,-1,32,-1,34,36,38,-1,40,42,-1,-1,44,-1,46,48,50,52,-1,-1,54,56,58,60,-1,-1,-1,-1,-1,-1,-1,-1,-1,-1,-1,-1,-1,-1,-1,-1,-1,-1],"split_conditions":[-2.5050912E0,-7.65441E-2,1.3594833E-1,-8.798116E-1,-1.6167605E0,-2.3899698E0,1.877872E-1,3.746228E-1,5.898547E-1,7.501722E-4,-6.79462E-1,-4.5526974E-2,-6.162262E-1,1.3365735E-1,5.3464913E-1,2.054114E-4,-3.4789744E-5,-1.2947875E-4,5.173726E-5,-1.6421595E0,6.30182E-6,9.998769E-2,8.4054285E-5,5.5265516E-1,-2.3602474E-2,-1.8777282E0,-8.9852663E-4,-8.640778E-1,-5.882351E-1,4.425645E-5,3.5629215E-4,4.0689662E-1,-7.189572E-4,3.8264114E-1,2.7216907E0,-6.397523E-1,3.4605992E-1,2.3499505E-4,-8.557942E-5,-8.865982E-1,-1.446701E0,-5.9698623E-1,-1.2448083E0,3.4192577E-5,-2.1833183E-4,-5.1262574E-5,1.7886104E-4,-1.19144155E-4,-5.321682E-4,1.5887161E-4,1.0083659E-5,6.0488284E-5,4.0622463E-4,-6.248641E-5,-6.774813E-4,-9.813313E-5,7.643359E-5,-9.3017276E-5,1.17157826E-4,-4.744676E-4,-9.7983386E-5],"split_indices":[14,24,24,52,21,10,24,1,48,0,4,4,6,6,36,0,0,0,0,4,0,1,0,3,24,0,0,3,6,0,0,50,0,29,45,43,19,0,0,3,1,11,7,0,0,0,0,0,0,0,0,0,0,0,0,0,0,0,0,0,0],"split_type":[0,0,0,0,0,0,0,0,0,0,0,0,0,0,0,0,0,0,0,0,0,0,0,0,0,0,0,0,0,0,0,0,0,0,0,0,0,0,0,0,0,0,0,0,0,0,0,0,0,0,0,0,0,0,0,0,0,0,0,0,0],"sum_hessian":[6.57E2,4.8E1,6.09E2,3E1,1.8E1,3.26E2,2.83E2,1.2E1,1.8E1,2E0,1.6E1,2.5E1,3.01E2,9E0,2.74E2,7E0,5E0,1.2E1,6E0,6E0,1E1,1.4E1,1.1E1,9.1E1,2.1E2,6E0,3E0,1.91E2,8.3E1,2E0,4E0,9E0,5E0,5.8E1,3.3E1,1.89E2,2.1E1,1E0,5E0,4.5E1,1.46E2,2.8E1,5.5E1,5E0,4E0,3.8E1,2E1,2.9E1,4E0,5.1E1,1.38E2,1.1E1,1E1,4.2E1,3E0,2.6E1,1.2E2,8E0,2E1,1.4E1,4.1E1],"tree_param":{"num_deleted":"0","num_feature":"60","num_nodes":"61","size_leaf_vector":"0"}},{"base_weights":[-7.657444E-6,-8.161992E-5,8.196708E-5,-1.1718316E-5,-7.760443E-4,2.7526617E-3,6.3706626E-5,1.6005321E-4,-1.6565302E-4,5.393326E-5,-1.906295E-3,-2.0712637E-4,2.2183388E-4,2.685712E-4,-1.4089022E-4,-4.765034E-4,9.187648E-5,5.7286076E-4,-9.916265E-4,-3.0307472E-4,-2.7632979E-3,2.1237286E-4,-4.14077E-4,8.953498E-4,1.2252349E-4,3.5835197E-4,-2.0391848E-4,1.7608743E-4,-3.6347852E-4,9.241061E-5,-7.736782E-4,4.0134066E-4,-1.3633615E-4,6.057881E-5,1.0764886E-3,-1.4013245E-3,2.1745762E-5,-1.4027953E-4,-3.0736402E-3,-2.1494074E-4,4.5279026E-4,-7.361843E-4,-7.207279E-5,1.2018273E-3,-2.2438727E-4,2.677559E-4,-2.8295102E-4,4.4193093E-4,-1.687184E-4,2.7277254E-4,-7.638832E-4,-5.594488E-4,1.2288941E-4,3.1462667E-4,-5.0245784E-4,-1.1446393E-3,-9.382765E-6,1.2026036E-5,7.715438E-4,2.0978728E-4,-5.739207E-4,-4.3876618E-4,2.7569832E-4,5.42349E-4,-8.035302E-4,-1.7143122E-3,-3.2562748E-4,-2.129549E-4,3.2960437E-4,7.2521967E-4,2.3912848E-3,-2.1749994E-4,4.577127E-4,-7.438753E-4,-1.8891047E-5],"categories":[],"categories_nodes":[],"categories_segments":[],"categories_sizes":[],"default_left":[1,1,1,1,1,0,1,1,1,1,1,1,1,1,1,1,1,1,1,0,1,1,1,1,1,1,1,0,1,1,1,1,1,0,0,0,0,0,0,1,1,1,1,1,0,1,1,0,0,0,0,0,0,0,0,0,0,0,0,0,0,0,0,0,0,0,0,0,0,0,0,0,0,0,0],"id":85,"left_children":[1,3,5,7,9,-1,11,13,15,17,19,21,23,25,27,29,31,33,35,-1,37,39,41,43,45,47,49,-1,51,53,55,57,59,-1,-1,-1,-1,-1,-1,61,63,65,67,69,-1,71,73,-1,-1,-1,-1,-1,-1,-1,-1,-1,-1,-1,-1,-1,-1,-1,-1,-1,-1,-1,-1,-1,-1,-1,-1,-1,-1,-1,-1],"loss_changes":[4.368475E-6,1.7514345E-5,1.4357534E-5,8.7257995E-6,3.1059542E-5,0E0,1.2765293E-5,5.132452E-6,1.3973026E-5,1.1419458E-5,1.8398016E-5,9.637658E-6,1.2465078E-5,4.951429E-6,3.0273357E-6,1.3427782E-5,6.834586E-6,3.5467801E-6,2.9367097E-6,5.584917E-7,6.8951267E-6,3.898467E-6,8.098934E-6,8.505856E-6,9.792288E-6,4.3476057E-6,5.280039E-6,8.592133E-7,2.4515919E-6,3.8593876E-6,1.47325045E-5,5.899866E-6,8.602064E-6,7.154141E-7,2.248089E-7,0E0,7.377334E-9,0E0,0E0,1.6584122E-6,3.1361405E-6,1.4701704E-5,2.1639883E-6,9.036976E-6,9.0988794E-7,1.1345227E-5,5.34126E-6,0E0,0E0,0E0,0E0,0E0,0E0,0E0,0E0,0E0,0E0,0E0,0E0,0E0,0E0,0E0,0E0,0E0,0E0,0E0,0E0,0E0,0E0,0E0,0E0,0E0,0E0,0E0,0E0],"parents":[2147483647,0,0,1,1,2,2,3,3,4,4,6,6,7,7,8,8,9,9,10,10,11,11,12,12,13,13,14,14,15,15,16,16,17,17,18,18,20,20,21,21,22,22,23,23,24,24,25,25,26,26,28,28,29,29,30,30,31,31,32,32,39,39,40,40,41,41,42,42,43,43,45,45,46,46],"right_children":[2,4,6,8,10,-1,12,14,16,18,20,22,24,26,28,30,32,34,36,-1,38,40,42,44,46,48,50,-1,52,54,56,58,60,-1,-1,-1,-1,-1,-1,62,64,66,68,70,-1,72,74,-1,-1,-1,-1,-1,-1,-1,-1,-1,-1,-1,-1,-1,-1,-1,-1,-1,-1,-1,-1,-1,-1,-1,-1,-1,-1,-1,-1],"split_conditions":[2.0877928E-1,4.80522E-2,2.1397722E-1,-4.168908E-2,-1.1701145E-1,8.2579855E-4,-3.5878435E-1,6.842516E-1,4.612232E-2,4.9905166E-1,-4.284021E-1,-7.1614146E-1,-6.848915E-2,1.4804366E0,-6.052585E-2,-2.7816957E-1,-5.340118E-1,-3.39728E-1,4.619522E-1,-9.092242E-5,-1.7678204E0,-5.065715E-1,4.0962124E-1,1.6905724E0,8.0531573E-1,1.3232472E0,-3.601234E-1,5.282623E-5,1.1897535E0,-4.8571503E-1,2.2711037E-1,-8.5436806E-2,3.1749767E-1,1.8173643E-5,3.229466E-4,-4.2039738E-4,6.5237286E-6,-4.2083862E-5,-9.2209206E-4,7.350627E-1,1.9280756E0,-3.2522184E-1,5.8733886E-1,1.1058159E0,-6.7316185E-5,-7.6112354E-1,1.1241343E0,1.3257928E-4,-5.0615523E-5,8.1831764E-5,-2.2916496E-4,-1.6783465E-4,3.6866826E-5,9.438801E-5,-1.5073735E-4,-3.4339182E-4,-2.8148295E-6,3.6078109E-6,2.3146316E-4,6.293619E-5,-1.7217622E-4,-1.3162986E-4,8.27095E-5,1.627047E-4,-2.4105907E-4,-5.142937E-4,-9.768825E-5,-6.388647E-5,9.888132E-5,2.175659E-4,7.1738544E-4,-6.524999E-5,1.3731382E-4,-2.231626E-4,-5.6673143E-6],"split_indices":[2,2,2,23,20,0,41,19,53,5,10,59,41,48,49,12,36,52,0,0,5,28,28,32,29,38,25,0,25,53,26,34,59,0,0,0,0,0,0,32,46,44,29,29,0,29,29,0,0,0,0,0,0,0,0,0,0,0,0,0,0,0,0,0,0,0,0,0,0,0,0,0,0,0,0],"split_type":[0,0,0,0,0,0,0,0,0,0,0,0,0,0,0,0,0,0,0,0,0,0,0,0,0,0,0,0,0,0,0,0,0,0,0,0,0,0,0,0,0,0,0,0,0,0,0,0,0,0,0,0,0,0,0,0,0,0,0,0,0,0,0,0,0,0,0,0,0,0,0,0,0,0,0],"sum_hessian":[6.57E2,3.6E2,2.97E2,3.28E2,3.2E1,1E0,2.96E2,1.55E2,1.73E2,1.9E1,1.3E1,1.09E2,1.87E2,1.14E2,4.1E1,7.8E1,9.5E1,1.3E1,6E0,5E0,8E0,3.6E1,7.3E1,2.3E1,1.64E2,9.6E1,1.8E1,1.7E1,2.4E1,2.7E1,5.1E1,4E1,5.5E1,7E0,6E0,4E0,2E0,1E0,7E0,1.3E1,2.3E1,3.7E1,3.6E1,1.8E1,5E0,1.21E2,4.3E1,8.3E1,1.3E1,1E1,8E0,1.7E1,7E0,2E1,7E0,3.4E1,1.7E1,2E1,2E1,3.1E1,2.4E1,9E0,4E0,2.2E1,1E0,1E1,2.7E1,2.7E1,9E0,1.4E1,4E0,3.4E1,8.7E1,1.5E1,2.8E1],"tree_param":{"num_deleted":"0","num_feature":"60","num_nodes":"75","size_leaf_vector":"0"}},{"base_weights":[-6.448335E-6,-4.6398123E-5,1.2571532E-4,2.813617E-4,-8.136282E-5,2.9873863E-4,-2.1609414E-4,2.384511E-5,6.867118E-4,-1.677503E-4,5.5470013E-5,4.9634784E-4,-1.2948511E-4,-4.1148267E-4,1.758333E-4,-5.3848384E-4,1.5269622E-4,1.1341593E-4,9.425856E-4,-2.9511403E-4,6.9374066E-5,3.1765303E-4,-1.4755716E-4,3.5052947E-4,1.336205E-3,1.9313467E-5,-1.6239086E-3,-1.6532227E-4,-9.335307E-4,-1.92771E-4,3.761997E-4,2.0023584E-4,1.2502703E-3,-2.6945755E-4,-2.482295E-3,-8.1123835E-5,4.3544226E-4,-6.5242166E-5,5.3337915E-4,-3.4826688E-4,4.4480804E-4,6.761815E-4,1.3570031E-5,2.109766E-3,4.6887E-4,-7.957456E-5,1.4929771E-3,-5.5441924E-4,5.039507E-5,-1.5165061E-3,-1.949668E-4,1.5715758E-3,4.5574456E-4,-8.199768E-5,-5.613738E-4,2.936121E-4,-2.7872543E-4,2.1292074E-4,1.1043783E-3,5.5102474E-4,-2.4996503E-4,2.2112805E-4,1.2472232E-3,-1.4211775E-5,-6.330892E-4,1.5676969E-4,1.9898266E-3,3.2796786E-4,1.2001892E-3,-9.063417E-4,1.4450135E-4,-4.7559562E-4,1.4221575E-4,3.6333874E-4,-1.5333226E-4],"categories":[],"categories_nodes":[],"categories_segments":[],"categories_sizes":[],"default_left":[1,1,1,1,1,1,1,1,1,1,1,1,1,1,1,0,0,0,1,1,1,1,1,1,1,1,0,1,1,0,0,0,1,1,0,1,1,1,1,1,1,1,1,0,0,1,0,0,1,0,0,0,0,0,0,0,0,0,0,0,0,0,0,0,0,0,0,0,0,0,0,0,0,0,0],"id":86,"left_children":[1,3,5,7,9,11,13,15,17,19,21,23,25,27,29,-1,-1,-1,31,33,35,37,39,41,43,45,-1,47,49,-1,-1,-1,51,53,-1,55,57,59,61,63,65,67,69,-1,-1,71,-1,-1,73,-1,-1,-1,-1,-1,-1,-1,-1,-1,-1,-1,-1,-1,-1,-1,-1,-1,-1,-1,-1,-1,-1,-1,-1,-1,-1],"loss_changes":[3.4800137E-6,5.821664E-6,9.113129E-6,5.0984586E-6,5.4231605E-6,8.695607E-6,4.0544155E-6,2.3283824E-6,2.6802318E-6,8.506967E-6,9.521861E-6,8.104282E-6,7.36951E-6,4.34343E-6,1.4019269E-6,6.295526E-7,9.021649E-7,2.5258802E-7,2.7189772E-6,9.600231E-6,5.4894817E-6,6.4776377E-6,1.216315E-5,6.6844486E-6,5.7201596E-6,4.6363616E-6,0E0,2.126314E-6,4.4405424E-6,3.097413E-7,3.8714916E-7,0E0,1.5813321E-6,9.913478E-6,0E0,5.339275E-6,4.081581E-6,3.4390562E-6,1.0869134E-5,7.2221255E-6,1.1258695E-5,5.262842E-6,3.8647704E-6,0E0,6.772984E-8,2.7026463E-6,0E0,1.9407776E-7,1.1395497E-6,0E0,6.812283E-8,0E0,0E0,0E0,0E0,0E0,0E0,0E0,0E0,0E0,0E0,0E0,0E0,0E0,0E0,0E0,0E0,0E0,0E0,0E0,0E0,0E0,0E0,0E0,0E0],"parents":[2147483647,0,0,1,1,2,2,3,3,4,4,5,5,6,6,7,7,8,8,9,9,10,10,11,11,12,12,13,13,14,14,18,18,19,19,20,20,21,21,22,22,23,23,24,24,25,25,27,27,28,28,32,32,33,33,35,35,36,36,37,37,38,38,39,39,40,40,41,41,42,42,45,45,48,48],"right_children":[2,4,6,8,10,12,14,16,18,20,22,24,26,28,30,-1,-1,-1,32,34,36,38,40,42,44,46,-1,48,50,-1,-1,-1,52,54,-1,56,58,60,62,64,66,68,70,-1,-1,72,-1,-1,74,-1,-1,-1,-1,-1,-1,-1,-1,-1,-1,-1,-1,-1,-1,-1,-1,-1,-1,-1,-1,-1,-1,-1,-1,-1,-1],"split_conditions":[9.447279E-1,-2.0175996E0,5.482511E-1,5.590588E-1,4.0320477E-1,5.8232564E-1,5.483715E-1,-2.1225348E0,-5.886371E-1,4.8968333E-1,-2.0006573E-1,2.8323776E-1,1.9392729E0,8.643876E-1,-1.2826775E0,-1.6154516E-4,4.5808865E-5,3.4024783E-5,-1.3140259E0,3.7209082E0,6.328043E-1,-2.240991E-1,7.536341E-1,1.5251498E-1,3.2868266E-1,3.2933328E0,-4.871726E-4,-2.8291833E-1,3.3035868E-1,-5.78313E-5,1.1285991E-4,6.0070754E-5,1.1717869E0,2.9177535E-1,-7.4468856E-4,-4.1092792E-1,8.7815785E-1,-9.0407145E-1,6.102334E-1,1.0441399E-1,1.669285E0,-4.8186532E-1,-1.1875484E0,6.3292985E-4,1.4066101E-4,-3.62601E-2,4.4789317E-4,-1.6632577E-4,-6.709415E-2,-4.5495183E-4,-5.849004E-5,4.7147274E-4,1.3672338E-4,-2.4599305E-5,-1.6841214E-4,8.808363E-5,-8.361763E-5,6.387623E-5,3.313135E-4,1.6530743E-4,-7.498951E-5,6.633842E-5,3.74167E-4,-4.263533E-6,-1.8992678E-4,4.703091E-5,5.9694797E-4,9.839037E-5,3.600568E-4,-2.7190254E-4,4.3350406E-5,-1.4267869E-4,4.2664728E-5,1.0900162E-4,-4.599968E-5],"split_indices":[8,33,9,14,21,25,7,50,32,9,29,25,36,24,34,0,0,0,21,15,32,48,57,40,7,25,0,37,32,0,0,0,4,59,0,33,46,45,54,14,39,16,46,0,0,29,0,0,29,0,0,0,0,0,0,0,0,0,0,0,0,0,0,0,0,0,0,0,0,0,0,0,0,0,0],"split_type":[0,0,0,0,0,0,0,0,0,0,0,0,0,0,0,0,0,0,0,0,0,0,0,0,0,0,0,0,0,0,0,0,0,0,0,0,0,0,0,0,0,0,0,0,0,0,0,0,0,0,0,0,0,0,0,0,0,0,0,0,0,0,0,0,0,0,0,0,0,0,0,0,0,0,0],"sum_hessian":[6.57E2,5.05E2,1.52E2,4.8E1,4.57E2,1.01E2,5.1E1,3E1,1.8E1,2.8E2,1.77E2,6.9E1,3.2E1,3.4E1,1.7E1,5E0,2.5E1,6E0,1.2E1,1.82E2,9.8E1,7.7E1,1E2,6E1,9E0,3E1,2E0,2.4E1,1E1,6E0,1.1E1,4E0,8E0,1.81E2,1E0,7E1,2.8E1,2.8E1,4.9E1,7.5E1,2.5E1,3E1,3E1,4E0,5E0,2.9E1,1E0,8E0,1.6E1,5E0,5E0,5E0,3E0,1.11E2,7E1,2.4E1,4.6E1,2.2E1,6E0,6E0,2.2E1,3.5E1,1.4E1,3.5E1,4E1,2.2E1,3E0,1.9E1,1.1E1,3E0,2.7E1,1E1,1.9E1,6E0,1E1],"tree_param":{"num_deleted":"0","num_feature":"60","num_nodes":"75","size_leaf_vector":"0"}},{"base_weights":[-2.4918643E-6,1.7762795E-5,-2.3887816E-4,-1.751872E-5,2.721218E-4,2.6328116E-5,-4.671381E-4,-1.8808114E-6,-5.9822097E-4,-4.5550998E-5,8.603466E-4,-1.3427426E-3,-1.6730312E-4,6.58729E-5,-1.484638E-4,-3.232532E-4,-2.086401E-3,3.2370267E-4,-2.179777E-4,1.3109908E-3,2.2534591E-4,-1.6413138E-3,-3.975431E-4,-2.923248E-4,1.0820302E-4,-1.2219131E-3,-1.1420473E-4,1.4512737E-4,-6.3413195E-4,6.7472145E-5,8.739154E-4,-1.014337E-3,-1.0819012E-4,1.6833652E-3,2.2956877E-4,1.8439986E-4,-5.194439E-4,5.4056727E-6,2.817901E-4,-9.071827E-5,-1.4820322E-3,6.624753E-5,-2.50264E-4,-3.572085E-4,9.150141E-5,2.047142E-3,5.349703E-4],"categories":[],"categories_nodes":[],"categories_segments":[],"categories_sizes":[],"default_left":[1,1,1,1,1,0,1,1,1,1,1,1,0,1,1,1,0,1,1,1,0,0,0,1,1,1,1,0,0,0,0,0,1,1,0,0,0,0,0,0,0,0,0,0,0,0,0],"id":87,"left_children":[1,3,5,7,9,-1,11,13,15,17,19,21,-1,23,25,27,-1,29,31,33,-1,-1,-1,35,37,39,41,-1,-1,-1,-1,-1,43,45,-1,-1,-1,-1,-1,-1,-1,-1,-1,-1,-1,-1,-1],"loss_changes":[3.154697E-6,5.452089E-6,3.1601692E-6,4.8481115E-6,1.3867055E-5,6.835121E-7,7.126386E-6,5.1841125E-6,5.054386E-6,3.19035E-6,7.1447157E-6,1.3229719E-6,8.405666E-7,5.444662E-6,5.9283884E-6,1.9849545E-6,0E0,2.1967355E-6,2.8628906E-6,5.653963E-6,8.8869325E-7,0E0,0E0,4.2101697E-6,5.70865E-6,1.3367799E-6,3.969484E-6,8.706583E-8,9.32539E-8,8.7973604E-7,2.3789426E-7,6.998953E-7,1.5742178E-6,3.500194E-6,1.1102327E-7,0E0,0E0,0E0,0E0,0E0,0E0,0E0,0E0,0E0,0E0,0E0,0E0],"parents":[2147483647,0,0,1,1,2,2,3,3,4,4,6,6,7,7,8,8,9,9,10,10,11,11,13,13,14,14,15,15,17,17,18,18,19,19,23,23,24,24,25,25,26,26,32,32,33,33],"right_children":[2,4,6,8,10,-1,12,14,16,18,20,22,-1,24,26,28,-1,30,32,34,-1,-1,-1,36,38,40,42,-1,-1,-1,-1,-1,44,46,-1,-1,-1,-1,-1,-1,-1,-1,-1,-1,-1,-1,-1],"split_conditions":[2.0863562E0,1.087621E0,-2.4609634E-1,1.0057683E0,3.7620056E-1,7.898435E-6,2.4716467E-1,5.4859924E-1,2.0486763E0,-4.9371755E-1,3.3387905E-1,2.1216778E-2,-5.0190938E-5,-1.9696047E0,5.7156765E-1,-1.309751E0,-6.259203E-4,7.3837064E-2,1.1470478E0,7.1817315E-1,6.7603774E-5,-4.9239415E-4,-1.19262935E-4,-4.543581E-1,3.2250845E-1,-2.523281E0,-2.2009912E-1,4.3538214E-5,-1.9023959E-4,2.0241645E-5,2.6217464E-4,-3.043011E-4,4.1116372E-1,1.3560206E-2,6.8870635E-5,5.531996E-5,-1.5583317E-4,1.6217019E-6,8.453703E-5,-2.7215481E-5,-4.446097E-4,1.987426E-5,-7.507921E-5,-1.0716256E-4,2.7450424E-5,6.141426E-4,1.604911E-4],"split_indices":[21,21,13,21,48,0,13,52,1,29,28,3,0,59,52,16,0,48,21,56,0,0,0,41,1,0,54,0,0,0,0,0,29,16,0,0,0,0,0,0,0,0,0,0,0,0,0],"split_type":[0,0,0,0,0,0,0,0,0,0,0,0,0,0,0,0,0,0,0,0,0,0,0,0,0,0,0,0,0,0,0,0,0,0,0,0,0,0,0,0,0,0,0,0,0,0,0],"sum_hessian":[6.57E2,6.06E2,5.1E1,5.33E2,7.3E1,2.4E1,2.7E1,5.2E2,1.3E1,4.8E1,2.5E1,6E0,2.1E1,3.56E2,1.64E2,1.2E1,1E0,1.5E1,3.3E1,1.4E1,1.1E1,4E0,2E0,3.7E1,3.19E2,4E0,1.6E2,5E0,7E0,1.1E1,4E0,3E0,3E1,1E1,4E0,1.2E1,2.5E1,2.01E2,1.18E2,1E0,3E0,6.9E1,9.1E1,1.3E1,1.7E1,7E0,3E0],"tree_param":{"num_deleted":"0","num_feature":"60","num_nodes":"47","size_leaf_vector":"0"}},{"base_weights":[-3.5037922E-6,-1.4471811E-5,3.298819E-4,4.531544E-5,-8.728727E-5,1.659203E-4,9.852387E-4,9.765553E-6,5.2927574E-4,-2.3880065E-4,9.108398E-5,-1.0621089E-5,5.2077323E-4,2.2089572E-4,-4.9421753E-5,7.3878694E-4,-8.507818E-5,8.484418E-5,-4.3121132E-4,7.23598E-4,-2.7268927E-5,3.960598E-4,-3.7535963E-5,-1.5732045E-4,1.3935281E-4,9.1930554E-4,8.557737E-5,2.5293374E-4,-3.1207834E-4,-6.199895E-4,8.8167966E-5,-3.9767474E-7,1.0856242E-3,1.4028349E-4,-3.895417E-4,2.79098E-4,8.069045E-4,-3.740463E-4,2.4179819E-4,-3.017505E-4,2.6939897E-4,-1.7121147E-5,8.490949E-4,1.3482678E-3,6.128939E-4,3.401328E-5,6.065536E-4,3.0440092E-4,-5.726012E-4,-5.2331196E-4,-2.6691358E-3,-2.5346628E-4,3.3888314E-4,1.3831565E-3,2.7343482E-4,-2.6012084E-4,3.340614E-4,-1.9413531E-4,-7.6417654E-4],"categories":[],"categories_nodes":[],"categories_segments":[],"categories_sizes":[],"default_left":[1,1,1,1,1,1,0,1,1,1,1,0,0,1,1,1,0,1,1,1,1,1,1,1,1,1,0,1,1,1,1,0,1,1,1,0,0,0,0,0,0,0,0,0,0,0,0,0,0,0,0,0,0,0,0,0,0,0,0],"id":88,"left_children":[1,3,5,7,9,11,-1,13,15,17,19,-1,-1,21,23,25,-1,27,29,31,33,35,37,39,41,43,-1,45,47,49,51,-1,53,55,57,-1,-1,-1,-1,-1,-1,-1,-1,-1,-1,-1,-1,-1,-1,-1,-1,-1,-1,-1,-1,-1,-1,-1,-1],"loss_changes":[2.410804E-6,2.7814476E-6,2.0930495E-6,6.0336924E-6,7.8051335E-6,1.1331633E-6,0E0,4.1096787E-6,3.1519912E-6,9.75113E-6,9.976095E-6,1.6201014E-7,7.337419E-7,3.2741584E-6,5.2566347E-6,2.0438247E-6,4.2877036E-7,4.015328E-6,9.6633175E-6,5.5046467E-6,6.9137104E-6,1.8410788E-6,2.9104083E-6,1.0188794E-5,1.0453817E-5,1.0138019E-6,4.7660265E-8,3.230784E-6,3.065225E-6,1.2866871E-5,2.3985235E-6,5.5572656E-7,3.0049323E-6,6.1388782E-6,2.4870646E-6,0E0,0E0,0E0,0E0,0E0,0E0,0E0,0E0,0E0,0E0,0E0,0E0,0E0,0E0,0E0,0E0,0E0,0E0,0E0,0E0,0E0,0E0,0E0,0E0],"parents":[2147483647,0,0,1,1,2,2,3,3,4,4,5,5,7,7,8,8,9,9,10,10,13,13,14,14,15,15,17,17,18,18,19,19,20,20,21,21,22,22,23,23,24,24,25,25,27,27,28,28,29,29,30,30,32,32,33,33,34,34],"right_children":[2,4,6,8,10,12,-1,14,16,18,20,-1,-1,22,24,26,-1,28,30,32,34,36,38,40,42,44,-1,46,48,50,52,-1,54,56,58,-1,-1,-1,-1,-1,-1,-1,-1,-1,-1,-1,-1,-1,-1,-1,-1,-1,-1,-1,-1,-1,-1,-1,-1],"split_conditions":[2.921784E0,2.0313443E-1,9.057034E-1,1.0093875E-1,2.0988253E-1,4.3055665E-1,2.9557163E-4,-1.2058609E0,5.9759617E-1,-2.7868456E-1,3.6297876E-1,-3.186327E-6,1.5623198E-4,4.684255E-1,4.3567985E-1,1.0654638E0,-2.5523455E-5,4.7266582E-1,1.0985351E0,-5.52919E-1,5.576558E-1,7.811126E-1,8.138732E-1,7.119255E-1,9.800627E-1,1.2135318E-1,2.5673211E-5,2.630135E-1,-1.4347309E-1,2.1143394E0,-6.1639524E-1,-1.1930243E-7,8.124559E-1,-6.824199E-1,4.330022E-1,8.37294E-5,2.4207136E-4,-1.1221389E-4,7.253946E-5,-9.052515E-5,8.081969E-5,-5.136344E-6,2.5472848E-4,4.0448035E-4,1.8386818E-4,1.0203984E-5,1.819661E-4,9.132028E-5,-1.7178037E-4,-1.569936E-4,-8.007408E-4,-7.603988E-5,1.0166495E-4,4.1494696E-4,8.203045E-5,-7.803625E-5,1.0021842E-4,-5.8240596E-5,-2.2925297E-4],"split_indices":[43,48,17,48,25,10,0,25,40,12,25,0,0,2,17,0,0,40,32,10,56,13,2,31,6,47,0,50,31,15,54,0,42,15,17,0,0,0,0,0,0,0,0,0,0,0,0,0,0,0,0,0,0,0,0,0,0,0,0],"split_type":[0,0,0,0,0,0,0,0,0,0,0,0,0,0,0,0,0,0,0,0,0,0,0,0,0,0,0,0,0,0,0,0,0,0,0,0,0,0,0,0,0,0,0,0,0,0,0,0,0,0,0,0,0,0,0,0,0,0,0],"sum_hessian":[6.57E2,6.37E2,2E1,3.5E2,2.87E2,1.7E1,3E0,3.27E2,2.3E1,1.55E2,1.32E2,1.2E1,5E0,7.1E1,2.56E2,1.7E1,6E0,5.8E1,9.7E1,2E1,1.12E2,4.2E1,2.9E1,1.63E2,9.3E1,1.3E1,4E0,4.1E1,1.7E1,7.1E1,2.6E1,7E0,1.3E1,7.7E1,3.5E1,3.4E1,8E0,1.3E1,1.6E1,1.22E2,4.1E1,7.7E1,1.6E1,4E0,9E0,2.6E1,1.5E1,5E0,1.2E1,6.9E1,2E0,1.1E1,1.5E1,9E0,4E0,2.5E1,5.2E1,2.4E1,1.1E1],"tree_param":{"num_deleted":"0","num_feature":"60","num_nodes":"59","size_leaf_vector":"0"}},{"base_weights":[-9.710772E-7,3.2801378E-5,-1.2616345E-4,7.920126E-5,-8.858166E-5,-7.4629224E-4,-4.0128347E-5,2.0265348E-4,-2.700508E-5,-2.2912321E-4,1.4989727E-4,-3.6474792E-4,-1.2392487E-3,-1.7632107E-4,1.51837E-4,1.5202351E-4,1.2342222E-3,-1.3762777E-4,2.2100766E-4,-4.3925454E-4,8.94267E-5,1.949166E-4,-1.1180639E-3,5.759743E-5,-4.319354E-4,6.6844054E-4,6.992261E-5,1.1078777E-4,7.8834593E-4,4.6136478E-4,2.3685296E-3,-7.4428375E-5,-6.267212E-4,2.912571E-4,-6.521374E-4,1.0936117E-4,-6.8756583E-4,2.6707785E-4,-2.2150576E-4,3.7747243E-4,-7.947898E-5,-1.17525036E-4,2.6843615E-4,-9.2091004E-4,-1.9950912E-4,-8.454919E-5,9.865463E-4,-1.72944E-4,1.8158124E-4,3.4315934E-5,4.2296865E-4,1.5731156E-3,2.2728529E-4,8.610479E-5,-2.3632828E-4,3.6457045E-6,-1.6779403E-3,5.631069E-4,9.698743E-6,-2.7876906E-4,3.8169578E-4,2.4566986E-4,-9.062213E-4,-5.940646E-5,4.6692888E-4,4.660961E-4,-8.4246196E-5,6.860462E-5,-4.8580268E-4,-2.7886592E-5,-1.252308E-3,4.0521024E-4,-3.3398948E-4,-2.9128918E-4,3.9753318E-4,-9.173155E-5,3.0998394E-4],"categories":[],"categories_nodes":[],"categories_segments":[],"categories_sizes":[],"default_left":[1,1,1,1,1,1,1,1,1,1,1,0,0,1,1,1,1,1,1,1,1,1,0,1,1,1,1,1,1,0,0,1,1,1,0,1,1,1,0,1,1,0,0,1,1,0,0,1,1,0,0,0,0,0,0,0,0,0,0,0,0,0,0,0,0,0,0,0,0,0,0,0,0,0,0,0,0],"id":89,"left_children":[1,3,5,7,9,11,13,15,17,19,21,-1,-1,23,25,27,29,31,33,35,37,39,-1,41,43,45,47,49,51,-1,-1,53,55,57,-1,59,61,63,-1,65,67,-1,-1,69,71,-1,-1,73,75,-1,-1,-1,-1,-1,-1,-1,-1,-1,-1,-1,-1,-1,-1,-1,-1,-1,-1,-1,-1,-1,-1,-1,-1,-1,-1,-1,-1],"loss_changes":[2.7861977E-6,2.930106E-6,7.43945E-6,4.9353616E-6,4.8606776E-6,2.745427E-6,3.2686632E-6,8.90009E-6,5.599891E-6,6.1305764E-6,3.3003994E-6,5.8540684E-7,0E0,4.3897608E-6,2.1537585E-6,4.294612E-6,5.9205067E-6,4.3117216E-6,4.054231E-6,7.5677035E-6,2.1029473E-6,2.6849043E-6,0E0,1.4715292E-6,3.7940395E-6,1.7601244E-6,1.2788385E-6,3.7574264E-6,4.045488E-6,3.5613937E-7,0E0,3.2951273E-6,1.0608576E-5,4.510492E-6,8.433815E-7,2.009028E-6,7.9768E-6,1.5936961E-6,4.222312E-7,1.3486815E-6,1.3570656E-6,4.1270607E-7,6.802886E-7,3.2204853E-6,2.1684082E-6,9.147216E-8,0E0,1.1284956E-6,1.1514467E-6,0E0,0E0,0E0,0E0,0E0,0E0,0E0,0E0,0E0,0E0,0E0,0E0,0E0,0E0,0E0,0E0,0E0,0E0,0E0,0E0,0E0,0E0,0E0,0E0,0E0,0E0,0E0,0E0],"parents":[2147483647,0,0,1,1,2,2,3,3,4,4,5,5,6,6,7,7,8,8,9,9,10,10,13,13,14,14,15,15,16,16,17,17,18,18,19,19,20,20,21,21,23,23,24,24,25,25,26,26,27,27,28,28,31,31,32,32,33,33,35,35,36,36,37,37,39,39,40,40,43,43,44,44,47,47,48,48],"right_children":[2,4,6,8,10,12,14,16,18,20,22,-1,-1,24,26,28,30,32,34,36,38,40,-1,42,44,46,48,50,52,-1,-1,54,56,58,-1,60,62,64,-1,66,68,-1,-1,70,72,-1,-1,74,76,-1,-1,-1,-1,-1,-1,-1,-1,-1,-1,-1,-1,-1,-1,-1,-1,-1,-1,-1,-1,-1,-1,-1,-1,-1,-1,-1,-1],"split_conditions":[9.6108305E-1,6.774286E-1,1.0431371E0,-7.917696E-2,3.394881E-1,3.2110128E-1,4.5713246E-1,-1.4764759E-1,6.8503475E-1,5.437373E-1,2.8576622E0,-1.0942438E-4,-3.7177463E-4,-5.2787507E-1,-1.723871E0,1.9436724E0,3.1833166E-1,1.2574145E0,2.287724E0,-1.2592065E0,4.384433E-1,6.745719E-1,-3.354192E-4,1.7001115E-1,-8.069543E-1,-5.5225664E-1,-8.151102E-1,9.9764913E-1,2.3609366E0,1.3840944E-4,7.105589E-4,-7.0118055E-2,1.4174303E-1,3.418128E-1,-1.9564123E-4,-6.415376E-1,-1.108134E0,-3.8115847E-1,-6.645173E-5,9.811579E-1,1.3699768E0,-3.525751E-5,8.053085E-5,1.4419611E-1,1.2344308E0,-2.5364758E-5,2.959639E-4,1.3544979E0,-8.456029E-1,1.0294781E-5,1.268906E-4,4.719347E-4,6.818559E-5,2.5831438E-5,-7.089849E-5,1.0937114E-6,-5.033821E-4,1.6893208E-4,2.9096232E-6,-8.363072E-5,1.1450874E-4,7.370096E-5,-2.718664E-4,-1.7821938E-5,1.4007867E-4,1.3982883E-4,-2.527386E-5,2.0581387E-5,-1.457408E-4,-8.365978E-6,-3.756924E-4,1.2156308E-4,-1.0019685E-4,-8.7386754E-5,1.1925996E-4,-2.7519465E-5,9.2995186E-5],"split_indices":[3,38,3,18,12,12,55,18,44,18,54,0,0,55,35,17,2,23,45,12,5,45,0,14,9,5,48,20,17,0,0,30,5,51,0,37,47,46,0,2,34,0,0,19,3,0,0,40,20,0,0,0,0,0,0,0,0,0,0,0,0,0,0,0,0,0,0,0,0,0,0,0,0,0,0,0,0],"split_type":[0,0,0,0,0,0,0,0,0,0,0,0,0,0,0,0,0,0,0,0,0,0,0,0,0,0,0,0,0,0,0,0,0,0,0,0,0,0,0,0,0,0,0,0,0,0,0,0,0,0,0,0,0,0,0,0,0,0,0,0,0,0,0,0,0,0,0,0,0,0,0,0,0,0,0,0,0],"sum_hessian":[6.57E2,5.18E2,1.39E2,3.75E2,1.43E2,1.6E1,1.23E2,1.73E2,2.02E2,9E1,5.3E1,1E1,6E0,7.2E1,5.1E1,1.66E2,7E0,1.4E2,6.2E1,5.4E1,3.6E1,5.2E1,1E0,3.8E1,3.4E1,6E0,4.5E1,1.57E2,9E0,5E0,2E0,1.25E2,1.5E1,5.8E1,4E0,1.7E1,3.7E1,2.3E1,1.3E1,3.1E1,2.1E1,2.1E1,1.7E1,1E1,2.4E1,2E0,4E0,1.4E1,3.1E1,1.27E2,3E1,3E0,6E0,6.3E1,6.2E1,1E1,5E0,2.9E1,2.9E1,7E0,1E1,7E0,3E1,9E0,1.4E1,2.6E1,5E0,1.6E1,5E0,3E0,7E0,4E0,2E1,1.2E1,2E0,1E1,2.1E1],"tree_param":{"num_deleted":"0","num_feature":"60","num_nodes":"77","size_leaf_vector":"0"}},{"base_weights":[-5.741629E-7,7.672372E-5,-3.4739583E-5,-4.766816E-5,4.1005597E-4,-7.240909E-5,1.5505636E-4,2.5568135E-5,-6.135224E-4,3.4698594E-5,8.2738925E-4,1.6737E-5,-1.644893E-4,5.808901E-4,4.9531158E-5,1.1388783E-4,-1.8796057E-4,-3.77861E-4,-1.2849569E-3,1.4961058E-4,-1.0493795E-3,1.1638894E-3,1.7260015E-4,1.3442384E-4,-2.1010388E-4,-2.5952657E-4,1.3452845E-4,1.4549922E-3,1.3076277E-4,2.1751264E-4,-8.626921E-5,7.546007E-5,6.649184E-4,-2.864981E-4,2.2968464E-4,-4.7672167E-4,2.4383933E-4,1.6051114E-3,4.6687573E-4,-1.4133201E-4,2.5548838E-4,-1.2898488E-3,-1.0222366E-4,-4.2495845E-4,3.815152E-5,1.9235954E-4,-1.2339354E-3,3.4666347E-4,-1.4869729E-4,-2.891355E-4,1.2138983E-4,2.3651186E-4,-3.3305198E-5,1.2883048E-4,-3.6818231E-4,1.8154308E-3,5.0922233E-4,-2.8318824E-4,2.5839696E-4,3.5315254E-4,-1.8466658E-4,-2.9460588E-4,-1.7138189E-3,2.1884793E-4,-2.8428424E-4,-1.2666351E-4,-7.07865E-4,2.3533218E-4,-4.202132E-4,3.155062E-4,-1.0285846E-4,-1.12509726E-4,4.6132243E-4],"categories":[],"categories_nodes":[],"categories_segments":[],"categories_sizes":[],"default_left":[1,1,1,1,1,1,1,1,1,1,1,1,1,1,1,1,1,0,0,1,0,1,0,1,1,1,1,0,0,1,1,1,0,1,0,0,0,1,0,1,1,1,1,1,1,1,0,1,0,0,0,0,0,0,0,0,0,0,0,0,0,0,0,0,0,0,0,0,0,0,0,0,0],"id":90,"left_children":[1,3,5,7,9,11,13,15,17,19,21,23,25,27,29,31,33,-1,-1,35,-1,37,-1,39,41,43,45,-1,-1,47,49,51,-1,53,-1,-1,-1,55,-1,57,59,61,63,65,67,69,-1,71,-1,-1,-1,-1,-1,-1,-1,-1,-1,-1,-1,-1,-1,-1,-1,-1,-1,-1,-1,-1,-1,-1,-1,-1,-1],"loss_changes":[1.7403872E-6,8.39524E-6,3.2785579E-6,6.1489654E-6,8.586993E-6,3.1384345E-6,3.3863785E-6,2.5107665E-6,2.204396E-6,3.8942057E-6,5.527865E-6,5.2339997E-6,5.377465E-6,5.7116004E-6,1.4331054E-6,1.9402632E-6,1.6707997E-6,6.1579135E-7,5.210227E-7,1.7687615E-6,0E0,4.478752E-6,3.104965E-7,4.342679E-6,7.672516E-6,7.058312E-6,3.877788E-6,0E0,2.2640258E-7,1.3758447E-6,1.5095438E-6,1.5668761E-6,3.9083034E-7,1.133058E-6,4.084321E-7,2.0369765E-7,8.969139E-7,1.380411E-6,2.1674589E-7,2.341337E-6,3.9340775E-6,2.026819E-6,3.6863926E-6,7.674182E-6,4.798684E-6,1.6684321E-6,0E0,1.157518E-6,1.3534371E-7,6.707593E-7,4.3814154E-7,0E0,0E0,0E0,0E0,0E0,0E0,0E0,0E0,0E0,0E0,0E0,0E0,0E0,0E0,0E0,0E0,0E0,0E0,0E0,0E0,0E0,0E0],"parents":[2147483647,0,0,1,1,2,2,3,3,4,4,5,5,6,6,7,7,8,8,9,9,10,10,11,11,12,12,13,13,14,14,15,15,16,16,19,19,21,21,23,23,24,24,25,25,26,26,29,29,30,30,31,31,33,33,37,37,39,39,40,40,41,41,42,42,43,43,44,44,45,45,47,47],"right_children":[2,4,6,8,10,12,14,16,18,20,22,24,26,28,30,32,34,-1,-1,36,-1,38,-1,40,42,44,46,-1,-1,48,50,52,-1,54,-1,-1,-1,56,-1,58,60,62,64,66,68,70,-1,72,-1,-1,-1,-1,-1,-1,-1,-1,-1,-1,-1,-1,-1,-1,-1,-1,-1,-1,-1,-1,-1,-1,-1,-1,-1],"split_conditions":[-5.859019E-1,-9.835794E-1,1.2127975E0,-1.0888565E0,1.621797E-2,3.0125197E-2,1.3666892E0,5.353415E-1,1.203072E0,1.5081079E0,3.6194462E-1,4.0232655E-1,8.2512766E-1,3.762915E-2,-2.4252702E-1,-1.1957864E0,1.0164564E0,-1.1335831E-4,-3.854871E-4,-1.6785796E0,-3.1481386E-4,5.509707E-1,5.1780047E-5,-4.6963948E-1,-2.2335324E0,2.9072818E-1,3.2933328E0,4.3649768E-4,3.922883E-5,9.921476E-1,-3.3929163E-1,-6.496147E-2,1.9947553E-4,-1.6165457E0,6.890539E-5,-1.4301651E-4,7.31518E-5,1.5149752E0,1.4006272E-4,4.872808E-1,1.1622479E0,1.7130688E-1,-2.5287434E-1,4.648313E-3,6.3950026E-1,8.8973045E-1,-3.701806E-4,-1.3740094E0,-4.4609187E-5,-8.674065E-5,3.641695E-5,7.095356E-5,-9.99156E-6,3.8649145E-5,-1.104547E-4,5.446293E-4,1.527667E-4,-8.4956475E-5,7.751909E-5,1.05945765E-4,-5.5399978E-5,-8.838177E-5,-5.141457E-4,6.565438E-5,-8.5285275E-5,-3.7999052E-5,-2.123595E-4,7.059966E-5,-1.2606397E-4,9.465186E-5,-3.085754E-5,-3.375292E-5,1.3839673E-4],"split_indices":[1,1,28,1,23,23,28,25,24,13,55,43,2,7,46,1,13,0,0,0,0,6,0,12,57,43,31,0,0,8,47,7,0,30,0,0,0,41,0,7,13,0,49,54,41,18,0,50,0,0,0,0,0,0,0,0,0,0,0,0,0,0,0,0,0,0,0,0,0,0,0,0,0],"split_type":[0,0,0,0,0,0,0,0,0,0,0,0,0,0,0,0,0,0,0,0,0,0,0,0,0,0,0,0,0,0,0,0,0,0,0,0,0,0,0,0,0,0,0,0,0,0,0,0,0,0,0,0,0,0,0,0,0,0,0,0,0,0,0,0,0,0,0,0,0,0,0,0,0],"sum_hessian":[6.57E2,2.01E2,4.56E2,1.47E2,5.4E1,3.81E2,7.5E1,1.31E2,1.6E1,2.9E1,2.5E1,1.94E2,1.87E2,1.4E1,6.1E1,9.3E1,3.8E1,1.3E1,3E0,2.7E1,2E0,1.6E1,9E0,1.28E2,6.6E1,1.42E2,4.5E1,4E0,1E1,2.7E1,3.4E1,8.8E1,5E0,3.1E1,7E0,3E0,2.4E1,9E0,7E0,3.9E1,8.9E1,5E0,6.1E1,9.1E1,5.1E1,4.4E1,1E0,2E1,7E0,1.7E1,1.7E1,3.5E1,5.3E1,5E0,2.6E1,7E0,2E0,2.9E1,1E1,7.3E1,1.6E1,2E0,3E0,2.2E1,3.9E1,4.5E1,4.6E1,3.6E1,1.5E1,3.1E1,1.3E1,4E0,1.6E1],"tree_param":{"num_deleted":"0","num_feature":"60","num_nodes":"73","size_leaf_vector":"0"}},{"base_weights":[-1.0677934E-6,4.313083E-5,-5.5267228E-5,1.6595205E-4,-2.777113E-5,-8.307159E-4,-4.1799725E-5,-1.871489E-5,2.810341E-4,-4.8962433E-4,2.0165585E-6,-1.3120174E-3,-7.250905E-5,4.4412456E-5,-1.49575E-4,4.852911E-4,-8.265789E-5,-2.7295284E-5,3.9454314E-4,-1.2918115E-3,-1.5340863E-4,1.055088E-4,-1.10365654E-4,2.3819305E-4,-4.5953646E-5,-2.998416E-4,6.7463945E-5,-1.4104377E-4,5.802512E-4,-2.2872964E-4,2.5744233E-4,-2.5959406E-4,4.8583662E-4,-2.0202275E-4,2.0327173E-4,-3.095759E-4,4.4201646E-5,2.9285738E-4,-4.9099326E-4,-2.2287568E-4,7.620109E-5,-7.043628E-4,-1.3556823E-4,-1.1528523E-4,3.0070395E-4,-2.9090827E-4,7.145734E-5,3.2679614E-4,8.034049E-4,9.023933E-5,6.315493E-4,-1.063486E-3,-1.9169699E-4,2.0036264E-4,-2.3463837E-4,1.4570994E-4,6.1667763E-4,-1.0318215E-3,-1.4244176E-4,2.5467787E-4,-1.1540159E-4,7.030474E-5,-9.992572E-4,7.394172E-5,-3.801544E-4,-1.9374808E-4,4.627761E-4,4.284528E-4,-1.5395135E-4],"categories":[],"categories_nodes":[],"categories_segments":[],"categories_sizes":[],"default_left":[1,1,1,1,1,1,1,1,1,1,1,0,0,1,1,0,1,1,1,0,0,1,1,1,1,1,1,1,0,0,0,0,1,0,1,1,1,1,0,1,1,1,1,1,1,0,0,0,0,0,0,0,0,0,0,0,0,0,0,0,0,0,0,0,0,0,0,0,0],"id":91,"left_children":[1,3,5,7,9,11,13,15,17,19,21,-1,-1,23,25,-1,27,29,31,-1,-1,33,35,37,39,41,43,45,-1,-1,-1,-1,47,-1,49,51,53,55,-1,57,59,61,63,65,67,-1,-1,-1,-1,-1,-1,-1,-1,-1,-1,-1,-1,-1,-1,-1,-1,-1,-1,-1,-1,-1,-1,-1,-1],"loss_changes":[1.5786493E-6,3.1657087E-6,3.0565095E-6,2.8317556E-6,3.1789791E-6,1.7294976E-6,2.7197732E-6,1.7159512E-6,2.8806194E-6,3.577736E-6,2.5471343E-6,0E0,1.3365479E-8,2.865271E-6,4.26001E-6,9.091423E-8,1.9009535E-6,1.3780711E-6,3.7092277E-6,9.657037E-7,3.1037936E-7,3.4684967E-6,3.2467797E-6,2.2165364E-6,2.4375124E-6,5.021319E-6,2.3363853E-6,1.422028E-6,1.9925449E-7,6.3601806E-7,2.960099E-7,7.916962E-7,2.4142792E-6,8.9210596E-7,4.154613E-6,3.8841576E-6,2.6596488E-6,2.2449603E-6,0E0,2.846093E-6,2.3205644E-6,5.0960443E-6,2.897731E-6,1.4957087E-6,1.4599214E-6,0E0,0E0,0E0,0E0,0E0,0E0,0E0,0E0,0E0,0E0,0E0,0E0,0E0,0E0,0E0,0E0,0E0,0E0,0E0,0E0,0E0,0E0,0E0,0E0],"parents":[2147483647,0,0,1,1,2,2,3,3,4,4,5,5,6,6,7,7,8,8,9,9,10,10,13,13,14,14,16,16,17,17,18,18,21,21,22,22,23,23,24,24,25,25,26,26,27,27,32,32,34,34,35,35,36,36,37,37,39,39,40,40,41,41,42,42,43,43,44,44],"right_children":[2,4,6,8,10,12,14,16,18,20,22,-1,-1,24,26,-1,28,30,32,-1,-1,34,36,38,40,42,44,46,-1,-1,-1,-1,48,-1,50,52,54,56,-1,58,60,62,64,66,68,-1,-1,-1,-1,-1,-1,-1,-1,-1,-1,-1,-1,-1,-1,-1,-1,-1,-1,-1,-1,-1,-1,-1,-1],"split_conditions":[1.7065887E-1,-2.9083717E-1,1.877872E-1,-1.0167343E-1,-2.3954108E0,2.2941083E-1,1.7969236E-1,-2.2786503E0,-7.728472E-1,-2.170587E-1,1.331043E-1,-3.9360524E-4,-2.1752716E-5,-6.30707E-1,3.9913312E-1,1.4558733E-4,-3.6939132E-1,4.395852E-1,-1.6693517E0,-3.8754346E-4,-4.6022593E-5,-1.0890316E0,-1.5345433E-1,1.4804366E0,-2.562733E-1,-4.6572074E-1,2.3518344E-2,5.802741E-1,1.7407537E-4,-6.8618894E-5,7.7232704E-5,-7.787822E-5,4.6176767E-1,-6.0606828E-5,-2.1726415E-1,-1.3325744E0,1.9403462E-1,4.1669E-1,-1.4729798E-4,2.5943658E-1,-7.3325646E-1,-9.3914235E-1,1.6839859E-1,9.2876184E-1,7.768915E-1,-8.7272485E-5,2.1437203E-5,9.803885E-5,2.4102148E-4,2.70718E-5,1.8946479E-4,-3.190458E-4,-5.75091E-5,6.0108796E-5,-7.0391514E-5,4.3712986E-5,1.850033E-4,-3.0954645E-4,-4.273253E-5,7.640336E-5,-3.462048E-5,2.1091422E-5,-2.9977717E-4,2.2182518E-5,-1.1404633E-4,-5.8124428E-5,1.3883284E-4,1.2853584E-4,-4.6185407E-5],"split_indices":[24,19,24,20,10,2,13,43,29,51,11,0,0,39,55,0,19,48,23,0,0,0,21,15,14,33,14,57,0,0,0,0,34,0,11,18,33,48,0,24,13,22,6,53,25,0,0,0,0,0,0,0,0,0,0,0,0,0,0,0,0,0,0,0,0,0,0,0,0],"split_type":[0,0,0,0,0,0,0,0,0,0,0,0,0,0,0,0,0,0,0,0,0,0,0,0,0,0,0,0,0,0,0,0,0,0,0,0,0,0,0,0,0,0,0,0,0,0,0,0,0,0,0,0,0,0,0,0,0,0,0,0,0,0,0,0,0,0,0,0,0],"sum_hessian":[6.57E2,3.62E2,2.95E2,1.32E2,2.3E2,4E0,2.91E2,5.1E1,8.1E1,1.3E1,2.17E2,2E0,2E0,1.62E2,1.29E2,5E0,4.6E1,2.2E1,5.9E1,3E0,1E1,1.13E2,1.04E2,5.1E1,1.11E2,7.6E1,5.3E1,4.3E1,3E0,1.3E1,9E0,7E0,5.2E1,2.7E1,8.6E1,4.5E1,5.9E1,4.8E1,3E0,4.5E1,6.6E1,2.1E1,5.5E1,3E1,2.3E1,2.5E1,1.8E1,3.6E1,1.6E1,6.9E1,1.7E1,5E0,4E1,3.8E1,2.1E1,3.4E1,1.4E1,3E0,4.2E1,3.4E1,3.2E1,6E0,1.5E1,3E1,2.5E1,2.7E1,3E0,1.8E1,5E0],"tree_param":{"num_deleted":"0","num_feature":"60","num_nodes":"69","size_leaf_vector":"0"}},{"base_weights":[-2.2594247E-6,-3.8188497E-5,5.2191343E-5,-8.9929476E-5,1.16381496E-4,1.4726259E-4,-4.112785E-5,4.633334E-4,-1.067896E-4,4.419075E-4,-1.0072063E-5,2.6811863E-4,-1.7227876E-5,-1.4161108E-4,8.348692E-5,-1.09404325E-4,7.679363E-4,1.0297031E-4,-1.4675652E-4,7.055258E-4,1.2789454E-4,-9.1360795E-5,4.564063E-4,-5.9153885E-5,3.3769436E-4,1.3941972E-4,-1.3907044E-4,5.336161E-5,-2.4833297E-4,-1.733955E-4,2.4785695E-4,-7.8246E-5,2.4010261E-4,-7.9649486E-5,-3.5582684E-4,8.44231E-4,-1.3070554E-4,-5.1428353E-5,-1.283586E-3,9.5591694E-4,1.4960021E-4,4.907419E-4,9.15543E-5,2.4908393E-5,4.9788755E-4,-3.3360766E-4,5.2204028E-5,-8.108587E-5,-4.5950373E-4,1.7216057E-4,-3.258104E-4,4.6772862E-4,1.49401785E-5,5.1039713E-4,5.1082494E-5,-1.9459566E-4,1.1807947E-4,-1.6579326E-4,-5.7491136E-4,-1.6748102E-4,1.2702882E-4,3.128336E-4,8.501406E-4,9.500628E-5,-3.618652E-4,-8.0577866E-4,-1.8442851E-4,-5.6960026E-4,1.9653235E-5],"categories":[],"categories_nodes":[],"categories_segments":[],"categories_sizes":[],"default_left":[1,1,1,1,1,1,1,1,1,1,1,1,1,1,1,0,0,1,1,1,0,1,1,0,1,1,1,0,1,1,1,0,1,1,1,0,0,1,0,0,0,1,0,0,0,0,0,1,1,0,1,0,0,0,0,0,0,0,0,0,0,0,0,0,0,0,0,0,0],"id":92,"left_children":[1,3,5,7,9,11,13,15,17,19,21,23,25,27,29,-1,-1,31,33,35,-1,37,39,-1,41,43,45,-1,47,49,51,-1,53,55,57,-1,-1,59,-1,-1,-1,61,-1,-1,-1,-1,-1,63,65,-1,67,-1,-1,-1,-1,-1,-1,-1,-1,-1,-1,-1,-1,-1,-1,-1,-1,-1,-1],"loss_changes":[1.2892816E-6,3.1855143E-6,2.3305129E-6,2.8292477E-6,4.120843E-6,2.5889753E-6,1.6772079E-6,1.6541337E-6,2.446314E-6,2.227595E-6,2.8098164E-6,1.7277434E-6,1.0882245E-6,1.5530326E-6,2.5764034E-6,7.041132E-8,8.58729E-8,1.1867658E-6,3.3949996E-6,1.8501905E-6,3.8720142E-7,2.9333205E-6,1.5427765E-6,1.7587612E-7,2.2906816E-6,1.013814E-6,1.2081357E-6,6.154008E-7,1.6579902E-6,1.3201209E-6,1.8878488E-6,4.863381E-7,1.3533872E-6,4.2504203E-6,2.3610555E-6,6.4385404E-7,2.998187E-8,1.3053217E-6,0E0,0E0,2.8104722E-7,2.163768E-6,8.1533597E-7,4.222426E-7,3.6021925E-7,9.229127E-7,4.739499E-7,1.4187844E-6,1.8516762E-6,5.1188493E-8,1.4429435E-6,7.6856986E-7,6.6145344E-7,0E0,0E0,0E0,0E0,0E0,0E0,0E0,0E0,0E0,0E0,0E0,0E0,0E0,0E0,0E0,0E0],"parents":[2147483647,0,0,1,1,2,2,3,3,4,4,5,5,6,6,7,7,8,8,9,9,10,10,11,11,12,12,13,13,14,14,17,17,18,18,19,19,21,21,22,22,24,24,25,25,26,26,28,28,29,29,30,30,32,32,33,33,34,34,37,37,41,41,47,47,48,48,50,50],"right_children":[2,4,6,8,10,12,14,16,18,20,22,24,26,28,30,-1,-1,32,34,36,-1,38,40,-1,42,44,46,-1,48,50,52,-1,54,56,58,-1,-1,60,-1,-1,-1,62,-1,-1,-1,-1,-1,64,66,-1,68,-1,-1,-1,-1,-1,-1,-1,-1,-1,-1,-1,-1,-1,-1,-1,-1,-1,-1],"split_conditions":[3.923592E-1,8.907782E-1,-2.9859316E-2,-3.6693714E0,1.1411073E0,2.825743E-1,2.685357E-1,-5.6347156E-1,-1.8165601E0,-2.6344076E-1,1.6790602E-1,-1.2980473E0,-3.5012327E-4,-7.1822226E-1,-2.661322E-1,-3.28213E-5,2.303809E-4,-4.2803264E-1,7.0078075E-1,2.7461977E0,3.8368365E-5,1.4702412E-1,1.1618897E-2,-1.7746166E-5,5.545297E-1,1.3225596E0,4.4993582E-1,1.6008484E-5,-2.406471E-2,-2.0484583E0,1.0209873E0,-2.34738E-5,3.9485553E-1,4.351412E-1,3.476383E-1,2.532693E-4,-3.9211664E-5,2.9301518E-1,-3.8507584E-4,2.867751E-4,4.4880064E-5,3.2697076E-1,2.746629E-5,7.472518E-6,1.4936627E-4,-1.000823E-4,1.566121E-5,1.1807923E-1,-7.430075E-1,5.164817E-5,-3.4320974E-1,1.4031859E-4,4.4820536E-6,1.5311915E-4,1.532475E-5,-5.83787E-5,3.5423844E-5,-4.973798E-5,-1.7247342E-4,-5.0244307E-5,3.8108647E-5,9.385009E-5,2.550422E-4,2.8501885E-5,-1.08559565E-4,-2.417336E-4,-5.5328557E-5,-1.7088008E-4,5.895971E-6],"split_indices":[49,30,30,55,30,33,26,16,49,1,49,24,57,32,33,0,0,46,53,9,0,49,37,0,3,35,53,0,31,33,26,0,55,40,37,0,0,42,0,0,0,19,0,0,0,0,0,41,4,0,57,0,0,0,0,0,0,0,0,0,0,0,0,0,0,0,0,0,0],"split_type":[0,0,0,0,0,0,0,0,0,0,0,0,0,0,0,0,0,0,0,0,0,0,0,0,0,0,0,0,0,0,0,0,0,0,0,0,0,0,0,0,0,0,0,0,0,0,0,0,0,0,0,0,0,0,0,0,0,0,0,0,0,0,0,0,0,0,0,0,0],"sum_hessian":[6.57E2,3.96E2,2.61E2,2.97E2,9.9E1,1.29E2,1.32E2,8E0,2.89E2,2.7E1,7.2E1,7.4E1,5.5E1,7.3E1,5.9E1,3E0,5E0,4.6E1,2.43E2,1.4E1,1.3E1,6.2E1,1E1,1.3E1,6.1E1,2.4E1,3.1E1,2.6E1,4.7E1,2.3E1,3.6E1,2E1,2.6E1,1.85E2,5.8E1,1.2E1,2E0,6.1E1,1E0,3E0,7E0,3.7E1,2.4E1,1.9E1,5E0,1.5E1,1.6E1,2.7E1,2E1,7E0,1.6E1,1.8E1,1.8E1,1E1,1.6E1,1.17E2,6.8E1,3.2E1,2.6E1,3.7E1,2.4E1,2.6E1,1.1E1,1.7E1,1E1,8E0,1.2E1,9E0,7E0],"tree_param":{"num_deleted":"0","num_feature":"60","num_nodes":"69","size_leaf_vector":"0"}},{"base_weights":[-1.0019407E-6,-3.8244092E-5,4.4954482E-5,-1.0947358E-4,9.882248E-5,8.9914196E-5,-7.699868E-5,-1.351316E-4,2.3504828E-4,-5.4702756E-4,1.2469378E-4,2.0571976E-4,1.751289E-5,-1.4493465E-3,-4.1281026E-5,-1.9329309E-4,1.6571421E-5,-1.24228E-3,-6.264448E-5,-6.9618385E-5,2.4066307E-4,5.9596718E-5,3.8577552E-4,3.0942608E-4,-1.6406922E-5,-1.8084461E-4,1.587423E-4,-3.0459222E-4,-2.6788393E-5,7.80062E-5,-2.6543066E-4,-1.8473025E-5,3.757833E-4,5.885241E-4,8.2885264E-5,1.7749718E-4,-7.1343806E-5,-2.763675E-4,4.1362022E-5,-1.2285674E-4,-5.39654E-4,-1.3434119E-4,2.2730007E-4,-5.7084994E-6,-5.24582E-4,-2.7095468E-4,2.0157595E-4,1.3493262E-3,2.849332E-4,7.5891963E-4,7.649262E-6,2.662545E-5,-2.4789528E-4],"categories":[],"categories_nodes":[],"categories_segments":[],"categories_sizes":[],"default_left":[1,1,1,1,1,1,1,1,0,1,1,1,1,0,1,1,0,0,0,1,1,0,1,0,1,1,0,1,1,0,1,1,1,1,0,0,1,0,0,0,0,0,0,0,0,0,0,0,0,0,0,0,0],"id":93,"left_children":[1,3,5,7,9,11,13,15,-1,17,19,21,23,-1,25,27,-1,-1,-1,29,31,-1,33,-1,35,37,-1,39,41,-1,43,45,47,49,-1,-1,51,-1,-1,-1,-1,-1,-1,-1,-1,-1,-1,-1,-1,-1,-1,-1,-1],"loss_changes":[1.1278969E-6,3.5646165E-6,1.6244021E-6,2.1533024E-6,2.156834E-6,1.8074437E-6,3.8615326E-6,1.9796162E-6,7.08005E-7,1.6060208E-6,2.7433978E-6,2.1607634E-6,1.3318966E-6,0E0,2.2340696E-6,2.9939965E-6,8.828092E-7,0E0,3.341917E-9,1.3504136E-6,2.668046E-6,9.4999E-7,2.2234103E-6,3.2114156E-7,1.3016144E-6,1.0090447E-6,5.929865E-7,4.0774494E-6,1.8341786E-6,7.2277874E-7,1.3431523E-6,1.5546929E-6,4.037857E-6,2.171722E-6,4.5917943E-7,5.038198E-7,1.6497788E-6,8.939037E-7,2.6193308E-7,0E0,0E0,0E0,0E0,0E0,0E0,0E0,0E0,0E0,0E0,0E0,0E0,0E0,0E0],"parents":[2147483647,0,0,1,1,2,2,3,3,4,4,5,5,6,6,7,7,9,9,10,10,11,11,12,12,14,14,15,15,19,19,20,20,22,22,24,24,25,25,27,27,28,28,30,30,31,31,32,32,33,33,36,36],"right_children":[2,4,6,8,10,12,14,16,-1,18,20,22,24,-1,26,28,-1,-1,-1,30,32,-1,34,-1,36,38,-1,40,42,-1,44,46,48,50,-1,-1,52,-1,-1,-1,-1,-1,-1,-1,-1,-1,-1,-1,-1,-1,-1,-1,-1],"split_conditions":[2.3816305E-1,5.3266907E-1,5.591158E-1,2.2518091E0,-3.3865514E0,-4.7027826E-1,5.681232E-1,7.724234E-1,7.0514485E-5,-2.1930397E-1,-5.403715E-1,-1.4651632E0,-1.8013527E0,-4.3480398E-4,2.5615147E-1,4.6775413E-1,4.9714263E-6,-3.72684E-4,-1.8793346E-5,2.0547897E-1,-2.7262694E-1,1.7879016E-5,1.6741161E-1,9.2827824E-5,-1.0403192E0,7.367904E-1,4.7622692E-5,-2.4710241E-1,3.852718E-1,2.340186E-5,-5.8724517E-1,-2.8965774E-1,-1.5887636E-1,1.1391277E0,2.486558E-5,5.3249154E-5,4.738538E-1,-8.291025E-5,1.2408607E-5,-3.6857025E-5,-1.618962E-4,-4.030236E-5,6.819003E-5,-1.7125499E-6,-1.573746E-4,-8.128641E-5,6.0472787E-5,4.0479787E-4,8.547996E-5,2.276759E-4,2.2947788E-6,7.987635E-6,-7.436859E-5],"split_indices":[8,57,14,55,30,2,14,18,0,1,15,2,28,0,35,31,0,0,0,54,53,0,9,0,22,29,0,31,59,0,55,51,53,39,0,0,34,0,0,0,0,0,0,0,0,0,0,0,0,0,0,0,0],"split_type":[0,0,0,0,0,0,0,0,0,0,0,0,0,0,0,0,0,0,0,0,0,0,0,0,0,0,0,0,0,0,0,0,0,0,0,0,0,0,0,0,0,0,0,0,0,0,0,0,0,0,0,0,0],"sum_hessian":[6.57E2,3.63E2,2.94E2,2.39E2,1.24E2,2.15E2,7.9E1,2.23E2,1.6E1,4E0,1.2E2,8.2E1,1.33E2,1E0,7.8E1,1.61E2,6.2E1,1E0,3E0,4.5E1,7.5E1,4.6E1,3.6E1,1.3E1,1.2E2,4.6E1,3.2E1,9.6E1,6.5E1,2.6E1,1.9E1,2.6E1,4.9E1,2.1E1,1.5E1,2.6E1,9.4E1,3.2E1,1.4E1,5.5E1,4.1E1,4.6E1,1.9E1,1E1,9E0,1.2E1,1.4E1,3E0,4.6E1,1.6E1,5E0,6.1E1,3.3E1],"tree_param":{"num_deleted":"0","num_feature":"60","num_nodes":"53","size_leaf_vector":"0"}},{"base_weights":[-1.0920843E-6],"categories":[],"categories_nodes":[],"categories_segments":[],"categories_sizes":[],"default_left":[0],"id":94,"left_children":[-1],"loss_changes":[8.6390696E-7],"parents":[2147483647],"right_children":[-1],"split_conditions":[-3.276253E-7],"split_indices":[0],"split_type":[0],"sum_hessian":[6.57E2],"tree_param":{"num_deleted":"0","num_feature":"60","num_nodes":"1","size_leaf_vector":"0"}},{"base_weights":[-7.727295E-7],"categories":[],"categories_nodes":[],"categories_segments":[],"categories_sizes":[],"default_left":[0],"id":95,"left_children":[-1],"loss_changes":[8.6403065E-7],"parents":[2147483647],"right_children":[-1],"split_conditions":[-2.3181886E-7],"split_indices":[0],"split_type":[0],"sum_hessian":[6.57E2],"tree_param":{"num_deleted":"0","num_feature":"60","num_nodes":"1","size_leaf_vector":"0"}},{"base_weights":[-5.421299E-7],"categories":[],"categories_nodes":[],"categories_segments":[],"categories_sizes":[],"default_left":[0],"id":96,"left_children":[-1],"loss_changes":[8.6405095E-7],"parents":[2147483647],"right_children":[-1],"split_conditions":[-1.6263897E-7],"split_indices":[0],"split_type":[0],"sum_hessian":[6.57E2],"tree_param":{"num_deleted":"0","num_feature":"60","num_nodes":"1","size_leaf_vector":"0"}},{"base_weights":[-3.837562E-7],"categories":[],"categories_nodes":[],"categories_segments":[],"categories_sizes":[],"default_left":[0],"id":97,"left_children":[-1],"loss_changes":[8.640389E-7],"parents":[2147483647],"right_children":[-1],"split_conditions":[-1.15126866E-7],"split_indices":[0],"split_type":[0],"sum_hessian":[6.57E2],"tree_param":{"num_deleted":"0","num_feature":"60","num_nodes":"1","size_leaf_vector":"0"}},{"base_weights":[-2.8451728E-7],"categories":[],"categories_nodes":[],"categories_segments":[],"categories_sizes":[],"default_left":[0],"id":98,"left_children":[-1],"loss_changes":[8.6411416E-7],"parents":[2147483647],"right_children":[-1],"split_conditions":[-8.535519E-8],"split_indices":[0],"split_type":[0],"sum_hessian":[6.57E2],"tree_param":{"num_deleted":"0","num_feature":"60","num_nodes":"1","size_leaf_vector":"0"}},{"base_weights":[-2.0978143E-7],"categories":[],"categories_nodes":[],"categories_segments":[],"categories_sizes":[],"default_left":[0],"id":99,"left_children":[-1],"loss_changes":[8.641599E-7],"parents":[2147483647],"right_children":[-1],"split_conditions":[-6.293443E-8],"split_indices":[0],"split_type":[0],"sum_hessian":[6.57E2],"tree_param":{"num_deleted":"0","num_feature":"60","num_nodes":"1","size_leaf_vector":"0"}}]},"name":"gbtree"},"learner_model_param":{"base_score":"5E-1","num_class":"0","num_feature":"60","num_target":"1"},"objective":{"name":"reg:squarederror","reg_loss_param":{"scale_pos_weight":"1"}}},"version":[1,6,1]}