{"learner":{"attributes":{"best_iteration":"99","best_ntree_limit":"100","scikit_learn":"{\"n_estimators\": 100, \"objective\": \"reg:squarederror\", \"max_depth\": null, \"max_leaves\": null, \"max_bin\": null, \"grow_policy\": null, \"learning_rate\": null, \"verbosity\": null, \"booster\": null, \"tree_method\": null, \"gamma\": null, \"min_child_weight\": null, \"max_delta_step\": null, \"subsample\": null, \"sampling_method\": null, \"colsample_bytree\": null, \"colsample_bylevel\": null, \"colsample_bynode\": null, \"reg_alpha\": null, \"reg_lambda\": null, \"scale_pos_weight\": null, \"base_score\": null, \"missing\": NaN, \"num_parallel_tree\": null, \"random_state\": null, \"n_jobs\": null, \"monotone_constraints\": null, \"interaction_constraints\": null, \"importance_type\": null, \"gpu_id\": null, \"validate_parameters\": null, \"predictor\": null, \"enable_categorical\": false, \"max_cat_to_onehot\": null, \"eval_metric\": null, \"early_stopping_rounds\": null, \"callbacks\": null, \"_estimator_type\": \"regressor\"}"},"feature_names":[],"feature_types":[],"gradient_booster":{"model":{"gbtree_model_param":{"num_parallel_tree":"1","num_trees":"100","size_leaf_vector":"0"},"tree_info":[0,0,0,0,0,0,0,0,0,0,0,0,0,0,0,0,0,0,0,0,0,0,0,0,0,0,0,0,0,0,0,0,0,0,0,0,0,0,0,0,0,0,0,0,0,0,0,0,0,0,0,0,0,0,0,0,0,0,0,0,0,0,0,0,0,0,0,0,0,0,0,0,0,0,0,0,0,0,0,0,0,0,0,0,0,0,0,0,0,0,0,0,0,0,0,0,0,0,0,0],"trees":[{"base_weights":[-4.7935337E-1,6.7708826E-1,-4.8391125E-1,1.0823983E0,-6.676592E-2,-4.8935527E-1,3.2277292E-1,-5.30197E-1,-4.008684E-1,4.0732077E-1,-7.70925E-3,-6.044872E-1,-4.6307358E-1,-4.2235944E-1,1.9457543E-1,-5.108826E-1,-7.181932E-1,-3.4212416E-1,-5.26039E-1,-4.3442434E-1,2.8647596E-1,5.6536543E-1,-2.3248797E-2,-3.9670476E-1,-6.847515E-1,-5.835756E-1,-8.428339E-1,-3.8213035E-1,8.570108E-2,-5.324258E-1,2.2557285E-1,-2.2303025E-1,-4.7946796E-1,5.638414E-1,-2.7281022E-1,1.7056075E-1,6.774874E-1,9.4577886E-2,-1.7260145E-1],"categories":[],"categories_nodes":[],"categories_segments":[],"categories_sizes":[],"default_left":[1,1,1,0,0,1,1,1,1,0,0,1,1,1,1,1,1,1,1,1,1,1,1,0,0,0,0,0,0,0,0,0,0,0,0,0,0,0,0],"id":0,"left_children":[1,3,5,-1,-1,7,9,11,13,-1,-1,15,17,19,21,23,25,27,29,31,33,35,37,-1,-1,-1,-1,-1,-1,-1,-1,-1,-1,-1,-1,-1,-1,-1,-1],"loss_changes":[3.795929E0,9.76742E-1,3.0388336E0,0E0,0E0,2.1437683E0,1.4284796E-1,1.9291458E0,2.7694893E0,0E0,0E0,1.8362732E0,1.6249313E0,1.8605156E0,6.592804E-1,2.0510368E0,1.0350151E0,1.4704647E0,8.5936356E-1,1.7974586E0,7.7432835E-1,1.7246068E-2,1.2191064E-1,0E0,0E0,0E0,0E0,0E0,0E0,0E0,0E0,0E0,0E0,0E0,0E0,0E0,0E0,0E0,0E0],"parents":[2147483647,0,0,1,1,2,2,5,5,6,6,7,7,8,8,11,11,12,12,13,13,14,14,15,15,16,16,17,17,18,18,19,19,20,20,21,21,22,22],"right_children":[2,4,6,-1,-1,8,10,12,14,-1,-1,16,18,20,22,24,26,28,30,32,34,36,38,-1,-1,-1,-1,-1,-1,-1,-1,-1,-1,-1,-1,-1,-1,-1,-1],"split_conditions":[-1.6999538E0,3.0636182E-1,1.0985537E0,3.247195E-1,-2.0029776E-2,1.7134291E-1,2.3230577E-1,-2.0842018E-2,8.152318E-1,1.22196235E-1,-2.312775E-3,4.248181E-2,-1.2552303E-1,9.148452E-1,-5.3018236E-1,1.7043343E-1,4.3769345E-2,6.234402E-1,1.2691524E0,-3.581515E-1,7.291134E-2,3.677133E-1,-1.1363637E-1,-1.1901143E-1,-2.0542546E-1,-1.7507268E-1,-2.5285017E-1,-1.1463911E-1,2.5710324E-2,-1.5972775E-1,6.767186E-2,-6.690908E-2,-1.4384039E-1,1.6915242E-1,-8.184307E-2,5.1168226E-2,2.0324622E-1,2.8373366E-2,-5.1780436E-2],"split_indices":[19,0,59,0,0,12,1,36,28,0,0,47,58,58,2,23,14,1,7,9,0,0,10,0,0,0,0,0,0,0,0,0,0,0,0,0,0,0,0],"split_type":[0,0,0,0,0,0,0,0,0,0,0,0,0,0,0,0,0,0,0,0,0,0,0,0,0,0,0,0,0,0,0,0,0,0,0,0,0,0,0],"sum_hessian":[6.57E2,2E0,6.55E2,1E0,1E0,6.51E2,4E0,4.42E2,2.09E2,3E0,1E0,2.06E2,2.36E2,2.02E2,7E0,1.16E2,9E1,8.3E1,1.53E2,1.99E2,3E0,2E0,5E0,7.2E1,4.4E1,4.6E1,4.4E1,7.6E1,7E0,1.52E2,1E0,3.6E1,1.63E2,2E0,1E0,1E0,1E0,3E0,2E0],"tree_param":{"num_deleted":"0","num_feature":"60","num_nodes":"39","size_leaf_vector":"0"}},{"base_weights":[-3.3615708E-1,5.7552505E-1,-3.3981392E-1,9.200386E-1,-5.6751028E-2,-2.992758E-1,-4.145992E-1,-3.070699E-1,9.856734E-2,-4.7217473E-1,-2.2491303E-1,2.47843E-1,-3.1164545E-1,-1.2666656E-1,5.9125733E-1,-4.9145442E-1,5.799076E-2,-2.8024474E-1,3.8445282E-1,5.4682117E-2,4.1366282E-1,-3.5556164E-1,-2.4548791E-1,5.4271713E-2,-2.7593818E-1,-5.117692E-1,-2.118834E-2,1.1031996E-1,-4.8554827E-2,-9.799163E-2,-4.5171916E-1,4.9445337E-1,-2.7774706E-2,7.3102117E-4,8.129215E-2,-8.3989817E-1,-3.4219453E-1,1.0649138E-1,-2.6352695E-1,-2.8609017E-2,1.5145695E-1,-7.681056E-2,-3.1671056E-1,-3.0311173E-1,-5.6117946E-1,3.0216172E-1,-2.756307E-1,4.4663846E-2,1.3920276E-1,4.952818E-3,-7.778506E-2,-1.7470765E-1,2.5915718E-1,-5.345203E-1,-8.662861E-2],"categories":[],"categories_nodes":[],"categories_segments":[],"categories_sizes":[],"default_left":[1,1,1,0,0,1,1,1,1,1,1,1,1,1,0,1,1,1,1,1,0,1,1,1,1,1,1,1,1,1,1,0,0,0,0,0,0,0,0,0,0,0,0,0,0,0,0,0,0,0,0,0,0,0,0],"id":1,"left_children":[1,3,5,-1,-1,7,9,11,13,15,17,19,21,23,-1,25,27,29,31,33,-1,35,37,39,41,43,45,47,49,51,53,-1,-1,-1,-1,-1,-1,-1,-1,-1,-1,-1,-1,-1,-1,-1,-1,-1,-1,-1,-1,-1,-1,-1,-1],"loss_changes":[2.389267E0,7.0569617E-1,1.8646927E0,0E0,0E0,1.3605194E0,2.383854E0,1.1461754E0,1.0736269E0,1.8070259E0,1.9621894E0,1.0549967E-1,1.1271629E0,2.0403829E-1,0E0,1.5941162E0,4.438469E-2,1.5495744E0,2.4045962E-1,4.247496E-3,0E0,1.324667E0,1.1074572E0,3.655217E-2,8.148909E-3,1.4897842E0,7.414768E-1,3.2643303E-3,5.0773784E-3,7.576516E-1,7.3967314E-1,0E0,0E0,0E0,0E0,0E0,0E0,0E0,0E0,0E0,0E0,0E0,0E0,0E0,0E0,0E0,0E0,0E0,0E0,0E0,0E0,0E0,0E0,0E0,0E0],"parents":[2147483647,0,0,1,1,2,2,5,5,6,6,7,7,8,8,9,9,10,10,11,11,12,12,13,13,15,15,16,16,17,17,18,18,19,19,21,21,22,22,23,23,24,24,25,25,26,26,27,27,28,28,29,29,30,30],"right_children":[2,4,6,-1,-1,8,10,12,14,16,18,20,22,24,-1,26,28,30,32,34,-1,36,38,40,42,44,46,48,50,52,54,-1,-1,-1,-1,-1,-1,-1,-1,-1,-1,-1,-1,-1,-1,-1,-1,-1,-1,-1,-1,-1,-1,-1,-1],"split_conditions":[-1.6999538E0,3.0636182E-1,1.6813791E-1,2.760116E-1,-1.7025309E-2,7.5826776E-1,3.0688286E-1,-1.3237829E0,3.3061934E-1,7.0334977E-1,6.14515E-1,2.552176E-2,9.206645E-2,-9.005548E-2,1.7737721E-1,8.42408E-1,-1.8475789E-1,-9.2242405E-2,-1.1032577E-1,-2.2529066E-4,1.2409885E-1,-1.2054915E0,-7.0400584E-1,5.284995E-1,4.1957572E-4,-3.6438215E-1,-4.7386833E-2,6.627165E-2,-1.2995875E-1,2.5439116E-1,1.9804302E-1,1.4833602E-1,-8.332413E-3,2.1930636E-4,2.4387646E-2,-2.5196946E-1,-1.0265836E-1,3.1947415E-2,-7.905809E-2,-8.582706E-3,4.5437086E-2,-2.3043169E-2,-9.501317E-2,-9.0933524E-2,-1.6835384E-1,9.064852E-2,-8.268922E-2,1.3399155E-2,4.176083E-2,1.4858455E-3,-2.3335518E-2,-5.2412298E-2,7.774716E-2,-1.603561E-1,-2.5988584E-2],"split_indices":[19,0,23,0,0,59,19,46,28,33,57,1,12,13,0,31,11,40,0,0,0,3,41,0,1,25,6,2,0,6,21,0,0,0,0,0,0,0,0,0,0,0,0,0,0,0,0,0,0,0,0,0,0,0,0],"split_type":[0,0,0,0,0,0,0,0,0,0,0,0,0,0,0,0,0,0,0,0,0,0,0,0,0,0,0,0,0,0,0,0,0,0,0,0,0,0,0,0,0,0,0,0,0,0,0,0,0,0,0,0,0,0,0],"sum_hessian":[6.57E2,2E0,6.55E2,1E0,1E0,4.28E2,2.27E2,4.2E2,8E0,1.73E2,5.4E1,3E0,4.17E2,6E0,2E0,1.67E2,6E0,5E1,4E0,2E0,1E0,2.48E2,1.69E2,3E0,3E0,1.6E2,7E0,4E0,2E0,2.5E1,2.5E1,3E0,1E0,1E0,1E0,5E0,2.43E2,8E0,1.61E2,2E0,1E0,1E0,2E0,3.2E1,1.28E2,3E0,4E0,2E0,2E0,1E0,1E0,2.1E1,4E0,2E1,5E0],"tree_param":{"num_deleted":"0","num_feature":"60","num_nodes":"55","size_leaf_vector":"0"}},{"base_weights":[-2.3551801E-1,-2.0268698E-1,-3.2091972E-1,-1.7370673E-1,-3.192265E-1,-4.6543142E-1,-2.0696491E-1,8.655117E-2,-1.8820456E-1,-7.175758E-1,-2.632614E-1,-4.0939867E-2,-5.0613284E-1,-4.5179793E-1,-1.5674508E-1,5.416313E-1,-1.3158964E-1,-2.1146145E-1,-2.232604E-2,-2.3335405E-1,-7.9925245E-1,1.1808672E-1,-2.941098E-1,8.889207E-2,-1.3661745E-1,-9.337803E-1,-4.6028182E-1,-5.5962646E-1,-1.6084123E-1,3.288692E-2,-2.3811096E-1,7.723205E-1,1.7553425E-1,-2.1035893E-1,2.5360724E-1,9.89974E-2,-2.207641E-1,-1.964342E-1,1.1915848E-1,2.5850007E-1,-5.184831E-2,-3.1357792E-1,1.4444488E-1,-1.5668406E-1,-2.8175496E-2,-2.6513374E-1,-1.0144829E0,-1.606344E-1,-5.1627266E-1,-6.779311E-1,-2.584138E-1,-3.498465E-2,-1.7901562E-1,2.3006614E-1,-1.6664135E-1,-8.210306E-2,-3.1220984E-1,8.3229095E-3,2.2849704E-1,-1.0533516E-1,-3.5732996E-1,1.8463123E-1,-1.6235864E-1,-1.7715384E-1,-2.91561E-1,-3.4832317E-2,-3.4017843E-1,1.9291027E-2,3.874714E-1,3.6715722E-1,9.989527E-2,3.0326426E-2,-8.9348696E-2,-3.432742E-1,2.3939442E-2,3.8574975E-2,-4.4724253E-1,-9.870673E-1,-4.6107563E-1,4.0391824E-1,4.9187288E-2,-2.3862388E-2,-3.060114E-1,-2.742133E-1,3.353872E-2,-4.3722278E-1,-1.2818098E-1],"categories":[],"categories_nodes":[],"categories_segments":[],"categories_sizes":[],"default_left":[1,1,1,1,1,1,1,1,1,1,1,1,1,1,1,1,1,1,1,0,0,1,1,0,1,1,1,1,1,1,1,0,1,1,0,1,1,1,1,1,1,1,0,0,0,0,0,1,1,0,0,0,0,1,1,1,1,0,0,0,0,0,0,0,0,0,0,0,0,0,0,0,0,0,0,0,0,0,0,0,0,0,0,0,0,0,0],"id":2,"left_children":[1,3,5,7,9,11,13,15,17,19,21,23,25,27,29,31,33,35,37,-1,-1,39,41,-1,43,45,47,49,51,53,55,-1,57,59,-1,61,63,65,67,69,71,73,-1,-1,-1,-1,-1,75,77,-1,-1,-1,-1,79,81,83,85,-1,-1,-1,-1,-1,-1,-1,-1,-1,-1,-1,-1,-1,-1,-1,-1,-1,-1,-1,-1,-1,-1,-1,-1,-1,-1,-1,-1,-1,-1],"loss_changes":[1.7798729E0,1.558918E0,2.884344E0,1.4689617E0,1.9066944E0,1.3441925E0,1.1956167E0,2.1559756E0,1.4033833E0,2.4853706E-1,1.0229049E0,1.1152026E-1,9.8197937E-1,4.433372E-1,1.3502038E0,4.556136E-1,5.084739E-1,9.460449E-1,1.1565528E0,0E0,0E0,1.804308E-1,7.11246E-1,0E0,6.4656585E-3,5.4795265E-2,1.0411625E0,2.5243115E-1,7.4614137E-3,1.1005949E0,6.795273E-1,0E0,3.3522166E-2,1.630215E-1,0E0,2.537857E-1,9.085531E-1,4.759668E-1,6.892141E-1,3.225693E-2,1.5035965E-2,7.599435E-1,0E0,0E0,0E0,0E0,0E0,7.0239264E-1,1.0001297E0,0E0,0E0,0E0,0E0,4.2037863E-1,2.712854E-1,4.7573215E-1,8.872018E-1,0E0,0E0,0E0,0E0,0E0,0E0,0E0,0E0,0E0,0E0,0E0,0E0,0E0,0E0,0E0,0E0,0E0,0E0,0E0,0E0,0E0,0E0,0E0,0E0,0E0,0E0,0E0,0E0,0E0,0E0],"parents":[2147483647,0,0,1,1,2,2,3,3,4,4,5,5,6,6,7,7,8,8,9,9,10,10,11,11,12,12,13,13,14,14,15,15,16,16,17,17,18,18,21,21,22,22,24,24,25,25,26,26,27,27,28,28,29,29,30,30,32,32,33,33,35,35,36,36,37,37,38,38,39,39,40,40,41,41,47,47,48,48,53,53,54,54,55,55,56,56],"right_children":[2,4,6,8,10,12,14,16,18,20,22,24,26,28,30,32,34,36,38,-1,-1,40,42,-1,44,46,48,50,52,54,56,-1,58,60,-1,62,64,66,68,70,72,74,-1,-1,-1,-1,-1,76,78,-1,-1,-1,-1,80,82,84,86,-1,-1,-1,-1,-1,-1,-1,-1,-1,-1,-1,-1,-1,-1,-1,-1,-1,-1,-1,-1,-1,-1,-1,-1,-1,-1,-1,-1,-1,-1],"split_conditions":[2.4989605E-1,3.0961418E-1,-4.5746E-2,-7.2947395E-1,3.3585602E-1,-4.1391385E-1,-2.8435463E-1,-2.0410424E-1,4.2268756E-1,-6.845955E-2,-5.7888037E-1,-6.2526055E-2,-6.1434233E-1,4.2986178E-1,-1.0867003E-1,-1.5682602E-1,3.7200236E-1,-9.308193E-1,-4.4224557E-2,-7.0006214E-2,-2.3977575E-1,6.516073E-2,8.887403E-1,2.6667623E-2,2.5351852E-1,-5.378337E-1,-3.7975115E-1,-1.7136285E-1,-2.572736E-1,-4.6663556E-2,-9.035908E-2,2.3169616E-1,-2.95977E-1,6.2396005E-2,7.608218E-2,1.6714564E-1,1.2998354E-1,2.6771374E-2,5.521662E-1,-5.673401E-1,-4.105887E-2,5.668708E-1,4.3333467E-2,-4.7005218E-2,-8.452649E-3,-7.9540126E-2,-3.0434486E-1,4.4342287E-2,-5.270264E-1,-2.0337933E-1,-7.752414E-2,-1.04953945E-2,-5.370469E-2,4.1911334E-2,-1.04427844E-1,-2.756645E-1,1.835396E-1,2.496873E-3,6.854912E-2,-3.160055E-2,-1.0719899E-1,5.538937E-2,-4.8707593E-2,-5.3146154E-2,-8.7468304E-2,-1.0449695E-2,-1.0205353E-1,5.7873083E-3,1.16241425E-1,1.1014717E-1,2.9968582E-2,9.097928E-3,-2.680461E-2,-1.0298227E-1,7.181833E-3,1.1572493E-2,-1.3417277E-1,-2.961202E-1,-1.383227E-1,1.21175475E-1,1.4756187E-2,-7.1587167E-3,-9.1803424E-2,-8.2264E-2,1.0061617E-2,-1.3116685E-1,-3.8454294E-2],"split_indices":[46,58,21,2,58,57,38,58,51,1,4,2,7,30,10,6,41,38,13,0,0,10,29,0,1,2,37,54,7,51,43,0,0,6,0,15,47,52,15,0,0,40,0,0,0,0,0,58,42,0,0,0,0,3,49,31,38,0,0,0,0,0,0,0,0,0,0,0,0,0,0,0,0,0,0,0,0,0,0,0,0,0,0,0,0,0,0],"split_type":[0,0,0,0,0,0,0,0,0,0,0,0,0,0,0,0,0,0,0,0,0,0,0,0,0,0,0,0,0,0,0,0,0,0,0,0,0,0,0,0,0,0,0,0,0,0,0,0,0,0,0,0,0,0,0,0,0,0,0,0,0,0,0,0,0,0,0,0,0,0,0,0,0,0,0,0,0,0,0,0,0,0,0,0,0,0,0],"sum_hessian":[6.57E2,4.77E2,1.8E2,3.84E2,9.3E1,7.8E1,1.02E2,2E1,3.64E2,1E1,8.3E1,7E0,7.1E1,1.6E1,8.6E1,6E0,1.4E1,3.19E2,4.5E1,2E0,8E0,6E0,7.7E1,3E0,4E0,5E0,6.6E1,1.1E1,5E0,2.6E1,6E1,3E0,3E0,1.2E1,2E0,9E0,3.1E2,2E1,2.5E1,3E0,3E0,7.4E1,3E0,3E0,1E0,1E0,4E0,1.1E1,5.5E1,7E0,4E0,1E0,4E0,1.3E1,1.3E1,2E1,4E1,1E0,2E0,8E0,4E0,7E0,2E0,1.94E2,1.16E2,1E1,1E1,1.9E1,6E0,1E0,2E0,1E0,2E0,6.8E1,6E0,7E0,4E0,4E0,5.1E1,6E0,7E0,7E0,6E0,7E0,1.3E1,2.3E1,1.7E1],"tree_param":{"num_deleted":"0","num_feature":"60","num_nodes":"87","size_leaf_vector":"0"}},{"base_weights":[-1.6736093E-1,-9.9861346E-2,-1.939481E-1,-1.1914085E-1,2.9682449E-1,-1.8004763E-1,-4.1586512E-1,-6.61086E-2,-2.4841046E-1,-5.5415384E-2,5.8969945E-1,-2.0657127E-1,-9.83768E-2,-1.8183142E-1,-5.9097E-1,-3.4821448E-1,-2.873732E-2,-2.0035678E-1,-6.6004366E-1,-2.3265049E-1,4.705601E-2,6.517898E-1,1.7066911E-1,-3.266285E-2,-2.261069E-1,-2.5366675E-2,-2.7782786E-1,-4.0256653E-2,-3.4029254E-1,-7.00335E-1,-1.1513242E-1,-7.243646E-1,-1.9381325E-1,-8.1541445E-3,-3.451414E-1,-2.5100801E-2,-2.647347E-1,1.2127355E-1,-1.8107682E-2,4.644743E-2,-2.6636449E-1,1.0920686E-1,-2.3563494E-1,2.3977827E-2,-2.4079137E-1,-3.1664604E-1,2.0296322E-1,7.298909E-2,-1.7174967E-1,-3.0204558E-1,-8.61724E-1,-2.3583984E-1,1.3423963E-1,2.3028393E-1,-3.726744E-2,-4.3985498E-1,-7.223834E-2,-8.8165E-2,7.3678955E-2,-3.395168E-1,-7.070859E-2,-5.4962337E-3,-2.166529E-2,1.6533165E-1,-1.15935475E-1,-8.064458E-2,-3.4578368E-1,2.6196927E-1,-6.539693E-2,-5.0241596E-1,-2.2145432E-1,-2.0220914E-1,7.289175E-2,-4.3308195E-1,-1.0133788E-1,-6.5819725E-2,-3.7661013E-1,2.3712441E-2,2.807324E-1,3.4566633E-2,1.13339454E-1,-3.6963603E-1,-9.641474E-1],"categories":[],"categories_nodes":[],"categories_segments":[],"categories_sizes":[],"default_left":[1,1,1,1,1,1,1,1,1,1,1,1,1,1,1,1,1,1,0,0,1,0,0,1,1,1,1,1,0,1,0,0,1,1,1,1,1,0,1,1,1,1,1,1,1,1,1,1,0,0,1,0,0,0,0,0,0,0,0,0,0,0,0,0,0,0,0,0,0,0,0,0,0,0,0,0,0,0,0,0,0,0,0],"id":3,"left_children":[1,3,5,7,9,11,13,15,17,19,21,23,25,27,29,31,33,35,-1,-1,37,-1,-1,39,41,43,45,47,-1,49,-1,-1,51,53,55,57,59,-1,61,63,65,67,69,71,73,75,77,79,-1,-1,81,-1,-1,-1,-1,-1,-1,-1,-1,-1,-1,-1,-1,-1,-1,-1,-1,-1,-1,-1,-1,-1,-1,-1,-1,-1,-1,-1,-1,-1,-1,-1,-1],"loss_changes":[1.1614933E0,1.4731704E0,1.3780422E0,1.2175603E0,9.6113855E-1,9.436407E-1,9.9901533E-1,1.3499961E0,8.963413E-1,1.0175525E-1,1.884818E-2,1.1307468E0,1.4472462E0,2.7794424E-1,6.9996834E-1,7.307792E-1,7.4613476E-1,5.349206E-1,0E0,0E0,2.1541137E-2,0E0,0E0,6.59459E-1,9.8739433E-1,8.5617566E-1,6.6149735E-1,1.3166404E-1,0E0,5.1107454E-1,0E0,0E0,1.9710237E-1,7.6522934E-1,1.4915895E-1,9.370843E-2,4.8383188E-1,0E0,1.5522237E-5,5.403964E-1,1.04861975E-1,2.5718808E-1,9.971905E-1,7.449431E-1,3.5834628E-1,4.2642856E-1,3.5163708E-2,3.834037E-3,0E0,0E0,4.682684E-2,0E0,0E0,0E0,0E0,0E0,0E0,0E0,0E0,0E0,0E0,0E0,0E0,0E0,0E0,0E0,0E0,0E0,0E0,0E0,0E0,0E0,0E0,0E0,0E0,0E0,0E0,0E0,0E0,0E0,0E0,0E0,0E0],"parents":[2147483647,0,0,1,1,2,2,3,3,4,4,5,5,6,6,7,7,8,8,9,9,10,10,11,11,12,12,13,13,14,14,15,15,16,16,17,17,20,20,23,23,24,24,25,25,26,26,27,27,29,29,32,32,33,33,34,34,35,35,36,36,38,38,39,39,40,40,41,41,42,42,43,43,44,44,45,45,46,46,47,47,50,50],"right_children":[2,4,6,8,10,12,14,16,18,20,22,24,26,28,30,32,34,36,-1,-1,38,-1,-1,40,42,44,46,48,-1,50,-1,-1,52,54,56,58,60,-1,62,64,66,68,70,72,74,76,78,80,-1,-1,82,-1,-1,-1,-1,-1,-1,-1,-1,-1,-1,-1,-1,-1,-1,-1,-1,-1,-1,-1,-1,-1,-1,-1,-1,-1,-1,-1,-1,-1,-1,-1,-1],"split_conditions":[-1.8522808E-1,6.96574E-1,6.5103793E-1,1.3894197E-1,1.07595906E-1,2.6607865E-1,2.0894274E-2,-5.0565183E-1,5.0289094E-1,-2.1721452E-1,6.5033823E-1,-4.1218403E-1,1.9766802E-1,2.2737607E-2,9.3501635E-2,-3.2098696E-1,4.6542642E-1,-2.0688142E-1,-1.9801311E-1,-6.979515E-2,-4.1640323E-2,1.9553694E-1,5.1200736E-2,3.5471594E-1,-1.0595376E0,3.6789948E-1,5.3665686E-1,1.5300828E-1,-1.02087766E-1,-1.3365784E-1,-3.453973E-2,-2.1730939E-1,7.285404E-1,-3.9440733E-1,-2.5558412E-1,-2.8471535E-1,2.1955752E-1,3.6382064E-2,3.7629148E-1,1.7769176E-1,-4.586971E-1,-2.1258503E-2,-7.10716E-1,-3.345372E-1,-6.308201E-2,-3.1749278E-1,6.305894E-2,5.490474E-1,-5.1524904E-2,-9.061368E-2,-2.507293E-1,-7.075196E-2,4.027189E-2,6.908518E-2,-1.1180232E-2,-1.319565E-1,-2.1671504E-2,-2.6449502E-2,2.2103688E-2,-1.0185504E-1,-2.1212578E-2,-1.6488702E-3,-6.499587E-3,4.9599495E-2,-3.4780644E-2,-2.4193374E-2,-1.0373511E-1,7.859078E-2,-1.961908E-2,-1.507248E-1,-6.64363E-2,-6.0662746E-2,2.1867525E-2,-1.299246E-1,-3.0401366E-2,-1.9745918E-2,-1.1298304E-1,7.113733E-3,8.4219724E-2,1.036999E-2,3.400184E-2,-1.1089081E-1,-2.8924423E-1],"split_indices":[58,59,17,18,18,26,47,10,5,0,1,31,51,9,30,50,38,14,0,0,0,0,0,18,4,6,1,6,0,2,0,0,6,46,2,58,24,0,0,0,32,16,21,34,48,30,0,3,0,0,44,0,0,0,0,0,0,0,0,0,0,0,0,0,0,0,0,0,0,0,0,0,0,0,0,0,0,0,0,0,0,0,0],"split_type":[0,0,0,0,0,0,0,0,0,0,0,0,0,0,0,0,0,0,0,0,0,0,0,0,0,0,0,0,0,0,0,0,0,0,0,0,0,0,0,0,0,0,0,0,0,0,0,0,0,0,0,0,0,0,0,0,0,0,0,0,0,0,0,0,0,0,0,0,0,0,0,0,0,0,0,0,0,0,0,0,0,0,0],"sum_hessian":[6.57E2,1.87E2,4.7E2,1.79E2,8E0,4.44E2,2.6E1,1.28E2,5.1E1,4E0,4E0,3.34E2,1.1E2,1.2E1,1.4E1,1.4E1,1.14E2,4.7E1,4E0,1E0,3E0,3E0,1E0,3.4E1,3E2,7.9E1,3.1E1,7E0,5E0,1.1E1,3E0,3E0,1.1E1,1.08E2,6E0,1.3E1,3.4E1,1E0,2E0,2.6E1,8E0,8E0,2.92E2,6.5E1,1.4E1,2.9E1,2E0,4E0,3E0,4E0,7E0,1E1,1E0,1.1E1,9.7E1,4E0,2E0,8E0,5E0,2.4E1,1E1,1E0,1E0,1.5E1,1.1E1,3E0,5E0,4E0,4E0,1.3E1,2.79E2,1.1E1,5.4E1,5E0,9E0,6E0,2.3E1,1E0,1E0,3E0,1E0,2E0,5E0],"tree_param":{"num_deleted":"0","num_feature":"60","num_nodes":"83","size_leaf_vector":"0"}},{"base_weights":[-1.19599625E-1,-1.1735769E-1,-7.962742E-1,3.7363783E-1,-1.1942735E-1,-1.135223E-1,-3.3436283E-1,-3.899563E-3,-1.2529476E-1,-4.4499037E-1,2.0141322E-2,-5.0621957E-2,3.2364464E-1,9.406256E-2,-1.3131686E-1,-6.430869E-1,-1.833238E-1,2.026947E-1,-1.6912583E-1,6.8917915E-2,-1.3602604E-1,5.589578E-1,7.0665166E-2,2.558092E-1,-2.8566327E-2,1.3196513E-1,-1.3584037E-1,-1.9742368E-1,-4.9362246E-2],"categories":[],"categories_nodes":[],"categories_segments":[],"categories_sizes":[],"default_left":[1,1,0,0,1,1,1,1,1,1,1,1,1,1,1,0,1,0,0,0,0,0,0,0,0,0,0,0,0],"id":4,"left_children":[1,3,-1,-1,5,7,9,11,13,15,17,19,21,23,25,-1,27,-1,-1,-1,-1,-1,-1,-1,-1,-1,-1,-1,-1],"loss_changes":[9.047756E-1,7.1226215E-1,0E0,0E0,7.9337215E-1,8.241606E-1,6.756674E-1,9.805134E-1,7.7456474E-1,5.5596495E-1,2.0703769E-1,5.8108944E-1,4.3673635E-1,3.2466447E-1,6.8724537E-1,0E0,3.4766197E-3,0E0,0E0,0E0,0E0,0E0,0E0,0E0,0E0,0E0,0E0,0E0,0E0],"parents":[2147483647,0,0,1,1,4,4,5,5,6,6,7,7,8,8,9,9,10,10,11,11,12,12,13,13,14,14,16,16],"right_children":[2,4,-1,-1,6,8,10,12,14,16,18,20,22,24,26,-1,28,-1,-1,-1,-1,-1,-1,-1,-1,-1,-1,-1,-1],"split_conditions":[1.5338306E0,-1.6999538E0,-2.3888226E-1,1.12091355E-1,8.0181384E-1,-5.003129E-1,2.3546341E-1,3.4123906E-1,-9.162921E-1,-8.756569E-2,3.6441553E-1,4.433631E-2,-1.2752095E-1,-1.6980521E-1,-1.2247205E0,-1.9292608E-1,-1.9404134E-1,6.0808413E-2,-5.073775E-2,2.0675376E-2,-4.0807813E-2,1.6768736E-1,2.119955E-2,7.674276E-2,-8.569898E-3,3.958954E-2,-4.0752113E-2,-5.9227105E-2,-1.4808674E-2],"split_indices":[9,20,0,0,5,58,56,4,34,11,0,22,6,10,17,0,3,0,0,0,0,0,0,0,0,0,0,0,0],"split_type":[0,0,0,0,0,0,0,0,0,0,0,0,0,0,0,0,0,0,0,0,0,0,0,0,0,0,0,0,0],"sum_hessian":[6.57E2,6.56E2,1E0,2E0,6.54E2,6.38E2,1.6E1,6.2E1,5.76E2,1.2E1,4E0,5.5E1,7E0,1.5E1,5.61E2,6E0,6E0,2E0,2E0,2.3E1,3.2E1,3E0,4E0,6E0,9E0,9E0,5.52E2,5E0,1E0],"tree_param":{"num_deleted":"0","num_feature":"60","num_nodes":"29","size_leaf_vector":"0"}},{"base_weights":[-8.394454E-2,-6.32893E-2,-1.3802885E-1,-7.151883E-2,1.19206674E-1,-2.3043647E-1,-6.894868E-2,-3.6838837E-2,-1.5509702E-1,3.6350772E-1,4.034126E-2,-4.9606922E-1,-1.8338577E-1,-2.5078857E-1,-3.3440504E-2,-1.4070523E-2,-1.647977E-1,-1.7858917E-1,1.23823196E-1,-7.9213545E-2,1.8474211E-1,-9.217893E-2,-6.3600576E-1,-2.890336E-1,-1.0012494E-1,-3.529214E-2,-3.6512372E-1,1.5113348E-1,-6.700097E-2,-4.650293E-3,-3.7675792E-1,-4.0193883E-1,-6.799843E-2,-1.466455E-1,-4.0093678E-1,2.3163107E-1,-5.187248E-2,-1.7275305E-1,4.8876584E-2,6.596081E-2,2.4281873E-1,3.0706197E-2,-1.4337605E-1,-5.657238E-2,-3.9081255E-1,-1.5962528E-1,1.752746E-2,1.2728839E-1,-8.360363E-2,-1.5834856E-1,-4.6065974E-1,2.2260545E-1,-2.2037148E-2,5.1566005E-2,-1.1942751E-1,9.252746E-3,-2.6053128E-1,2.9009208E-3,-4.4051787E-1,-1.9622886E-1,-7.32971E-1,-2.9381076E-1,7.0126215E-3,-9.7790144E-2,-2.797315E-1,4.687504E-2,-4.7343665E-1,2.7637526E-2,2.6102376E-1,2.7342563E-2,-1.13796696E-1,8.371132E-2,-2.2503447E-3,5.5990458E-2,-1.803333E-1,-6.596906E-1,-2.8236234E-1,6.3074976E-2,-2.0298328E-1,1.634595E-1,-8.170806E-2,-1.0482074E-1,-2.7446264E-2,-1.7483845E-1,-4.6194494E-2,2.4785233E-1,-2.3082495E-3,-6.294251E-2,2.6213929E-2,1.7855117E-1,-3.6528505E-2,-1.8963654E-1,1.619059E-2],"categories":[],"categories_nodes":[],"categories_segments":[],"categories_sizes":[],"default_left":[1,1,1,1,1,1,1,1,1,0,1,1,1,1,1,1,1,1,1,1,1,1,0,1,1,1,1,1,1,1,1,1,1,1,1,1,1,0,1,0,0,0,0,1,1,1,1,0,1,1,0,1,1,1,1,0,0,0,0,0,0,0,0,0,0,0,0,0,0,0,0,0,0,0,0,0,0,0,0,0,0,0,0,0,0,0,0,0,0,0,0,0,0],"id":5,"left_children":[1,3,5,7,9,11,13,15,17,-1,19,21,23,25,27,29,31,33,35,37,39,41,-1,43,45,47,49,51,53,55,57,59,61,63,65,67,69,-1,71,-1,-1,-1,-1,73,75,77,79,-1,81,83,-1,85,87,89,91,-1,-1,-1,-1,-1,-1,-1,-1,-1,-1,-1,-1,-1,-1,-1,-1,-1,-1,-1,-1,-1,-1,-1,-1,-1,-1,-1,-1,-1,-1,-1,-1,-1,-1,-1,-1,-1,-1],"loss_changes":[7.263317E-1,7.26413E-1,1.1395316E0,1.3217955E0,3.899406E-1,8.7138987E-1,6.695777E-1,9.445386E-1,9.001396E-1,0E0,3.0811894E-1,5.6308246E-1,5.6041455E-1,4.059739E-1,5.6142664E-1,9.446458E-1,1.0974679E0,8.219266E-1,2.2037044E-1,1.2825847E-1,3.917077E-2,2.956799E-2,0E0,6.640208E-1,2.758117E-1,6.562332E-2,1.4435434E-1,1.7818144E-1,4.7857863E-1,9.664994E-1,1.7072707E-1,8.095226E-1,6.1184347E-1,6.8786097E-1,5.09187E-1,3.4757376E-2,2.7638141E-2,0E0,9.093344E-3,0E0,0E0,0E0,0E0,1.4940575E-1,3.9692593E-1,2.6385498E-1,2.1609893E-1,0E0,4.2720437E-3,1.1704713E-3,0E0,5.735582E-2,1.151861E-2,2.7500293E-1,5.07716E-1,0E0,0E0,0E0,0E0,0E0,0E0,0E0,0E0,0E0,0E0,0E0,0E0,0E0,0E0,0E0,0E0,0E0,0E0,0E0,0E0,0E0,0E0,0E0,0E0,0E0,0E0,0E0,0E0,0E0,0E0,0E0,0E0,0E0,0E0,0E0,0E0,0E0,0E0],"parents":[2147483647,0,0,1,1,2,2,3,3,4,4,5,5,6,6,7,7,8,8,10,10,11,11,12,12,13,13,14,14,15,15,16,16,17,17,18,18,19,19,20,20,21,21,23,23,24,24,25,25,26,26,27,27,28,28,29,29,30,30,31,31,32,32,33,33,34,34,35,35,36,36,38,38,43,43,44,44,45,45,46,46,48,48,49,49,51,51,52,52,53,53,54,54],"right_children":[2,4,6,8,10,12,14,16,18,-1,20,22,24,26,28,30,32,34,36,38,40,42,-1,44,46,48,50,52,54,56,58,60,62,64,66,68,70,-1,72,-1,-1,-1,-1,74,76,78,80,-1,82,84,-1,86,88,90,92,-1,-1,-1,-1,-1,-1,-1,-1,-1,-1,-1,-1,-1,-1,-1,-1,-1,-1,-1,-1,-1,-1,-1,-1,-1,-1,-1,-1,-1,-1,-1,-1,-1,-1,-1,-1,-1,-1],"split_conditions":[2.4989605E-1,7.254134E-1,-4.666547E-2,1.7829356E-1,-3.566308E-1,-4.9923417E-1,-2.7544242E-1,3.8251805E-1,6.004359E-1,1.0905232E-1,1.6050869E-1,3.635041E-1,-4.20534E-2,-8.679189E-2,-3.297717E-1,8.2684743E-1,-1.3018332E-1,3.1437987E-1,-8.421053E-2,3.4939086E-1,6.516073E-2,-2.2960134E-2,-1.9080174E-1,-2.5500143E-1,8.864039E-2,-2.503708E-1,6.3322306E-2,2.2308332E-1,-1.09095946E-1,6.8798995E-1,-7.654534E-1,2.890576E-1,-1.7740616E-1,2.7199805E-1,-3.4138227E-1,-4.068499E-2,-8.6088836E-2,-5.182592E-2,-1.3903606E-1,1.9788243E-2,7.284562E-2,9.21186E-3,-4.3012816E-2,2.9879943E-1,-1.5504009E-1,-3.8211936E-1,4.2680323E-2,3.8186517E-2,4.9602878E-1,8.3734035E-2,-1.3819793E-1,6.5229917E-1,-1.3679947E-1,-6.874427E-2,4.599817E-2,2.7758237E-3,-7.8159384E-2,8.702763E-4,-1.3215537E-1,-5.886866E-2,-2.1989131E-1,-8.814323E-2,2.1037864E-3,-2.9337045E-2,-8.391946E-2,1.4062513E-2,-1.42031E-1,8.2912585E-3,7.830713E-2,8.20277E-3,-3.413901E-2,2.5113396E-2,-6.7510345E-4,1.6797138E-2,-5.4099992E-2,-1.979072E-1,-8.4708706E-2,1.8922493E-2,-6.0894985E-2,4.903785E-2,-2.451242E-2,-3.1446226E-2,-8.23388E-3,-5.245154E-2,-1.3858349E-2,7.43557E-2,-6.924749E-4,-1.8882755E-2,7.864179E-3,5.3565353E-2,-1.0958552E-2,-5.6890965E-2,4.8571774E-3],"split_indices":[46,31,21,31,27,54,22,11,24,0,5,46,42,43,47,30,0,24,26,11,9,0,0,18,49,1,42,25,10,17,4,1,36,42,30,0,0,0,10,0,0,0,0,5,35,37,32,0,0,1,0,3,3,51,17,0,0,0,0,0,0,0,0,0,0,0,0,0,0,0,0,0,0,0,0,0,0,0,0,0,0,0,0,0,0,0,0,0,0,0,0,0,0],"split_type":[0,0,0,0,0,0,0,0,0,0,0,0,0,0,0,0,0,0,0,0,0,0,0,0,0,0,0,0,0,0,0,0,0,0,0,0,0,0,0,0,0,0,0,0,0,0,0,0,0,0,0,0,0,0,0,0,0,0,0,0,0,0,0,0,0,0,0,0,0,0,0,0,0,0,0,0,0,0,0,0,0,0,0,0,0,0,0,0,0,0,0,0,0],"sum_hessian":[6.57E2,4.77E2,1.8E2,4.57E2,2E1,7.6E1,1.04E2,3.24E2,1.33E2,4E0,1.6E1,1E1,6.6E1,1.6E1,8.8E1,2.76E2,4.8E1,1.23E2,1E1,9E0,7E0,3E0,7E0,2.8E1,3.8E1,6E0,1E1,1.3E1,7.5E1,2.7E2,6E0,1.3E1,3.5E1,1.09E2,1.4E1,6E0,4E0,5E0,4E0,3E0,4E0,1E0,2E0,9E0,1.9E1,2.5E1,1.3E1,1E0,5E0,4E0,6E0,9E0,4E0,2.3E1,5.2E1,2.57E2,1.3E1,1E0,5E0,9E0,4E0,8E0,2.7E1,8.1E1,2.8E1,2E0,1.2E1,1E0,5E0,2E0,2E0,2E0,2E0,5E0,4E0,4E0,1.5E1,4E0,2.1E1,5E0,8E0,3E0,2E0,3E0,1E0,8E0,1E0,2E0,2E0,9E0,1.4E1,3.4E1,1.8E1],"tree_param":{"num_deleted":"0","num_feature":"60","num_nodes":"93","size_leaf_vector":"0"}},{"base_weights":[-6.0725436E-2,-5.90479E-2,-5.814322E-1,-2.677978E-2,-8.526977E-2,-6.749403E-2,1.8455701E-2,-9.411216E-2,1.8047583E-1,-8.559415E-2,1.0835334E-1,1.4475489E-1,-2.6225496E-2,-8.696754E-2,-4.3279502E-1,-2.4906578E-2,3.3073565E-1,-1.0026151E-1,1.1804115E-1,2.4516118E-1,-1.0092016E-2,-2.4870683E-2,1.9240576E-1,1.3731881E-2,-2.201157E-1,-1.002745E-1,9.5191166E-2,-7.569257E-1,-1.517576E-1,-7.170157E-2,4.5788944E-2,1.3546638E-1,3.8175008E-1,-1.8407354E-1,-6.604152E-2,2.194024E-1,-8.885132E-2,3.0748662E-2,-1.6840872E-1,-6.827472E-2,2.3507489E-2,2.9585293E-1,1.01981126E-1,2.0422944E-1,-2.5068056E-2,-4.2326528E-1,-1.5269519E-2,-1.8996313E-1,-7.414758E-2,1.7209995E-1,-1.642185E-1,-1.7067307E-1,-3.8047835E-2],"categories":[],"categories_nodes":[],"categories_segments":[],"categories_sizes":[],"default_left":[1,1,0,1,1,1,1,1,1,1,1,1,1,1,1,1,1,1,1,0,1,1,1,1,1,1,1,0,1,0,0,0,0,0,0,0,0,0,0,0,0,0,0,0,0,0,0,0,0,0,0,0,0],"id":6,"left_children":[1,3,-1,5,7,9,11,13,15,17,19,21,23,25,27,29,31,33,35,-1,37,39,41,43,45,47,49,-1,51,-1,-1,-1,-1,-1,-1,-1,-1,-1,-1,-1,-1,-1,-1,-1,-1,-1,-1,-1,-1,-1,-1,-1,-1],"loss_changes":[5.404322E-1,5.5362415E-1,0E0,5.463974E-1,8.676219E-1,5.058002E-1,7.994873E-1,8.1169605E-1,3.7856618E-1,4.3595958E-1,2.4553797E-1,3.038491E-1,8.164937E-1,8.458178E-1,5.227808E-1,2.313232E-2,1.8016517E-2,3.692937E-1,2.2920297E-1,0E0,6.33702E-2,2.0503238E-2,2.410996E-1,6.5555346E-1,7.425965E-1,7.40453E-1,5.070831E-1,0E0,4.2606294E-3,0E0,0E0,0E0,0E0,0E0,0E0,0E0,0E0,0E0,0E0,0E0,0E0,0E0,0E0,0E0,0E0,0E0,0E0,0E0,0E0,0E0,0E0,0E0,0E0],"parents":[2147483647,0,0,1,1,3,3,4,4,5,5,6,6,7,7,8,8,9,9,10,10,11,11,12,12,13,13,14,14,15,15,16,16,17,17,18,18,20,20,21,21,22,22,23,23,24,24,25,25,26,26,28,28],"right_children":[2,4,-1,6,8,10,12,14,16,18,20,22,24,26,28,30,32,34,36,-1,38,40,42,44,46,48,50,-1,52,-1,-1,-1,-1,-1,-1,-1,-1,-1,-1,-1,-1,-1,-1,-1,-1,-1,-1,-1,-1,-1,-1,-1,-1],"split_conditions":[1.5338306E0,-4.243597E-2,-1.7442967E-1,4.1964386E-2,7.98092E-1,5.66548E-1,-2.5768292E-1,6.651976E-1,1.0992101E-1,5.819866E-1,-2.1839404E-1,-3.3227926E-1,3.9025706E-1,4.206166E-1,3.1783187E-1,2.668051E-1,-6.650214E-2,-1.9316828E-1,2.656886E-1,7.3548354E-2,2.0911753E-2,-1.0984625E-1,1.3107732E-1,-3.7391356E-1,-1.5990973E-1,-2.5380713E-1,3.593897E-1,-2.2707772E-1,3.2301694E-1,-2.1510473E-2,1.3736684E-2,4.0639915E-2,1.1452503E-1,-5.5222064E-2,-1.9812457E-2,6.5820724E-2,-2.6655396E-2,9.224599E-3,-5.0522618E-2,-2.0482417E-2,7.052247E-3,8.875588E-2,3.059434E-2,6.1268836E-2,-7.520417E-3,-1.2697959E-1,-4.580856E-3,-5.6988943E-2,-2.2244275E-2,5.1629987E-2,-4.9265552E-2,-5.1201925E-2,-1.1414351E-2],"split_indices":[9,34,0,2,21,40,53,21,59,9,14,17,23,21,34,6,4,30,40,0,2,44,12,17,43,35,18,0,2,0,0,0,0,0,0,0,0,0,0,0,0,0,0,0,0,0,0,0,0,0,0,0,0],"split_type":[0,0,0,0,0,0,0,0,0,0,0,0,0,0,0,0,0,0,0,0,0,0,0,0,0,0,0,0,0,0,0,0,0,0,0,0,0,0,0,0,0,0,0,0,0,0,0,0,0,0,0,0,0],"sum_hessian":[6.57E2,6.56E2,1E0,2.95E2,3.61E2,1.55E2,1.4E2,3.5E2,1.1E1,1.41E2,1.4E1,3.6E1,1.04E2,3.44E2,6E0,5E0,6E0,1.32E2,9E0,6E0,8E0,8E0,2.8E1,8.7E1,1.7E1,3.21E2,2.3E1,2E0,4E0,3E0,2E0,2E0,4E0,3.7E1,9.5E1,6E0,3E0,7E0,1E0,4E0,4E0,1.2E1,1.6E1,1.4E1,7.3E1,8E0,9E0,7.1E1,2.5E2,1.8E1,5E0,3E0,1E0],"tree_param":{"num_deleted":"0","num_feature":"60","num_nodes":"53","size_leaf_vector":"0"}},{"base_weights":[-4.3068763E-2,-4.1237544E-2,-4.291395E-1,-4.669356E-2,8.7596856E-2,-1.4374533E-1,-3.7713565E-2,-1.5562524E-1,1.3666266E-1,-8.734778E-2,-5.018795E-1,-1.6527247E-1,-2.9934889E-2,-2.1334219E-1,3.7621267E-2,2.166052E-1,4.533157E-2,-2.7793097E-1,-3.4895685E-2,-2.1267635E-1,-6.656128E-1,-2.1159512E-1,2.234655E-1,-2.5619107E-1,-2.6094293E-2,2.7384308E-1,8.170358E-2,-2.0669544E-2,1.4186704E-1,-3.534878E-1,-1.3167661E-1,8.965058E-3,-2.3041683E-1,-1.3801594E-1,-4.336387E-1,5.724105E-2,2.597933E-1,7.1903355E-2,-3.6020425E-1,-7.234806E-2,-5.43955E-3,-5.65701E-3,1.0495798E-1,-5.7663668E-2,1.3059663E-2,4.3383837E-2,1.5564188E-1],"categories":[],"categories_nodes":[],"categories_segments":[],"categories_sizes":[],"default_left":[1,1,0,1,1,1,1,1,1,1,1,1,1,0,0,1,1,1,1,0,0,1,1,1,1,0,1,1,1,0,0,0,0,0,0,0,0,0,0,0,0,0,0,0,0,0,0],"id":7,"left_children":[1,3,-1,5,7,9,11,13,15,17,19,21,23,-1,-1,25,27,29,31,-1,-1,33,35,37,39,-1,41,43,45,-1,-1,-1,-1,-1,-1,-1,-1,-1,-1,-1,-1,-1,-1,-1,-1,-1,-1],"loss_changes":[4.4749677E-1,4.6520758E-1,0E0,5.436392E-1,3.4348312E-1,1.0266501E0,5.6856704E-1,6.379418E-2,1.5810946E-1,4.6013635E-1,1.8990529E-1,6.415275E-1,4.6776626E-1,0E0,0E0,7.028377E-2,7.9389706E-2,6.395906E-2,3.279424E-1,0E0,0E0,4.302845E-1,9.283423E-3,3.3303517E-1,5.135899E-1,0E0,1.0751337E-2,1.0735327E-2,3.0614436E-5,0E0,0E0,0E0,0E0,0E0,0E0,0E0,0E0,0E0,0E0,0E0,0E0,0E0,0E0,0E0,0E0,0E0,0E0],"parents":[2147483647,0,0,1,1,3,3,4,4,5,5,6,6,7,7,8,8,9,9,10,10,11,11,12,12,15,15,16,16,17,17,18,18,21,21,22,22,23,23,24,24,26,26,27,27,28,28],"right_children":[2,4,-1,6,8,10,12,14,16,18,20,22,24,-1,-1,26,28,30,32,-1,-1,34,36,38,40,-1,42,44,46,-1,-1,-1,-1,-1,-1,-1,-1,-1,-1,-1,-1,-1,-1,-1,-1,-1,-1],"split_conditions":[1.2691524E0,7.3308134E-1,-1.2874186E-1,-5.355786E-1,-4.9473825E-1,3.4295207E-1,-6.7628956E-1,4.1876048E-2,-1.1433144E-1,-2.2686255E-1,1.3381061E-1,4.6051398E-1,-1.2772993E0,-6.400266E-2,1.1286381E-2,-2.1098554E-3,1.7555986E-1,-1.06346115E-1,3.6362743E-1,-6.3802905E-2,-1.9968386E-1,1.3752213E-1,-6.92064E-1,-5.30324E-1,-1.6981661E-1,8.2152925E-2,-8.5506625E-2,-7.187845E-2,-4.603204E-1,-1.0604634E-1,-3.9502986E-2,2.6895176E-3,-6.9125056E-2,-4.1404784E-2,-1.3009161E-1,1.7172316E-2,7.7938E-2,2.1571007E-2,-1.0806128E-1,-2.1704419E-2,-1.6318652E-3,-1.697103E-3,3.1487398E-2,-1.72991E-2,3.917899E-3,1.3015152E-2,4.6692565E-2],"split_indices":[30,41,0,39,37,9,56,1,10,55,13,30,59,0,0,29,55,18,7,0,0,23,0,6,4,0,1,40,1,0,0,0,0,0,0,0,0,0,0,0,0,0,0,0,0,0,0],"split_type":[0,0,0,0,0,0,0,0,0,0,0,0,0,0,0,0,0,0,0,0,0,0,0,0,0,0,0,0,0,0,0,0,0,0,0,0,0,0,0,0,0,0,0,0,0,0,0],"sum_hessian":[6.57E2,6.55E2,2E0,6.29E2,2.6E1,5.2E1,5.77E2,4E0,2.2E1,4.6E1,6E0,3.2E1,5.45E2,3E0,1E0,1.1E1,1.1E1,9E0,3.7E1,3E0,3E0,2.9E1,3E0,8E0,5.37E2,7E0,4E0,7E0,4E0,5E0,4E0,3.1E1,6E0,2.3E1,6E0,1E0,2E0,2E0,6E0,1.65E2,3.72E2,1E0,3E0,3E0,4E0,1E0,3E0],"tree_param":{"num_deleted":"0","num_feature":"60","num_nodes":"47","size_leaf_vector":"0"}},{"base_weights":[-3.1188974E-2,-2.3591582E-2,-1.06516466E-1,-3.566165E-2,3.62753E-2,-3.7737485E-2,-2.933001E-1,2.1667827E-2,-5.8078904E-2,-2.4073958E-1,5.3210862E-2,1.5263869E-1,-6.535047E-2,-5.901525E-1,-5.6173366E-2,-1.16760164E-1,5.7001844E-2,-1.2624802E-1,-4.286171E-2,-2.9708505E-1,2.0493872E-2,2.1537356E-2,2.1023232E-1,3.1281512E-2,1.7065382E-1,-1.1130171E-1,3.8648393E-2,2.3175892E-1,-1.1391683E-1,-3.1233069E-2,-2.3532079E-1,1.122403E-1,-5.0687537E-2,-2.2146817E-1,-1.466889E-2,-3.3303067E-1,-3.7728697E-2,-3.3720016E-2,9.154574E-2,-1.0876483E-1,2.6357225E-1,-1.9491585E-1,-1.37650175E-2,-1.8021293E-2,1.7066051E-1,-1.7129046E-1,-3.3759847E-2,3.1530626E-2,-2.007248E-1,-1.6179165E-1,-3.4193116E-1,-6.426644E-2,1.3728313E-1,-1.8885553E-1,3.4240764E-2,-1.2893935E-1,-3.8807014E-1,-1.692299E-1,4.6449278E-2,-3.666547E-1,-9.9267274E-2,-3.801782E-1,-3.4043312E-2,-2.3656884E-1,-1.4066172E-2,2.1163979E-1,-4.3138107E-3,3.3564663E-1,-5.253535E-4,-5.16322E-2,-2.1298778E-1,-9.19529E-2,7.7558994E-2,-4.3896057E-2,3.1764865E-2,-4.8084594E-3,-3.9795578E-2],"categories":[],"categories_nodes":[],"categories_segments":[],"categories_sizes":[],"default_left":[1,1,1,1,1,1,1,1,1,1,1,1,1,0,1,1,1,1,1,0,0,1,1,0,0,1,1,0,1,1,1,1,1,1,1,1,1,1,1,0,1,1,1,1,0,0,1,0,0,0,0,0,0,0,0,0,0,0,0,0,0,0,0,0,0,0,0,0,0,0,0,0,0,0,0,0,0],"id":8,"left_children":[1,3,5,7,9,11,13,15,17,19,21,23,25,-1,27,29,31,33,35,-1,-1,37,39,-1,-1,41,43,-1,45,47,49,51,53,55,57,59,61,63,65,-1,67,69,71,73,-1,-1,75,-1,-1,-1,-1,-1,-1,-1,-1,-1,-1,-1,-1,-1,-1,-1,-1,-1,-1,-1,-1,-1,-1,-1,-1,-1,-1,-1,-1,-1,-1],"loss_changes":[3.7405562E-1,4.3412942E-1,7.597388E-1,6.42558E-1,4.866416E-1,2.4653351E-1,1.0931153E0,6.9631714E-1,3.6699474E-1,9.440437E-2,4.729205E-1,7.7792704E-3,1.9545673E-1,0E0,1.9266334E-1,2.867144E-1,6.778804E-1,6.873491E-1,4.2682016E-1,0E0,0E0,3.1643376E-1,3.0091202E-1,0E0,0E0,2.2566944E-1,1.0032964E-1,0E0,3.560733E-2,1.9781166E-1,3.874606E-2,3.4033984E-1,4.641071E-1,4.8950446E-1,3.0070162E-1,2.903521E-3,3.5431674E-1,1.8006329E-1,4.1535076E-1,0E0,2.666617E-1,2.7844131E-2,1.0709781E-1,1.4276403E-2,0E0,0E0,6.8235863E-4,0E0,0E0,0E0,0E0,0E0,0E0,0E0,0E0,0E0,0E0,0E0,0E0,0E0,0E0,0E0,0E0,0E0,0E0,0E0,0E0,0E0,0E0,0E0,0E0,0E0,0E0,0E0,0E0,0E0,0E0],"parents":[2147483647,0,0,1,1,2,2,3,3,4,4,5,5,6,6,7,7,8,8,9,9,10,10,11,11,12,12,14,14,15,15,16,16,17,17,18,18,21,21,22,22,25,25,26,26,28,28,29,29,30,30,31,31,32,32,33,33,34,34,35,35,36,36,37,37,38,38,40,40,41,41,42,42,43,43,46,46],"right_children":[2,4,6,8,10,12,14,16,18,20,22,24,26,-1,28,30,32,34,36,-1,-1,38,40,-1,-1,42,44,-1,46,48,50,52,54,56,58,60,62,64,66,-1,68,70,72,74,-1,-1,76,-1,-1,-1,-1,-1,-1,-1,-1,-1,-1,-1,-1,-1,-1,-1,-1,-1,-1,-1,-1,-1,-1,-1,-1,-1,-1,-1,-1,-1,-1],"split_conditions":[5.339328E-1,2.6619315E-1,2.0924926E-1,-1.8522808E-1,-7.135494E-1,-5.4744357E-1,6.542557E-2,-3.2798815E-1,-3.2117462E-1,1.4622974E-1,3.230938E-1,-2.745244E-1,-4.6824932E-2,-1.7704576E-1,-3.378529E-1,2.0938024E-2,1.9642988E-1,8.4423885E-2,-1.1797225E0,-8.9125514E-2,6.148162E-3,1.2664387E-1,-3.1637388E-1,9.384454E-3,5.1196147E-2,-2.1720244E-2,1.7242746E-1,6.952768E-2,2.1505376E-2,4.1742462E-1,1.6980149E-1,-3.69318E-1,-1.8906918E-1,6.491061E-2,-2.6156157E-1,2.1331158E-1,-1.3579268E0,-3.492077E-1,-4.4423968E-2,-3.262945E-2,3.0667716E-1,-1.5670103E-1,2.313351E-1,1.2802288E-1,5.1198155E-2,-5.138714E-2,-2.1656722E-2,9.459188E-3,-6.021744E-2,-4.8537496E-2,-1.02579355E-1,-1.9279934E-2,4.118494E-2,-5.6656662E-2,1.0272229E-2,-3.8681805E-2,-1.16421044E-1,-5.076897E-2,1.3934784E-2,-1.09996416E-1,-2.9780183E-2,-1.14053465E-1,-1.0212994E-2,-7.0970654E-2,-4.219852E-3,6.349194E-2,-1.2941433E-3,1.0069399E-1,-1.5760605E-4,-1.548966E-2,-6.3896336E-2,-2.758587E-2,2.32677E-2,-1.3168817E-2,9.52946E-3,-1.4425379E-3,-1.1938673E-2],"split_indices":[5,5,2,58,7,20,25,16,15,0,55,0,2,0,8,9,38,35,16,0,0,26,44,0,0,41,50,0,59,59,31,33,45,7,31,0,49,33,41,0,0,23,20,10,0,0,0,0,0,0,0,0,0,0,0,0,0,0,0,0,0,0,0,0,0,0,0,0,0,0,0,0,0,0,0,0,0],"split_type":[0,0,0,0,0,0,0,0,0,0,0,0,0,0,0,0,0,0,0,0,0,0,0,0,0,0,0,0,0,0,0,0,0,0,0,0,0,0,0,0,0,0,0,0,0,0,0,0,0,0,0,0,0,0,0,0,0,0,0,0,0,0,0,0,0,0,0,0,0,0,0,0,0,0,0,0,0],"sum_hessian":[6.57E2,5.98E2,5.9E1,4.98E2,1E2,4.4E1,1.5E1,1.4E2,3.58E2,5E0,9.5E1,5E0,3.9E1,6E0,9E0,2.8E1,1.12E2,6.4E1,2.94E2,4E0,1E0,8E1,1.5E1,1E0,4E0,2.7E1,1.2E1,1E0,8E0,1.7E1,1.1E1,7.4E1,3.8E1,3.4E1,3E1,4E0,2.9E2,4.5E1,3.5E1,2E0,1.3E1,1.4E1,1.3E1,9E0,3E0,4E0,4E0,1.3E1,4E0,8E0,3E0,9E0,6.5E1,1.4E1,2.4E1,2.3E1,1.1E1,8E0,2.2E1,3E0,1E0,2E0,2.88E2,3E0,4.2E1,1.5E1,2E1,1E1,3E0,2E0,1.2E1,7E0,6E0,6E0,3E0,1E0,3E0],"tree_param":{"num_deleted":"0","num_feature":"60","num_nodes":"77","size_leaf_vector":"0"}},{"base_weights":[-2.3136612E-2,4.79023E-2,-2.9311405E-2,-5.4570496E-2,1.7399737E-1,-4.2770498E-2,7.2232834E-3,-1.3363901E-1,9.4151385E-2,1.0511516E-1,3.262663E-1,-3.6888007E-2,-2.2039203E-1,-3.0189246E-1,1.4858312E-2,-5.956745E-2,-2.1755229E-1,-5.1176534E-3,1.5160765E-1,1.9582975E-1,4.3438718E-2,9.0356104E-2,3.505253E-1,-4.206667E-2,1.1999715E-1,-9.357678E-2,-4.2994413E-1,-3.4395313E-1,-8.7855175E-2,4.0734544E-2,-6.7132324E-2,-1.10707894E-1,1.0024304E-2,-2.3941258E-1,-2.1335036E-2,3.454536E-2,-4.307478E-2,5.118286E-2,2.114071E-1,7.2181545E-2,-3.209231E-2,-1.915125E-1,-3.6783732E-2,3.794534E-1,1.47405965E-2,-1.4278802E-1,1.5937082E-2,-1.2354601E-1,-4.7565717E-1,-1.5105337E-1,5.361014E-2,-1.02537E-1,1.4468287E-1,-2.413336E-2,5.222642E-2,-7.8122504E-3,-5.679992E-2,1.501213E-2,9.8264225E-2,-6.0050838E-2,-2.755858E-3,-3.212766E-1,-5.402984E-2,-5.6811556E-2,1.8075276E-3,-7.6298125E-2,5.841738E-2,-3.7797656E-2,-1.7722464E-1,2.8395105E-2,-1.0718491E-2,-2.3518226E-1,-8.12893E-3,9.109536E-2,-2.5730452E-2,-4.8438992E-2,-2.275283E-1,9.948567E-3,1.6964E-1],"categories":[],"categories_nodes":[],"categories_segments":[],"categories_sizes":[],"default_left":[1,1,1,1,1,1,1,1,1,1,1,1,1,1,1,1,1,1,0,1,1,0,0,1,1,1,1,0,0,1,1,0,1,0,0,0,1,0,0,1,1,1,1,0,1,1,1,0,0,1,1,1,1,0,0,0,0,0,0,0,0,0,0,0,0,0,0,0,0,0,0,0,0,0,0,0,0,0,0],"id":9,"left_children":[1,3,5,7,9,11,13,15,17,19,21,23,25,27,29,31,33,35,-1,37,39,-1,-1,41,43,45,47,-1,-1,49,51,-1,53,-1,-1,-1,55,-1,-1,57,59,61,63,-1,65,67,69,-1,-1,71,73,75,77,-1,-1,-1,-1,-1,-1,-1,-1,-1,-1,-1,-1,-1,-1,-1,-1,-1,-1,-1,-1,-1,-1,-1,-1,-1,-1],"loss_changes":[2.9003626E-1,6.943248E-1,2.9829353E-1,3.6535883E-1,2.174313E-1,4.5474207E-1,3.9154324E-1,1.1135271E-1,6.3515775E-2,9.220256E-2,8.388579E-3,3.544039E-1,3.318088E-1,5.7921708E-3,3.443136E-1,4.381721E-2,3.349641E-2,9.015502E-3,0E0,4.952073E-3,2.8368173E-2,0E0,0E0,3.2218248E-1,3.767392E-1,5.6168757E-2,1.126641E-2,0E0,0E0,3.1183207E-1,3.07306E-1,0E0,9.909553E-3,0E0,0E0,0E0,1.008214E-3,0E0,0E0,1.1945028E-2,3.1153248E-3,2.324059E-1,3.1235385E-1,0E0,4.8196197E-2,1.8609911E-2,1.6326555E-3,0E0,0E0,9.428081E-2,3.4733942E-1,2.1887931E-1,1.8487826E-2,0E0,0E0,0E0,0E0,0E0,0E0,0E0,0E0,0E0,0E0,0E0,0E0,0E0,0E0,0E0,0E0,0E0,0E0,0E0,0E0,0E0,0E0,0E0,0E0,0E0,0E0],"parents":[2147483647,0,0,1,1,2,2,3,3,4,4,5,5,6,6,7,7,8,8,9,9,10,10,11,11,12,12,13,13,14,14,15,15,16,16,17,17,19,19,20,20,23,23,24,24,25,25,26,26,29,29,30,30,32,32,36,36,39,39,40,40,41,41,42,42,44,44,45,45,46,46,49,49,50,50,51,51,52,52],"right_children":[2,4,6,8,10,12,14,16,18,20,22,24,26,28,30,32,34,36,-1,38,40,-1,-1,42,44,46,48,-1,-1,50,52,-1,54,-1,-1,-1,56,-1,-1,58,60,62,64,-1,66,68,70,-1,-1,72,74,76,78,-1,-1,-1,-1,-1,-1,-1,-1,-1,-1,-1,-1,-1,-1,-1,-1,-1,-1,-1,-1,-1,-1,-1,-1,-1,-1],"split_conditions":[-5.4575944E-1,1.3935247E-1,2.290971E-1,4.3133266E-2,2.2453034E-1,1.9859219E-1,-1.3822643E0,-1.4121383E-1,-2.1720244E-2,-1.9181412E-1,-5.130359E-1,6.8139964E-1,1.0455887E-1,3.0941302E-1,2.4385658E-1,8.977694E-2,5.820192E-1,1.683915E-1,4.5482296E-2,-8.568474E-1,1.5360701E-1,2.7106833E-2,1.0515759E-1,-7.848705E-1,-2.7066582E-1,-1.4750049E-1,-4.9134785E-1,-1.03185944E-1,-2.6356554E-2,-7.445307E-1,3.9719117E-1,-3.321237E-2,8.8552706E-2,-7.1823776E-2,-6.400511E-3,1.0363608E-2,1.0521445E0,1.5354858E-2,6.342213E-2,-2.1294814E-1,-4.0033972E-1,-2.0817748E-1,1.7123291E-1,1.1383602E-1,-2.685169E-1,-2.0911753E-2,-2.084139E-2,-3.7063804E-2,-1.4269716E-1,2.2946306E-2,1.7717516E-1,2.5402313E-1,-4.912356E-1,-7.240008E-3,1.5667927E-2,-2.3436751E-3,-1.7039977E-2,4.5036394E-3,2.9479269E-2,-1.8015252E-2,-8.2675746E-4,-9.638298E-2,-1.6208952E-2,-1.7043468E-2,5.422583E-4,-2.2889439E-2,1.7525215E-2,-1.13392975E-2,-5.316739E-2,8.518532E-3,-3.2155474E-3,-7.055468E-2,-2.438679E-3,2.7328609E-2,-7.719136E-3,-1.4531698E-2,-6.8258494E-2,2.98457E-3,5.0892003E-2],"split_indices":[41,53,32,39,43,32,59,39,11,27,6,59,29,0,18,12,7,0,0,2,54,0,0,13,9,28,1,0,0,33,29,0,14,0,0,0,0,0,0,51,1,45,20,0,50,6,0,0,0,5,47,9,0,0,0,0,0,0,0,0,0,0,0,0,0,0,0,0,0,0,0,0,0,0,0,0,0,0,0],"split_type":[0,0,0,0,0,0,0,0,0,0,0,0,0,0,0,0,0,0,0,0,0,0,0,0,0,0,0,0,0,0,0,0,0,0,0,0,0,0,0,0,0,0,0,0,0,0,0,0,0,0,0,0,0,0,0,0,0,0,0,0,0,0,0,0,0,0,0,0,0,0,0,0,0,0,0,0,0,0,0],"sum_hessian":[6.57E2,5.2E1,6.05E2,2.9E1,2.3E1,4.42E2,1.63E2,1.9E1,1E1,1.7E1,6E0,4.29E2,1.3E1,3E0,1.6E2,1.1E1,8E0,4E0,6E0,6E0,1.1E1,1E0,5E0,4.16E2,1.3E1,9E0,4E0,2E0,1E0,1.22E2,3.8E1,6E0,5E0,7E0,1E0,2E0,2E0,1E0,5E0,8E0,3E0,1.3E1,4.03E2,3E0,1E1,6E0,3E0,1E0,3E0,7E0,1.15E2,3.3E1,5E0,3E0,2E0,1E0,1E0,3E0,5E0,1E0,2E0,6E0,7E0,2.65E2,1.38E2,3E0,7E0,2E0,4E0,2E0,1E0,4E0,3E0,7.8E1,3.7E1,2.4E1,9E0,1E0,4E0],"tree_param":{"num_deleted":"0","num_feature":"60","num_nodes":"79","size_leaf_vector":"0"}},{"base_weights":[-1.6669473E-2,-1.5535797E-2,-3.807472E-1,-1.3613837E-2,-2.2179952E-1,7.246313E-2,-1.7736943E-2,-3.2747898E-1,-8.709005E-2,1.1003042E-1,-4.4600688E-2,-1.8838787E-1,-1.4645756E-2,-1.0224274E-1,-2.0816002E-2,-5.198234E-2,1.2793556E-1,5.5876665E-2,-1.1606243E-1,-3.5708803E-1,8.5469924E-2,-1.1924508E-2,-1.959468E-1,-1.602445E-2,-6.194906E-2,1.4650707E-1,1.2379836E-2,7.9742365E-2,-7.860217E-3,-2.0813763E-2,-1.3467115E-1,2.550617E-1,-2.0693438E-2,-1.7183859E-2,6.927807E-2,-6.621884E-2,-2.864854E-1],"categories":[],"categories_nodes":[],"categories_segments":[],"categories_sizes":[],"default_left":[1,1,0,1,1,1,1,0,1,1,1,1,1,0,0,1,1,1,1,0,1,1,1,0,0,0,0,0,0,0,0,0,0,0,0,0,0],"id":10,"left_children":[1,3,-1,5,7,9,11,-1,13,15,17,19,21,-1,-1,23,25,27,29,-1,31,33,35,-1,-1,-1,-1,-1,-1,-1,-1,-1,-1,-1,-1,-1,-1],"loss_changes":[2.6567173E-1,2.574354E-1,0E0,2.3268303E-1,5.689597E-2,1.3684049E-1,3.2588202E-1,0E0,1.8886346E-3,7.337019E-2,6.392747E-2,5.387187E-1,3.0009627E-1,0E0,0E0,8.244719E-5,4.3253213E-2,6.711294E-3,6.059274E-3,0E0,9.5300265E-2,2.5956953E-1,8.673778E-2,0E0,0E0,0E0,0E0,0E0,0E0,0E0,0E0,0E0,0E0,0E0,0E0,0E0,0E0],"parents":[2147483647,0,0,1,1,3,3,4,4,5,5,6,6,8,8,9,9,10,10,11,11,12,12,15,15,16,16,17,17,18,18,20,20,21,21,22,22],"right_children":[2,4,-1,6,8,10,12,-1,14,16,18,20,22,-1,-1,24,26,28,30,-1,32,34,36,-1,-1,-1,-1,-1,-1,-1,-1,-1,-1,-1,-1,-1,-1],"split_conditions":[1.5338306E0,1.1855834E0,-1.14224166E-1,-7.6529205E-1,2.1688965E-1,2.7771363E-1,-6.041215E-1,-9.82437E-2,4.2056075E-1,-3.808148E-1,-4.5478597E-2,-8.577673E-2,8.4539664E-1,-3.0672822E-2,-6.244801E-3,1.4693534E-1,3.613809E-1,3.3063686E-1,6.8306014E-2,-1.07126415E-1,4.2753313E-2,5.8546233E-1,-4.625347E-2,-4.8073353E-3,-1.8584719E-2,4.3952122E-2,3.713951E-3,2.392271E-2,-2.3580652E-3,-6.244129E-3,-4.0401347E-2,7.6518506E-2,-6.208032E-3,-5.1551578E-3,2.078342E-2,-1.9865653E-2,-8.594562E-2],"split_indices":[9,10,0,14,3,31,14,0,0,24,4,32,48,0,0,0,59,0,0,0,0,50,2,0,0,0,0,0,0,0,0,0,0,0,0,0,0],"split_type":[0,0,0,0,0,0,0,0,0,0,0,0,0,0,0,0,0,0,0,0,0,0,0,0,0,0,0,0,0,0,0,0,0,0,0,0,0],"sum_hessian":[6.57E2,6.56E2,1E0,6.51E2,5E0,2.9E1,6.22E2,2E0,3E0,2.2E1,7E0,1E1,6.12E2,2E0,1E0,2E0,2E1,3E0,4E0,6E0,4E0,6.04E2,8E0,1E0,1E0,1.7E1,3E0,2E0,1E0,1E0,3E0,1E0,3E0,5.68E2,3.6E1,4E0,4E0],"tree_param":{"num_deleted":"0","num_feature":"60","num_nodes":"37","size_leaf_vector":"0"}},{"base_weights":[-1.224187E-2,-3.239849E-2,4.7396477E-3,-4.8222262E-2,7.838769E-2,-2.4927732E-1,8.314069E-3,-5.6758706E-2,1.35773E-1,2.4563846E-1,9.882473E-3,-2.75547E-1,-7.209932E-2,1.4984187E-2,-1.2479262E-1,2.162327E-2,-7.521704E-2,2.3959759E-1,-7.984535E-3,4.1008987E-2,3.5671118E-1,4.339282E-2,-1.5294369E-1,-2.9941288E-1,1.7746707E-2,-2.9980978E-1,-2.6884649E-2,-2.2715737E-1,4.8785046E-2,-3.044951E-1,-6.4360596E-2,2.6725706E-1,3.68204E-2,3.8871173E-2,-6.77973E-2,-2.9271938E-2,9.762025E-2,1.103386E-2,4.1248506E-1,-2.6284931E-2,9.5040135E-2,-1.746431E-1,-3.3072993E-2,2.1727027E-2,-2.0479208E-1,-3.3806488E-1,-5.4267198E-2,1.153914E-1,-8.713126E-2,-2.5213945E-1,-6.36145E-2,8.435428E-2,-4.5258787E-2,-4.104624E-1,-6.9420345E-2,-5.441791E-2,-2.9245433E-1,5.4073643E-2,-3.3681167E-3,-1.6606189E-3,-4.2247288E-2,6.5344125E-2,-8.7979265E-2,1.7260328E-1,1.5292371E-2,3.572641E-2,-3.3967946E-2,-3.3649027E-2,-3.647188E-1,1.3560028E-2,-1.3973692E-1],"categories":[],"categories_nodes":[],"categories_segments":[],"categories_sizes":[],"default_left":[1,1,1,1,1,1,1,1,1,1,1,0,0,1,1,1,1,1,1,1,1,1,1,0,1,1,1,1,1,1,1,0,0,1,0,1,0,0,0,1,1,0,0,1,1,0,0,0,1,0,0,0,0,0,0,0,0,0,0,0,0,0,0,0,0,0,0,0,0,0,0],"id":11,"left_children":[1,3,5,7,9,11,13,15,17,19,21,-1,-1,23,25,27,29,31,33,35,37,39,41,-1,43,45,47,49,51,53,55,-1,-1,57,-1,59,-1,-1,-1,61,63,-1,-1,65,67,-1,-1,-1,69,-1,-1,-1,-1,-1,-1,-1,-1,-1,-1,-1,-1,-1,-1,-1,-1,-1,-1,-1,-1,-1,-1],"loss_changes":[2.2538036E-1,5.3144974E-1,3.271235E-1,4.2236203E-1,4.3295944E-1,3.4053028E-3,3.161643E-1,3.6766702E-1,1.8101989E-1,2.3538786E-1,1.5941477E-1,0E0,0E0,2.988762E-1,2.8324452E-1,3.4219077E-1,4.9067712E-1,2.9420435E-2,1.9450778E-2,2.2750992E-2,1.3040721E-1,8.8866174E-2,7.229656E-3,0E0,3.0207014E-1,3.8013637E-2,1.12914E-1,4.3884814E-3,1.5434578E-1,1.9569767E-1,4.3085444E-1,0E0,0E0,2.7506924E-3,0E0,1.004643E-3,0E0,0E0,0E0,6.793185E-2,8.3957314E-2,0E0,0E0,2.5929266E-1,1.5194964E-1,0E0,0E0,0E0,4.9567215E-2,0E0,0E0,0E0,0E0,0E0,0E0,0E0,0E0,0E0,0E0,0E0,0E0,0E0,0E0,0E0,0E0,0E0,0E0,0E0,0E0,0E0,0E0],"parents":[2147483647,0,0,1,1,2,2,3,3,4,4,5,5,6,6,7,7,8,8,9,9,10,10,13,13,14,14,15,15,16,16,17,17,18,18,19,19,20,20,21,21,22,22,24,24,25,25,26,26,27,27,28,28,29,29,30,30,33,33,35,35,39,39,40,40,43,43,44,44,48,48],"right_children":[2,4,6,8,10,12,14,16,18,20,22,-1,-1,24,26,28,30,32,34,36,38,40,42,-1,44,46,48,50,52,54,56,-1,-1,58,-1,60,-1,-1,-1,62,64,-1,-1,66,68,-1,-1,-1,70,-1,-1,-1,-1,-1,-1,-1,-1,-1,-1,-1,-1,-1,-1,-1,-1,-1,-1,-1,-1,-1,-1],"split_conditions":[-4.167535E-2,4.1886765E-1,-1.2772993E0,8.345442E-1,-1.8179849E-1,3.1856176E-1,7.2820026E-1,-3.095547E-1,2.0414379E-1,-1.2648109E-1,2.7106702E-1,-8.26641E-2,-2.1629797E-2,-1.3579268E0,-2.0999162E-1,-5.402295E-1,-6.9479144E-1,8.37914E-1,-1.3539512E-1,1.4584707E-1,-7.168573E-1,4.3879256E-2,4.1890323E-1,-8.9823864E-2,9.424659E-1,3.0000627E-1,-5.0452155E-1,7.772975E-1,2.4432164E-1,1.1101546E-1,6.31685E-1,8.017712E-2,1.1046121E-2,-2.733047E-1,-2.0339191E-2,1.7889196E-1,2.9286075E-2,3.3101582E-3,1.2374552E-1,8.539711E-2,6.706379E-2,-5.2392934E-2,-9.921898E-3,3.3705574E-1,4.4532827E-1,-1.0141947E-1,-1.628016E-2,3.4617424E-2,-3.2791817E-1,-7.564184E-2,-1.9084351E-2,2.5306286E-2,-1.3577636E-2,-1.23138726E-1,-2.0826105E-2,-1.6325373E-2,-8.77363E-2,1.6222093E-2,-1.010435E-3,-4.981857E-4,-1.2674187E-2,1.9603238E-2,-2.639378E-2,5.1780988E-2,4.5877113E-3,1.0717923E-2,-1.0190384E-2,-1.0094709E-2,-1.0941564E-1,4.0680086E-3,-4.192108E-2],"split_indices":[36,24,59,34,50,0,52,9,35,10,57,0,0,58,47,15,10,2,0,1,4,16,0,0,5,0,22,1,15,27,21,0,0,0,0,0,0,0,0,13,33,0,0,47,2,0,0,0,31,0,0,0,0,0,0,0,0,0,0,0,0,0,0,0,0,0,0,0,0,0,0],"split_type":[0,0,0,0,0,0,0,0,0,0,0,0,0,0,0,0,0,0,0,0,0,0,0,0,0,0,0,0,0,0,0,0,0,0,0,0,0,0,0,0,0,0,0,0,0,0,0,0,0,0,0,0,0,0,0,0,0,0,0,0,0,0,0,0,0,0,0,0,0,0,0],"sum_hessian":[6.57E2,3E2,3.57E2,2.63E2,3.7E1,4E0,3.53E2,2.52E2,1.1E1,1E1,2.7E1,3E0,1E0,3.37E2,1.6E1,4.8E1,2.04E2,6E0,5E0,4E0,6E0,2.3E1,4E0,2E0,3.35E2,5E0,1.1E1,4E0,4.4E1,8E0,1.96E2,5E0,1E0,3E0,2E0,2E0,2E0,1E0,5E0,1E1,1.3E1,3E0,1E0,3.3E2,5E0,4E0,1E0,3E0,8E0,3E0,1E0,3.2E1,1.2E1,5E0,3E0,1.89E2,7E0,2E0,1E0,1E0,1E0,4E0,6E0,6E0,7E0,2.64E2,6.6E1,3E0,2E0,3E0,5E0],"tree_param":{"num_deleted":"0","num_feature":"60","num_nodes":"71","size_leaf_vector":"0"}},{"base_weights":[-9.402945E-3,2.4141349E-1,-1.0535637E-2,-9.257741E-3,-2.1651825E-1,-1.5997814E-2,3.787128E-2,-2.955047E-1,-9.168788E-2,-1.2996788E-2,-1.8335581E-1,5.0543174E-2,-3.126697E-1,-4.9109813E-2,-2.257531E-3,1.974164E-2,-2.081157E-1,3.3784438E-2,2.516035E-1,-1.9002216E-2,-1.3611972E-1,3.4621358E-3,-1.430977E-1,-1.0553628E-1,-2.4181603E-1,-7.534799E-2,5.5767566E-2,2.8268456E-1,4.809919E-2],"categories":[],"categories_nodes":[],"categories_segments":[],"categories_sizes":[],"default_left":[1,0,1,1,1,1,1,0,0,1,1,1,0,1,1,0,1,1,1,0,0,0,0,0,0,0,0,0,0],"id":12,"left_children":[1,-1,3,5,7,9,11,-1,-1,13,15,17,-1,19,21,-1,23,25,27,-1,-1,-1,-1,-1,-1,-1,-1,-1,-1],"loss_changes":[1.8947987E-1,0E0,1.7067072E-1,2.080333E-1,1.2345433E-2,2.849015E-1,3.800488E-1,0E0,0E0,2.1823576E-1,5.439526E-2,2.6106113E-1,0E0,3.353495E-1,3.5091347E-1,0E0,5.5922866E-3,1.8413238E-1,2.4353862E-2,0E0,0E0,0E0,0E0,0E0,0E0,0E0,0E0,0E0,0E0],"parents":[2147483647,0,0,2,2,3,3,4,4,5,5,6,6,9,9,10,10,11,11,13,13,14,14,16,16,17,17,18,18],"right_children":[2,-1,4,6,8,10,12,-1,-1,14,16,18,-1,20,22,-1,24,26,28,-1,-1,-1,-1,-1,-1,-1,-1,-1,-1],"split_conditions":[-1.6999538E0,7.242405E-2,1.2284632E0,4.1614154E-1,4.7574416E-3,3.8635045E-1,8.2309556E-1,-8.865141E-2,-2.7506365E-2,-2.5901145E-1,-3.6717328E-1,4.963289E-1,-9.380091E-2,1.9629875E-1,7.271173E-1,5.922492E-3,-6.7510076E-2,-3.695618E-1,6.339542E-1,-5.700665E-3,-4.0835917E-2,1.0386407E-3,-4.292931E-2,-3.1660885E-2,-7.254481E-2,-2.2604398E-2,1.6730271E-2,8.480537E-2,1.4429757E-2],"split_indices":[20,0,30,30,0,30,46,0,0,55,9,14,0,31,11,0,21,51,0,0,0,0,0,0,0,0,0,0,0],"split_type":[0,0,0,0,0,0,0,0,0,0,0,0,0,0,0,0,0,0,0,0,0,0,0,0,0,0,0,0,0],"sum_hessian":[6.57E2,2E0,6.55E2,6.52E2,3E0,5.71E2,8.1E1,1E0,2E0,5.62E2,9E0,7.9E1,2E0,1.28E2,4.34E2,1E0,8E0,7.4E1,5E0,9.6E1,3.2E1,4.18E2,1.6E1,3E0,5E0,1.2E1,6.2E1,4E0,1E0],"tree_param":{"num_deleted":"0","num_feature":"60","num_nodes":"29","size_leaf_vector":"0"}},{"base_weights":[-6.932949E-3,4.3112948E-3,-3.2337338E-2,1.848018E-1,6.8384275E-4,-2.8476277E-1,-2.4485104E-2,3.1292178E-2,2.5634125E-1,-1.313225E-1,4.92101E-3,-8.2167245E-2,-3.6551872E-1,-1.442056E-1,-1.5242864E-2,-3.8374703E-2,6.7306034E-2,-9.404158E-3,-2.2158575E-1,-4.447802E-4,1.227094E-1,-4.454639E-2,-3.146829E-1,3.5926194E-3,-8.102498E-2,1.9457335E-2,-3.591461E-2,-2.766931E-1,-9.730513E-2,8.996222E-2,-6.917801E-3,-6.295753E-2,1.4825596E-1,-1.2916489E-1,3.3393428E-2,-9.02643E-2,-3.4822148E-1,8.72915E-3,-1.7836821E-1,-1.05463695E-2,-2.5046945E-1,3.077802E-2,5.4244325E-3,-8.673653E-3,-4.210371E-2,-1.0491673E-1,1.2681358E-1,-1.19958585E-2,1.3068388E-1,5.862382E-2,1.9181678E-1,5.5348195E-2,-7.0107444E-3,-4.8224116E-3,9.599824E-2,-4.3799445E-2,-2.0862465E-1,4.4289555E-2,-1.0928929E-1,-1.1090249E-1,-4.2368266E-1],"categories":[],"categories_nodes":[],"categories_segments":[],"categories_sizes":[],"default_left":[1,1,1,1,1,1,1,1,0,1,1,0,0,1,1,0,0,1,1,1,1,1,1,1,1,1,1,0,0,1,1,0,1,0,1,0,0,1,1,1,1,0,0,0,0,0,0,0,0,0,0,0,0,0,0,0,0,0,0,0,0],"id":13,"left_children":[1,3,5,7,9,11,13,15,-1,17,19,-1,-1,21,23,-1,-1,25,27,29,31,33,35,37,39,41,43,-1,-1,45,47,-1,49,-1,51,-1,-1,53,55,57,59,-1,-1,-1,-1,-1,-1,-1,-1,-1,-1,-1,-1,-1,-1,-1,-1,-1,-1,-1,-1],"loss_changes":[1.8809918E-1,2.9908094E-1,3.9341247E-1,9.081647E-2,2.517868E-1,6.813115E-2,2.1577951E-1,1.2618742E-2,0E0,1.519826E-1,2.7561873E-1,0E0,0E0,2.2383687E-1,2.282741E-1,0E0,0E0,6.0547213E-3,2.7866542E-2,2.4523863E-1,9.945366E-2,7.0264764E-2,6.201446E-3,1.3614622E-1,4.8698905E-1,4.6849507E-4,3.0919537E-4,0E0,0E0,2.1438836E-1,2.7477863E-1,0E0,5.51306E-2,0E0,5.710418E-3,0E0,0E0,1.6721411E-1,7.1486384E-3,1.6728015E-1,2.4311066E-1,0E0,0E0,0E0,0E0,0E0,0E0,0E0,0E0,0E0,0E0,0E0,0E0,0E0,0E0,0E0,0E0,0E0,0E0,0E0,0E0],"parents":[2147483647,0,0,1,1,2,2,3,3,4,4,5,5,6,6,7,7,9,9,10,10,13,13,14,14,17,17,18,18,19,19,20,20,21,21,22,22,23,23,24,24,25,25,26,26,29,29,30,30,32,32,34,34,37,37,38,38,39,39,40,40],"right_children":[2,4,6,8,10,12,14,16,-1,18,20,-1,-1,22,24,-1,-1,26,28,30,32,34,36,38,40,42,44,-1,-1,46,48,-1,50,-1,52,-1,-1,54,56,58,60,-1,-1,-1,-1,-1,-1,-1,-1,-1,-1,-1,-1,-1,-1,-1,-1,-1,-1,-1,-1],"split_conditions":[2.1276784E-1,-1.1028645E0,-8.555279E-1,-4.305449E-2,-7.94988E-1,1.9682243E-1,-5.804079E-1,-1.1307101E-1,7.6902375E-2,-8.592911E-2,6.9844633E-1,-2.4650175E-2,-1.0965562E-1,3.7330198E-1,3.21101E-1,-1.1512412E-2,2.0191811E-2,2.7566478E-1,-1.8409199E-1,-5.952191E-1,-4.4989538E-1,8.329512E-2,-1.4867604E-1,9.294481E-1,2.5412393E-1,-1.2695725E-1,9.819106E-2,-8.300793E-2,-2.9191539E-2,-4.193923E-1,7.071259E-1,-1.888726E-2,-6.742773E-2,-3.8749468E-2,1.056148E-1,-2.707929E-2,-1.04466446E-1,4.272601E-1,-4.625347E-2,4.363002E-2,4.2680323E-2,9.233407E-3,1.6273299E-3,-2.602096E-3,-1.2631114E-2,-3.147502E-2,3.8044073E-2,-3.5987578E-3,3.9205167E-2,1.7587148E-2,5.7545036E-2,1.6604459E-2,-2.1032235E-3,-1.4467235E-3,2.8799474E-2,-1.3139834E-2,-6.2587395E-2,1.3286867E-2,-3.2786787E-2,-3.3270746E-2,-1.271048E-1],"split_indices":[46,21,21,33,32,1,55,0,0,57,6,0,0,46,37,0,0,3,12,38,3,37,1,48,15,0,0,0,0,57,51,0,35,0,5,0,0,50,2,11,19,0,0,0,0,0,0,0,0,0,0,0,0,0,0,0,0,0,0,0,0],"split_type":[0,0,0,0,0,0,0,0,0,0,0,0,0,0,0,0,0,0,0,0,0,0,0,0,0,0,0,0,0,0,0,0,0,0,0,0,0,0,0,0,0,0,0,0,0,0,0,0,0,0,0,0,0,0,0,0,0,0,0,0,0],"sum_hessian":[6.57E2,4.56E2,2.01E2,8E0,4.48E2,5E0,1.96E2,3E0,5E0,1.3E1,4.35E2,2E0,3E0,1.3E1,1.83E2,1E0,2E0,6E0,7E0,4.17E2,1.8E1,9E0,4E0,1.43E2,4E1,3E0,3E0,4E0,3E0,2.7E1,3.9E2,2E0,1.6E1,4E0,5E0,1E0,3E0,1.4E2,3E0,2.9E1,1.1E1,1E0,2E0,1E0,2E0,4E0,2.3E1,3.77E2,1.3E1,6E0,1E1,3E0,2E0,1.22E2,1.8E1,1E0,2E0,1.9E1,1E1,7E0,4E0],"tree_param":{"num_deleted":"0","num_feature":"60","num_nodes":"61","size_leaf_vector":"0"}},{"base_weights":[-5.538352E-3,-3.4543453E-3,-1.2780179E-1,-5.5212528E-2,1.6309827E-3,-5.7795357E-2,-2.9522046E-1,-2.6243377E-2,-2.6252443E-1,-1.9723403E-3,9.0703145E-2,-7.686809E-2,5.972804E-3,-1.1553442E-1,-2.2327858E-3,-4.011376E-1,-5.8280136E-2,3.242578E-2,-1.2130939E-2,-5.516584E-2,1.4543137E-1,-6.5186173E-3,1.5477823E-2,-4.004191E-2,-1.5295272E-1,-5.6839146E-2,4.534808E-2,1.645487E-2,-8.8676766E-2,6.728109E-2,-3.4907162E-2,-2.035953E-2,5.5493366E-2,-9.5993556E-2,9.490022E-2,-7.674398E-3,1.7878792E-1,7.1169324E-3,-5.3610854E-2,-1.4704846E-1,1.5554438E-2,1.6115335E-1,1.2486273E-2,-5.717833E-2,8.823638E-2,-8.873226E-2,4.3418355E-2,3.0829797E-2,-3.193729E-2,-1.642719E-1,7.920548E-2,-1.0212511E-2,-1.1110726E-1,-4.3308884E-2,1.8640058E-2,1.9081475E-1,1.1219531E-2],"categories":[],"categories_nodes":[],"categories_segments":[],"categories_sizes":[],"default_left":[1,1,1,1,1,1,0,1,1,1,1,0,1,1,1,0,1,1,1,1,1,0,0,1,0,1,1,0,0,1,1,1,1,1,0,1,1,0,0,0,0,0,0,0,0,0,0,0,0,0,0,0,0,0,0,0,0],"id":14,"left_children":[1,3,5,7,9,11,-1,13,15,17,19,-1,21,23,25,-1,27,29,31,33,35,-1,-1,37,-1,39,41,-1,-1,43,45,47,49,51,-1,53,55,-1,-1,-1,-1,-1,-1,-1,-1,-1,-1,-1,-1,-1,-1,-1,-1,-1,-1,-1,-1],"loss_changes":[1.6721547E-1,1.706484E-1,1.1186184E-1,3.414381E-1,1.8986376E-1,1.1405215E-2,0E0,1.1122644E-1,1.7479825E-1,1.9922286E-1,1.9163528E-1,0E0,4.570876E-4,2.4948284E-2,1.117027E-1,0E0,1.0545932E-2,3.0744696E-1,2.45969E-1,5.1997792E-2,8.819246E-2,0E0,0E0,3.5810228E-3,0E0,1.3289878E-1,8.5515924E-2,0E0,0E0,2.2934034E-1,1.9356714E-1,2.3389912E-1,2.6314402E-1,6.6441298E-3,0E0,4.5580887E-3,2.6073605E-2,0E0,0E0,0E0,0E0,0E0,0E0,0E0,0E0,0E0,0E0,0E0,0E0,0E0,0E0,0E0,0E0,0E0,0E0,0E0,0E0],"parents":[2147483647,0,0,1,1,2,2,3,3,4,4,5,5,7,7,8,8,9,9,10,10,12,12,13,13,14,14,16,16,17,17,18,18,19,19,20,20,23,23,25,25,26,26,29,29,30,30,31,31,32,32,33,33,35,35,36,36],"right_children":[2,4,6,8,10,12,-1,14,16,18,20,-1,22,24,26,-1,28,30,32,34,36,-1,-1,38,-1,40,42,-1,-1,44,46,48,50,52,-1,54,56,-1,-1,-1,-1,-1,-1,-1,-1,-1,-1,-1,-1,-1,-1,-1,-1,-1,-1,-1,-1],"split_conditions":[9.384608E-1,-5.378337E-1,6.232128E-1,3.5711527E-1,6.5103793E-1,4.0088582E-1,-8.856614E-2,-2.2686255E-1,4.0352547E-1,-2.563555E-1,-1.7471212E-1,-2.3060426E-2,-1.628173E-1,-1.3263273E-1,-1.3374907E-1,-1.2034128E-1,-3.047235E-1,9.2772365E-2,4.0090048E-1,8.0716926E-1,-4.9367604E-1,-1.9555853E-3,4.643347E-3,-1.1057771E0,-4.5885816E-2,-1.0555966E-1,-2.4254093E-1,4.9364613E-3,-2.660303E-2,-2.5327304E-1,1.7744935E-1,-2.9831773E-1,-4.094645E-1,-1.0779603E0,2.8470067E-2,-2.2696324E-2,7.53814E-1,2.1350798E-3,-1.6083257E-2,-4.4114538E-2,4.6663317E-3,4.8346005E-2,3.745882E-3,-1.71535E-2,2.6470914E-2,-2.6619678E-2,1.3025507E-2,9.248939E-3,-9.581188E-3,-4.9281575E-2,2.3761647E-2,-3.0637535E-3,-3.333218E-2,-1.2992666E-2,5.5920174E-3,5.7244428E-2,3.3658596E-3],"split_indices":[4,39,2,9,4,31,0,55,2,40,56,0,0,12,19,0,0,4,2,9,3,0,0,0,0,15,6,0,0,47,52,14,33,3,0,0,9,0,0,0,0,0,0,0,0,0,0,0,0,0,0,0,0,0,0,0,0],"split_type":[0,0,0,0,0,0,0,0,0,0,0,0,0,0,0,0,0,0,0,0,0,0,0,0,0,0,0,0,0,0,0,0,0,0,0,0,0,0,0,0,0,0,0,0,0,0,0,0,0,0,0,0,0,0,0,0,0],"sum_hessian":[6.57E2,6.47E2,1E1,5.7E1,5.9E2,8E0,2E0,5.1E1,6E0,5.68E2,2.2E1,6E0,2E0,1E1,4.1E1,3E0,3E0,1.29E2,4.39E2,6E0,1.6E1,1E0,1E0,4E0,6E0,1.9E1,2.2E1,1E0,2E0,8.5E1,4.4E1,3.92E2,4.7E1,5E0,1E0,3E0,1.3E1,1E0,3E0,8E0,1.1E1,4E0,1.8E1,1.2E1,7.3E1,2.6E1,1.8E1,7.2E1,3.2E2,4E0,4.3E1,1E0,4E0,1E0,2E0,1.2E1,1E0],"tree_param":{"num_deleted":"0","num_feature":"60","num_nodes":"57","size_leaf_vector":"0"}},{"base_weights":[-4.30691E-3,-2.89223E-2,4.4642207E-3,-2.2209348E-2,-3.069922E-1,3.6759816E-2,-6.580182E-3,1.9684685E-2,-5.6290533E-2,4.134387E-3,1.3884835E-1,-3.4454212E-1,-3.7534062E-3,-1.0103972E-1,4.5785576E-2,-9.379786E-2,4.5413177E-2,2.0547822E-1,-1.17481E-2,-1.7551886E-2,1.7867973E-1,-8.166179E-2,-4.3515137E-1,-4.9859256E-4,-1.4730974E-1,-1.981367E-2,-1.439638E-1,1.6208293E-1,2.3808138E-2,1.4096902E-4,-1.4077035E-1,1.8397252E-1,-1.5317766E-2,6.792192E-2,2.4691637E-1,1.3015652E-2,-1.173955E-1,7.094465E-2,-1.0166046E-1,2.207726E-1,4.4915292E-2,-3.9070174E-2,9.660822E-3,-1.3394523E-3,-2.3462401E-1,1.22851655E-2,-3.893438E-2,-1.9410948E-1,-6.502535E-2,2.6496416E-1,4.9334742E-2,-5.9003595E-2,5.352443E-2,-8.0538586E-2,7.460356E-2,-3.1678412E-2,-1.82786E-1,2.3042622E-1,2.9740969E-2,-1.4133511E-1,2.7709201E-2,9.350186E-2,-1.9120688E-2,-6.1148647E-2,-2.1032327E-1,3.2916367E-3,9.239845E-2,2.4840286E-1,6.196593E-2,9.5465296E-4,1.0321126E-1,-6.244015E-2,5.7014417E-2,-2.9449536E-2,2.648681E-2,2.5926081E-2,-4.1568026E-2,-9.8801196E-2,-2.9223883E-1],"categories":[],"categories_nodes":[],"categories_segments":[],"categories_sizes":[],"default_left":[1,1,1,1,0,1,1,1,1,1,1,1,1,1,1,1,1,1,1,1,1,0,0,1,1,1,1,1,1,1,1,1,1,0,0,1,1,1,0,1,1,1,1,1,1,0,0,0,0,0,0,0,0,0,0,0,0,0,0,0,0,0,0,0,0,0,0,0,0,0,0,0,0,0,0,0,0,0,0],"id":15,"left_children":[1,3,5,7,-1,9,11,13,15,17,19,21,23,25,27,29,31,33,35,37,39,-1,-1,41,43,45,47,49,51,53,55,57,59,-1,-1,61,63,65,-1,67,69,71,73,75,77,-1,-1,-1,-1,-1,-1,-1,-1,-1,-1,-1,-1,-1,-1,-1,-1,-1,-1,-1,-1,-1,-1,-1,-1,-1,-1,-1,-1,-1,-1,-1,-1,-1,-1],"loss_changes":[1.4219448E-1,3.1611586E-1,1.7359108E-1,2.4383374E-1,0E0,4.1243055E-1,3.4549612E-1,2.472543E-1,3.6283538E-1,3.0620888E-1,1.9002533E-1,3.5922915E-2,1.6860348E-1,4.5959294E-2,1.5971985E-1,3.0448508E-1,2.2160389E-1,2.3129493E-2,2.3437208E-1,5.9315488E-2,1.2521666E-1,0E0,0E0,1.3909754E-1,1.0164806E-1,4.1608303E-3,2.3003772E-2,1.02924794E-1,1.385053E-1,1.5019107E-1,2.050538E-1,5.0463885E-2,1.0693702E-1,0E0,0E0,1.9060464E-1,7.5996205E-2,5.5015143E-3,0E0,6.3589156E-2,1.7840564E-2,1.697266E-1,1.8569781E-1,5.4651103E-3,1.0253489E-2,0E0,0E0,0E0,0E0,0E0,0E0,0E0,0E0,0E0,0E0,0E0,0E0,0E0,0E0,0E0,0E0,0E0,0E0,0E0,0E0,0E0,0E0,0E0,0E0,0E0,0E0,0E0,0E0,0E0,0E0,0E0,0E0,0E0,0E0],"parents":[2147483647,0,0,1,1,2,2,3,3,5,5,6,6,7,7,8,8,9,9,10,10,11,11,12,12,13,13,14,14,15,15,16,16,17,17,18,18,19,19,20,20,23,23,24,24,25,25,26,26,27,27,28,28,29,29,30,30,31,31,32,32,35,35,36,36,37,37,39,39,40,40,41,41,42,42,43,43,44,44],"right_children":[2,4,6,8,-1,10,12,14,16,18,20,22,24,26,28,30,32,34,36,38,40,-1,-1,42,44,46,48,50,52,54,56,58,60,-1,-1,62,64,66,-1,68,70,72,74,76,78,-1,-1,-1,-1,-1,-1,-1,-1,-1,-1,-1,-1,-1,-1,-1,-1,-1,-1,-1,-1,-1,-1,-1,-1,-1,-1,-1,-1,-1,-1,-1,-1,-1,-1],"split_conditions":[-1.7961514E-1,-1.8235698E-1,-2.0907491E-1,-2.07555E-2,-9.209766E-2,-2.722952E-1,-2.0777264E-1,-2.960413E-1,1.9956866E-1,-8.231412E-1,-1.5664968E-1,-3.7794733E-1,8.803415E-1,-8.6624414E-2,-2.6986635E-1,-1.3531396E-1,-4.5578852E-2,-3.1585893E-1,3.3678555E-1,2.4030186E-2,8.5207455E-2,-2.4498539E-2,-1.3054542E-1,-2.891044E-1,-1.5392175E-1,-8.361519E-2,3.21526E-1,-1.14219286E-1,-8.400312E-2,4.5641728E-2,-1.7562723E-1,2.1234024E-1,-4.3544926E-2,2.0376578E-2,7.407492E-2,4.1841365E-2,2.9691565E-1,1.9630551E-2,-3.049814E-2,2.8789848E-1,2.4227777E-1,4.0570092E-1,-1.70613E-1,5.30511E-1,-1.8281792E-1,3.6855498E-3,-1.1680314E-2,-5.8232848E-2,-1.9507606E-2,7.948925E-2,1.4800423E-2,-1.770108E-2,1.605733E-2,-2.4161577E-2,2.2381067E-2,-9.503524E-3,-5.4835804E-2,6.912787E-2,8.922291E-3,-4.2400535E-2,8.312761E-3,2.8050559E-2,-5.7362067E-3,-1.8344594E-2,-6.3096985E-2,9.874911E-4,2.7719537E-2,7.452086E-2,1.858978E-2,2.863959E-4,3.096338E-2,-1.8732045E-2,1.7104326E-2,-8.834861E-3,7.946043E-3,7.7778245E-3,-1.2470408E-2,-2.964036E-2,-8.767165E-2],"split_indices":[45,45,46,56,0,46,46,16,18,37,35,0,17,54,4,2,52,3,21,6,54,0,0,29,2,6,47,25,54,30,29,6,8,0,0,45,14,1,0,25,0,55,22,0,3,0,0,0,0,0,0,0,0,0,0,0,0,0,0,0,0,0,0,0,0,0,0,0,0,0,0,0,0,0,0,0,0,0,0],"split_type":[0,0,0,0,0,0,0,0,0,0,0,0,0,0,0,0,0,0,0,0,0,0,0,0,0,0,0,0,0,0,0,0,0,0,0,0,0,0,0,0,0,0,0,0,0,0,0,0,0,0,0,0,0,0,0,0,0,0,0,0,0,0,0,0,0,0,0,0,0,0,0,0,0,0,0,0,0,0,0],"sum_hessian":[6.57E2,1.72E2,4.85E2,1.69E2,3E0,1.23E2,3.62E2,7.6E1,9.3E1,9.4E1,2.9E1,2E0,3.6E2,1.3E1,6.3E1,6.8E1,2.5E1,6E0,8.8E1,6E0,2.3E1,1E0,1E0,3.53E2,7E0,5E0,8E0,9E0,5.4E1,2.3E1,4.5E1,7E0,1.8E1,2E0,4E0,7.2E1,1.6E1,3E0,3E0,1.7E1,6E0,7.3E1,2.8E2,3E0,4E0,2E0,3E0,4E0,4E0,4E0,5E0,1.4E1,4E1,1.1E1,1.2E1,1.3E1,3.2E1,5E0,2E0,4E0,1.4E1,2E1,5.2E1,1.1E1,5E0,1E0,2E0,1.4E1,3E0,4E0,2E0,5.9E1,1.4E1,8.4E1,1.96E2,2E0,1E0,2E0,2E0],"tree_param":{"num_deleted":"0","num_feature":"60","num_nodes":"79","size_leaf_vector":"0"}},{"base_weights":[-3.3628854E-3,8.359381E-3,-1.9924907E-2,-5.9490267E-2,1.9336924E-2,-4.1477542E-2,2.1558063E-2,-1.0456241E-1,2.9040648E-2,2.5037281E-2,-7.112553E-2,-1.4017776E-1,-3.1655233E-2,-4.103259E-2,5.4524735E-2,-7.432485E-2,-2.771703E-1,-3.8395908E-2,1.265654E-1,3.9979573E-2,-1.2018886E-2,-1.5755582E-1,1.3913413E-2,-2.7093324E-1,-5.6113157E-2,-5.5042204E-2,2.8232103E-2,1.2145933E-2,-8.0856025E-2,-5.4451734E-2,7.4057564E-2,-1.9578896E-3,-1.0712993E-1,-1.17690384E-1,3.5055913E-2,5.701373E-3,1.6590318E-1,5.73082E-2,4.07955E-3,4.532896E-2,-3.957399E-2,-2.2727564E-1,-7.3196664E-2,9.4715774E-2,-4.5790188E-2,-3.1607327E-1,-2.2616563E-2,2.8184406E-3,-9.019099E-2,-1.330542E-1,-3.2878865E-2,1.00378335E-1,-1.5996706E-2,2.9558439E-2,-6.735691E-2,-1.00131124E-1,5.5321574E-2,2.0909814E-2,-1.727215E-1,1.4429979E-1,4.2533003E-2,5.4534953E-2,-2.9959574E-2,2.4299584E-2,-1.3768646E-1,-1.489826E-1,-3.6737304E-2,4.7574067E-4,4.879283E-2,-1.1154082E-2,1.9706141E-2,-3.409398E-2,6.7640014E-2,-3.6987865E-1,1.4269096E-2,8.250106E-2,-5.0572738E-2,-1.064364E-1,-1.1949603E-2,1.0583718E-1,2.5115065E-2,2.5463607E-2,-6.1909754E-2,-2.1020304E-2,2.5717705E-2,-9.6779294E-2,-2.533058E-2,-2.8593478E-1,-6.1680574E-2,-2.2688946E-1,-2.6195053E-2,1.5228993E-1,-2.9527284E-3,6.668319E-2,-7.4821256E-2,-2.2032431E-7,5.4894466E-2,-7.6064183E-3,-1.2801516E-1,9.425761E-2,-2.7280824E-2,8.764677E-2,2.241137E-1,6.5872987E-4,1.5971509E-1],"categories":[],"categories_nodes":[],"categories_segments":[],"categories_sizes":[],"default_left":[1,1,1,1,1,1,1,1,1,1,1,1,1,1,1,1,0,1,1,1,1,1,1,1,1,1,1,1,1,1,1,1,1,1,1,1,0,1,1,1,1,0,0,1,1,0,0,1,1,1,1,1,1,1,0,1,0,1,0,1,1,0,0,0,0,0,0,0,0,0,0,0,0,0,0,0,0,0,0,0,0,0,0,0,0,0,0,0,0,0,0,0,0,0,0,0,0,0,0,0,0,0,0,0,0],"id":16,"left_children":[1,3,5,7,9,11,13,15,17,19,21,23,25,27,29,31,-1,33,35,37,39,41,43,45,47,49,51,53,55,57,59,61,63,65,67,69,-1,71,73,75,77,-1,-1,79,81,-1,-1,83,85,87,89,91,93,95,-1,97,-1,99,-1,101,103,-1,-1,-1,-1,-1,-1,-1,-1,-1,-1,-1,-1,-1,-1,-1,-1,-1,-1,-1,-1,-1,-1,-1,-1,-1,-1,-1,-1,-1,-1,-1,-1,-1,-1,-1,-1,-1,-1,-1,-1,-1,-1,-1,-1],"loss_changes":[1.2791358E-1,2.886518E-1,2.4497457E-1,2.1851155E-1,1.7349833E-1,1.7006615E-1,1.9619739E-1,1.6729203E-1,1.2981755E-1,1.743436E-1,1.4919096E-1,1.606676E-1,2.3265022E-1,7.086786E-2,1.3600692E-1,7.57584E-2,0E0,7.401762E-2,3.70903E-2,1.3911617E-1,1.455944E-1,4.2179212E-2,5.7403162E-2,6.010562E-2,2.234507E-2,2.0137712E-1,1.5157999E-1,2.2756118E-2,5.5411324E-2,9.274151E-2,1.1122334E-1,1.9034687E-2,9.169838E-2,9.725995E-3,3.3019623E-3,9.2797406E-4,0E0,1.44903E-1,2.872522E-1,1.1111835E-1,1.1324419E-1,0E0,0E0,1.2121834E-3,9.616507E-3,0E0,0E0,3.2700426E-3,5.3976476E-4,2.6606604E-1,1.15949266E-1,9.700312E-2,1.5089756E-1,9.735699E-3,0E0,4.2885616E-2,0E0,2.7314166E-2,0E0,5.2704364E-2,1.8635754E-1,0E0,0E0,0E0,0E0,0E0,0E0,0E0,0E0,0E0,0E0,0E0,0E0,0E0,0E0,0E0,0E0,0E0,0E0,0E0,0E0,0E0,0E0,0E0,0E0,0E0,0E0,0E0,0E0,0E0,0E0,0E0,0E0,0E0,0E0,0E0,0E0,0E0,0E0,0E0,0E0,0E0,0E0,0E0,0E0],"parents":[2147483647,0,0,1,1,2,2,3,3,4,4,5,5,6,6,7,7,8,8,9,9,10,10,11,11,12,12,13,13,14,14,15,15,17,17,18,18,19,19,20,20,21,21,22,22,23,23,24,24,25,25,26,26,27,27,28,28,29,29,30,30,31,31,32,32,33,33,34,34,35,35,37,37,38,38,39,39,40,40,43,43,44,44,47,47,48,48,49,49,50,50,51,51,52,52,53,53,55,55,57,57,59,59,60,60],"right_children":[2,4,6,8,10,12,14,16,18,20,22,24,26,28,30,32,-1,34,36,38,40,42,44,46,48,50,52,54,56,58,60,62,64,66,68,70,-1,72,74,76,78,-1,-1,80,82,-1,-1,84,86,88,90,92,94,96,-1,98,-1,100,-1,102,104,-1,-1,-1,-1,-1,-1,-1,-1,-1,-1,-1,-1,-1,-1,-1,-1,-1,-1,-1,-1,-1,-1,-1,-1,-1,-1,-1,-1,-1,-1,-1,-1,-1,-1,-1,-1,-1,-1,-1,-1,-1,-1,-1,-1],"split_conditions":[8.4800124E-2,-3.6572272E-1,1.6757439E-1,1.8857567E-1,5.8085907E-1,-4.748935E-1,-1.840014E-1,5.6106657E-1,2.9555112E-1,2.301502E-1,-1.5172008E-3,-2.3738527E-1,1.7994824E-1,-1.1395848E-1,-3.9536452E-1,-4.470305E-2,-8.3151095E-2,-1.1445534E-1,-1.3307533E-1,2.1030518E-1,-1.7972481E-1,-6.260434E-2,-8.389262E-2,7.316357E-2,-1.4639983E-1,-1.976802E-1,-1.822325E-1,5.5062044E-1,3.8120598E-1,2.1804059E-1,-3.1732622E-1,-1.8297367E-1,-1.7624071E-1,1.8899669E-1,-4.2973787E-2,3.9238232E-1,4.9770955E-2,-5.2399707E-1,2.1297535E-1,3.613809E-1,-1.554867E-1,-6.818269E-2,-2.1959E-2,1.545751E-1,-6.904069E-1,-9.482198E-2,-6.7849695E-3,-4.5340396E-2,1.8032658E-1,-1.7079002E-1,-9.001534E-1,2.393194E-1,-4.6091758E-2,1.506494E-1,-2.0207074E-2,-1.7235902E-1,1.6596474E-2,-6.6492283E-1,-5.1816452E-2,3.5904503E-1,5.080054E-1,1.6360486E-2,-8.987873E-3,7.2898758E-3,-4.130594E-2,-4.469478E-2,-1.1021191E-2,1.427222E-4,1.463785E-2,-3.3462245E-3,5.9118425E-3,-1.0228194E-2,2.0292005E-2,-1.109636E-1,4.2807288E-3,2.475032E-2,-1.5171822E-2,-3.1930923E-2,-3.584881E-3,3.1751156E-2,7.53452E-3,7.6390826E-3,-1.8572927E-2,-6.306092E-3,7.715312E-3,-2.903379E-2,-7.5991745E-3,-8.5780434E-2,-1.8504173E-2,-6.806684E-2,-7.858517E-3,4.568698E-2,-8.8581856E-4,2.0004958E-2,-2.2446377E-2,-6.609729E-8,1.646834E-2,-2.2819256E-3,-3.840455E-2,2.8277284E-2,-8.184248E-3,2.6294032E-2,6.7234114E-2,1.9761897E-4,4.7914527E-2],"split_indices":[22,16,28,48,18,27,2,58,40,46,48,59,33,36,7,34,0,55,7,28,25,16,45,0,6,6,59,22,11,53,30,13,33,5,0,0,0,33,28,35,31,0,0,0,1,0,0,0,6,58,55,44,26,32,0,15,0,16,0,9,22,0,0,0,0,0,0,0,0,0,0,0,0,0,0,0,0,0,0,0,0,0,0,0,0,0,0,0,0,0,0,0,0,0,0,0,0,0,0,0,0,0,0,0,0],"split_type":[0,0,0,0,0,0,0,0,0,0,0,0,0,0,0,0,0,0,0,0,0,0,0,0,0,0,0,0,0,0,0,0,0,0,0,0,0,0,0,0,0,0,0,0,0,0,0,0,0,0,0,0,0,0,0,0,0,0,0,0,0,0,0,0,0,0,0,0,0,0,0,0,0,0,0,0,0,0,0,0,0,0,0,0,0,0,0,0,0,0,0,0,0,0,0,0,0,0,0,0,0,0,0,0,0],"sum_hessian":[6.57E2,3.85E2,2.72E2,5.3E1,3.32E2,1.79E2,9.3E1,3.5E1,1.8E1,3.13E2,1.9E1,1.5E1,1.64E2,3.2E1,6.1E1,3.1E1,4E0,1.1E1,7E0,2.23E2,9E1,9E0,1E1,5E0,1E1,1.18E2,4.6E1,1.4E1,1.8E1,9E0,5.2E1,1E1,2.1E1,5E0,6E0,2E0,5E0,1.5E2,7.3E1,2.9E1,6.1E1,4E0,5E0,4E0,6E0,4E0,1E0,4E0,6E0,2.5E1,9.3E1,1.7E1,2.9E1,1.2E1,2E0,1.6E1,2E0,6E0,3E0,1.5E1,3.7E1,3E0,7E0,4E0,1.7E1,3E0,2E0,2E0,4E0,1E0,1E0,1.5E1,1.35E2,1E0,7.2E1,2.1E1,8E0,1.7E1,4.4E1,3E0,1E0,1E0,5E0,2E0,2E0,5E0,1E0,7E0,1.8E1,2E0,9.1E1,1.1E1,6E0,1.2E1,1.7E1,6E0,6E0,4E0,1.2E1,2E0,4E0,1E1,5E0,2.8E1,9E0],"tree_param":{"num_deleted":"0","num_feature":"60","num_nodes":"105","size_leaf_vector":"0"}},{"base_weights":[-3.076409E-3,-5.5821043E-2,-1.130459E-4,-7.545667E-2,1.1521925E-1,1.00042544E-1,-1.9071802E-3,-4.6799283E-2,-1.5557894E-1,1.2412749E-2,1.453505E-1,1.4097922E-1,-6.8414323E-3,-1.12360515E-1,-7.835293E-5,1.4303352E-2,-8.848793E-2,-1.8884149E-1,-7.5106E-2,5.9287075E-2,1.5832876E-1,2.166156E-2,-4.6175204E-2,-2.7260327E-1,3.9901882E-2,-2.0955883E-2,7.348058E-3,7.921417E-2,-3.4104854E-2,-1.1505227E-1,5.6120194E-2,2.8649427E-2,3.8429126E-3,-3.0258274E-1,-7.634276E-2,-2.0532086E-3,6.1392732E-2,-4.7970822E-4,-9.090282E-2,1.0279015E-1,3.1038907E-3,-4.3227475E-2,1.0315433E-2,-1.436762E-1,-6.99923E-2,1.6378455E-1,-8.757908E-3,-1.6994551E-1,1.8522127E-2,2.7070305E-1,3.9966498E-2,-1.6412123E-1,4.6667936E-3],"categories":[],"categories_nodes":[],"categories_segments":[],"categories_sizes":[],"default_left":[1,1,1,1,1,1,1,1,1,0,0,1,1,1,1,1,1,0,0,0,0,1,0,1,1,1,1,0,1,1,0,0,0,0,0,0,0,1,1,1,1,0,0,0,0,0,0,0,0,0,0,0,0],"id":17,"left_children":[1,3,5,7,9,11,13,15,17,-1,-1,19,21,23,25,27,29,-1,-1,-1,-1,31,-1,33,35,37,39,-1,41,43,-1,-1,-1,-1,-1,-1,-1,45,47,49,51,-1,-1,-1,-1,-1,-1,-1,-1,-1,-1,-1,-1],"loss_changes":[1.0284008E-1,1.2624098E-1,1.1231898E-1,6.619406E-2,1.0586556E-2,4.9094707E-2,1.24019235E-1,6.494783E-2,7.2307587E-3,0E0,0E0,1.9517094E-3,5.4847472E-3,2.5486684E-1,9.395628E-2,3.7265968E-2,6.407805E-2,0E0,0E0,0E0,0E0,2.6344578E-4,0E0,6.318897E-3,5.5359555E-3,2.2768345E-1,1.8074821E-1,0E0,3.2825163E-3,6.7110807E-3,0E0,0E0,0E0,0E0,0E0,0E0,0E0,1.7005113E-1,3.1452042E-1,1.8961008E-1,1.128879E-1,0E0,0E0,0E0,0E0,0E0,0E0,0E0,0E0,0E0,0E0,0E0,0E0],"parents":[2147483647,0,0,1,1,2,2,3,3,4,4,5,5,6,6,7,7,8,8,11,11,12,12,13,13,14,14,15,15,16,16,21,21,23,23,24,24,25,25,26,26,28,28,29,29,37,37,38,38,39,39,40,40],"right_children":[2,4,6,8,10,12,14,16,18,-1,-1,20,22,24,26,28,30,-1,-1,-1,-1,32,-1,34,36,38,40,-1,42,44,-1,-1,-1,-1,-1,-1,-1,46,48,50,52,-1,-1,-1,-1,-1,-1,-1,-1,-1,-1,-1,-1],"split_conditions":[-6.7628956E-1,4.6051398E-1,-1.2633917E0,1.378679E-1,-6.92064E-1,4.7025496E-1,-9.308193E-1,-2.1177467E-2,5.460541E-1,3.7238249E-3,4.3605153E-2,-1.5028436E0,-6.761733E-2,-1.0460251E-1,-1.7667362E-1,-3.2799506E-1,3.505981E-1,-5.665245E-2,-2.2531802E-2,1.7786123E-2,4.749863E-2,4.0124834E-1,-1.3852562E-2,3.3770445E-1,-6.431704E-2,-2.6241434E-1,-7.321922E-1,2.3764253E-2,6.853706E-1,2.2810219E-2,1.6836058E-2,8.594829E-3,1.1528739E-3,-9.077483E-2,-2.290283E-2,-6.159626E-4,1.841782E-2,-1.2229438E0,1.1040259E-1,-2.6409605E-1,-1.3733883E0,-1.2968243E-2,3.09463E-3,-4.3102864E-2,-2.099769E-2,4.913537E-2,-2.6273725E-3,-5.0983656E-2,5.5566384E-3,8.121092E-2,1.198995E-2,-4.923637E-2,1.4000381E-3],"split_indices":[56,30,4,23,0,47,4,25,34,0,0,4,2,0,45,28,11,0,0,0,0,0,0,1,5,45,27,0,13,46,0,0,0,0,0,0,0,17,50,42,58,0,0,0,0,0,0,0,0,0,0,0,0],"split_type":[0,0,0,0,0,0,0,0,0,0,0,0,0,0,0,0,0,0,0,0,0,0,0,0,0,0,0,0,0,0,0,0,0,0,0,0,0,0,0,0,0,0,0,0,0,0,0,0,0,0,0,0,0],"sum_hessian":[6.57E2,3.4E1,6.23E2,3.1E1,3E0,1E1,6.13E2,2.4E1,7E0,1E0,2E0,7E0,3E0,9E0,6.04E2,1E1,1.4E1,4E0,3E0,2E0,5E0,2E0,1E0,4E0,5E0,1.58E2,4.46E2,4E0,6E0,1.2E1,2E0,1E0,1E0,3E0,1E0,2E0,3E0,1.23E2,3.5E1,1.8E1,4.28E2,5E0,1E0,6E0,6E0,5E0,1.18E2,2E1,1.5E1,4E0,1.4E1,3E0,4.25E2],"tree_param":{"num_deleted":"0","num_feature":"60","num_nodes":"53","size_leaf_vector":"0"}},{"base_weights":[-2.2347604E-3,4.4535108E-2,-5.093086E-3,6.022972E-3,9.175463E-2,-1.5438914E-1,-4.1185273E-3,-9.870874E-2,2.143158E-2,4.353816E-2,2.3757361E-1,-1.6508271E-3,-6.0242668E-2,3.9308183E-2,-4.005986E-2,7.5703934E-2,-1.1966862E-2,-4.363861E-3,6.285251E-2,-1.3904941E-1,-2.389021E-2,5.9199497E-2,5.276564E-3,1.07277736E-1,5.1357456E-2,4.784122E-3,-1.6273882E-2,9.664997E-2,-6.1566853E-3,-5.063451E-2,8.808164E-2,-5.934544E-2,-1.7500271E-1,4.446027E-2,-6.746635E-2,2.5161892E-2,7.0192486E-2,-1.054815E-2,1.9782137E-2,-4.2158067E-3,-1.823445E-2,1.4089558E-1,-4.942338E-3,-9.567789E-3,4.3854345E-2,1.5901044E-2,-7.124366E-2,1.4469662E-1,4.646614E-2,6.9149793E-3,8.027682E-2,-8.908744E-2,2.7092736E-2],"categories":[],"categories_nodes":[],"categories_segments":[],"categories_sizes":[],"default_left":[1,1,1,1,1,0,1,0,1,1,0,1,1,1,0,1,1,1,1,1,1,1,1,0,0,0,1,1,1,1,1,0,0,1,1,0,0,0,0,0,0,0,0,0,0,0,0,0,0,0,0,0,0],"id":18,"left_children":[1,3,5,7,9,-1,11,-1,13,15,-1,17,19,21,-1,23,25,27,29,31,33,35,37,-1,-1,-1,39,41,43,45,47,-1,-1,49,51,-1,-1,-1,-1,-1,-1,-1,-1,-1,-1,-1,-1,-1,-1,-1,-1,-1,-1],"loss_changes":[8.819057E-2,6.8551295E-2,8.971826E-2,3.761842E-2,1.0918139E-1,0E0,8.549203E-2,0E0,2.3559839E-2,2.5901005E-2,0E0,1.04049124E-1,7.116336E-2,1.0518568E-2,0E0,1.4088862E-3,5.107373E-4,1.0382207E-1,7.3176265E-2,1.2539357E-2,5.959012E-2,1.9755736E-3,1.8154909E-3,0E0,0E0,0E0,4.133035E-5,4.564649E-2,9.6122146E-2,7.989053E-3,4.039772E-2,0E0,0E0,1.0202831E-2,2.6947267E-2,0E0,0E0,0E0,0E0,0E0,0E0,0E0,0E0,0E0,0E0,0E0,0E0,0E0,0E0,0E0,0E0,0E0,0E0],"parents":[2147483647,0,0,1,1,2,2,3,3,4,4,6,6,8,8,9,9,11,11,12,12,13,13,15,15,16,16,17,17,18,18,19,19,20,20,21,21,22,22,26,26,27,27,28,28,29,29,30,30,33,33,34,34],"right_children":[2,4,6,8,10,-1,12,-1,14,16,-1,18,20,22,-1,24,26,28,30,32,34,36,38,-1,-1,-1,40,42,44,46,48,-1,-1,50,52,-1,-1,-1,-1,-1,-1,-1,-1,-1,-1,-1,-1,-1,-1,-1,-1,-1,-1],"split_conditions":[-6.6184103E-1,-1.0484514E-1,-1.4163241E0,-5.87471E-1,1.861225E-1,-4.6316743E-2,7.154863E-1,-2.9612623E-2,-1.4061531E-1,2.2284812E-1,7.127208E-2,7.254134E-1,-1.7966259E-1,8.8088736E-2,-1.2017959E-2,-8.583691E-2,-5.6019706E-1,-1.01268E0,-3.506987E-1,4.5651324E-2,-8.964597E-2,-3.6757302E-1,-2.3950271E-2,3.2183323E-2,1.5407237E-2,1.4352367E-3,1.9061425E-1,1.946176E-1,5.811819E-1,-3.0263728E-1,3.4686737E-4,-1.7803632E-2,-5.2500814E-2,2.6669502E-2,3.7088853E-1,7.548568E-3,2.1057747E-2,-3.1644453E-3,5.934641E-3,-1.2647421E-3,-5.4703355E-3,4.2268675E-2,-1.4827015E-3,-2.8703366E-3,1.3156304E-2,4.7703134E-3,-2.1373099E-2,4.340899E-2,1.3939842E-2,2.0744938E-3,2.4083046E-2,-2.6726233E-2,8.127822E-3],"split_indices":[6,0,59,51,51,0,25,0,0,28,0,28,30,42,0,7,1,27,32,1,48,7,17,0,0,0,0,58,9,0,48,0,0,0,18,0,0,0,0,0,0,0,0,0,0,0,0,0,0,0,0,0,0],"split_type":[0,0,0,0,0,0,0,0,0,0,0,0,0,0,0,0,0,0,0,0,0,0,0,0,0,0,0,0,0,0,0,0,0,0,0,0,0,0,0,0,0,0,0,0,0,0,0,0,0,0,0,0,0],"sum_hessian":[6.57E2,3.7E1,6.2E2,2.1E1,1.6E1,3E0,6.17E2,2E0,1.9E1,1.3E1,3E0,5.92E2,2.5E1,1.5E1,4E0,8E0,5E0,5.69E2,2.3E1,7E0,1.8E1,9E0,6E0,2E0,6E0,1E0,4E0,9E0,5.6E2,4E0,1.9E1,3E0,4E0,7E0,1.1E1,3E0,6E0,3E0,3E0,1E0,3E0,6E0,3E0,5.25E2,3.5E1,1E0,3E0,7E0,1.2E1,4E0,3E0,9E0,2E0],"tree_param":{"num_deleted":"0","num_feature":"60","num_nodes":"53","size_leaf_vector":"0"}},{"base_weights":[-1.4335334E-3,1.2278895E-1,-2.3810547E-3,1.1033498E-1,-3.4194447E-3,1.675882E-1,-2.7809788E-3,6.177481E-2,-5.164915E-3,-4.132174E-3,-3.9294362E-5,1.2115122E-1,1.8373933E-2,-6.9586183E-3,5.6506526E-2,1.3979697E-1,4.969123E-2,4.4893105E-2,-1.1207563E-2,-2.0963453E-2,4.471669E-3,1.2658648E-1,-2.7638592E-2,1.6959658E-2,-2.9531088E-2,-2.9333226E-2,3.7745655E-2,-2.864162E-4,6.4435E-2,1.6451856E-1,2.8558701E-2,-5.98461E-2,5.6725122E-2],"categories":[],"categories_nodes":[],"categories_segments":[],"categories_sizes":[],"default_left":[1,0,1,1,1,0,1,1,1,0,0,1,1,1,1,0,0,0,1,1,1,1,1,0,0,0,0,0,0,0,0,0,0],"id":19,"left_children":[1,-1,3,5,7,-1,9,11,13,-1,-1,15,17,19,21,-1,-1,-1,23,25,27,29,31,-1,-1,-1,-1,-1,-1,-1,-1,-1,-1],"loss_changes":[7.7741235E-2,0E0,7.692354E-2,3.9323576E-2,7.41718E-2,0E0,1.095128E-5,4.158277E-2,7.0415825E-2,0E0,0E0,2.3802966E-3,9.132387E-3,9.870258E-2,1.0964261E-1,0E0,0E0,0E0,3.5975734E-3,1.3722003E-1,9.702407E-2,3.248556E-2,2.7849082E-2,0E0,0E0,0E0,0E0,0E0,0E0,0E0,0E0,0E0,0E0],"parents":[2147483647,0,0,2,2,3,3,4,4,6,6,7,7,8,8,11,11,12,12,13,13,14,14,18,18,19,19,20,20,21,21,22,22],"right_children":[2,-1,4,6,8,-1,10,12,14,-1,-1,16,18,20,22,-1,-1,-1,24,26,28,30,32,-1,-1,-1,-1,-1,-1,-1,-1,-1,-1],"split_conditions":[-1.4298277E0,3.6836687E-2,-1.3083215E0,2.0824473E-2,-9.162921E-1,5.0276462E-2,1.0625236E-1,-1.6980521E-1,8.345442E-1,-1.2396523E-3,-1.1788309E-5,1.9388396E-1,-4.2206474E-2,-4.1588835E-2,-1.4049792E-1,4.1939095E-2,1.4907369E-2,1.3467932E-2,2.3270266E-1,4.1886765E-1,5.471428E-1,2.1833166E-1,3.3855212E-1,5.0878976E-3,-8.859327E-3,-8.799968E-3,1.1323697E-2,-8.592487E-5,1.93305E-2,4.935557E-2,8.567611E-3,-1.795383E-2,1.7017538E-2],"split_indices":[42,0,25,0,34,0,0,10,34,0,0,1,50,36,25,0,0,0,4,24,23,8,26,0,0,0,0,0,0,0,0,0,0],"split_type":[0,0,0,0,0,0,0,0,0,0,0,0,0,0,0,0,0,0,0,0,0,0,0,0,0,0,0,0,0,0,0,0,0],"sum_hessian":[6.57E2,4E0,6.53E2,5E0,6.48E2,3E0,2E0,1.6E1,6.32E2,1E0,1E0,6E0,1E1,6.15E2,1.7E1,4E0,2E0,5E0,5E0,2.76E2,3.39E2,9E0,8E0,2E0,3E0,2.42E2,3.4E1,3.15E2,2.4E1,6E0,3E0,6E0,2E0],"tree_param":{"num_deleted":"0","num_feature":"60","num_nodes":"33","size_leaf_vector":"0"}},{"base_weights":[-6.521662E-4,3.7132565E-2,-3.157865E-3,9.3213886E-2,-6.4756176E-3,-5.6439363E-3,4.108443E-2,1.5583083E-1,2.7537253E-2,-8.135269E-2,3.604746E-2,-3.0022835E-2,-4.4420394E-4,7.370289E-2,-3.0852742E-2,1.9762683E-1,6.3632154E-3,4.4867538E-2,-9.6750595E-3,-9.754885E-2,-1.6444081E-2,8.266943E-3,1.1732228E-1,-6.055711E-3,-1.5996559E-1,2.9263234E-2,-8.354685E-3,-8.152947E-4,1.0635555E-1,-3.6083136E-3,-5.2955046E-2,1.3057169E-2,-3.5123453E-3,9.778276E-3,4.9086034E-2,-1.636181E-2,5.1925965E-3,-5.556957E-2,2.492536E-2,3.40625E-2,1.3372137E-1,7.4393814E-3,-1.12061374E-1,-8.369485E-2,-2.4607156E-1,-4.3367982E-2,4.228434E-2,-4.3041684E-2,-1.6498764E-3,-2.9619118E-2,5.7064116E-2,4.504698E-2,1.3012789E-1,1.3623084E-2,-1.5629783E-2,6.652703E-2,8.288654E-3,-1.0008193E-1,2.0964064E-2,-1.9283818E-2,-1.706991E-1,1.335621E-2,-1.0962714E-1,-2.9134154E-1,-8.859774E-2,8.232756E-2,-7.870753E-2,5.848035E-2,-2.7845124E-2,-6.605424E-2,5.8348477E-2,-4.6805423E-3,1.0427002E-1,-4.5346104E-2,1.2232388E-3,6.9802046E-2,1.5794128E-2,5.023985E-2,9.541325E-3,-1.857683E-2,-3.3943206E-3],"categories":[],"categories_nodes":[],"categories_segments":[],"categories_sizes":[],"default_left":[1,1,1,1,1,1,1,1,1,1,1,1,1,1,1,0,1,1,1,0,0,1,1,1,1,1,1,1,1,1,0,0,0,0,0,0,0,0,1,0,0,1,1,1,1,1,1,1,1,1,1,1,0,0,1,0,0,0,0,0,0,0,0,0,0,0,0,0,0,0,0,0,0,0,0,0,0,0,0,0,0],"id":20,"left_children":[1,3,5,7,9,11,13,15,17,19,21,23,25,27,29,-1,31,33,35,-1,-1,37,39,41,43,45,47,49,51,53,-1,-1,-1,-1,-1,-1,-1,-1,55,-1,-1,57,59,61,63,65,67,69,71,73,75,77,-1,-1,79,-1,-1,-1,-1,-1,-1,-1,-1,-1,-1,-1,-1,-1,-1,-1,-1,-1,-1,-1,-1,-1,-1,-1,-1,-1,-1],"loss_changes":[6.241483E-2,1.0087341E-1,6.8205394E-2,6.973332E-2,7.934864E-2,7.4270226E-2,7.970776E-2,5.4966792E-2,6.8830955E-3,7.857338E-3,3.515581E-2,3.198098E-1,1.13984555E-1,5.6050703E-2,6.4327316E-3,0E0,2.4418093E-4,5.5619143E-4,4.8262553E-4,0E0,0E0,1.520949E-2,9.066537E-4,1.2672262E-1,8.448294E-2,9.829913E-2,8.900318E-2,1.5027374E-2,1.7457306E-2,1.4558062E-3,0E0,0E0,0E0,0E0,0E0,0E0,0E0,0E0,7.061843E-3,0E0,0E0,1.16979256E-1,5.1110923E-2,2.6631765E-2,2.4089634E-2,7.755218E-2,1.00444496E-1,1.4851546E-1,1.0385256E-1,2.965813E-3,4.746206E-4,6.269021E-4,0E0,0E0,8.117815E-5,0E0,0E0,0E0,0E0,0E0,0E0,0E0,0E0,0E0,0E0,0E0,0E0,0E0,0E0,0E0,0E0,0E0,0E0,0E0,0E0,0E0,0E0,0E0,0E0,0E0,0E0],"parents":[2147483647,0,0,1,1,2,2,3,3,4,4,5,5,6,6,7,7,8,8,9,9,10,10,11,11,12,12,13,13,14,14,16,16,17,17,18,18,21,21,22,22,23,23,24,24,25,25,26,26,27,27,28,28,29,29,38,38,41,41,42,42,43,43,44,44,45,45,46,46,47,47,48,48,49,49,50,50,51,51,54,54],"right_children":[2,4,6,8,10,12,14,16,18,20,22,24,26,28,30,-1,32,34,36,-1,-1,38,40,42,44,46,48,50,52,54,-1,-1,-1,-1,-1,-1,-1,-1,56,-1,-1,58,60,62,64,66,68,70,72,74,76,78,-1,-1,80,-1,-1,-1,-1,-1,-1,-1,-1,-1,-1,-1,-1,-1,-1,-1,-1,-1,-1,-1,-1,-1,-1,-1,-1,-1,-1],"split_conditions":[-6.315712E-1,2.13858E-2,6.4743185E-1,-1.5879393E-1,-1.0437668E-1,-3.2213777E-1,2.3914933E-1,2.0863387E-1,2.1052167E-1,2.7613032E-1,2.0205945E-1,-3.748439E-1,-2.8257632E-1,-2.5881237E-1,-9.127092E-2,5.928805E-2,-1.6478053E-1,-6.403528E-2,2.3266636E-1,-2.9264657E-2,-4.9332245E-3,-3.7153322E-1,2.997391E-3,4.6219468E-1,4.4159494E-2,-3.8095534E-1,-3.7186414E-1,4.0003526E-1,-1.14107855E-1,4.697041E-2,-1.5886515E-2,3.9171507E-3,-1.0537036E-3,2.9334829E-3,1.4725811E-2,-4.908543E-3,1.557779E-3,-1.6670872E-2,-2.4005048E-1,1.0218751E-2,4.011641E-2,-6.4194226E-1,2.2799818E-2,-3.2884657E-1,8.4557064E-2,-4.1144168E-1,4.21264E-1,3.449136E-1,8.0294967E-1,-6.2229715E-2,5.1046914E-1,4.0337738E-1,3.9038368E-2,4.086925E-3,4.997821E-2,1.995811E-2,2.4865961E-3,-3.0024579E-2,6.2892195E-3,-5.785146E-3,-5.1209733E-2,4.006863E-3,-3.2888144E-2,-8.740246E-2,-2.6579322E-2,2.4698269E-2,-2.361226E-2,1.7544106E-2,-8.353538E-3,-1.9816272E-2,1.7504543E-2,-1.4041627E-3,3.1281006E-2,-1.3603832E-2,3.6697165E-4,2.0940615E-2,4.7382386E-3,1.50719555E-2,2.8623976E-3,-5.573049E-3,-1.0182962E-3],"split_indices":[36,22,22,15,14,35,54,7,7,3,1,35,59,38,29,0,0,6,1,0,0,3,0,15,50,23,10,0,58,0,0,0,0,0,0,0,0,0,44,0,0,26,43,19,12,2,46,12,54,2,0,1,0,0,1,0,0,0,0,0,0,0,0,0,0,0,0,0,0,0,0,0,0,0,0,0,0,0,0,0,0],"split_type":[0,0,0,0,0,0,0,0,0,0,0,0,0,0,0,0,0,0,0,0,0,0,0,0,0,0,0,0,0,0,0,0,0,0,0,0,0,0,0,0,0,0,0,0,0,0,0,0,0,0,0,0,0,0,0,0,0,0,0,0,0,0,0,0,0,0,0,0,0,0,0,0,0,0,0,0,0,0,0,0,0],"sum_hessian":[6.57E2,4E1,6.17E2,1.7E1,2.3E1,5.85E2,3.2E1,8E0,9E0,8E0,1.5E1,1.02E2,4.83E2,2.2E1,1E1,6E0,2E0,6E0,3E0,6E0,2E0,1.2E1,3E0,8.7E1,1.5E1,1.01E2,3.82E2,7E0,1.5E1,5E0,5E0,1E0,1E0,1E0,5E0,2E0,1E0,2E0,1E1,1E0,2E0,7.8E1,9E0,9E0,6E0,1.5E1,8.6E1,6.1E1,3.21E2,5E0,2E0,5E0,1E1,2E0,3E0,2E0,8E0,8E0,7E1,4E0,5E0,2E0,7E0,4E0,2E0,3E0,1.2E1,7E1,1.6E1,5E1,1.1E1,3.13E2,8E0,3E0,2E0,1E0,1E0,4E0,1E0,2E0,1E0],"tree_param":{"num_deleted":"0","num_feature":"60","num_nodes":"81","size_leaf_vector":"0"}},{"base_weights":[-5.117682E-4,6.873386E-4,-7.8282624E-2,-2.857198E-3,3.4901187E-2,-1.2927948E-1,3.0532535E-2,-1.7219606E-3,-1.6845518E-1,5.0175536E-2,-5.8925666E-2,-1.4731877E-1,-5.6120854E-2,-6.25389E-2,4.2629451E-4,-1.9352672E-1,-4.6620294E-2,7.6132715E-2,-2.8113628E-4,-8.761282E-2,-1.1635157E-3,-1.2713253E-1,-8.882098E-3,2.5169356E-3,-6.347809E-2,4.1503116E-2,1.19538635E-1,-9.5313884E-2,2.3494622E-2,-1.1306996E-1,-4.661677E-2,-1.9525448E-2,2.696114E-2,-2.03259E-1,-5.519279E-2,2.3286223E-2,-7.90403E-2,1.2159662E-2,-1.157096E-2,1.2561158E-2,-1.4091302E-1,8.08217E-2,5.279034E-3,2.6172645E-2,1.4069909E-1,-1.1397195E-3,4.827143E-2],"categories":[],"categories_nodes":[],"categories_segments":[],"categories_sizes":[],"default_left":[1,1,1,1,1,1,0,1,1,1,1,0,0,1,1,0,0,1,1,1,1,1,1,1,1,1,1,0,1,0,0,0,0,0,0,0,0,0,0,0,0,0,0,0,0,0,0],"id":21,"left_children":[1,3,5,7,9,11,-1,13,15,17,19,-1,-1,21,23,-1,-1,25,27,29,31,33,35,37,39,41,43,-1,45,-1,-1,-1,-1,-1,-1,-1,-1,-1,-1,-1,-1,-1,-1,-1,-1,-1,-1],"loss_changes":[6.1415963E-2,7.880541E-2,5.943954E-2,1.10437825E-1,9.037841E-2,9.704456E-4,0E0,7.658774E-2,3.1960756E-3,6.943619E-2,1.4811348E-2,0E0,0E0,6.818855E-2,7.591161E-2,0E0,0E0,4.7648296E-2,4.5169402E-2,9.908974E-4,2.5921203E-3,3.807023E-2,2.8923005E-2,7.485585E-2,1.0775572E-1,2.9483214E-2,2.5952518E-2,0E0,9.820779E-3,0E0,0E0,0E0,0E0,0E0,0E0,0E0,0E0,0E0,0E0,0E0,0E0,0E0,0E0,0E0,0E0,0E0,0E0],"parents":[2147483647,0,0,1,1,2,2,3,3,4,4,5,5,7,7,8,8,9,9,10,10,13,13,14,14,17,17,18,18,19,19,20,20,21,21,22,22,23,23,24,24,25,25,26,26,28,28],"right_children":[2,4,6,8,10,12,-1,14,16,18,20,-1,-1,22,24,-1,-1,26,28,30,32,34,36,38,40,42,44,-1,46,-1,-1,-1,-1,-1,-1,-1,-1,-1,-1,-1,-1,-1,-1,-1,-1,-1,-1],"split_conditions":[9.294481E-1,4.724178E-1,2.2737607E-2,4.600225E-1,3.9164758E-1,-9.038098E-2,9.159761E-3,-6.998979E-1,4.595405E-2,6.8798825E-2,4.5624498E-1,-4.419563E-2,-1.6836258E-2,-2.1052632E-2,7.271173E-1,-5.8058016E-2,-1.3986089E-2,2.0940335E-1,-2.0326522E-1,-8.8152155E-2,-1.717791E-2,2.0841837E-2,2.1438605E-1,1.2605077E-1,2.099958E-2,-4.2680323E-2,-3.737974E-1,-2.8594166E-2,-8.613902E-2,-3.392099E-2,-1.3985031E-2,-5.8576344E-3,8.088343E-3,-6.0977705E-2,-1.6557839E-2,6.9858674E-3,-2.371209E-2,3.6478988E-3,-3.4712881E-3,3.7683477E-3,-4.227391E-2,2.4246512E-2,1.5837102E-3,7.851794E-3,4.220973E-2,-3.4191587E-4,1.4481429E-2],"split_indices":[48,48,8,48,27,25,0,13,0,10,39,0,0,27,11,0,0,38,30,0,1,10,16,17,59,7,1,0,54,0,0,0,0,0,0,0,0,0,0,0,0,0,0,0,0,0,0],"split_type":[0,0,0,0,0,0,0,0,0,0,0,0,0,0,0,0,0,0,0,0,0,0,0,0,0,0,0,0,0,0,0,0,0,0,0,0,0,0,0,0,0,0,0,0,0,0,0],"sum_hessian":[6.57E2,6.48E2,9E0,5.88E2,6E1,6E0,3E0,5.85E2,3E0,5.2E1,8E0,4E0,2E0,1.9E1,5.66E2,2E0,1E0,3.4E1,1.8E1,5E0,3E0,8E0,1.1E1,5.49E2,1.7E1,2E1,1.4E1,3E0,1.5E1,2E0,3E0,2E0,1E0,3E0,5E0,8E0,3E0,3.26E2,2.23E2,9E0,8E0,9E0,1.1E1,3E0,1.1E1,8E0,7E0],"tree_param":{"num_deleted":"0","num_feature":"60","num_nodes":"47","size_leaf_vector":"0"}},{"base_weights":[-7.2411244E-4,-2.650734E-3,3.832887E-2,1.5227282E-2,-8.049367E-3,-4.583643E-2,5.2495454E-2,2.831622E-2,-3.424188E-2,-1.7622068E-3,-4.0671643E-2,-6.5241456E-2,1.589184E-2,7.542064E-3,7.455314E-2,4.7945876E-2,-2.0436067E-2,-2.2159507E-3,-9.22694E-2,9.6360415E-2,-3.725161E-3,-1.3182896E-1,-2.3737919E-2,4.8519164E-2,-1.6950859E-2,2.0024035E-2,9.3985565E-2,-3.398187E-2,6.227144E-2,-1.8910768E-3,-1.5905073E-1,2.0956678E-2,-8.05597E-2,-1.0609611E-2,-1.0923717E-1,1.607928E-1,2.5542436E-2,-5.8182185E-3,8.762047E-2,7.3859625E-2,-1.8035266E-1,-8.440975E-2,2.0365503E-3,-2.0497682E-2,2.1650344E-3,-4.1324385E-3,2.5681818E-2,1.0497008E-1,2.2380473E-2,-8.3909236E-2,3.8251597E-2,8.5604295E-2,6.4116963E-3,-6.309765E-2,2.2141542E-2,3.429176E-2,-3.0955268E-2,-9.272319E-2,-1.5952876E-2,3.3581648E-2,-3.307207E-3,-1.0107182E-2,3.6756482E-2,1.8600017E-3,1.5585683E-1,-2.2595951E-1,-5.545249E-2,-1.7957692E-1,-4.0715564E-2,1.9209918E-2,-6.5143235E-2,-2.2385903E-2,-5.528286E-3],"categories":[],"categories_nodes":[],"categories_segments":[],"categories_sizes":[],"default_left":[1,1,1,1,1,1,1,1,1,1,1,0,0,1,1,1,1,1,1,1,1,1,1,0,1,1,1,1,1,1,0,1,1,0,0,0,1,1,1,0,1,1,1,1,0,0,0,0,0,0,0,0,0,0,0,0,0,0,0,0,0,0,0,0,0,0,0,0,0,0,0,0,0],"id":22,"left_children":[1,3,5,7,9,11,13,15,17,19,21,-1,-1,23,25,27,29,31,33,35,37,39,41,-1,43,45,47,49,51,53,-1,55,57,-1,-1,-1,59,61,63,-1,65,67,69,71,-1,-1,-1,-1,-1,-1,-1,-1,-1,-1,-1,-1,-1,-1,-1,-1,-1,-1,-1,-1,-1,-1,-1,-1,-1,-1,-1,-1,-1],"loss_changes":[4.9609736E-2,6.0735147E-2,3.9368574E-2,9.550442E-2,9.899235E-2,7.026002E-3,2.6210055E-2,1.1199076E-1,5.7405476E-2,7.855871E-2,1.1727403E-1,0E0,0E0,1.0858931E-2,1.7191418E-2,9.952995E-2,8.709989E-2,3.9812308E-2,1.4082462E-2,3.2396726E-2,7.679526E-2,1.3309E-1,1.0494545E-1,0E0,5.1898276E-4,9.2616095E-4,7.87583E-3,5.0093208E-2,9.19902E-2,4.699666E-2,0E0,1.2829758E-2,2.4500191E-3,0E0,0E0,0E0,1.2707037E-3,7.176863E-2,5.2377954E-2,0E0,4.4433028E-2,7.585345E-2,5.6629147E-2,4.58376E-5,0E0,0E0,0E0,0E0,0E0,0E0,0E0,0E0,0E0,0E0,0E0,0E0,0E0,0E0,0E0,0E0,0E0,0E0,0E0,0E0,0E0,0E0,0E0,0E0,0E0,0E0,0E0,0E0,0E0],"parents":[2147483647,0,0,1,1,2,2,3,3,4,4,5,5,6,6,7,7,8,8,9,9,10,10,13,13,14,14,15,15,16,16,17,17,18,18,19,19,20,20,21,21,22,22,24,24,25,25,26,26,27,27,28,28,29,29,31,31,32,32,36,36,37,37,38,38,40,40,41,41,42,42,43,43],"right_children":[2,4,6,8,10,12,14,16,18,20,22,-1,-1,24,26,28,30,32,34,36,38,40,42,-1,44,46,48,50,52,54,-1,56,58,-1,-1,-1,60,62,64,-1,66,68,70,72,-1,-1,-1,-1,-1,-1,-1,-1,-1,-1,-1,-1,-1,-1,-1,-1,-1,-1,-1,-1,-1,-1,-1,-1,-1,-1,-1,-1,-1],"split_conditions":[7.2204626E-1,-2.563555E-1,-4.9473825E-1,2.973466E-1,3.6663735E-1,4.1876048E-2,-1.5571421E-1,1.9989745E-1,2.2737607E-2,-9.915786E-1,-3.7689102E-1,-1.9572437E-2,4.7675525E-3,-1.366023E-1,-1.973739E-1,-4.0268973E-1,1.863338E-1,3.0319345E-1,-2.9344672E-1,-1.554867E-1,7.9176915E-1,-2.400006E-1,-1.0964103E-1,1.45557495E-2,6.273267E-1,-1.07086256E-1,3.9093047E-1,-6.788224E-2,2.9769677E-1,-1.7986149E-1,-4.771522E-2,3.6590838E-1,3.5157755E-1,-3.1828834E-3,-3.277115E-2,4.823784E-2,4.643363E-1,5.2405953E-1,-9.4411016E-2,2.2157889E-2,6.446303E-2,-1.6137746E-1,3.727876E-1,5.3301674E-1,6.4951036E-4,-1.2397316E-3,7.7045457E-3,3.1491026E-2,6.7141424E-3,-2.5172772E-2,1.1475479E-2,2.5681289E-2,1.923509E-3,-1.8929295E-2,6.642463E-3,1.0287528E-2,-9.286581E-3,-2.7816959E-2,-4.7858628E-3,1.0074494E-2,-9.921622E-4,-3.0321546E-3,1.1026945E-2,5.580005E-4,4.675705E-2,-6.7787856E-2,-1.6635748E-2,-5.3873077E-2,-1.221467E-2,5.7629757E-3,-1.9542972E-2,-6.7157713E-3,-1.6584859E-3],"split_indices":[41,40,37,13,7,1,40,51,15,26,25,0,0,10,57,42,53,18,27,18,51,8,32,0,1,1,9,27,11,5,0,3,2,0,0,0,0,9,30,0,30,49,53,0,0,0,0,0,0,0,0,0,0,0,0,0,0,0,0,0,0,0,0,0,0,0,0,0,0,0,0,0,0],"split_type":[0,0,0,0,0,0,0,0,0,0,0,0,0,0,0,0,0,0,0,0,0,0,0,0,0,0,0,0,0,0,0,0,0,0,0,0,0,0,0,0,0,0,0,0,0,0,0,0,0,0,0,0,0,0,0,0,0,0,0,0,0,0,0,0,0,0,0,0,0,0,0,0,0],"sum_hessian":[6.57E2,6.27E2,3E1,1.45E2,4.82E2,4E0,2.6E1,1.15E2,3E1,4.05E2,7.7E1,3E0,1E0,9E0,1.7E1,8.2E1,3.3E1,2E1,1E1,7E0,3.98E2,1.1E1,6.6E1,3E0,6E0,5E0,1.2E1,1.2E1,7E1,3E1,3E0,1.6E1,4E0,2E0,8E0,3E0,4E0,3.9E2,8E0,2E0,9E0,1.9E1,4.7E1,5E0,1E0,1E0,4E0,1E1,2E0,7E0,5E0,4.9E1,2.1E1,8E0,2.2E1,1.3E1,3E0,3E0,1E0,3E0,1E0,3.55E2,3.5E1,4E0,4E0,6E0,3E0,5E0,1.4E1,3.8E1,9E0,4E0,1E0],"tree_param":{"num_deleted":"0","num_feature":"60","num_nodes":"73","size_leaf_vector":"0"}},{"base_weights":[-6.6867017E-4,1.7191058E-2,-5.2258796E-3,3.6825184E-2,-1.2578482E-2,2.8218577E-2,-9.3595395E-3,4.8227757E-2,-7.3251784E-2,-6.7108594E-2,8.184772E-3,1.0865633E-3,8.3853416E-2,-7.1887346E-3,-9.1251045E-2,3.6327105E-2,1.4186728E-1,-2.8743383E-2,-9.420815E-2,-3.0732617E-2,-1.3371402E-1,2.8711041E-2,-4.854003E-2,-2.0866241E-2,6.90316E-2,-3.2801334E-2,1.1714811E-1,-1.0622119E-2,3.8742833E-2,-1.6081065E-1,-5.0196663E-2,1.3085532E-2,6.8231955E-2,1.6345331E-1,5.1406115E-2,3.3510118E-3,-5.0687693E-2,8.934176E-2,6.37379E-3,-1.11838475E-1,3.6074312E-3,-1.1967754E-3,-8.813344E-2,1.2220766E-1,1.3212953E-2,-5.9954017E-2,5.2851285E-3,2.0032233E-2,1.5064186E-1,-2.0402E-2,4.9715242E-3,1.0464089E-1,2.559165E-2,2.095206E-2,-6.170926E-2,1.2353996E-1,4.0210886E-3,1.0725928E-1,1.4949707E-2,-5.1900744E-3,1.0775094E-2,4.3370064E-2,1.0825076E-1,8.374822E-2,-9.419787E-3,4.4733476E-2,-2.1789681E-2,-5.0969742E-2,3.5383184E-2,-1.3846945E-2,-9.82067E-2,1.3847667E-1,2.8565794E-2,2.6827741E-2,-2.7430497E-2,-5.1075444E-3,1.3035237E-2,3.6178723E-2,-2.2276863E-2,-7.6778054E-2,-1.30557185E-2,2.720931E-2,-2.7150162E-2,4.9266312E-2,-1.6020369E-3,-6.6684216E-2,-1.3442278E-2],"categories":[],"categories_nodes":[],"categories_segments":[],"categories_sizes":[],"default_left":[1,1,1,1,1,1,1,1,1,1,1,1,1,1,1,1,1,0,0,1,0,1,1,1,1,1,1,1,1,0,1,1,1,0,0,1,0,1,1,0,1,1,1,1,1,0,1,1,0,1,1,0,1,0,1,0,0,0,0,0,0,0,0,0,0,0,0,0,0,0,0,0,0,0,0,0,0,0,0,0,0,0,0,0,0,0,0],"id":23,"left_children":[1,3,5,7,9,11,13,15,17,19,21,23,25,27,29,31,33,-1,-1,35,-1,37,39,41,43,45,47,49,51,-1,53,55,57,-1,-1,59,-1,61,63,-1,65,67,69,71,73,-1,75,77,-1,79,81,-1,83,-1,85,-1,-1,-1,-1,-1,-1,-1,-1,-1,-1,-1,-1,-1,-1,-1,-1,-1,-1,-1,-1,-1,-1,-1,-1,-1,-1,-1,-1,-1,-1,-1,-1],"loss_changes":[5.3644806E-2,7.878605E-2,7.284431E-2,1.0520081E-1,6.168928E-2,8.745903E-2,8.25406E-2,7.730986E-2,4.7540106E-3,3.223318E-2,4.796758E-2,6.1103795E-2,7.76383E-2,7.248075E-2,2.619657E-2,4.878892E-2,7.219076E-3,0E0,0E0,7.65141E-3,0E0,4.006026E-2,3.6712836E-2,4.0910933E-2,2.8067436E-2,5.487613E-3,4.577394E-2,6.5068126E-2,2.5054466E-2,0E0,8.664895E-3,3.9551552E-2,5.6621477E-2,0E0,0E0,3.729722E-4,0E0,2.2593886E-3,2.889533E-2,0E0,8.286107E-3,4.7320798E-2,3.8782842E-3,3.6616102E-3,4.0560104E-3,0E0,3.0821108E-4,4.2216657E-3,0E0,1.0750604E-1,1.1860074E-1,0E0,1.8105365E-2,0E0,1.0246225E-3,0E0,0E0,0E0,0E0,0E0,0E0,0E0,0E0,0E0,0E0,0E0,0E0,0E0,0E0,0E0,0E0,0E0,0E0,0E0,0E0,0E0,0E0,0E0,0E0,0E0,0E0,0E0,0E0,0E0,0E0,0E0,0E0],"parents":[2147483647,0,0,1,1,2,2,3,3,4,4,5,5,6,6,7,7,8,8,9,9,10,10,11,11,12,12,13,13,14,14,15,15,16,16,19,19,21,21,22,22,23,23,24,24,25,25,26,26,27,27,28,28,30,30,31,31,32,32,35,35,37,37,38,38,40,40,41,41,42,42,43,43,44,44,46,46,47,47,49,49,50,50,52,52,54,54],"right_children":[2,4,6,8,10,12,14,16,18,20,22,24,26,28,30,32,34,-1,-1,36,-1,38,40,42,44,46,48,50,52,-1,54,56,58,-1,-1,60,-1,62,64,-1,66,68,70,72,74,-1,76,78,-1,80,82,-1,84,-1,86,-1,-1,-1,-1,-1,-1,-1,-1,-1,-1,-1,-1,-1,-1,-1,-1,-1,-1,-1,-1,-1,-1,-1,-1,-1,-1,-1,-1,-1,-1,-1,-1],"split_conditions":[-2.8361088E-1,8.638333E-2,-4.9923417E-1,5.975921E-1,-1.9925117E-1,2.989236E-1,7.473419E-1,4.4163442E-1,-1.3981679E-1,3.2784086E-1,2.4131978E-1,1.7937541E-1,-2.2627975E-1,5.254426E-1,-1.5775836E-1,6.374624E-2,7.6039994E-1,-8.623015E-3,-2.8262446E-2,-1.9836344E-2,-4.011421E-2,-1.3402736E-1,4.7686934E-2,4.4212006E-2,-1.6003275E-1,-2.374784E-1,-3.7643123E-1,9.214526E-2,-4.2988253E-1,-4.82432E-2,-3.85081E-1,-9.5956683E-1,6.457828E-2,4.9035996E-2,1.5421835E-2,-4.007008E-1,-1.5206308E-2,-6.921578E-2,-4.8804945E-1,-3.3551544E-2,-2.2644928E-2,-2.299908E-2,-3.080318E-1,6.8458354E-1,1.8335474E-1,-1.7986206E-2,-1.07944734E-1,5.226754E-1,4.519256E-2,-3.826542E-1,1.3736679E-1,3.139227E-2,1.1134042E-1,6.2856185E-3,6.908992E-1,3.706199E-2,1.2063266E-3,3.2177787E-2,4.4849124E-3,-1.5570224E-3,3.2325282E-3,1.301102E-2,3.247523E-2,2.5124468E-2,-2.825936E-3,1.34200435E-2,-6.5369047E-3,-1.5290923E-2,1.0614956E-2,-4.154084E-3,-2.9462012E-2,4.1543003E-2,8.569739E-3,8.048323E-3,-8.2291495E-3,-1.5322634E-3,3.9105713E-3,1.0853617E-2,-6.6830595E-3,-2.3033418E-2,-3.9167157E-3,8.162794E-3,-8.145049E-3,1.4779895E-2,-4.8061108E-4,-2.0005265E-2,-4.0326836E-3],"split_indices":[9,22,24,26,1,17,20,3,1,13,23,39,45,20,30,34,3,0,0,57,0,12,53,39,25,0,30,59,59,0,2,58,59,0,0,1,0,10,21,0,0,30,0,1,0,0,0,6,0,42,58,0,47,0,0,0,0,0,0,0,0,0,0,0,0,0,0,0,0,0,0,0,0,0,0,0,0,0,0,0,0,0,0,0,0,0,0],"split_type":[0,0,0,0,0,0,0,0,0,0,0,0,0,0,0,0,0,0,0,0,0,0,0,0,0,0,0,0,0,0,0,0,0,0,0,0,0,0,0,0,0,0,0,0,0,0,0,0,0,0,0,0,0,0,0,0,0,0,0,0,0,0,0,0,0,0,0,0,0,0,0,0,0,0,0,0,0,0,0,0,0,0,0,0,0,0,0],"sum_hessian":[6.57E2,1.33E2,5.24E2,8E1,5.3E1,5.7E1,4.67E2,7.3E1,7E0,1.4E1,3.9E1,3.9E1,1.8E1,4.56E2,1.1E1,6.6E1,7E0,3E0,4E0,1E1,4E0,2.9E1,1E1,3E1,9E0,4E0,1.4E1,4.25E2,3.1E1,3E0,8E0,3.9E1,2.7E1,5E0,2E0,4E0,6E0,7E0,2.2E1,4E0,6E0,2.4E1,6E0,4E0,5E0,2E0,2E0,4E0,1E1,2.61E2,1.64E2,4E0,2.7E1,1E0,7E0,2E0,3.7E1,1.5E1,1.2E1,2E0,2E0,3E0,4E0,3E0,1.9E1,2E0,4E0,1E1,1.4E1,1E0,5E0,3E0,1E0,4E0,1E0,1E0,1E0,3E0,1E0,2.9E1,2.32E2,9.7E1,6.7E1,1.4E1,1.3E1,6E0,1E0],"tree_param":{"num_deleted":"0","num_feature":"60","num_nodes":"87","size_leaf_vector":"0"}},{"base_weights":[-3.341276E-4,-7.1852446E-2,7.683644E-4,-1.4606301E-2,-1.2617733E-1,3.2617066E-2,-1.3770628E-3,1.7009318E-2,-2.4331288E-2,-2.4682706E-2,6.3242234E-2,-2.138122E-1,-6.759981E-4,-2.6768569E-2,-7.2910823E-3,-6.774664E-2,2.1466566E-2,1.2647796E-1,3.4785837E-2,5.309311E-4,-6.0664393E-2,-2.5573093E-2,-7.7542305E-2,-3.1831503E-2,4.453784E-2,1.39551945E-2,1.6165967E-1,8.988193E-3,8.141171E-2,-1.7502978E-2,4.549674E-3,-8.992554E-2,-1.713676E-3,1.9726256E-2,5.2012067E-2,3.718093E-3,1.7214699E-2,-1.798816E-2,4.795469E-2,9.231229E-2,8.004136E-3,-6.301665E-3,-9.9735625E-2,1.9371193E-2,-5.431176E-3,-2.3494279E-2,-1.0815358E-1,6.6565126E-3,-9.51264E-3],"categories":[],"categories_nodes":[],"categories_segments":[],"categories_sizes":[],"default_left":[1,1,1,1,0,1,1,0,1,1,1,0,1,0,0,1,1,1,1,1,1,0,0,0,1,1,0,1,1,1,1,1,1,0,0,0,0,0,0,0,0,0,0,0,0,0,0,0,0],"id":24,"left_children":[1,3,5,7,-1,9,11,-1,13,15,17,-1,19,-1,-1,21,23,25,27,29,31,-1,-1,-1,33,35,-1,37,39,41,43,45,47,-1,-1,-1,-1,-1,-1,-1,-1,-1,-1,-1,-1,-1,-1,-1,-1],"loss_changes":[5.1937435E-2,2.9255915E-2,4.4390485E-2,2.2586277E-3,0E0,7.350841E-2,9.0554304E-2,0E0,1.248694E-5,3.1264823E-2,4.418581E-2,0E0,4.405247E-2,0E0,0E0,1.3219491E-3,1.1254941E-2,2.9413968E-2,2.3325011E-2,4.33464E-2,2.0545486E-2,0E0,0E0,0E0,8.6680986E-5,3.6097772E-5,0E0,1.5579053E-2,4.862413E-3,9.977289E-2,7.244365E-2,7.146299E-3,3.89715E-4,0E0,0E0,0E0,0E0,0E0,0E0,0E0,0E0,0E0,0E0,0E0,0E0,0E0,0E0,0E0,0E0],"parents":[2147483647,0,0,1,1,2,2,3,3,5,5,6,6,8,8,9,9,10,10,12,12,15,15,16,16,17,17,18,18,19,19,20,20,24,24,25,25,27,27,28,28,29,29,30,30,31,31,32,32],"right_children":[2,4,6,8,-1,10,12,-1,14,16,18,-1,20,-1,-1,22,24,26,28,30,32,-1,-1,-1,34,36,-1,38,40,42,44,46,48,-1,-1,-1,-1,-1,-1,-1,-1,-1,-1,-1,-1,-1,-1,-1,-1],"split_conditions":[-1.2772993E0,-8.909074E-2,-6.2515E-1,-2.3781028E-1,-3.78532E-2,-6.397561E-2,-6.1598074E-1,5.1027955E-3,4.1539788E-1,-2.179599E-2,-1.0663342E-1,-6.4143665E-2,8.7150156E-1,-8.030571E-3,-2.1873247E-3,-1.9424199E-1,-3.0091822E-1,-3.2696274E-1,1.7744935E-1,-3.2742983E-1,1.3475552E-1,-7.6719285E-3,-2.3262693E-2,-9.549451E-3,-2.6925012E-2,-1.5144044E-1,4.8497904E-2,2.1635655E-2,4.157615E-1,-3.6672172E-1,-4.5382537E-2,-1.0719141E-1,-1.628173E-1,5.917877E-3,1.5603621E-2,1.1154279E-3,5.16441E-3,-5.396448E-3,1.4386407E-2,2.7693689E-2,2.401241E-3,-1.8904996E-3,-2.9920688E-2,5.811358E-3,-1.6293529E-3,-7.048284E-3,-3.2446075E-2,1.996954E-3,-2.853792E-3],"split_indices":[16,57,43,1,0,20,43,0,1,34,41,0,4,0,0,8,1,4,15,35,50,0,0,0,10,0,0,52,2,35,20,9,0,0,0,0,0,0,0,0,0,0,0,0,0,0,0,0,0],"split_type":[0,0,0,0,0,0,0,0,0,0,0,0,0,0,0,0,0,0,0,0,0,0,0,0,0,0,0,0,0,0,0,0,0,0,0,0,0,0,0,0,0,0,0,0,0,0,0,0,0],"sum_hessian":[6.57E2,9E0,6.48E2,5E0,4E0,4E1,6.08E2,1E0,4E0,1.4E1,2.6E1,1E0,6.07E2,3E0,1E0,7E0,7E0,7E0,1.9E1,5.96E2,1.1E1,2E0,5E0,2E0,5E0,2E0,5E0,1.3E1,6E0,1.08E2,4.88E2,7E0,4E0,2E0,3E0,1E0,1E0,8E0,5E0,5E0,1E0,9.6E1,1.2E1,1.96E2,2.92E2,2E0,5E0,2E0,2E0],"tree_param":{"num_deleted":"0","num_feature":"60","num_nodes":"49","size_leaf_vector":"0"}},{"base_weights":[-3.8615678E-4,1.070469E-1,-8.7687786E-4,-1.1731587E-1,-1.622793E-4,4.4583855E-3,-1.34218065E-2,7.888046E-2,2.88553E-3,-1.6221155E-1,-9.755657E-3,1.0404596E-1,-1.452103E-2,-1.1201095E-3,3.177307E-2,3.9827446E-3,-4.462486E-2,2.6421543E-2,1.11360654E-1,6.8035163E-3,-2.8585061E-2,6.2045185E-3,-2.0536557E-2,5.146074E-2,-2.8095627E-2,3.2871615E-2,-1.1994232E-2,-1.0604236E-3,-6.707552E-2],"categories":[],"categories_nodes":[],"categories_segments":[],"categories_sizes":[],"default_left":[1,0,1,0,1,1,1,1,1,0,1,1,1,1,1,1,1,0,0,0,0,0,0,0,0,0,0,0,0],"id":25,"left_children":[1,-1,3,-1,5,7,9,11,13,-1,15,17,19,21,23,25,27,-1,-1,-1,-1,-1,-1,-1,-1,-1,-1,-1,-1],"loss_changes":[3.4783404E-2,0E0,5.4564845E-2,0E0,4.0067732E-2,5.654414E-2,9.060456E-2,2.5015809E-2,5.5115018E-2,0E0,7.969956E-2,1.6000718E-3,1.0942062E-3,5.9716865E-2,6.980898E-2,5.5781085E-2,4.5897245E-2,0E0,0E0,0E0,0E0,0E0,0E0,0E0,0E0,0E0,0E0,0E0,0E0],"parents":[2147483647,0,0,2,2,4,4,5,5,6,6,7,7,8,8,10,10,11,11,12,12,13,13,14,14,15,15,16,16],"right_children":[2,-1,4,-1,6,8,10,12,14,-1,16,18,20,22,24,26,28,-1,-1,-1,-1,-1,-1,-1,-1,-1,-1,-1,-1],"split_conditions":[-1.6999538E0,3.2114074E-2,-1.4163241E0,-3.5194762E-2,2.513092E-1,-1.019897E0,2.5295222E-1,4.486118E-1,4.1814852E-1,-4.8663467E-2,1.84721E-1,-2.725082E-1,-2.1298353E-1,2.0995179E-1,3.3571342E-1,-1.3911438E-1,-8.621724E-2,7.926463E-3,3.34082E-2,2.041055E-3,-8.575519E-3,1.8613556E-3,-6.1609675E-3,1.5438222E-2,-8.428688E-3,9.861485E-3,-3.5982698E-3,-3.1812707E-4,-2.0122657E-2],"split_indices":[20,0,20,0,57,42,57,5,30,0,31,1,0,6,2,25,49,0,0,0,0,0,0,0,0,0,0,0,0],"split_type":[0,0,0,0,0,0,0,0,0,0,0,0,0,0,0,0,0,0,0,0,0,0,0,0,0,0,0,0,0],"sum_hessian":[6.57E2,2E0,6.55E2,3E0,6.52E2,4.84E2,1.68E2,9E0,4.75E2,3E0,1.65E2,7E0,2E0,4.18E2,5.7E1,1.19E2,4.6E1,1E0,6E0,1E0,1E0,3.04E2,1.14E2,4.3E1,1.4E1,4.2E1,7.7E1,1.6E1,3E1],"tree_param":{"num_deleted":"0","num_feature":"60","num_nodes":"29","size_leaf_vector":"0"}},{"base_weights":[-3.1348728E-4,-8.137641E-3,6.306142E-3,-2.8559766E-3,-5.1104657E-2,8.026659E-3,-8.0866344E-2,1.522637E-3,-4.994468E-2,-1.4395428E-1,-1.563461E-2,-3.5752844E-2,1.1785299E-2,-6.2535107E-3,-1.352626E-1,6.109497E-2,-2.574702E-3,-1.3472912E-1,-1.2095521E-2,1.0610506E-2,-1.6460118E-1,1.1543669E-2,-6.523418E-2,-4.9004916E-2,5.6010798E-2,3.5827305E-2,5.25919E-3,8.530577E-3,-2.5302887E-2,7.1691154E-3,1.02240734E-1,-1.7026292E-2,1.6481102E-2,-5.3919375E-2,-1.8185657E-1,4.0201437E-2,-6.3048534E-2,-9.3665674E-2,-2.1212026E-1,-1.2036029E-2,5.677912E-2,-1.04736E-1,-1.2685519E-2,-1.0154912E-2,-7.422792E-2,6.635584E-2,1.2487844E-2,1.0999332E-2,9.610587E-2,-6.608783E-2,8.428125E-3,1.34643465E-2,-6.68481E-4,-1.9738391E-2,2.7261298E-2,-2.721637E-2,3.0387655E-2,2.073638E-2,-1.2943678E-1,6.043801E-2,-2.0378269E-4,-1.900982E-2,-1.1334447E-1,-2.6567155E-3,-3.9288398E-2,1.8976303E-2,7.093646E-2,-4.5673153E-3,-1.6575215E-2,7.1592205E-3,-4.224445E-2,-2.9232085E-2,-9.380263E-2,-1.5330652E-2,5.126084E-2,1.16101235E-1,-5.5901583E-2,-1.0435723E-1,7.069044E-4,3.2207206E-2,-6.523537E-4],"categories":[],"categories_nodes":[],"categories_segments":[],"categories_sizes":[],"default_left":[1,1,1,1,1,1,1,1,1,1,1,1,1,1,0,1,1,1,1,0,1,1,1,1,1,1,1,1,0,1,0,1,1,0,0,1,1,0,0,1,1,0,1,1,1,0,0,1,1,1,1,0,0,0,0,0,0,0,0,0,0,0,0,0,0,0,0,0,0,0,0,0,0,0,0,0,0,0,0,0,0],"id":26,"left_children":[1,3,5,7,9,11,13,15,17,19,21,23,25,27,-1,29,31,33,35,-1,37,39,41,43,45,47,49,51,-1,53,-1,55,57,-1,-1,59,61,-1,-1,63,65,-1,67,69,71,-1,-1,73,75,77,79,-1,-1,-1,-1,-1,-1,-1,-1,-1,-1,-1,-1,-1,-1,-1,-1,-1,-1,-1,-1,-1,-1,-1,-1,-1,-1,-1,-1,-1,-1],"loss_changes":[3.4131106E-2,6.838912E-2,5.419255E-2,5.574552E-2,1.0643087E-1,5.8178894E-2,2.7564745E-2,6.0691133E-2,7.217783E-2,3.0468076E-2,3.4453813E-2,3.6794435E-2,5.0647423E-2,1.3423588E-3,0E0,3.4768146E-2,6.4445704E-2,1.68529E-2,4.783433E-2,0E0,7.0979446E-3,1.8816248E-2,1.7353278E-2,2.3744065E-2,9.7234454E-4,1.0220792E-1,5.843707E-2,1.4515876E-4,0E0,4.8631383E-3,0E0,6.508623E-2,6.539708E-2,0E0,0E0,7.371284E-3,1.7780054E-2,0E0,0E0,2.9629243E-3,1.8650107E-3,0E0,8.218252E-5,6.414065E-3,1.046966E-2,0E0,0E0,5.3790107E-2,6.727913E-2,2.8191905E-2,5.3138666E-2,0E0,0E0,0E0,0E0,0E0,0E0,0E0,0E0,0E0,0E0,0E0,0E0,0E0,0E0,0E0,0E0,0E0,0E0,0E0,0E0,0E0,0E0,0E0,0E0,0E0,0E0,0E0,0E0,0E0,0E0],"parents":[2147483647,0,0,1,1,2,2,3,3,4,4,5,5,6,6,7,7,8,8,9,9,10,10,11,11,12,12,13,13,15,15,16,16,17,17,18,18,20,20,21,21,22,22,23,23,24,24,25,25,26,26,27,27,29,29,31,31,32,32,35,35,36,36,39,39,40,40,42,42,43,43,44,44,47,47,48,48,49,49,50,50],"right_children":[2,4,6,8,10,12,14,16,18,20,22,24,26,28,-1,30,32,34,36,-1,38,40,42,44,46,48,50,52,-1,54,-1,56,58,-1,-1,60,62,-1,-1,64,66,-1,68,70,72,-1,-1,74,76,78,80,-1,-1,-1,-1,-1,-1,-1,-1,-1,-1,-1,-1,-1,-1,-1,-1,-1,-1,-1,-1,-1,-1,-1,-1,-1,-1,-1,-1,-1,-1],"split_conditions":[-4.1588835E-2,4.933368E-1,9.0351593E-1,5.0325286E-1,-2.07555E-2,-5.860163E-1,1.3232005E-1,-5.9358037E-1,-1.799869E-1,-3.8902262E-1,3.3658683E-1,4.7481117E-1,-2.821285E-1,4.236905E-1,-4.057878E-2,1.2723826E-1,9.18705E-2,-3.0267757E-1,4.2176295E-2,3.1831518E-3,-2.2946306E-2,-2.2810219E-2,1.07712194E-1,-2.1579629E-2,5.274E-1,2.5476825E-1,-2.4004751E-1,2.3171982E-1,-7.590866E-3,-3.378529E-1,3.067222E-2,3.6833358E-1,6.586488E-1,-1.6175814E-2,-5.4556973E-2,2.570285E-1,6.436958E-2,-2.8099703E-2,-6.363608E-2,1.773767E-1,-1.1651772E-1,-3.14208E-2,1.798714E-1,2.0430522E-1,-4.4068724E-2,1.9906752E-2,3.7463533E-3,8.368202E-2,4.5496E-1,-1.0633931E-1,-1.6931692E-1,4.0393043E-3,-2.0054431E-4,-5.9215175E-3,8.17839E-3,-8.1649115E-3,9.116297E-3,6.220914E-3,-3.8831033E-2,1.8131403E-2,-6.113481E-5,-5.702946E-3,-3.4003343E-2,-7.970147E-4,-1.178652E-2,5.692891E-3,2.1280937E-2,-1.3701946E-3,-4.972565E-3,2.1477663E-3,-1.2673335E-2,-8.769626E-3,-2.814079E-2,-4.599196E-3,1.5378253E-2,3.4830373E-2,-1.6770476E-2,-3.130717E-2,2.1207133E-4,9.6621625E-3,-1.9570612E-4],"split_indices":[36,35,52,39,39,29,5,19,58,1,30,46,0,0,0,30,1,6,28,0,7,37,8,17,0,9,0,0,0,0,0,48,17,0,0,13,31,0,0,2,8,0,1,46,26,0,0,8,21,5,53,0,0,0,0,0,0,0,0,0,0,0,0,0,0,0,0,0,0,0,0,0,0,0,0,0,0,0,0,0,0],"split_type":[0,0,0,0,0,0,0,0,0,0,0,0,0,0,0,0,0,0,0,0,0,0,0,0,0,0,0,0,0,0,0,0,0,0,0,0,0,0,0,0,0,0,0,0,0,0,0,0,0,0,0,0,0,0,0,0,0,0,0,0,0,0,0,0,0,0,0,0,0,0,0,0,0,0,0,0,0,0,0,0,0],"sum_hessian":[6.57E2,3.01E2,3.56E2,2.69E2,3.2E1,3.5E2,6E0,2.47E2,2.2E1,8E0,2.4E1,2.7E1,3.23E2,3E0,3E0,1.5E1,2.32E2,6E0,1.6E1,1E0,7E0,1.6E1,8E0,2.4E1,3E0,6.8E1,2.55E2,2E0,1E0,7E0,8E0,1.32E2,1E2,3E0,3E0,8E0,8E0,4E0,3E0,1.1E1,5E0,4E0,4E0,1E1,1.4E1,2E0,1E0,4.9E1,1.9E1,1E1,2.45E2,1E0,1E0,3E0,4E0,1.09E2,2.3E1,9.8E1,2E0,5E0,3E0,5E0,3E0,9E0,2E0,2E0,3E0,2E0,2E0,7E0,3E0,5E0,9E0,3E1,1.9E1,1.7E1,2E0,6E0,4E0,6.7E1,1.78E2],"tree_param":{"num_deleted":"0","num_feature":"60","num_nodes":"81","size_leaf_vector":"0"}},{"base_weights":[-6.2054687E-4,-6.3270316E-3,7.1539506E-3,7.883753E-3,-1.5629211E-2,4.0900245E-2,8.319547E-4,2.2750845E-2,-2.5497703E-2,-1.0651947E-1,-1.144581E-2,6.517564E-2,-1.5773851E-2,6.1500944E-2,-3.564135E-3,1.2307032E-1,1.85937E-2,1.4516306E-2,-3.6704633E-2,-3.1085005E-2,-1.5162827E-1,-7.0006917E-3,-8.8281564E-2,1.09317275E-2,8.686943E-2,-6.616732E-2,3.029216E-2,7.780245E-2,-3.507307E-2,-3.0845257E-2,9.554565E-3,-2.5005817E-2,2.6996005E-2,-8.045069E-3,2.8557817E-2,-5.8658935E-2,-1.0271817E-2,-5.1496908E-2,2.5281303E-2,-9.399977E-2,-4.4202274E-3,-1.7310765E-1,-2.4230069E-2,3.795119E-2,-1.3406444E-2,1.1434145E-1,3.448301E-2,-2.6190398E-2,6.941978E-2,8.94089E-2,2.643412E-2,-4.715717E-2,-5.452439E-3,-6.653934E-2,-6.2650506E-4,1.9190436E-2,-3.3115674E-2,-6.3142814E-2,3.8496003E-2,-4.895527E-3,4.089726E-2,3.776451E-4,-1.3786093E-2,3.776268E-2,3.6971073E-3,-3.8227867E-2,-9.996011E-2,-3.540152E-2,2.55655E-2,-1.3900772E-2,1.6213264E-2,-4.3411095E-2,2.2208676E-2,1.7064627E-2,-2.2913584E-2,1.2208667E-1,6.8268524E-3,-1.2187524E-2,5.9849534E-2,-3.6839876E-2,2.879016E-3,3.4642056E-2,9.773019E-2,3.2273056E-3,-8.899376E-2,1.3185122E-2,-8.1089914E-2,-1.5539256E-1,2.1895153E-2,-5.1020525E-2,5.9450738E-2],"categories":[],"categories_nodes":[],"categories_segments":[],"categories_sizes":[],"default_left":[1,1,1,1,1,1,1,1,1,1,1,1,1,1,1,0,1,1,1,1,0,1,1,1,1,0,1,1,1,1,1,1,1,1,1,1,1,0,0,0,1,0,1,0,1,1,1,1,0,1,0,0,0,1,1,1,1,0,0,0,0,0,0,0,0,0,0,0,0,0,0,0,0,0,0,0,0,0,0,0,0,0,0,0,0,0,0,0,0,0,0],"id":27,"left_children":[1,3,5,7,9,11,13,15,17,19,21,23,25,27,29,-1,31,33,35,37,-1,39,41,43,45,-1,47,49,51,53,55,57,59,61,63,65,67,-1,-1,-1,69,-1,71,-1,73,75,77,79,-1,81,-1,-1,-1,83,85,87,89,-1,-1,-1,-1,-1,-1,-1,-1,-1,-1,-1,-1,-1,-1,-1,-1,-1,-1,-1,-1,-1,-1,-1,-1,-1,-1,-1,-1,-1,-1,-1,-1,-1,-1],"loss_changes":[2.9237466E-2,5.0355904E-2,5.9488937E-2,7.551915E-2,8.6233795E-2,6.156265E-2,6.316189E-2,4.150114E-2,2.1609223E-2,2.931422E-2,7.48632E-2,3.5529807E-2,3.4504317E-2,2.7917605E-2,7.938902E-2,0E0,3.8041368E-2,3.714503E-3,2.0869084E-2,7.054627E-3,0E0,4.6729084E-2,6.1004445E-2,7.0848335E-3,2.7718708E-2,0E0,1.9498354E-2,5.983405E-3,8.16694E-4,7.761973E-2,6.2310245E-2,4.3600813E-2,3.83268E-2,2.4698128E-4,1.4622626E-3,1.305528E-2,1.7115517E-2,0E0,0E0,0E0,4.032681E-2,0E0,8.090046E-3,0E0,2.1291682E-3,1.08246505E-2,1.1384241E-2,1.3443588E-3,0E0,1.6274601E-3,0E0,0E0,0E0,5.1984012E-2,4.5522403E-2,6.148266E-2,4.9440064E-2,0E0,0E0,0E0,0E0,0E0,0E0,0E0,0E0,0E0,0E0,0E0,0E0,0E0,0E0,0E0,0E0,0E0,0E0,0E0,0E0,0E0,0E0,0E0,0E0,0E0,0E0,0E0,0E0,0E0,0E0,0E0,0E0,0E0,0E0],"parents":[2147483647,0,0,1,1,2,2,3,3,4,4,5,5,6,6,7,7,8,8,9,9,10,10,11,11,12,12,13,13,14,14,16,16,17,17,18,18,19,19,21,21,22,22,23,23,24,24,26,26,27,27,28,28,29,29,30,30,31,31,32,32,33,33,34,34,35,35,36,36,40,40,42,42,44,44,45,45,46,46,47,47,49,49,53,53,54,54,55,55,56,56],"right_children":[2,4,6,8,10,12,14,16,18,20,22,24,26,28,30,-1,32,34,36,38,-1,40,42,44,46,-1,48,50,52,54,56,58,60,62,64,66,68,-1,-1,-1,70,-1,72,-1,74,76,78,80,-1,82,-1,-1,-1,84,86,88,90,-1,-1,-1,-1,-1,-1,-1,-1,-1,-1,-1,-1,-1,-1,-1,-1,-1,-1,-1,-1,-1,-1,-1,-1,-1,-1,-1,-1,-1,-1,-1,-1,-1,-1],"split_conditions":[8.382243E-2,-4.693063E-2,-3.654644E-1,2.3455383E-1,-6.134537E-1,2.2524579E-1,-6.131308E-1,-7.262895E-1,-2.686909E-1,8.329876E-2,4.5221694E-2,-1.2678096E-1,2.1052632E-2,1.3107732E-1,-2.07555E-2,3.69211E-2,-5.331799E-1,-1.5310559E-1,4.351949E-2,1.9150165E-1,-4.5488484E-2,-1.038477E0,-6.681903E-2,1.286526E-1,-6.491752E-2,-1.9850196E-2,-1.9627333E-1,2.1522316E-1,8.4458274E-1,-2.07555E-2,5.0325286E-1,1.9977692E-1,-1.7024899E-1,-4.3898158E-2,-2.211411E-2,1.6936854E-1,2.4344833E-1,-1.5449073E-2,7.584391E-3,-2.8199933E-2,1.7075868E-1,-5.1932298E-2,3.766917E-1,1.1385357E-2,-1.0177974E0,8.769211E-2,-4.5856684E-3,6.6525376E-1,2.0825934E-2,-3.182213E-1,7.930236E-3,-1.4147151E-2,-1.6357318E-3,-2.1841425E-1,4.7902825E-1,-1.3418162E0,4.656042E-1,-1.8942844E-2,1.1548801E-2,-1.4686581E-3,1.2269179E-2,1.13293536E-4,-4.135828E-3,1.1328804E-2,1.1091322E-3,-1.146836E-2,-2.9988034E-2,-1.0620456E-2,7.66965E-3,-4.1702315E-3,4.8639793E-3,-1.3023329E-2,6.662603E-3,5.1193885E-3,-6.8740756E-3,3.6626E-2,2.0480559E-3,-3.6562572E-3,1.7954862E-2,-1.1051963E-2,8.637049E-4,1.0392617E-2,2.9319057E-2,9.681917E-4,-2.669813E-2,3.955537E-3,-2.4326975E-2,-4.661777E-2,6.5685464E-3,-1.5306158E-2,1.7835222E-2],"split_indices":[2,39,26,20,35,44,41,28,59,32,2,7,1,0,26,0,39,47,0,0,0,59,10,29,31,0,10,29,0,45,26,46,34,0,3,34,15,0,0,0,12,0,19,0,1,4,18,1,0,7,0,0,0,53,18,19,1,0,0,0,0,0,0,0,0,0,0,0,0,0,0,0,0,0,0,0,0,0,0,0,0,0,0,0,0,0,0,0,0,0,0],"split_type":[0,0,0,0,0,0,0,0,0,0,0,0,0,0,0,0,0,0,0,0,0,0,0,0,0,0,0,0,0,0,0,0,0,0,0,0,0,0,0,0,0,0,0,0,0,0,0,0,0,0,0,0,0,0,0,0,0,0,0,0,0,0,0,0,0,0,0,0,0,0,0,0,0,0,0,0,0,0,0,0,0,0,0,0,0,0,0,0,0,0,0],"sum_hessian":[6.57E2,3.79E2,2.78E2,1.5E2,2.29E2,4.3E1,2.35E2,1.04E2,4.6E1,9E0,2.2E2,3E1,1.3E1,1.5E1,2.2E2,3E0,1.01E2,1E1,3.6E1,4E0,5E0,2.09E2,1.1E1,9E0,2.1E1,6E0,7E0,1.3E1,2E0,7.1E1,1.49E2,1.6E1,8.5E1,4E0,6E0,1.9E1,1.7E1,3E0,1E0,5E0,2.04E2,4E0,7E0,4E0,5E0,1.3E1,8E0,3E0,4E0,1E1,3E0,1E0,1E0,3.2E1,3.9E1,1.22E2,2.7E1,1E1,6E0,2.6E1,5.9E1,2E0,2E0,4E0,2E0,1.4E1,5E0,1E1,7E0,1.4E2,6.4E1,5E0,2E0,1E0,4E0,1.2E1,1E0,3E0,5E0,2E0,1E0,2E0,8E0,8E0,2.4E1,3.4E1,5E0,1E0,1.21E2,2.3E1,4E0],"tree_param":{"num_deleted":"0","num_feature":"60","num_nodes":"91","size_leaf_vector":"0"}},{"base_weights":[-6.3679717E-4,-6.893765E-3,5.9936685E-3,1.5461939E-2,-1.4435879E-2,-3.6453765E-2,8.644355E-3,4.2645298E-2,1.6036759E-3,-8.307804E-2,-1.0688838E-2,-5.0973643E-2,3.501578E-3,-3.8004246E-2,1.1214855E-2,7.1583875E-2,-4.316341E-3,-6.540519E-2,9.1593275E-3,-1.529862E-1,-4.6806976E-2,4.208348E-2,-1.4611141E-2,-7.912929E-3,-6.740664E-2,-1.6256303E-2,1.7444594E-2,4.0519338E-2,-7.738036E-2,-6.5207444E-2,1.2801092E-2,1.2674968E-1,2.495566E-2,2.7563192E-2,-2.3701508E-2,-1.8586032E-2,-7.105181E-2,3.6665592E-2,-4.848231E-3,-1.7893428E-2,-7.214184E-2,8.455433E-2,1.1230807E-2,-4.8488673E-2,-8.976823E-3,6.8597943E-3,-1.3321059E-2,-4.7739693E-3,6.4359486E-2,-1.0194049E-1,-2.7520102E-2,-1.532619E-2,-8.631652E-2,2.8435515E-2,4.578834E-3,1.4003299E-1,1.6883234E-2,7.105365E-2,6.816812E-3,-3.1283095E-2,-6.378293E-4,7.6794107E-3,8.111825E-2,-2.0713532E-2,2.1562492E-2,-2.5544688E-2,-1.7272705E-3,-4.8864996E-3,4.0657718E-2,-1.1015667E-1,-1.5450642E-2,-1.7999321E-2,1.2645276E-2,-1.6173653E-2,9.012699E-3,-1.8646907E-2,-4.342377E-3,5.6510143E-2,5.0333077E-3,7.999608E-3,-5.642676E-2],"categories":[],"categories_nodes":[],"categories_segments":[],"categories_sizes":[],"default_left":[1,1,1,1,1,1,1,1,1,1,1,1,1,1,1,1,1,1,1,0,1,1,1,1,0,0,0,1,1,1,1,1,1,0,1,0,0,1,1,1,0,0,1,1,1,0,0,1,0,0,0,1,0,1,1,0,0,0,0,0,0,0,0,0,0,0,0,0,0,0,0,0,0,0,0,0,0,0,0,0,0],"id":28,"left_children":[1,3,5,7,9,11,13,15,17,19,21,23,25,27,29,31,33,35,37,-1,39,41,43,45,-1,-1,-1,47,49,51,53,55,57,-1,59,-1,-1,61,63,65,-1,-1,67,69,71,-1,-1,73,-1,-1,-1,75,-1,77,79,-1,-1,-1,-1,-1,-1,-1,-1,-1,-1,-1,-1,-1,-1,-1,-1,-1,-1,-1,-1,-1,-1,-1,-1,-1,-1],"loss_changes":[2.733951E-2,5.738175E-2,3.631988E-2,3.2329027E-2,6.444207E-2,1.12012755E-2,3.6639094E-2,3.9720062E-2,2.9964214E-2,2.5802538E-2,5.0706234E-2,9.373248E-3,1.9364911E-3,5.2606665E-2,3.5625983E-2,4.3137975E-2,8.06917E-3,2.656486E-4,2.059843E-2,0E0,6.0343426E-3,2.1326153E-2,4.2702883E-2,4.908438E-4,0E0,0E0,0E0,6.7860438E-3,1.066491E-2,4.99478E-3,3.6120974E-2,9.310916E-3,8.71345E-3,0E0,1.3789213E-3,0E0,0E0,2.2570288E-2,1.5531141E-2,6.980264E-4,0E0,0E0,5.415782E-3,6.349446E-2,3.8269255E-2,0E0,0E0,6.172593E-4,0E0,0E0,0E0,2.845045E-5,0E0,6.3445374E-2,3.926706E-2,0E0,0E0,0E0,0E0,0E0,0E0,0E0,0E0,0E0,0E0,0E0,0E0,0E0,0E0,0E0,0E0,0E0,0E0,0E0,0E0,0E0,0E0,0E0,0E0,0E0,0E0],"parents":[2147483647,0,0,1,1,2,2,3,3,4,4,5,5,6,6,7,7,8,8,9,9,10,10,11,11,12,12,13,13,14,14,15,15,16,16,17,17,18,18,20,20,21,21,22,22,23,23,27,27,28,28,29,29,30,30,31,31,32,32,34,34,37,37,38,38,39,39,42,42,43,43,44,44,47,47,51,51,53,53,54,54],"right_children":[2,4,6,8,10,12,14,16,18,20,22,24,26,28,30,32,34,36,38,-1,40,42,44,46,-1,-1,-1,48,50,52,54,56,58,-1,60,-1,-1,62,64,66,-1,-1,68,70,72,-1,-1,74,-1,-1,-1,76,-1,78,80,-1,-1,-1,-1,-1,-1,-1,-1,-1,-1,-1,-1,-1,-1,-1,-1,-1,-1,-1,-1,-1,-1,-1,-1,-1,-1],"split_conditions":[4.2571582E-2,-1.8219107E-1,-7.6529205E-1,-1.9472025E-1,-1.405172E-1,2.647394E-1,-5.5882126E-1,1.320926E-1,-6.6557395E-1,-4.3132776E-1,-5.690123E-1,-3.3010194E-1,-3.5663414E-1,-2.564482E-1,-1.1028645E0,4.5599975E-2,-1.061344E-1,1.938995E-2,-4.5060415E-2,-4.589586E-2,-6.737484E-2,-9.2633426E-2,-3.810505E-1,-2.7535546E-1,-2.0221993E-2,-4.876891E-3,5.233378E-3,-2.7654693E-4,3.8068545E-1,-6.762551E-2,-1.8758318E-1,1.5207964E-1,-3.0040985E-1,8.268958E-3,3.595966E-1,-5.5758096E-3,-2.1315545E-2,9.099875E-2,1.8554029E-1,2.6604268E-1,-2.1642553E-2,2.53663E-2,2.0486969E-1,-1.2620309E-1,1.9634092E-1,2.0579384E-3,-3.9963177E-3,-3.3623976E-1,1.9307846E-2,-3.0582149E-2,-8.256031E-3,7.463994E-2,-2.5894957E-2,8.3437994E-2,4.6437517E-1,4.2009898E-2,5.0649703E-3,2.1316094E-2,2.0450437E-3,-9.384929E-3,-1.913488E-4,2.3038234E-3,2.4335476E-2,-6.21406E-3,6.468748E-3,-7.663407E-3,-5.181812E-4,-1.4659499E-3,1.2197316E-2,-3.3047E-2,-4.635193E-3,-5.3997966E-3,3.793583E-3,-4.852096E-3,2.7038099E-3,-5.5940724E-3,-1.3027132E-3,1.6953044E-2,1.5099924E-3,2.3998825E-3,-1.6928028E-2],"split_indices":[53,24,39,39,24,56,22,58,28,55,9,41,2,54,52,21,19,0,20,0,27,3,10,0,0,0,0,2,8,4,51,1,3,0,3,0,0,0,39,7,0,0,50,45,38,0,0,0,0,0,0,0,0,22,10,0,0,0,0,0,0,0,0,0,0,0,0,0,0,0,0,0,0,0,0,0,0,0,0,0,0],"split_type":[0,0,0,0,0,0,0,0,0,0,0,0,0,0,0,0,0,0,0,0,0,0,0,0,0,0,0,0,0,0,0,0,0,0,0,0,0,0,0,0,0,0,0,0,0,0,0,0,0,0,0,0,0,0,0,0,0,0,0,0,0,0,0,0,0,0,0,0,0,0,0,0,0,0,0,0,0,0,0,0,0],"sum_hessian":[6.57E2,3.38E2,3.19E2,8.5E1,2.53E2,1.8E1,3.01E2,2.8E1,5.7E1,1.2E1,2.41E2,1.3E1,5E0,1.5E1,2.86E2,1.7E1,1.1E1,5E0,5.2E1,3E0,9E0,1.6E1,2.25E2,4E0,9E0,2E0,3E0,5E0,1E1,5E0,2.81E2,7E0,1E1,4E0,7E0,1E0,4E0,1.7E1,3.5E1,5E0,4E0,6E0,1E1,3.1E1,1.94E2,1E0,3E0,2E0,3E0,6E0,4E0,2E0,3E0,9.6E1,1.85E2,6E0,1E0,2E0,8E0,5E0,2E0,1.1E1,6E0,2.2E1,1.3E1,3E0,2E0,7E0,3E0,1E1,2.1E1,1.37E2,5.7E1,1E0,1E0,1E0,1E0,4.3E1,5.3E1,1.76E2,9E0],"tree_param":{"num_deleted":"0","num_feature":"60","num_nodes":"81","size_leaf_vector":"0"}},{"base_weights":[-5.7055906E-4,-4.158261E-2,1.9097909E-4,-4.732403E-2,1.0786518E-2,1.3908013E-2,-2.0503872E-3,-5.5439815E-2,-1.9261457E-2,4.789498E-2,2.3774581E-3,-1.8069584E-2,8.326615E-4,5.787936E-2,-3.7960652E-2,3.7823573E-2,-1.3918208E-2,8.468015E-3,-3.5927355E-2,2.9700246E-2,-1.5419178E-3,3.389095E-2,8.087751E-2,6.3564494E-2,-6.4204857E-3,-2.6910676E-2,2.3131564E-2,-1.946269E-2,2.2080533E-2,-4.5226622E-2,5.8671236E-2,5.898821E-2,-1.0596473E-2,3.250807E-2,-3.6817673E-3,4.240251E-2,-5.7778955E-3,2.5611991E-2,9.149239E-2,7.581854E-2,1.3974754E-2,-3.77186E-2,1.5515006E-2,-6.409268E-2,-1.399822E-2,3.6577925E-2,-3.388228E-2,-3.3177969E-3,-3.0520787E-2,-1.4070206E-2,3.491246E-2,-9.3090765E-2,-2.8015615E-2,2.3089053E-2,1.0049999E-1,2.6650285E-2,9.91443E-2,8.962631E-3,-3.1275906E-2,-1.54334735E-2,5.0983034E-2,2.9427416E-3,-1.7048974E-2],"categories":[],"categories_nodes":[],"categories_segments":[],"categories_sizes":[],"default_left":[1,1,1,1,0,1,1,0,0,1,1,1,1,1,0,1,1,1,1,1,1,1,1,1,1,1,1,1,1,1,1,1,1,1,1,0,0,0,0,0,0,0,0,0,0,0,0,0,0,0,0,0,0,0,0,0,0,0,0,0,0,0,0],"id":29,"left_children":[1,3,5,7,-1,9,11,-1,-1,13,15,17,19,21,-1,23,25,27,29,31,33,35,37,39,41,43,45,47,49,51,53,55,57,59,61,-1,-1,-1,-1,-1,-1,-1,-1,-1,-1,-1,-1,-1,-1,-1,-1,-1,-1,-1,-1,-1,-1,-1,-1,-1,-1,-1,-1],"loss_changes":[2.0558754E-2,4.1185413E-3,1.9920465E-2,1.4373958E-3,0E0,3.5547994E-2,2.5739603E-2,0E0,0E0,2.1913089E-2,4.038208E-2,4.0585935E-2,3.2469176E-2,8.84445E-3,0E0,2.546354E-2,2.3728147E-2,1.3737E-2,4.751809E-2,4.311259E-2,3.203318E-2,4.296723E-3,3.5230666E-3,7.447906E-3,6.764061E-3,1.6386814E-2,1.1205518E-2,2.0411196E-3,1.1624432E-2,3.6110148E-2,5.121341E-3,2.4627626E-2,6.7518535E-3,2.3815524E-2,3.6621805E-2,0E0,0E0,0E0,0E0,0E0,0E0,0E0,0E0,0E0,0E0,0E0,0E0,0E0,0E0,0E0,0E0,0E0,0E0,0E0,0E0,0E0,0E0,0E0,0E0,0E0,0E0,0E0,0E0],"parents":[2147483647,0,0,1,1,2,2,3,3,5,5,6,6,9,9,10,10,11,11,12,12,13,13,15,15,16,16,17,17,18,18,19,19,20,20,21,21,22,22,23,23,24,24,25,25,26,26,27,27,28,28,29,29,30,30,31,31,32,32,33,33,34,34],"right_children":[2,4,6,8,-1,10,12,-1,-1,14,16,18,20,22,-1,24,26,28,30,32,34,36,38,40,42,44,46,48,50,52,54,56,58,60,62,-1,-1,-1,-1,-1,-1,-1,-1,-1,-1,-1,-1,-1,-1,-1,-1,-1,-1,-1,-1,-1,-1,-1,-1,-1,-1,-1,-1],"split_conditions":[-1.2054915E0,4.3227464E-2,-3.8151821E-1,-1.12497546E-1,3.2359557E-3,-2.4125797E-1,-3.6705995E-1,-1.6631946E-2,-5.7784375E-3,3.846665E-1,-9.3309045E-2,-6.260749E-1,-5.5384976E-1,2.13858E-2,-1.1388196E-2,-2.1561017E-2,2.9880625E-1,-1.7072006E-1,4.2135495E-1,1.9189581E-1,-6.041215E-1,2.8145853E-1,-2.231091E-1,3.750344E-1,-4.0965605E-1,-2.4860342E-1,1.304163E-1,-6.1820664E-2,-1.384405E-1,-1.7018063E-1,-2.3364486E-2,1.0510387E-1,1.5623048E-1,-2.6513666E-1,1.6746931E-1,1.2720753E-2,-1.7333687E-3,7.6835975E-3,2.744772E-2,2.2745563E-2,4.1924263E-3,-1.131558E-2,4.654502E-3,-1.9227805E-2,-4.199466E-3,1.0973378E-2,-1.0164684E-2,-9.953391E-4,-9.156236E-3,-4.221062E-3,1.0473738E-2,-2.7927231E-2,-8.404685E-3,6.9267163E-3,3.0149998E-2,7.995086E-3,2.9743291E-2,2.6887895E-3,-9.382772E-3,-4.6300422E-3,1.529491E-2,8.828225E-4,-5.1146923E-3],"split_indices":[8,0,49,55,0,20,44,0,0,16,52,44,54,33,0,7,45,34,21,8,43,8,7,31,21,43,32,31,54,22,0,9,36,50,34,0,0,0,0,0,0,0,0,0,0,0,0,0,0,0,0,0,0,0,0,0,0,0,0,0,0,0,0],"split_type":[0,0,0,0,0,0,0,0,0,0,0,0,0,0,0,0,0,0,0,0,0,0,0,0,0,0,0,0,0,0,0,0,0,0,0,0,0,0,0,0,0,0,0,0,0,0,0,0,0,0,0,0,0,0,0,0,0,0,0,0,0,0,0],"sum_hessian":[6.57E2,1.1E1,6.46E2,1E1,1E0,9E1,5.56E2,7E0,3E0,2.2E1,6.8E1,8.4E1,4.72E2,2E1,2E0,2.1E1,4.7E1,3.4E1,5E1,3.5E1,4.37E2,1.1E1,9E0,1.3E1,8E0,3.5E1,1.2E1,1.1E1,2.3E1,4.6E1,4E0,2E1,1.5E1,2.5E1,4.12E2,9E0,2E0,2E0,7E0,1E1,3E0,3E0,5E0,8E0,2.7E1,1E1,2E0,5E0,6E0,6E0,1.7E1,1.1E1,3.5E1,3E0,1E0,1.2E1,8E0,8E0,7E0,7E0,1.8E1,2.76E2,1.36E2],"tree_param":{"num_deleted":"0","num_feature":"60","num_nodes":"63","size_leaf_vector":"0"}},{"base_weights":[-3.2714618E-4,2.291022E-2,-1.4349266E-3,-1.9488767E-2,3.216957E-2,-5.7547122E-2,-3.430475E-4,5.0594322E-3,-4.5723442E-2,4.4238318E-2,5.7986462E-3,-9.526715E-2,1.4314338E-2,4.2332686E-2,-1.3300182E-3,2.2541784E-2,-8.281946E-3,2.7238216E-2,6.4633004E-2,2.1481374E-2,-1.7509013E-3,-3.7139263E-2,-1.0845323E-1,2.5661286E-2,-1.55367255E-2,-2.2330862E-2,6.1998278E-2,5.9086205E-3,-5.193367E-3,5.5222977E-3,3.4691397E-2,-8.632024E-3,2.7279526E-3,-2.2473976E-3,-4.1290626E-2,9.408806E-2,3.0220106E-2,-5.442866E-3,2.153024E-2,-3.6041282E-2,-1.7127212E-3,8.740656E-3,-2.0663887E-3,8.9579326E-4,3.6507945E-3,3.0443296E-3,-6.415426E-3,2.793137E-2,1.036444E-1,3.4241047E-2,1.3445168E-2,-2.1927517E-2,7.775956E-3,-5.782451E-3,4.3944325E-2,-7.61612E-2,3.8844177E-3,1.146985E-2,-9.532226E-3],"categories":[],"categories_nodes":[],"categories_segments":[],"categories_sizes":[],"default_left":[1,1,1,1,1,1,1,1,0,1,1,1,1,1,1,0,0,1,0,0,1,0,0,0,0,1,1,1,1,1,0,0,1,1,0,1,1,1,1,1,1,0,0,0,0,0,0,0,0,0,0,0,0,0,0,0,0,0,0],"id":30,"left_children":[1,3,5,7,9,11,13,15,-1,17,19,21,23,25,27,-1,-1,29,-1,-1,31,-1,-1,-1,-1,33,35,37,39,41,-1,-1,43,45,-1,47,49,51,53,55,57,-1,-1,-1,-1,-1,-1,-1,-1,-1,-1,-1,-1,-1,-1,-1,-1,-1,-1],"loss_changes":[1.6971044E-2,1.2404554E-2,3.8517665E-2,4.095419E-3,7.700082E-3,3.3891074E-2,2.6086276E-2,1.1196445E-3,0E0,4.133612E-3,1.1031893E-3,2.103962E-3,2.0922846E-3,1.9187534E-2,1.6949743E-2,0E0,0E0,1.5888028E-3,0E0,0E0,2.3928456E-4,0E0,0E0,0E0,0E0,1.4303145E-3,8.37395E-3,3.7533525E-2,4.234968E-2,1.1575404E-4,0E0,0E0,5.183614E-6,8.569888E-5,0E0,2.6614964E-4,1.1780299E-5,2.697315E-2,5.4738928E-2,6.436848E-2,3.6806233E-2,0E0,0E0,0E0,0E0,0E0,0E0,0E0,0E0,0E0,0E0,0E0,0E0,0E0,0E0,0E0,0E0,0E0,0E0],"parents":[2147483647,0,0,1,1,2,2,3,3,4,4,5,5,6,6,7,7,9,9,10,10,11,11,12,12,13,13,14,14,17,17,20,20,25,25,26,26,27,27,28,28,29,29,32,32,33,33,35,35,36,36,37,37,38,38,39,39,40,40],"right_children":[2,4,6,8,10,12,14,16,-1,18,20,22,24,26,28,-1,-1,30,-1,-1,32,-1,-1,-1,-1,34,36,38,40,42,-1,-1,44,46,-1,48,50,52,54,56,58,-1,-1,-1,-1,-1,-1,-1,-1,-1,-1,-1,-1,-1,-1,-1,-1,-1,-1],"split_conditions":[-7.6529205E-1,-3.28507E-1,-5.977178E-1,1.6984846E-1,2.2099474E-1,1.12024635E-1,-1.0667546E0,1.07278615E-1,-1.3717033E-2,1.321778E-1,-1.3509638E0,1.5567649E-2,5.393567E-1,1.9389309E-2,-9.1533355E-2,6.7625353E-3,-2.484584E-3,8.363252E-2,1.9389901E-2,6.4444127E-3,4.7580898E-4,-1.1141779E-2,-3.253597E-2,7.698386E-3,-4.661018E-3,-1.479403E-1,2.0283559E-1,8.4357455E-2,-4.599648E-1,3.82196E-1,1.040742E-2,-2.5896071E-3,2.0433484E-1,-3.886716E-1,-1.2387188E-2,2.0628553E-2,1.4622974E-1,-4.503874E-2,-4.34179E-2,4.56504E-2,-8.380477E-2,2.622197E-3,-6.1991665E-4,2.68738E-4,1.0952384E-3,9.132989E-4,-1.9246278E-3,8.379411E-3,3.1093322E-2,1.0272315E-2,4.0335506E-3,-6.5782554E-3,2.3327868E-3,-1.7347353E-3,1.31832985E-2,-2.284836E-2,1.1653254E-3,3.4409552E-3,-2.8596679E-3],"split_indices":[14,28,14,1,5,48,26,0,0,55,14,41,0,0,8,0,0,1,0,0,11,0,0,0,0,0,24,2,27,0,0,0,0,0,0,3,19,3,28,59,3,0,0,0,0,0,0,0,0,0,0,0,0,0,0,0,0,0,0],"split_type":[0,0,0,0,0,0,0,0,0,0,0,0,0,0,0,0,0,0,0,0,0,0,0,0,0,0,0,0,0,0,0,0,0,0,0,0,0,0,0,0,0,0,0,0,0,0,0,0,0,0,0,0,0,0,0,0,0,0,0],"sum_hessian":[6.57E2,2.9E1,6.28E2,5E0,2.4E1,1.1E1,6.17E2,3E0,2E0,1.6E1,8E0,7E0,4E0,1.3E1,6.04E2,1E0,2E0,1E1,6E0,2E0,6E0,2E0,5E0,3E0,1E0,3E0,1E1,2.1E2,3.94E2,3E0,7E0,2E0,4E0,2E0,1E0,4E0,6E0,1.22E2,8.8E1,3.9E1,3.55E2,2E0,1E0,2E0,2E0,1E0,1E0,1E0,3E0,4E0,2E0,5.4E1,6.8E1,4E1,4.8E1,1.9E1,2E1,1.32E2,2.23E2],"tree_param":{"num_deleted":"0","num_feature":"60","num_nodes":"59","size_leaf_vector":"0"}},{"base_weights":[-2.0860604E-4,2.032229E-2,-1.4295619E-3,2.8545735E-3,4.0704627E-2,1.7588671E-2,-2.8723471E-3,-1.6593145E-2,1.6098795E-2,2.2021675E-2,9.5918804E-2,-3.5014085E-2,2.6815793E-2,-9.789946E-3,4.3976135E-3,3.7054664E-3,-1.9593654E-2,2.6461845E-2,-1.38335265E-2,4.501611E-2,1.1658093E-2,-1.4992657E-2,-5.6711774E-2,-1.5266113E-2,3.5183217E-2,1.8369779E-2,-1.3500213E-2,-8.783767E-4,2.9611085E-2,1.3195395E-2,3.026241E-2,-1.7849565E-2,-8.927062E-4,5.3070407E-2,1.0426611E-2,1.2901708E-3,1.7398309E-2,-3.2136705E-2,1.7940247E-2,-7.19286E-3,4.523896E-2,6.268822E-2,2.9166036E-3,8.807975E-2,-1.4616074E-2,4.3414406E-2,-4.0956773E-3,4.5482308E-2,-2.4948062E-4,-1.7418986E-3,3.8921833E-3,-2.367018E-2,2.2666961E-2,5.5922296E-2,8.252437E-3,8.977878E-2,2.3060016E-2,-3.3917114E-2,1.7504262E-2,2.5211636E-2,-1.7670026E-2,1.9809036E-2,7.093431E-2,-1.0182787E-3,-4.9304668E-2,6.94817E-2,9.6629625E-3,-1.820078E-2,3.868658E-2],"categories":[],"categories_nodes":[],"categories_segments":[],"categories_sizes":[],"default_left":[1,1,1,1,1,1,1,1,1,1,0,1,1,1,1,0,0,1,1,1,1,0,0,1,1,1,1,1,1,0,0,0,0,0,0,1,0,0,0,1,1,1,1,0,1,1,1,1,1,0,0,0,0,0,0,0,0,0,0,0,0,0,0,0,0,0,0,0,0],"id":31,"left_children":[1,3,5,7,9,11,13,15,17,19,-1,21,23,25,27,-1,-1,29,31,33,35,-1,-1,37,39,41,43,45,47,-1,-1,-1,-1,-1,-1,49,-1,-1,-1,51,53,55,57,-1,59,61,63,65,67,-1,-1,-1,-1,-1,-1,-1,-1,-1,-1,-1,-1,-1,-1,-1,-1,-1,-1,-1,-1],"loss_changes":[1.6523346E-2,1.3057024E-2,1.711772E-2,5.6760977E-3,1.5424294E-2,2.2295302E-2,2.9161349E-2,6.207591E-4,4.398532E-3,2.811464E-3,0E0,2.190671E-3,1.39175635E-2,3.127859E-2,3.7672378E-2,0E0,0E0,1.0487577E-4,1.9194884E-4,5.610315E-4,6.322084E-4,0E0,0E0,4.4980175E-3,1.396133E-2,2.3787286E-2,3.109819E-2,3.3666063E-2,2.32336E-2,0E0,0E0,0E0,0E0,0E0,0E0,4.62272E-5,0E0,0E0,0E0,3.9806E-3,9.812128E-3,7.5916536E-3,1.5101273E-2,0E0,3.2191426E-2,8.98874E-3,3.0557536E-2,2.683717E-2,1.32852765E-2,0E0,0E0,0E0,0E0,0E0,0E0,0E0,0E0,0E0,0E0,0E0,0E0,0E0,0E0,0E0,0E0,0E0,0E0,0E0,0E0],"parents":[2147483647,0,0,1,1,2,2,3,3,4,4,5,5,6,6,7,7,8,8,9,9,11,11,12,12,13,13,14,14,17,17,18,18,19,19,20,20,23,23,24,24,25,25,26,26,27,27,28,28,35,35,39,39,40,40,41,41,42,42,44,44,45,45,46,46,47,47,48,48],"right_children":[2,4,6,8,10,12,14,16,18,20,-1,22,24,26,28,-1,-1,30,32,34,36,-1,-1,38,40,42,44,46,48,-1,-1,-1,-1,-1,-1,50,-1,-1,-1,52,54,56,58,-1,60,62,64,66,68,-1,-1,-1,-1,-1,-1,-1,-1,-1,-1,-1,-1,-1,-1,-1,-1,-1,-1,-1,-1],"split_conditions":[-6.6557395E-1,2.3290755E-1,-5.547954E-1,-2.2716947E-2,-2.1267546E-2,-4.4956142E-1,4.3967746E-2,-5.691937E-1,4.1797943E-2,-9.122385E-2,2.8775642E-2,2.4264732E-1,-3.417735E-1,-4.9553573E-1,3.8445455E-1,1.11164E-3,-5.8780964E-3,-2.1021694E-1,1.4321712E-1,1.7173213E-1,-1.13969006E-1,-4.497797E-3,-1.7013533E-2,1.7595875E-1,-4.2857492E-1,-3.6141306E-1,-1.4298277E0,-6.271291E-1,1.7454778E-1,3.9586187E-3,9.078723E-3,-5.3548696E-3,-2.6781188E-4,1.5921123E-2,3.1279833E-3,-2.6596186E-1,5.219493E-3,-9.641012E-3,5.3820745E-3,8.485363E-2,6.4553976E-2,3.6288565E-1,-2.8325474E-1,2.6423926E-2,-5.9707314E-1,6.861825E-2,3.3536017E-1,2.6283705E-1,3.37578E-1,-5.225696E-4,1.167655E-3,-7.1010543E-3,6.8000886E-3,1.677669E-2,2.4757313E-3,2.6933635E-2,6.918005E-3,-1.0175135E-2,5.2512786E-3,7.563491E-3,-5.301008E-3,5.942711E-3,2.1280294E-2,-3.054836E-4,-1.4791401E-2,2.0844512E-2,2.898889E-3,-5.460234E-3,1.1605974E-2],"split_indices":[6,45,49,16,16,45,53,5,45,9,0,13,17,48,23,0,0,24,0,0,35,0,0,9,54,26,39,41,27,0,0,0,0,0,0,1,0,0,0,18,25,50,27,0,37,19,23,13,3,0,0,0,0,0,0,0,0,0,0,0,0,0,0,0,0,0,0,0,0],"split_type":[0,0,0,0,0,0,0,0,0,0,0,0,0,0,0,0,0,0,0,0,0,0,0,0,0,0,0,0,0,0,0,0,0,0,0,0,0,0,0,0,0,0,0,0,0,0,0,0,0,0,0,0,0,0,0,0,0,0,0,0,0,0,0,0,0,0,0,0,0],"sum_hessian":[6.57E2,3.6E1,6.21E2,2E1,1.6E1,4.3E1,5.78E2,8E0,1.2E1,1.3E1,3E0,6E0,3.7E1,2.96E2,2.82E2,1E0,7E0,9E0,3E0,3E0,1E1,4E0,2E0,6E0,3.1E1,3.4E1,2.62E2,2.34E2,4.8E1,3E0,6E0,2E0,1E0,2E0,1E0,4E0,6E0,4E0,2E0,6E0,2.5E1,8E0,2.6E1,2E0,2.6E2,1.5E1,2.19E2,3.1E1,1.7E1,2E0,2E0,4E0,2E0,1.9E1,6E0,4E0,4E0,7E0,1.9E1,1.8E1,2.42E2,9E0,6E0,2.06E2,1.3E1,1.8E1,1.3E1,1.2E1,5E0],"tree_param":{"num_deleted":"0","num_feature":"60","num_nodes":"69","size_leaf_vector":"0"}},{"base_weights":[8.064327E-5,2.8352857E-2,-6.681235E-4,5.4188427E-2,9.334507E-3,-2.0462917E-2,7.1631826E-4,6.950142E-2,2.5328323E-2,-1.214351E-2,1.5456678E-2,-8.3003044E-2,-7.7339225E-3,1.1031174E-2,-2.182144E-3,-1.7715156E-2,-5.0010905E-4,1.9389732E-2,5.692929E-3,-4.6793923E-2,-1.15683906E-1,-2.916335E-2,2.4211498E-2,-7.9452336E-2,1.30344E-2,-2.751182E-2,1.5209282E-3,-4.4787545E-2,3.7774364E-3,-2.1010237E-3,4.749758E-2,7.4883434E-3,4.3163292E-2,-4.929641E-3,-6.1179686E-2,5.211556E-2,1.2925276E-4,-1.1775762E-2,-5.5721305E-2,2.1090975E-2,-1.8808845E-2,-1.0701279E-2,9.174552E-3,-1.924784E-2,1.5892915E-2,9.4779074E-2,8.079479E-3,-5.063239E-2,5.5493563E-3,-1.0747554E-1,-1.3738925E-2,7.0000134E-2,3.3175237E-3,-7.743815E-3,8.569813E-3],"categories":[],"categories_nodes":[],"categories_segments":[],"categories_sizes":[],"default_left":[1,1,1,1,1,1,1,0,0,1,1,1,1,1,1,0,0,0,0,0,0,1,1,0,1,1,1,1,1,1,0,1,1,1,1,1,1,0,0,0,0,0,0,0,0,0,0,0,0,0,0,0,0,0,0],"id":32,"left_children":[1,3,5,7,9,11,13,-1,-1,15,17,19,21,23,25,-1,-1,-1,-1,-1,-1,27,29,-1,31,33,35,37,39,41,-1,43,45,47,49,51,53,-1,-1,-1,-1,-1,-1,-1,-1,-1,-1,-1,-1,-1,-1,-1,-1,-1,-1],"loss_changes":[1.3948338E-2,7.847125E-3,1.7608501E-2,1.3331883E-3,1.6341116E-3,3.2793127E-2,1.79923E-2,0E0,0E0,1.8575921E-4,2.3522787E-4,2.8701127E-3,2.535068E-2,2.496179E-2,4.4126727E-2,0E0,0E0,0E0,0E0,0E0,0E0,1.1491995E-2,9.290526E-3,0E0,2.1399325E-2,4.5316033E-2,2.8932313E-2,4.7579836E-3,3.5250846E-3,8.739621E-4,0E0,2.524829E-2,3.5451803E-2,1.8000979E-2,5.123485E-2,9.367827E-3,2.6714059E-2,0E0,0E0,0E0,0E0,0E0,0E0,0E0,0E0,0E0,0E0,0E0,0E0,0E0,0E0,0E0,0E0,0E0,0E0],"parents":[2147483647,0,0,1,1,2,2,3,3,4,4,5,5,6,6,9,9,10,10,11,11,12,12,13,13,14,14,21,21,22,22,24,24,25,25,26,26,27,27,28,28,29,29,31,31,32,32,33,33,34,34,35,35,36,36],"right_children":[2,4,6,8,10,12,14,-1,-1,16,18,20,22,24,26,-1,-1,-1,-1,-1,-1,28,30,-1,32,34,36,38,40,42,-1,44,46,48,50,52,54,-1,-1,-1,-1,-1,-1,-1,-1,-1,-1,-1,-1,-1,-1,-1,-1,-1,-1],"split_conditions":[-9.162921E-1,-1.6980521E-1,-5.005214E-1,1.069566E-1,-3.2226884E-1,-3.966852E-1,-2.5901145E-1,2.0850427E-2,7.5984974E-3,-2.3130244E-1,2.153714E-1,2.741649E-1,4.398973E-2,-1.3013585E0,-1.5373632E-1,-5.314547E-3,-1.5003272E-4,5.8169197E-3,1.7078788E-3,-1.4038177E-2,-3.4705173E-2,1.3370886E-1,1.1462647E-1,-2.3835702E-2,4.5895845E-1,1.5326674E-1,-9.915786E-1,-2.9288852E-1,3.4928733E-1,1.7124116E-1,1.4249275E-2,-2.3922743E-1,-8.877006E-2,-5.005214E-1,2.2758307E-2,2.6013154E-1,4.20345E-2,-3.5327286E-3,-1.6716393E-2,6.327293E-3,-5.642654E-3,-3.210384E-3,2.7523655E-3,-5.774352E-3,4.7678747E-3,2.8433723E-2,2.4238438E-3,-1.51897175E-2,1.664807E-3,-3.2242663E-2,-4.1216775E-3,2.100004E-2,9.952572E-4,-2.3231446E-3,2.5709441E-3],"split_indices":[34,10,34,17,1,37,52,0,0,0,30,8,29,11,52,0,0,0,0,0,0,12,32,0,9,34,58,12,11,45,0,36,15,42,30,29,38,0,0,0,0,0,0,0,0,0,0,0,0,0,0,0,0,0,0],"split_type":[0,0,0,0,0,0,0,0,0,0,0,0,0,0,0,0,0,0,0,0,0,0,0,0,0,0,0,0,0,0,0,0,0,0,0,0,0,0,0,0,0,0,0,0,0,0,0,0,0,0,0,0,0,0,0],"sum_hessian":[6.57E2,1.6E1,6.41E2,6E0,1E1,4.1E1,6E2,3E0,3E0,2E0,8E0,6E0,3.5E1,1.31E2,4.69E2,1E0,1E0,5E0,3E0,4E0,2E0,2.1E1,1.4E1,2E0,1.29E2,5.9E1,4.1E2,1.4E1,7E0,7E0,7E0,1.1E2,1.9E1,3.6E1,2.3E1,1E1,4E2,4E0,1E1,4E0,3E0,4E0,3E0,2.6E1,8.4E1,7E0,1.2E1,6E0,3E1,1.1E1,1.2E1,7E0,3E0,2.07E2,1.93E2],"tree_param":{"num_deleted":"0","num_feature":"60","num_nodes":"55","size_leaf_vector":"0"}},{"base_weights":[-1.2908079E-5,3.759874E-2,-5.336649E-4,6.4233385E-2,-1.1752915E-2,-2.4383827E-3,1.090038E-2,7.8374594E-2,2.396731E-2,5.767919E-3,-1.9515833E-2,2.077764E-2,-3.8902655E-3,3.696923E-2,2.3020145E-3,-5.907193E-3,-2.3366556E-2,8.870446E-3,1.0488719E-1,-5.452975E-3,1.5763389E-2,5.577002E-2,1.5268901E-3,6.828924E-2,-2.6567641E-3,2.9460609E-2,-1.67655E-2,-1.6708937E-3,-1.6190458E-2,2.7345194E-2,-2.5880978E-2,2.2714956E-2,1.0156679E-1,-1.385933E-2,2.4224497E-2,1.99603E-2,-1.3415865E-2,5.0740443E-2,-8.217589E-4,-4.0383518E-2,5.9959535E-3,3.5379805E-2,-3.941051E-3,-8.612776E-2,-1.3803849E-2,5.0353386E-2,1.0163525E-2,-5.503095E-2,-2.1341667E-3,-1.0252185E-3,3.3035778E-2,-1.3954764E-3,-1.9742388E-2,3.005248E-2,-1.19609265E-2,-2.2007427E-3,-4.1715734E-2],"categories":[],"categories_nodes":[],"categories_segments":[],"categories_sizes":[],"default_left":[1,1,1,1,1,1,1,0,0,0,1,1,1,1,1,0,0,1,0,1,1,1,1,0,1,1,1,1,1,1,1,1,0,1,0,1,1,0,0,0,0,0,0,0,0,0,0,0,0,0,0,0,0,0,0,0,0],"id":33,"left_children":[1,3,5,7,9,11,13,-1,-1,-1,15,17,19,21,23,-1,-1,25,-1,27,29,31,33,-1,35,37,39,41,43,45,47,49,-1,51,-1,53,55,-1,-1,-1,-1,-1,-1,-1,-1,-1,-1,-1,-1,-1,-1,-1,-1,-1,-1,-1,-1],"loss_changes":[1.2907996E-2,1.2585104E-2,1.4182688E-2,1.5380383E-3,6.566169E-4,1.8889306E-2,2.0760797E-2,0E0,0E0,0E0,1.9178493E-5,3.2119393E-2,1.6240971E-2,1.5240755E-2,2.3413768E-2,0E0,0E0,1.632937E-2,0E0,1.9790646E-2,1.951808E-2,2.0400144E-2,3.4788088E-3,0E0,1.6571516E-2,1.099656E-2,7.7682636E-3,3.0587586E-2,2.0009063E-2,1.1743125E-2,6.1125243E-3,2.48405E-3,0E0,4.1240337E-4,0E0,7.44686E-3,1.4507973E-2,0E0,0E0,0E0,0E0,0E0,0E0,0E0,0E0,0E0,0E0,0E0,0E0,0E0,0E0,0E0,0E0,0E0,0E0,0E0,0E0],"parents":[2147483647,0,0,1,1,2,2,3,3,4,4,5,5,6,6,10,10,11,11,12,12,13,13,14,14,17,17,19,19,20,20,21,21,22,22,24,24,25,25,26,26,27,27,28,28,29,29,30,30,31,31,33,33,35,35,36,36],"right_children":[2,4,6,8,10,12,14,-1,-1,-1,16,18,20,22,24,-1,-1,26,-1,28,30,32,34,-1,36,38,40,42,44,46,48,50,-1,52,-1,54,56,-1,-1,-1,-1,-1,-1,-1,-1,-1,-1,-1,-1,-1,-1,-1,-1,-1,-1,-1,-1],"split_conditions":[-1.2903368E0,2.6149895E-2,3.875139E-1,3.5482913E-1,-2.0841148E-1,-6.1598074E-1,-2.5190198E-1,2.351238E-2,7.1901935E-3,1.7303758E-3,2.0290352E-3,5.0958526E-1,5.41669E-1,2.6389152E-1,-8.081554E-1,-1.772158E-3,-7.0099668E-3,1.4121479E-1,3.1466156E-2,2.4459669E-1,1.3191876E-1,-2.2696324E-2,-1.736382E-1,2.0486774E-2,-6.5744415E-2,1.2853588E-1,1.3752024E-1,-5.9883094E-1,2.543991E-1,-8.695285E-2,2.1008404E-2,-4.9429193E-1,3.0470038E-2,2.164483E-2,7.2673494E-3,3.5356715E-1,2.0143025E-1,1.5222133E-2,-2.4652766E-4,-1.2115056E-2,1.7987861E-3,1.0613942E-2,-1.1823154E-3,-2.5838329E-2,-4.1411547E-3,1.5106016E-2,3.0490577E-3,-1.6509285E-2,-6.4025004E-4,-3.0756555E-4,9.910733E-3,-4.1864294E-4,-5.9227166E-3,9.015745E-3,-3.588278E-3,-6.6022284E-4,-1.2514721E-2],"split_indices":[12,20,31,1,0,23,17,0,0,0,0,17,36,50,57,0,0,52,0,18,38,50,12,0,46,38,0,38,18,7,6,17,0,0,0,55,23,0,0,0,0,0,0,0,0,0,0,0,0,0,0,0,0,0,0,0,0],"split_type":[0,0,0,0,0,0,0,0,0,0,0,0,0,0,0,0,0,0,0,0,0,0,0,0,0,0,0,0,0,0,0,0,0,0,0,0,0,0,0,0,0,0,0,0,0,0,0,0,0,0,0,0,0,0,0,0,0],"sum_hessian":[6.57E2,8E0,6.49E2,5E0,3E0,5.57E2,9.2E1,3E0,2E0,1E0,2E0,3.2E1,5.25E2,2.2E1,7E1,1E0,1E0,2.9E1,3E0,4.87E2,3.8E1,1.4E1,8E0,4E0,6.6E1,1.6E1,1.3E1,3.61E2,1.26E2,3E1,8E0,9E0,5E0,5E0,3E0,2.1E1,4.5E1,9E0,7E0,6E0,7E0,2E1,3.41E2,3E0,1.23E2,1.2E1,1.8E1,3E0,5E0,3E0,6E0,2E0,3E0,1.6E1,5E0,3.3E1,1.2E1],"tree_param":{"num_deleted":"0","num_feature":"60","num_nodes":"57","size_leaf_vector":"0"}},{"base_weights":[1.3378036E-4,-7.927337E-2,3.753032E-4,-3.407744E-2,8.5249793E-4,-8.047879E-3,-5.329151E-2,4.853602E-2,4.0691777E-4,-1.2418456E-2,4.717216E-3,7.8200944E-2,-4.9894303E-2,1.7950023E-2,-7.536295E-4,6.1031613E-2,8.552341E-3,2.6344474E-2,-1.8697822E-3,7.1698464E-2,-1.4847405E-3,-2.5869988E-2,1.8434796E-2,8.876883E-3,7.7267766E-2,-2.0583052E-2,-3.386993E-4],"categories":[],"categories_nodes":[],"categories_segments":[],"categories_sizes":[],"default_left":[1,0,1,1,1,1,0,1,1,0,0,0,0,1,1,1,1,1,1,0,0,0,0,0,0,0,0],"id":34,"left_children":[1,-1,3,5,7,9,-1,11,13,-1,-1,-1,-1,15,17,19,21,23,25,-1,-1,-1,-1,-1,-1,-1,-1],"loss_changes":[1.2649299E-2,0E0,1.0830569E-2,4.0723206E-3,1.3769443E-2,3.375347E-4,0E0,2.142135E-2,1.3125111E-2,0E0,0E0,0E0,0E0,1.567272E-2,1.834786E-2,4.7744196E-3,1.204293E-2,2.0662276E-2,1.6668241E-2,0E0,0E0,0E0,0E0,0E0,0E0,0E0,0E0],"parents":[2147483647,0,0,2,2,3,3,4,4,5,5,7,7,8,8,13,13,14,14,15,15,16,16,17,17,18,18],"right_children":[2,-1,4,6,8,10,-1,12,14,-1,-1,-1,-1,16,18,20,22,24,26,-1,-1,-1,-1,-1,-1,-1,-1],"split_conditions":[-1.5387831E0,-2.3782013E-2,-1.2772993E0,-4.5578852E-2,-1.1028645E0,2.652183E-1,-1.5987454E-2,2.122187E-1,-6.459737E-1,-3.725537E-3,1.4151648E-3,2.3460284E-2,-1.4968292E-2,-4.2857492E-1,-7.7406347E-1,4.7402263E-1,-2.008735E-1,1.5051189E-1,-4.5881128E-1,2.150954E-2,-4.4542216E-4,-7.7609965E-3,5.5304393E-3,2.6630652E-3,2.318033E-2,-6.174916E-3,-1.0160979E-4],"split_indices":[16,0,59,39,59,1,0,0,17,0,0,0,0,22,27,7,39,21,27,0,0,0,0,0,0,0,0],"split_type":[0,0,0,0,0,0,0,0,0,0,0,0,0,0,0,0,0,0,0,0,0,0,0,0,0,0,0],"sum_hessian":[6.57E2,1E0,6.56E2,8E0,6.48E2,4E0,4E0,5E0,6.43E2,3E0,1E0,4E0,1E0,3.9E1,6.04E2,6E0,3.3E1,2.3E1,5.81E2,5E0,1E0,7E0,2.6E1,1.8E1,5E0,4.3E1,5.38E2],"tree_param":{"num_deleted":"0","num_feature":"60","num_nodes":"27","size_leaf_vector":"0"}},{"base_weights":[1.0095876E-4,1.3607632E-3,-1.22509105E-2,-8.821272E-4,1.7503222E-2,-4.288719E-2,2.6294827E-3,4.43038E-4,-2.6383115E-2,-1.8932382E-3,3.541821E-2,9.973679E-3,-6.1172392E-2,-8.869202E-3,2.1869171E-2,2.1799437E-3,-2.0777153E-2,-9.492646E-2,-9.605847E-3,-2.08858E-2,1.6199358E-2,6.2186243E-3,5.0353244E-2,5.758007E-4,1.4528668E-2,-3.0096296E-2,-9.238846E-2,-2.3099862E-2,4.0553166E-3,3.238394E-2,-1.0527713E-3,2.1354344E-2,2.2098835E-4,5.3418986E-4,-4.44861E-2,-1.1451676E-1,-8.282647E-3,2.4732633E-2,-2.1160262E-2,-3.93029E-2,1.3670059E-2,2.6968576E-2,-1.162871E-2,-1.0006914E-2,1.9638643E-2,3.8006764E-2,9.213782E-2,2.1257289E-3,-1.2620278E-3,7.558862E-5,-3.8727634E-2,-3.6721442E-2,-1.0731097E-1,1.1540126E-2,-3.464587E-2,1.6668616E-2,-6.2056175E-3,5.234798E-3,3.783544E-2,-9.158447E-3,2.4000532E-3,-9.915477E-3,3.3778645E-2,3.259149E-3,-1.5369299E-2,-8.762334E-3,2.5235888E-2,-7.235333E-2,-1.4956984E-2,2.8186465E-2,3.731735E-3,-4.4520322E-2,-1.054791E-2,-4.0839665E-2,-1.1199236E-2,2.4595793E-2,-6.7318976E-4,3.9692774E-2,3.3875157E-3,-1.8620722E-2,1.5702097E-3,-1.4596871E-2,8.766413E-3,8.705489E-3,2.4457436E-2,4.2876463E-2,-5.5035925E-3,2.425725E-2,1.0304365E-1,6.9983006E-3,-6.8849176E-3,-5.419031E-4,1.5748104E-2,-4.256361E-2,-1.8215409E-2,6.379034E-3,2.2791043E-2,-2.972111E-4,-1.3516823E-2,4.531838E-3,7.341476E-4],"categories":[],"categories_nodes":[],"categories_segments":[],"categories_sizes":[],"default_left":[1,1,1,1,1,1,1,1,1,1,1,1,1,1,1,1,1,1,1,1,1,1,1,1,0,1,1,1,1,1,1,1,1,1,1,0,0,1,1,1,1,1,1,1,1,1,1,0,0,1,0,0,0,1,1,1,1,0,0,0,1,0,0,0,0,0,0,0,0,0,0,0,0,0,0,0,0,0,0,0,0,0,0,0,0,0,0,0,0,0,0,0,0,0,0,0,0,0,0,0,0],"id":35,"left_children":[1,3,5,7,9,11,13,15,17,19,21,23,25,27,29,31,33,35,37,39,41,43,45,47,-1,49,51,53,55,57,59,61,63,65,67,-1,-1,69,71,73,75,77,79,81,83,85,87,-1,-1,89,-1,-1,-1,91,93,95,97,-1,-1,-1,99,-1,-1,-1,-1,-1,-1,-1,-1,-1,-1,-1,-1,-1,-1,-1,-1,-1,-1,-1,-1,-1,-1,-1,-1,-1,-1,-1,-1,-1,-1,-1,-1,-1,-1,-1,-1,-1,-1,-1,-1],"loss_changes":[1.0255769E-2,2.166649E-2,2.7921442E-2,1.7786818E-2,2.5433626E-2,1.9941546E-2,9.4856685E-3,1.8510886E-2,2.8987372E-2,1.2708827E-2,1.6258553E-2,2.484778E-4,1.1770558E-2,5.059637E-3,3.890396E-3,1.7423954E-2,1.9224009E-2,7.5383857E-3,9.252091E-3,1.1992808E-2,6.0076537E-3,3.2449805E-3,9.395458E-3,1.1228235E-5,0E0,2.34674E-3,1.8742308E-3,5.5992147E-3,2.0448025E-3,1.4299778E-3,1.8990564E-4,1.7040674E-2,2.0038458E-2,5.0435634E-3,1.3729915E-2,0E0,0E0,3.3001718E-4,3.7447903E-3,6.0893595E-5,1.1135313E-3,4.066242E-3,5.8296043E-4,7.311435E-4,2.0856317E-4,4.6855044E-3,1.2019128E-3,0E0,0E0,1.9273945E-4,0E0,0E0,0E0,2.1189754E-4,5.256077E-4,2.9559562E-4,3.8476076E-4,0E0,0E0,0E0,1.4429725E-5,0E0,0E0,0E0,0E0,0E0,0E0,0E0,0E0,0E0,0E0,0E0,0E0,0E0,0E0,0E0,0E0,0E0,0E0,0E0,0E0,0E0,0E0,0E0,0E0,0E0,0E0,0E0,0E0,0E0,0E0,0E0,0E0,0E0,0E0,0E0,0E0,0E0,0E0,0E0,0E0],"parents":[2147483647,0,0,1,1,2,2,3,3,4,4,5,5,6,6,7,7,8,8,9,9,10,10,11,11,12,12,13,13,14,14,15,15,16,16,17,17,18,18,19,19,20,20,21,21,22,22,23,23,25,25,26,26,27,27,28,28,29,29,30,30,31,31,32,32,33,33,34,34,37,37,38,38,39,39,40,40,41,41,42,42,43,43,44,44,45,45,46,46,49,49,53,53,54,54,55,55,56,56,60,60],"right_children":[2,4,6,8,10,12,14,16,18,20,22,24,26,28,30,32,34,36,38,40,42,44,46,48,-1,50,52,54,56,58,60,62,64,66,68,-1,-1,70,72,74,76,78,80,82,84,86,88,-1,-1,90,-1,-1,-1,92,94,96,98,-1,-1,-1,100,-1,-1,-1,-1,-1,-1,-1,-1,-1,-1,-1,-1,-1,-1,-1,-1,-1,-1,-1,-1,-1,-1,-1,-1,-1,-1,-1,-1,-1,-1,-1,-1,-1,-1,-1,-1,-1,-1,-1,-1],"split_conditions":[4.5735216E-1,2.854737E-1,-1.5457149E-1,6.8798995E-1,4.3164693E-2,-1.7083332E-1,2.9861704E-1,5.8085907E-1,-2.2284698E-1,-2.2789426E-2,-2.126852E-1,6.313131E-2,2.1117613E-1,1.12666786E-1,2.2988506E-2,-4.9923417E-1,4.203447E-2,5.013024E-1,-4.023052E-1,2.3576911E-1,2.6137137E-1,1.3622436E-1,8.867499E-2,-1.6615984E-1,4.3586004E-3,-5.6631887E-1,-1.0525487E-1,-2.9546827E-1,-1.4045095E-1,-5.372714E-1,-3.172958E-2,2.247191E-2,3.6900753E-1,1.6922683E-1,-1.0303762E-3,-3.435503E-2,-2.484794E-3,3.9922893E-1,7.203969E-1,5.0717735E-1,1.3450769E-1,8.554345E-2,1.0449882E-1,3.2263377E-1,2.13858E-2,4.095547E-1,-3.9143932E-1,6.377187E-4,-3.7860835E-4,2.549443E-1,-1.161829E-2,-1.1016433E-2,-3.2193292E-2,-5.679336E-1,-2.3353573E-2,-6.991433E-2,1.850325E-1,1.5704394E-3,1.1350633E-2,-2.7475343E-3,-3.0449513E-1,-2.9746431E-3,1.0133594E-2,9.777447E-4,-4.61079E-3,-2.6287E-3,7.5707664E-3,-2.1706E-2,-4.4870954E-3,8.45594E-3,1.1195205E-3,-1.3356097E-2,-3.164373E-3,-1.22519E-2,-3.3597709E-3,7.3787384E-3,-2.0195694E-4,1.1907833E-2,1.0162548E-3,-5.5862167E-3,4.7106293E-4,-4.3790615E-3,2.6299239E-3,2.611647E-3,7.337231E-3,1.2862939E-2,-1.6510779E-3,7.2771753E-3,3.0913098E-2,2.0994903E-3,-2.0654753E-3,-1.6257093E-4,4.7244313E-3,-1.27690835E-2,-5.4646228E-3,1.9137103E-3,6.837313E-3,-8.916334E-5,-4.055047E-3,1.3595514E-3,2.202443E-4],"split_indices":[39,39,21,17,12,5,42,35,5,19,15,2,25,35,10,0,14,0,46,7,30,32,10,0,0,8,3,34,22,2,0,57,46,41,51,0,0,2,17,0,3,40,13,2,27,3,0,0,0,0,0,0,0,3,15,10,54,0,0,0,1,0,0,0,0,0,0,0,0,0,0,0,0,0,0,0,0,0,0,0,0,0,0,0,0,0,0,0,0,0,0,0,0,0,0,0,0,0,0,0,0],"split_type":[0,0,0,0,0,0,0,0,0,0,0,0,0,0,0,0,0,0,0,0,0,0,0,0,0,0,0,0,0,0,0,0,0,0,0,0,0,0,0,0,0,0,0,0,0,0,0,0,0,0,0,0,0,0,0,0,0,0,0,0,0,0,0,0,0,0,0,0,0,0,0,0,0,0,0,0,0,0,0,0,0,0,0,0,0,0,0,0,0,0,0,0,0,0,0,0,0,0,0,0,0],"sum_hessian":[6.57E2,5.97E2,6E1,5.25E2,7.2E1,1.9E1,4.1E1,5E2,2.5E1,3.5E1,3.7E1,5E0,1.4E1,2.6E1,1.5E1,4.63E2,3.7E1,4E0,2.1E1,1.7E1,1.8E1,1.3E1,2.4E1,2E0,3E0,8E0,6E0,1.2E1,1.4E1,1E1,5E0,4.2E1,4.21E2,2E1,1.7E1,3E0,1E0,5E0,1.6E1,1.1E1,6E0,1.3E1,5E0,6E0,7E0,2E1,4E0,1E0,1E0,2E0,6E0,2E0,4E0,3E0,9E0,6E0,8E0,2E0,8E0,1E0,4E0,1.2E1,3E1,3.53E2,6.8E1,1.5E1,5E0,8E0,9E0,4E0,1E0,4E0,1.2E1,1E1,1E0,3E0,3E0,8E0,5E0,3E0,2E0,5E0,1E0,3E0,4E0,1.8E1,2E0,1E0,3E0,1E0,1E0,1E0,2E0,5E0,4E0,3E0,3E0,5E0,3E0,1E0,3E0],"tree_param":{"num_deleted":"0","num_feature":"60","num_nodes":"101","size_leaf_vector":"0"}},{"base_weights":[-8.392365E-6,2.6236432E-2,-5.36526E-4,-1.3261368E-2,3.462343E-2,-7.6622553E-3,2.004167E-3,3.9001952E-3,4.1017458E-2,1.1263255E-2,-1.5867837E-2,1.0334474E-2,-3.0342874E-3,-1.4530346E-3,7.3033273E-3,5.2627712E-2,3.6592789E-3,-2.7774563E-2,1.708599E-3,-7.762084E-2,1.1758808E-2,-5.363989E-3,2.1544289E-2,-5.4898188E-3,8.8596195E-2,2.222039E-2,-6.3619562E-3,-3.9683644E-2,-5.636402E-3,2.0615656E-2,-2.6737418E-2,5.434575E-2,9.697671E-3,-1.2444749E-3,-2.2847993E-2,-1.6195193E-2,3.6300685E-2,8.420646E-4,-7.881135E-3,3.0914243E-2,-1.1589732E-2,-2.2419313E-2,5.5884654E-3,-8.19445E-3,-5.6204733E-2,3.4292487E-3,-4.4397984E-2,-3.9308798E-3,3.7198395E-2,-6.971208E-2,-7.765059E-3,7.6841146E-2,-8.760291E-3,-2.7216401E-2,1.2405616E-2,5.5979122E-3,-1.2552181E-2,-1.3099123E-2,-6.797048E-2,-3.58638E-2,2.7787306E-3,2.652343E-3,5.1626664E-2],"categories":[],"categories_nodes":[],"categories_segments":[],"categories_sizes":[],"default_left":[1,1,1,0,1,1,1,1,0,1,1,1,1,0,0,1,1,1,1,0,1,1,1,1,0,1,1,1,1,1,1,1,1,1,1,1,1,0,0,0,0,0,0,0,0,0,0,0,0,0,0,0,0,0,0,0,0,0,0,0,0,0,0],"id":36,"left_children":[1,3,5,-1,7,9,11,13,-1,15,17,19,21,-1,-1,23,25,27,29,-1,31,33,35,37,-1,39,41,43,45,47,49,51,53,55,57,59,61,-1,-1,-1,-1,-1,-1,-1,-1,-1,-1,-1,-1,-1,-1,-1,-1,-1,-1,-1,-1,-1,-1,-1,-1,-1,-1],"loss_changes":[9.134467E-3,4.7656363E-3,1.1710728E-2,0E0,2.0009223E-3,2.6578844E-2,2.0051938E-2,6.526523E-5,0E0,1.6163204E-2,2.4951518E-2,2.3462728E-2,1.717927E-2,0E0,0E0,1.7209575E-2,8.511601E-3,1.8495128E-2,2.6904903E-2,0E0,1.509737E-2,1.9634556E-2,1.5067264E-2,6.7202556E-5,0E0,5.061331E-3,5.8820546E-3,2.3470275E-2,9.288624E-3,1.2357687E-2,1.5765294E-2,1.2029912E-2,1.7431015E-2,1.7246787E-2,2.1984097E-2,3.085181E-3,9.661252E-3,0E0,0E0,0E0,0E0,0E0,0E0,0E0,0E0,0E0,0E0,0E0,0E0,0E0,0E0,0E0,0E0,0E0,0E0,0E0,0E0,0E0,0E0,0E0,0E0,0E0,0E0],"parents":[2147483647,0,0,1,1,2,2,4,4,5,5,6,6,7,7,9,9,10,10,11,11,12,12,15,15,16,16,17,17,18,18,20,20,21,21,22,22,23,23,25,25,26,26,27,27,28,28,29,29,30,30,31,31,32,32,33,33,34,34,35,35,36,36],"right_children":[2,4,6,-1,8,10,12,14,-1,16,18,20,22,-1,-1,24,26,28,30,-1,32,34,36,38,-1,40,42,44,46,48,50,52,54,56,58,60,62,-1,-1,-1,-1,-1,-1,-1,-1,-1,-1,-1,-1,-1,-1,-1,-1,-1,-1,-1,-1,-1,-1,-1,-1,-1,-1],"split_conditions":[-1.2633917E0,-6.051034E-1,-2.0850712E-1,-3.9784103E-3,-6.4758074E-1,-1.7478886E-1,4.5558125E-2,-2.5023285E-1,1.2305238E-2,-5.7914335E-1,1.2804106E-1,-1.3346621E0,4.933368E-1,-4.359104E-4,2.1909983E-3,2.7179876E-1,-1.1281821E-1,1.3541266E-1,2.1008404E-2,-2.3286253E-2,-8.105854E-1,2.4989605E-1,-2.196639E-1,-4.5139098E-1,2.657886E-2,4.6660534E-1,-1.0876479E-1,-6.317663E-2,-2.811157E-1,-2.211411E-2,-2.721384E-1,4.7912267E-1,-6.7628956E-1,9.1743425E-2,3.025719E-1,-3.836068E-1,-4.5468785E-2,2.526194E-4,-2.3643405E-3,9.274273E-3,-3.4769198E-3,-6.725794E-3,1.6765397E-3,-2.4583351E-3,-1.686142E-2,1.0287747E-3,-1.33193955E-2,-1.1792639E-3,1.1159519E-2,-2.0913625E-2,-2.3295179E-3,2.3052344E-2,-2.6280875E-3,-8.164921E-3,3.721685E-3,1.6793738E-3,-3.7656545E-3,-3.929737E-3,-2.0391144E-2,-1.0759141E-2,8.336192E-4,7.957029E-4,1.5488E-2],"split_indices":[4,32,4,0,5,8,4,0,0,27,32,22,21,0,0,2,25,44,25,0,55,21,41,0,0,38,0,16,4,43,14,18,56,27,1,11,18,0,0,0,0,0,0,0,0,0,0,0,0,0,0,0,0,0,0,0,0,0,0,0,0,0,0],"split_type":[0,0,0,0,0,0,0,0,0,0,0,0,0,0,0,0,0,0,0,0,0,0,0,0,0,0,0,0,0,0,0,0,0,0,0,0,0,0,0,0,0,0,0,0,0,0,0,0,0,0,0,0,0,0,0,0,0,0,0,0,0,0,0],"sum_hessian":[6.57E2,1.2E1,6.45E2,2E0,1E1,1.69E2,4.76E2,2E0,8E0,5.1E1,1.18E2,1.79E2,2.97E2,1E0,1E0,7E0,4.4E1,7E1,4.8E1,2E0,1.77E2,2.72E2,2.5E1,3E0,4E0,1.5E1,2.9E1,4.5E1,2.5E1,2.9E1,1.9E1,7E0,1.7E2,2.21E2,5.1E1,7E0,1.8E1,1E0,2E0,1.2E1,3E0,1.2E1,1.7E1,1.6E1,2.9E1,2.1E1,4E0,1.2E1,1.7E1,5E0,1.4E1,5E0,2E0,1.1E1,1.59E2,1.38E2,8.3E1,4.3E1,8E0,3E0,4E0,6E0,1.2E1],"tree_param":{"num_deleted":"0","num_feature":"60","num_nodes":"63","size_leaf_vector":"0"}},{"base_weights":[-6.200016E-5,-6.53069E-2,1.3670883E-4,1.1266966E-3,-1.273604E-2,4.7412496E-3,-3.1914858E-3,-9.399045E-2,-7.036057E-3,-2.2111656E-3,1.29350135E-2,-5.0815963E-3,2.4497429E-2,1.6141796E-2,-1.8024176E-2,-1.5838506E-2,3.4048043E-3,-7.995203E-3,1.9210884E-2,5.0213754E-2,-5.9159584E-3,-8.194249E-3,3.7701476E-2,-7.5770183E-3,3.279623E-2,-4.9774807E-2,-2.7727918E-3,-2.8447516E-2,3.2218068E-3,1.187231E-2,-1.02113E-2,-1.6884908E-2,2.522938E-2,4.0201964E-3,3.0321388E-2,1.0683924E-2,5.9829056E-2,1.583512E-2,-8.102865E-3,2.9206872E-3,-1.4481889E-2,5.459811E-2,1.5418918E-2,-2.3730854E-2,-9.2957047E-4,3.9108947E-2,7.134477E-3,-1.42087415E-2,-6.298759E-2,-1.2855394E-2,2.0669268E-2],"categories":[],"categories_nodes":[],"categories_segments":[],"categories_sizes":[],"default_left":[1,0,1,1,1,1,1,0,1,1,1,1,1,1,1,1,1,1,1,1,1,1,1,1,1,1,1,0,0,0,0,0,0,0,0,0,0,0,0,0,0,0,0,0,0,0,0,0,0,0,0],"id":37,"left_children":[1,-1,3,5,7,9,11,-1,13,15,17,19,21,23,25,27,29,31,33,35,37,39,41,43,45,47,49,-1,-1,-1,-1,-1,-1,-1,-1,-1,-1,-1,-1,-1,-1,-1,-1,-1,-1,-1,-1,-1,-1,-1,-1],"loss_changes":[8.539732E-3,0E0,8.387068E-3,9.551803E-3,2.1106672E-2,1.8998431E-2,1.472598E-2,0E0,1.175159E-2,1.3905989E-2,2.0250963E-2,1.2384786E-2,8.078862E-3,6.1738496E-3,1.487346E-2,1.2829231E-2,1.4994214E-2,1.105884E-2,1.9793693E-2,8.8115595E-4,1.2448311E-2,4.6161737E-4,4.0526595E-3,7.296129E-4,1.178937E-3,3.8042907E-3,5.465565E-3,0E0,0E0,0E0,0E0,0E0,0E0,0E0,0E0,0E0,0E0,0E0,0E0,0E0,0E0,0E0,0E0,0E0,0E0,0E0,0E0,0E0,0E0,0E0,0E0],"parents":[2147483647,0,0,2,2,3,3,4,4,5,5,6,6,8,8,9,9,10,10,11,11,12,12,13,13,14,14,15,15,16,16,17,17,18,18,19,19,20,20,21,21,22,22,23,23,24,24,25,25,26,26],"right_children":[2,-1,4,6,8,10,12,-1,14,16,18,20,22,24,26,28,30,32,34,36,38,40,42,44,46,48,50,-1,-1,-1,-1,-1,-1,-1,-1,-1,-1,-1,-1,-1,-1,-1,-1,-1,-1,-1,-1,-1,-1,-1,-1],"split_conditions":[-1.6999538E0,-1.9592071E-2,5.903362E-1,8.3109826E-2,-6.976247E-1,4.2735074E-2,5.7415265E-1,-2.8197138E-2,-1.358721E-1,-1.7064923E-1,-3.4180856E-1,-1.2772993E0,-1.5694731E-1,2.0938024E-2,-1.2880814E-1,1.7324947E-1,6.587353E-2,3.0744523E-1,-4.467295E-2,-2.5085413E-1,-4.4971782E-1,-1.5189484E-1,8.4245995E-2,-2.2454363E-1,-2.2603977E-2,-4.3014962E-2,2.88177E-1,-8.534255E-3,9.665421E-4,3.5616932E-3,-3.0633903E-3,-5.065473E-3,7.5688143E-3,1.206059E-3,9.096417E-3,3.2051774E-3,1.7948717E-2,4.750536E-3,-2.4308595E-3,8.762062E-4,-4.3445667E-3,1.6379435E-2,4.6256757E-3,-7.1192565E-3,-2.7887116E-4,1.1732684E-2,2.1403432E-3,-4.2626224E-3,-1.8896278E-2,-3.8566182E-3,6.2007806E-3],"split_indices":[3,0,15,58,25,59,46,0,21,12,16,25,27,9,44,15,27,55,48,0,54,4,16,1,5,14,55,0,0,0,0,0,0,0,0,0,0,0,0,0,0,0,0,0,0,0,0,0,0,0,0],"split_type":[0,0,0,0,0,0,0,0,0,0,0,0,0,0,0,0,0,0,0,0,0,0,0,0,0,0,0,0,0,0,0,0,0,0,0,0,0,0,0,0,0,0,0,0,0,0,0,0,0,0,0],"sum_hessian":[6.57E2,1E0,6.56E2,6.1E2,4.6E1,3.32E2,2.78E2,2E0,4.4E1,1.8E2,1.52E2,2.61E2,1.7E1,1.4E1,3E1,5.2E1,1.28E2,3.5E1,1.17E2,3E0,2.58E2,5E0,1.2E1,6E0,8E0,9E0,2.1E1,3.1E1,2.1E1,7.9E1,4.9E1,2.8E1,7E0,5E1,6.7E1,1E0,2E0,2.3E1,2.35E2,2E0,3E0,6E0,6E0,1E0,5E0,6E0,2E0,3E0,6E0,1.5E1,6E0],"tree_param":{"num_deleted":"0","num_feature":"60","num_nodes":"51","size_leaf_vector":"0"}},{"base_weights":[-6.677836E-5,3.8951255E-2,-3.6497926E-4,-1.8541523E-3,7.351256E-3,8.7801E-4,-1.1225499E-2,1.3008015E-4,3.201819E-2,1.454513E-3,-3.9719623E-2,-8.775534E-3,-8.253054E-2,-5.6149326E-3,3.149668E-2,6.805056E-2,1.8954374E-2,-6.381492E-3,4.5633414E-3,-5.274592E-2,-9.111355E-3,-5.0094176E-2,-4.6018353E-3,4.9871504E-3,-1.5492176E-2,5.2612327E-2,-1.9069571E-3,2.4767045E-2,-2.030222E-2,-6.867887E-2,-4.1971244E-3,1.4901332E-2,9.592229E-4,-2.3004562E-3,-1.1366576E-2,4.481733E-3,-8.192066E-2,-5.27368E-2,-1.8338013E-3,3.6470957E-2,8.9582626E-4,-2.7346121E-2,6.223777E-5,1.9995824E-2,6.8183064E-2,1.2711288E-2,-2.07623E-2,-7.5624586E-4,3.2678537E-2],"categories":[],"categories_nodes":[],"categories_segments":[],"categories_sizes":[],"default_left":[1,0,1,1,1,1,1,1,1,1,1,1,0,1,1,0,1,1,1,0,1,1,1,1,1,1,1,1,0,0,0,0,0,0,0,0,0,0,0,0,0,0,0,0,0,0,0,0,0],"id":38,"left_children":[1,-1,3,5,7,9,11,13,15,17,19,21,-1,23,25,-1,27,29,31,-1,33,35,37,39,41,43,45,47,-1,-1,-1,-1,-1,-1,-1,-1,-1,-1,-1,-1,-1,-1,-1,-1,-1,-1,-1,-1,-1],"loss_changes":[7.6701865E-3,0E0,7.52862E-3,1.40664745E-2,1.8877007E-2,1.0028158E-2,2.0937908E-2,1.5133579E-2,1.000743E-2,1.0285015E-2,1.9116877E-3,2.0636115E-2,0E0,7.5123347E-3,9.269741E-3,0E0,4.8383535E-3,1.604139E-2,1.1238027E-2,0E0,1.9931933E-5,1.9473698E-2,1.4692846E-2,4.4756946E-3,6.823805E-3,2.699528E-3,1.9177079E-3,3.4574773E-3,0E0,0E0,0E0,0E0,0E0,0E0,0E0,0E0,0E0,0E0,0E0,0E0,0E0,0E0,0E0,0E0,0E0,0E0,0E0,0E0,0E0],"parents":[2147483647,0,0,2,2,3,3,4,4,5,5,6,6,7,7,8,8,9,9,10,10,11,11,13,13,14,14,16,16,17,17,18,18,20,20,21,21,22,22,23,23,24,24,25,25,26,26,27,27],"right_children":[2,-1,4,6,8,10,12,14,16,18,20,22,-1,24,26,-1,28,30,32,-1,34,36,38,40,42,44,46,48,-1,-1,-1,-1,-1,-1,-1,-1,-1,-1,-1,-1,-1,-1,-1,-1,-1,-1,-1,-1,-1],"split_conditions":[-1.4298277E0,1.1685377E-2,3.687542E-1,1.6739911E-1,2.930115E-1,9.294481E-1,7.191644E-1,4.126603E-1,-3.1944853E-1,-2.0850712E-1,2.2540823E-1,-5.4155326E-1,-2.4759164E-2,-1.0977195E-1,2.0208451E-1,2.041517E-2,8.145262E-1,-8.62692E-1,-2.131437E-1,-1.5823776E-2,5.532919E-2,2.4407017E-1,-5.6234396E-1,3.8335946E-1,1.19594336E-1,-2.1939468E-1,-1.6116044E-1,-4.652175E-1,-6.090666E-3,-2.0603662E-2,-1.2591374E-3,4.4703996E-3,2.877669E-4,-6.9013686E-4,-3.4099729E-3,1.3445199E-3,-2.45762E-2,-1.5821042E-2,-5.501404E-4,1.09412875E-2,2.6874788E-4,-8.203837E-3,1.8671331E-5,5.9987474E-3,2.045492E-2,3.8133867E-3,-6.2286905E-3,-2.2687377E-4,9.8035615E-3],"split_indices":[42,0,34,34,41,48,11,31,31,4,4,22,0,41,50,0,48,35,10,0,0,34,59,34,18,10,5,54,0,0,0,0,0,0,0,0,0,0,0,0,0,0,0,0,0,0,0,0,0],"split_type":[0,0,0,0,0,0,0,0,0,0,0,0,0,0,0,0,0,0,0,0,0,0,0,0,0,0,0,0,0,0,0,0,0,0,0,0,0,0,0,0,0,0,0,0,0,0,0,0,0],"sum_hessian":[6.57E2,4E0,6.53E2,5.48E2,1.05E2,4.25E2,1.23E2,8.2E1,2.3E1,4.2E2,5E0,1.2E2,3E0,7E1,1.2E1,5E0,1.8E1,1.19E2,3.01E2,3E0,2E0,1E1,1.1E2,3.4E1,3.6E1,7E0,5E0,1.6E1,2E0,3E0,1.16E2,7.7E1,2.24E2,1E0,1E0,4E0,6E0,5E0,1.05E2,3E0,3.1E1,2E1,1.6E1,3E0,4E0,3E0,2E0,4E0,1.2E1],"tree_param":{"num_deleted":"0","num_feature":"60","num_nodes":"49","size_leaf_vector":"0"}},{"base_weights":[-1.0562215E-4,6.072086E-3,-1.6822073E-3,1.4861317E-2,-4.374462E-3,-1.3733684E-2,1.41062E-4,2.1352358E-2,-7.776959E-3,9.896095E-3,-1.6417747E-2,-2.3356484E-2,1.2818764E-2,-1.1384902E-2,2.326138E-3,4.3378666E-2,1.1698711E-2,-2.021822E-3,-3.3960324E-2,1.8894486E-2,-1.6086493E-2,-3.4127574E-2,-5.2065877E-3,-6.7651604E-4,-5.0937466E-2,2.5286667E-2,-1.8409472E-2,-3.4492612E-2,-7.405446E-4,4.1191663E-5,1.2977415E-2,5.8098333E-3,5.101414E-2,4.1091964E-2,3.3278628E-3,4.1926093E-3,-1.20422365E-2,2.4139225E-3,3.242713E-2,-3.784252E-2,4.5356266E-3,-4.9953975E-2,-7.3377783E-3,-2.9157426E-2,1.735678E-3,-1.0442663E-2,4.8289523E-2,-2.7422419E-2,-1.1299303E-1,3.414141E-2,-5.385548E-3,3.9718673E-3,-3.0593108E-2,-1.7670568E-2,-6.382512E-2,-1.4779141E-2,1.3326535E-2,3.553455E-3,-1.2227575E-2,-7.4315923E-3,2.1042777E-2,-3.0946936E-3,9.809573E-3,6.2459312E-2,1.7920967E-2,7.2374E-2,1.3388611E-2,9.658785E-3,-1.4627793E-2,9.130209E-3,-2.5710315E-3,-1.3053146E-2,-3.4938455E-3,8.003991E-3,-1.5160923E-2,1.5185098E-2,4.2573567E-2,-1.5339565E-3,1.4406979E-2,-1.7387487E-2,8.507758E-3,1.1101879E-2,-6.867471E-3,5.1935244E-4,-3.3801865E-2,1.365757E-2,5.353312E-2,-3.370353E-2,1.52176395E-2,1.3427835E-2,4.0230524E-2,5.643144E-4,-7.55694E-3,-2.8224438E-3,8.780245E-3,1.2368172E-2,-2.5553983E-2,-6.785213E-2,-1.7818019E-2,1.9739852E-3,-2.7196366E-2,7.21642E-3,5.7765275E-2,6.377144E-3,-1.8860428E-2,-2.5986847E-2,5.3536254E-3,-3.1722315E-2,5.2445973E-3,2.6134524E-2,-1.3241211E-2],"categories":[],"categories_nodes":[],"categories_segments":[],"categories_sizes":[],"default_left":[1,1,1,1,1,1,1,1,1,1,1,1,1,1,1,1,1,1,0,1,1,1,1,1,1,1,1,1,1,1,1,1,1,1,1,1,1,1,1,0,1,0,1,0,1,1,1,1,0,1,1,1,0,1,1,1,1,1,1,1,1,0,0,0,0,0,0,0,0,0,0,0,0,0,0,0,0,0,0,0,0,0,0,0,0,0,0,0,0,0,0,0,0,0,0,0,0,0,0,0,0,0,0,0,0,0,0,0,0,0,0],"id":39,"left_children":[1,3,5,7,9,11,13,15,17,19,21,23,25,27,29,31,33,35,-1,37,39,41,43,45,47,49,51,53,55,57,59,61,63,65,67,69,71,73,75,-1,77,-1,79,-1,81,83,85,87,-1,89,91,93,-1,95,97,99,101,103,105,107,109,-1,-1,-1,-1,-1,-1,-1,-1,-1,-1,-1,-1,-1,-1,-1,-1,-1,-1,-1,-1,-1,-1,-1,-1,-1,-1,-1,-1,-1,-1,-1,-1,-1,-1,-1,-1,-1,-1,-1,-1,-1,-1,-1,-1,-1,-1,-1,-1,-1,-1],"loss_changes":[6.418926E-3,1.2368506E-2,1.1537809E-2,1.0893112E-2,1.0818064E-2,1.7929517E-2,1.1536078E-2,1.1612674E-2,2.493049E-3,7.0841885E-3,6.572935E-3,3.1867865E-2,7.863177E-3,1.7930027E-2,9.369439E-3,4.580166E-3,9.951156E-3,9.845562E-4,0E0,4.8282873E-3,3.7608827E-3,5.1452667E-3,3.708616E-3,1.4372348E-2,3.0463971E-2,3.9861947E-3,1.7576283E-3,1.0221126E-2,1.026854E-2,1.3746434E-2,1.1349591E-2,1.7282079E-4,4.1832663E-3,6.8305694E-3,3.8925896E-3,3.574355E-4,6.2441686E-6,1.2020384E-3,1.4528586E-3,0E0,3.2167463E-4,0E0,1.1033866E-3,0E0,1.5266609E-3,6.4191534E-3,1.7684698E-4,5.333772E-3,0E0,8.471925E-4,5.594243E-5,1.2279059E-4,0E0,4.104981E-3,2.7317926E-4,5.4623964E-3,6.6428124E-3,1.5816154E-2,1.7314345E-2,6.324647E-3,8.899758E-3,0E0,0E0,0E0,0E0,0E0,0E0,0E0,0E0,0E0,0E0,0E0,0E0,0E0,0E0,0E0,0E0,0E0,0E0,0E0,0E0,0E0,0E0,0E0,0E0,0E0,0E0,0E0,0E0,0E0,0E0,0E0,0E0,0E0,0E0,0E0,0E0,0E0,0E0,0E0,0E0,0E0,0E0,0E0,0E0,0E0,0E0,0E0,0E0,0E0,0E0],"parents":[2147483647,0,0,1,1,2,2,3,3,4,4,5,5,6,6,7,7,8,8,9,9,10,10,11,11,12,12,13,13,14,14,15,15,16,16,17,17,19,19,20,20,21,21,22,22,23,23,24,24,25,25,26,26,27,27,28,28,29,29,30,30,31,31,32,32,33,33,34,34,35,35,36,36,37,37,38,38,40,40,42,42,44,44,45,45,46,46,47,47,49,49,50,50,51,51,53,53,54,54,55,55,56,56,57,57,58,58,59,59,60,60],"right_children":[2,4,6,8,10,12,14,16,18,20,22,24,26,28,30,32,34,36,-1,38,40,42,44,46,48,50,52,54,56,58,60,62,64,66,68,70,72,74,76,-1,78,-1,80,-1,82,84,86,88,-1,90,92,94,-1,96,98,100,102,104,106,108,110,-1,-1,-1,-1,-1,-1,-1,-1,-1,-1,-1,-1,-1,-1,-1,-1,-1,-1,-1,-1,-1,-1,-1,-1,-1,-1,-1,-1,-1,-1,-1,-1,-1,-1,-1,-1,-1,-1,-1,-1,-1,-1,-1,-1,-1,-1,-1,-1,-1,-1],"split_conditions":[-2.8361088E-1,4.333944E-2,-1.5503399E-1,3.5158086E-1,2.2502251E-2,2.9999357E-1,-3.5589665E-1,-2.5258243E-1,7.437885E-1,2.961911E-1,-2.1061499E-2,4.5840714E-2,2.5467443E-1,-1.7360196E-1,3.2889044E-1,-1.9371372E-1,-2.7640218E-1,1.5874687E-1,-1.0188097E-2,-4.1876048E-2,4.4052124E-1,4.439075E-2,-3.898588E-1,3.5788062E-1,1.9105837E-1,6.537546E-1,-1.5447056E-1,2.0182215E-1,2.0859407E-2,3.0757302E-1,-2.5773883E-1,-7.9255515E-1,3.0284375E-1,-1.0662831E-1,3.1861266E-1,3.807029E-1,5.571241E-1,2.0050009E-1,-4.5252743E-1,-1.1352756E-2,4.2662118E-2,-1.4986193E-2,1.0504202E-1,-8.747228E-3,-2.3719165E-2,3.342915E-1,-2.745244E-1,3.4271023E-1,-3.389791E-2,-2.0425692E-1,6.5338016E-2,-1.2297694E-1,-9.1779325E-3,-3.6672172E-1,6.2541133E-1,-8.985964E-2,4.9600452E-1,4.600225E-1,4.3323226E-2,-6.568357E-2,4.6044576E-1,-9.284081E-4,2.942872E-3,1.8737795E-2,5.3762905E-3,2.17122E-2,4.016584E-3,2.8976356E-3,-4.388338E-3,2.7390628E-3,-7.713095E-4,-3.915944E-3,-1.0481537E-3,2.4011973E-3,-4.5482772E-3,4.5555294E-3,1.2772071E-2,-4.6018697E-4,4.322094E-3,-5.2162465E-3,2.5523277E-3,3.330564E-3,-2.0602415E-3,1.5580574E-4,-1.014056E-2,4.0972712E-3,1.6059937E-2,-1.0111059E-2,4.565292E-3,4.0283506E-3,1.2069157E-2,1.6929433E-4,-2.267082E-3,-8.4673316E-4,2.6340736E-3,3.7104518E-3,-7.6661953E-3,-2.035564E-2,-5.345406E-3,5.921956E-4,-8.15891E-3,2.1649261E-3,1.7329583E-2,1.9131432E-3,-5.6581283E-3,-7.7960542E-3,1.6060877E-3,-9.516695E-3,1.5733793E-3,7.840358E-3,-3.9723637E-3],"split_indices":[9,22,9,36,42,1,42,1,0,6,39,41,58,52,28,49,28,1,0,6,6,30,33,6,6,24,2,29,31,14,11,0,7,10,40,6,1,21,9,0,3,0,0,0,35,24,1,33,0,43,0,0,0,10,3,36,59,0,56,35,39,0,0,0,0,0,0,0,0,0,0,0,0,0,0,0,0,0,0,0,0,0,0,0,0,0,0,0,0,0,0,0,0,0,0,0,0,0,0,0,0,0,0,0,0,0,0,0,0,0,0],"split_type":[0,0,0,0,0,0,0,0,0,0,0,0,0,0,0,0,0,0,0,0,0,0,0,0,0,0,0,0,0,0,0,0,0,0,0,0,0,0,0,0,0,0,0,0,0,0,0,0,0,0,0,0,0,0,0,0,0,0,0,0,0,0,0,0,0,0,0,0,0,0,0,0,0,0,0,0,0,0,0,0,0,0,0,0,0,0,0,0,0,0,0,0,0,0,0,0,0,0,0,0,0,0,0,0,0,0,0,0,0,0,0],"sum_hessian":[6.57E2,1.33E2,5.24E2,7.2E1,6.1E1,6.8E1,4.56E2,5.6E1,1.6E1,2.8E1,3.3E1,5E1,1.8E1,7.2E1,3.84E2,1.6E1,4E1,1.4E1,2E0,2.1E1,7E0,1.2E1,2.1E1,2.8E1,2.2E1,1.3E1,5E0,2.2E1,5E1,3.17E2,6.7E1,3E0,1.3E1,8E0,3.2E1,9E0,5E0,1E1,1.1E1,3E0,4E0,7E0,5E0,4E0,1.7E1,2.4E1,4E0,1.7E1,5E0,1E1,3E0,2E0,3E0,1.5E1,7E0,2.5E1,2.5E1,2.47E2,7E1,1.9E1,4.8E1,1E0,2E0,9E0,4E0,3E0,5E0,2.4E1,8E0,5E0,4E0,4E0,1E0,8E0,2E0,5E0,6E0,3E0,1E0,3E0,2E0,8E0,9E0,1.7E1,7E0,1E0,3E0,1.5E1,2E0,3E0,7E0,1E0,2E0,1E0,1E0,3E0,1.2E1,6E0,1E0,1.1E1,1.4E1,2.3E1,2E0,2.2E2,2.7E1,3.9E1,3.1E1,6E0,1.3E1,4.2E1,6E0],"tree_param":{"num_deleted":"0","num_feature":"60","num_nodes":"111","size_leaf_vector":"0"}},{"base_weights":[-1.2660364E-4,2.841795E-2,-4.328694E-4,5.0505577E-3,5.7890955E-2,-2.6422264E-2,-1.0984919E-4,1.4484997E-2,-6.0674003E-3,-4.2378794E-2,1.289642E-4,-2.515709E-3,3.6767027E-3,-4.650516E-2,-1.2936667E-2,-2.821289E-3,4.489862E-3,-7.4339462E-3,2.7761986E-3,8.7802066E-4,1.7194094E-2,2.5877273E-2,-9.09557E-3,-1.606215E-3,1.7453948E-2,4.7964253E-3,-1.018072E-2,9.5235906E-4,2.777706E-2,3.7602365E-3,3.9995257E-2,2.7037263E-3,-1.3834601E-2,-1.2162899E-2,6.8076085E-3,4.5347713E-2,8.985617E-3,-3.902812E-3,1.1291398E-2,-1.8630825E-2,5.5385036E-3,-1.7486015E-2,1.4275507E-2,4.1767944E-2,7.9737E-3],"categories":[],"categories_nodes":[],"categories_segments":[],"categories_sizes":[],"default_left":[1,1,1,1,0,1,1,0,0,1,1,1,1,0,0,0,0,1,1,1,1,1,1,1,1,1,1,1,1,0,0,0,0,0,0,0,0,0,0,0,0,0,0,0,0],"id":40,"left_children":[1,3,5,7,-1,9,11,-1,-1,13,15,17,19,-1,-1,-1,-1,21,23,25,27,29,31,33,35,37,39,41,43,-1,-1,-1,-1,-1,-1,-1,-1,-1,-1,-1,-1,-1,-1,-1,-1],"loss_changes":[5.7646814E-3,4.528569E-3,5.470703E-3,6.123447E-4,0E0,3.3947886E-3,5.8851438E-3,0E0,0E0,5.8226287E-6,6.413021E-5,1.0301247E-2,9.480454E-3,0E0,0E0,0E0,0E0,1.1582264E-2,1.2313914E-2,9.105349E-3,7.3646326E-3,2.9720878E-3,1.0997182E-2,1.3228467E-2,9.985921E-3,8.80177E-3,7.408787E-3,4.671451E-3,6.870685E-3,0E0,0E0,0E0,0E0,0E0,0E0,0E0,0E0,0E0,0E0,0E0,0E0,0E0,0E0,0E0,0E0],"parents":[2147483647,0,0,1,1,2,2,3,3,5,5,6,6,9,9,10,10,11,11,12,12,17,17,18,18,19,19,20,20,21,21,22,22,23,23,24,24,25,25,26,26,27,27,28,28],"right_children":[2,4,6,8,-1,10,12,-1,-1,14,16,18,20,-1,-1,-1,-1,22,24,26,28,30,32,34,36,38,40,42,44,-1,-1,-1,-1,-1,-1,-1,-1,-1,-1,-1,-1,-1,-1,-1,-1],"split_conditions":[-1.3013585E0,-1.7986149E-1,-1.3016059E0,-1.8027356E-1,1.7367287E-2,2.2484115E-1,9.446579E-2,4.3454994E-3,-1.8202201E-3,8.350783E-2,1.8687752E-1,8.382243E-2,3.2634383E-1,-1.3951548E-2,-3.8810002E-3,-8.463867E-4,1.3469586E-3,-7.2603583E-1,2.7868307E-1,2.5694895E-1,-1.4045095E-1,2.4703052E-2,-1.7318746E-1,2.099958E-2,3.344484E-1,-4.5537494E-2,1.627883E-1,-1.3973339E-1,2.4508971E-1,1.128071E-3,1.1998578E-2,8.1111793E-4,-4.1503804E-3,-3.6488697E-3,2.0422826E-3,1.3604314E-2,2.6956853E-3,-1.1708436E-3,3.3874195E-3,-5.5892477E-3,1.6615512E-3,-5.245805E-3,4.2826524E-3,1.2530384E-2,2.39211E-3],"split_indices":[37,2,16,3,0,0,50,0,0,0,1,52,31,0,0,0,0,16,33,18,48,24,23,17,33,13,10,16,51,0,0,0,0,0,0,0,0,0,0,0,0,0,0,0,0],"split_type":[0,0,0,0,0,0,0,0,0,0,0,0,0,0,0,0,0,0,0,0,0,0,0,0,0,0,0,0,0,0,0,0,0,0,0,0,0,0,0,0,0,0,0,0,0],"sum_hessian":[6.57E2,6E0,6.51E2,4E0,2E0,7E0,6.44E2,2E0,2E0,4E0,3E0,3.94E2,2.5E2,3E0,1E0,2E0,1E0,2.04E2,1.9E2,2.08E2,4.2E1,9E0,1.95E2,1.47E2,4.3E1,1.54E2,5.4E1,1.7E1,2.5E1,4E0,5E0,5.6E1,1.39E2,6.5E1,8.2E1,9E0,3.4E1,6.6E1,8.8E1,3.5E1,1.9E1,7E0,1E1,1.4E1,1.1E1],"tree_param":{"num_deleted":"0","num_feature":"60","num_nodes":"45","size_leaf_vector":"0"}},{"base_weights":[-2.8911145E-5,-6.5824686E-4,1.1910273E-2,-1.5471464E-3,8.5982755E-3,2.0435162E-2,-9.740489E-3,5.0570206E-3,-3.2564749E-3,1.6358264E-2,-1.529585E-2,-6.002669E-3,2.6022863E-2,-9.2672865E-4,-1.8368902E-2,1.9191559E-3,2.4940958E-2,9.275252E-3,-4.654531E-3,8.875858E-3,3.6638148E-2,-2.5365012E-2,2.357201E-3,-1.0479284E-2,5.9518963E-3,3.1494897E-2,-3.739004E-3,-2.6679821E-3,3.8897693E-3,-5.408466E-3,-2.0256896E-2,-7.2883763E-3,8.37825E-3,4.017616E-2,-3.8660638E-4,-2.7031995E-2,1.2436967E-2,-8.815611E-3,1.4530014E-3,1.7970296E-2,-7.779062E-3,5.4470964E-2,4.344573E-3,-1.0058075E-2,-3.1342134E-2,-6.3185543E-3,5.356063E-3,3.5111975E-2,2.91121E-3,-1.3137226E-2,1.2227831E-2,1.3359728E-3,-2.7293488E-2,2.5799284E-2,1.0610486E-3,1.9077353E-2,5.1062472E-2,8.103855E-3,-8.780416E-3,2.1323537E-2,1.1512339E-3,-1.637852E-2,-7.337438E-4,5.4400368E-3,-1.4901629E-2,8.189728E-3,4.105676E-2,-1.3641114E-2,7.355321E-3,8.082149E-3,6.0855407E-2,2.1255225E-2,-1.401427E-2,6.492883E-4,6.3704345E-3,1.4257702E-2,3.7223577E-2],"categories":[],"categories_nodes":[],"categories_segments":[],"categories_sizes":[],"default_left":[1,1,1,1,1,1,1,1,1,1,1,1,1,1,1,1,1,1,1,1,1,1,1,0,0,1,1,0,0,0,0,1,1,1,1,0,1,1,1,1,1,1,1,0,0,0,1,1,0,0,0,0,0,0,0,0,0,0,0,0,0,0,0,0,0,0,0,0,0,0,0,0,0,0,0,0,0],"id":41,"left_children":[1,3,5,7,9,11,13,15,17,19,21,23,25,27,29,31,33,35,37,39,41,43,45,-1,-1,47,49,-1,-1,-1,-1,51,53,55,57,-1,59,61,63,65,67,69,71,-1,-1,-1,73,75,-1,-1,-1,-1,-1,-1,-1,-1,-1,-1,-1,-1,-1,-1,-1,-1,-1,-1,-1,-1,-1,-1,-1,-1,-1,-1,-1,-1,-1],"loss_changes":[4.951891E-3,5.1641045E-3,6.289869E-3,6.473599E-3,1.044821E-2,3.7016477E-3,7.434647E-4,7.314521E-3,8.014798E-3,6.047982E-3,2.5483107E-3,3.2995158E-4,3.3749184E-3,6.06983E-5,1.2787292E-5,6.1867125E-3,6.189462E-3,5.616681E-3,1.0432518E-2,4.9867397E-3,6.098087E-3,5.0818175E-4,1.8994694E-4,0E0,0E0,1.6554017E-3,7.608793E-4,0E0,0E0,0E0,0E0,7.4552996E-3,7.7484916E-3,1.3227444E-3,5.7002646E-4,0E0,4.287984E-3,1.4901856E-2,1.097055E-2,4.4055292E-3,1.1649574E-3,1.5813243E-3,1.8501765E-3,0E0,0E0,0E0,1.9735846E-5,1.2981705E-4,0E0,0E0,0E0,0E0,0E0,0E0,0E0,0E0,0E0,0E0,0E0,0E0,0E0,0E0,0E0,0E0,0E0,0E0,0E0,0E0,0E0,0E0,0E0,0E0,0E0,0E0,0E0,0E0,0E0],"parents":[2147483647,0,0,1,1,2,2,3,3,4,4,5,5,6,6,7,7,8,8,9,9,10,10,11,11,12,12,13,13,14,14,15,15,16,16,17,17,18,18,19,19,20,20,21,21,22,22,25,25,26,26,31,31,32,32,33,33,34,34,36,36,37,37,38,38,39,39,40,40,41,41,42,42,46,46,47,47],"right_children":[2,4,6,8,10,12,14,16,18,20,22,24,26,28,30,32,34,36,38,40,42,44,46,-1,-1,48,50,-1,-1,-1,-1,52,54,56,58,-1,60,62,64,66,68,70,72,-1,-1,-1,74,76,-1,-1,-1,-1,-1,-1,-1,-1,-1,-1,-1,-1,-1,-1,-1,-1,-1,-1,-1,-1,-1,-1,-1,-1,-1,-1,-1,-1,-1],"split_conditions":[6.4743185E-1,5.5749494E-1,2.4898629E-1,-3.2066023E-1,3.4470427E-1,-3.001094E-1,7.006072E-2,-3.7383538E-1,-5.002085E-1,2.9745644E-1,2.964696E-1,4.3090537E-1,4.2904788E-1,6.4524883E-1,-6.299194E-2,-8.89508E-2,-4.430902E-2,-7.943461E-1,1.24688365E-1,7.319984E-1,8.3822295E-2,6.9776855E-2,-1.0890414E0,-3.1437855E-3,1.785569E-3,3.2227165E-1,6.971325E-2,-8.003947E-4,1.1669309E-3,-1.6225398E-3,-6.077069E-3,-2.2097263E-1,-1.773646E-1,2.0938024E-2,-2.2908323E-2,-8.109599E-3,4.4572484E-2,4.5260333E-2,3.3068645E-1,2.1023785E-1,2.5363687E-1,-2.1528502E-1,2.0075804E-1,-3.0174227E-3,-9.40264E-3,-1.8955664E-3,-2.2451371E-1,-4.2419663E-1,8.7336305E-4,-3.941168E-3,3.6683495E-3,4.0079185E-4,-8.1880465E-3,7.7397856E-3,3.183146E-4,5.7232063E-3,1.5318742E-2,2.4311566E-3,-2.6341248E-3,6.3970615E-3,3.4537018E-4,-4.9135564E-3,-2.2012314E-4,1.6320111E-3,-4.470489E-3,2.4569184E-3,1.2317029E-2,-4.0923343E-3,2.2065965E-3,2.4246448E-3,1.8256623E-2,6.3765678E-3,-4.204281E-3,1.947865E-4,1.9111304E-3,4.277311E-3,1.1167074E-2],"split_indices":[27,24,45,24,51,24,58,24,6,43,43,0,46,0,0,11,19,10,50,24,42,47,8,0,0,34,1,0,0,0,0,11,7,36,1,0,39,53,53,56,40,1,0,0,0,0,3,13,0,0,0,0,0,0,0,0,0,0,0,0,0,0,0,0,0,0,0,0,0,0,0,0,0,0,0,0,0],"split_type":[0,0,0,0,0,0,0,0,0,0,0,0,0,0,0,0,0,0,0,0,0,0,0,0,0,0,0,0,0,0,0,0,0,0,0,0,0,0,0,0,0,0,0,0,0,0,0,0,0,0,0,0,0,0,0,0,0,0,0,0,0,0,0,0,0,0,0,0,0,0,0,0,0,0,0,0,0],"sum_hessian":[6.57E2,6.25E2,3.2E1,5.71E2,5.4E1,2.3E1,9E0,1.17E2,4.54E2,4.1E1,1.3E1,4E0,1.9E1,5E0,4E0,1.02E2,1.5E1,4.5E1,4.09E2,3.1E1,1E1,8E0,5E0,3E0,1E0,1.6E1,3E0,4E0,1E0,1E0,3E0,4.2E1,6E1,9E0,6E0,3E0,4.2E1,2.43E2,1.66E2,2E1,1.1E1,6E0,4E0,3E0,5E0,1E0,4E0,1.4E1,2E0,2E0,1E0,3E1,1.2E1,1.7E1,4.3E1,4E0,5E0,3E0,3E0,2.3E1,1.9E1,1.25E2,1.18E2,1.34E2,3.2E1,1.5E1,5E0,8E0,3E0,1E0,5E0,2E0,2E0,1E0,3E0,2E0,1.2E1],"tree_param":{"num_deleted":"0","num_feature":"60","num_nodes":"77","size_leaf_vector":"0"}},{"base_weights":[4.4590746E-5,1.8549007E-3,-3.5191483E-3,-3.0847838E-2,2.2282468E-3,-3.0997217E-2,-2.2125763E-3,-3.067229E-3,-7.098514E-2,9.52179E-3,3.6680163E-4,-5.039565E-2,-1.5196546E-3,-1.205212E-2,7.2287937E-4,-1.0872111E-2,1.0173708E-2,-5.5469826E-2,1.0906404E-2,-1.2657202E-3,1.4909088E-2,-1.3043438E-2,1.051068E-2,2.9779144E-2,-1.4465772E-2,1.4993244E-2,-2.1777952E-3,-2.8194133E-2,1.3130455E-2,-1.3062934E-2,4.6744564E-4,1.7850392E-3,3.038233E-2,2.4047233E-3,1.3361298E-2,-5.6504705E-3,-2.8354287E-2,-3.6997902E-3,3.1440526E-2,6.39255E-3,-7.4341963E-3,-8.147742E-3,-3.884248E-2,4.145386E-3,2.2233564E-2,-2.890639E-3,-5.3390786E-2,9.577779E-3,-2.542118E-3,1.2207412E-2,-1.5374446E-2,-1.7810278E-3,3.7941646E-2,-5.3369865E-4,-2.6028609E-2,-1.2419395E-2,-3.7365638E-2,8.304492E-3,-1.3741063E-2,4.4773966E-2,3.9780387E-3,-1.247864E-2,1.417009E-2,-1.3810752E-2,4.9290657E-3],"categories":[],"categories_nodes":[],"categories_segments":[],"categories_sizes":[],"default_left":[1,1,1,1,1,1,1,1,0,1,1,0,1,1,1,0,0,0,1,1,1,0,1,0,1,1,1,1,1,1,1,1,1,0,0,1,1,1,1,1,1,0,0,0,0,0,0,0,0,0,0,0,0,0,0,0,0,0,0,0,0,0,0,0,0],"id":42,"left_children":[1,3,5,7,9,11,13,15,-1,17,19,-1,21,23,25,-1,-1,-1,27,29,31,-1,33,-1,35,37,39,41,43,45,47,49,51,-1,-1,53,55,57,59,61,63,-1,-1,-1,-1,-1,-1,-1,-1,-1,-1,-1,-1,-1,-1,-1,-1,-1,-1,-1,-1,-1,-1,-1,-1],"loss_changes":[4.2515965E-3,5.40426E-3,7.901677E-3,5.357466E-3,5.875145E-3,5.641601E-3,6.1609065E-3,5.239855E-4,0E0,8.523948E-3,8.233118E-3,0E0,8.3027035E-4,5.3781183E-3,6.86261E-3,0E0,0E0,0E0,7.935862E-3,6.3854232E-3,7.053272E-3,0E0,3.7190737E-5,0E0,5.5940636E-3,8.724913E-3,6.26431E-3,7.508262E-4,6.6965763E-3,1.6254738E-2,7.509497E-3,3.7645332E-3,3.9577037E-3,0E0,0E0,3.1142174E-3,2.1206485E-3,1.8016482E-3,5.3144274E-3,7.9557095E-3,6.847887E-3,0E0,0E0,0E0,0E0,0E0,0E0,0E0,0E0,0E0,0E0,0E0,0E0,0E0,0E0,0E0,0E0,0E0,0E0,0E0,0E0,0E0,0E0,0E0,0E0],"parents":[2147483647,0,0,1,1,2,2,3,3,4,4,5,5,6,6,7,7,9,9,10,10,12,12,13,13,14,14,18,18,19,19,20,20,22,22,24,24,25,25,26,26,27,27,28,28,29,29,30,30,31,31,32,32,35,35,36,36,37,37,38,38,39,39,40,40],"right_children":[2,4,6,8,10,12,14,16,-1,18,20,-1,22,24,26,-1,-1,-1,28,30,32,-1,34,-1,36,38,40,42,44,46,48,50,52,-1,-1,54,56,58,60,62,64,-1,-1,-1,-1,-1,-1,-1,-1,-1,-1,-1,-1,-1,-1,-1,-1,-1,-1,-1,-1,-1,-1,-1,-1],"split_conditions":[1.6852748E-1,-1.4727635E0,1.7156357E-1,4.7392195E-1,-2.9179555E-1,1.4646108E-1,-2.4870706E-1,4.5530307E-1,-2.1295542E-2,-1.4883101E0,4.1614154E-1,-1.5118695E-2,-1.9319624E-1,-5.399606E-1,-2.9197183E-1,-3.2616335E-3,3.0521126E-3,-1.6640948E-2,-8.3512664E-1,-4.5328647E-1,9.26823E-2,-3.9130314E-3,2.2507124E-2,8.933743E-3,1.5167423E-1,6.5044135E-2,-1.3869628E-1,8.329876E-2,6.685825E-2,2.760601E-1,-1.812488E-1,-8.538206E-2,-3.3193034E-1,7.21417E-4,4.0083895E-3,3.6736804E-1,1.0683196E-1,-1.7391859E-1,1.7167808E-1,-1.7522664E-1,1.6810378E-1,-2.4443227E-3,-1.1652744E-2,1.2436159E-3,6.6700694E-3,-8.6719176E-4,-1.6017236E-2,2.8733339E-3,-7.6263543E-4,3.6622237E-3,-4.612334E-3,-5.343084E-4,1.1382494E-2,-1.601096E-4,-7.808583E-3,-3.7258186E-3,-1.1209692E-2,2.4913475E-3,-4.122319E-3,1.3432191E-2,1.1934116E-3,-3.7435922E-3,4.251027E-3,-4.143226E-3,1.4787198E-3],"split_indices":[4,19,4,3,28,21,16,0,0,58,0,0,0,50,47,0,0,0,3,27,32,0,0,0,54,24,39,0,29,7,59,26,22,0,0,41,14,42,46,48,11,0,0,0,0,0,0,0,0,0,0,0,0,0,0,0,0,0,0,0,0,0,0,0,0],"split_type":[0,0,0,0,0,0,0,0,0,0,0,0,0,0,0,0,0,0,0,0,0,0,0,0,0,0,0,0,0,0,0,0,0,0,0,0,0,0,0,0,0,0,0,0,0,0,0,0,0,0,0,0,0,0,0,0,0,0,0,0,0,0,0,0,0],"sum_hessian":[6.57E2,4.36E2,2.21E2,4E0,4.32E2,9E0,2.12E2,3E0,1E0,8.7E1,3.45E2,5E0,4E0,4.8E1,1.64E2,2E0,1E0,1E0,8.6E1,3.11E2,3.4E1,2E0,2E0,2E0,4.6E1,2.7E1,1.37E2,4E0,8.2E1,3.9E1,2.72E2,1.9E1,1.5E1,1E0,1E0,2.9E1,1.7E1,1.3E1,1.4E1,5.2E1,8.5E1,2E0,2E0,4.2E1,4E1,3.2E1,7E0,6.7E1,2.05E2,1.2E1,7E0,3E0,1.2E1,2.4E1,5E0,7E0,1E1,6E0,7E0,9E0,5E0,1.5E1,3.7E1,5.6E1,2.9E1],"tree_param":{"num_deleted":"0","num_feature":"60","num_nodes":"65","size_leaf_vector":"0"}},{"base_weights":[-7.006287E-5,2.3474352E-2,-2.8629016E-4,5.967075E-3,3.8992602E-2,2.9117488E-3,-2.0204003E-3,9.109092E-3,-1.7294884E-3,1.3936544E-3,2.3129161E-2,-8.314368E-3,4.6253926E-4,-9.7555015E-3,3.919635E-3,3.320709E-2,5.427953E-3,-1.3236542E-3,-1.9144123E-2,2.436448E-3,-1.099641E-2,-4.0093422E-2,-3.2225328E-3,-6.1977416E-4,1.0185034E-2,8.932437E-3,3.81592E-2,1.1229653E-2,-6.0508647E-3,1.6638648E-2,-8.754729E-3,-4.4887602E-2,-1.1865731E-2,-5.9596484E-4,1.2179127E-2,3.6443432E-3,-2.6468305E-2,-1.0538921E-2,-4.3262687E-2,1.7006299E-2,-7.296686E-3,5.016795E-3,-1.03932945E-2,2.387903E-2,5.3569805E-3,6.651981E-2,5.2616326E-3,-4.430785E-2,-4.9481923E-3,-1.2590292E-2,-7.466685E-2,-1.5124988E-2,8.037803E-3,5.205441E-3,-7.193353E-3,1.9930465E-2,-5.095204E-3,-1.333648E-2,1.9038616E-2,-8.03814E-3,-4.115693E-2],"categories":[],"categories_nodes":[],"categories_segments":[],"categories_sizes":[],"default_left":[1,1,1,1,0,1,1,0,0,1,1,1,1,1,1,1,1,1,1,1,1,1,1,1,1,0,0,0,0,1,1,1,1,1,1,1,1,0,0,0,0,0,0,0,0,0,0,0,0,0,0,0,0,0,0,0,0,0,0,0,0],"id":43,"left_children":[1,3,5,7,-1,9,11,-1,-1,13,15,17,19,21,23,25,27,29,31,33,35,37,39,41,43,-1,-1,-1,-1,45,47,49,51,53,55,57,59,-1,-1,-1,-1,-1,-1,-1,-1,-1,-1,-1,-1,-1,-1,-1,-1,-1,-1,-1,-1,-1,-1,-1,-1],"loss_changes":[3.3565622E-3,1.397422E-3,3.627259E-3,1.12485024E-4,0E0,7.0269126E-3,6.6299234E-3,0E0,0E0,6.0931863E-3,2.674017E-3,9.0595875E-3,6.9255624E-3,7.798665E-3,5.0119655E-3,8.6125266E-4,5.341257E-4,1.0023129E-2,8.273819E-3,7.718197E-3,1.0289868E-2,1.9972026E-4,2.926212E-3,5.7263207E-3,4.7646165E-3,0E0,0E0,0E0,0E0,1.2134971E-2,6.9534727E-3,8.677818E-3,2.586659E-3,7.69227E-3,8.4032975E-3,6.5276856E-3,5.62488E-3,0E0,0E0,0E0,0E0,0E0,0E0,0E0,0E0,0E0,0E0,0E0,0E0,0E0,0E0,0E0,0E0,0E0,0E0,0E0,0E0,0E0,0E0,0E0,0E0],"parents":[2147483647,0,0,1,1,2,2,3,3,5,5,6,6,9,9,10,10,11,11,12,12,13,13,14,14,15,15,16,16,17,17,18,18,19,19,20,20,21,21,22,22,23,23,24,24,29,29,30,30,31,31,32,32,33,33,34,34,35,35,36,36],"right_children":[2,4,6,8,-1,10,12,-1,-1,14,16,18,20,22,24,26,28,30,32,34,36,38,40,42,44,-1,-1,-1,-1,46,48,50,52,54,56,58,60,-1,-1,-1,-1,-1,-1,-1,-1,-1,-1,-1,-1,-1,-1,-1,-1,-1,-1,-1,-1,-1,-1,-1,-1],"split_conditions":[-1.3083215E0,1.6362566E-1,-1.3761479E-1,1.0625236E-1,1.1697781E-2,5.536438E-1,4.208755E-2,2.7327277E-3,-5.1884656E-4,-3.418819E-1,1.1522889E-1,1.698649E-1,3.7197655E-1,-3.2963386E-1,8.355974E-2,-8.768084E-2,6.347384E-2,-1.8154085E-1,-3.0660063E-1,2.7303994E-1,7.4638054E-5,-1.08147874E-1,-6.007532E-1,1.3720559E-1,1.3625596E-1,2.6797312E-3,1.144776E-2,3.368896E-3,-1.8152595E-3,-6.493985E-2,-5.005214E-1,8.964947E-2,4.6168533E-1,4.3174222E-2,4.5787547E-2,1.9447042E-2,1.9394545E-2,-3.1616765E-3,-1.2978806E-2,5.10189E-3,-2.189006E-3,1.5050386E-3,-3.1179886E-3,7.1637095E-3,1.6070942E-3,1.9955944E-2,1.5784899E-3,-1.3292355E-2,-1.4844578E-3,-3.7770877E-3,-2.2400055E-2,-4.5374967E-3,2.4113408E-3,1.5616323E-3,-2.158006E-3,5.97914E-3,-1.5285612E-3,-4.000944E-3,5.711585E-3,-2.411442E-3,-1.2347079E-2],"split_indices":[25,2,2,0,0,40,2,0,0,16,58,40,11,51,5,0,19,29,30,1,34,0,11,36,5,0,0,0,0,15,20,13,47,42,30,15,58,0,0,0,0,0,0,0,0,0,0,0,0,0,0,0,0,0,0,0,0,0,0,0,0],"split_type":[0,0,0,0,0,0,0,0,0,0,0,0,0,0,0,0,0,0,0,0,0,0,0,0,0,0,0,0,0,0,0,0,0,0,0,0,0,0,0,0,0,0,0,0,0,0,0,0,0,0,0,0,0,0,0,0,0,0,0,0,0],"sum_hessian":[6.57E2,5E0,6.52E2,3E0,2E0,2.29E2,4.23E2,2E0,1E0,2.14E2,1.5E1,1.19E2,3.04E2,3.9E1,1.75E2,9E0,6E0,7.3E1,4.6E1,2.6E2,4.4E1,6E0,3.3E1,1.02E2,7.3E1,2E0,7E0,4E0,2E0,2.1E1,5.2E1,9E0,3.7E1,1.99E2,6.1E1,2.3E1,2.1E1,1E0,5E0,5E0,2.8E1,6.5E1,3.7E1,1.8E1,5.5E1,3E0,1.8E1,4E0,4.8E1,5E0,4E0,3.2E1,5E0,1.06E2,9.3E1,4.2E1,1.9E1,1.1E1,1.2E1,1E1,1.1E1],"tree_param":{"num_deleted":"0","num_feature":"60","num_nodes":"61","size_leaf_vector":"0"}},{"base_weights":[-6.001223E-5,5.8835816E-5,-3.907159E-2,4.1189813E-3,-1.0485904E-3,7.269639E-3,-1.1543376E-2,-2.5834853E-3,4.5888047E-3,-1.1249501E-2,1.0937449E-2,-4.0050156E-2,1.8389139E-4,-1.2581978E-2,-3.9699755E-4,-8.3441045E-3,8.642919E-3,-2.1380672E-2,6.619838E-3,1.5313749E-2,-6.0466067E-3,-5.6336187E-2,4.4328472E-4,-5.781752E-3,2.2509081E-2,-2.1530036E-3,-2.1132058E-2,4.389429E-3,-4.958492E-3,-1.389358E-3,-2.8016329E-2,1.0742203E-2,-1.62837E-2,-2.4877101E-2,-1.4335433E-3,1.440963E-2,-4.7723614E-3,4.3657582E-2,1.2808658E-2,1.4402752E-3,-2.5003858E-2,-1.0689333E-2,1.135426E-2,-8.345736E-3,7.2560958E-3,2.0421548E-2,-9.884464E-3,-6.6246483E-3,-3.2700635E-2,2.10668E-2,1.9268303E-3,1.1433289E-2,-7.5654997E-3,-7.909419E-3,1.019442E-2,-6.03159E-3,-3.5603907E-2,2.373239E-2,6.519977E-3,-4.4666184E-3,-2.4029857E-2],"categories":[],"categories_nodes":[],"categories_segments":[],"categories_sizes":[],"default_left":[1,1,0,1,1,1,1,1,1,1,1,1,1,1,1,1,1,1,1,1,1,0,1,1,0,1,1,1,1,1,1,1,1,0,0,0,0,0,0,0,0,0,0,0,0,0,0,0,0,0,0,0,0,0,0,0,0,0,0,0,0],"id":44,"left_children":[1,3,-1,5,7,9,11,13,15,17,19,21,23,25,27,29,31,33,35,37,39,-1,41,43,-1,45,47,49,51,53,55,57,59,-1,-1,-1,-1,-1,-1,-1,-1,-1,-1,-1,-1,-1,-1,-1,-1,-1,-1,-1,-1,-1,-1,-1,-1,-1,-1,-1,-1],"loss_changes":[3.0530829E-3,2.958396E-3,0E0,7.0418054E-3,4.485358E-3,8.138154E-3,8.030725E-3,8.892669E-3,5.892013E-3,3.7622831E-3,7.4510006E-3,4.641315E-3,2.5274563E-3,6.463806E-3,7.335906E-3,3.6550895E-3,4.6228063E-3,8.710064E-4,7.787109E-4,5.0501134E-3,3.016557E-3,0E0,4.8577265E-4,5.619899E-4,0E0,6.13602E-3,6.496573E-3,6.6948337E-3,7.436662E-3,1.6666978E-3,9.529283E-4,4.1782185E-3,5.3342653E-4,0E0,0E0,0E0,0E0,0E0,0E0,0E0,0E0,0E0,0E0,0E0,0E0,0E0,0E0,0E0,0E0,0E0,0E0,0E0,0E0,0E0,0E0,0E0,0E0,0E0,0E0,0E0,0E0],"parents":[2147483647,0,0,1,1,3,3,4,4,5,5,6,6,7,7,8,8,9,9,10,10,11,11,12,12,13,13,14,14,15,15,16,16,17,17,18,18,19,19,20,20,22,22,23,23,25,25,26,26,27,27,28,28,29,29,30,30,31,31,32,32],"right_children":[2,4,-1,6,8,10,12,14,16,18,20,22,24,26,28,30,32,34,36,38,40,-1,42,44,-1,46,48,50,52,54,56,58,60,-1,-1,-1,-1,-1,-1,-1,-1,-1,-1,-1,-1,-1,-1,-1,-1,-1,-1,-1,-1,-1,-1,-1,-1,-1,-1,-1,-1],"split_conditions":[1.7033888E0,-2.7322453E-1,-1.1721478E-2,3.6756277E-1,2.8593275E-1,-2.7447796E-1,-8.663865E-2,-3.1092715E-1,-2.5316566E-1,-4.0887073E-1,3.0611864E-1,2.2196874E-1,3.2546413E-1,2.099958E-2,-4.167535E-2,1.6808018E-1,7.3899007E-1,3.5654047E-1,-9.012034E-2,-6.729809E-1,3.0236927E-1,-1.6900856E-2,-5.3803563E-1,7.3652947E-1,6.7527248E-3,-2.3139589E-1,-8.782868E-2,-3.404984E-1,-3.5402662E-1,1.7121693E-1,6.887052E-2,-3.2880765E-1,-6.9508806E-2,-7.4631306E-3,-4.30063E-4,4.3228893E-3,-1.4317085E-3,1.3097275E-2,3.8425976E-3,4.320826E-4,-7.5011575E-3,-3.2068E-3,3.406278E-3,-2.503721E-3,2.176829E-3,6.126465E-3,-2.9653392E-3,-1.9873946E-3,-9.810191E-3,6.32004E-3,5.780491E-4,3.429987E-3,-2.26965E-3,-2.3728258E-3,3.0583262E-3,-1.8094771E-3,-1.0681173E-2,7.1197175E-3,1.9559932E-3,-1.3399855E-3,-7.2089573E-3],"split_indices":[48,51,0,35,41,58,53,55,5,51,41,2,0,19,5,57,9,26,30,37,19,0,0,36,0,27,14,23,53,30,7,55,1,0,0,0,0,0,0,0,0,0,0,0,0,0,0,0,0,0,0,0,0,0,0,0,0,0,0,0,0],"split_type":[0,0,0,0,0,0,0,0,0,0,0,0,0,0,0,0,0,0,0,0,0,0,0,0,0,0,0,0,0,0,0,0,0,0,0,0,0,0,0,0,0,0,0,0,0,0,0,0,0,0,0,0,0,0,0,0,0,0,0,0,0],"sum_hessian":[6.57E2,6.56E2,1E0,1.4E2,5.16E2,1.17E2,2.3E1,4.06E2,1.1E2,1.9E1,9.8E1,6E0,1.7E1,7.2E1,3.34E2,2.6E1,8.4E1,1.2E1,7E0,7.8E1,2E1,4E0,2E0,1.4E1,3E0,3.3E1,3.9E1,1.63E2,1.71E2,2E1,6E0,7.8E1,6E0,1E1,2E0,4E0,3E0,5E0,7.3E1,1.5E1,5E0,1E0,1E0,1.2E1,2E0,8E0,2.5E1,1.8E1,2.1E1,2E1,1.43E2,2.3E1,1.48E2,1.3E1,7E0,2E0,4E0,1.8E1,6E1,3E0,3E0],"tree_param":{"num_deleted":"0","num_feature":"60","num_nodes":"61","size_leaf_vector":"0"}},{"base_weights":[-8.6057335E-5,-1.4521683E-2,2.0457608E-4,-2.0190252E-3,-5.5524196E-2,1.2587485E-3,-4.6227523E-3,-1.6186273E-2,1.24847265E-2,-1.1908059E-3,3.9960635E-3,-1.0255701E-2,5.54615E-3,3.9010039E-3,1.9768113E-2,-7.5892145E-3,2.4976125E-3,2.1296214E-2,2.4060234E-3,-2.0646095E-2,-1.1357137E-3,1.4514555E-2,-2.4936008E-3,9.6013397E-4,4.561249E-3,2.320328E-2,-9.067732E-3,6.584545E-3,-4.113216E-3,2.2835315E-3,2.563546E-2,4.176518E-4,1.3528972E-2,-1.3372567E-2,-4.017267E-2,6.6010826E-3,-1.1388347E-2,2.6416086E-2,4.378861E-3,2.1981198E-2,-7.2638807E-3,6.0094446E-3,3.266269E-2,-1.3708503E-2,-5.655927E-4,-1.6215853E-2,9.512027E-3,-1.7270846E-2,4.244208E-3,-4.8082173E-3,8.614103E-3,2.9640358E-2,1.0095635E-2,-3.9122775E-3,6.5378244E-3,3.3352282E-2,8.277519E-3,-2.2854531E-2,3.8443215E-4,-1.742823E-2,-4.864018E-2,1.5495153E-2,-2.1166045E-3,-1.801223E-2,9.436196E-3,2.5018193E-3,3.795625E-2,-3.068603E-3,1.2337759E-2,-1.1161438E-2,3.6906612E-3],"categories":[],"categories_nodes":[],"categories_segments":[],"categories_sizes":[],"default_left":[1,1,1,1,0,1,1,0,1,1,1,1,1,1,0,1,1,1,1,1,1,1,1,0,0,1,1,1,1,1,1,1,1,1,1,1,1,1,1,0,1,0,0,0,0,0,0,0,0,0,0,0,0,0,0,0,0,0,0,0,0,0,0,0,0,0,0,0,0,0,0],"id":45,"left_children":[1,3,5,7,-1,9,11,-1,13,15,17,19,21,23,-1,25,27,29,31,33,35,37,39,-1,-1,41,43,45,47,49,51,53,55,57,59,61,63,65,67,-1,69,-1,-1,-1,-1,-1,-1,-1,-1,-1,-1,-1,-1,-1,-1,-1,-1,-1,-1,-1,-1,-1,-1,-1,-1,-1,-1,-1,-1,-1,-1],"loss_changes":[2.763593E-3,6.5522213E-3,3.2932071E-3,2.4623417E-3,0E0,3.5652204E-3,6.701464E-3,0E0,2.9799604E-4,6.6505573E-3,6.8532513E-3,7.0835715E-3,3.0645505E-3,3.387373E-6,0E0,4.899708E-3,4.8633073E-3,1.673975E-3,5.1032742E-3,4.433736E-3,3.3273993E-3,2.296933E-3,2.8449565E-3,0E0,0E0,6.16933E-4,3.8984371E-3,7.5632446E-3,7.66081E-3,2.658926E-4,7.5876433E-4,5.2460604E-3,3.3674673E-3,3.530757E-3,8.855872E-4,1.8936545E-3,2.6528754E-3,2.3888117E-3,7.49143E-4,0E0,8.951123E-4,0E0,0E0,0E0,0E0,0E0,0E0,0E0,0E0,0E0,0E0,0E0,0E0,0E0,0E0,0E0,0E0,0E0,0E0,0E0,0E0,0E0,0E0,0E0,0E0,0E0,0E0,0E0,0E0,0E0,0E0],"parents":[2147483647,0,0,1,1,2,2,3,3,5,5,6,6,8,8,9,9,10,10,11,11,12,12,13,13,15,15,16,16,17,17,18,18,19,19,20,20,21,21,22,22,25,25,26,26,27,27,28,28,29,29,30,30,31,31,32,32,33,33,34,34,35,35,36,36,37,37,38,38,40,40],"right_children":[2,4,6,8,-1,10,12,-1,14,16,18,20,22,24,-1,26,28,30,32,34,36,38,40,-1,-1,42,44,46,48,50,52,54,56,58,60,62,64,66,68,-1,70,-1,-1,-1,-1,-1,-1,-1,-1,-1,-1,-1,-1,-1,-1,-1,-1,-1,-1,-1,-1,-1,-1,-1,-1,-1,-1,-1,-1,-1,-1],"split_conditions":[-1.2054915E0,4.4653524E-2,3.3677134E-1,-2.2737607E-2,-1.665726E-2,4.2698555E-2,1.9449015E-1,-4.855882E-3,-1.3028435E-1,-4.4405684E-2,6.564736E-2,-8.375223E-2,-1.0877952E-1,-6.2259036E-1,5.9304344E-3,-8.0568135E-1,1.2717256E-1,-3.5650158E-1,4.175247E-1,1.5374207E-1,-4.49332E-2,2.9271655E-4,2.6757103E-1,2.880402E-4,1.3683748E-3,1.5964869E-1,8.480205E-2,-4.3448132E-1,-1.3420042E-1,-2.0619467E-1,3.9953884E-1,1.2547106E-1,-2.126852E-1,4.4023424E-2,-1.7884335E-1,-2.1061499E-2,3.8512254E-1,-4.815095E-1,-1.1500471E-1,6.59436E-3,3.2471377E-1,1.8028334E-3,9.798807E-3,-4.112551E-3,-1.6967782E-4,-4.864756E-3,2.8536082E-3,-5.181254E-3,1.2732624E-3,-1.4424652E-3,2.584231E-3,8.892108E-3,3.0286908E-3,-1.1736833E-3,1.9613474E-3,1.0005685E-2,2.4832557E-3,-6.8563595E-3,1.1532965E-4,-5.228469E-3,-1.4592054E-2,4.648546E-3,-6.349814E-4,-5.403669E-3,2.8308588E-3,7.505458E-4,1.1386875E-2,-9.20581E-4,3.7013278E-3,-3.3484315E-3,1.1071984E-3],"split_indices":[19,39,44,22,0,0,45,0,7,58,0,30,57,0,0,27,11,16,28,38,18,41,45,0,0,2,48,12,36,1,24,49,51,18,9,53,14,0,42,0,56,0,0,0,0,0,0,0,0,0,0,0,0,0,0,0,0,0,0,0,0,0,0,0,0,0,0,0,0,0,0],"split_type":[0,0,0,0,0,0,0,0,0,0,0,0,0,0,0,0,0,0,0,0,0,0,0,0,0,0,0,0,0,0,0,0,0,0,0,0,0,0,0,0,0,0,0,0,0,0,0,0,0,0,0,0,0,0,0,0,0,0,0,0,0,0,0,0,0,0,0,0,0,0,0],"sum_hessian":[6.57E2,1.2E1,6.45E2,1E1,2E0,5.3E2,1.15E2,5E0,5E0,2.8E2,2.5E2,7.4E1,4.1E1,3E0,2E0,1.02E2,1.78E2,2E1,2.3E2,3.4E1,4E1,1.9E1,2.2E1,1E0,2E0,4E0,9.8E1,1.1E2,6.8E1,4E0,1.6E1,1.96E2,3.4E1,2.6E1,8E0,2.3E1,1.7E1,8E0,1.1E1,3E0,1.9E1,2E0,2E0,6.3E1,3.5E1,1.2E1,9.8E1,2.6E1,4.2E1,2E0,2E0,1.2E1,4E0,1.15E2,8.1E1,6E0,2.8E1,1.5E1,1.1E1,3E0,5E0,1.1E1,1.2E1,1.3E1,4E0,3E0,5E0,6E0,5E0,1.4E1,5E0],"tree_param":{"num_deleted":"0","num_feature":"60","num_nodes":"71","size_leaf_vector":"0"}},{"base_weights":[-4.813857E-5,-6.549132E-4,6.1232666E-3,-9.991927E-3,-9.386662E-5,-3.3587426E-2,7.387027E-3,2.5339007E-2,-1.2991955E-2,7.829983E-3,-7.26391E-4,1.6754622E-2,2.7527444E-3,-1.5587288E-2,9.072199E-3,1.1957985E-2,-2.5108835E-2,2.2254835E-3,-2.8559265E-3,2.0324916E-2,2.6928105E-3,2.6423723E-2,8.115423E-4,-2.9511985E-3,-1.8755347E-2,1.1331042E-3,1.6444743E-2,1.7203415E-2,2.7680998E-3,-5.420968E-3,-2.867556E-2,-1.6232303E-3,7.5400923E-3,-2.408125E-4,-8.751282E-3,9.614289E-3,2.3345664E-2,7.807851E-3,-5.3791236E-4,1.1236319E-2,-3.3128895E-3,4.0994436E-3,-6.591344E-3,-1.3100753E-3,-2.0354416E-2,3.5987794E-3,-1.8991232E-3,1.976461E-2,-7.3131523E-3,8.323762E-3,-6.9526867E-3,3.4440257E-2,-2.75522E-3,1.3795793E-2,-3.2206636E-3,6.391884E-3,-3.4633677E-3,-3.4179576E-2,-6.62913E-3,2.431035E-3,1.08023435E-2,2.5784224E-4,-8.891113E-4,1.5962074E-3,1.320121E-2,6.347191E-4,-9.471441E-3],"categories":[],"categories_nodes":[],"categories_segments":[],"categories_sizes":[],"default_left":[1,1,1,1,1,0,1,0,1,1,1,1,1,1,1,1,1,1,1,1,1,0,1,1,1,1,0,1,1,0,0,1,1,1,1,1,0,0,1,1,1,0,0,0,0,0,0,0,0,0,0,0,0,0,0,0,0,0,0,0,0,0,0,0,0,0,0],"id":46,"left_children":[1,3,5,7,9,-1,11,-1,13,15,17,19,21,23,25,27,29,31,33,35,37,-1,39,41,43,45,-1,47,49,-1,-1,51,53,55,57,59,-1,-1,61,63,65,-1,-1,-1,-1,-1,-1,-1,-1,-1,-1,-1,-1,-1,-1,-1,-1,-1,-1,-1,-1,-1,-1,-1,-1,-1,-1],"loss_changes":[2.467991E-3,3.1421618E-3,3.209015E-3,3.932991E-3,2.8475071E-3,0E0,2.4717792E-3,0E0,1.973854E-3,6.011055E-3,3.312856E-3,8.991603E-4,1.8165619E-3,1.1055735E-3,2.1549169E-4,1.7841649E-3,1.9565667E-4,4.5326636E-3,4.7155023E-3,2.6085926E-4,8.682633E-5,0E0,1.6710834E-3,2.0667838E-4,6.149467E-4,2.9263989E-5,0E0,1.6515423E-3,8.679536E-4,0E0,0E0,5.361121E-3,6.304826E-3,4.5748483E-3,4.8459126E-3,1.6409584E-5,0E0,0E0,1.3471231E-6,1.8728757E-4,6.8673515E-4,0E0,0E0,0E0,0E0,0E0,0E0,0E0,0E0,0E0,0E0,0E0,0E0,0E0,0E0,0E0,0E0,0E0,0E0,0E0,0E0,0E0,0E0,0E0,0E0,0E0,0E0],"parents":[2147483647,0,0,1,1,2,2,3,3,4,4,6,6,8,8,9,9,10,10,11,11,12,12,13,13,14,14,15,15,16,16,17,17,18,18,19,19,20,20,22,22,23,23,24,24,25,25,27,27,28,28,31,31,32,32,33,33,34,34,35,35,38,38,39,39,40,40],"right_children":[2,4,6,8,10,-1,12,-1,14,16,18,20,22,24,26,28,30,32,34,36,38,-1,40,42,44,46,-1,48,50,-1,-1,52,54,56,58,60,-1,-1,62,64,66,-1,-1,-1,-1,-1,-1,-1,-1,-1,-1,-1,-1,-1,-1,-1,-1,-1,-1,-1,-1,-1,-1,-1,-1,-1,-1],"split_conditions":[5.1995564E-1,-6.134537E-1,-6.932263E-1,-6.9867885E-1,-4.071704E-1,-1.00762285E-2,-6.8348765E-2,7.6017026E-3,3.8159686E-1,4.536392E-1,-4.6405964E-2,3.8246816E-1,-7.6215625E-1,-1.7136285E-1,4.3843403E-1,8.967054E-2,-1.4541486E-1,9.51277E-2,1.6813791E-1,2.1141648E-2,-2.6398492E-1,7.927117E-3,5.8698404E-1,-2.5282657E-1,-4.2077094E-1,3.9820355E-1,4.933423E-3,5.808943E-1,1.5388301E-1,-1.6262905E-3,-8.6026685E-3,-8.96308E-1,3.949808E-1,-1.253396E-1,-4.7448206E-1,-1.9181585E-1,7.0036994E-3,2.3423554E-3,2.1749665E-1,-2.1297568E-1,-4.384143E-2,1.2298331E-3,-1.9774032E-3,-3.930226E-4,-6.106325E-3,1.0796338E-3,-5.69737E-4,5.929383E-3,-2.1939457E-3,2.4971287E-3,-2.085806E-3,1.0332078E-2,-8.265661E-4,4.138738E-3,-9.6619915E-4,1.9175652E-3,-1.0390104E-3,-1.0253873E-2,-1.988739E-3,7.2931056E-4,3.2407031E-3,7.735268E-5,-2.667334E-4,4.7886223E-4,3.960363E-3,1.9041574E-4,-2.8414323E-3],"split_indices":[6,59,13,15,59,0,26,0,5,26,39,9,55,25,1,10,2,16,30,54,0,0,6,1,33,0,0,42,18,0,0,30,16,44,20,0,0,0,0,11,8,0,0,0,0,0,0,0,0,0,0,0,0,0,0,0,0,0,0,0,0,0,0,0,0,0,0],"split_type":[0,0,0,0,0,0,0,0,0,0,0,0,0,0,0,0,0,0,0,0,0,0,0,0,0,0,0,0,0,0,0,0,0,0,0,0,0,0,0,0,0,0,0,0,0,0,0,0,0,0,0,0,0,0,0,0,0,0,0,0,0,0,0,0,0,0,0],"sum_hessian":[6.57E2,5.99E2,5.8E1,3.3E1,5.66E2,1E0,5.7E1,2E0,3.1E1,4.1E1,5.25E2,1.8E1,3.9E1,2.8E1,3E0,3.7E1,4E0,2.2E2,3.05E2,1.4E1,4E0,2E0,3.7E1,6E0,2.2E1,2E0,1E0,2.3E1,1.4E1,1E0,3E0,1.28E2,9.2E1,2.12E2,9.3E1,4E0,1E1,1E0,3E0,1E1,2.7E1,2E0,4E0,2E0,2E1,1E0,1E0,2.1E1,2E0,9E0,5E0,3E0,1.25E2,5.8E1,3.4E1,6.9E1,1.43E2,6E0,8.7E1,1E0,3E0,1E0,2E0,2E0,8E0,1.7E1,1E1],"tree_param":{"num_deleted":"0","num_feature":"60","num_nodes":"67","size_leaf_vector":"0"}},{"base_weights":[-1.27303265E-5,8.509173E-5,-3.214091E-2,2.4511248E-3,-1.0873635E-3,4.1616894E-3,-1.5683826E-2,-4.3838054E-2,-8.901226E-4,2.172173E-3,1.6828882E-2,-6.574515E-3,-3.4324914E-2,-1.9101717E-2,-5.077689E-4,-7.4676424E-3,4.3141446E-3,-3.758423E-3,2.167865E-2,-1.4076135E-2,2.937982E-3,-4.413595E-2,-9.801894E-3,-8.477248E-3,-3.0262988E-2,-4.4018943E-3,1.2073389E-3,-2.0229358E-3,-2.6624033E-2,1.8650126E-3,1.5263507E-2,-8.753218E-3,4.154111E-3,2.426348E-3,2.7198367E-2,-1.6189924E-2,3.6019087E-4,8.185659E-3,6.990929E-4,-1.00577595E-2,-2.8734654E-4,-2.970041E-3,-4.0176965E-2,-2.5643475E-4,9.507755E-3],"categories":[],"categories_nodes":[],"categories_segments":[],"categories_sizes":[],"default_left":[1,1,0,1,1,1,1,0,1,1,1,1,1,1,1,1,1,1,1,1,1,0,0,1,0,1,1,0,0,0,0,0,0,0,0,0,0,0,0,0,0,0,0,0,0],"id":47,"left_children":[1,3,-1,5,7,9,11,-1,13,15,17,19,21,23,25,27,29,31,33,35,37,-1,-1,39,-1,41,43,-1,-1,-1,-1,-1,-1,-1,-1,-1,-1,-1,-1,-1,-1,-1,-1,-1,-1],"loss_changes":[2.0707266E-3,1.8252278E-3,0E0,6.82785E-3,3.6711395E-3,5.003762E-3,3.0006724E-3,0E0,3.0471766E-3,3.6250048E-3,2.777257E-3,1.0403835E-3,1.0109618E-3,8.106965E-4,2.8838967E-3,3.283771E-3,3.8062837E-3,2.7349076E-4,2.271887E-3,2.4995417E-4,7.652023E-5,0E0,0E0,7.477534E-5,0E0,6.6423276E-3,3.6474173E-3,0E0,0E0,0E0,0E0,0E0,0E0,0E0,0E0,0E0,0E0,0E0,0E0,0E0,0E0,0E0,0E0,0E0,0E0],"parents":[2147483647,0,0,1,1,3,3,4,4,5,5,6,6,8,8,9,9,10,10,11,11,12,12,13,13,14,14,15,15,16,16,17,17,18,18,19,19,20,20,23,23,25,25,26,26],"right_children":[2,4,-1,6,8,10,12,-1,14,16,18,20,22,24,26,28,30,32,34,36,38,-1,-1,40,-1,42,44,-1,-1,-1,-1,-1,-1,-1,-1,-1,-1,-1,-1,-1,-1,-1,-1,-1,-1],"split_conditions":[1.7033888E0,-1.4054906E-1,-9.642273E-3,4.6385592E-1,-1.5087029E0,-1.8285723E-1,-4.2937636E-2,-1.3151417E-2,-1.3616528E-1,-3.8151821E-1,-2.4859379E-1,4.3709762E-2,3.159303E-1,3.9241076E-1,-1.667366E-1,3.6833358E-1,3.6833358E-1,-1.0940002E-1,-1.9626918E-1,4.264549E-1,-5.6071514E-1,-1.3240785E-2,-2.9405684E-3,4.020389E-1,-9.078897E-3,-1.6810316E-1,3.7037045E-1,-6.0688076E-4,-7.9872105E-3,5.595038E-4,4.5790523E-3,-2.6259655E-3,1.2462332E-3,7.279044E-4,8.159511E-3,-4.856977E-3,1.0805726E-4,2.4556976E-3,2.0972789E-4,-3.017328E-3,-8.620397E-5,-8.910123E-4,-1.205309E-2,-7.693043E-5,2.8523265E-3],"split_indices":[48,21,0,39,58,21,8,0,21,34,19,47,2,33,26,51,38,3,29,2,1,0,0,4,0,26,13,0,0,0,0,0,0,0,0,0,0,0,0,0,0,0,0,0,0],"split_type":[0,0,0,0,0,0,0,0,0,0,0,0,0,0,0,0,0,0,0,0,0,0,0,0,0,0,0,0,0,0,0,0,0,0,0,0,0,0,0,0,0,0,0,0,0],"sum_hessian":[6.57E2,6.56E2,1E0,2.17E2,4.39E2,1.99E2,1.8E1,1E0,4.38E2,1.73E2,2.6E1,1.3E1,5E0,8E0,4.3E2,3.1E1,1.42E2,5E0,2.1E1,7E0,6E0,3E0,2E0,5E0,3E0,1.31E2,2.99E2,2.5E1,6E0,1.17E2,2.5E1,3E0,2E0,5E0,1.6E1,6E0,1E0,1E0,5E0,4E0,1E0,1.27E2,4E0,2.55E2,4.4E1],"tree_param":{"num_deleted":"0","num_feature":"60","num_nodes":"45","size_leaf_vector":"0"}},{"base_weights":[-9.912105E-5,1.4362534E-3,-1.8808373E-3,7.7714486E-4,1.6280297E-2,-1.535228E-2,-6.75617E-4,-2.8165984E-3,4.430084E-3,-5.5496613E-3,2.7750243E-2,-1.941135E-2,4.7662677E-3,1.1560271E-2,-1.759593E-3,1.8396787E-2,-3.6941713E-3,-5.263861E-3,8.207783E-3,-8.083993E-3,-3.2066554E-4,4.8500052E-4,3.4505926E-2,-2.3945127E-2,-4.0860497E-3,1.2005101E-2,-4.0613213E-3,-6.0539977E-3,1.558717E-2,-3.652392E-3,4.5790626E-3,1.9984333E-2,4.4357553E-3,7.455562E-3,-5.4493775E-3,7.420013E-3,-1.0187014E-2,-2.4613237E-3,1.0579599E-2,-7.904507E-4,3.094524E-4,-2.9052123E-3,3.632713E-3,7.549621E-3,3.7278313E-2,-2.6352772E-2,-4.727736E-3,-7.3925033E-3,1.6845713E-3,-9.3874335E-4,-5.153239E-3,-1.6344587E-4,-9.92655E-3,2.067136E-2,3.9183623E-3,1.1381324E-3,-6.9910455E-3,1.4536477E-2,9.3689177E-4,1.3143518E-3,2.4636596E-2,3.3755417E-3,-8.000921E-3,1.7531296E-2,-2.3548615E-3,-1.7947206E-2,1.3563894E-3,-6.7591695E-3,8.327919E-3,2.2216707E-2,7.754177E-3,-1.5596524E-2,-3.0595519E-2,-5.797073E-4,-6.511897E-3,-8.6037815E-4,6.1520934E-4,2.2366274E-2,1.6619265E-4,-5.3026625E-3,8.667305E-3,-2.7526348E-4,2.324216E-2,-1.4113871E-2,-5.4867595E-4,-1.8337717E-3,2.2144206E-2,5.0810706E-3,-6.187701E-3],"categories":[],"categories_nodes":[],"categories_segments":[],"categories_sizes":[],"default_left":[1,1,1,1,1,1,1,1,1,1,1,1,1,1,1,1,1,1,1,0,1,1,1,1,1,0,1,1,1,1,1,0,0,1,1,1,1,1,1,0,0,0,0,0,0,1,1,0,0,0,0,1,0,1,1,1,1,1,1,0,0,0,0,0,0,0,0,0,0,0,0,0,0,0,0,0,0,0,0,0,0,0,0,0,0,0,0,0,0],"id":48,"left_children":[1,3,5,7,9,11,13,15,17,19,21,23,25,27,29,31,33,35,37,-1,39,41,43,45,47,-1,49,51,53,55,57,-1,-1,59,61,63,65,67,69,-1,-1,-1,-1,-1,-1,71,73,-1,-1,-1,-1,75,-1,77,79,81,83,85,87,-1,-1,-1,-1,-1,-1,-1,-1,-1,-1,-1,-1,-1,-1,-1,-1,-1,-1,-1,-1,-1,-1,-1,-1,-1,-1,-1,-1,-1,-1],"loss_changes":[1.8027271E-3,3.4508258E-3,4.9416246E-3,4.475904E-3,3.909831E-3,2.1340847E-3,3.7473594E-3,3.2699632E-3,6.23212E-3,7.6919765E-5,1.8252186E-3,1.3612704E-3,3.682638E-4,1.725775E-3,3.1241546E-3,6.6500856E-5,3.2892616E-3,3.0729312E-3,3.1132698E-3,0E0,1.1326672E-6,4.2568052E-5,3.1642988E-4,6.1570946E-4,1.2693493E-4,0E0,5.3912227E-6,1.1243489E-4,1.0462045E-3,3.2067369E-3,2.1623771E-3,0E0,0E0,2.3944029E-3,3.26948E-3,1.4249953E-3,3.1596094E-3,1.1228112E-3,3.1157034E-3,0E0,0E0,0E0,0E0,0E0,0E0,1.6172044E-4,1.8427258E-5,0E0,0E0,0E0,0E0,2.1573223E-6,0E0,4.4809142E-4,3.5249064E-4,2.5994622E-3,5.4070246E-3,2.033254E-3,1.3600916E-3,0E0,0E0,0E0,0E0,0E0,0E0,0E0,0E0,0E0,0E0,0E0,0E0,0E0,0E0,0E0,0E0,0E0,0E0,0E0,0E0,0E0,0E0,0E0,0E0,0E0,0E0,0E0,0E0,0E0,0E0],"parents":[2147483647,0,0,1,1,2,2,3,3,4,4,5,5,6,6,7,7,8,8,9,9,10,10,11,11,12,12,13,13,14,14,15,15,16,16,17,17,18,18,20,20,21,21,22,22,23,23,24,24,26,26,27,27,28,28,29,29,30,30,33,33,34,34,35,35,36,36,37,37,38,38,45,45,46,46,51,51,53,53,54,54,55,55,56,56,57,57,58,58],"right_children":[2,4,6,8,10,12,14,16,18,20,22,24,26,28,30,32,34,36,38,-1,40,42,44,46,48,-1,50,52,54,56,58,-1,-1,60,62,64,66,68,70,-1,-1,-1,-1,-1,-1,72,74,-1,-1,-1,-1,76,-1,78,80,82,84,86,88,-1,-1,-1,-1,-1,-1,-1,-1,-1,-1,-1,-1,-1,-1,-1,-1,-1,-1,-1,-1,-1,-1,-1,-1,-1,-1,-1,-1,-1,-1],"split_conditions":[4.313167E-2,2.0815987E-2,-4.5986825E-1,2.0859407E-2,-2.1084988E-1,4.188482E-1,-4.2678106E-1,-7.321922E-1,-1.3493964E-1,-2.1061499E-2,-1.5001467E-1,3.061186E-1,-1.0356255E-1,-1.192253E0,3.2596186E-1,5.938711E-1,-4.1695732E-1,-1.5843612E-1,-3.3192667E-1,-2.425198E-3,-1.4882593E-1,-5.159071E-1,-4.1640642E-1,3.9891738E-1,9.074104E-2,3.6015303E-3,-8.146798E-2,-2.211411E-2,1.3231117E-1,-8.4954485E-2,-1.5624061E-1,5.9953E-3,1.3307267E-3,8.62541E-2,-2.7561846E-1,-1.3166642E-1,8.3699554E-2,1.5096205E-1,-3.5428882E-1,-2.3713523E-4,9.2835726E-5,-8.7156374E-4,1.089814E-3,2.2648864E-3,1.1183495E-2,-2.6329726E-1,2.509862E-1,-2.217751E-3,5.053714E-4,-2.81623E-4,-1.5459717E-3,-5.457985E-1,-2.9779652E-3,7.1587723E-1,-1.1401417E-1,6.046283E-1,4.237307E-2,-2.2644928E-2,1.7462108E-1,3.9430556E-4,7.390979E-3,1.0126625E-3,-2.4002765E-3,5.259389E-3,-7.0645846E-4,-5.384162E-3,4.0691684E-4,-2.027751E-3,2.4983757E-3,6.6650123E-3,2.326253E-3,-4.678957E-3,-9.178656E-3,-1.7391221E-4,-1.9535692E-3,-2.5811346E-4,1.8456281E-4,6.7098825E-3,4.9857797E-5,-1.5907988E-3,2.6001916E-3,-8.257905E-5,6.9726487E-3,-4.2341617E-3,-1.646028E-4,-5.5013155E-4,6.643262E-3,1.5243213E-3,-1.8563104E-3],"split_indices":[22,22,7,8,57,45,18,52,42,2,16,32,3,18,28,0,50,29,43,0,0,0,2,58,0,0,0,7,42,40,48,0,0,11,49,6,15,51,37,0,0,0,0,0,0,34,0,0,0,0,0,0,0,1,0,55,18,6,17,0,0,0,0,0,0,0,0,0,0,0,0,0,0,0,0,0,0,0,0,0,0,0,0,0,0,0,0,0,0],"split_type":[0,0,0,0,0,0,0,0,0,0,0,0,0,0,0,0,0,0,0,0,0,0,0,0,0,0,0,0,0,0,0,0,0,0,0,0,0,0,0,0,0,0,0,0,0,0,0,0,0,0,0,0,0,0,0,0,0,0,0,0,0,0,0,0,0,0,0,0,0,0,0,0,0,0,0,0,0,0,0,0,0,0,0,0,0,0,0,0,0],"sum_hessian":[6.57E2,3.53E2,3.04E2,3.39E2,1.4E1,2.4E1,2.8E2,1.71E2,1.68E2,5E0,9E0,2E1,4E0,2.2E1,2.58E2,6E0,1.65E2,4.7E1,1.21E2,3E0,2E0,2E0,7E0,1.5E1,5E0,2E0,2E0,4E0,1.8E1,1.99E2,5.9E1,5E0,1E0,2.2E1,1.43E2,1.3E1,3.4E1,2.2E1,9.9E1,1E0,1E0,1E0,1E0,1E0,6E0,1.3E1,2E0,3E0,2E0,1E0,1E0,2E0,2E0,1.2E1,6E0,8.2E1,1.17E2,1.5E1,4.4E1,1.7E1,5E0,3.2E1,1.11E2,6E0,7E0,2E1,1.4E1,1.6E1,6E0,1.8E1,8.1E1,5E0,8E0,1E0,1E0,1E0,1E0,1.1E1,1E0,2E0,4E0,7.8E1,4E0,5.5E1,6.2E1,5E0,1E1,2.8E1,1.6E1],"tree_param":{"num_deleted":"0","num_feature":"60","num_nodes":"89","size_leaf_vector":"0"}},{"base_weights":[-2.2416034E-5,4.7636507E-3,-5.730592E-4,3.2991343E-3,2.737113E-2,2.793595E-3,-1.4188495E-3,-2.0835917E-3,8.581886E-3,6.3415766E-3,3.2267123E-2,-3.830295E-3,5.7127555E-3,-3.5145283E-2,-1.2729348E-3,4.8734895E-3,-1.1873451E-2,1.2656201E-2,-7.1730674E-4,2.0021552E-3,-8.369408E-3,6.7395912E-3,-3.9243877E-2,-1.7932792E-3,6.7376113E-3,-4.320412E-3,9.1223335E-3,-1.6502133E-2,-2.4139583E-4,1.5586107E-2,3.7326855E-3,5.660009E-3,-9.502088E-3,-3.2465258E-3,5.1602107E-3,-1.44926E-2,-1.48536E-3,9.968727E-3,-3.1149818E-3,-3.95613E-3,6.5756333E-4,-5.708976E-3,1.0957388E-2,5.222559E-4,-8.082977E-3,3.2576653E-3,1.9027203E-2,-2.061742E-2,-5.174849E-3,2.7609803E-3,-6.12545E-3,1.9464094E-2,5.2324487E-3,1.7124905E-3,1.0352537E-2,-1.0953287E-2,-1.8486455E-3,-1.382639E-3,6.767804E-3,-7.764983E-4,-1.7454345E-2,-9.35702E-3,1.3035669E-3,1.4203106E-2,3.1337223E-3,9.6136555E-3,-5.7705133E-3,-6.895194E-3,1.1566939E-3,2.0549588E-2,-2.363958E-4,-1.0036612E-3,-8.331433E-3,2.3687383E-2,6.8125343E-3],"categories":[],"categories_nodes":[],"categories_segments":[],"categories_sizes":[],"default_left":[1,1,1,1,1,1,1,1,1,0,0,1,1,0,1,1,1,1,1,1,1,1,0,1,1,1,1,1,1,1,0,1,1,0,1,1,1,1,1,1,1,1,1,0,0,0,0,0,0,0,0,0,0,0,0,0,0,0,0,0,0,0,0,0,0,0,0,0,0,0,0,0,0,0,0],"id":49,"left_children":[1,3,5,7,9,11,13,15,17,-1,-1,19,21,-1,23,25,27,29,31,33,35,37,-1,39,41,43,45,47,49,51,-1,53,55,-1,57,59,61,63,65,67,69,71,73,-1,-1,-1,-1,-1,-1,-1,-1,-1,-1,-1,-1,-1,-1,-1,-1,-1,-1,-1,-1,-1,-1,-1,-1,-1,-1,-1,-1,-1,-1,-1,-1],"loss_changes":[1.7368329E-3,2.1611126E-3,1.6868262E-3,1.8661955E-3,2.0721764E-4,2.3228894E-3,2.2829808E-3,2.3054571E-3,1.259377E-3,0E0,0E0,9.963003E-4,4.096022E-3,0E0,1.9794926E-3,8.2068134E-4,7.497915E-4,5.4315827E-4,6.7003845E-4,2.9853842E-4,8.636726E-4,2.6404366E-3,0E0,2.3561597E-3,1.5856883E-3,1.3176736E-4,7.512586E-4,3.5945815E-4,1.05242965E-4,5.807285E-4,0E0,1.11938265E-4,3.5284582E-5,0E0,1.2505808E-4,4.3330644E-4,2.536858E-4,1.749895E-3,7.65303E-4,3.5543274E-3,3.721433E-3,9.035395E-5,9.994362E-4,0E0,0E0,0E0,0E0,0E0,0E0,0E0,0E0,0E0,0E0,0E0,0E0,0E0,0E0,0E0,0E0,0E0,0E0,0E0,0E0,0E0,0E0,0E0,0E0,0E0,0E0,0E0,0E0,0E0,0E0,0E0,0E0],"parents":[2147483647,0,0,1,1,2,2,3,3,4,4,5,5,6,6,7,7,8,8,11,11,12,12,14,14,15,15,16,16,17,17,18,18,19,19,20,20,21,21,23,23,24,24,25,25,26,26,27,27,28,28,29,29,31,31,32,32,34,34,35,35,36,36,37,37,38,38,39,39,40,40,41,41,42,42],"right_children":[2,4,6,8,10,12,14,16,18,-1,-1,20,22,-1,24,26,28,30,32,34,36,38,-1,40,42,44,46,48,50,52,-1,54,56,-1,58,60,62,64,66,68,70,72,74,-1,-1,-1,-1,-1,-1,-1,-1,-1,-1,-1,-1,-1,-1,-1,-1,-1,-1,-1,-1,-1,-1,-1,-1,-1,-1,-1,-1,-1,-1,-1,-1],"split_conditions":[-4.6111944E-1,6.7836714E-1,-2.7341193E-1,6.511208E-2,-4.63587E-1,-1.6810316E-1,-1.4883101E0,2.1008404E-2,1.092137E-1,1.902473E-3,9.680137E-3,-4.5745656E-2,9.814292E-1,-1.0543585E-2,5.903362E-1,4.7770485E-2,-5.621371E-1,3.7756628E-1,1.3871062E-1,-8.543399E-2,2.3148147E-2,3.586246E-1,-1.1773163E-2,4.579815E-2,-2.0185833E-1,2.0148152E-1,-1.5118635E-1,1.10220015E-1,1.1387864E-1,1.6414413E-1,1.1198057E-3,2.566896E-1,3.6179924E-1,-9.7395777E-4,-6.879076E-1,-1.1363957E0,-1.5593037E-1,1.10855326E-1,-2.2204788E-1,1.2547106E-1,8.368202E-2,2.3781794E-1,-2.5762814E-1,1.5667678E-4,-2.424893E-3,9.772996E-4,5.7081613E-3,-6.185226E-3,-1.5524548E-3,8.2829414E-4,-1.8376351E-3,5.8392286E-3,1.5697347E-3,5.1374716E-4,3.1057613E-3,-3.2859861E-3,-5.545937E-4,-4.1479172E-4,2.0303412E-3,-2.3294949E-4,-5.2363034E-3,-2.8071061E-3,3.9107006E-4,4.260932E-3,9.4011676E-4,2.8840967E-3,-1.731154E-3,-2.0685582E-3,3.4700817E-4,6.1648767E-3,-7.0918744E-5,-3.0109836E-4,-2.49943E-3,7.106215E-3,2.0437604E-3],"split_indices":[5,52,9,59,2,32,58,15,10,0,0,26,55,0,6,2,5,8,29,49,56,32,0,48,12,18,9,52,0,58,0,1,1,0,12,9,8,44,17,27,48,11,57,0,0,0,0,0,0,0,0,0,0,0,0,0,0,0,0,0,0,0,0,0,0,0,0,0,0,0,0,0,0,0,0],"split_type":[0,0,0,0,0,0,0,0,0,0,0,0,0,0,0,0,0,0,0,0,0,0,0,0,0,0,0,0,0,0,0,0,0,0,0,0,0,0,0,0,0,0,0,0,0,0,0,0,0,0,0,0,0,0,0,0,0,0,0,0,0,0,0,0,0,0,0,0,0,0,0,0,0,0,0],"sum_hessian":[6.57E2,6.7E1,5.9E2,6.4E1,3E0,1.18E2,4.72E2,3.2E1,3.2E1,1E0,2E0,3.6E1,8.2E1,1E0,4.71E2,1.9E1,1.3E1,2.2E1,1E1,1.6E1,2E1,8.1E1,1E0,4.43E2,2.8E1,6E0,1.3E1,9E0,4E0,1.6E1,6E0,6E0,4E0,6E0,1E1,1E1,1E1,6.1E1,2E1,2.35E2,2.08E2,7E0,2.1E1,3E0,3E0,9E0,4E0,6E0,3E0,3E0,1E0,1.1E1,5E0,4E0,2E0,3E0,1E0,2E0,8E0,2E0,8E0,2E0,8E0,3.7E1,2.4E1,3E0,1.7E1,1.49E2,8.6E1,8E0,2E2,3E0,4E0,4E0,1.7E1],"tree_param":{"num_deleted":"0","num_feature":"60","num_nodes":"75","size_leaf_vector":"0"}},{"base_weights":[-1.101557E-5,1.8095426E-2,-1.2157245E-4,2.0770293E-2,5.0354153E-3,-4.4794248E-5,-2.5167257E-2,4.5925478E-4,-3.8278531E-3,2.1072793E-4,1.814045E-2,-2.0232523E-2,-2.156578E-3,6.378332E-3,-3.8044248E-4,2.2200173E-2,3.9741895E-3,-7.3137432E-3,-2.3937287E-2,6.691794E-3,-5.518325E-3,1.705392E-2,1.3158257E-3,6.6096545E-3,-9.4290805E-4,1.8237531E-4,5.7789087E-3,-1.8874339E-3,1.3882747E-2,-1.42927775E-2,-3.0888654E-3],"categories":[],"categories_nodes":[],"categories_segments":[],"categories_sizes":[],"default_left":[1,1,1,0,0,1,0,1,1,1,1,1,1,1,1,0,1,0,0,1,1,0,0,0,0,0,0,0,0,0,0],"id":50,"left_children":[1,3,5,-1,-1,7,-1,9,11,13,15,17,19,21,23,-1,25,-1,-1,27,29,-1,-1,-1,-1,-1,-1,-1,-1,-1,-1],"loss_changes":[1.3193788E-3,3.5148114E-5,1.258413E-3,0E0,0E0,1.248836E-3,0E0,2.536055E-3,2.0674542E-3,2.0843525E-3,3.718608E-4,1.5995605E-4,2.1488927E-3,2.6798216E-3,2.058574E-3,0E0,1.9475556E-5,0E0,0E0,1.2600592E-3,1.0643449E-3,0E0,0E0,0E0,0E0,0E0,0E0,0E0,0E0,0E0,0E0],"parents":[2147483647,0,0,1,1,2,2,5,5,7,7,8,8,9,9,10,10,11,11,12,12,13,13,14,14,16,16,19,19,20,20],"right_children":[2,4,6,-1,-1,8,-1,10,12,14,16,18,20,22,24,-1,26,-1,-1,28,30,-1,-1,-1,-1,-1,-1,-1,-1,-1,-1],"split_conditions":[-1.4298277E0,9.186955E-2,1.7033888E0,6.231088E-3,1.5106247E-3,4.1981795E-1,-7.550177E-3,4.105847E-1,-3.8023633E-1,-4.762404E-1,3.3267516E-1,-2.0939821E-1,-2.6241434E-1,-1.8132903E-1,-5.499273E-1,6.660052E-3,3.37908E-1,-2.194123E-3,-7.181186E-3,-1.6320026E-1,-2.8430152E-1,5.1161763E-3,3.9474774E-4,1.9828964E-3,-2.8287244E-4,5.4712596E-5,1.7336727E-3,-5.662302E-4,4.1648243E-3,-4.2878333E-3,-9.266597E-4],"split_indices":[18,0,48,0,0,54,0,54,55,57,6,10,52,40,20,0,0,0,0,35,8,0,0,0,0,0,0,0,0,0,0],"split_type":[0,0,0,0,0,0,0,0,0,0,0,0,0,0,0,0,0,0,0,0,0,0,0,0,0,0,0,0,0,0,0],"sum_hessian":[6.57E2,3E0,6.54E2,2E0,1E0,6.53E2,1E0,5.77E2,7.6E1,5.7E2,7E0,6E0,7E1,4.9E1,5.21E2,5E0,2E0,2E0,4E0,1.9E1,5.1E1,1.5E1,3.4E1,3.8E1,4.83E2,1E0,1E0,9E0,1E1,1E1,4.1E1],"tree_param":{"num_deleted":"0","num_feature":"60","num_nodes":"31","size_leaf_vector":"0"}},{"base_weights":[-3.2200342E-7,-5.630467E-4,3.0373018E-3,6.6723004E-3,-1.0323368E-3,9.064803E-3,-4.7909733E-4,9.71726E-3,-9.157051E-3,-2.8696365E-3,1.1294396E-3,1.8005768E-2,9.694616E-4,-1.0004491E-2,2.046084E-3,2.014488E-3,1.7826337E-2,-1.13144275E-2,8.149147E-4,-2.2088238E-3,-1.900893E-2,-1.1926843E-2,2.0487807E-3,-5.7155006E-3,2.3131054E-2,-8.8995043E-4,1.907885E-2,-3.7263879E-3,-2.4768151E-2,-2.6771831E-3,9.370928E-3,4.5689484E-3,-4.519114E-3,-2.0818773E-4,2.276377E-2,1.8777412E-3,-4.9781483E-3,-5.293165E-2,3.2854686E-4,2.4537996E-3,-4.4055015E-2,2.5299366E-3,-1.9724298E-2,-8.636112E-3,1.5231669E-3,5.9735975E-3,3.1112423E-2,-3.923622E-3,5.304528E-3,-6.2805135E-4,-8.991464E-3,-4.5740167E-3,6.620904E-3,-2.688704E-3,1.3307607E-2,1.9677342E-3,7.817101E-3,-6.119158E-3,9.405315E-4,1.7957168E-3,-1.4747282E-3,2.8741367E-2,5.1176297E-3,3.8879032E-3,-7.462891E-3,-8.640048E-3,-1.0709265E-3,1.5488371E-2,-4.049767E-3,-7.735437E-3,1.8265817E-2,-6.02079E-4,5.6673763E-3,-3.3889015E-3,-2.9484928E-2,7.870123E-4,1.0897845E-2,1.2417436E-3,-6.1139422E-3,8.2084537E-4,-2.2821594E-3,7.373999E-4,-7.128761E-3,-5.912915E-3,1.031025E-2,-5.5789845E-3,2.0612378E-3,2.4742521E-3,1.5617285E-2],"categories":[],"categories_nodes":[],"categories_segments":[],"categories_sizes":[],"default_left":[1,1,1,1,1,1,1,1,1,1,1,1,1,1,1,1,1,0,0,1,1,1,1,1,1,1,0,1,0,1,1,1,1,1,1,1,1,0,1,1,0,1,1,0,0,1,0,1,0,1,0,1,1,1,1,0,0,0,0,0,0,0,0,0,0,0,0,0,0,0,0,0,0,0,0,0,0,0,0,0,0,0,0,0,0,0,0,0,0],"id":51,"left_children":[1,3,5,7,9,11,13,15,17,19,21,23,25,27,29,31,33,-1,-1,35,37,39,41,43,45,47,-1,49,-1,51,53,55,57,59,61,63,65,-1,67,69,-1,71,73,-1,-1,75,-1,77,-1,79,-1,81,83,85,87,-1,-1,-1,-1,-1,-1,-1,-1,-1,-1,-1,-1,-1,-1,-1,-1,-1,-1,-1,-1,-1,-1,-1,-1,-1,-1,-1,-1,-1,-1,-1,-1,-1,-1],"loss_changes":[1.1264597E-3,1.8947734E-3,2.1874383E-3,1.7277723E-3,2.0805087E-3,2.7329903E-3,1.6079908E-3,1.7754973E-3,1.383E-4,2.976222E-3,2.9172008E-3,2.3206146E-3,7.241083E-4,1.205333E-3,1.8587391E-3,2.8768482E-4,1.2513585E-3,0E0,0E0,3.0988953E-3,7.233168E-3,7.5004827E-3,2.4175327E-3,9.7719574E-5,1.868247E-3,3.966532E-4,0E0,1.7379565E-4,0E0,6.123026E-4,1.0327531E-3,8.600773E-5,4.9433627E-5,1.28002985E-5,1.0132096E-3,2.1131714E-3,2.3229276E-3,0E0,5.9372E-4,2.0746428E-3,0E0,2.1848972E-3,6.972974E-4,0E0,0E0,1.4466346E-4,0E0,1.6598523E-4,8.5715146E-7,2.1046353E-5,0E0,3.8519752E-4,3.3841326E-4,9.387161E-5,3.617038E-4,0E0,0E0,0E0,0E0,0E0,0E0,0E0,0E0,0E0,0E0,0E0,0E0,0E0,0E0,0E0,0E0,0E0,0E0,0E0,0E0,0E0,0E0,0E0,0E0,0E0,0E0,0E0,0E0,0E0,0E0,0E0,0E0,0E0,0E0],"parents":[2147483647,0,0,1,1,2,2,3,3,4,4,5,5,6,6,7,7,8,8,9,9,10,10,11,11,12,12,13,13,14,14,15,15,16,16,19,19,20,20,21,21,22,22,23,23,24,24,25,25,27,27,29,29,30,30,31,31,32,32,33,33,34,34,35,35,36,36,38,38,39,39,41,41,42,42,45,45,47,47,49,49,51,51,52,52,53,53,54,54],"right_children":[2,4,6,8,10,12,14,16,18,20,22,24,26,28,30,32,34,-1,-1,36,38,40,42,44,46,48,-1,50,-1,52,54,56,58,60,62,64,66,-1,68,70,-1,72,74,-1,-1,76,-1,78,-1,80,-1,82,84,86,88,-1,-1,-1,-1,-1,-1,-1,-1,-1,-1,-1,-1,-1,-1,-1,-1,-1,-1,-1,-1,-1,-1,-1,-1,-1,-1,-1,-1,-1,-1,-1,-1,-1,-1],"split_conditions":[3.7681675E-1,-6.12206E-1,-1.4035308E-1,4.897886E-1,8.3437644E-2,2.286237E-2,-1.9688962E-1,4.4253327E-2,4.8175943E-1,4.5464937E-2,-6.9479144E-1,-4.4091964E-1,4.4850105E-1,6.717423E-2,1.522969E-1,2.0008117E-1,-4.0268973E-1,-3.3943283E-3,2.4447442E-4,-1.2581547E-1,-6.297875E-2,1.905303E-1,9.233098E-1,3.2168105E-1,-4.4296578E-2,2.938707E-1,5.723655E-3,3.557036E-1,-7.430446E-3,3.1711853E-1,-3.5027665E-1,1.7748599E-1,1.3720092E-1,-1.6478053E-1,2.4920791E-1,3.258661E-1,9.1743425E-2,-1.5879497E-2,-5.339231E-1,2.779165E-1,-1.3216505E-2,2.1052632E-2,1.5141967E-1,-2.5908337E-3,4.5695007E-4,1.5744343E-3,9.333727E-3,-2.4062422E-1,1.5913585E-3,8.249764E-2,-2.6974394E-3,-2.2052549E-1,-7.659071E-1,2.726487E-1,-4.4090828E-1,5.9032027E-4,2.3451303E-3,-1.8357475E-3,2.8215945E-4,5.3871504E-4,-4.4241847E-4,8.622411E-3,1.535289E-3,1.166371E-3,-2.2388673E-3,-2.5920146E-3,-3.2127797E-4,4.6465117E-3,-1.2149301E-3,-2.3206312E-3,5.4797456E-3,-1.806237E-4,1.700213E-3,-1.0166705E-3,-8.845478E-3,2.3610369E-4,3.2693536E-3,3.725231E-4,-1.8341828E-3,2.4625362E-4,-6.846478E-4,2.2121998E-4,-2.1386284E-3,-1.7738745E-3,3.0930752E-3,-1.6736954E-3,6.1837136E-4,7.422757E-4,4.685186E-3],"split_indices":[34,36,21,22,32,44,26,24,2,32,10,8,1,31,37,51,32,0,0,56,3,37,55,2,51,43,0,19,0,21,51,12,0,0,35,38,30,0,2,26,0,2,2,0,0,2,0,52,0,0,0,23,1,0,54,0,0,0,0,0,0,0,0,0,0,0,0,0,0,0,0,0,0,0,0,0,0,0,0,0,0,0,0,0,0,0,0,0,0],"split_type":[0,0,0,0,0,0,0,0,0,0,0,0,0,0,0,0,0,0,0,0,0,0,0,0,0,0,0,0,0,0,0,0,0,0,0,0,0,0,0,0,0,0,0,0,0,0,0,0,0,0,0,0,0,0,0,0,0,0,0,0,0,0,0,0,0,0,0,0,0,0,0,0,0,0,0,0,0,0,0,0,0,0,0,0,0,0,0,0,0],"sum_hessian":[6.57E2,5.55E2,1.02E2,3.3E1,5.22E2,3.7E1,6.5E1,2.8E1,5E0,2.82E2,2.4E2,1.7E1,2E1,1.3E1,5.2E1,1.5E1,1.3E1,4E0,1E0,2.72E2,1E1,1.5E1,2.25E2,3E0,1.4E1,1.9E1,1E0,1E1,3E0,3.2E1,2E1,1.1E1,4E0,3E0,1E1,1.1E2,1.62E2,3E0,7E0,1.1E1,4E0,2.21E2,4E0,2E0,1E0,5E0,9E0,1.3E1,6E0,7E0,3E0,2.7E1,5E0,5E0,1.5E1,7E0,4E0,3E0,1E0,1E0,2E0,7E0,3E0,9.1E1,1.9E1,8.3E1,7.9E1,1E0,6E0,7E0,4E0,1.11E2,1.1E2,2E0,2E0,3E0,2E0,4E0,9E0,4E0,3E0,9E0,1.8E1,1E0,4E0,3E0,2E0,3E0,1.2E1],"tree_param":{"num_deleted":"0","num_feature":"60","num_nodes":"89","size_leaf_vector":"0"}},{"base_weights":[-2.5426034E-5,1.9633984E-2,-1.15293115E-4,2.4741098E-2,4.709879E-3,-4.7553785E-5,-2.2242278E-2,-9.843222E-4,1.6993793E-3,1.8068297E-3,-2.5494795E-3,5.3343335E-3,-1.2620353E-3,-1.4341044E-3,5.926748E-3,7.0318626E-3,-3.5823293E-3,-1.8332101E-2,6.2276474E-3,-1.9983314E-2,-3.309721E-4,-7.4364473E-3,3.3725381E-3,8.166742E-3,-5.207116E-3,-9.463659E-3,1.2195519E-2,-1.5065512E-3,-8.087146E-3,4.3669967E-3,1.3451901E-2,-2.3209546E-2,-1.9260794E-3,-2.6107593E-3,5.896659E-3],"categories":[],"categories_nodes":[],"categories_segments":[],"categories_sizes":[],"default_left":[1,1,1,0,0,1,0,1,1,1,1,1,1,1,1,1,1,0,1,1,1,0,0,0,0,0,0,0,0,0,0,0,0,0,0],"id":52,"left_children":[1,3,5,-1,-1,7,-1,9,11,13,15,17,19,21,23,25,27,-1,29,31,33,-1,-1,-1,-1,-1,-1,-1,-1,-1,-1,-1,-1,-1,-1],"loss_changes":[1.1647745E-3,1.12129725E-4,9.821991E-4,0E0,0E0,1.0735617E-3,0E0,1.8699951E-3,2.471827E-3,2.0647666E-3,2.7367184E-3,2.2917467E-3,2.207084E-3,2.535127E-3,1.7384302E-3,2.4151986E-3,2.3068641E-3,0E0,1.285437E-3,3.0483748E-4,1.7475111E-3,0E0,0E0,0E0,0E0,0E0,0E0,0E0,0E0,0E0,0E0,0E0,0E0,0E0,0E0],"parents":[2147483647,0,0,1,1,2,2,5,5,7,7,8,8,9,9,10,10,11,11,12,12,13,13,14,14,15,15,16,16,18,18,19,19,20,20],"right_children":[2,4,6,-1,-1,8,-1,10,12,14,16,18,20,22,24,26,28,-1,30,32,34,-1,-1,-1,-1,-1,-1,-1,-1,-1,-1,-1,-1,-1,-1],"split_conditions":[-1.5232365E0,3.8352892E-1,1.7033888E0,7.42233E-3,1.4129637E-3,1.3770944E-1,-6.6726836E-3,-9.302424E-2,3.2904214E-1,4.6686165E-2,-5.002085E-1,-1.0560069E0,3.347981E-1,-4.3984495E-2,3.7762025E-1,-2.5278684E-1,1.3541266E-1,-5.4996307E-3,3.181418E-1,2.8991163E-1,3.0023757E-1,-2.2309343E-3,1.0117615E-3,2.4500226E-3,-1.5621348E-3,-2.8390978E-3,3.6586558E-3,-4.5196537E-4,-2.426144E-3,1.310099E-3,4.0355707E-3,-6.962864E-3,-5.7782384E-4,-7.8322785E-4,1.7689978E-3],"split_indices":[42,0,48,0,0,53,0,40,53,26,47,11,53,6,14,32,42,0,19,3,29,0,0,0,0,0,0,0,0,0,0,0,0,0,0],"split_type":[0,0,0,0,0,0,0,0,0,0,0,0,0,0,0,0,0,0,0,0,0,0,0,0,0,0,0,0,0,0,0,0,0,0,0],"sum_hessian":[6.57E2,2E0,6.55E2,1E0,1E0,6.54E2,1E0,4.26E2,2.28E2,1.53E2,2.73E2,1.02E2,1.26E2,8.6E1,6.7E1,2.6E1,2.47E2,3E0,9.9E1,5E0,1.21E2,3.8E1,4.8E1,5.6E1,1.1E1,6E0,2E1,1.7E2,7.7E1,8E1,1.9E1,4E0,1E0,8.9E1,3.2E1],"tree_param":{"num_deleted":"0","num_feature":"60","num_nodes":"35","size_leaf_vector":"0"}},{"base_weights":[-2.834119E-5,3.519401E-3,-4.364937E-4,2.392163E-3,2.095717E-2,-1.6236666E-3,1.3816447E-3,5.6642517E-3,-2.422786E-3,4.8594996E-3,2.4703227E-2,5.863184E-3,-2.2766818E-3,1.0309621E-2,4.5301972E-4,-1.09370034E-4,9.685439E-3,-1.1175975E-2,1.1996288E-3,1.6891135E-2,1.5865122E-3,-5.905069E-3,-8.064552E-4,1.4759632E-2,-2.2793658E-2,1.4654378E-3,-8.403221E-3,2.951172E-3,-4.903169E-3,1.7533993E-2,5.8839503E-3,4.864037E-4,-1.5144502E-2,-1.1782671E-3,6.9444305E-3,2.322507E-2,4.75093E-3,6.2239743E-3,-4.6008397E-3,7.03547E-4,-1.1620415E-2,-1.7852666E-3,6.5284744E-3,1.9383715E-2,3.4029442E-3,-8.367681E-3,2.2858386E-3,-2.0785604E-2,1.57112E-4,-1.7587915E-3,4.937257E-3,2.5556497E-3,1.9604443E-2,-2.1657546E-3,8.5273795E-3,-1.0823905E-3,1.8119961E-3,-1.7671198E-2,-6.727407E-3,-4.1770227E-3,1.967772E-3,3.492821E-3,9.231766E-3,1.172185E-3,5.5531166E-3,-1.6369456E-3,8.745945E-3,-8.977613E-3,1.5714571E-3,2.0837926E-3,-1.9314488E-2,-4.9774684E-3,-2.166811E-2,-3.7004657E-3,3.0324857E-3,-4.89108E-3,1.134085E-2,2.2354636E-2,9.565133E-3,-2.486717E-3,8.441869E-3,-1.8229134E-2,2.3208062E-4,3.6555044E-3,-4.0774955E-3,-9.22171E-3,-2.50306E-2,1.5377607E-2,-5.3918962E-3],"categories":[],"categories_nodes":[],"categories_segments":[],"categories_sizes":[],"default_left":[1,1,1,1,1,1,1,1,1,0,0,1,1,1,1,1,1,1,1,1,1,1,1,1,0,1,1,1,0,1,1,1,1,1,1,0,1,1,1,1,1,1,1,1,1,1,1,1,1,0,0,0,0,0,0,0,0,0,0,0,0,0,0,0,0,0,0,0,0,0,0,0,0,0,0,0,0,0,0,0,0,0,0,0,0,0,0,0,0],"id":53,"left_children":[1,3,5,7,9,11,13,15,17,-1,-1,19,21,23,25,27,29,31,33,35,37,39,41,43,-1,45,47,49,-1,51,53,55,57,59,61,-1,63,65,67,69,71,73,75,77,79,81,83,85,87,-1,-1,-1,-1,-1,-1,-1,-1,-1,-1,-1,-1,-1,-1,-1,-1,-1,-1,-1,-1,-1,-1,-1,-1,-1,-1,-1,-1,-1,-1,-1,-1,-1,-1,-1,-1,-1,-1,-1,-1],"loss_changes":[9.543333E-4,1.2865101E-3,1.277884E-3,1.0377945E-3,1.21165765E-4,1.7636204E-3,1.9353632E-3,9.0651505E-4,8.695144E-4,0E0,0E0,1.3409269E-3,1.7556398E-3,3.577245E-3,1.9221191E-3,2.638877E-4,5.8306335E-4,3.7762604E-4,2.813932E-4,5.048218E-4,6.598949E-4,3.5963757E-3,1.70602E-3,9.843237E-4,0E0,1.5680102E-3,2.3352066E-3,1.1158188E-4,0E0,1.6698125E-4,3.802082E-4,8.200032E-6,8.723349E-6,1.4973247E-4,1.5125028E-5,0E0,4.9740047E-6,2.720417E-4,2.842554E-4,1.2835886E-3,3.2962086E-3,1.9396555E-3,1.594214E-3,1.9455794E-4,2.2873547E-4,1.2763228E-3,1.5662892E-3,2.109732E-4,1.2653357E-3,0E0,0E0,0E0,0E0,0E0,0E0,0E0,0E0,0E0,0E0,0E0,0E0,0E0,0E0,0E0,0E0,0E0,0E0,0E0,0E0,0E0,0E0,0E0,0E0,0E0,0E0,0E0,0E0,0E0,0E0,0E0,0E0,0E0,0E0,0E0,0E0,0E0,0E0,0E0,0E0],"parents":[2147483647,0,0,1,1,2,2,3,3,4,4,5,5,6,6,7,7,8,8,11,11,12,12,13,13,14,14,15,15,16,16,17,17,18,18,19,19,20,20,21,21,22,22,23,23,25,25,26,26,27,27,29,29,30,30,31,31,32,32,33,33,34,34,36,36,37,37,38,38,39,39,40,40,41,41,42,42,43,43,44,44,45,45,46,46,47,47,48,48],"right_children":[2,4,6,8,10,12,14,16,18,-1,-1,20,22,24,26,28,30,32,34,36,38,40,42,44,-1,46,48,50,-1,52,54,56,58,60,62,-1,64,66,68,70,72,74,76,78,80,82,84,86,88,-1,-1,-1,-1,-1,-1,-1,-1,-1,-1,-1,-1,-1,-1,-1,-1,-1,-1,-1,-1,-1,-1,-1,-1,-1,-1,-1,-1,-1,-1,-1,-1,-1,-1,-1,-1,-1,-1,-1,-1],"split_conditions":[-4.6111944E-1,6.7836714E-1,9.446579E-2,9.1743425E-2,-4.63587E-1,-5.764705E-1,1.3547441E-1,-1.5790555E-1,-3.5944182E-1,1.45785E-3,7.410968E-3,-1.1257935E-1,-1.0796705E-1,1.9938925E-1,5.1038235E-1,2.2044447E-1,-1.4536682E-1,-3.497851E-1,3.2562613E-1,2.7580288E-1,2.0387691E-1,-6.4979136E-2,4.6830237E-1,2.5287384E-1,-6.8380977E-3,-5.929357E-1,-2.9246244E-1,-2.5123644E-1,-1.4709508E-3,-3.60593E-1,-3.3580083E-1,-3.9359432E-1,1.15247756E-1,1.5452363E-1,1.9885132E-1,6.9675217E-3,-2.1491145E-1,-1.5457705E-1,2.1063319E-1,8.5543334E-2,1.5292731E-1,1.7957374E-1,-1.7041743E-1,8.42815E-2,2.8364193E-1,1.4833842E-1,3.3068645E-1,-2.4807048E-1,-2.4010733E-1,-5.276375E-4,1.4811772E-3,7.6669495E-4,5.8813333E-3,-6.4972637E-4,2.558214E-3,-3.2471717E-4,5.4359884E-4,-5.3013596E-3,-2.0182224E-3,-1.2531069E-3,5.903316E-4,1.0478464E-3,2.7695298E-3,3.516555E-4,1.665935E-3,-4.910837E-4,2.6237837E-3,-2.693284E-3,4.7143715E-4,6.251378E-4,-5.794347E-3,-1.4932406E-3,-6.500433E-3,-1.1101398E-3,9.0974575E-4,-1.467324E-3,3.4022552E-3,6.706391E-3,2.86954E-3,-7.460151E-4,2.5325608E-3,-5.4687406E-3,6.962419E-5,1.0966514E-3,-1.2232487E-3,-2.7665133E-3,-7.5091803E-3,4.613282E-3,-1.6175689E-3],"split_indices":[5,52,50,3,2,18,50,9,52,0,0,34,18,41,58,16,51,0,43,15,9,42,24,12,0,10,16,31,0,1,24,0,1,28,0,0,1,44,44,50,12,14,54,25,29,35,53,44,42,0,0,0,0,0,0,0,0,0,0,0,0,0,0,0,0,0,0,0,0,0,0,0,0,0,0,0,0,0,0,0,0,0,0,0,0,0,0,0,0],"split_type":[0,0,0,0,0,0,0,0,0,0,0,0,0,0,0,0,0,0,0,0,0,0,0,0,0,0,0,0,0,0,0,0,0,0,0,0,0,0,0,0,0,0,0,0,0,0,0,0,0,0,0,0,0,0,0,0,0,0,0,0,0,0,0,0,0,0,0,0,0,0,0,0,0,0,0,0,0,0,0,0,0,0,0,0,0,0,0,0,0],"sum_hessian":[6.57E2,6.7E1,5.9E2,6.4E1,3E0,3.57E2,2.33E2,3.8E1,2.6E1,1E0,2E0,2.8E1,3.29E2,2.1E1,2.12E2,1.6E1,2.2E1,7E0,1.9E1,7E0,2.1E1,9.4E1,2.35E2,1.9E1,2E0,1.91E2,2.1E1,1E1,6E0,6E0,1.6E1,2E0,5E0,1.4E1,5E0,4E0,3E0,1.2E1,9E0,4.4E1,5E1,2.08E2,2.7E1,1.3E1,6E0,1.4E1,1.77E2,8E0,1.3E1,3E0,7E0,1E0,5E0,4E0,1.2E1,1E0,1E0,3E0,2E0,7E0,7E0,3E0,2E0,1E0,2E0,3E0,9E0,5E0,4E0,4.2E1,2E0,3.1E1,1.9E1,1.49E2,5.9E1,8E0,1.9E1,9E0,4E0,3E0,3E0,6E0,8E0,1.46E2,3.1E1,3E0,5E0,3E0,1E1],"tree_param":{"num_deleted":"0","num_feature":"60","num_nodes":"89","size_leaf_vector":"0"}},{"base_weights":[-1.6575988E-5,1.1875734E-2,-1.2582145E-4,-8.6600333E-4,2.4906138E-2,-1.1252187E-2,6.471642E-5,3.025333E-4,-2.1858066E-3,6.126647E-3,-1.8535081E-2,1.8395114E-3,-9.1478426E-4,9.4533665E-3,-1.9267555E-3,-7.549677E-3,-2.3616388E-2,3.1911435E-3,-4.827187E-3,-3.8625535E-3,2.417502E-4,4.165554E-3,-2.8817772E-3,-1.6827308E-2,-1.676307E-3,-1.4442679E-3,-9.723538E-3,1.7539319E-3,-4.065251E-3,1.0515309E-2,2.9021804E-3,-1.47550255E-2,-1.3417164E-3,-1.3321911E-2,4.631332E-4,5.159517E-3,-4.8382943E-3,-3.2773703E-2,-7.2587235E-3,9.2369533E-4,1.6206097E-2,5.437039E-4,-8.93109E-3],"categories":[],"categories_nodes":[],"categories_segments":[],"categories_sizes":[],"default_left":[1,1,1,1,0,1,1,0,0,1,1,1,1,0,0,0,0,1,1,1,1,1,1,0,1,1,1,1,1,0,0,0,0,0,0,0,0,0,0,0,0,0,0],"id":54,"left_children":[1,3,5,7,-1,9,11,-1,-1,13,15,17,19,-1,-1,-1,-1,21,23,25,27,29,31,-1,33,35,37,39,41,-1,-1,-1,-1,-1,-1,-1,-1,-1,-1,-1,-1,-1,-1],"loss_changes":[8.563552E-4,1.0177487E-3,1.3850842E-3,6.8302334E-6,0E0,1.505808E-3,1.1194822E-3,6.4528706E-8,0E0,1.2537996E-4,2.682656E-4,2.0789057E-3,1.4157505E-3,0E0,0E0,0E0,0E0,1.1422499E-3,1.4464192E-3,1.64426E-3,1.9545078E-3,1.2931309E-3,4.739121E-4,0E0,8.0345216E-4,1.9076907E-3,1.6937933E-3,2.6487454E-3,1.7541177E-3,0E0,0E0,0E0,0E0,0E0,0E0,0E0,0E0,0E0,0E0,0E0,0E0,0E0,0E0],"parents":[2147483647,0,0,1,1,2,2,3,3,5,5,6,6,9,9,10,10,11,11,12,12,17,17,18,18,19,19,20,20,21,21,22,22,24,24,25,25,26,26,27,27,28,28],"right_children":[2,4,6,8,-1,10,12,-1,-1,14,16,18,20,-1,-1,-1,-1,22,24,26,28,30,32,-1,34,36,38,40,42,-1,-1,-1,-1,-1,-1,-1,-1,-1,-1,-1,-1,-1,-1],"split_conditions":[-1.3083215E0,1.6362566E-1,-1.01268E0,1.0625236E-1,7.4718418E-3,2.1358393E-2,-1.3582835E-1,9.075999E-5,-6.55742E-4,-2.7478188E-1,-2.0954508E-1,3.330137E-1,4.208755E-2,2.83601E-3,-5.780267E-4,-2.2649032E-3,-7.084917E-3,4.2653018E-1,-2.2717416E-1,2.0981988E-1,2.521541E-1,-3.671447E-1,-2.7518862E-1,-5.0481926E-3,-4.8728907E-1,-1.5466614E-1,-5.1811326E-1,1.9938925E-1,6.4480364E-2,3.1545928E-3,8.706542E-4,-4.4265077E-3,-4.0251494E-4,-3.9965734E-3,1.3893997E-4,1.5478551E-3,-1.4514884E-3,-9.832111E-3,-2.177617E-3,2.771086E-4,4.8618293E-3,1.6311118E-4,-2.679327E-3],"split_indices":[25,2,25,0,0,11,2,0,0,3,9,30,2,0,0,0,0,55,35,1,18,3,11,0,38,16,39,18,41,0,0,0,0,0,0,0,0,0,0,0,0,0,0],"split_type":[0,0,0,0,0,0,0,0,0,0,0,0,0,0,0,0,0,0,0,0,0,0,0,0,0,0,0,0,0,0,0,0,0,0,0,0,0,0,0,0,0,0,0],"sum_hessian":[6.57E2,5E0,6.52E2,3E0,2E0,1E1,6.42E2,2E0,1E0,3E0,7E0,2.28E2,4.14E2,2E0,1E0,3E0,4E0,1.9E2,3.8E1,1.16E2,2.98E2,1.64E2,2.6E1,7E0,3.1E1,8.3E1,3.3E1,2.21E2,7.7E1,2.6E1,1.38E2,2E0,2.4E1,4E0,2.7E1,2.8E1,5.5E1,2E0,3.1E1,2.1E2,1.1E1,4E1,3.7E1],"tree_param":{"num_deleted":"0","num_feature":"60","num_nodes":"43","size_leaf_vector":"0"}},{"base_weights":[-4.075895E-5,1.708484E-2,-1.1901511E-4,2.034305E-2,5.2842107E-3,-4.4015418E-5,-1.6429275E-2,2.7502873E-3,-4.5500914E-4,6.0214875E-3,-3.6613506E-3,-9.6359E-4,3.5189216E-3,8.817727E-3,-6.2192865E-3,9.340405E-3,-6.1152475E-3,-5.068595E-4,-7.508541E-3,1.8829398E-2,2.4743923E-3,1.2462607E-3,1.4593999E-2,1.8536908E-3,-8.219248E-3,2.7818158E-3,1.7787382E-2,-1.9548913E-2,-4.09715E-3,7.4032783E-3,-8.5268385E-4,-1.3079569E-2,3.3307206E-3,1.3959511E-4,8.646526E-3],"categories":[],"categories_nodes":[],"categories_segments":[],"categories_sizes":[],"default_left":[1,1,1,0,0,1,0,1,1,1,1,1,1,1,1,1,1,1,1,0,1,0,0,0,0,0,0,0,0,0,0,0,0,0,0],"id":55,"left_children":[1,3,5,-1,-1,7,-1,9,11,13,15,17,19,21,23,25,27,29,31,-1,33,-1,-1,-1,-1,-1,-1,-1,-1,-1,-1,-1,-1,-1,-1],"loss_changes":[8.838742E-4,7.849827E-6,8.017383E-4,0E0,0E0,7.5233175E-4,0E0,1.783842E-3,1.1574189E-3,1.9716157E-3,9.82363E-4,1.5117587E-3,9.929045E-4,1.993615E-3,1.9283796E-4,2.275201E-4,5.976663E-4,1.3056839E-3,2.0362965E-3,0E0,8.9225516E-4,0E0,0E0,0E0,0E0,0E0,0E0,0E0,0E0,0E0,0E0,0E0,0E0,0E0,0E0],"parents":[2147483647,0,0,1,1,2,2,5,5,7,7,8,8,9,9,10,10,11,11,12,12,13,13,14,14,15,15,16,16,17,17,18,18,20,20],"right_children":[2,4,6,-1,-1,8,-1,10,12,14,16,18,20,22,24,26,28,30,32,-1,34,-1,-1,-1,-1,-1,-1,-1,-1,-1,-1,-1,-1,-1,-1],"split_conditions":[-1.5232365E0,3.8352892E-1,1.7033888E0,6.1029154E-3,1.5852633E-3,-4.1218403E-1,-4.9287826E-3,1.7533919E-1,4.589296E-1,3.330137E-1,-3.9199972E-1,3.7301016E-1,4.6353158E-1,-4.498907E-2,-3.2735613E-1,4.093515E-1,-3.3402282E-1,-7.652491E-1,1.6981539E-1,5.6488197E-3,3.0757302E-1,3.7387823E-4,4.3782E-3,5.5610726E-4,-2.4657743E-3,8.345448E-4,5.336215E-3,-5.864674E-3,-1.2291451E-3,2.2209836E-3,-2.5580518E-4,-3.9238706E-3,9.992162E-4,4.1878535E-5,2.593958E-3],"split_indices":[42,0,44,0,0,31,0,54,46,18,57,46,46,35,1,0,47,27,19,0,58,0,0,0,0,0,0,0,0,0,0,0,0,0,0],"split_type":[0,0,0,0,0,0,0,0,0,0,0,0,0,0,0,0,0,0,0,0,0,0,0,0,0,0,0,0,0,0,0,0,0,0,0],"sum_hessian":[6.57E2,2E0,6.55E2,1E0,1E0,6.53E2,2E0,8.3E1,5.7E2,5.5E1,2.8E1,5.06E2,6.4E1,4.5E1,1E1,4E0,2.4E1,4.74E2,3.2E1,3E0,6.1E1,2E1,2.5E1,2E0,8E0,3E0,1E0,2E0,2.2E1,1.9E1,4.55E2,2.1E1,1.1E1,4.5E1,1.6E1],"tree_param":{"num_deleted":"0","num_feature":"60","num_nodes":"35","size_leaf_vector":"0"}},{"base_weights":[-1.0288131E-5,1.0795072E-2,-1.0955593E-4,2.0400435E-4,2.1318138E-2,-4.4363696E-4,3.1996723E-3,-1.1719486E-2,-2.8920695E-4,1.5086928E-2,1.5994785E-3,-1.6328655E-2,1.4053509E-3,2.3334986E-3,-8.5876154E-4,2.6275039E-2,5.356677E-3,3.5997739E-3,-4.9860505E-3,-1.7743824E-2,-4.626408E-3,3.131196E-3,-1.0231696E-3,5.737773E-3,-3.5747043E-3,3.4758933E-3,-1.3450588E-3,6.3480493E-3,6.9559366E-4,-1.319295E-4,6.998228E-3,1.6481854E-3,-1.0907994E-2,1.0074351E-2,-6.622577E-4,-5.388446E-3,1.364265E-2,6.0441457E-3,-8.610133E-3,-4.625589E-3,-5.927546E-4,2.4732947E-3,-5.695706E-3,9.818301E-3,-4.473994E-4,-1.651655E-3,4.5359796E-3,-5.083658E-3,-1.4005331E-2],"categories":[],"categories_nodes":[],"categories_segments":[],"categories_sizes":[],"default_left":[1,1,1,0,0,1,1,1,1,1,1,1,1,1,1,0,1,1,1,0,0,0,0,1,1,1,1,0,0,1,1,1,1,0,0,0,0,0,0,0,0,0,0,0,0,0,0,0,0],"id":56,"left_children":[1,3,5,-1,-1,7,9,11,13,15,17,19,21,23,25,-1,27,29,31,-1,-1,-1,-1,33,35,37,39,-1,-1,41,43,45,47,-1,-1,-1,-1,-1,-1,-1,-1,-1,-1,-1,-1,-1,-1,-1,-1],"loss_changes":[7.069694E-4,6.64354E-4,7.2334387E-4,0E0,0E0,1.0309604E-3,1.1171837E-3,5.0690444E-4,8.7884924E-4,6.2129495E-4,7.292908E-4,1.7273705E-5,1.5777492E-5,2.132391E-3,1.0228059E-3,0E0,1.868869E-5,5.3356827E-4,5.287168E-4,0E0,0E0,0E0,0E0,1.8662054E-3,1.2913984E-3,1.5729992E-3,1.0708194E-3,0E0,0E0,3.1847975E-4,4.6633137E-4,7.419669E-5,5.508127E-5,0E0,0E0,0E0,0E0,0E0,0E0,0E0,0E0,0E0,0E0,0E0,0E0,0E0,0E0,0E0,0E0],"parents":[2147483647,0,0,1,1,2,2,5,5,6,6,7,7,8,8,9,9,10,10,11,11,12,12,13,13,14,14,16,16,17,17,18,18,23,23,24,24,25,25,26,26,29,29,30,30,31,31,32,32],"right_children":[2,4,6,-1,-1,8,10,12,14,16,18,20,22,24,26,-1,28,30,32,-1,-1,-1,-1,34,36,38,40,-1,-1,42,44,46,48,-1,-1,-1,-1,-1,-1,-1,-1,-1,-1,-1,-1,-1,-1,-1,-1],"split_conditions":[-1.3083215E0,1.6362566E-1,5.1336956E-1,6.120131E-5,6.3954415E-3,-1.0667546E0,-4.5308554E-1,2.6104486E-1,-3.3935207E-1,6.610842E-2,3.6136356E-1,1.6801554E-1,-8.4330887E-4,1.5414578E-1,-4.762404E-1,7.882512E-3,-1.7620116E-2,-4.5015454E-2,2.1688679E-1,-5.3231474E-3,-1.3879226E-3,9.393588E-4,-3.0695088E-4,2.0847477E-1,6.117263E-1,3.5872617E-1,-2.9209274E-1,1.9044149E-3,2.086781E-4,2.4821018E-1,4.1373122E-1,-4.8150413E-2,2.5545034E-1,3.0223054E-3,-1.9867733E-4,-1.616534E-3,4.0927953E-3,1.8132437E-3,-2.58304E-3,-1.3876768E-3,-1.7782638E-4,7.419885E-4,-1.7087118E-3,2.9454904E-3,-1.3421982E-4,-4.954965E-4,1.360794E-3,-1.5250974E-3,-4.2015994E-3],"split_indices":[25,2,41,0,0,25,19,5,21,4,9,1,0,24,57,0,1,5,46,0,0,0,0,27,28,18,15,0,0,4,5,1,21,0,0,0,0,0,0,0,0,0,0,0,0,0,0,0,0],"split_type":[0,0,0,0,0,0,0,0,0,0,0,0,0,0,0,0,0,0,0,0,0,0,0,0,0,0,0,0,0,0,0,0,0,0,0,0,0,0,0,0,0,0,0,0,0,0,0,0,0],"sum_hessian":[6.57E2,5E0,6.52E2,3E0,2E0,5.93E2,5.9E1,7E0,5.86E2,6E0,5.3E1,5E0,2E0,1.04E2,4.82E2,2E0,4E0,4.1E1,1.2E1,4E0,1E0,1E0,1E0,6.6E1,3.8E1,4.8E1,4.34E2,3E0,1E0,2E1,2.1E1,6E0,6E0,3.9E1,2.7E1,3.5E1,3E0,4E1,8E0,8E1,3.54E2,1.4E1,6E0,1.5E1,6E0,3E0,3E0,3E0,3E0],"tree_param":{"num_deleted":"0","num_feature":"60","num_nodes":"49","size_leaf_vector":"0"}},{"base_weights":[8.484348E-6,5.6436243E-3,-1.8614919E-4,1.1946001E-2,1.1889806E-3,-8.837219E-3,5.097536E-5,1.5057108E-2,7.047504E-4,3.0774374E-3,-6.7611733E-3,-1.9311719E-2,4.2610167E-4,-3.6097306E-3,3.5010965E-4,1.3271123E-4,4.5332117E-3,-2.8234633E-2,-8.311044E-3,7.079199E-3,-3.4365398E-3,-2.7357187E-4,-9.480977E-3,1.5070983E-4,7.307221E-3,-4.9818057E-4,7.1936595E-4,-1.808852E-4,5.232495E-3,2.4102528E-3,1.0543019E-2,1.6982257E-3,-4.5753717E-3,-3.4649232E-3,4.411755E-3,-3.3994673E-3,-2.0063834E-2,7.010108E-4,-2.6931602E-3,9.77494E-3,-2.539672E-3,5.99107E-3,2.2240381E-3,-5.4927394E-3,-1.827091E-3,2.4649233E-3,-5.210544E-3,-2.3653837E-4,8.429797E-3,-8.682805E-3,1.6147458E-3,-7.7120163E-3,-2.431174E-2,-1.4851925E-4,3.619666E-3,-1.00583015E-2,-8.652452E-4,1.4329866E-2,3.8235954E-3,-5.271882E-4,-3.0347705E-3],"categories":[],"categories_nodes":[],"categories_segments":[],"categories_sizes":[],"default_left":[1,1,1,1,1,1,1,0,0,1,0,1,1,1,1,1,1,0,0,1,1,1,1,1,1,0,0,0,1,0,0,0,1,1,1,1,1,1,1,1,1,0,0,0,0,0,0,0,0,0,0,0,0,0,0,0,0,0,0,0,0],"id":57,"left_children":[1,3,5,7,9,11,13,-1,-1,15,-1,17,19,21,23,25,27,-1,-1,29,31,33,35,37,39,-1,-1,-1,41,-1,-1,-1,43,45,47,49,51,53,55,57,59,-1,-1,-1,-1,-1,-1,-1,-1,-1,-1,-1,-1,-1,-1,-1,-1,-1,-1,-1,-1],"loss_changes":[7.227366E-4,6.034429E-4,1.3071803E-3,3.0414318E-4,2.309964E-4,1.657716E-3,6.8128534E-4,0E0,0E0,5.084068E-5,0E0,5.506051E-4,2.8131326E-4,9.1801456E-4,7.965656E-4,2.2089525E-6,2.7318383E-5,0E0,0E0,3.927821E-5,4.8703456E-5,4.7881465E-4,1.0259094E-3,8.782792E-4,4.1361502E-4,0E0,0E0,0E0,2.6506168E-6,0E0,0E0,0E0,5.091366E-6,2.0951757E-4,2.447955E-4,3.319219E-4,1.2732344E-4,1.1658957E-3,1.2164167E-3,2.9761158E-4,2.3856155E-6,0E0,0E0,0E0,0E0,0E0,0E0,0E0,0E0,0E0,0E0,0E0,0E0,0E0,0E0,0E0,0E0,0E0,0E0,0E0,0E0],"parents":[2147483647,0,0,1,1,2,2,3,3,4,4,5,5,6,6,9,9,11,11,12,12,13,13,14,14,15,15,16,16,19,19,20,20,21,21,22,22,23,23,24,24,28,28,32,32,33,33,34,34,35,35,36,36,37,37,38,38,39,39,40,40],"right_children":[2,4,6,8,10,12,14,-1,-1,16,-1,18,20,22,24,26,28,-1,-1,30,32,34,36,38,40,-1,-1,-1,42,-1,-1,-1,44,46,48,50,52,54,56,58,60,-1,-1,-1,-1,-1,-1,-1,-1,-1,-1,-1,-1,-1,-1,-1,-1,-1,-1,-1,-1],"split_conditions":[-7.9373455E-1,2.0859407E-2,-5.860163E-1,1.3111888E-1,3.1021345E-1,-2.3719165E-2,-5.7086205E-1,4.517133E-3,2.1142514E-4,1.575768E-3,-2.028352E-3,1.3442698E-1,-2.7468356E-1,2.2128254E-1,7.2204626E-1,1.6635247E-1,4.224521E-2,-8.47039E-3,-2.4933135E-3,9.1894895E-2,-2.7718717E-1,1.351692E-1,1.463299E-1,3.6621672E-1,5.483055E-1,-1.4945418E-4,2.1580979E-4,-5.426556E-5,2.5137937E-1,7.230759E-4,3.1629058E-3,5.0946773E-4,3.0386478E-1,-2.5179252E-1,1.694021E-1,3.0509323E-1,-2.7851745E-1,1.6813791E-1,-2.886678E-1,2.1422254E-2,-1.1307101E-1,1.7973211E-3,6.672115E-4,-1.6478219E-3,-5.4812734E-4,7.3947705E-4,-1.5631632E-3,-7.096151E-5,2.5289394E-3,-2.6048417E-3,4.8442377E-4,-2.313605E-3,-7.2935224E-3,-4.4555774E-5,1.0858999E-3,-3.0174905E-3,-2.5957357E-4,4.29896E-3,1.1470787E-3,-1.5815646E-4,-9.104312E-4],"split_indices":[15,4,15,3,31,26,59,0,0,56,0,8,0,56,56,1,4,0,0,1,8,15,51,7,36,0,0,0,0,0,0,0,0,36,33,56,2,7,3,44,1,0,0,0,0,0,0,0,0,0,0,0,0,0,0,0,0,0,0,0,0],"split_type":[0,0,0,0,0,0,0,0,0,0,0,0,0,0,0,0,0,0,0,0,0,0,0,0,0,0,0,0,0,0,0,0,0,0,0,0,0,0,0,0,0,0,0,0,0,0,0,0,0,0,0,0,0,0,0,0,0,0,0,0,0],"sum_hessian":[6.57E2,2.1E1,6.36E2,8E0,1.3E1,1.6E1,6.2E2,6E0,2E0,1.1E1,2E0,7E0,9E0,4.6E1,5.74E2,4E0,7E0,3E0,4E0,3E0,6E0,3E1,1.6E1,5.59E2,1.5E1,2E0,2E0,1E0,6E0,2E0,1E0,1E0,5E0,1.8E1,1.2E1,1.1E1,5E0,4.69E2,9E1,1.2E1,3E0,4E0,2E0,3E0,2E0,4E0,1.4E1,6E0,6E0,5E0,6E0,2E0,3E0,3.64E2,1.05E2,1.7E1,7.3E1,6E0,6E0,1E0,2E0],"tree_param":{"num_deleted":"0","num_feature":"60","num_nodes":"61","size_leaf_vector":"0"}},{"base_weights":[-1.1594832E-5,-6.620451E-3,1.4235616E-4,2.4220906E-3,-1.0128838E-2,1.1886204E-2,5.0384922E-5,4.2654364E-3,-2.2861858E-4,-4.7574993E-3,-1.1548403E-2,2.119553E-2,4.2599887E-3,-8.736682E-4,1.120499E-3,5.019605E-3,9.905696E-4,-6.2813517E-4,-1.739518E-2,-5.12745E-4,3.08419E-3,-2.2963393E-3,1.9220735E-3,-2.8806886E-2,-1.8508111E-4,-2.4581432E-2,-2.124356E-4,6.6436006E-4,5.8391644E-3,-1.4370106E-3,-1.8995479E-2,6.2473076E-3,-1.2229951E-3,-4.9506407E-3,4.673019E-3,1.0855253E-3,-5.1308037E-3,-5.1789144E-3,3.4558447E-3,7.6024737E-3,-8.754536E-4],"categories":[],"categories_nodes":[],"categories_segments":[],"categories_sizes":[],"default_left":[1,1,1,1,1,1,1,0,0,0,0,0,1,1,1,0,0,1,1,1,1,1,1,0,1,0,1,1,1,0,0,0,0,0,0,0,0,0,0,0,0],"id":58,"left_children":[1,3,5,7,9,11,13,-1,-1,-1,-1,-1,15,17,19,-1,-1,21,23,25,27,29,31,-1,33,-1,35,37,39,-1,-1,-1,-1,-1,-1,-1,-1,-1,-1,-1,-1],"loss_changes":[6.7041797E-4,5.00404E-4,6.9498306E-4,2.5406025E-5,2.893305E-5,2.6468193E-4,6.3383795E-4,0E0,2.6692726E-7,0E0,0E0,0E0,4.9617447E-6,1.3845358E-3,9.5411565E-4,0E0,0E0,1.450865E-3,9.766513E-4,1.1729506E-3,8.961074E-4,2.9288135E-3,1.8440667E-3,0E0,9.2589136E-5,0E0,1.0397532E-3,1.2086305E-3,7.5257244E-4,0E0,0E0,0E0,0E0,0E0,0E0,0E0,0E0,0E0,0E0,0E0,0E0],"parents":[2147483647,0,0,1,1,2,2,3,3,4,4,5,5,6,6,12,12,13,13,14,14,17,17,18,18,19,19,20,20,21,21,22,22,24,24,26,26,27,27,28,28],"right_children":[2,4,6,8,10,12,14,-1,-1,-1,-1,-1,16,18,20,-1,-1,22,24,26,28,30,32,-1,34,-1,36,38,40,-1,-1,-1,-1,-1,-1,-1,-1,-1,-1,-1,-1],"split_conditions":[-1.1460855E0,-2.536507E-1,-1.4298277E0,-1.0611129E-1,-2.6540202E-1,-1.654743E-1,4.579815E-2,1.2796309E-3,-6.858558E-5,-1.4272499E-3,-3.464521E-3,6.3586594E-3,3.6310554E-1,4.5558125E-2,8.3734564E-2,1.5058817E-3,2.971709E-4,8.5579865E-2,4.7797795E-2,-1.4727635E0,-4.2238966E-2,8.335073E-2,-6.4603135E-2,-8.642066E-3,3.223346E-1,-7.37443E-3,3.382751E-1,-2.0072065E-1,2.6390773E-1,-4.311032E-4,-5.6986436E-3,1.8741924E-3,-3.6689854E-4,-1.4851923E-3,1.4019058E-3,3.256576E-4,-1.5392412E-3,-1.5536743E-3,1.0367534E-3,2.2807422E-3,-2.6263608E-4],"split_indices":[40,32,39,0,33,1,48,0,0,0,0,0,2,48,52,0,0,37,0,19,11,37,20,0,0,0,33,38,23,0,0,0,0,0,0,0,0,0,0,0,0],"split_type":[0,0,0,0,0,0,0,0,0,0,0,0,0,0,0,0,0,0,0,0,0,0,0,0,0,0,0,0,0,0,0,0,0,0,0,0,0,0,0,0,0],"sum_hessian":[6.57E2,1.4E1,6.43E2,4E0,1E1,4E0,6.39E2,2E0,2E0,3E0,7E0,1E0,3E0,3.43E2,2.96E2,2E0,1E0,3.39E2,4E0,1.62E2,1.34E2,2.05E2,1.34E2,2E0,2E0,1E0,1.61E2,7.2E1,6.2E1,1.96E2,9E0,5.6E1,7.8E1,1E0,1E0,1.28E2,3.3E1,2.3E1,4.9E1,4.9E1,1.3E1],"tree_param":{"num_deleted":"0","num_feature":"60","num_nodes":"41","size_leaf_vector":"0"}},{"base_weights":[-3.2363423E-5,9.617881E-3,-1.2098379E-4,3.356995E-3,1.4759768E-2,1.4861989E-3,-6.3698593E-4,4.74341E-3,-4.0112436E-4,1.1340745E-3,1.9418636E-2,4.4970345E-3,-9.896834E-4,1.3282103E-4,5.9500057E-3,6.2361276E-3,-1.4392912E-2,-1.9852715E-3,8.963315E-4,-1.0348101E-3,4.464993E-3,8.723643E-3,-7.998725E-3,1.0063367E-2,-3.433451E-4,-2.6482763E-3,3.7330277E-3,-2.2238786E-3,3.509959E-3,4.837606E-3,-2.4043808E-3,7.0464257E-3,-6.1746635E-3,-1.592425E-3,1.1677685E-2,-2.0907868E-3,-1.1240423E-2,5.645121E-3,1.6831057E-2,-7.466752E-3,2.860763E-3,3.3448853E-3,-3.2130266E-3,-1.0835296E-2,6.201192E-3,1.45158125E-2,-3.6472739E-3,-3.868334E-3,5.331076E-3],"categories":[],"categories_nodes":[],"categories_segments":[],"categories_sizes":[],"default_left":[1,1,1,1,0,1,1,0,0,1,0,1,1,1,1,1,0,1,1,1,1,1,1,1,1,1,1,1,1,0,0,0,0,0,0,0,0,0,0,0,0,0,0,0,0,0,0,0,0],"id":59,"left_children":[1,3,5,7,-1,9,11,-1,-1,13,-1,15,17,19,21,23,-1,25,27,29,31,33,35,37,39,41,43,45,47,-1,-1,-1,-1,-1,-1,-1,-1,-1,-1,-1,-1,-1,-1,-1,-1,-1,-1,-1,-1],"loss_changes":[5.6389056E-4,1.4360814E-4,5.424859E-4,2.2743945E-5,0E0,9.819749E-4,9.00775E-4,0E0,0E0,7.562586E-4,0E0,1.1410004E-3,8.7302935E-4,6.6726806E-4,1.1143736E-3,7.588917E-4,0E0,1.162429E-3,1.3207716E-3,8.480712E-4,8.125448E-4,7.1950024E-4,7.225739E-5,4.7311164E-4,2.9525062E-4,9.3475403E-4,1.2178161E-3,1.8161554E-3,1.2030553E-3,0E0,0E0,0E0,0E0,0E0,0E0,0E0,0E0,0E0,0E0,0E0,0E0,0E0,0E0,0E0,0E0,0E0,0E0,0E0,0E0],"parents":[2147483647,0,0,1,1,2,2,3,3,5,5,6,6,9,9,11,11,12,12,13,13,14,14,15,15,17,17,18,18,19,19,20,20,21,21,22,22,23,23,24,24,25,25,26,26,27,27,28,28],"right_children":[2,4,6,8,-1,10,12,-1,-1,14,-1,16,18,20,22,24,-1,26,28,30,32,34,36,38,40,42,44,46,48,-1,-1,-1,-1,-1,-1,-1,-1,-1,-1,-1,-1,-1,-1,-1,-1,-1,-1,-1,-1],"split_conditions":[-1.4298277E0,-2.0883873E-1,-2.518366E-1,-1.1394444E-1,4.4279303E-3,-2.5311208E-1,-5.952191E-1,1.423023E-3,-1.2033731E-4,4.1614154E-1,5.8255913E-3,7.153898E-1,1.3789952E-1,2.6212323E-1,4.1915756E-1,1.5924439E-1,-4.317874E-3,5.0861704E-1,-4.5716025E-2,-2.7285588E-1,1.5290414E-1,-2.6943558E-1,-1.5170841E-1,6.2396005E-2,9.1743425E-2,-6.2515E-1,-4.8906237E-1,-8.0312896E-1,-2.7322453E-1,1.4512818E-3,-7.213143E-4,2.1139279E-3,-1.8523991E-3,-4.7772753E-4,3.5033056E-3,-6.272361E-4,-3.372127E-3,1.6935364E-3,5.049317E-3,-2.2400257E-3,8.5822894E-4,1.0034656E-3,-9.63908E-4,-3.250589E-3,1.8603576E-3,4.3547438E-3,-1.0941823E-3,-1.1605002E-3,1.5993229E-3],"split_indices":[26,9,24,2,0,24,3,0,0,17,0,44,53,36,57,47,0,12,46,16,2,45,0,7,1,43,26,37,43,0,0,0,0,0,0,0,0,0,0,0,0,0,0,0,0,0,0,0,0],"split_type":[0,0,0,0,0,0,0,0,0,0,0,0,0,0,0,0,0,0,0,0,0,0,0,0,0,0,0,0,0,0,0,0,0,0,0,0,0,0,0,0,0,0,0,0,0,0,0,0,0],"sum_hessian":[6.57E2,5E0,6.52E2,3E0,2E0,1.58E2,4.94E2,2E0,1E0,1.56E2,2E0,3.1E1,4.63E2,1.3E2,2.6E1,2.9E1,2E0,3.03E2,1.6E2,1.03E2,2.7E1,2.2E1,4E0,1.8E1,1.1E1,2.72E2,3.1E1,7.3E1,8.7E1,1.9E1,8.4E1,2.2E1,5E0,5E0,1.7E1,2E0,2E0,1.2E1,6E0,3E0,8E0,2.3E1,2.49E2,4E0,2.7E1,5E0,6.8E1,1.7E1,7E1],"tree_param":{"num_deleted":"0","num_feature":"60","num_nodes":"49","size_leaf_vector":"0"}},{"base_weights":[9.15917E-8,1.30285695E-2,-5.949E-5,1.7116591E-2,2.426263E-3,-1.2171747E-5,-1.55264735E-2,-7.3003443E-4,8.2933676E-4,2.9648296E-3,-1.5556762E-3,-1.4948632E-2,9.84352E-4,-6.9368593E-3,4.680045E-3,-5.8852654E-4,-7.2524524E-3,-2.0106807E-3,-2.0412266E-2,6.148165E-4,6.7395843E-3,-1.2363935E-2,9.6300244E-4,6.5564043E-3,-5.8472105E-3,-3.7971926E-3,1.2835355E-3,-2.2122726E-2,-2.5265377E-3,2.1560639E-4,5.853649E-3,8.4916246E-4,1.3996466E-2],"categories":[],"categories_nodes":[],"categories_segments":[],"categories_sizes":[],"default_left":[1,1,1,0,0,1,0,1,1,1,1,1,1,1,1,1,1,0,0,1,1,0,0,0,0,0,0,0,0,0,0,0,0],"id":60,"left_children":[1,3,5,-1,-1,7,-1,9,11,13,15,17,19,21,23,25,27,-1,-1,29,31,-1,-1,-1,-1,-1,-1,-1,-1,-1,-1,-1,-1],"loss_changes":[5.115525E-4,8.8497996E-5,4.7991818E-4,0E0,0E0,3.962828E-4,0E0,1.0845369E-3,7.5335393E-4,1.1363942E-3,1.593526E-3,1.710222E-4,6.338851E-4,4.4063796E-4,1.1444999E-3,1.5005723E-3,2.8956837E-3,0E0,0E0,5.9060275E-4,7.5754436E-4,0E0,0E0,0E0,0E0,0E0,0E0,0E0,0E0,0E0,0E0,0E0,0E0],"parents":[2147483647,0,0,1,1,2,2,5,5,7,7,8,8,9,9,10,10,11,11,12,12,13,13,14,14,15,15,16,16,19,19,20,20],"right_children":[2,4,6,-1,-1,8,-1,10,12,14,16,18,20,22,24,26,28,-1,-1,30,32,-1,-1,-1,-1,-1,-1,-1,-1,-1,-1,-1,-1],"split_conditions":[-1.5232365E0,3.8352892E-1,1.7033888E0,5.1349774E-3,7.278789E-4,4.579815E-2,-4.6579423E-3,-2.5543082E-1,-1.4727635E0,-3.7393352E-1,-4.22301E-2,2.5104603E-1,6.46884E-1,1.9533704E-1,3.732478E-1,-8.350754E-2,-1.952019E-1,-6.0320424E-4,-6.12368E-3,6.3972795E-1,4.3021455E-2,-3.7091805E-3,2.8890074E-4,1.9669214E-3,-1.7541632E-3,-1.1391578E-3,3.8506067E-4,-6.636818E-3,-7.5796136E-4,6.468192E-5,1.7560949E-3,2.5474874E-4,4.19894E-3],"split_indices":[42,0,48,0,0,48,0,28,19,42,48,0,8,14,24,22,46,0,0,24,36,0,0,0,0,0,0,0,0,0,0,0,0],"split_type":[0,0,0,0,0,0,0,0,0,0,0,0,0,0,0,0,0,0,0,0,0,0,0,0,0,0,0,0,0,0,0,0,0],"sum_hessian":[6.57E2,2E0,6.55E2,1E0,1E0,6.54E2,1E0,3.53E2,3.01E2,6.4E1,2.89E2,2E0,2.99E2,9E0,5.5E1,2.48E2,4.1E1,1E0,1E0,2.82E2,1.7E1,5E0,4E0,4.7E1,8E0,9.1E1,1.57E2,9E0,3.2E1,2.63E2,1.9E1,1E1,7E0],"tree_param":{"num_deleted":"0","num_feature":"60","num_nodes":"33","size_leaf_vector":"0"}},{"base_weights":[-1.6047457E-5,4.0446795E-3,-1.5626715E-4,1.2638877E-2,2.5533158E-3,-5.6519015E-3,-5.571414E-6,4.299686E-3,-3.5457313E-3,-1.3109768E-2,8.79582E-4,-1.2277121E-3,6.727306E-4,1.9827401E-3,6.368789E-3,-3.2552332E-4,-4.2694025E-3,-2.3025552E-2,-5.966915E-3,6.7141578E-3,-2.5801158E-3,-2.2370603E-4,-8.470582E-3,6.2478255E-3,2.3630462E-4,3.3438826E-4,2.4059282E-3,8.010656E-3,1.412332E-3,-1.3797916E-4,-4.3772236E-3,2.029622E-3,-1.9318237E-3,-1.0769918E-3,-1.5259131E-2,-1.616469E-2,7.6255826E-3,1.4854543E-2,7.720094E-5,-1.7350435E-2,2.4668898E-3,2.2026114E-3,-4.350337E-3,-8.9785755E-3,4.310396E-3,-1.4759905E-3,-2.0624788E-2,9.212732E-3,-4.2004995E-3,1.7291248E-2,3.772214E-3,-1.1311441E-3,1.8291901E-3],"categories":[],"categories_nodes":[],"categories_segments":[],"categories_sizes":[],"default_left":[1,1,1,0,1,1,1,1,1,1,1,1,1,1,0,0,0,0,0,1,1,1,1,1,1,0,0,0,0,0,0,1,1,1,1,0,1,1,1,0,0,0,0,0,0,0,0,0,0,0,0,0,0],"id":61,"left_children":[1,3,5,-1,7,9,11,13,15,17,19,21,23,25,-1,-1,-1,-1,-1,27,29,31,33,35,37,-1,-1,-1,-1,-1,-1,39,41,43,45,-1,47,49,51,-1,-1,-1,-1,-1,-1,-1,-1,-1,-1,-1,-1,-1,-1],"loss_changes":[3.7529322E-4,2.4970455E-4,5.2751193E-4,0E0,2.2826939E-4,8.396169E-4,5.1562284E-4,6.407633E-5,1.0262076E-5,4.2922446E-4,2.1918201E-4,1.6124637E-3,9.717702E-4,5.47355E-6,0E0,0E0,0E0,0E0,0E0,1.6181511E-5,3.0117513E-5,7.5831497E-4,1.3387433E-3,1.0187564E-3,8.640566E-4,0E0,0E0,0E0,0E0,4.659114E-7,0E0,7.631149E-4,1.1294911E-3,6.346657E-4,1.0049364E-3,0E0,5.6425156E-4,4.2791187E-5,7.832448E-4,0E0,0E0,0E0,0E0,0E0,0E0,0E0,0E0,0E0,0E0,0E0,0E0,0E0,0E0],"parents":[2147483647,0,0,1,1,2,2,4,4,5,5,6,6,7,7,8,8,9,9,10,10,11,11,12,12,13,13,19,19,20,20,21,21,22,22,23,23,24,24,31,31,32,32,33,33,34,34,36,36,37,37,38,38],"right_children":[2,4,6,-1,8,10,12,14,16,18,20,22,24,26,-1,-1,-1,-1,-1,28,30,32,34,36,38,-1,-1,-1,-1,-1,-1,40,42,44,46,-1,48,50,52,-1,-1,-1,-1,-1,-1,-1,-1,-1,-1,-1,-1,-1,-1],"split_conditions":[-7.9373455E-1,-4.1804856E-1,-5.860163E-1,3.7916633E-3,3.9276752E-1,-2.3719165E-2,-1.2552303E-1,6.889317E-2,-3.9943582E-1,-1.9031854E-1,-2.7468356E-1,-1.6757463E-1,-5.846098E-1,-3.103931E-1,1.9106368E-3,-9.7657E-5,-1.2808208E-3,-6.9076656E-3,-1.7900745E-3,-3.4250832E-1,8.394681E-4,-4.310161E-2,6.276153E-2,-5.4703975E-1,-1.2513039E-1,1.0031648E-4,7.217785E-4,2.4031969E-3,4.2369965E-4,-4.1393752E-5,-1.3131672E-3,-1.3550549E0,-8.8803306E-2,-2.1177467E-2,-1.15393385E-1,-4.8494074E-3,3.5869193E-1,-4.1684035E-2,8.355974E-2,-5.2051307E-3,7.40067E-4,6.6078344E-4,-1.3051012E-3,-2.6935728E-3,1.2931188E-3,-4.4279717E-4,-6.1874366E-3,2.7638199E-3,-1.2601499E-3,5.1873745E-3,1.1316643E-3,-3.3934324E-4,5.4875703E-4],"split_indices":[15,59,15,0,57,26,50,5,0,4,0,50,26,14,0,0,0,0,0,0,2,59,30,14,50,0,0,0,0,0,0,19,9,4,10,0,39,0,59,0,0,0,0,0,0,0,0,0,0,0,0,0,0],"split_type":[0,0,0,0,0,0,0,0,0,0,0,0,0,0,0,0,0,0,0,0,0,0,0,0,0,0,0,0,0,0,0,0,0,0,0,0,0,0,0,0,0,0,0,0,0,0,0,0,0,0,0,0,0],"sum_hessian":[6.57E2,2.1E1,6.36E2,2E0,1.9E1,1.6E1,6.2E2,1.5E1,4E0,7E0,9E0,2.21E2,3.99E2,8E0,7E0,1E0,3E0,2E0,5E0,3E0,6E0,1.95E2,2.6E1,2.8E1,3.71E2,2E0,6E0,2E0,1E0,3E0,3E0,8.4E1,1.11E2,1.3E1,1.3E1,1E0,2.7E1,3E0,3.68E2,1E0,8.3E1,4.1E1,7E1,5E0,8E0,4E0,9E0,2.4E1,3E0,2E0,1E0,2.18E2,1.5E2],"tree_param":{"num_deleted":"0","num_feature":"60","num_nodes":"53","size_leaf_vector":"0"}},{"base_weights":[-2.952707E-5,4.40382E-3,-1.5397437E-4,7.998575E-3,-6.5422594E-3,-8.0951216E-4,8.745248E-4,3.6698063E-3,1.0786426E-2,-8.231685E-3,1.07720494E-4,-1.6878541E-3,1.4864384E-3,2.4156042E-3,-2.2553045E-3,4.5268983E-3,1.018051E-3,-5.9250835E-3,-1.0684641E-3,-1.5234074E-3,4.2589894E-3,-5.09223E-3,3.2945804E-3,2.5617005E-3,-4.8896535E-3,-8.534469E-3,1.7127648E-3,7.969732E-3,-1.4406038E-3,-1.0418153E-2,5.6622543E-5,6.2476327E-3,-2.2952466E-3,3.3472222E-3,-9.590891E-3,3.5786233E-4,5.966553E-3,-1.1308089E-2,5.1304405E-3,-1.4836189E-3,-1.0171345E-2,-1.2134617E-2,-2.1947415E-3,4.260408E-3,-1.6869605E-3,3.4753417E-3,1.3842482E-2,4.087734E-3,-2.1313725E-3,-5.285494E-3,-1.4229439E-2,-6.150776E-3,2.6883485E-3,4.6011116E-3,1.5908746E-2,8.454673E-4,-8.1176255E-3,4.178191E-3,-8.1929564E-4,-1.2745025E-2,-2.6261E-3,4.2619444E-3,-3.7730539E-3,-3.8747925E-3,7.287223E-3,-3.2026073E-4,-1.8526554E-2,7.03324E-3,-1.0390494E-3,-5.184601E-3,3.5499323E-3,-3.2907692E-3,-1.41524095E-2],"categories":[],"categories_nodes":[],"categories_segments":[],"categories_sizes":[],"default_left":[1,1,1,1,1,1,1,1,0,0,0,1,1,1,1,0,0,1,1,1,1,1,1,1,1,1,1,1,1,1,1,1,1,1,1,1,1,1,1,1,1,0,0,0,0,0,0,0,0,0,0,0,0,0,0,0,0,0,0,0,0,0,0,0,0,0,0,0,0,0,0,0,0],"id":62,"left_children":[1,3,5,7,9,11,13,15,-1,-1,-1,17,19,21,23,-1,-1,25,27,29,31,33,35,37,39,41,43,45,47,49,51,53,55,57,59,61,63,65,67,69,71,-1,-1,-1,-1,-1,-1,-1,-1,-1,-1,-1,-1,-1,-1,-1,-1,-1,-1,-1,-1,-1,-1,-1,-1,-1,-1,-1,-1,-1,-1,-1,-1],"loss_changes":[3.6370853E-4,7.6060137E-4,4.3288307E-4,1.293674E-4,5.7059922E-5,7.9302775E-4,1.2112767E-3,1.1300974E-5,0E0,0E0,0E0,7.390264E-4,9.160877E-4,1.1254437E-3,1.0657687E-3,0E0,0E0,7.321008E-4,8.4898545E-4,7.4545003E-4,7.5728016E-4,7.154951E-4,1.1827361E-3,1.1268521E-3,9.563494E-4,5.896145E-4,9.380002E-5,2.1583692E-4,9.2522515E-4,8.128665E-5,7.679994E-4,6.2672E-4,2.6287316E-4,2.7658905E-5,2.3014483E-4,1.1933835E-3,1.0550129E-3,3.906429E-4,3.1252968E-4,6.5179385E-4,5.286599E-4,0E0,0E0,0E0,0E0,0E0,0E0,0E0,0E0,0E0,0E0,0E0,0E0,0E0,0E0,0E0,0E0,0E0,0E0,0E0,0E0,0E0,0E0,0E0,0E0,0E0,0E0,0E0,0E0,0E0,0E0,0E0,0E0],"parents":[2147483647,0,0,1,1,2,2,3,3,4,4,5,5,6,6,7,7,11,11,12,12,13,13,14,14,17,17,18,18,19,19,20,20,21,21,22,22,23,23,24,24,25,25,26,26,27,27,28,28,29,29,30,30,31,31,32,32,33,33,34,34,35,35,36,36,37,37,38,38,39,39,40,40],"right_children":[2,4,6,8,10,12,14,16,-1,-1,-1,18,20,22,24,-1,-1,26,28,30,32,34,36,38,40,42,44,46,48,50,52,54,56,58,60,62,64,66,68,70,72,-1,-1,-1,-1,-1,-1,-1,-1,-1,-1,-1,-1,-1,-1,-1,-1,-1,-1,-1,-1,-1,-1,-1,-1,-1,-1,-1,-1,-1,-1,-1,-1],"split_conditions":[-9.0814424E-1,1.2595533E-1,1.2539211E-1,-2.1267546E-2,9.156964E-1,2.0938039E-1,1.9876653E-1,3.363284E-1,3.235928E-3,-2.4695054E-3,3.231615E-5,-4.3793952E-1,4.628648E-2,-4.5986825E-1,2.5036696E-1,1.3580695E-3,3.0541533E-4,3.355013E-1,-8.081554E-1,-5.6751907E-1,4.1449013E-1,1.0629355E-1,-8.4727846E-2,-4.8956215E-1,1.4743954E-1,2.2747952E-2,1.7407587E-1,6.172215E-2,-5.005214E-1,6.407518E-2,-2.839284E-1,3.8520253E-1,2.3294291E-1,1.4915583E-1,3.4349787E-1,-2.1061499E-2,-5.574833E-1,6.6216394E-2,1.3232522E-1,1.4612046E-1,-4.3153487E-2,-3.6403853E-3,-6.584225E-4,1.2781225E-3,-5.0608814E-4,1.0426026E-3,4.152745E-3,1.2263203E-3,-6.3941174E-4,-1.5856483E-3,-4.268832E-3,-1.8452329E-3,8.0650457E-4,1.3803336E-3,4.772624E-3,2.536402E-4,-2.4352877E-3,1.2534574E-3,-2.4578872E-4,-3.8235076E-3,-7.8783004E-4,1.2785834E-3,-1.1319162E-3,-1.1624378E-3,2.186167E-3,-9.607823E-5,-5.5579664E-3,2.109972E-3,-3.1171483E-4,-1.5553804E-3,1.0649797E-3,-9.872308E-4,-4.245723E-3],"split_indices":[41,0,26,22,0,51,51,4,0,0,0,58,17,34,26,0,0,0,57,2,24,46,12,28,20,43,7,29,25,6,40,50,28,0,27,55,39,3,39,58,35,0,0,0,0,0,0,0,0,0,0,0,0,0,0,0,0,0,0,0,0,0,0,0,0,0,0,0,0,0,0,0,0],"split_type":[0,0,0,0,0,0,0,0,0,0,0,0,0,0,0,0,0,0,0,0,0,0,0,0,0,0,0,0,0,0,0,0,0,0,0,0,0,0,0,0,0,0,0,0,0,0,0,0,0,0,0,0,0,0,0,0,0,0,0,0,0,0,0,0,0,0,0,0,0,0,0,0,0],"sum_hessian":[6.57E2,1.7E1,6.4E2,1.3E1,4E0,3.91E2,2.49E2,6E0,7E0,3E0,1E0,2.83E2,1.08E2,1.67E2,8.2E1,4E0,2E0,3.5E1,2.48E2,5.2E1,5.6E1,1.7E1,1.5E2,2.9E1,5.3E1,2.6E1,9E0,9E0,2.39E2,7E0,4.5E1,4.3E1,1.3E1,6E0,1.1E1,7.2E1,7.8E1,4E0,2.5E1,3.3E1,2E1,1.6E1,1E1,5E0,4E0,6E0,3E0,2.6E1,2.13E2,4E0,3E0,1.3E1,3.2E1,3.8E1,5E0,9E0,4E0,5E0,1E0,7E0,4E0,3.7E1,3.5E1,9E0,6.9E1,2E0,2E0,1.9E1,6E0,1.9E1,1.4E1,8E0,1.2E1],"tree_param":{"num_deleted":"0","num_feature":"60","num_nodes":"73","size_leaf_vector":"0"}},{"base_weights":[-3.6194386E-5,9.658683E-7,-1.22252405E-2,5.040843E-4,-9.0465136E-4,4.032431E-4,1.4487435E-2,1.4135769E-3,-2.5158995E-3,6.216578E-4,-5.164233E-3,-7.770498E-3,2.1045103E-3,-7.822013E-3,-1.2836637E-3,1.3446691E-3,-1.2882529E-3,-8.5247625E-3,-1.6032925E-3,3.5778035E-3,-1.3025379E-2,3.1835513E-4,5.7257474E-3,-1.5536124E-2,-2.0296876E-3,1.854495E-3,-3.2827135E-3,-4.9186597E-4,2.4235626E-3,-5.6043323E-3,2.1715864E-4,-5.27632E-3,-1.218006E-2,-3.0171913E-3,2.2302356E-3,-1.4990568E-4,-1.6206771E-2,3.4036918E-3,-2.4961436E-3,-2.002897E-3,8.627204E-3,-8.423619E-3,-3.169493E-2,9.03219E-3,-4.2551123E-3,4.2164777E-3,-3.6767866E-3,-6.264418E-3,-2.9264775E-4],"categories":[],"categories_nodes":[],"categories_segments":[],"categories_sizes":[],"default_left":[1,1,0,1,1,1,0,1,1,1,1,1,1,1,1,1,1,1,1,0,1,1,1,1,1,1,1,0,0,0,0,0,0,0,0,0,0,0,0,0,0,0,0,0,0,0,0,0,0],"id":63,"left_children":[1,3,-1,5,7,9,-1,11,13,15,17,19,21,23,25,27,29,31,33,-1,35,37,39,41,43,45,47,-1,-1,-1,-1,-1,-1,-1,-1,-1,-1,-1,-1,-1,-1,-1,-1,-1,-1,-1,-1,-1,-1],"loss_changes":[2.9805163E-4,2.9980668E-4,0E0,5.9062935E-4,8.813381E-4,5.1515433E-4,0E0,6.3187483E-4,8.9879445E-4,5.623724E-4,1.7779862E-4,4.640401E-4,5.8677356E-4,1.1302151E-3,7.21248E-4,5.8571267E-4,7.289343E-4,3.072631E-5,5.5511042E-5,0E0,2.0238012E-4,5.46884E-4,6.900092E-4,9.972395E-4,4.3231098E-4,6.034187E-4,6.222512E-4,0E0,0E0,0E0,0E0,0E0,0E0,0E0,0E0,0E0,0E0,0E0,0E0,0E0,0E0,0E0,0E0,0E0,0E0,0E0,0E0,0E0,0E0],"parents":[2147483647,0,0,1,1,3,3,4,4,5,5,7,7,8,8,9,9,10,10,11,11,12,12,13,13,14,14,15,15,16,16,17,17,18,18,20,20,21,21,22,22,23,23,24,24,25,25,26,26],"right_children":[2,4,-1,6,8,10,-1,12,14,16,18,20,22,24,26,28,30,32,34,-1,36,38,40,42,44,46,48,-1,-1,-1,-1,-1,-1,-1,-1,-1,-1,-1,-1,-1,-1,-1,-1,-1,-1,-1,-1,-1,-1],"split_conditions":[1.7033888E0,1.3808976E-1,-3.6675723E-3,1.37489E-1,-8.375223E-2,7.271173E-1,4.3462305E-3,-6.526578E-1,2.1779373E-1,2.7535713E-1,9.0703845E-2,-2.294858E-1,1.6891706E-1,-1.2748402E-1,-1.3442996E-1,-8.465782E-2,-1.6729823E-1,4.377342E-1,5.028624E-1,1.0733411E-3,-1.3752009E-1,-2.07555E-2,-1.7283502E-1,3.304776E-1,-8.9343876E-2,1.5601632E-1,1.3099867E-1,-1.475598E-4,7.270688E-4,-1.6812998E-3,6.514759E-5,-1.5828961E-3,-3.6540183E-3,-9.051574E-4,6.690707E-4,-4.4971704E-5,-4.8620314E-3,1.0211075E-3,-7.4884313E-4,-6.008691E-4,2.5881613E-3,-2.5270858E-3,-9.508479E-3,2.709657E-3,-1.2765337E-3,1.2649434E-3,-1.103036E-3,-1.8793255E-3,-8.7794324E-5],"split_indices":[48,34,0,34,15,20,0,14,34,8,48,21,11,26,27,15,52,13,3,0,0,16,38,21,35,59,27,0,0,0,0,0,0,0,0,0,0,0,0,0,0,0,0,0,0,0,0,0,0],"split_type":[0,0,0,0,0,0,0,0,0,0,0,0,0,0,0,0,0,0,0,0,0,0,0,0,0,0,0,0,0,0,0,0,0,0,0,0,0,0,0,0,0,0,0,0,0,0,0,0,0],"sum_hessian":[6.57E2,6.56E2,1E0,4.22E2,2.34E2,4.2E2,2E0,9.6E1,1.38E2,4.05E2,1.5E1,6E0,9E1,2.5E1,1.13E2,2.94E2,1.11E2,7E0,8E0,2E0,4E0,6.1E1,2.9E1,1E1,1.5E1,4.4E1,6.9E1,1.09E2,1.85E2,2.8E1,8.3E1,5E0,2E0,6E0,2E0,1E0,3E0,2.9E1,3.2E1,8E0,2.1E1,8E0,2E0,2E0,1.3E1,3.1E1,1.3E1,3.4E1,3.5E1],"tree_param":{"num_deleted":"0","num_feature":"60","num_nodes":"49","size_leaf_vector":"0"}},{"base_weights":[-5.5443837E-5,3.8608324E-3,-1.7162166E-4,5.682261E-3,-2.37562E-3,-2.2198498E-2,-1.0241137E-4,1.402013E-4,7.0560924E-3,9.727329E-4,-3.4558913E-3,-6.3934753E-4,9.97517E-4,3.1614876E-3,8.608209E-3,-2.9280316E-4,-3.9201514E-3,4.850078E-3,3.534598E-4,1.9123331E-3,9.2915725E-3,1.5099681E-3,-1.1690842E-3,-1.2153663E-3,-6.988041E-3,8.374844E-3,2.2357183E-4,6.4238976E-3,-2.337719E-4,4.7299797E-3,4.5805904E-5,-2.641566E-3,6.6270755E-4,-5.9846793E-3,8.199607E-4,1.443943E-3,-8.659285E-3,2.614011E-3,1.2146025E-2,-3.1443925E-3,4.0407353E-3,-7.060379E-3,8.854535E-3,4.4179596E-3,-7.594097E-4],"categories":[],"categories_nodes":[],"categories_segments":[],"categories_sizes":[],"default_left":[1,1,1,1,1,0,1,0,1,0,0,1,1,0,1,1,1,1,1,0,0,1,1,1,1,1,1,1,1,0,0,0,0,0,0,0,0,0,0,0,0,0,0,0,0],"id":64,"left_children":[1,3,5,7,9,-1,11,-1,13,-1,-1,15,17,-1,19,21,23,25,27,-1,-1,29,31,33,35,37,39,41,43,-1,-1,-1,-1,-1,-1,-1,-1,-1,-1,-1,-1,-1,-1,-1,-1],"loss_changes":[3.0004236E-4,2.2932465E-4,9.73398E-4,1.13218586E-4,2.1447308E-5,0E0,3.780256E-4,1.7558105E-7,4.5323803E-5,0E0,0E0,4.8773809E-4,5.193524E-4,6.6312714E-7,1.8837105E-5,6.1786163E-4,3.3172424E-4,4.87348E-4,6.467221E-4,0E0,0E0,6.032546E-4,7.111352E-4,2.2817079E-4,2.8024951E-4,3.3757766E-4,1.9269063E-4,5.8692275E-4,4.0924596E-4,0E0,0E0,0E0,0E0,0E0,0E0,0E0,0E0,0E0,0E0,0E0,0E0,0E0,0E0,0E0,0E0],"parents":[2147483647,0,0,1,1,2,2,3,3,4,4,6,6,8,8,11,11,12,12,14,14,15,15,16,16,17,17,18,18,21,21,22,22,23,23,24,24,25,25,26,26,27,27,28,28],"right_children":[2,4,6,8,10,-1,12,-1,14,-1,-1,16,18,-1,20,22,24,26,28,-1,-1,30,32,34,36,38,40,42,44,-1,-1,-1,-1,-1,-1,-1,-1,-1,-1,-1,-1,-1,-1,-1,-1],"split_conditions":[-1.0245972E0,1.7851084E-1,-1.01268E0,-5.528458E-1,-4.2955328E-2,-6.6595497E-3,1.4268239E-1,4.206039E-5,-4.6785355E-1,2.918199E-4,-1.0367674E-3,5.091661E-1,-3.7492204E-1,9.4844634E-4,-8.458465E-1,-1.2578696E-1,4.2589813E-2,4.421685E-2,1.7317887E-1,5.7369994E-4,2.7874717E-3,-1.3898577E-1,4.6051137E-2,-2.3753582E-1,-3.2523063E-1,-4.3442875E-2,-1.3245842E-1,-2.9341286E-1,-4.6170154E-1,1.4189939E-3,1.3741772E-5,-7.924699E-4,1.9881227E-4,-1.7954039E-3,2.4598822E-4,4.3318293E-4,-2.5977856E-3,7.8420335E-4,3.6438077E-3,-9.433178E-4,1.2122206E-3,-2.1181137E-3,2.6563606E-3,1.325388E-3,-2.2782291E-4],"split_indices":[4,14,4,56,1,0,16,0,18,0,0,15,17,0,3,28,11,10,16,0,0,25,48,29,48,11,45,8,31,0,0,0,0,0,0,0,0,0,0,0,0,0,0,0,0],"split_type":[0,0,0,0,0,0,0,0,0,0,0,0,0,0,0,0,0,0,0,0,0,0,0,0,0,0,0,0,0,0,0,0,0,0,0,0,0,0,0,0,0,0,0,0,0],"sum_hessian":[6.57E2,1.8E1,6.39E2,1.4E1,4E0,1E0,6.38E2,3E0,1.1E1,1E0,3E0,4.29E2,2.09E2,4E0,7E0,3.89E2,4E1,2.9E1,1.8E2,1E0,6E0,1.27E2,2.62E2,2.2E1,1.8E1,1.6E1,1.3E1,1.5E1,1.65E2,3.9E1,8.8E1,1.45E2,1.17E2,6E0,1.6E1,3E0,1.5E1,7E0,9E0,7E0,6E0,2E0,1.3E1,1.6E1,1.49E2],"tree_param":{"num_deleted":"0","num_feature":"60","num_nodes":"45","size_leaf_vector":"0"}},{"base_weights":[-3.8197213E-5,3.9691925E-3,-1.4425241E-4,-1.6788304E-3,5.836187E-3,-5.6669343E-4,9.348194E-4,7.4250996E-4,-2.469793E-3,2.5410657E-3,9.256984E-3,-4.9484405E-4,-1.684463E-2,2.6230512E-3,-1.8435142E-3,4.251578E-3,6.644428E-4,1.0169101E-2,2.3481995E-3,8.2567474E-4,-1.4072367E-3,1.0806481E-2,2.1441288E-3,-8.7818075E-3,-5.1868806E-4,1.096502E-3,-5.3189695E-4,7.1498575E-3,3.5652186E-4,-4.559638E-3,-6.0911203E-4,4.2430064E-4,1.5891496E-2,3.311598E-4,4.320333E-3,-1.6798489E-3,-1.4420131E-2,-2.6020848E-3,3.103483E-3,2.5886488E-3,1.6765416E-2,-3.8351287E-4,3.7217892E-3,-5.793705E-3,3.4147217E-3,1.0406203E-3,-3.0767887E-3,-6.595552E-4,1.2960061E-3,4.520239E-3,-1.0420433E-3,1.4543019E-2,3.3374834E-3,4.5167133E-3,-3.822504E-3,-1.7006844E-2,-6.1644698E-3,-6.253319E-3,3.3759986E-4,5.691624E-3,-3.2556218E-3],"categories":[],"categories_nodes":[],"categories_segments":[],"categories_sizes":[],"default_left":[1,1,1,1,1,1,1,0,0,1,1,1,0,1,1,0,1,0,0,1,1,1,1,1,1,0,0,1,1,1,1,1,0,1,1,1,1,1,1,0,0,0,0,0,0,0,0,0,0,0,0,0,0,0,0,0,0,0,0,0,0],"id":65,"left_children":[1,3,5,7,9,11,13,-1,-1,15,17,19,-1,21,23,-1,25,-1,-1,27,29,31,33,35,37,-1,-1,39,41,43,45,47,-1,49,51,53,55,57,59,-1,-1,-1,-1,-1,-1,-1,-1,-1,-1,-1,-1,-1,-1,-1,-1,-1,-1,-1,-1,-1,-1],"loss_changes":[2.802255E-4,1.8906003E-4,2.9318174E-4,1.1409794E-5,1.2301258E-4,5.3200114E-4,8.538109E-4,0E0,0E0,2.2854962E-5,1.3930665E-5,5.5658934E-4,0E0,4.1970226E-4,6.296952E-4,0E0,3.1676736E-6,0E0,0E0,5.5821554E-4,6.8409316E-4,3.1001843E-4,4.246715E-4,4.1625084E-4,4.5331425E-4,0E0,0E0,5.267615E-4,4.4223078E-4,5.6103326E-4,8.9475204E-4,3.689197E-6,0E0,3.4985767E-4,4.437837E-4,9.692773E-5,2.3292028E-5,4.0998321E-4,3.8061145E-4,0E0,0E0,0E0,0E0,0E0,0E0,0E0,0E0,0E0,0E0,0E0,0E0,0E0,0E0,0E0,0E0,0E0,0E0,0E0,0E0,0E0,0E0],"parents":[2147483647,0,0,1,1,2,2,3,3,4,4,5,5,6,6,9,9,10,10,11,11,13,13,14,14,16,16,19,19,20,20,21,21,22,22,23,23,24,24,27,27,28,28,29,29,30,30,31,31,33,33,34,34,35,35,36,36,37,37,38,38],"right_children":[2,4,6,8,10,12,14,-1,-1,16,18,20,-1,22,24,-1,26,-1,-1,28,30,32,34,36,38,-1,-1,40,42,44,46,48,-1,50,52,54,56,58,60,-1,-1,-1,-1,-1,-1,-1,-1,-1,-1,-1,-1,-1,-1,-1,-1,-1,-1,-1,-1,-1,-1],"split_conditions":[-9.162921E-1,-2.6540202E-1,2.0995179E-1,-4.785648E-2,-2.1267546E-2,2.0968765E-1,1.3126916E-1,2.2275299E-4,-7.4093795E-4,2.0911753E-2,3.769375E-1,-8.352493E-2,-5.0533894E-3,-6.932263E-1,-4.5077562E-1,1.2754734E-3,2.539752E-1,3.0507303E-3,7.0445985E-4,-7.3733723E-1,4.240889E-2,-8.62069E-2,4.6051137E-2,4.374981E-4,8.471723E-2,3.2895058E-4,-1.5956908E-4,1.2595533E-1,3.0914232E-1,3.8227034E-1,8.319711E-2,-5.657661E-2,4.767449E-3,-2.5202057E-1,-5.324752E-1,-1.0864848E0,-4.385806E-2,-4.5478597E-2,1.0669911E-1,7.765947E-4,5.029625E-3,-1.1505387E-4,1.1165368E-3,-1.7381116E-3,1.0244165E-3,3.1218608E-4,-9.2303666E-4,-1.9786657E-4,3.8880185E-4,1.3560717E-3,-3.12613E-4,4.362906E-3,1.0012451E-3,1.355014E-3,-1.1467512E-3,-5.1020533E-3,-1.849341E-3,-1.8759958E-3,1.0127996E-4,1.7074872E-3,-9.766866E-4],"split_indices":[34,27,10,0,43,10,14,0,0,13,0,20,0,38,36,0,5,0,0,54,20,11,7,8,53,0,0,13,35,47,6,0,0,52,42,0,3,18,15,0,0,0,0,0,0,0,0,0,0,0,0,0,0,0,0,0,0,0,0,0,0],"split_type":[0,0,0,0,0,0,0,0,0,0,0,0,0,0,0,0,0,0,0,0,0,0,0,0,0,0,0,0,0,0,0,0,0,0,0,0,0,0,0,0,0,0,0,0,0,0,0,0,0,0,0,0,0,0,0,0,0,0,0,0,0],"sum_hessian":[6.57E2,1.6E1,6.41E2,4E0,1.2E1,4.61E2,1.8E2,1E0,3E0,7E0,5E0,4.6E2,1E0,1.12E2,6.8E1,3E0,4E0,4E0,1E0,1.88E2,2.72E2,5E0,1.07E2,1E1,5.8E1,3E0,1E0,1.2E1,1.76E2,5.4E1,2.18E2,2E0,3E0,5.9E1,4.8E1,5E0,5E0,3.7E1,2.1E1,9E0,3E0,1.45E2,3.1E1,4.7E1,7E0,1.31E2,8.7E1,1E0,1E0,1.4E1,4.5E1,3E0,4.5E1,1E0,4E0,3E0,2E0,1.6E1,2.1E1,1.5E1,6E0],"tree_param":{"num_deleted":"0","num_feature":"60","num_nodes":"61","size_leaf_vector":"0"}},{"base_weights":[-1.35297205E-5,-4.56172E-3,7.8018275E-5,-7.6998854E-3,-7.7188027E-4,2.6402206E-3,-9.0953894E-5,-2.1883994E-3,-8.253734E-3,8.074863E-4,-2.1582767E-3,-1.4095322E-3,4.2249383E-3,-6.438337E-3,1.5341731E-5,3.2697923E-3,-5.21902E-3,5.137314E-3,-2.7617405E-3,-1.3516264E-3,-1.3730496E-2,3.632239E-3,-1.2259082E-4,-1.4177561E-3,4.4908533E-3,-7.2390437E-3,-1.8942412E-3,-2.4981052E-4,5.850844E-3,-3.0851178E-3,1.9880682E-3,1.2404978E-3,9.8034665E-3,-3.256648E-4,2.2854316E-3,1.2830272E-3,4.9720528E-3,-9.502073E-4,9.2568994E-4,7.595113E-3,3.6190043E-3,4.3263286E-3,-8.359853E-4,-1.1727214E-5,1.17688505E-2,3.0260733E-3,-4.965694E-4,-5.657758E-3,3.897539E-3],"categories":[],"categories_nodes":[],"categories_segments":[],"categories_sizes":[],"default_left":[1,1,1,1,1,1,1,0,0,0,0,1,1,1,1,1,1,1,0,1,0,1,1,0,1,0,0,1,1,0,0,1,1,1,1,0,0,0,0,0,0,0,0,0,0,0,0,0,0],"id":66,"left_children":[1,3,5,7,9,11,13,-1,-1,-1,-1,15,17,19,21,23,25,27,-1,29,-1,31,33,-1,35,-1,-1,37,39,-1,-1,41,43,45,47,-1,-1,-1,-1,-1,-1,-1,-1,-1,-1,-1,-1,-1,-1],"loss_changes":[2.7433241E-4,1.4866749E-4,2.7991994E-4,3.3052056E-6,1.7070177E-5,2.626638E-4,4.0964107E-4,0E0,0E0,0E0,0E0,2.3097506E-4,1.9904779E-4,3.5237256E-4,2.9878027E-4,4.070963E-5,3.330043E-5,1.01402286E-4,3.9762563E-7,4.6658748E-5,0E0,3.125584E-4,2.8290108E-4,0E0,1.3387471E-6,0E0,2.2233417E-7,4.1728645E-6,6.205059E-5,0E0,5.0305334E-7,1.1254724E-4,1.1588179E-4,3.0681968E-4,5.982887E-4,0E0,0E0,0E0,0E0,0E0,0E0,0E0,0E0,0E0,0E0,0E0,0E0,0E0,0E0],"parents":[2147483647,0,0,1,1,2,2,3,3,4,4,5,5,6,6,11,11,12,12,13,13,14,14,15,15,16,16,17,17,19,19,21,21,22,22,24,24,27,27,28,28,31,31,32,32,33,33,34,34],"right_children":[2,4,6,8,10,12,14,-1,-1,-1,-1,16,18,20,22,24,26,28,-1,30,-1,32,34,-1,36,-1,-1,38,40,-1,-1,42,44,46,48,-1,-1,-1,-1,-1,-1,-1,-1,-1,-1,-1,-1,-1,-1],"split_conditions":[-1.2054915E0,2.1331158E-1,-6.459737E-1,-4.600625E-1,-9.119927E-2,-1.9505386E-1,-5.6953835E-1,-6.5651984E-4,-2.4761201E-3,2.422459E-4,-6.4748304E-4,2.2262238E-1,6.4861596E-1,6.2261276E-2,-4.583334E-1,-2.4689978E-1,1.380735E-1,-3.0074468E-1,-8.285222E-4,1.0840292E-1,-4.119149E-3,2.8218374E-1,5.847429E-1,-4.2532684E-4,-1.09561324E-1,-2.1717132E-3,-5.682724E-4,-1.4573772E-1,1.7783737E-1,-9.255354E-4,5.964205E-4,-4.6824932E-2,-2.7511367E-1,-5.918225E-1,-2.4653488E-1,3.849082E-4,1.4916159E-3,-2.850622E-4,2.77707E-4,2.278534E-3,1.0857013E-3,1.2978986E-3,-2.507956E-4,-3.5181642E-6,3.5306553E-3,9.0782205E-4,-1.4897082E-4,-1.6973275E-3,1.1692618E-3],"split_indices":[16,0,17,0,7,51,17,0,0,0,0,28,51,14,17,1,3,43,0,0,0,16,25,0,0,0,0,0,15,0,0,50,3,16,36,0,0,0,0,0,0,0,0,0,0,0,0,0,0],"split_type":[0,0,0,0,0,0,0,0,0,0,0,0,0,0,0,0,0,0,0,0,0,0,0,0,0,0,0,0,0,0,0,0,0,0,0,0,0,0,0,0,0,0,0,0,0,0,0,0,0],"sum_hessian":[6.57E2,1.2E1,6.45E2,6E0,6E0,3.9E1,6.06E2,1E0,5E0,3E0,3E0,1.1E1,2.8E1,9E0,5.97E2,5E0,6E0,2.5E1,3E0,6E0,3E0,2.1E1,5.76E2,1E0,4E0,3E0,3E0,3E0,2.2E1,4E0,2E0,1.6E1,5E0,5.32E2,4.4E1,1E0,3E0,2E0,1E0,1.1E1,1.1E1,6E0,1E1,1E0,4E0,2.5E1,5.07E2,7E0,3.7E1],"tree_param":{"num_deleted":"0","num_feature":"60","num_nodes":"49","size_leaf_vector":"0"}},{"base_weights":[-1.2420064E-5,7.400546E-3,-5.7671125E-5,4.742369E-4,9.551237E-3,-3.9013915E-4,9.819155E-4,-1.8199882E-4,-7.066248E-3,2.4780266E-3,-1.3987428E-3,-2.523806E-3,3.5339364E-4,-1.6960207E-2,1.4141931E-3,5.0561023E-3,7.609772E-4,1.140897E-4,-9.27688E-3,1.8581972E-4,-4.794836E-3,-2.580823E-5,5.311026E-3,-8.363761E-3,-2.1316603E-2,-3.431895E-3,1.2250334E-2,1.7572297E-3,8.102169E-3,-7.619061E-4,4.6577943E-3,-1.0154705E-3,5.749214E-3,2.5461838E-3,-1.0873463E-2,5.924419E-3,-1.3386866E-3,-2.459977E-3,-8.351983E-3,1.3251236E-3,-9.1414264E-4,1.1791326E-2,4.0617366E-3,-3.9168647E-3,-2.6103854E-4,4.0639583E-3,-3.1072604E-3,-1.9614447E-3,9.329318E-3,3.3594202E-4,-5.0686426E-3,1.3880004E-4,9.724312E-3,2.3969966E-3,-3.841324E-3,6.7241173E-3,-1.0250062E-3,-5.011145E-3,-1.29694315E-2],"categories":[],"categories_nodes":[],"categories_segments":[],"categories_sizes":[],"default_left":[1,1,1,0,0,1,1,1,1,1,1,1,1,1,1,1,1,1,1,1,1,1,1,0,0,1,0,1,1,1,1,1,1,0,1,0,0,0,0,0,0,0,0,0,0,0,0,0,0,0,0,0,0,0,0,0,0,0,0],"id":67,"left_children":[1,3,5,-1,-1,7,9,11,13,15,17,19,21,23,25,27,29,31,33,35,37,39,41,-1,-1,43,-1,45,47,49,51,53,55,-1,57,-1,-1,-1,-1,-1,-1,-1,-1,-1,-1,-1,-1,-1,-1,-1,-1,-1,-1,-1,-1,-1,-1,-1,-1],"loss_changes":[2.2114934E-4,5.505586E-5,2.2677027E-4,0E0,0E0,6.893289E-4,5.697811E-4,6.0647045E-4,1.2825622E-3,4.2996742E-4,7.399931E-4,5.5471866E-4,7.4083474E-4,8.3859544E-5,5.146579E-4,3.776576E-4,3.5961266E-4,3.4319438E-4,2.1645083E-4,3.7536924E-4,3.8642052E-4,4.416404E-4,1.7878832E-4,0E0,0E0,9.741925E-6,0E0,2.3704894E-4,2.652898E-4,2.0974103E-4,3.878749E-4,4.4314857E-4,6.633016E-5,0E0,4.559348E-5,0E0,0E0,0E0,0E0,0E0,0E0,0E0,0E0,0E0,0E0,0E0,0E0,0E0,0E0,0E0,0E0,0E0,0E0,0E0,0E0,0E0,0E0,0E0,0E0],"parents":[2147483647,0,0,1,1,2,2,5,5,6,6,7,7,8,8,9,9,10,10,11,11,12,12,13,13,14,14,15,15,16,16,17,17,18,18,19,19,20,20,21,21,22,22,25,25,27,27,28,28,29,29,30,30,31,31,32,32,34,34],"right_children":[2,4,6,-1,-1,8,10,12,14,16,18,20,22,24,26,28,30,32,34,36,38,40,42,-1,-1,44,-1,46,48,50,52,54,56,-1,58,-1,-1,-1,-1,-1,-1,-1,-1,-1,-1,-1,-1,-1,-1,-1,-1,-1,-1,-1,-1,-1,-1,-1,-1],"split_conditions":[-1.5087029E0,-4.0959805E-1,2.5226572E-1,1.4227108E-4,2.8653713E-3,2.2099474E-1,1.3126916E-1,-2.9458475E-1,-1.0775131E-1,-8.736031E-2,4.0302834E-1,2.099958E-2,1.700325E-1,-8.638085E-2,2.42491E-1,-4.2222865E-2,2.1428126E-1,6.463896E-1,-3.9880544E-1,-4.1260624E-1,1.9362262E-1,-8.592911E-2,1.7126954E-1,-2.5091283E-3,-6.394981E-3,5.045347E-1,3.6751004E-3,2.547231E-1,-9.1016006E-1,2.3101518E-1,-8.702742E-2,-2.1071872E-1,2.1585798E-1,7.638552E-4,-6.67997E-2,1.7773258E-3,-4.01606E-4,-7.3799316E-4,-2.5055949E-3,3.975371E-4,-2.742428E-4,3.537398E-3,1.218521E-3,-1.1750595E-3,-7.831157E-5,1.2191875E-3,-9.3217817E-4,-5.8843347E-4,2.7987955E-3,1.00782614E-4,-1.5205928E-3,4.1640014E-5,2.917294E-3,7.19099E-4,-1.1523972E-3,2.0172354E-3,-3.0750188E-4,-1.5033436E-3,-3.8908296E-3],"split_indices":[55,1,41,0,0,41,36,55,9,19,9,19,41,23,41,51,53,36,6,17,51,5,41,0,0,0,0,38,36,56,44,54,4,0,31,0,0,0,0,0,0,0,0,0,0,0,0,0,0,0,0,0,0,0,0,0,0,0,0],"split_type":[0,0,0,0,0,0,0,0,0,0,0,0,0,0,0,0,0,0,0,0,0,0,0,0,0,0,0,0,0,0,0,0,0,0,0,0,0,0,0,0,0,0,0,0,0,0,0,0,0,0,0,0,0,0,0,0,0,0,0],"sum_hessian":[6.57E2,3E0,6.54E2,1E0,2E0,4.96E2,1.58E2,4.82E2,1.4E1,9.7E1,6.1E1,8.9E1,3.93E2,6E0,8E0,3.8E1,5.9E1,5.2E1,9E0,4.1E1,4.8E1,3.66E2,2.7E1,3E0,3E0,6E0,2E0,1.9E1,1.9E1,4.3E1,1.6E1,4.4E1,8E0,1E0,8E0,8E0,3.3E1,3E1,1.8E1,1.45E2,2.21E2,3E0,2.4E1,5E0,1E0,1.3E1,6E0,2E0,1.7E1,3.5E1,8E0,9E0,7E0,2E1,2.4E1,7E0,1E0,3E0,5E0],"tree_param":{"num_deleted":"0","num_feature":"60","num_nodes":"59","size_leaf_vector":"0"}},{"base_weights":[-8.360791E-6,5.637723E-4,-4.8644314E-4,2.7500512E-3,-5.264555E-5,-5.8416785E-3,-2.683514E-4,1.445541E-3,7.957244E-3,-5.985194E-4,3.306901E-3,-2.8261996E-3,-1.0704299E-2,4.4596856E-4,-1.6702765E-3,5.9133E-4,9.698543E-3,3.043496E-3,1.1734243E-2,3.9051622E-4,-1.9486088E-3,7.628663E-3,1.0961932E-3,1.5756661E-3,-4.1236244E-3,-6.813244E-5,4.3137698E-3,-1.0355313E-3,-1.0189239E-2,-1.0383E-3,3.5461332E-3,5.5602007E-4,4.7700983E-3,3.0167499E-3,-9.949466E-4,-4.2393105E-3,2.32682E-4,1.2218927E-2,1.7669549E-3,2.4912944E-3,-3.2718088E-3,-4.5936233E-3,-4.1681528E-4,2.4900492E-4,-6.967109E-3,-2.1469498E-3,6.261925E-3,-4.952143E-4,-1.0318491E-2,-1.4593268E-2,-2.1368936E-3,1.5250269E-3,-2.2190954E-3,-2.4176613E-4,7.3608956E-3,-7.269792E-4,1.226013E-3,3.7483638E-3,-7.499814E-3,-2.675866E-4,-5.914236E-3,-7.2544627E-3,-5.599201E-4,1.1973091E-3,-4.378382E-3,2.2518039E-3,1.3761992E-2,2.210206E-3,-2.246499E-4,4.2919608E-4,4.098053E-3,-3.7855408E-4,-4.6237977E-3,1.3973152E-3,-1.7923486E-3,-1.0029425E-2,-6.3185766E-4,7.6524663E-4,-3.4648776E-3,8.225067E-3,-1.6770637E-5,4.7761705E-4,-4.923694E-3,-1.8649747E-3,-1.40790045E-2,-3.1151373E-3,3.98919E-4],"categories":[],"categories_nodes":[],"categories_segments":[],"categories_sizes":[],"default_left":[1,1,1,1,1,1,1,1,1,1,1,1,0,1,1,1,0,1,0,1,1,1,1,0,1,1,1,1,1,1,1,1,0,1,1,1,1,1,1,1,1,0,0,1,1,1,1,1,1,0,1,0,0,0,0,0,0,0,0,0,0,0,0,0,0,0,0,0,0,0,0,0,0,0,0,0,0,0,0,0,0,0,0,0,0,0,0],"id":68,"left_children":[1,3,5,7,9,11,13,15,17,19,21,23,-1,25,27,29,-1,31,-1,33,35,37,39,-1,41,43,45,47,49,51,53,55,-1,57,59,61,63,65,67,69,71,-1,-1,73,75,77,79,81,83,-1,85,-1,-1,-1,-1,-1,-1,-1,-1,-1,-1,-1,-1,-1,-1,-1,-1,-1,-1,-1,-1,-1,-1,-1,-1,-1,-1,-1,-1,-1,-1,-1,-1,-1,-1,-1,-1],"loss_changes":[1.8025482E-4,4.044432E-4,4.1772012E-4,4.3682475E-4,4.3294308E-4,1.7503137E-4,3.472373E-4,3.7495446E-4,2.0555669E-4,2.7182413E-4,3.0692457E-4,6.360835E-5,0E0,4.576352E-4,6.2211114E-4,2.4444377E-4,0E0,2.7411901E-5,0E0,4.3235032E-4,4.307015E-4,2.743844E-4,1.4830854E-4,0E0,1.202288E-5,4.480712E-4,3.5327917E-4,5.466216E-4,2.525178E-4,1.03267404E-4,2.6187848E-4,4.3296873E-6,0E0,3.4356868E-4,2.7750878E-4,4.6188285E-4,2.0540037E-4,6.1290164E-5,5.7932066E-6,5.788044E-5,2.1719527E-5,0E0,0E0,4.6194944E-4,1.682677E-4,2.9517942E-5,2.5898317E-4,4.5470888E-4,1.6448041E-4,0E0,1.1165259E-5,0E0,0E0,0E0,0E0,0E0,0E0,0E0,0E0,0E0,0E0,0E0,0E0,0E0,0E0,0E0,0E0,0E0,0E0,0E0,0E0,0E0,0E0,0E0,0E0,0E0,0E0,0E0,0E0,0E0,0E0,0E0,0E0,0E0,0E0,0E0,0E0],"parents":[2147483647,0,0,1,1,2,2,3,3,4,4,5,5,6,6,7,7,8,8,9,9,10,10,11,11,13,13,14,14,15,15,17,17,19,19,20,20,21,21,22,22,24,24,25,25,26,26,27,27,28,28,29,29,30,30,31,31,33,33,34,34,35,35,36,36,37,37,38,38,39,39,40,40,43,43,44,44,45,45,46,46,47,47,48,48,50,50],"right_children":[2,4,6,8,10,12,14,16,18,20,22,24,-1,26,28,30,-1,32,-1,34,36,38,40,-1,42,44,46,48,50,52,54,56,-1,58,60,62,64,66,68,70,72,-1,-1,74,76,78,80,82,84,-1,86,-1,-1,-1,-1,-1,-1,-1,-1,-1,-1,-1,-1,-1,-1,-1,-1,-1,-1,-1,-1,-1,-1,-1,-1,-1,-1,-1,-1,-1,-1,-1,-1,-1,-1,-1,-1],"split_conditions":[-2.07555E-2,-2.7322453E-1,-8.251932E-1,3.7492555E-1,-8.534617E-2,8.5471265E-2,1.285913E-1,6.317243E-1,1.1439608E-1,4.191998E-2,4.3615803E-2,-3.0107188E-1,-3.2112899E-3,4.6093576E-2,5.471428E-1,8.5453525E-2,2.909563E-3,-2.1236089E-1,3.520273E-3,-1.2523574E-1,4.191998E-2,-1.669113E-1,3.3641815E-1,4.7269984E-4,-1.2361823E0,6.610774E-1,-2.8706706E-1,7.040045E-1,3.621285E-1,-2.747934E-1,2.2512382E-2,-1.3424848E-1,1.4310295E-3,8.608162E-1,-1.253396E-1,8.693905E-2,5.3254974E-1,-4.6806702E-1,2.0548008E-2,-4.199916E-2,-6.63089E-2,-1.3780871E-3,-1.250446E-4,1.7119625E-1,2.0148152E-1,2.1635655E-2,2.6452228E-1,3.5900494E-1,2.2129506E-1,-4.3779807E-3,6.407633E-2,4.5750808E-4,-6.6572864E-4,-7.2529845E-5,2.2082687E-3,-2.1809377E-4,3.678039E-4,1.1245091E-3,-2.2499443E-3,-8.027599E-5,-1.7742709E-3,-2.1763388E-3,-1.6797603E-4,3.5919275E-4,-1.3135147E-3,6.755412E-4,4.1285977E-3,6.630618E-4,-6.7394976E-5,1.2875882E-4,1.229416E-3,-1.13566224E-4,-1.3871393E-3,4.1919458E-4,-5.377046E-4,-3.0088276E-3,-1.8955731E-4,2.29574E-4,-1.0394633E-3,2.46752E-3,-5.031191E-6,1.4328513E-4,-1.4771082E-3,-5.5949244E-4,-4.2237015E-3,-9.345412E-4,1.196757E-4],"split_indices":[44,27,1,2,44,21,2,18,56,29,48,21,0,2,5,58,0,8,0,7,56,47,15,0,1,20,27,11,2,3,4,0,0,35,44,27,18,0,0,24,2,0,0,22,15,9,48,58,1,0,1,0,0,0,0,0,0,0,0,0,0,0,0,0,0,0,0,0,0,0,0,0,0,0,0,0,0,0,0,0,0,0,0,0,0,0,0],"split_type":[0,0,0,0,0,0,0,0,0,0,0,0,0,0,0,0,0,0,0,0,0,0,0,0,0,0,0,0,0,0,0,0,0,0,0,0,0,0,0,0,0,0,0,0,0,0,0,0,0,0,0,0,0,0,0,0,0,0,0,0,0,0,0,0,0,0,0,0,0,0,0,0,0,0,0,0,0,0,0,0,0,0,0,0,0,0,0],"sum_hessian":[6.57E2,2.99E2,3.58E2,6.5E1,2.34E2,1.3E1,3.45E2,5.3E1,1.2E1,2.02E2,3.2E1,9E0,4E0,2.29E2,1.16E2,4.9E1,4E0,6E0,6E0,1.17E2,8.5E1,1E1,2.2E1,2E0,7E0,2.03E2,2.6E1,1.09E2,7E0,3.2E1,1.7E1,3E0,3E0,4E1,7.7E1,4.1E1,4.4E1,5E0,5E0,1.7E1,5E0,6E0,1E0,1.95E2,8E0,6E0,2E1,1.04E2,5E0,4E0,3E0,1E1,2.2E1,9E0,8E0,1E0,2E0,3.8E1,2E0,6.8E1,9E0,2.2E1,1.9E1,3.7E1,7E0,1E0,4E0,4E0,1E0,8E0,9E0,2E0,3E0,1.25E2,7E1,5E0,3E0,2E0,4E0,1.5E1,5E0,8.6E1,1.8E1,2E0,3E0,2E0,1E0],"tree_param":{"num_deleted":"0","num_feature":"60","num_nodes":"87","size_leaf_vector":"0"}},{"base_weights":[-1.8465096E-5,-5.725714E-3,2.519654E-5,-1.5065757E-3,-8.036281E-3,4.840767E-3,-4.193246E-5,9.784701E-3,-1.0713205E-3,-3.9055E-4,9.287335E-4,-2.0541325E-3,2.685984E-4,-1.9336546E-4,-6.04752E-3,4.7062495E-4,6.4603123E-3,1.9904026E-3,-4.1128186E-4,-1.02513535E-2,8.218881E-4,1.2469919E-3,-1.9501706E-3,9.651244E-3,-5.754262E-4,-4.2085834E-3,2.57516E-3,-8.892674E-4,9.111183E-4,-1.3025877E-2,-4.8716543E-3,1.9909318E-3,-3.0961868E-3,-1.7990165E-3,1.9420545E-3,-7.929496E-3,-1.513288E-4,1.2957215E-2,5.838722E-3,-2.0985082E-3,3.299713E-4],"categories":[],"categories_nodes":[],"categories_segments":[],"categories_sizes":[],"default_left":[1,1,1,0,0,1,1,0,1,1,1,0,0,1,1,1,1,1,1,1,1,1,1,1,1,0,0,0,0,0,0,0,0,0,0,0,0,0,0,0,0],"id":69,"left_children":[1,3,5,-1,-1,7,9,-1,11,13,15,-1,-1,17,19,21,23,25,27,29,31,33,35,37,39,-1,-1,-1,-1,-1,-1,-1,-1,-1,-1,-1,-1,-1,-1,-1,-1],"loss_changes":[1.6410984E-4,3.663574E-5,2.1161792E-4,0E0,0E0,2.7354332E-4,2.1896341E-4,0E0,7.1361783E-6,5.297929E-4,4.3028448E-4,0E0,7.087468E-8,2.2019877E-4,4.704711E-4,3.0126053E-4,2.9741088E-4,1.6308372E-4,2.662872E-4,8.580345E-5,3.8227103E-5,2.5967095E-4,4.1827853E-4,3.7783233E-5,7.5874204E-6,0E0,0E0,0E0,0E0,0E0,0E0,0E0,0E0,0E0,0E0,0E0,0E0,0E0,0E0,0E0,0E0],"parents":[2147483647,0,0,1,1,2,2,5,5,6,6,8,8,9,9,10,10,13,13,14,14,15,15,16,16,17,17,18,18,19,19,20,20,21,21,22,22,23,23,24,24],"right_children":[2,4,6,-1,-1,8,10,-1,12,14,16,-1,-1,18,20,22,24,26,28,30,32,34,36,38,40,-1,-1,-1,-1,-1,-1,-1,-1,-1,-1,-1,-1,-1,-1,-1,-1],"split_conditions":[-1.4298277E0,-2.298341E-2,-1.192253E0,-4.5197274E-4,-2.4108845E-3,-1.4970599E-1,2.290971E-1,2.9354105E-3,-2.0699659E-1,1.8779677E-1,5.671824E-1,-6.162398E-4,8.057953E-5,-5.1789093E-1,2.308282E-1,2.7580288E-1,1.737904E-1,-6.904301E-1,2.5047016E-1,-2.2716947E-2,3.7245017E-1,-4.520864E-1,3.382751E-1,-3.4071133E-1,-6.4431834E-1,-1.262575E-3,7.72548E-4,-2.6678023E-4,2.733355E-4,-3.9077634E-3,-1.4614963E-3,5.972796E-4,-9.288561E-4,-5.39705E-4,5.8261637E-4,-2.3788488E-3,-4.5398643E-5,3.8871646E-3,1.7516167E-3,-6.2955247E-4,9.89914E-5],"split_indices":[43,1,43,0,0,28,32,0,1,32,40,0,0,41,22,20,35,59,41,6,4,2,20,23,0,0,0,0,0,0,0,0,0,0,0,0,0,0,0,0,0],"split_type":[0,0,0,0,0,0,0,0,0,0,0,0,0,0,0,0,0,0,0,0,0,0,0,0,0,0,0,0,0,0,0,0,0,0,0,0,0,0,0,0,0],"sum_hessian":[6.57E2,4E0,6.53E2,2E0,2E0,8E0,6.45E2,4E0,4E0,4.75E2,1.7E2,2E0,2E0,4.6E2,1.5E1,1.58E2,1.2E1,4.1E1,4.19E2,9E0,6E0,1.2E2,3.8E1,8E0,4E0,3E0,3.8E1,3.08E2,1.11E2,5E0,4E0,5E0,1E0,2.2E1,9.8E1,8E0,3E1,3E0,5E0,1E0,3E0],"tree_param":{"num_deleted":"0","num_feature":"60","num_nodes":"41","size_leaf_vector":"0"}},{"base_weights":[-1.8882805E-5,8.587271E-3,-4.5052402E-5,6.03224E-4,-3.8181254E-4,-3.328384E-4,2.3039975E-3,-5.463674E-4,4.240207E-3,2.7935868E-4,-2.7093124E-3,6.020185E-3,1.2056583E-3,-1.1332269E-3,4.4019593E-4,-3.4001257E-4,7.331466E-3,8.6174614E-4,-4.066902E-3,-5.397996E-3,3.3923736E-4,9.254185E-3,8.209124E-4,-9.69914E-4,2.6624799E-3,-3.1434915E-3,-3.1453907E-4,1.0586706E-3,-3.6155763E-3,-1.2077168E-3,2.4331063E-3,2.4374754E-3,1.0759163E-2,-4.0048765E-4,2.4010614E-3,-4.8302407E-3,3.4208596E-4,-8.774691E-3,-2.494509E-3,1.9695954E-3,-3.315398E-3,1.0559733E-2,2.2528123E-3,-3.103006E-3,5.520582E-3,-2.7153706E-3,1.2927329E-3,3.7614815E-3,-3.825775E-3,-5.644851E-3,-6.2566716E-4,-9.4315934E-4,2.1112964E-3,-3.137235E-4,2.9333748E-3,-6.0766567E-3,2.1746787E-3,-1.9300978E-4,-1.6668178E-3,2.8778818E-3,3.379248E-4],"categories":[],"categories_nodes":[],"categories_segments":[],"categories_sizes":[],"default_left":[1,0,1,1,1,1,1,1,1,1,1,1,1,1,1,1,1,1,1,1,1,1,1,1,1,1,1,1,1,1,0,1,0,0,0,0,0,0,0,0,0,0,0,0,0,0,0,0,0,0,0,0,0,0,0,0,0,0,0,0,0],"id":70,"left_children":[1,-1,3,5,7,9,11,13,15,17,19,21,23,25,27,29,31,33,35,37,39,41,43,45,47,49,51,53,55,57,-1,59,-1,-1,-1,-1,-1,-1,-1,-1,-1,-1,-1,-1,-1,-1,-1,-1,-1,-1,-1,-1,-1,-1,-1,-1,-1,-1,-1,-1,-1],"loss_changes":[1.4858134E-4,0E0,1.4366239E-4,3.5897363E-4,3.3164598E-4,2.1316795E-4,3.1927245E-4,2.4308899E-4,2.1487245E-4,2.9965595E-4,2.4772872E-4,2.9506313E-4,2.0225588E-4,4.318512E-4,3.9764526E-4,1.9782232E-5,1.2475089E-4,2.0303106E-4,4.877006E-5,1.3497847E-4,9.590547E-5,7.67578E-5,1.6465936E-4,1.0619339E-4,2.8535348E-4,4.7511497E-4,2.8867804E-4,3.5339838E-4,3.124708E-4,2.4734063E-6,0E0,3.65077E-6,0E0,0E0,0E0,0E0,0E0,0E0,0E0,0E0,0E0,0E0,0E0,0E0,0E0,0E0,0E0,0E0,0E0,0E0,0E0,0E0,0E0,0E0,0E0,0E0,0E0,0E0,0E0,0E0,0E0],"parents":[2147483647,0,0,2,2,3,3,4,4,5,5,6,6,7,7,8,8,9,9,10,10,11,11,12,12,13,13,14,14,15,15,16,16,17,17,18,18,19,19,20,20,21,21,22,22,23,23,24,24,25,25,26,26,27,27,28,28,29,29,31,31],"right_children":[2,-1,4,6,8,10,12,14,16,18,20,22,24,26,28,30,32,34,36,38,40,42,44,46,48,50,52,54,56,58,-1,60,-1,-1,-1,-1,-1,-1,-1,-1,-1,-1,-1,-1,-1,-1,-1,-1,-1,-1,-1,-1,-1,-1,-1,-1,-1,-1,-1,-1,-1],"split_conditions":[-1.8839941E0,2.5761814E-3,-1.401222E-1,1.4141968E-1,7.3308134E-1,2.9624552E-1,-3.739918E-1,2.55429E-1,1.08770534E-1,8.3629526E-2,-2.2737607E-2,1.7684366E-1,-2.1052632E-2,-1.5326907E-1,4.0880567E-1,1.3666768E-3,2.247191E-2,6.481201E-2,3.1283367E-1,-8.548969E-2,1.3618869E-1,3.2506403E-1,-2.179599E-2,1.7137158E-1,3.237993E-1,2.1034919E-2,2.5047016E-1,8.3437994E-2,1.0740118E-1,-3.012437E-1,7.299319E-4,9.0837434E-2,3.227749E-3,-1.201463E-4,7.203184E-4,-1.4490723E-3,1.0262579E-4,-2.6324075E-3,-7.483528E-4,5.9087866E-4,-9.946194E-4,3.16792E-3,6.758437E-4,-9.309018E-4,1.6561748E-3,-8.146112E-4,3.878199E-4,1.1284444E-3,-1.1477326E-3,-1.6934554E-3,-1.8770016E-4,-2.8294782E-4,6.3338893E-4,-9.411705E-5,8.8001246E-4,-1.8229971E-3,6.524036E-4,-5.7902937E-5,-5.0004537E-4,8.6336455E-4,1.01377445E-4],"split_indices":[28,0,2,40,23,23,33,2,59,40,1,4,16,31,42,0,32,5,11,18,3,6,42,35,27,45,41,28,38,8,0,0,0,0,0,0,0,0,0,0,0,0,0,0,0,0,0,0,0,0,0,0,0,0,0,0,0,0,0,0,0],"split_type":[0,0,0,0,0,0,0,0,0,0,0,0,0,0,0,0,0,0,0,0,0,0,0,0,0,0,0,0,0,0,0,0,0,0,0,0,0,0,0,0,0,0,0,0,0,0,0,0,0,0,0,0,0,0,0,0,0,0,0,0,0],"sum_hessian":[6.57E2,1E0,6.56E2,2.24E2,4.32E2,1.45E2,7.9E1,4.18E2,1.4E1,1.16E2,2.9E1,1.7E1,6.2E1,2.62E2,1.56E2,6E0,8E0,1.03E2,1.3E1,1.5E1,1.4E1,1E1,7E0,2.5E1,3.7E1,7.5E1,1.87E2,1.36E2,2E1,5E0,1E0,4E0,4E0,5.7E1,4.6E1,1.1E1,2E0,6E0,9E0,1E1,4E0,8E0,2E0,4E0,3E0,1.4E1,1.1E1,3.2E1,5E0,3.7E1,3.8E1,1.49E2,3.8E1,7.9E1,5.7E1,1.4E1,6E0,2E0,3E0,3E0,1E0],"tree_param":{"num_deleted":"0","num_feature":"60","num_nodes":"61","size_leaf_vector":"0"}},{"base_weights":[-6.200592E-6,5.114442E-3,-4.5339755E-5,7.472038E-4,7.776866E-3,-6.991601E-5,8.0014765E-3,1.2284108E-4,-1.1895883E-3,1.6655354E-3,-7.3353636E-5,9.811232E-4,-2.7576166E-3,3.2377208E-3,-4.1532906E-4,-1.9614059E-3,2.0588124E-4,2.6124604E-3,-1.0452918E-3,-9.673622E-3,-1.7342234E-3,9.816464E-4,5.204648E-3,1.1266598E-3,-1.8268301E-3,-2.3728446E-3,7.195463E-3,6.892992E-4,-1.0180932E-3,2.5673243E-4,4.7504837E-3,1.7312206E-3,-2.160562E-3,-1.643149E-2,-3.6841773E-3,-2.1735043E-3,5.872346E-3],"categories":[],"categories_nodes":[],"categories_segments":[],"categories_sizes":[],"default_left":[1,1,1,0,0,1,0,1,1,1,1,1,1,1,1,1,1,1,1,1,1,0,0,0,0,0,0,0,0,0,0,0,0,0,0,0,0],"id":71,"left_children":[1,3,5,-1,-1,7,-1,9,11,13,15,17,19,21,23,25,27,29,31,33,35,-1,-1,-1,-1,-1,-1,-1,-1,-1,-1,-1,-1,-1,-1,-1,-1],"loss_changes":[1.3210672E-4,5.23263E-5,1.2989485E-4,0E0,0E0,1.4107973E-4,0E0,1.6901118E-4,3.2946432E-4,2.074495E-4,2.619E-4,1.382672E-4,3.7958025E-4,1.5464213E-4,6.300075E-5,2.581931E-4,2.5690408E-4,1.1462219E-4,6.2575076E-5,2.2279465E-4,1.798346E-4,0E0,0E0,0E0,0E0,0E0,0E0,0E0,0E0,0E0,0E0,0E0,0E0,0E0,0E0,0E0,0E0],"parents":[2147483647,0,0,1,1,2,2,5,5,7,7,8,8,9,9,10,10,11,11,12,12,13,13,14,14,15,15,16,16,17,17,18,18,19,19,20,20],"right_children":[2,4,6,-1,-1,8,-1,10,12,14,16,18,20,22,24,26,28,30,32,34,36,-1,-1,-1,-1,-1,-1,-1,-1,-1,-1,-1,-1,-1,-1,-1,-1],"split_conditions":[-1.4727635E0,1.9389309E-2,1.2691524E0,2.2416115E-4,2.33306E-3,3.807466E-1,2.400443E-3,-4.619915E-1,-1.3375986E-1,2.286237E-2,-2.5364617E-1,1.1513494E-1,-4.4971782E-1,-7.7158993E-1,-1.09189615E-1,5.216342E-1,1.8828836E-1,1.9629875E-1,-2.046696E-1,-2.6651773E-1,5.133511E-1,2.9449392E-4,1.5613944E-3,3.3799795E-4,-5.4804905E-4,-7.118534E-4,2.158639E-3,2.0678977E-4,-3.0542797E-4,7.701973E-5,1.4251452E-3,5.1936624E-4,-6.481686E-4,-4.929447E-3,-1.1052532E-3,-6.520513E-4,1.7617039E-3],"split_indices":[26,0,7,0,0,7,0,36,44,54,36,27,3,36,24,52,59,2,25,6,20,0,0,0,0,0,0,0,0,0,0,0,0,0,0,0,0],"split_type":[0,0,0,0,0,0,0,0,0,0,0,0,0,0,0,0,0,0,0,0,0,0,0,0,0,0,0,0,0,0,0,0,0,0,0,0,0],"sum_hessian":[6.57E2,4E0,6.53E2,2E0,2E0,6.52E2,1E0,5.57E2,9.5E1,6.2E1,4.95E2,4E1,5.5E1,3.5E1,2.7E1,6.3E1,4.32E2,2.2E1,1.8E1,6E0,4.9E1,1.7E1,1.8E1,1.3E1,1.4E1,6.1E1,2E0,3.1E2,1.22E2,1.1E1,1.1E1,5E0,1.3E1,2E0,4E0,4.7E1,2E0],"tree_param":{"num_deleted":"0","num_feature":"60","num_nodes":"37","size_leaf_vector":"0"}},{"base_weights":[2.3451687E-6,-5.723808E-3,3.7310463E-5,-1.0284372E-2,-7.754962E-4,-1.5152013E-4,9.4436976E-4,-1.5497208E-3,3.8647652E-4,1.21758014E-4,-1.441524E-3,6.11369E-4,6.7809895E-3,-2.646627E-3,2.637737E-4,6.22294E-4,-2.953797E-3,1.96997E-3,-1.064701E-3,2.6761852E-3,9.993732E-3,1.5571528E-3,-4.7122007E-3,2.5934894E-3,-9.390794E-5,2.9045604E-3,-1.1153348E-3,8.5862666E-5,-5.1412354E-3,1.07515785E-4,3.7087975E-3,4.6360015E-4,-3.502208E-3,3.4104388E-3,2.367124E-4,2.9631944E-3,-5.896874E-4,-7.4336003E-3,-1.4017764E-3,8.906181E-3,1.8152271E-3,-5.4782745E-4,1.5180979E-3,8.301681E-3,7.6954876E-4,1.1313091E-3,-4.373767E-3,4.749187E-3,-1.3912851E-3,-7.7215335E-3,-1.9727803E-4,1.1280563E-3,-2.399085E-3,4.863791E-3,3.4505915E-4,2.790253E-3,-6.15042E-4,-4.7481223E-3,2.3570005E-3],"categories":[],"categories_nodes":[],"categories_segments":[],"categories_sizes":[],"default_left":[1,1,1,0,1,1,1,0,0,1,1,1,1,1,1,1,1,1,1,1,0,1,1,1,1,1,1,1,1,1,1,1,1,0,0,0,0,0,0,0,0,0,0,0,0,0,0,0,0,0,0,0,0,0,0,0,0,0,0],"id":72,"left_children":[1,3,5,-1,7,9,11,-1,-1,13,15,17,19,21,23,25,27,29,31,33,-1,35,37,39,41,43,45,47,49,51,53,55,57,-1,-1,-1,-1,-1,-1,-1,-1,-1,-1,-1,-1,-1,-1,-1,-1,-1,-1,-1,-1,-1,-1,-1,-1,-1,-1],"loss_changes":[1.319561E-4,8.2292885E-5,1.1233185E-4,0E0,3.2978141E-6,1.9159923E-4,2.15481E-4,0E0,0E0,1.7722428E-4,2.9833848E-4,2.4802535E-4,5.2380987E-5,1.983684E-4,3.5689442E-4,1.6583457E-4,3.6614027E-4,1.9391048E-4,1.8416063E-4,6.3574716E-6,0E0,2.5895728E-5,1.2471454E-4,2.6387026E-4,2.7303185E-4,2.0102393E-4,1.8064097E-4,1.7192954E-4,4.0669699E-4,7.9448946E-5,1.1875969E-4,7.9514524E-5,1.4989267E-4,0E0,0E0,0E0,0E0,0E0,0E0,0E0,0E0,0E0,0E0,0E0,0E0,0E0,0E0,0E0,0E0,0E0,0E0,0E0,0E0,0E0,0E0,0E0,0E0,0E0,0E0],"parents":[2147483647,0,0,1,1,2,2,4,4,5,5,6,6,9,9,10,10,11,11,12,12,13,13,14,14,15,15,16,16,17,17,18,18,19,19,21,21,22,22,23,23,24,24,25,25,26,26,27,27,28,28,29,29,30,30,31,31,32,32],"right_children":[2,4,6,-1,8,10,12,-1,-1,14,16,18,20,22,24,26,28,30,32,34,-1,36,38,40,42,44,46,48,50,52,54,56,58,-1,-1,-1,-1,-1,-1,-1,-1,-1,-1,-1,-1,-1,-1,-1,-1,-1,-1,-1,-1,-1,-1,-1,-1,-1,-1],"split_conditions":[-1.5232365E0,-1.4377795E-2,3.3465803E-1,-3.0853117E-3,1.9157088E-1,1.6827938E-1,9.0644646E-1,-4.6491626E-4,1.1594296E-4,-8.081554E-1,-4.6289355E-2,9.356812E-2,2.5661963E-1,-9.3309045E-2,-3.751564E-1,-4.561537E-2,-1.25866E-1,4.2401906E-2,4.544816E-2,2.0178296E-1,2.9981197E-3,2.0981956E-2,1.3442779E-1,-4.4350746E-1,4.272596E-2,-1.9629687E-1,1.6775131E-1,-4.7138E-1,2.6327318E-1,6.8798995E-1,2.5386137E-1,-2.3522517E-1,2.8461486E-1,1.0231317E-3,7.1013725E-5,8.8895834E-4,-1.7690622E-4,-2.23008E-3,-4.2053295E-4,2.6718543E-3,5.445682E-4,-1.6434824E-4,4.554294E-4,2.4905044E-3,2.3086464E-4,3.3939275E-4,-1.3121301E-3,1.4247561E-3,-4.1738554E-4,-2.3164602E-3,-5.918341E-5,3.384169E-4,-7.1972556E-4,1.4591374E-3,1.0351775E-4,8.3707593E-4,-1.8451261E-4,-1.4244367E-3,7.0710015E-4],"split_indices":[47,1,43,0,0,43,24,0,0,33,34,4,4,36,33,37,41,20,49,0,0,2,7,10,43,39,11,13,41,43,37,25,17,0,0,0,0,0,0,0,0,0,0,0,0,0,0,0,0,0,0,0,0,0,0,0,0,0,0],"split_type":[0,0,0,0,0,0,0,0,0,0,0,0,0,0,0,0,0,0,0,0,0,0,0,0,0,0,0,0,0,0,0,0,0,0,0,0,0,0,0,0,0,0,0,0,0,0,0,0,0,0,0,0,0,0,0,0,0,0,0],"sum_hessian":[6.57E2,3E0,6.54E2,1E0,2E0,5.42E2,1.12E2,1E0,1E0,4.48E2,9.4E1,1.07E2,5E0,2.1E1,4.27E2,4E1,5.4E1,5.9E1,4.8E1,3E0,2E0,7E0,1.4E1,5.6E1,3.71E2,1.7E1,2.3E1,2.3E1,3.1E1,2.9E1,3E1,3E1,1.8E1,2E0,1E0,4E0,3E0,7E0,7E0,5E0,5.1E1,2.9E2,8.1E1,4E0,1.3E1,1.4E1,9E0,5E0,1.8E1,2E1,1.1E1,2.1E1,8E0,2.2E1,8E0,9E0,2.1E1,1.5E1,3E0],"tree_param":{"num_deleted":"0","num_feature":"60","num_nodes":"59","size_leaf_vector":"0"}},{"base_weights":[7.301397E-6,-4.1396194E-3,4.5393623E-5,-2.0123161E-3,-5.596151E-3,-1.3963106E-3,1.5184896E-4,5.8795634E-4,-3.497497E-3,1.960116E-3,-2.8639636E-6,1.9573525E-3,-5.0072195E-3,-5.2393565E-4,-5.5158134E-3,3.213197E-3,-1.2159694E-4,-3.476297E-4,8.216834E-4,4.9155373E-3,6.435883E-4,1.9694678E-3,-3.4112327E-3,-7.2607454E-3,-2.2699356E-3,8.209333E-3,1.8855963E-3,-1.0303227E-3,2.6288999E-3,-2.4915885E-4,-8.0179125E-3,3.4698737E-3,4.3515133E-4,9.743478E-4,5.5089057E-3,1.7601016E-3,-1.324532E-3,-4.197949E-3,-1.4874389E-3,2.3330075E-3,8.917997E-3,6.686935E-4,6.6194693E-3,-2.248399E-3,1.1715248E-3,2.1577992E-4,-1.3477817E-3,-1.1637136E-3,-9.440534E-3,7.248807E-3,1.4750466E-3,1.8288521E-3,-7.0582895E-4],"categories":[],"categories_nodes":[],"categories_segments":[],"categories_sizes":[],"default_left":[1,1,1,0,0,1,1,1,1,1,1,1,0,1,1,1,1,1,1,1,1,0,1,0,0,1,1,1,0,1,1,1,1,0,0,0,0,0,0,0,0,0,0,0,0,0,0,0,0,0,0,0,0],"id":73,"left_children":[1,3,5,-1,-1,7,9,11,13,15,17,19,-1,21,23,25,27,29,31,33,35,-1,37,-1,-1,39,41,43,-1,45,47,49,51,-1,-1,-1,-1,-1,-1,-1,-1,-1,-1,-1,-1,-1,-1,-1,-1,-1,-1,-1,-1],"loss_changes":[1.0412918E-4,7.329676E-6,1.0043259E-4,0E0,0E0,1.8967551E-4,1.7038084E-4,1.9368916E-4,1.2914502E-4,1.2560135E-4,1.6004857E-4,7.4563555E-5,0E0,7.8710276E-5,5.7148427E-5,1.835067E-4,5.019812E-5,2.9785605E-4,1.684094E-4,8.663876E-6,3.5292796E-5,7.900544E-7,1.3232093E-6,0E0,0E0,4.1802996E-6,1.3959019E-4,4.2864325E-5,0E0,2.0103224E-4,3.7768565E-5,1.4761236E-4,2.3345789E-4,0E0,0E0,0E0,0E0,0E0,0E0,0E0,0E0,0E0,0E0,0E0,0E0,0E0,0E0,0E0,0E0,0E0,0E0,0E0,0E0],"parents":[2147483647,0,0,1,1,2,2,5,5,6,6,7,7,8,8,9,9,10,10,11,11,13,13,14,14,15,15,16,16,17,17,18,18,19,19,20,20,22,22,25,25,26,26,27,27,29,29,30,30,31,31,32,32],"right_children":[2,4,6,-1,-1,8,10,12,14,16,18,20,-1,22,24,26,28,30,32,34,36,-1,38,-1,-1,40,42,44,-1,46,48,50,52,-1,-1,-1,-1,-1,-1,-1,-1,-1,-1,-1,-1,-1,-1,-1,-1,-1,-1,-1,-1],"split_conditions":[-1.3240305E0,-4.710032E-2,-5.952191E-1,-6.036949E-4,-1.6788454E-3,6.8775475E-2,-4.0586495E-1,5.25059E-1,-1.2483448E-4,1.04611285E-1,2.1133019E-1,-1.1047068E-1,-1.5021659E-3,2.229041E-1,2.007408E-1,-3.3406615E-1,3.6480403E-1,2.0907491E-1,-3.8618368E-1,-1.1248181E0,1.7740718E-1,5.9084035E-4,3.2942832E-1,-2.1782238E-3,-6.809807E-4,-1.3065742E-1,2.8980654E-1,1.3833086E-1,7.8867E-4,2.1030518E-1,1.8886432E-1,-1.6227119E-1,-4.208922E-2,2.9230435E-4,1.6526718E-3,5.280305E-4,-3.973596E-4,-1.2593848E-3,-4.462317E-4,6.999023E-4,2.6753992E-3,2.0060806E-4,1.985841E-3,-6.745197E-4,3.5145745E-4,6.473398E-5,-4.0433454E-4,-3.491141E-4,-2.8321603E-3,2.1746422E-3,4.42514E-4,5.4865563E-4,-2.1174869E-4],"split_indices":[40,0,29,0,0,54,29,2,24,56,12,34,0,58,43,45,52,12,18,1,36,0,0,0,0,1,55,28,0,25,2,52,48,0,0,0,0,0,0,0,0,0,0,0,0,0,0,0,0,0,0,0,0],"split_type":[0,0,0,0,0,0,0,0,0,0,0,0,0,0,0,0,0,0,0,0,0,0,0,0,0,0,0,0,0,0,0,0,0,0,0,0,0,0,0,0,0,0,0,0,0,0,0,0,0,0,0,0,0],"sum_hessian":[6.57E2,5E0,6.52E2,3E0,2E0,4.4E1,6.08E2,2.3E1,2.1E1,4.7E1,5.61E2,1.9E1,4E0,9E0,1.2E1,2.9E1,1.8E1,3.96E2,1.65E2,5E0,1.4E1,5E0,4E0,7E0,5E0,5E0,2.4E1,1.4E1,4E0,3.92E2,4E0,2E1,1.45E2,1E0,4E0,9E0,5E0,2E0,2E0,1E0,4E0,2E1,4E0,9E0,5E0,2.76E2,1.16E2,1E0,3E0,6E0,1.4E1,6.5E1,8E1],"tree_param":{"num_deleted":"0","num_feature":"60","num_nodes":"53","size_leaf_vector":"0"}},{"base_weights":[4.7737867E-6,-1.6942459E-4,8.033886E-4,8.455979E-4,-4.2454703E-4,-3.2777924E-3,1.2963316E-3,2.3359118E-3,-6.6009065E-4,-5.826546E-3,-2.830659E-4,-8.7795936E-4,-5.209369E-3,2.0488682E-3,-7.7243365E-4,4.2559295E-3,3.0664152E-5,-2.9574973E-3,7.372131E-4,-8.130515E-3,2.3802929E-4,-5.853091E-5,-2.1678589E-3,-1.416266E-3,1.17594E-3,3.582782E-3,8.443808E-4,8.7410514E-4,-2.5990184E-3,-4.4501945E-4,5.706002E-3,-9.1510924E-4,3.3357602E-3,-6.894287E-4,-4.300199E-3,2.94475E-3,-1.2767521E-3,-4.385814E-3,-1.0778762E-2,-1.5522726E-3,1.3522208E-3,-2.1057388E-4,3.0024739E-3,-3.5199418E-3,2.3313009E-3,4.658054E-3,-1.2301318E-3,-2.9430116E-4,2.9266356E-3,-1.671994E-5,3.5507604E-3,-3.1792745E-4,-4.270096E-3,5.54733E-4,-1.1558175E-3,6.585506E-3,1.2226872E-3,2.4099674E-4,-2.823906E-3,3.8441613E-3,3.9687753E-4,7.353455E-4,-1.9763173E-3,-6.419085E-3,-1.5669987E-3,2.7368142E-4,3.7455647E-3,-2.3182335E-3,5.05056E-3,-1.2078017E-3,2.586124E-4,5.8873445E-3,6.3143397E-4,4.526501E-4,-4.1971286E-3,-1.6285107E-3,2.890133E-3,1.976403E-3,6.8503916E-3,-2.0971983E-3,6.250229E-4,-1.304982E-3,2.6481939E-3,3.6053506E-3,7.123925E-4,-1.2458023E-3,9.0718176E-4,-7.274188E-4,4.7053397E-4,-4.795777E-3,-2.9516406E-4],"categories":[],"categories_nodes":[],"categories_segments":[],"categories_sizes":[],"default_left":[1,1,1,1,1,1,1,1,1,1,1,1,0,1,1,1,1,1,1,1,1,1,1,0,0,1,1,1,1,1,1,1,1,1,1,1,1,0,0,0,0,1,1,1,1,1,1,1,1,1,0,1,1,0,0,0,0,0,0,0,0,0,0,0,0,0,0,0,0,0,0,0,0,0,0,0,0,0,0,0,0,0,0,0,0,0,0,0,0,0,0],"id":74,"left_children":[1,3,5,7,9,11,13,15,17,19,21,23,-1,25,27,29,31,33,35,37,39,41,43,-1,-1,45,47,49,51,53,55,57,59,61,63,65,67,-1,-1,-1,-1,69,71,73,75,77,79,81,83,85,-1,87,89,-1,-1,-1,-1,-1,-1,-1,-1,-1,-1,-1,-1,-1,-1,-1,-1,-1,-1,-1,-1,-1,-1,-1,-1,-1,-1,-1,-1,-1,-1,-1,-1,-1,-1,-1,-1,-1,-1],"loss_changes":[9.1675356E-5,1.4045367E-4,2.4164031E-4,2.4613235E-4,3.292844E-4,5.5687386E-5,1.6660572E-4,2.4330593E-4,1.7873994E-4,1.556339E-4,1.7888755E-4,9.404837E-6,6.7176006E-7,1.4108603E-4,8.949055E-5,2.0704075E-4,8.432526E-5,6.0987455E-5,1.5936629E-4,3.2061478E-5,1.0077973E-5,1.7702045E-4,2.8195168E-4,1.0623444E-7,0E0,1.8168654E-4,1.07557484E-4,3.8210273E-5,5.2008734E-5,6.3261464E-6,8.2639104E-5,4.7022746E-5,7.4391282E-6,1.7955004E-5,6.522871E-5,3.533844E-5,1.3691415E-4,0E0,0E0,0E0,0E0,1.6968694E-4,1.19405115E-4,9.605641E-5,2.9048184E-5,1.5107525E-4,1.2570595E-5,9.2673545E-5,2.1477026E-5,1.5892334E-5,0E0,2.6023522E-6,1.530083E-5,0E0,0E0,0E0,0E0,0E0,0E0,0E0,0E0,0E0,0E0,0E0,0E0,0E0,0E0,0E0,0E0,0E0,0E0,0E0,0E0,0E0,0E0,0E0,0E0,0E0,0E0,0E0,0E0,0E0,0E0,0E0,0E0,0E0,0E0,0E0,0E0,0E0,0E0],"parents":[2147483647,0,0,1,1,2,2,3,3,4,4,5,5,6,6,7,7,8,8,9,9,10,10,11,11,13,13,14,14,15,15,16,16,17,17,18,18,19,19,20,20,21,21,22,22,25,25,26,26,27,27,28,28,29,29,30,30,31,31,32,32,33,33,34,34,35,35,36,36,41,41,42,42,43,43,44,44,45,45,46,46,47,47,48,48,49,49,51,51,52,52],"right_children":[2,4,6,8,10,12,14,16,18,20,22,24,-1,26,28,30,32,34,36,38,40,42,44,-1,-1,46,48,50,52,54,56,58,60,62,64,66,68,-1,-1,-1,-1,70,72,74,76,78,80,82,84,86,-1,88,90,-1,-1,-1,-1,-1,-1,-1,-1,-1,-1,-1,-1,-1,-1,-1,-1,-1,-1,-1,-1,-1,-1,-1,-1,-1,-1,-1,-1,-1,-1,-1,-1,-1,-1,-1,-1,-1,-1],"split_conditions":[3.7197655E-1,-2.9337808E-1,-5.105343E-1,4.3174222E-2,-2.7341193E-1,1.3723698E-1,1.8323505E-1,1.1111661E-1,-1.3534959E-1,2.1295105E-1,4.1981795E-1,2.2397216E-2,-1.5628109E-3,5.0861704E-1,2.1141648E-2,-2.2717416E-1,-4.3706194E-2,-4.8242834E-1,4.286377E-2,1.5287253E-1,1.170412E-1,7.3308134E-1,3.4936744E-1,-4.248798E-4,3.5278202E-4,4.039861E-1,1.6824456E-1,2.7302036E-1,8.63601E-2,1.8099266E-1,3.4706867E-1,-2.4091682E-1,3.2524726E-1,4.5587838E-1,-1.07598424E-1,-2.7533448E-1,4.3779504E-1,-1.3157442E-3,-3.2336288E-3,-4.656818E-4,4.0566624E-4,-1.2497401E-1,-6.4259574E-2,-3.8079897E-1,-3.5037053E-1,-2.2381378E-2,3.1627533E-1,2.313351E-1,2.6184547E-1,-2.2810219E-2,1.0652281E-3,-2.1236199E-1,4.7833106E-1,1.664199E-4,-3.4674528E-4,1.9756518E-3,3.6680617E-4,7.229902E-5,-8.471718E-4,1.1532485E-3,1.1906326E-4,2.2060364E-4,-5.928952E-4,-1.9257256E-3,-4.7009962E-4,8.210443E-5,1.1236694E-3,-6.954701E-4,1.5151681E-3,-3.6234054E-4,7.758372E-5,1.7662034E-3,1.894302E-4,1.3579504E-4,-1.2591386E-3,-4.885532E-4,8.6703995E-4,5.9292093E-4,2.0551176E-3,-6.291595E-4,1.8750688E-4,-3.9149463E-4,7.944582E-4,1.0816052E-3,2.1371777E-4,-3.737407E-4,2.7215455E-4,-2.1822566E-4,1.411602E-4,-1.4387332E-3,-8.854922E-5],"split_indices":[15,6,40,17,6,14,57,23,24,34,54,1,0,15,27,48,17,6,35,7,0,23,57,0,0,56,44,19,31,2,3,17,0,17,33,32,51,0,0,0,0,53,1,39,2,17,4,39,11,1,0,0,1,0,0,0,0,0,0,0,0,0,0,0,0,0,0,0,0,0,0,0,0,0,0,0,0,0,0,0,0,0,0,0,0,0,0,0,0,0,0],"split_type":[0,0,0,0,0,0,0,0,0,0,0,0,0,0,0,0,0,0,0,0,0,0,0,0,0,0,0,0,0,0,0,0,0,0,0,0,0,0,0,0,0,0,0,0,0,0,0,0,0,0,0,0,0,0,0,0,0,0,0,0,0,0,0,0,0,0,0,0,0,0,0,0,0,0,0,0,0,0,0,0,0,0,0,0,0,0,0,0,0,0,0],"sum_hessian":[6.57E2,5.4E2,1.17E2,1.08E2,4.32E2,1.2E1,1.05E2,5.4E1,5.4E1,1E1,4.22E2,6E0,6E0,7.7E1,2.8E1,2.9E1,2.5E1,2E1,3.4E1,7E0,3E0,3.78E2,4.4E1,5E0,1E0,3.3E1,4.4E1,1.5E1,1.3E1,7E0,2.2E1,2E1,5E0,8E0,1.2E1,1.6E1,1.8E1,4E0,3E0,1E0,2E0,3.61E2,1.7E1,3.4E1,1E1,2.7E1,6E0,2.9E1,1.5E1,1.2E1,3E0,6E0,7E0,3E0,4E0,1.8E1,4E0,1.3E1,7E0,4E0,1E0,4E0,4E0,6E0,6E0,4E0,1.2E1,1.6E1,2E0,1.15E2,2.46E2,7E0,1E1,5E0,2.9E1,1E0,9E0,1.3E1,1.4E1,4E0,2E0,2.2E1,7E0,1.1E1,4E0,5E0,7E0,4E0,2E0,6E0,1E0],"tree_param":{"num_deleted":"0","num_feature":"60","num_nodes":"91","size_leaf_vector":"0"}},{"base_weights":[3.131581E-6,4.000711E-3,-2.7435739E-5,6.034573E-4,6.064394E-3,1.540648E-3,-1.0793533E-4,-1.646632E-3,2.0547821E-3,6.0649083E-5,-9.4019604E-4,1.5143926E-4,-2.8958258E-3,2.7067547E-3,-2.8781485E-4,-5.459034E-4,3.9542987E-4,-1.6505853E-3,1.5261424E-3,1.8678475E-3,4.2375773E-3,-9.162173E-4,8.5546076E-4,-8.059742E-5,-3.5206378E-3,2.0830901E-3,1.330926E-4,-1.2161553E-2,-1.3706777E-3,2.2267983E-3,-9.4695884E-4,2.7192738E-3,9.034856E-4,-5.3303307E-3,1.570073E-4,1.1950937E-3,-5.0727157E-3,1.0285012E-3,5.6713014E-3,-4.8589523E-4,9.945257E-4,1.5102883E-3,-1.9952122E-3,2.818494E-3,6.35162E-6,-3.047347E-4,-2.0790398E-3],"categories":[],"categories_nodes":[],"categories_segments":[],"categories_sizes":[],"default_left":[1,1,1,0,0,1,1,1,1,1,1,0,0,1,1,1,1,1,1,1,0,0,0,1,1,1,1,0,1,1,1,0,0,0,0,0,0,0,0,0,0,0,0,0,0,0,0],"id":75,"left_children":[1,3,5,-1,-1,7,9,11,13,15,17,-1,-1,19,21,23,25,27,29,31,-1,-1,-1,33,35,37,39,-1,41,43,45,-1,-1,-1,-1,-1,-1,-1,-1,-1,-1,-1,-1,-1,-1,-1,-1],"loss_changes":[8.0514255E-5,3.1394673E-5,8.272078E-5,6.5390884E-7,0E0,5.5821518E-5,8.746778E-5,1.1669239E-5,4.354369E-5,1.05605104E-4,1.8648535E-4,4.966017E-7,0E0,2.0337655E-5,5.812848E-6,2.5578617E-4,1.4803938E-4,2.2458263E-4,4.3695727E-5,1.0680502E-5,0E0,0E0,1.455212E-7,2.0166207E-4,1.8904195E-4,1.6445102E-4,1.5564926E-4,0E0,1.4875362E-4,2.4944842E-5,3.7287432E-6,0E0,0E0,0E0,0E0,0E0,0E0,0E0,0E0,0E0,0E0,0E0,0E0,0E0,0E0,0E0,0E0],"parents":[2147483647,0,0,1,1,2,2,5,5,6,6,7,7,8,8,9,9,10,10,13,13,14,14,15,15,16,16,17,17,18,18,19,19,23,23,24,24,25,25,26,26,28,28,29,29,30,30],"right_children":[2,4,6,-1,-1,8,10,12,14,16,18,-1,-1,20,22,24,26,28,30,32,-1,-1,-1,34,36,38,40,-1,42,44,46,-1,-1,-1,-1,-1,-1,-1,-1,-1,-1,-1,-1,-1,-1,-1,-1],"split_conditions":[-1.4727635E0,1.9389309E-2,-7.7406347E-1,1.8103719E-4,1.8193183E-3,-3.7685192E-1,3.3948728E-1,4.5259096E-2,1.6913512E-1,-1.2552303E-1,2.508363E-1,4.543178E-5,-8.6874777E-4,2.9270792E-1,3.0641165E-1,-1.6796157E-1,-3.8346833E-1,-9.3241894E-1,3.341896E-1,-9.0448566E-2,1.2712732E-3,-2.748652E-4,2.5663825E-4,-6.932263E-1,-1.7615792E-1,3.6663735E-1,8.421077E-2,-3.648466E-3,-2.4235776E-1,1.9070557E-1,3.546685E-1,8.157822E-4,2.710457E-4,-1.5990993E-3,4.710219E-5,3.5852814E-4,-1.5218147E-3,3.0855037E-4,1.7013905E-3,-1.4576857E-4,2.9835774E-4,4.530865E-4,-5.985637E-4,8.455483E-4,1.9054861E-6,-9.1420414E-5,-6.2371197E-4],"split_indices":[26,0,44,0,0,11,33,2,3,50,47,0,0,30,1,50,35,4,42,58,0,0,0,10,10,17,10,0,49,18,1,0,0,0,0,0,0,0,0,0,0,0,0,0,0,0,0],"split_type":[0,0,0,0,0,0,0,0,0,0,0,0,0,0,0,0,0,0,0,0,0,0,0,0,0,0,0,0,0,0,0,0,0,0,0,0,0,0,0,0,0,0,0,0,0,0,0],"sum_hessian":[6.57E2,4E0,6.53E2,2E0,2E0,3.1E1,6.22E2,4E0,2.7E1,5.18E2,1.04E2,2E0,2E0,2.1E1,6E0,1.84E2,3.34E2,8.1E1,2.3E1,1.5E1,6E0,4E0,2E0,1.6E2,2.4E1,4.4E1,2.9E2,1E0,8E1,1.8E1,5E0,7E0,8E0,6E0,1.54E2,6E0,1.8E1,3.5E1,9E0,1.69E2,1.21E2,1.4E1,6.6E1,1.4E1,4E0,4E0,1E0],"tree_param":{"num_deleted":"0","num_feature":"60","num_nodes":"47","size_leaf_vector":"0"}},{"base_weights":[1.1337194E-6,-2.8413322E-4,3.7548004E-4,7.690004E-5,-1.6332689E-3,1.0446132E-3,-6.37383E-4,-3.6232239E-3,1.922619E-4,-2.8301438E-3,9.1536617E-4,-2.9805585E-4,1.9469649E-3,-3.182491E-3,-9.486148E-5,-1.538481E-3,-7.2798827E-3,-2.1006437E-3,3.804704E-4,-5.027093E-3,-4.4700594E-4,-2.7333114E-3,2.146635E-3,-3.687661E-3,5.3970783E-4,3.8546298E-3,1.0328818E-3,4.6223833E-4,-5.1805945E-3,4.745632E-3,-4.745086E-4,-2.1490455E-4,-2.0249307E-3,7.1648957E-4,-4.1060816E-3,-1.2992164E-3,6.821738E-4,-2.5491547E-3,-9.232466E-3,-2.565575E-3,3.411119E-3,-4.8535415E-3,-9.145111E-4,4.6218527E-3,7.5569516E-4,-2.0173825E-3,-9.139555E-3,1.6445271E-3,-9.4024185E-4,8.377582E-4,5.773708E-3,-2.3521355E-3,1.3815316E-3,1.9217283E-3,-7.9780124E-4,-6.488882E-3,-6.147269E-4,-1.2533963E-3,5.9543694E-3,-1.053534E-3,1.7141921E-3,2.6466637E-3,-1.0114039E-3,-1.03631E-3,-5.89515E-3,6.6202914E-4,-3.1985943E-3,1.3217651E-3,-2.2043473E-4,-4.246403E-3,9.670428E-4,-1.1574378E-2,9.012222E-5,8.1909634E-4,-4.326169E-3,4.999506E-3,8.2283095E-4,7.0672267E-4,6.04656E-3,2.4101213E-3,-1.4708744E-4,4.209131E-4,-2.547133E-3,3.7655458E-3,4.128565E-4,9.4734E-4,-3.064067E-3,-2.1289687E-3,1.5096267E-3,8.094229E-3,1.2811495E-3,-2.6174735E-3,-3.8005412E-4,2.7622958E-3,6.108547E-4,-1.3174614E-3,-1.2207427E-5,1.7481185E-3,6.4459955E-3,-3.2468615E-3,-3.5644125E-4,3.5365724E-3,6.010495E-4],"categories":[],"categories_nodes":[],"categories_segments":[],"categories_sizes":[],"default_left":[1,1,1,1,1,1,1,1,1,1,1,1,1,1,1,1,0,1,1,1,1,1,1,1,1,1,1,1,1,1,1,0,0,1,1,1,1,1,1,1,1,0,0,1,1,1,0,1,1,1,1,1,1,0,1,0,0,0,1,1,1,0,0,0,0,0,0,0,0,0,0,0,0,0,0,0,0,0,0,0,0,0,0,0,0,0,0,0,0,0,0,0,0,0,0,0,0,0,0,0,0,0,0],"id":76,"left_children":[1,3,5,7,9,11,13,15,17,19,21,23,25,27,29,31,-1,33,35,37,39,41,43,45,47,49,51,53,55,57,59,-1,-1,61,63,65,67,69,71,73,75,-1,-1,77,79,81,-1,83,85,87,89,91,93,-1,95,-1,-1,-1,97,99,101,-1,-1,-1,-1,-1,-1,-1,-1,-1,-1,-1,-1,-1,-1,-1,-1,-1,-1,-1,-1,-1,-1,-1,-1,-1,-1,-1,-1,-1,-1,-1,-1,-1,-1,-1,-1,-1,-1,-1,-1,-1,-1],"loss_changes":[7.0373615E-5,1.8229459E-4,1.9382179E-4,1.2704515E-4,2.4357197E-4,2.0896859E-4,1.5710657E-4,5.7408775E-5,1.2508399E-4,2.8047702E-4,1.226725E-4,2.0076841E-4,1.7562634E-4,1.480456E-4,1.7683137E-4,4.071808E-6,0E0,1.2723284E-4,1.3619316E-4,2.682433E-4,2.2944149E-4,2.2555309E-5,6.536487E-5,1.0904856E-4,9.4745636E-5,1.8622028E-4,8.704275E-5,1.6245278E-5,7.366619E-5,5.8221936E-5,1.14596856E-4,1.7585198E-7,0E0,3.60282E-5,6.52872E-5,1.5484857E-4,1.3133859E-4,1.17495816E-4,2.1936989E-4,1.10806104E-4,3.6998288E-5,0E0,8.860152E-7,3.4772165E-5,2.1264717E-5,1.6572376E-5,0E0,8.465445E-5,1.03125065E-4,3.1119453E-5,1.981316E-4,2.6680937E-6,6.748062E-5,0E0,2.025126E-6,0E0,7.046576E-7,0E0,1.1390512E-6,1.0739834E-4,3.641717E-5,0E0,0E0,0E0,0E0,0E0,0E0,0E0,0E0,0E0,0E0,0E0,0E0,0E0,0E0,0E0,0E0,0E0,0E0,0E0,0E0,0E0,0E0,0E0,0E0,0E0,0E0,0E0,0E0,0E0,0E0,0E0,0E0,0E0,0E0,0E0,0E0,0E0,0E0,0E0,0E0,0E0,0E0],"parents":[2147483647,0,0,1,1,2,2,3,3,4,4,5,5,6,6,7,7,8,8,9,9,10,10,11,11,12,12,13,13,14,14,15,15,17,17,18,18,19,19,20,20,21,21,22,22,23,23,24,24,25,25,26,26,27,27,28,28,29,29,30,30,33,33,34,34,35,35,36,36,37,37,38,38,39,39,40,40,43,43,44,44,45,45,47,47,48,48,49,49,50,50,51,51,52,52,54,54,58,58,59,59,60,60],"right_children":[2,4,6,8,10,12,14,16,18,20,22,24,26,28,30,32,-1,34,36,38,40,42,44,46,48,50,52,54,56,58,60,-1,-1,62,64,66,68,70,72,74,76,-1,-1,78,80,82,-1,84,86,88,90,92,94,-1,96,-1,-1,-1,98,100,102,-1,-1,-1,-1,-1,-1,-1,-1,-1,-1,-1,-1,-1,-1,-1,-1,-1,-1,-1,-1,-1,-1,-1,-1,-1,-1,-1,-1,-1,-1,-1,-1,-1,-1,-1,-1,-1,-1,-1,-1,-1,-1],"split_conditions":[8.383996E-2,-4.167535E-2,8.534244E-2,-1.0607071E0,1.6972342E-1,-8.602086E-2,-3.7278634E-1,2.3913297E-1,-5.8069146E-1,4.1990656E-2,-1.7629045E-1,-1.8109879E-1,-1.0950865E-1,6.4980775E-2,-3.95797E-1,-6.337172E-2,-2.183965E-3,2.2411475E-2,-6.041215E-1,1.06496744E-1,6.738544E-2,-3.0093852E-1,-1.8906918E-1,3.8326502E-1,8.403166E-2,1.3258436E-1,-5.0712824E-1,2.5204197E-4,4.3203688E-1,-2.2153202E-1,3.434563E-1,-6.4471365E-5,-6.0747925E-4,-4.703669E-2,-3.285498E-1,-6.489757E-2,1.2541841E-1,1.1078052E-1,7.534944E-1,-6.307822E-2,1.5014571E-1,-1.4560625E-3,-2.7435334E-4,-2.0152262E-1,-8.684446E-2,-4.651698E-1,-2.7418665E-3,-1.2665579E-1,-2.1177467E-2,-3.8142464E-1,8.9525424E-2,4.0103245E-1,-1.0963957E-1,5.765185E-4,1.2653269E-1,-1.9466646E-3,-1.8441808E-4,-3.760189E-4,-2.5512016E-1,-2.918497E-1,-1.841431E-1,7.939991E-4,-3.0342117E-4,-3.10893E-4,-1.768545E-3,1.9860874E-4,-9.595783E-4,3.9652956E-4,-6.613042E-5,-1.273921E-3,2.9011286E-4,-3.4723135E-3,2.7036667E-5,2.457289E-4,-1.2978507E-3,1.4998518E-3,2.468493E-4,2.120168E-4,1.8139681E-3,7.230364E-4,-4.4126235E-5,1.2627394E-4,-7.641399E-4,1.1296638E-3,1.2385695E-4,2.8420202E-4,-9.1922015E-4,-6.3869066E-4,4.5288805E-4,2.4282688E-3,3.8434486E-4,-7.8524207E-4,-1.1401624E-4,8.286888E-4,1.8325642E-4,-3.9523843E-4,-3.6622282E-6,5.244356E-4,1.9337988E-3,-9.7405846E-4,-1.0693238E-4,1.0609718E-3,1.8031486E-4],"split_indices":[56,56,19,7,19,42,55,8,20,22,54,14,22,9,51,12,0,6,56,6,7,18,35,55,44,42,21,4,34,0,35,0,0,1,59,55,14,11,6,3,36,0,0,0,49,8,0,8,11,8,43,3,34,0,3,0,0,0,5,4,29,0,0,0,0,0,0,0,0,0,0,0,0,0,0,0,0,0,0,0,0,0,0,0,0,0,0,0,0,0,0,0,0,0,0,0,0,0,0,0,0,0,0],"split_type":[0,0,0,0,0,0,0,0,0,0,0,0,0,0,0,0,0,0,0,0,0,0,0,0,0,0,0,0,0,0,0,0,0,0,0,0,0,0,0,0,0,0,0,0,0,0,0,0,0,0,0,0,0,0,0,0,0,0,0,0,0,0,0,0,0,0,0,0,0,0,0,0,0,0,0,0,0,0,0,0,0,0,0,0,0,0,0,0,0,0,0,0,0,0,0,0,0,0,0,0,0,0,0],"sum_hessian":[6.57E2,3.73E2,2.84E2,2.95E2,7.8E1,1.71E2,1.13E2,8E0,2.87E2,5.3E1,2.5E1,6.9E1,1.02E2,1.9E1,9.4E1,6E0,2E0,2.1E1,2.66E2,2.7E1,2.6E1,6E0,1.9E1,1.3E1,5.6E1,3.2E1,7E1,7E0,1.2E1,6E0,8.8E1,2E0,4E0,9E0,1.2E1,4E1,2.26E2,1.8E1,9E0,1.7E1,9E0,2E0,4E0,6E0,1.3E1,1.1E1,2E0,3.2E1,2.4E1,1.3E1,1.9E1,6E0,6.4E1,3E0,4E0,9E0,3E0,1E0,5E0,7E1,1.8E1,4E0,5E0,5E0,7E0,2E1,2E1,1.32E2,9.4E1,1.2E1,6E0,7E0,2E0,6E0,1.1E1,5E0,4E0,2E0,4E0,4E0,9E0,2E0,9E0,1.1E1,2.1E1,1.3E1,1.1E1,2E0,1.1E1,1.2E1,7E0,5E0,1E0,2.2E1,4.2E1,2E0,2E0,1E0,4E0,1.6E1,5.4E1,6E0,1.2E1],"tree_param":{"num_deleted":"0","num_feature":"60","num_nodes":"103","size_leaf_vector":"0"}},{"base_weights":[-1.0403614E-5,3.9092014E-3,-3.432425E-5,3.9035268E-4,4.9520335E-3,-5.0797997E-5,5.3697526E-3,-3.4059035E-3,-2.4911342E-5,2.5718883E-4,-5.9336945E-3,6.1670467E-3,-4.3954493E-5,-1.3542105E-4,8.399431E-4,-6.37719E-5,-3.5752368E-3,1.6745405E-3,-1.8311248E-3],"categories":[],"categories_nodes":[],"categories_segments":[],"categories_sizes":[],"default_left":[1,1,1,0,0,1,0,1,1,0,0,0,1,1,1,0,0,0,0],"id":77,"left_children":[1,3,5,-1,-1,7,-1,9,11,-1,-1,-1,13,15,17,-1,-1,-1,-1],"loss_changes":[6.1827894E-5,1.2745237E-5,5.85844E-5,0E0,0E0,5.671666E-5,0E0,4.7823738E-5,7.691542E-5,0E0,0E0,0E0,5.2583495E-5,1.4493687E-4,1.3905152E-4,0E0,0E0,0E0,0E0],"parents":[2147483647,0,0,1,1,2,2,5,5,7,7,8,8,12,12,13,13,14,14],"right_children":[2,4,6,-1,-1,8,-1,10,12,-1,-1,-1,14,16,18,-1,-1,-1,-1],"split_conditions":[-1.5087029E0,-4.0959805E-1,1.2691524E0,1.1710581E-4,1.4856101E-3,-1.4727635E0,1.6109259E-3,-6.488245E-1,-1.4298277E0,7.7156656E-5,-1.7801084E-3,1.8501141E-3,5.0861704E-1,4.56934E-1,3.168028E-1,-1.913157E-5,-1.072571E-3,5.0236215E-4,-5.493375E-4],"split_indices":[55,1,7,0,0,57,0,8,57,0,0,0,14,14,38,0,0,0,0],"split_type":[0,0,0,0,0,0,0,0,0,0,0,0,0,0,0,0,0,0,0],"sum_hessian":[6.57E2,3E0,6.54E2,1E0,2E0,6.53E2,1E0,4E0,6.49E2,2E0,2E0,1E0,6.48E2,5.88E2,6E1,5.77E2,1.1E1,4.6E1,1.4E1],"tree_param":{"num_deleted":"0","num_feature":"60","num_nodes":"19","size_leaf_vector":"0"}},{"base_weights":[-3.9055826E-6,1.0693597E-3,-7.5102944E-5,-1.9835616E-3,2.2548828E-3,-6.0930103E-3,-5.547423E-5,8.6167175E-4,-3.0277139E-3,4.147454E-3,5.6365447E-4,8.377272E-4,-1.5319382E-4,-1.1567697E-3,-3.7703912E-3,2.5618444E-3,6.489183E-3,1.2701309E-3,-3.1566124E-3,-6.3776376E-4,2.38366E-3,-2.9669914E-3,-9.1071546E-5,3.1726372E-3,8.5249636E-4,1.9870186E-3,-1.3637047E-4,-6.3954294E-4,-4.0953755E-3,2.413387E-3,-2.13435E-3,1.67626E-3,6.562695E-3,-4.9523786E-3,-8.413749E-4,-2.624589E-4,9.7227737E-4,2.1428573E-3,2.9223502E-4,-6.3808635E-4,5.780409E-4,1.0912356E-3,5.575379E-3,6.511349E-5,-4.780217E-3,1.0558041E-3,4.979931E-3,-2.1965106E-3,-5.781185E-3,4.7895312E-4,-1.1412551E-3,-2.3082473E-4,-7.56526E-3,1.4285978E-4,2.6585748E-3],"categories":[],"categories_nodes":[],"categories_segments":[],"categories_sizes":[],"default_left":[1,1,1,1,1,0,1,0,1,1,1,1,1,0,0,1,0,1,1,1,1,1,1,0,0,1,1,0,0,1,1,1,0,1,1,1,1,0,0,0,0,0,0,0,0,0,0,0,0,0,0,0,0,0,0],"id":78,"left_children":[1,3,5,7,9,-1,11,-1,13,15,17,19,21,-1,-1,23,-1,25,27,29,31,33,35,-1,-1,37,39,-1,-1,41,43,45,-1,47,49,51,53,-1,-1,-1,-1,-1,-1,-1,-1,-1,-1,-1,-1,-1,-1,-1,-1,-1,-1],"loss_changes":[5.0360497E-5,1.5286438E-4,7.266249E-5,3.8259182E-5,9.368539E-5,0E0,5.3982123E-5,2.2365953E-7,8.144096E-6,3.5358666E-5,4.8690083E-5,1.4066182E-4,9.709312E-5,0E0,0E0,7.735907E-6,0E0,1.5395522E-5,4.469626E-6,1.512729E-4,7.768671E-5,4.6475245E-5,9.976071E-5,0E0,1.74751E-7,2.0149091E-6,2.519429E-6,0E0,0E0,3.99029E-5,1.2834E-4,5.0086288E-5,0E0,1.0060612E-6,3.318189E-6,1.0706326E-4,1.0591721E-4,0E0,0E0,0E0,0E0,0E0,0E0,0E0,0E0,0E0,0E0,0E0,0E0,0E0,0E0,0E0,0E0,0E0,0E0],"parents":[2147483647,0,0,1,1,2,2,3,3,4,4,6,6,8,8,9,9,10,10,11,11,12,12,15,15,17,17,18,18,19,19,20,20,21,21,22,22,25,25,26,26,29,29,30,30,31,31,33,33,34,34,35,35,36,36],"right_children":[2,4,6,8,10,-1,12,-1,14,16,18,20,22,-1,-1,24,-1,26,28,30,32,34,36,-1,-1,38,40,-1,-1,42,44,46,-1,48,50,52,54,-1,-1,-1,-1,-1,-1,-1,-1,-1,-1,-1,-1,-1,-1,-1,-1,-1,-1],"split_conditions":[-6.2515E-1,-1.2867312E-1,-6.1598074E-1,-3.6882392E-1,2.1034919E-2,-1.8279032E-3,-4.5977253E-1,2.5850153E-4,2.0454507E-2,6.386085E-2,2.947998E-1,4.251378E-2,-1.0245972E0,-3.4703093E-4,-1.1311175E-3,4.3737188E-2,1.9467549E-3,4.5555398E-2,1.0247421E-1,-1.8117398E-1,3.789921E-1,-1.5682602E-1,4.0826342E-1,9.517912E-4,2.5574892E-4,2.4561818E-1,4.9451417E-1,-1.9186288E-4,-1.2286127E-3,1.6778535E-1,1.0535765E-1,5.079341E-1,1.9688085E-3,-1.5351711E-1,-8.987517E-2,4.0468442E-1,8.6400196E-2,6.428572E-4,8.767051E-5,-1.9142592E-4,1.7341228E-4,3.2737068E-4,1.6726138E-3,1.9534047E-5,-1.4340652E-3,3.1674124E-4,1.4939794E-3,-6.589532E-4,-1.7343556E-3,1.4368595E-4,-3.4237656E-4,-6.924742E-5,-2.2695782E-3,4.2857933E-5,7.975725E-4],"split_indices":[46,13,46,13,6,0,57,0,51,2,16,24,7,0,0,1,0,56,0,51,9,11,26,0,0,0,6,0,0,9,21,0,0,0,5,26,9,0,0,0,0,0,0,0,0,0,0,0,0,0,0,0,0,0,0],"split_type":[0,0,0,0,0,0,0,0,0,0,0,0,0,0,0,0,0,0,0,0,0,0,0,0,0,0,0,0,0,0,0,0,0,0,0,0,0,0,0,0,0,0,0,0,0,0,0,0,0,0,0,0,0,0,0],"sum_hessian":[6.57E2,4E1,6.17E2,1.1E1,2.9E1,1E0,6.16E2,3E0,8E0,1.3E1,1.6E1,6E1,5.56E2,3E0,5E0,9E0,4E0,1.4E1,2E0,3.1E1,2.9E1,1.1E1,5.45E2,6E0,3E0,9E0,5E0,1E0,1E0,1E1,2.1E1,2.6E1,3E0,5E0,6E0,4.7E2,7.5E1,8E0,1E0,3E0,2E0,8E0,2E0,1.2E1,9E0,2.3E1,3E0,2E0,3E0,1E0,5E0,4.69E2,1E0,5.1E1,2.4E1],"tree_param":{"num_deleted":"0","num_feature":"60","num_nodes":"55","size_leaf_vector":"0"}},{"base_weights":[-3.226272E-6,2.2636512E-3,-3.460884E-5,5.32938E-3,-1.5744315E-4,-8.373987E-5,1.6014659E-3,-1.4596483E-3,8.5857144E-4,-1.0750378E-3,8.857405E-6,2.4684632E-4,3.888407E-3,-1.5595143E-3,2.4006644E-3,2.4634171E-3,-3.4220586E-5,1.5658569E-3,-3.0544252E-4,9.77067E-4,-1.9451466E-3,2.7198296E-3,2.4283677E-4,8.2784734E-4,4.70981E-3,-2.439189E-4,4.954142E-4,-1.0876805E-3,1.8518524E-4,1.8165857E-3,-7.478197E-4,-6.7964103E-4,-2.697779E-3,1.4431402E-3,5.592592E-6,-3.72777E-4,1.3393436E-3,4.0429863E-3,3.330525E-4],"categories":[],"categories_nodes":[],"categories_segments":[],"categories_sizes":[],"default_left":[1,1,1,0,1,1,1,0,0,1,1,1,0,1,1,1,1,0,1,1,1,0,0,1,0,1,1,0,0,0,0,0,0,0,0,0,0,0,0],"id":79,"left_children":[1,3,5,-1,7,9,11,-1,-1,13,15,17,-1,19,21,23,25,-1,27,29,31,-1,-1,33,-1,35,37,-1,-1,-1,-1,-1,-1,-1,-1,-1,-1,-1,-1],"loss_changes":[4.6888752E-5,6.764084E-5,5.2382424E-5,0E0,9.191568E-6,5.802174E-5,5.790093E-5,0E0,7.645476E-7,9.4674266E-5,6.130632E-5,9.948451E-6,0E0,4.8853537E-5,4.160447E-6,3.2842316E-5,6.342705E-5,0E0,4.039299E-6,1.1495E-5,3.8169834E-5,0E0,0E0,3.5334224E-6,0E0,8.39419E-5,9.196381E-5,0E0,9.0900164E-7,0E0,0E0,0E0,0E0,0E0,0E0,0E0,0E0,0E0,0E0],"parents":[2147483647,0,0,1,1,2,2,4,4,5,5,6,6,9,9,10,10,11,11,13,13,14,14,15,15,16,16,18,18,19,19,20,20,23,23,25,25,26,26],"right_children":[2,4,6,-1,8,10,12,-1,-1,14,16,18,-1,20,22,24,26,-1,28,30,32,-1,-1,34,-1,36,38,-1,-1,-1,-1,-1,-1,-1,-1,-1,-1,-1,-1],"split_conditions":[-1.3013585E0,-6.7038506E-2,7.98092E-1,1.598814E-3,-2.524584E-1,-5.1329243E-1,2.3468825E-1,-4.378945E-4,2.5757143E-4,4.0343347E-1,-4.5986825E-1,-2.516675E-1,1.1665222E-3,-5.1723325E-1,4.6070814E-1,1.573741E-1,2.0995179E-1,4.6975707E-4,1.5450892E-1,2.3079953E-1,-4.2738482E-2,8.159489E-4,7.2851035E-5,-4.2554118E-2,1.412943E-3,5.1995564E-1,-6.932263E-1,-3.2630414E-4,5.5555574E-5,5.4497574E-4,-2.2434593E-4,-2.0389231E-4,-8.0933375E-4,4.329421E-4,1.6777777E-6,-1.11833106E-4,4.018031E-4,1.212896E-3,9.991576E-5],"split_indices":[39,9,53,0,5,23,39,0,0,28,23,41,0,17,4,38,10,0,1,3,1,0,0,4,0,6,38,0,0,0,0,0,0,0,0,0,0,0,0],"split_type":[0,0,0,0,0,0,0,0,0,0,0,0,0,0,0,0,0,0,0,0,0,0,0,0,0,0,0,0,0,0,0,0,0,0,0,0,0,0,0],"sum_hessian":[6.57E2,8E0,6.49E2,3E0,5E0,6.31E2,1.8E1,2E0,3E0,5.3E1,5.78E2,1.2E1,6E0,4.7E1,6E0,9E0,5.69E2,3E0,9E0,6E0,4.1E1,5E0,1E0,6E0,3E0,4.08E2,1.61E2,3E0,6E0,4E0,2E0,1.6E1,2.5E1,3E0,3E0,3.78E2,3E1,6E0,1.55E2],"tree_param":{"num_deleted":"0","num_feature":"60","num_nodes":"39","size_leaf_vector":"0"}},{"base_weights":[7.5101384E-6,7.659098E-4,-8.40781E-5,1.2865058E-3,-9.634249E-4,-4.178389E-3,-6.297399E-5,4.5054537E-4,2.4299922E-3,2.2367314E-3,-2.1201447E-3,-1.4115125E-4,-6.126432E-3,2.948713E-4,-3.1914102E-4,-2.0361782E-4,2.5202576E-3,1.4850544E-3,3.509906E-3,2.8630346E-3,-1.3424084E-4,-7.9706643E-4,-4.0776567E-3,7.966506E-4,-5.63048E-4,-1.0359124E-3,1.4760553E-4,-8.9707214E-4,2.2574086E-3,9.2251226E-4,3.2944023E-3,1.8215503E-3,1.8842705E-4,4.551126E-3,1.5584603E-3,-4.4234097E-5,-1.1661103E-3,1.6758898E-3,-1.1577221E-4,-2.8636765E-3,4.3458705E-5,-1.7673441E-3,2.8389296E-4,4.3591298E-4,-3.5910113E-3,-2.6176006E-3,-3.382654E-4,8.961694E-4,2.7139857E-3,-3.8942099E-3,1.871142E-3,-1.1933075E-3,1.2113645E-3,-5.7852635E-4,-5.933442E-3,8.021972E-4,-1.6408509E-3,2.4539041E-3,-2.054663E-3,4.025171E-3,-5.4428744E-4,-3.1729855E-4,1.5845239E-3,-3.454185E-4,-5.7163597E-3],"categories":[],"categories_nodes":[],"categories_segments":[],"categories_sizes":[],"default_left":[1,1,1,1,1,1,1,1,1,1,1,0,0,1,1,1,1,1,1,0,0,1,0,1,1,1,1,1,1,0,0,0,0,0,0,0,0,1,1,1,1,1,1,1,1,0,0,0,0,0,0,0,0,0,0,0,0,0,0,0,0,0,0,0,0],"id":80,"left_children":[1,3,5,7,9,11,13,15,17,19,21,-1,-1,23,25,27,29,31,33,-1,-1,35,-1,37,39,41,43,45,47,-1,-1,-1,-1,-1,-1,-1,-1,49,51,53,55,57,59,61,63,-1,-1,-1,-1,-1,-1,-1,-1,-1,-1,-1,-1,-1,-1,-1,-1,-1,-1,-1,-1],"loss_changes":[4.5769397E-5,6.5159664E-5,5.054407E-5,5.14802E-5,6.767082E-5,2.2729393E-5,5.381165E-5,4.5192846E-5,1.8257968E-5,7.809076E-6,3.0419076E-5,0E0,0E0,1.0591765E-4,1.1456921E-4,4.63969E-5,6.8559602E-6,5.7651087E-6,1.3226105E-5,0E0,0E0,2.4488709E-6,0E0,1.2454091E-4,1.2710098E-4,1.3082362E-4,2.2576255E-4,1.9304855E-5,1.296874E-6,0E0,0E0,6.295886E-7,8.1247634E-8,0E0,0E0,5.656793E-7,5.9640115E-8,9.3204944E-5,1.1155835E-4,1.2984997E-4,9.460668E-5,1.1055937E-4,1.5401507E-4,1.683413E-4,1.01495694E-4,0E0,0E0,0E0,0E0,0E0,0E0,0E0,0E0,0E0,0E0,0E0,0E0,0E0,0E0,0E0,0E0,0E0,0E0,0E0,0E0],"parents":[2147483647,0,0,1,1,2,2,3,3,4,4,5,5,6,6,7,7,8,8,9,9,10,10,13,13,14,14,15,15,16,16,17,17,18,18,21,21,23,23,24,24,25,25,26,26,27,27,28,28,37,37,38,38,39,39,40,40,41,41,42,42,43,43,44,44],"right_children":[2,4,6,8,10,12,14,16,18,20,22,-1,-1,24,26,28,30,32,34,-1,-1,36,-1,38,40,42,44,46,48,-1,-1,-1,-1,-1,-1,-1,-1,50,52,54,56,58,60,62,64,-1,-1,-1,-1,-1,-1,-1,-1,-1,-1,-1,-1,-1,-1,-1,-1,-1,-1,-1,-1],"split_conditions":[-4.5986825E-1,1.9859219E-1,-1.5232365E0,1.0942082E-1,-3.8095534E-1,6.382979E-2,-4.760832E-2,3.2570064E-1,2.1052632E-2,3.2455274E-1,-4.6904314E-2,-4.2345375E-5,-1.8379297E-3,9.378689E-2,-4.629729E-2,4.9600452E-1,-4.0610677E-1,5.583455E-1,1.2550554E-1,8.5891044E-4,-4.027225E-5,-6.4297795E-2,-1.2232971E-3,-2.1258503E-2,1.7178619E-1,1.6954286E-1,5.403365E-1,-3.350789E-1,-3.2382676E-1,2.7675368E-4,9.883207E-4,5.464651E-4,5.6528115E-5,1.3653379E-3,4.675381E-4,-1.327023E-5,-3.498331E-4,-7.4148655E-1,-2.0842018E-2,2.0911753E-2,1.803827E-1,-7.9313755E-1,-3.6491475E-1,9.214526E-2,-4.486317E-2,-7.852802E-4,-1.0147963E-4,2.6885082E-4,8.141958E-4,-1.168263E-3,5.6134263E-4,-3.5799225E-4,3.6340937E-4,-1.7355791E-4,-1.7800328E-3,2.4065917E-4,-4.922553E-4,7.3617126E-4,-6.163989E-4,1.2075513E-3,-1.6328624E-4,-9.518957E-5,4.753572E-4,-1.0362555E-4,-1.7149079E-3],"split_indices":[41,45,47,14,18,0,1,3,37,1,14,0,0,4,0,58,15,19,30,0,0,3,0,25,4,31,39,2,11,0,0,0,0,0,0,0,0,37,36,39,47,47,10,38,46,0,0,0,0,0,0,0,0,0,0,0,0,0,0,0,0,0,0,0,0],"split_type":[0,0,0,0,0,0,0,0,0,0,0,0,0,0,0,0,0,0,0,0,0,0,0,0,0,0,0,0,0,0,0,0,0,0,0,0,0,0,0,0,0,0,0,0,0,0,0,0,0,0,0,0,0,0,0,0,0,0,0,0,0,0,0,0,0],"sum_hessian":[6.57E2,7E1,5.87E2,5.4E1,1.6E1,2E0,5.85E2,3.2E1,2.2E1,4E0,1.2E1,1E0,1E0,2.44E2,3.41E2,2.5E1,7E0,1.3E1,9E0,3E0,1E0,8E0,4E0,1.54E2,9E1,1.34E2,2.07E2,2E1,5E0,3E0,4E0,1E1,3E0,5E0,4E0,3E0,5E0,7.8E1,7.6E1,1.8E1,7.2E1,8.6E1,4.8E1,1.93E2,1.4E1,4E0,1.6E1,2E0,3E0,2E0,7.6E1,4.2E1,3.4E1,1.1E1,7E0,5E1,2.2E1,5E0,8.1E1,8E0,4E1,1.17E2,7.6E1,6E0,8E0],"tree_param":{"num_deleted":"0","num_feature":"60","num_nodes":"65","size_leaf_vector":"0"}},{"base_weights":[2.4730425E-6,3.6854188E-5,-2.0231137E-3,1.7234604E-5,4.2493194E-3,-2.81814E-3,1.0363361E-3,-6.13942E-5,8.467416E-4,-9.303391E-4,-3.6069837E-3,-1.4173774E-4,1.3465361E-3,2.9325138E-3,-2.1842722E-4,-3.1680524E-4,4.1174743E-4,7.253589E-4,4.5558214E-3,5.070575E-4,4.650386E-3,4.2464957E-3,-7.224633E-4,1.8693716E-5,-9.279371E-4,1.1186963E-3,-7.7457423E-4,-7.602386E-4,9.340402E-4,1.6056038E-3,-3.0981624E-4,5.362939E-3,2.062683E-3,1.1267811E-3,4.9108067E-3,-1.6641736E-3,8.089715E-4],"categories":[],"categories_nodes":[],"categories_segments":[],"categories_sizes":[],"default_left":[1,1,1,1,0,1,0,1,1,0,0,1,1,1,1,1,1,1,0,1,1,1,1,0,0,0,0,0,0,0,0,0,0,0,0,0,0],"id":81,"left_children":[1,3,5,7,-1,9,-1,11,13,-1,-1,15,17,19,21,23,25,27,-1,29,31,33,35,-1,-1,-1,-1,-1,-1,-1,-1,-1,-1,-1,-1,-1,-1],"loss_changes":[4.589899E-5,5.3481897E-5,2.9676306E-5,4.2186137E-5,0E0,1.0046904E-5,2.5819713E-7,6.704364E-5,1.2505571E-4,0E0,4.8041693E-7,5.4392913E-5,6.0488514E-5,7.6807846E-5,8.858627E-5,8.736187E-5,1.140868E-4,9.390551E-6,0E0,8.573805E-6,9.220603E-6,2.7564383E-6,5.1822142E-5,0E0,0E0,0E0,0E0,0E0,0E0,0E0,0E0,0E0,0E0,0E0,0E0,0E0,0E0],"parents":[2147483647,0,0,1,1,2,2,3,3,5,5,7,7,8,8,11,11,12,12,13,13,14,14,15,15,16,16,17,17,19,19,20,20,21,21,22,22],"right_children":[2,4,6,8,-1,10,-1,12,14,-1,-1,16,18,20,22,24,26,28,-1,30,32,34,36,-1,-1,-1,-1,-1,-1,-1,-1,-1,-1,-1,-1,-1,-1],"split_conditions":[9.210493E-1,1.1855834E0,4.226035E-1,5.2405953E-1,1.2747959E-3,-6.5416485E-2,3.1090082E-4,6.701491E-1,-1.7544264E-1,-2.7910175E-4,-1.0820952E-3,2.55429E-1,4.6005672E-1,-6.535274E-2,-7.351847E-1,1.6845658E-1,8.751607E-2,6.9822335E-1,1.3667465E-3,3.1186938E-3,1.7290851E-1,-4.2335063E-2,1.1177756E-1,5.608115E-6,-2.7838114E-4,3.356089E-4,-2.3237227E-4,-2.280716E-4,2.8021206E-4,4.8168117E-4,-9.294488E-5,1.6088818E-3,6.1880494E-4,3.3803436E-4,1.4732421E-3,-4.992521E-4,2.4269147E-4],"split_indices":[48,7,4,9,0,0,0,3,15,0,0,2,17,42,53,17,31,3,0,34,8,0,18,0,0,0,0,0,0,0,0,0,0,0,0,0,0],"split_type":[0,0,0,0,0,0,0,0,0,0,0,0,0,0,0,0,0,0,0,0,0,0,0,0,0,0,0,0,0,0,0,0,0,0,0,0,0],"sum_hessian":[6.57E2,6.47E2,1E1,6.45E2,2E0,8E0,2E0,5.9E2,5.5E1,3E0,5E0,5.59E2,3.1E1,1.8E1,3.7E1,4.25E2,1.34E2,2.7E1,4E0,8E0,1E1,3E0,3.4E1,2.75E2,1.5E2,8.4E1,5E1,3E0,2.4E1,3E0,5E0,7E0,3E0,1E0,2E0,2.1E1,1.3E1],"tree_param":{"num_deleted":"0","num_feature":"60","num_nodes":"37","size_leaf_vector":"0"}},{"base_weights":[1.0311281E-5,3.15509E-3,-8.909216E-6,5.095631E-3,8.096993E-4,4.8277574E-4,-1.3511012E-4,2.818322E-3,2.2994887E-4,-3.1382218E-3,-5.8295296E-5,-1.4067441E-4,4.149062E-3,1.0208079E-3,-5.518632E-4,-4.9673896E-3,-1.762944E-4,5.3884636E-4,-2.8347463E-4,-1.0990947E-3,3.7370436E-4,5.3038755E-3,2.1644363E-3,-4.1691656E-4,1.5857677E-3,-3.0425484E-3,-1.2652935E-4,-6.02051E-3,-2.4091415E-3,-1.0578204E-3,1.0578384E-3,-7.8638E-4,9.880778E-4,-5.690264E-4,3.4915228E-4,3.799619E-4,-8.4701926E-4,2.7722674E-3,2.73256E-4,-6.5350754E-4,-4.82308E-3,1.5091726E-3,-6.819756E-4,-1.8818941E-4,-3.7459682E-3,2.2483664E-3,4.2973578E-4,7.603129E-4,-9.4504294E-4,9.949183E-4,-8.5639325E-4],"categories":[],"categories_nodes":[],"categories_segments":[],"categories_sizes":[],"default_left":[1,1,1,0,0,1,1,1,1,1,1,1,1,1,1,1,1,1,1,0,0,0,0,1,1,1,1,0,0,0,0,1,1,1,1,0,0,0,0,0,0,0,0,0,0,0,0,0,0,0,0],"id":82,"left_children":[1,3,5,-1,-1,7,9,11,13,15,17,19,21,23,25,27,29,31,33,-1,-1,-1,-1,35,37,39,41,-1,-1,-1,-1,43,45,47,49,-1,-1,-1,-1,-1,-1,-1,-1,-1,-1,-1,-1,-1,-1,-1,-1],"loss_changes":[3.9800398E-5,1.4079378E-5,4.0708688E-5,0E0,0E0,7.847743E-5,1.2023384E-4,5.1773197E-5,7.599634E-5,6.9556496E-5,6.8729365E-5,2.875692E-6,9.146941E-6,5.0208786E-5,6.5296146E-5,7.048875E-6,7.646524E-6,8.412366E-5,6.721898E-5,0E0,1.4181381E-7,0E0,0E0,6.4911474E-6,6.7763416E-5,3.513194E-5,5.0090624E-5,0E0,0E0,9.10406E-7,0E0,6.302937E-5,7.2919356E-5,1.2868103E-4,9.115807E-5,0E0,0E0,0E0,0E0,0E0,0E0,0E0,0E0,0E0,0E0,0E0,0E0,0E0,0E0,0E0,0E0],"parents":[2147483647,0,0,1,1,2,2,5,5,6,6,7,7,8,8,9,9,10,10,11,11,12,12,13,13,14,14,15,15,16,16,17,17,18,18,23,23,24,24,25,25,26,26,31,31,32,32,33,33,34,34],"right_children":[2,4,6,-1,-1,8,10,12,14,16,18,20,22,24,26,28,30,32,34,-1,-1,-1,-1,36,38,40,42,-1,-1,-1,-1,44,46,48,50,-1,-1,-1,-1,-1,-1,-1,-1,-1,-1,-1,-1,-1,-1,-1,-1],"split_conditions":[-1.4298277E0,-2.2067752E-1,-2.9337808E-1,1.5286893E-3,2.429098E-4,-4.676752E-1,-2.737852E-1,-4.2973787E-2,4.2891175E-2,1.06791966E-1,-1.7961514E-1,-3.169893E-1,-1.8873667E-2,-1.8383476E-1,-3.816431E-1,2.506301E-1,1.3990358E-1,-2.9337808E-1,2.0968765E-1,-3.2972844E-4,1.1211131E-4,1.5911628E-3,6.493309E-4,4.203447E-2,-1.0549984E-1,1.3001168E-1,-1.9570139E-1,-1.8061531E-3,-7.2274246E-4,-3.1734613E-4,3.1735154E-4,3.4560588E-1,-1.5373632E-1,-2.6708767E-1,2.290971E-1,1.1398857E-4,-2.5410578E-4,8.3168026E-4,8.19768E-5,-1.9605226E-4,-1.4469239E-3,4.527518E-4,-2.045927E-4,-5.6456825E-5,-1.1237905E-3,6.745099E-4,1.2892074E-4,2.2809388E-4,-2.835129E-4,2.984755E-4,-2.56918E-4],"split_indices":[9,1,6,0,0,38,6,31,35,45,28,5,42,32,14,4,0,29,31,0,0,0,0,37,1,40,58,0,0,0,0,24,17,18,6,0,0,0,0,0,0,0,0,0,0,0,0,0,0,0,0],"split_type":[0,0,0,0,0,0,0,0,0,0,0,0,0,0,0,0,0,0,0,0,0,0,0,0,0,0,0,0,0,0,0,0,0,0,0,0,0,0,0,0,0,0,0,0,0,0,0,0,0,0,0],"sum_hessian":[6.57E2,3E0,6.54E2,1E0,2E0,1.33E2,5.21E2,1.2E1,1.21E2,1.2E1,5.09E2,4E0,8E0,6E1,6.1E1,7E0,5E0,1.39E2,3.7E2,1E0,3E0,4E0,4E0,1.7E1,4.3E1,8E0,5.3E1,4E0,3E0,3E0,2E0,3.5E1,1.04E2,2.55E2,1.15E2,6E0,1.1E1,2.2E1,2.1E1,4E0,4E0,1.3E1,4E1,3E1,5E0,3.1E1,7.3E1,5.6E1,1.99E2,7.5E1,4E1],"tree_param":{"num_deleted":"0","num_feature":"60","num_nodes":"51","size_leaf_vector":"0"}},{"base_weights":[7.60224E-6,2.4058165E-4,-1.8710925E-4,-1.3569203E-3,4.0354676E-4,7.701555E-5,-9.433911E-4,-2.7568798E-4,-4.0255403E-3,6.7796063E-4,-4.1758933E-4,-7.866854E-5,2.697753E-3,-4.8441227E-4,-3.4987424E-3,1.077386E-3,-1.8718078E-3,-5.374302E-3,-1.3332032E-3,-1.111909E-3,8.9921226E-4,-3.5264294E-3,4.79377E-5,1.0589127E-3,-4.1489836E-4,4.7079036E-3,3.503831E-4,-1.9119993E-3,2.3835187E-4,-8.378316E-4,-8.120815E-3,1.9713219E-3,7.014666E-4,-3.9588846E-4,-4.414035E-3,1.4738818E-3,3.272322E-4,1.0341406E-5,-4.5384127E-3,3.540783E-4,-3.4516528E-3,4.957012E-4,3.420298E-3,1.167042E-3,-6.6370715E-4,5.655758E-3,1.2428934E-3,-5.303696E-4,1.3637282E-3,-3.8336883E-3,-5.5608305E-4,-1.7520771E-3,1.0488265E-3,-2.6840493E-3,3.3684022E-4,-9.21832E-3,-1.8653981E-3,-1.2132666E-3,9.81837E-4,9.0423226E-4,-6.4882017E-3,1.2069637E-3,5.0540613E-3,-1.2105263E-3,7.384206E-4,1.0484617E-3,-1.2086667E-3,-3.8775336E-3,-8.7406486E-4,1.4349363E-3,-4.257926E-4,5.300788E-3,9.6975826E-4,3.2472985E-3,-4.6609063E-4,-1.1226877E-3,1.3365175E-4,6.149277E-3,1.5940815E-3,2.0842254E-4,-7.6717325E-4,-8.362461E-4,-4.4068703E-3,1.5775456E-4,-1.8910778E-3,-2.73851E-3,9.65777E-4,1.828772E-3,-6.517392E-4,-2.3157001E-4,1.1719106E-3],"categories":[],"categories_nodes":[],"categories_segments":[],"categories_sizes":[],"default_left":[1,1,1,1,1,1,1,1,1,1,1,1,1,1,1,1,0,0,0,1,1,1,1,1,1,1,1,1,1,1,1,0,0,1,1,1,1,0,0,1,1,1,1,1,1,1,0,1,0,1,1,1,1,0,1,0,0,0,0,0,0,0,0,0,0,0,0,0,0,0,0,0,0,0,0,0,0,0,0,0,0,0,0,0,0,0,0,0,0,0,0],"id":83,"left_children":[1,3,5,7,9,11,13,15,17,19,21,23,25,27,29,31,-1,-1,-1,33,35,37,39,41,43,45,47,49,51,53,55,-1,-1,57,59,61,63,-1,-1,65,67,69,71,73,75,77,-1,79,-1,81,83,85,87,-1,89,-1,-1,-1,-1,-1,-1,-1,-1,-1,-1,-1,-1,-1,-1,-1,-1,-1,-1,-1,-1,-1,-1,-1,-1,-1,-1,-1,-1,-1,-1,-1,-1,-1,-1,-1,-1],"loss_changes":[2.9894376E-5,7.864871E-5,7.1783914E-5,7.9681355E-5,6.1798506E-5,1.09150125E-4,1.07380416E-4,4.7369693E-5,2.1885528E-5,8.218222E-5,1.0002923E-4,9.7208984E-5,6.9128946E-5,8.300043E-5,1.6538106E-4,2.6497573E-6,0E0,0E0,0E0,5.2633513E-5,5.9669706E-5,3.2259304E-5,6.657553E-5,7.544221E-5,7.79203E-5,1.9245097E-5,7.863331E-6,6.822068E-5,8.895001E-5,2.2591095E-5,1.7130922E-5,0E0,9.897171E-7,2.3713683E-5,4.9990733E-5,8.086089E-5,5.9698566E-5,6.5271784E-9,0E0,6.3120446E-5,2.0995103E-6,4.2154956E-5,4.5549896E-5,9.324157E-5,6.2365325E-5,2.2246386E-6,0E0,1.0346396E-6,1.0771146E-8,1.5213649E-5,1.6498807E-5,4.554048E-5,5.291948E-5,0E0,3.5940166E-6,0E0,0E0,0E0,0E0,0E0,0E0,0E0,0E0,0E0,0E0,0E0,0E0,0E0,0E0,0E0,0E0,0E0,0E0,0E0,0E0,0E0,0E0,0E0,0E0,0E0,0E0,0E0,0E0,0E0,0E0,0E0,0E0,0E0,0E0,0E0,0E0],"parents":[2147483647,0,0,1,1,2,2,3,3,4,4,5,5,6,6,7,7,8,8,9,9,10,10,11,11,12,12,13,13,14,14,15,15,19,19,20,20,21,21,22,22,23,23,24,24,25,25,26,26,27,27,28,28,29,29,30,30,33,33,34,34,35,35,36,36,39,39,40,40,41,41,42,42,43,43,44,44,45,45,47,47,49,49,50,50,51,51,52,52,54,54],"right_children":[2,4,6,8,10,12,14,16,18,20,22,24,26,28,30,32,-1,-1,-1,34,36,38,40,42,44,46,48,50,52,54,56,-1,-1,58,60,62,64,-1,-1,66,68,70,72,74,76,78,-1,80,-1,82,84,86,88,-1,90,-1,-1,-1,-1,-1,-1,-1,-1,-1,-1,-1,-1,-1,-1,-1,-1,-1,-1,-1,-1,-1,-1,-1,-1,-1,-1,-1,-1,-1,-1,-1,-1,-1,-1,-1,-1],"split_conditions":[-2.07555E-2,-5.005214E-1,2.494818E-1,6.7355186E-2,3.2022125E-1,2.0876841E-1,2.9545522E-1,2.0981956E-2,2.1349274E-2,-4.8165286E-1,-4.231019E-1,-2.3989697E-1,1.8955678E-1,-1.2534866E-1,1.5653399E-1,-1.9031885E-1,-5.615424E-4,-1.6122907E-3,-3.9996096E-4,3.6301094E-1,2.0859407E-2,-4.4136482E-1,5.365138E-1,-2.9501063E-1,-3.7753832E-1,1.7054223E-1,1.06619656E-1,-1.5591873E-1,-1.6444018E-1,-8.35792E-2,-1.14788994E-1,5.913966E-4,2.1043998E-4,8.8500306E-2,-1.5856251E-3,2.4121499E-1,-2.9209274E-1,3.102422E-6,-1.3615239E-3,1.2933895E-1,6.0833013E-1,6.454685E-2,6.2396005E-2,-1.2704487E-1,1.6806735E-1,3.412353E-1,3.7286803E-4,-2.208614E-1,4.0911848E-4,-3.0360457E-1,1.7936814E-1,2.9008907E-1,1.9025561E-1,-8.052148E-4,-4.004445E-4,-2.7654963E-3,-5.5961945E-4,-3.6398E-4,2.9455114E-4,2.712697E-4,-1.9464606E-3,3.620891E-4,1.5162184E-3,-3.6315792E-4,2.2152618E-4,3.145385E-4,-3.6260003E-4,-1.1632601E-3,-2.6221946E-4,4.304809E-4,-1.2773779E-4,1.5902366E-3,2.9092748E-4,9.741896E-4,-1.398272E-4,-3.3680632E-4,4.0095525E-5,1.8447832E-3,4.7822448E-4,6.2526764E-5,-2.3015199E-4,-2.5087385E-4,-1.3220612E-3,4.732637E-5,-5.6732335E-4,-8.2155305E-4,2.897331E-4,5.4863165E-4,-1.9552176E-4,-6.9471E-5,3.5157317E-4],"split_indices":[44,34,21,38,42,21,7,17,43,20,38,35,3,16,1,10,0,0,0,8,55,0,12,35,18,5,38,26,11,28,0,0,0,2,0,42,18,0,0,29,0,33,54,46,12,1,0,0,0,2,1,33,36,0,1,0,0,0,0,0,0,0,0,0,0,0,0,0,0,0,0,0,0,0,0,0,0,0,0,0,0,0,0,0,0,0,0,0,0,0,0],"split_type":[0,0,0,0,0,0,0,0,0,0,0,0,0,0,0,0,0,0,0,0,0,0,0,0,0,0,0,0,0,0,0,0,0,0,0,0,0,0,0,0,0,0,0,0,0,0,0,0,0,0,0,0,0,0,0,0,0,0,0,0,0,0,0,0,0,0,0,0,0,0,0,0,0,0,0,0,0,0,0,0,0,0,0,0,0,0,0,0,0,0,0],"sum_hessian":[6.57E2,2.99E2,3.58E2,2.7E1,2.72E2,2.66E2,9.2E1,2E1,7E0,2.04E2,6.8E1,2.52E2,1.4E1,7.9E1,1.3E1,1.1E1,9E0,4E0,3E0,2.2E1,1.82E2,8E0,6E1,5.7E1,1.95E2,7E0,7E0,2.6E1,5.3E1,9E0,4E0,2E0,9E0,1.9E1,3E0,9E1,9.2E1,2E0,6E0,5.6E1,4E0,4.7E1,1E1,2.6E1,1.69E2,5E0,2E0,4E0,3E0,1E1,1.6E1,1.5E1,3.8E1,3E0,6E0,3E0,1E0,1.2E1,7E0,1E0,2E0,8.5E1,5E0,1.9E1,7.3E1,3.9E1,1.7E1,3E0,1E0,2.3E1,2.4E1,5E0,5E0,1.1E1,1.5E1,1.07E2,6.2E1,4E0,1E0,1E0,3E0,2E0,8E0,1.1E1,5E0,1.1E1,4E0,2.6E1,1.2E1,4E0,2E0],"tree_param":{"num_deleted":"0","num_feature":"60","num_nodes":"91","size_leaf_vector":"0"}},{"base_weights":[-2.388109E-6,2.6684552E-3,-1.8694956E-5,4.2205304E-3,7.442534E-4,-2.6176504E-6,-2.6346222E-3,1.988537E-3,-3.6729925E-5,-4.0697455E-3,-7.9966587E-4,3.1198466E-3,-7.7121705E-4,2.928899E-3,-5.0573923E-5,-4.50328E-4,3.6942041E-3,4.1545928E-3,2.3875572E-4,-5.988953E-4,4.3745615E-5,-1.8890357E-3,-2.2941282E-5,-6.72806E-4,1.3506754E-4],"categories":[],"categories_nodes":[],"categories_segments":[],"categories_sizes":[],"default_left":[1,1,1,0,0,1,1,1,1,0,0,1,0,1,1,0,0,0,0,1,1,0,0,0,0],"id":84,"left_children":[1,3,5,-1,-1,7,9,11,13,-1,-1,15,-1,17,19,-1,-1,-1,-1,21,23,-1,-1,-1,-1],"loss_changes":[2.8707784E-5,8.80488E-6,2.754048E-5,0E0,0E0,4.4358712E-5,7.279117E-6,3.674958E-5,2.6506175E-5,0E0,0E0,1.8068058E-5,0E0,8.899942E-6,3.3125347E-5,0E0,1.0383519E-7,0E0,0E0,6.980445E-5,3.5884845E-5,0E0,0E0,0E0,0E0],"parents":[2147483647,0,0,1,1,2,2,5,5,6,6,7,7,8,8,11,11,13,13,14,14,19,19,20,20],"right_children":[2,4,6,-1,-1,8,10,12,14,-1,-1,16,-1,18,20,-1,-1,-1,-1,22,24,-1,-1,-1,-1],"split_conditions":[-1.4298277E0,-2.2067752E-1,1.2284632E0,1.2661591E-3,2.2327603E-4,-9.915786E-1,2.0905358E-1,1.7903273E-1,-1.5232365E0,-1.2209237E-3,-2.3989977E-4,-5.30324E-1,-2.3136512E-4,3.8352892E-1,-3.6926785E-1,-1.3509841E-4,1.1082613E-3,1.2463778E-3,7.162672E-5,-1.68999E-1,-4.6092606E-1,-5.667107E-4,-6.8823847E-6,-2.018418E-4,4.0520266E-5],"split_indices":[9,1,52,0,0,53,0,30,42,0,0,0,0,0,42,0,0,0,0,52,14,0,0,0,0],"split_type":[0,0,0,0,0,0,0,0,0,0,0,0,0,0,0,0,0,0,0,0,0,0,0,0,0],"sum_hessian":[6.57E2,3E0,6.54E2,1E0,2E0,6.51E2,3E0,1E1,6.41E2,1E0,2E0,7E0,3E0,2E0,6.39E2,1E0,6E0,1E0,1E0,9.3E1,5.46E2,2.8E1,6.5E1,6.1E1,4.85E2],"tree_param":{"num_deleted":"0","num_feature":"60","num_nodes":"25","size_leaf_vector":"0"}},{"base_weights":[3.8172425E-7,-1.049205E-5,3.5722256E-3,1.6464599E-4,-2.4985164E-4,3.928567E-4,-4.5289984E-4,-3.9493944E-4,1.1715742E-3,5.6110823E-4,-8.732866E-4,-1.745024E-3,2.3782616E-4,-7.754667E-4,7.583903E-5,2.2568486E-3,4.6426136E-4,2.6253667E-3,3.9640183E-4,1.1596767E-4,-3.1601682E-3,-1.2022249E-4,-2.7735238E-3,5.7392713E-4,-2.3546722E-3,-9.685152E-4,1.1849701E-3,-2.940204E-3,2.4116397E-4,3.2357648E-3,1.3750611E-3,1.2720797E-3,-2.2841943E-4,6.674826E-3,1.3704863E-3,6.819404E-4,-4.0117893E-4,-1.1635976E-3,1.7339628E-3,-4.6936134E-3,3.1340308E-4,9.0908154E-4,-9.074342E-4,-4.023106E-3,-5.2156026E-4,1.0207584E-3,-8.6440594E-4,-3.3202507E-3,3.613755E-4,-2.4556026E-3,-6.3670834E-4,1.7166794E-3,-1.1596208E-3,3.303165E-4,-4.6580434E-3,4.761219E-3,1.5522625E-4,1.6321751E-3,5.039405E-4,1.284902E-4,-7.959064E-4],"categories":[],"categories_nodes":[],"categories_segments":[],"categories_sizes":[],"default_left":[1,1,0,1,1,1,1,1,1,1,1,1,1,1,1,1,1,1,1,1,1,1,1,1,1,1,1,1,1,0,0,1,1,0,0,0,0,0,0,0,0,0,0,0,0,0,0,0,0,0,0,0,0,0,0,0,0,0,0,0,0],"id":85,"left_children":[1,3,-1,5,7,9,11,13,15,17,19,21,23,25,27,29,31,33,35,37,39,41,43,45,47,49,51,53,55,-1,-1,57,59,-1,-1,-1,-1,-1,-1,-1,-1,-1,-1,-1,-1,-1,-1,-1,-1,-1,-1,-1,-1,-1,-1,-1,-1,-1,-1,-1,-1],"loss_changes":[2.559382E-5,2.7583212E-5,0E0,5.3731543E-5,5.7795085E-5,5.9712496E-5,9.2342896E-5,4.538225E-5,1.8910578E-5,8.259844E-5,7.502262E-5,5.9826445E-5,6.0602622E-5,5.4131975E-5,5.7552566E-5,4.1825842E-6,9.803092E-6,8.232081E-5,5.242606E-5,5.1705563E-5,5.473631E-5,1.2979135E-5,5.981E-5,4.0086572E-5,2.218031E-5,6.1595005E-5,1.819703E-5,3.5248E-5,4.1601244E-5,0E0,0E0,1.3903073E-6,2.127682E-6,0E0,0E0,0E0,0E0,0E0,0E0,0E0,0E0,0E0,0E0,0E0,0E0,0E0,0E0,0E0,0E0,0E0,0E0,0E0,0E0,0E0,0E0,0E0,0E0,0E0,0E0,0E0,0E0],"parents":[2147483647,0,0,1,1,3,3,4,4,5,5,6,6,7,7,8,8,9,9,10,10,11,11,12,12,13,13,14,14,15,15,16,16,17,17,18,18,19,19,20,20,21,21,22,22,23,23,24,24,25,25,26,26,27,27,28,28,31,31,32,32],"right_children":[2,4,-1,6,8,10,12,14,16,18,20,22,24,26,28,30,32,34,36,38,40,42,44,46,48,50,52,54,56,-1,-1,58,60,-1,-1,-1,-1,-1,-1,-1,-1,-1,-1,-1,-1,-1,-1,-1,-1,-1,-1,-1,-1,-1,-1,-1,-1,-1,-1,-1,-1],"split_conditions":[1.2691524E0,8.583716E-2,1.0716678E-3,2.7617952E-1,4.9467367E-1,4.0468442E-1,-1.7896995E-1,4.2698555E-2,8.448634E-2,-6.081631E-1,2.3332146E-1,-1.328637E-1,4.244734E-1,6.024717E-1,-5.511874E-1,2.1824531E-2,-6.8681434E-2,-2.377931E-1,2.1950367E-1,-2.1052632E-2,4.7536469E-1,1.2823758E-1,2.1516177E-1,2.0117709E-1,4.1615722E-1,-3.3402282E-1,2.9179233E-1,-1.1379153E-1,-1.1701916E0,9.7072945E-4,4.1251836E-4,-6.9530256E-2,2.930512E-1,2.0024478E-3,4.111459E-4,2.0458213E-4,-1.2035368E-4,-3.490793E-4,5.201889E-4,-1.4080841E-3,9.402093E-5,2.727245E-4,-2.7223027E-4,-1.2069318E-3,-1.5646809E-4,3.0622754E-4,-2.593218E-4,-9.960752E-4,1.08412656E-4,-7.366808E-4,-1.9101251E-4,5.1500386E-4,-3.4788626E-4,9.9094956E-5,-1.3974131E-3,1.4283657E-3,4.656788E-5,4.8965256E-4,1.5118216E-4,3.854706E-5,-2.3877193E-4],"split_indices":[7,46,0,8,53,42,54,34,11,54,20,2,3,55,42,7,9,27,18,18,20,24,45,4,4,4,0,0,25,0,0,34,15,0,0,0,0,0,0,0,0,0,0,0,0,0,0,0,0,0,0,0,0,0,0,0,0,0,0,0,0],"split_type":[0,0,0,0,0,0,0,0,0,0,0,0,0,0,0,0,0,0,0,0,0,0,0,0,0,0,0,0,0,0,0,0,0,0,0,0,0,0,0,0,0,0,0,0,0,0,0,0,0,0,0,0,0,0,0,0,0,0,0,0,0],"sum_hessian":[6.57E2,6.56E2,1E0,3.79E2,2.77E2,2.77E2,1.02E2,2.52E2,2.5E1,2.45E2,3.2E1,3.5E1,6.7E1,1.39E2,1.13E2,9E0,1.6E1,1.7E1,2.28E2,2.3E1,9E0,1.4E1,2.1E1,6E1,7E0,1.27E2,1.2E1,5E0,1.08E2,3E0,6E0,7E0,9E0,3E0,1.4E1,1.68E2,6E1,1.3E1,1E1,6E0,3E0,6E0,8E0,1.3E1,8E0,4.6E1,1.4E1,5E0,2E0,2.2E1,1.05E2,1E1,2E0,2E0,3E0,1E0,1.07E2,4E0,3E0,6E0,3E0],"tree_param":{"num_deleted":"0","num_feature":"60","num_nodes":"61","size_leaf_vector":"0"}},{"base_weights":[2.4889991E-6,-1.0508743E-4,3.4644364E-4,9.3679735E-4,-1.8278162E-4,1.6118607E-3,9.601973E-6,1.4048115E-3,-1.5594065E-3,-3.3603227E-4,3.311653E-4,2.07453E-3,-2.2611255E-3,-1.2443084E-3,3.8438343E-4,3.2548334E-3,9.046138E-4,-2.1458045E-4,-2.8327059E-3,-9.4457166E-5,-8.027023E-4,-1.5955431E-3,5.661069E-4,2.554298E-3,-8.3516835E-4,-1.7381848E-3,1.473935E-3,2.8500436E-3,1.609427E-4,7.9580647E-4,4.285395E-3,-1.1586631E-4,1.3079043E-3,-5.5706006E-4,4.0642917E-4,2.2717612E-3,-1.8623858E-4,-5.6885625E-4,-4.0931324E-3,-3.164232E-4,-2.1955501E-3,-2.4510026E-3,6.884721E-4,3.132777E-3,-5.018696E-4,2.2314489E-4,-1.1555329E-3,1.448373E-3,-2.0782496E-3,3.622353E-3,3.5541007E-4,-4.1208352E-4,1.0731863E-3,2.2607669E-4,1.509198E-3,5.888147E-4,3.0150984E-3,-2.0662039E-3,-9.182294E-5,-8.743471E-4,1.5464053E-3,-6.991175E-3,-9.560719E-4,-5.7420135E-4,3.5734475E-4,-2.6628585E-3,-1.0625273E-3,-9.773831E-4,8.984237E-4,5.4180683E-3,2.3239309E-3,-1.3783537E-3,6.183982E-5,-1.7949317E-4,-2.5957099E-3,-8.7022764E-4,8.9819235E-4,2.4958733E-3,3.171267E-4],"categories":[],"categories_nodes":[],"categories_segments":[],"categories_sizes":[],"default_left":[1,1,1,1,1,1,1,1,1,1,1,1,0,1,1,1,1,1,0,1,1,1,1,1,1,1,0,1,1,0,0,0,1,0,0,1,1,1,1,1,1,0,1,1,1,0,0,0,1,0,0,1,1,0,0,0,0,0,0,0,0,0,0,0,0,0,0,0,0,0,0,0,0,0,0,0,0,0,0],"id":86,"left_children":[1,3,5,7,9,11,13,15,17,19,21,23,-1,25,27,29,31,33,-1,35,37,39,41,43,45,47,-1,49,51,-1,-1,-1,53,-1,-1,55,57,59,61,63,65,-1,67,69,71,-1,-1,-1,73,-1,-1,75,77,-1,-1,-1,-1,-1,-1,-1,-1,-1,-1,-1,-1,-1,-1,-1,-1,-1,-1,-1,-1,-1,-1,-1,-1,-1,-1],"loss_changes":[2.4383336E-5,4.0807317E-5,6.690502E-5,4.307973E-5,3.6972226E-5,6.3823885E-5,5.9221085E-5,2.4816934E-5,9.666353E-6,4.0621824E-5,4.9790957E-5,4.401266E-5,0E0,4.1493782E-5,5.2981406E-5,1.1794735E-5,1.044029E-5,1.077138E-6,0E0,5.2327883E-5,9.2314454E-5,8.515046E-6,3.7498805E-5,4.75384E-5,1.9530814E-6,3.0100979E-5,6.3425796E-7,1.412561E-5,4.7488793E-5,0E0,0E0,9.402808E-7,3.578578E-6,0E0,0E0,9.483636E-6,4.081234E-5,7.631049E-5,6.604662E-5,1.0736012E-6,1.4064062E-6,6.9678754E-7,3.375451E-5,2.807466E-5,2.5556487E-6,0E0,0E0,0E0,2.2132306E-5,0E0,8.401926E-7,3.4398166E-5,3.6855752E-5,0E0,0E0,0E0,0E0,0E0,0E0,0E0,0E0,0E0,0E0,0E0,0E0,0E0,0E0,0E0,0E0,0E0,0E0,0E0,0E0,0E0,0E0,0E0,0E0,0E0,0E0],"parents":[2147483647,0,0,1,1,2,2,3,3,4,4,5,5,6,6,7,7,8,8,9,9,10,10,11,11,13,13,14,14,15,15,16,16,17,17,19,19,20,20,21,21,22,22,23,23,24,24,25,25,27,27,28,28,32,32,35,35,36,36,37,37,38,38,39,39,40,40,42,42,43,43,44,44,48,48,51,51,52,52],"right_children":[2,4,6,8,10,12,14,16,18,20,22,24,-1,26,28,30,32,34,-1,36,38,40,42,44,46,48,-1,50,52,-1,-1,-1,54,-1,-1,56,58,60,62,64,66,-1,68,70,72,-1,-1,-1,74,-1,-1,76,78,-1,-1,-1,-1,-1,-1,-1,-1,-1,-1,-1,-1,-1,-1,-1,-1,-1,-1,-1,-1,-1,-1,-1,-1,-1,-1],"split_conditions":[2.9191038E-1,-5.7114565E-1,3.3599335E-1,3.5711527E-1,3.3529013E-1,5.216342E-1,-3.3607042E-1,-2.1727195E-1,3.4090087E-1,4.4913724E-2,-5.105343E-1,4.2193946E-1,-6.7833764E-4,5.2720976E-1,-7.135494E-1,-2.9938322E-1,-2.3479462E-1,2.941521E-1,-8.4981177E-4,-8.8577175E-1,5.637047E-1,9.16392E-2,-6.666434E-1,3.931099E-1,-2.883762E-1,-7.3675144E-1,4.4218052E-4,-6.278778E-2,1.2677996E-1,2.3874195E-4,1.2856186E-3,-3.4759894E-5,-2.2190529E-1,-1.6711802E-4,1.2192876E-4,-1.0380101E-1,-7.3733723E-1,3.680821E-1,-1.0796084E-1,-5.693671E-2,1.8525292E-1,-7.353008E-4,-5.952191E-1,-4.6360686E-2,-4.389632E-1,6.694347E-5,-3.466599E-4,4.345119E-4,-1.5610439E-1,1.086706E-3,1.06623025E-4,2.5338203E-1,-2.2191831E-1,6.782301E-5,4.527594E-4,1.7664442E-4,9.0452953E-4,-6.198612E-4,-2.7546883E-5,-2.6230415E-4,4.639216E-4,-2.0973526E-3,-2.8682157E-4,-1.722604E-4,1.0720343E-4,-7.988576E-4,-3.187582E-4,-2.9321495E-4,2.6952714E-4,1.6254205E-3,6.971793E-4,-4.1350612E-4,1.8551946E-5,-5.3847954E-5,-7.78713E-4,-2.6106832E-4,2.6945773E-4,7.48762E-4,9.513801E-5],"split_indices":[28,46,28,16,15,49,31,49,0,28,40,53,0,16,30,2,19,1,0,58,16,14,25,37,1,35,0,11,18,0,0,0,56,0,0,29,51,38,12,1,32,0,8,23,0,0,0,0,10,0,0,26,7,0,0,0,0,0,0,0,0,0,0,0,0,0,0,0,0,0,0,0,0,0,0,0,0,0,0],"split_type":[0,0,0,0,0,0,0,0,0,0,0,0,0,0,0,0,0,0,0,0,0,0,0,0,0,0,0,0,0,0,0,0,0,0,0,0,0,0,0,0,0,0,0,0,0,0,0,0,0,0,0,0,0,0,0,0,0,0,0,0,0,0,0,0,0,0,0,0,0,0,0,0,0,0,0,0,0,0,0],"sum_hessian":[6.57E2,5.01E2,1.56E2,3.4E1,4.67E2,3.2E1,1.24E2,2.9E1,5E0,3.6E2,1.07E2,2.9E1,3E0,2.8E1,9.6E1,5E0,2.4E1,3E0,2E0,2.38E2,1.22E2,1.1E1,9.6E1,2.5E1,4E0,2.4E1,4E0,7E0,8.9E1,2E0,3E0,7E0,1.7E1,2E0,1E0,8E0,2.3E2,1.15E2,7E0,4E0,7E0,3E0,9.3E1,2.1E1,4E0,1E0,3E0,2E0,2.2E1,5E0,2E0,5.5E1,3.4E1,3E0,1.4E1,3E0,5E0,1E1,2.2E2,1.01E2,1.4E1,3E0,4E0,3E0,1E0,4E0,3E0,1E1,8.3E1,4E0,1.7E1,1E0,3E0,5E0,1.7E1,4.1E1,1.4E1,1.1E1,2.3E1],"tree_param":{"num_deleted":"0","num_feature":"60","num_nodes":"79","size_leaf_vector":"0"}},{"base_weights":[2.4763197E-6,2.0204782E-3,-1.2955616E-5,3.131787E-3,2.3567677E-4,-1.6514835E-4,2.1538293E-4,2.8767518E-4,-3.7742677E-4,2.7270622E-3,7.3299016E-5,1.2556858E-3,-4.1419702E-5,-8.699551E-4,-8.375657E-5,4.11301E-3,1.9363004E-4,1.5565178E-4,-1.9104972E-3,4.2109954E-4,3.0496656E-3,5.6331116E-4,-8.516338E-4,-4.416718E-4,-2.071928E-3,-3.0123073E-4,1.5514875E-3,5.08976E-3,2.3136586E-3,-3.9061625E-4,9.080817E-4,5.4607204E-5,3.0791187E-3,-7.2380406E-4,-2.9524297E-3,1.7696351E-3,-5.722187E-4,3.7266293E-3,1.1025628E-3,1.9241442E-3,2.1814504E-4,-2.9068333E-3,-4.162615E-4,-9.765766E-4,4.4047306E-4,-3.091575E-3,-4.0044804E-4,-6.589692E-5,-1.9203272E-3,1.9387924E-3,1.8142164E-6,3.0220897E-4,-8.1304903E-4,-1.13889575E-4,3.5515327E-3,-9.954661E-4,3.1725317E-4],"categories":[],"categories_nodes":[],"categories_segments":[],"categories_sizes":[],"default_left":[1,1,1,0,0,1,1,1,1,1,1,1,1,1,1,1,1,1,1,1,1,1,1,1,1,1,1,0,0,0,0,1,1,1,0,0,0,0,0,0,0,0,0,0,0,0,0,0,0,0,0,0,0,0,0,0,0],"id":87,"left_children":[1,3,5,-1,-1,7,9,11,13,15,17,19,21,23,25,27,29,31,33,35,37,39,41,43,45,47,49,-1,-1,-1,-1,51,53,55,-1,-1,-1,-1,-1,-1,-1,-1,-1,-1,-1,-1,-1,-1,-1,-1,-1,-1,-1,-1,-1,-1,-1],"loss_changes":[2.05174E-5,9.179237E-6,2.276303E-5,0E0,4.1472236E-7,3.788557E-5,9.329985E-5,4.0191495E-5,3.8690898E-5,4.8360474E-5,4.097678E-5,4.6627178E-5,4.7026075E-5,5.056338E-5,6.05677E-5,4.0416635E-6,2.8592058E-6,7.0727976E-5,1.0227563E-5,3.182169E-5,9.072341E-6,2.5414502E-5,3.5475856E-5,3.5819925E-5,4.3074295E-5,5.702768E-5,1.2000404E-5,0E0,0E0,4.4719053E-7,0E0,5.030185E-5,1.247185E-5,2.012709E-6,0E0,0E0,0E0,0E0,0E0,0E0,0E0,0E0,0E0,0E0,0E0,0E0,0E0,0E0,0E0,0E0,0E0,0E0,0E0,0E0,0E0,0E0,0E0],"parents":[2147483647,0,0,1,1,2,2,5,5,6,6,7,7,8,8,9,9,10,10,11,11,12,12,13,13,14,14,15,15,16,16,17,17,18,18,19,19,20,20,21,21,22,22,23,23,24,24,25,25,26,26,31,31,32,32,33,33],"right_children":[2,4,6,-1,-1,8,10,12,14,16,18,20,22,24,26,28,30,32,34,36,38,40,42,44,46,48,50,-1,-1,-1,-1,52,54,56,-1,-1,-1,-1,-1,-1,-1,-1,-1,-1,-1,-1,-1,-1,-1,-1,-1,-1,-1,-1,-1,-1,-1],"split_conditions":[-1.4727635E0,-4.0959805E-1,9.214526E-2,9.3953614E-4,7.0703034E-5,-1.4031819E-1,1.2804106E-1,-1.6846907E-1,-9.1680855E-2,1.1147892E-1,7.0147884E-1,1.5156053E-1,9.386452E-2,2.503743E-1,3.2791817E-1,-2.1089256E-1,1.05449244E-1,5.7086194E-1,-4.1631974E-2,-2.1561017E-2,2.7366126E-1,-2.9742306E-1,-6.928797E-1,1.0882261E-1,1.7386118E-1,4.9449754E-1,4.0447947E-1,1.526928E-3,6.940976E-4,-1.1718488E-4,2.724245E-4,2.8659177E-1,-4.2008302E-1,3.3320495E-1,-8.857289E-4,5.3089054E-4,-1.7166561E-4,1.1179888E-3,3.3076885E-4,5.772433E-4,6.544351E-5,-8.7205E-4,-1.2487845E-4,-2.9297298E-4,1.3214193E-4,-9.2747255E-4,-1.2013442E-4,-1.9769077E-5,-5.7609816E-4,5.816377E-4,5.4426494E-7,9.0662696E-5,-2.4391472E-4,-3.4166875E-5,1.0654599E-3,-2.9863985E-4,9.517596E-5],"split_indices":[56,2,38,0,0,58,38,18,18,39,30,5,52,14,16,16,1,30,36,3,1,41,58,27,47,26,36,0,0,0,0,55,0,2,0,0,0,0,0,0,0,0,0,0,0,0,0,0,0,0,0,0,0,0,0,0,0],"split_type":[0,0,0,0,0,0,0,0,0,0,0,0,0,0,0,0,0,0,0,0,0,0,0,0,0,0,0,0,0,0,0,0,0,0,0,0,0,0,0,0,0,0,0,0,0,0,0,0,0,0,0,0,0,0,0,0,0],"sum_hessian":[6.57E2,4E0,6.53E2,2E0,2E0,3.92E2,2.61E2,1.25E2,2.67E2,1.3E1,2.48E2,3.1E1,9.4E1,9.9E1,1.68E2,8E0,5E0,2.39E2,9E0,2.2E1,9E0,5.4E1,4E1,7.4E1,2.5E1,1.49E2,1.9E1,4E0,4E0,3E0,2E0,2.32E2,7E0,5E0,4E0,9E0,1.3E1,6E0,3E0,1E1,4.4E1,6E0,3.4E1,4.6E1,2.8E1,1.5E1,1E1,1.31E2,1.8E1,1.5E1,4E0,1.81E2,5.1E1,1E0,6E0,4E0,1E0],"tree_param":{"num_deleted":"0","num_feature":"60","num_nodes":"57","size_leaf_vector":"0"}},{"base_weights":[6.9112534E-6,-2.126818E-3,1.9931109E-5,-4.1601164E-3,-6.234646E-5,-6.885068E-5,3.824743E-4,3.4860577E-4,-1.9014277E-4,-1.1478067E-4,1.0535952E-3,-2.4374481E-4,9.5512747E-4,-3.694343E-4,4.316491E-4,-1.2279854E-3,3.1234804E-4,6.733433E-4,3.203407E-3,8.0699124E-4,-9.0095325E-4,1.1960084E-3,-7.2998926E-4,8.3006285E-5,-6.4405997E-4,8.9967955E-4,-4.7402293E-4,-2.6412287E-3,2.968931E-4,5.5468996E-4,-6.02268E-4,3.2292109E-3,4.920184E-4,-9.3728304E-5,4.3180734E-3,-1.8209381E-3,1.5943904E-3,-6.367164E-5,-1.8277288E-3,2.3808517E-3,6.968332E-4,4.7911704E-4,-1.5512764E-3,1.4905061E-3,-1.7743549E-4,-9.6431107E-4,4.987351E-4,1.3626725E-3,-4.876554E-4,7.52906E-5,-1.8861898E-3,-1.9966438E-4,-3.5318574E-3,1.4255727E-3,-3.045583E-4,9.7036216E-4,-4.0534776E-4,5.5159842E-5,-1.2688892E-3,9.5664634E-4,-3.5685545E-4,-6.88836E-4,5.482435E-4],"categories":[],"categories_nodes":[],"categories_segments":[],"categories_sizes":[],"default_left":[1,1,1,0,0,1,1,1,1,1,1,1,1,1,1,1,1,1,1,1,1,1,1,1,1,1,1,1,1,1,1,0,1,1,0,0,0,0,0,0,0,0,0,0,0,0,0,0,0,0,0,0,0,0,0,0,0,0,0,0,0,0,0],"id":88,"left_children":[1,3,5,-1,-1,7,9,11,13,15,17,19,21,23,25,27,29,31,33,35,37,39,41,43,45,47,49,51,53,55,57,-1,59,61,-1,-1,-1,-1,-1,-1,-1,-1,-1,-1,-1,-1,-1,-1,-1,-1,-1,-1,-1,-1,-1,-1,-1,-1,-1,-1,-1,-1,-1],"loss_changes":[1.8322187E-5,1.6531378E-5,2.1108974E-5,0E0,0E0,2.6750491E-5,4.317058E-5,4.2986354E-5,4.5755613E-5,3.6044687E-5,4.2803855E-5,4.285077E-5,2.4821911E-5,3.9565533E-5,3.942362E-5,4.6039677E-5,1.2524812E-5,2.0656404E-5,2.9806375E-5,5.2564792E-5,2.9370567E-5,2.9096045E-5,8.687431E-6,4.461965E-5,7.294524E-5,3.984643E-5,2.4965131E-5,2.3214605E-5,7.901475E-6,1.7952018E-5,5.329056E-6,0E0,1.8484268E-5,1.5237769E-6,2.4170731E-8,0E0,0E0,0E0,0E0,0E0,0E0,0E0,0E0,0E0,0E0,0E0,0E0,0E0,0E0,0E0,0E0,0E0,0E0,0E0,0E0,0E0,0E0,0E0,0E0,0E0,0E0,0E0,0E0],"parents":[2147483647,0,0,1,1,2,2,5,5,6,6,7,7,8,8,9,9,10,10,11,11,12,12,13,13,14,14,15,15,16,16,17,17,18,18,19,19,20,20,21,21,22,22,23,23,24,24,25,25,26,26,27,27,28,28,29,29,30,30,32,32,33,33],"right_children":[2,4,6,-1,-1,8,10,12,14,16,18,20,22,24,26,28,30,32,34,36,38,40,42,44,46,48,50,52,54,56,58,-1,60,62,-1,-1,-1,-1,-1,-1,-1,-1,-1,-1,-1,-1,-1,-1,-1,-1,-1,-1,-1,-1,-1,-1,-1,-1,-1,-1,-1,-1,-1],"split_conditions":[-1.5232365E0,-1.4377795E-2,3.1785095E-1,-1.248035E-3,-1.8703939E-5,-2.7529424E-1,8.323212E-2,2.0911753E-2,2.854737E-1,-1.5993877E-1,2.9321134E-1,-1.3966492E-1,3.397324E-1,-1.7185842E-1,1.2552336E-1,4.6297103E-2,3.045748E-1,-4.5871568E-1,-3.3737186E-1,-4.0387455E-1,-4.2141825E-2,-2.1711734E-1,-8.933386E-2,-3.2073393E-1,2.520519E-1,2.85091E-1,1.9340226E-1,-1.2995599E-1,2.2411475E-2,1.6757439E-1,2.741143E-1,9.687633E-4,1.3220826E-1,1.0752643E-1,1.2954221E-3,-5.4628146E-4,4.7831712E-4,-1.9101493E-5,-5.4831867E-4,7.142555E-4,2.0904996E-4,1.4373512E-4,-4.6538294E-4,4.4715186E-4,-5.3230648E-5,-2.8929333E-4,1.4962054E-4,4.0880177E-4,-1.4629663E-4,2.258718E-5,-5.65857E-4,-5.9899317E-5,-1.0595573E-3,4.2767182E-4,-9.1367496E-5,2.9110865E-4,-1.2160433E-4,1.6547954E-5,-3.8066678E-4,2.8699392E-4,-1.0705664E-4,-2.066508E-4,1.6447307E-4],"split_indices":[47,1,3,0,0,57,53,37,28,44,56,36,38,28,39,7,23,4,1,0,2,10,6,17,43,37,7,16,34,30,2,0,8,0,0,0,0,0,0,0,0,0,0,0,0,0,0,0,0,0,0,0,0,0,0,0,0,0,0,0,0,0,0],"split_type":[0,0,0,0,0,0,0,0,0,0,0,0,0,0,0,0,0,0,0,0,0,0,0,0,0,0,0,0,0,0,0,0,0,0,0,0,0,0,0,0,0,0,0,0,0,0,0,0,0,0,0,0,0,0,0,0,0,0,0,0,0,0,0],"sum_hessian":[6.57E2,3E0,6.54E2,1E0,2E0,5.26E2,1.28E2,1.18E2,4.08E2,7.4E1,5.4E1,6E1,5.8E1,3.17E2,9.1E1,2E1,5.4E1,4.7E1,7E0,2.3E1,3.7E1,5.1E1,7E0,1.2E2,1.97E2,6E1,3.1E1,1E1,1E1,4.3E1,1.1E1,2E0,4.5E1,2E0,5E0,5E0,1.8E1,2E1,1.7E1,1.4E1,3.7E1,3E0,4E0,1.8E1,1.02E2,1.54E2,4.3E1,4.5E1,1.5E1,2.3E1,8E0,3E0,7E0,3E0,7E0,3E1,1.3E1,6E0,5E0,2.9E1,1.6E1,1E0,1E0],"tree_param":{"num_deleted":"0","num_feature":"60","num_nodes":"63","size_leaf_vector":"0"}},{"base_weights":[4.9870064E-6,-1.652514E-3,2.0209087E-5,-4.806121E-5,-2.442725E-3,-6.022296E-5,3.41169E-4,1.4363664E-4,-2.9035608E-4,1.6192094E-3,1.8664585E-4,2.4139273E-4,-1.0642065E-3,-6.8664085E-4,2.3086101E-4,3.0501534E-3,4.8533455E-4,-3.1498075E-3,2.4208397E-4,7.236051E-4,2.8488293E-7,1.1559977E-4,-2.6501259E-3,6.4884144E-4,-9.68541E-4,3.278233E-3,1.1143458E-4,-1.618173E-4,8.3588E-4,3.814398E-4,-1.1354759E-3,1.2063148E-3,-2.6676606E-4,-1.7160822E-4,1.1287881E-3,-7.2171044E-4,7.2913244E-4,-1.5463121E-3,-3.6433153E-3,1.5044508E-3,-5.7688425E-4,2.8824748E-4,-1.2493916E-3,4.564792E-3,-2.9072165E-4,-8.750101E-4,4.5146755E-4,1.6017444E-3,2.530267E-4,-1.9539203E-3,-1.2778553E-4],"categories":[],"categories_nodes":[],"categories_segments":[],"categories_sizes":[],"default_left":[1,1,1,0,0,1,1,1,1,1,1,1,1,1,1,0,1,0,1,1,1,1,1,1,1,1,1,0,0,1,1,0,0,0,0,0,0,0,0,0,0,0,0,0,0,0,0,0,0,0,0],"id":89,"left_children":[1,3,5,-1,-1,7,9,11,13,15,17,19,21,23,25,-1,27,-1,29,31,33,35,37,39,41,43,45,-1,-1,47,49,-1,-1,-1,-1,-1,-1,-1,-1,-1,-1,-1,-1,-1,-1,-1,-1,-1,-1,-1,-1],"loss_changes":[1.6635138E-5,7.489738E-6,1.6878046E-5,9.241234E-9,0E0,2.4578168E-5,2.5568559E-5,3.308147E-5,5.0969924E-5,2.1234813E-5,2.258859E-5,2.9996212E-5,3.959898E-5,5.3334596E-5,3.857593E-5,0E0,2.1769652E-6,0E0,2.2893726E-5,4.1435105E-5,3.375258E-5,7.2045455E-6,4.232963E-6,2.7086451E-5,4.130463E-5,1.9693765E-5,3.5279103E-5,2.580196E-8,2.9449438E-7,1.6361952E-5,8.8224415E-6,0E0,0E0,0E0,0E0,0E0,0E0,0E0,0E0,0E0,0E0,0E0,0E0,0E0,0E0,0E0,0E0,0E0,0E0,0E0,0E0],"parents":[2147483647,0,0,1,1,2,2,5,5,6,6,7,7,8,8,9,9,10,10,11,11,12,12,13,13,14,14,16,16,18,18,19,19,20,20,21,21,22,22,23,23,24,24,25,25,26,26,29,29,30,30],"right_children":[2,4,6,-1,-1,8,10,12,14,16,18,20,22,24,26,-1,28,-1,30,32,34,36,38,40,42,44,46,-1,-1,48,50,-1,-1,-1,-1,-1,-1,-1,-1,-1,-1,-1,-1,-1,-1,-1,-1,-1,-1,-1,-1],"split_conditions":[-1.4163241E0,-2.3843043E-1,2.854737E-1,-1.4418364E-5,-7.328175E-4,4.4923857E-2,-4.3496937E-1,2.3629917E-1,1.2521008E-1,-7.052186E-2,-1.2341669E0,-1.4151098E-1,3.2682878E-1,-2.9761046E-1,-6.6769755E-1,9.15046E-4,-2.7257288E-1,-9.449423E-4,5.0325286E-1,8.350783E-2,1.283459E-1,9.1409996E-2,2.543643E-1,4.424687E-1,-2.5233257E-1,2.3106948E-1,-2.0938039E-1,-4.8545193E-5,2.5076402E-4,3.0095035E-1,1.1788936E-1,3.6189443E-4,-8.002982E-5,-5.1482468E-5,3.3863646E-4,-2.1651314E-4,2.1873975E-4,-4.6389367E-4,-1.0929946E-3,4.5133525E-4,-1.7306529E-4,8.647425E-5,-3.748175E-4,1.3694377E-3,-8.72165E-5,-2.6250305E-4,1.3544028E-4,4.8052336E-4,7.5908014E-5,-5.861761E-4,-3.833566E-5],"split_indices":[20,2,39,0,0,21,14,39,26,36,19,27,59,19,38,0,6,0,9,57,39,3,19,21,43,2,5,0,0,39,21,0,0,0,0,0,0,0,0,0,0,0,0,0,0,0,0,0,0,0,0],"split_type":[0,0,0,0,0,0,0,0,0,0,0,0,0,0,0,0,0,0,0,0,0,0,0,0,0,0,0,0,0,0,0,0,0,0,0,0,0,0,0,0,0,0,0,0,0,0,0,0,0,0,0],"sum_hessian":[6.57E2,5E0,6.52E2,2E0,3E0,5.22E2,1.3E2,2.77E2,2.45E2,1.3E1,1.17E2,2.57E2,2E1,1.39E2,1.06E2,5E0,8E0,1E0,1.16E2,8.5E1,1.72E2,1.2E1,8E0,2.4E1,1.15E2,3E0,1.03E2,3E0,5E0,1.06E2,1E1,5.7E1,2.8E1,1.5E2,2.2E1,5E0,7E0,5E0,3E0,1.4E1,1E1,2.1E1,9.4E1,2E0,1E0,2.6E1,7.7E1,9E0,9.7E1,5E0,5E0],"tree_param":{"num_deleted":"0","num_feature":"60","num_nodes":"51","size_leaf_vector":"0"}},{"base_weights":[2.7541198E-6,6.007108E-5,-4.3696354E-4,9.833294E-5,-7.6339766E-4,-1.9112974E-3,-2.1039185E-4,1.5211143E-3,7.2237955E-5,-1.7012392E-4,-1.6956233E-3,-2.4044898E-3,-5.7038665E-4,-1.1619384E-3,6.288343E-5,3.830182E-4,2.5826066E-3,4.5021934E-5,1.1909121E-3,4.789829E-5,-1.2035271E-3,-2.5648512E-3,-3.1342506E-4,5.8380765E-4,-2.0931922E-3,5.4749637E-4,-6.4486644E-4,-1.6109832E-4,9.808341E-4,1.3618256E-4,-2.8338525E-4,1.8668382E-3,5.351035E-4,-3.240779E-4,2.6629417E-4,-3.2671038E-3,-7.73564E-4,-2.6845932E-4,1.0770559E-3,7.488239E-4,-4.4972697E-4,2.3922749E-4,-1.2753336E-3,8.38726E-5,2.2777342E-3,-5.295813E-3,-1.945211E-4,2.9303133E-5,8.327231E-4,9.3729614E-4,-2.679132E-4,-6.9396495E-4,3.8573146E-4,-5.3540466E-4,8.4488303E-4,-1.7248928E-3,-4.633658E-4],"categories":[],"categories_nodes":[],"categories_segments":[],"categories_sizes":[],"default_left":[1,1,1,1,1,1,1,1,1,1,1,0,0,1,1,1,0,1,1,1,0,1,0,1,0,1,1,0,0,1,1,0,1,0,0,0,0,0,0,1,1,1,1,0,0,0,0,0,0,0,0,0,0,0,0,0,0],"id":90,"left_children":[1,3,5,7,9,11,13,15,17,19,21,-1,-1,23,25,27,-1,29,31,33,-1,35,-1,37,-1,39,41,-1,-1,43,45,-1,47,-1,-1,-1,-1,-1,-1,49,51,53,55,-1,-1,-1,-1,-1,-1,-1,-1,-1,-1,-1,-1,-1,-1],"loss_changes":[1.6610005E-5,1.8443907E-5,2.4985096E-5,2.0607238E-5,1.4091222E-5,5.241778E-6,1.7495353E-5,1.1091617E-5,1.6661155E-5,3.8878293E-6,1.1210568E-5,0E0,2.8616796E-7,2.560801E-5,1.8531255E-5,2.1097E-6,0E0,1.6115191E-5,4.763664E-6,1.3048711E-6,0E0,5.0203016E-6,2.84196E-7,2.8114207E-6,6.218652E-7,6.76136E-6,1.25677225E-5,1.1858055E-7,0E0,4.697126E-5,5.1084593E-5,0E0,1.1798875E-6,2.2616615E-7,5.1079513E-7,0E0,0E0,0E0,0E0,5.425035E-6,1.4919882E-6,5.1439574E-6,3.946101E-6,0E0,0E0,0E0,0E0,0E0,0E0,0E0,0E0,0E0,0E0,0E0,0E0,0E0,0E0],"parents":[2147483647,0,0,1,1,2,2,3,3,4,4,5,5,6,6,7,7,8,8,9,9,10,10,13,13,14,14,15,15,17,17,18,18,19,19,21,21,23,23,25,25,26,26,29,29,30,30,32,32,39,39,40,40,41,41,42,42],"right_children":[2,4,6,8,10,12,14,16,18,20,22,-1,-1,24,26,28,-1,30,32,34,-1,36,-1,38,-1,40,42,-1,-1,44,46,-1,48,-1,-1,-1,-1,-1,-1,50,52,54,56,-1,-1,-1,-1,-1,-1,-1,-1,-1,-1,-1,-1,-1,-1],"split_conditions":[4.109965E-1,6.9822335E-1,-3.3215278E-1,-9.915786E-1,1.3804947E-1,2.1863869E-1,-3.4577948E-1,-4.956126E-2,7.798544E-1,6.024717E-1,-1.5030089E-1,-7.2134694E-4,-1.71116E-4,-1.12817466E-1,6.568892E-2,1.0447138E-1,7.7478203E-4,2.982536E-1,4.249894E-2,-1.7794505E-1,-3.6105813E-4,8.916221E-2,-9.402752E-5,-1.7909534E-1,-6.279577E-4,3.1240407E-1,1.1117171E-1,-4.8329497E-5,2.9425026E-4,2.7855536E-1,2.9882616E-1,5.6005147E-4,-3.7281972E-1,-9.7223376E-5,7.9888254E-5,-9.801312E-4,-2.320692E-4,-8.05378E-5,3.2311678E-4,2.4380243E-1,2.6227945E-1,2.855472E-1,1.9680342E-1,2.516178E-5,6.833203E-4,-1.588744E-3,-5.835633E-5,8.79094E-6,2.4981695E-4,2.8118884E-4,-8.037396E-5,-2.0818949E-4,1.1571944E-4,-1.606214E-4,2.534649E-4,-5.1746785E-4,-1.3900975E-4],"split_indices":[49,20,17,53,52,24,12,11,21,29,34,0,0,38,18,2,0,7,45,3,0,14,0,0,0,4,33,0,0,7,7,0,26,0,0,0,0,0,0,16,5,54,12,0,0,0,0,0,0,0,0,0,0,0,0,0,0],"split_type":[0,0,0,0,0,0,0,0,0,0,0,0,0,0,0,0,0,0,0,0,0,0,0,0,0,0,0,0,0,0,0,0,0,0,0,0,0,0,0,0,0,0,0,0,0,0,0,0,0,0,0,0,0,0,0,0,0],"sum_hessian":[6.57E2,5.82E2,7.5E1,5.57E2,2.5E1,9E0,6.6E1,9E0,5.48E2,1.6E1,9E0,6E0,3E0,1.4E1,5.2E1,5E0,4E0,5.36E2,1.2E1,1.4E1,2E0,5E0,4E0,5E0,9E0,3.1E1,2.1E1,3E0,2E0,4.2E2,1.16E2,5E0,7E0,5E0,9E0,3E0,2E0,2E0,3E0,2.6E1,5E0,9E0,1.2E1,4.11E2,9E0,1E0,1.15E2,3E0,4E0,2.2E1,4E0,4E0,1E0,4E0,5E0,7E0,5E0],"tree_param":{"num_deleted":"0","num_feature":"60","num_nodes":"57","size_leaf_vector":"0"}},{"base_weights":[-1.8956757E-6,1.9155592E-3,-1.3602429E-5,3.0798018E-3,5.008777E-4,5.6029693E-4,-5.184027E-5,-7.2183646E-4,1.0544737E-3,2.7437988E-4,-1.2187214E-4,-1.5566181E-3,-2.7061833E-4,-4.1606725E-4,1.2967134E-3,4.8383675E-4,-8.114207E-4,3.27605E-3,-1.3506181E-4,-6.0884655E-4,3.0437857E-4,1.23928E-4,-8.173734E-4,1.7476865E-3,6.2493753E-4,2.8386543E-4,2.095215E-3,1.8309025E-4,-1.8262749E-3,8.525885E-4,-1.7746016E-4,1.1721434E-3,2.664344E-3,1.0637417E-4,8.7092246E-4,1.4317605E-4,2.4499847E-3,-2.4303794E-4,3.1320432E-3,-3.027902E-4,1.4177413E-3,2.050501E-3,4.5010902E-4,-5.5302936E-4,-7.501457E-5],"categories":[],"categories_nodes":[],"categories_segments":[],"categories_sizes":[],"default_left":[1,1,1,0,0,1,1,1,1,1,1,0,1,1,1,1,1,0,1,0,0,0,0,1,1,1,1,1,0,1,1,0,0,0,0,0,0,0,0,0,0,0,0,0,0],"id":91,"left_children":[1,3,5,-1,-1,7,9,11,13,15,17,-1,19,21,23,25,27,-1,29,-1,-1,-1,-1,31,33,35,37,39,-1,41,43,-1,-1,-1,-1,-1,-1,-1,-1,-1,-1,-1,-1,-1,-1],"loss_changes":[1.4796295E-5,5.0455274E-6,1.4402806E-5,0E0,0E0,2.6738784E-5,1.4083611E-5,4.098774E-6,1.12262205E-5,2.5182286E-5,2.3164925E-5,0E0,1.9356414E-6,1.1848126E-6,6.7845795E-6,2.9050349E-5,1.8501478E-5,0E0,2.1339916E-5,1.8105993E-7,0E0,4.7194455E-8,7.0781425E-8,4.7906433E-6,1.4380616E-6,2.4943469E-5,2.5004872E-5,6.4282067E-6,5.6972385E-7,9.201891E-6,1.8657563E-5,0E0,0E0,0E0,0E0,0E0,0E0,0E0,0E0,0E0,0E0,0E0,0E0,0E0,0E0],"parents":[2147483647,0,0,1,1,2,2,5,5,6,6,7,7,8,8,9,9,10,10,12,12,13,13,14,14,15,15,16,16,18,18,23,23,24,24,25,25,26,26,27,27,29,29,30,30],"right_children":[2,4,6,-1,-1,8,10,12,14,16,18,-1,20,22,24,26,28,-1,30,-1,-1,-1,-1,32,34,36,38,40,-1,42,44,-1,-1,-1,-1,-1,-1,-1,-1,-1,-1,-1,-1,-1,-1],"split_conditions":[-1.4298277E0,-2.2067752E-1,-6.2515E-1,9.2394056E-4,1.5026331E-4,-1.2867312E-1,-3.2117462E-1,-2.755163E-1,-2.755593E-1,4.0154532E-1,-1.5232365E0,-4.6698545E-4,-4.450967E-2,-2.6716107E-1,1.6982819E-1,3.1854725E-1,8.396306E-2,9.82815E-4,-8.3815074E-1,-1.8265397E-4,9.1313574E-5,3.71784E-5,-2.4521202E-4,1.272969E-4,-1.5610623E-1,-3.3402973E-1,-8.9782275E-2,6.3340896E-1,-5.478825E-4,-1.0942109E-1,-9.3309045E-2,3.5164302E-4,7.9930323E-4,3.1912252E-5,2.6127676E-4,4.2952815E-5,7.349954E-4,-7.291138E-5,9.39613E-4,-9.0837064E-5,4.2532242E-4,6.151503E-4,1.3503271E-4,-1.6590882E-4,-2.2504371E-5],"split_indices":[9,1,46,0,0,13,9,32,56,16,26,0,24,0,52,16,50,0,49,0,0,0,0,3,9,9,0,7,0,5,9,0,0,0,0,0,0,0,0,0,0,0,0,0,0],"split_type":[0,0,0,0,0,0,0,0,0,0,0,0,0,0,0,0,0,0,0,0,0,0,0,0,0,0,0,0,0,0,0,0,0,0,0,0,0,0,0,0,0,0,0,0,0],"sum_hessian":[6.57E2,3E0,6.54E2,1E0,2E0,4E1,6.14E2,1.1E1,2.9E1,1.08E2,5.06E2,3E0,8E0,4E0,2.5E1,9.1E1,1.7E1,1E0,5.05E2,5E0,3E0,2E0,2E0,1.4E1,1.1E1,8.2E1,9E0,9E0,8E0,2E1,4.85E2,1E1,4E0,4E0,7E0,7.8E1,4E0,3E0,6E0,7E0,2E0,4E0,1.6E1,1.03E2,3.82E2],"tree_param":{"num_deleted":"0","num_feature":"60","num_nodes":"45","size_leaf_vector":"0"}},{"base_weights":[5.8588876E-6,-1.74841E-3,1.6563035E-5,-3.278317E-3,-1.4566879E-4,5.74186E-5,-4.5830858E-4,-1.5136938E-5,4.7195953E-4,-2.2975933E-3,-1.2114E-4,1.3521885E-5,-1.4637597E-3,-1.3795458E-3,6.447316E-4,-6.009728E-4,-3.8439706E-3,2.1410723E-4,-1.4859186E-3,-3.474409E-5,7.805002E-4,-3.0562282E-4,-1.715091E-3,-1.948446E-3,-6.485164E-4,1.488787E-3,3.53146E-4,-1.1353592E-3,1.3373792E-4,-6.4872764E-4,5.1461585E-4,9.6440315E-5,-1.6957686E-3,-1.8518412E-4,2.2359472E-4,1.6939978E-4,1.985761E-3,1.8414772E-4,2.9054754E-3,9.504922E-4,-1.8431088E-4,2.2506714E-4,-8.953097E-4,-4.7378827E-4,8.0571644E-4],"categories":[],"categories_nodes":[],"categories_segments":[],"categories_sizes":[],"default_left":[1,1,1,0,0,1,1,1,1,1,1,1,1,1,1,1,0,1,1,1,1,0,0,0,0,1,1,0,0,1,1,0,0,0,0,0,0,0,0,0,0,0,0,0,0],"id":92,"left_children":[1,3,5,-1,-1,7,9,11,13,15,17,19,21,23,25,27,-1,29,31,33,35,-1,-1,-1,-1,37,39,-1,-1,41,43,-1,-1,-1,-1,-1,-1,-1,-1,-1,-1,-1,-1,-1,-1],"loss_changes":[1.2384852E-5,9.33063E-6,1.2734067E-5,0E0,0E0,1.8173796E-5,3.196942E-5,2.1400441E-5,2.9679391E-5,1.8678802E-5,2.090737E-5,1.8758712E-5,2.3865905E-6,2.0634634E-6,1.9901738E-5,2.1149376E-6,0E0,9.92755E-6,3.1520594E-6,1.857977E-5,2.1759673E-5,3.1500576E-8,0E0,0E0,0E0,3.8278577E-5,2.04012E-5,0E0,2.0819124E-7,2.356126E-6,8.438041E-6,0E0,0E0,0E0,0E0,0E0,0E0,0E0,0E0,0E0,0E0,0E0,0E0,0E0,0E0],"parents":[2147483647,0,0,1,1,2,2,5,5,6,6,7,7,8,8,9,9,10,10,11,11,12,12,13,13,14,14,15,15,17,17,18,18,19,19,20,20,25,25,26,26,29,29,30,30],"right_children":[2,4,6,-1,-1,8,10,12,14,16,18,20,22,24,26,28,-1,30,32,34,36,-1,-1,-1,-1,38,40,-1,-1,42,44,-1,-1,-1,-1,-1,-1,-1,-1,-1,-1,-1,-1,-1,-1],"split_conditions":[-1.5232365E0,-1.4377795E-2,5.513829E-1,-9.834951E-4,-4.370064E-5,3.8445455E-1,-3.0942327E-1,8.7150156E-1,-6.295921E-1,3.412969E-1,3.193245E-1,5.557028E-1,-3.1399316E-1,-1.8379319E-1,-2.9323566E-1,1.283148E-1,-1.1531912E-3,-1.9385138E-1,-2.8297538E-1,1.3633323E-1,1.09986514E-1,-9.168685E-5,-5.145273E-4,-5.8453385E-4,-1.9455493E-4,8.5579865E-2,4.234035E-2,-3.4060777E-4,4.0121377E-5,-6.136117E-1,-4.6392837E-1,2.8932096E-5,-5.087306E-4,-5.555524E-5,6.707842E-5,5.0819934E-5,5.9572834E-4,5.524432E-5,8.7164267E-4,2.851477E-4,-5.5293265E-5,6.7520145E-5,-2.6859294E-4,-1.4213649E-4,2.4171494E-4],"split_indices":[47,1,29,0,0,1,47,0,11,1,2,0,9,29,2,4,0,22,3,8,32,0,0,0,0,37,58,0,0,22,37,0,0,0,0,0,0,0,0,0,0,0,0,0,0],"split_type":[0,0,0,0,0,0,0,0,0,0,0,0,0,0,0,0,0,0,0,0,0,0,0,0,0,0,0,0,0,0,0,0,0,0,0,0,0,0,0,0,0,0,0,0,0],"sum_hessian":[6.57E2,3E0,6.54E2,1E0,2E0,6.03E2,5.1E1,5.14E2,8.9E1,7E0,4.4E1,5.05E2,9E0,7E0,8.2E1,4E0,3E0,3.6E1,8E0,4.76E2,2.9E1,2E0,7E0,3E0,4E0,2E1,6.2E1,2E0,2E0,9E0,2.7E1,1E0,7E0,3.01E2,1.75E2,2E1,9E0,1.1E1,9E0,2.9E1,3.3E1,2E0,7E0,6E0,2.1E1],"tree_param":{"num_deleted":"0","num_feature":"60","num_nodes":"45","size_leaf_vector":"0"}},{"base_weights":[9.860966E-8,1.478967E-3,-1.1207875E-5,2.1496266E-3,3.153185E-4,1.6204491E-3,-2.1216201E-5,2.6456118E-3,3.9685765E-4,5.108797E-4,-5.3193977E-5,-2.3831178E-4,8.3701115E-4,1.9272169E-3,-6.2799256E-5,-7.096529E-4,8.606538E-5,1.1278702E-3,-1.13587674E-4,-3.2560667E-4,4.508972E-6,1.8860325E-3,6.6822686E-4,-5.8155507E-4,3.8277663E-4,-6.611611E-4,2.6504465E-4,-2.649835E-4,1.3515833E-4],"categories":[],"categories_nodes":[],"categories_segments":[],"categories_sizes":[],"default_left":[1,1,1,0,0,1,1,0,0,1,1,1,1,0,1,0,0,1,1,1,1,0,0,0,0,0,0,0,0],"id":93,"left_children":[1,3,5,-1,-1,7,9,-1,-1,11,13,15,17,-1,19,-1,-1,21,23,25,27,-1,-1,-1,-1,-1,-1,-1,-1],"loss_changes":[1.1018865E-5,3.2242424E-6,1.0714301E-5,0E0,1.6666604E-7,3.9675897E-6,1.1104098E-5,0E0,0E0,9.23986E-6,1.1819808E-5,1.895784E-6,7.3168594E-6,0E0,1.0844887E-5,2.865886E-8,2.8796399E-7,5.7093894E-6,1.8485819E-6,2.4949695E-5,1.7253024E-5,0E0,0E0,0E0,0E0,0E0,0E0,0E0,0E0],"parents":[2147483647,0,0,1,1,2,2,5,5,6,6,9,9,10,10,11,11,12,12,14,14,17,17,18,18,19,19,20,20],"right_children":[2,4,6,-1,-1,8,10,-1,-1,12,14,16,18,-1,20,-1,-1,22,24,26,28,-1,-1,-1,-1,-1,-1,-1,-1],"split_conditions":[-1.3959314E0,-1.475281E-1,-1.4298277E0,6.4488803E-4,9.4595554E-5,-2.2067752E-1,-6.6557395E-1,7.936836E-4,1.190573E-4,-1.7117696E-1,-1.5087029E0,-2.0181143E-1,3.949045E-1,5.781651E-4,-2.9467952E-1,-2.1289587E-4,2.5819616E-5,-1.7064923E-1,-2.7256024E-1,9.124209E-2,-1.4074658E-1,5.658098E-4,2.0046807E-4,-1.7446652E-4,1.14833E-4,-1.9834834E-4,7.95134E-5,-7.9495054E-5,4.05475E-5],"split_indices":[34,3,9,0,0,1,6,0,0,57,55,37,50,0,20,0,0,21,1,25,54,0,0,0,0,0,0,0,0],"split_type":[0,0,0,0,0,0,0,0,0,0,0,0,0,0,0,0,0,0,0,0,0,0,0,0,0,0,0,0,0],"sum_hessian":[6.57E2,4E0,6.53E2,2E0,2E0,3E0,6.5E2,1E0,2E0,3.6E1,6.14E2,1.1E1,2.5E1,2E0,6.12E2,4E0,7E0,1.9E1,6E0,1.24E2,4.88E2,6E0,1.3E1,3E0,3E0,7.9E1,4.5E1,1.59E2,3.29E2],"tree_param":{"num_deleted":"0","num_feature":"60","num_nodes":"29","size_leaf_vector":"0"}},{"base_weights":[4.0083414E-6,-3.931408E-4,4.0884534E-5,1.4099127E-4,-9.3230826E-4,5.615278E-4,-3.4133976E-5,4.918162E-4,-5.747577E-4,-2.0550215E-3,-3.804719E-4,8.461264E-4,-8.8276755E-4,-8.0998807E-4,1.1995791E-6,8.6132745E-4,-5.551179E-5,-8.137116E-4,7.879138E-4,1.0866424E-4,-2.6887408E-3,7.939578E-5,-1.2458542E-3,1.4220551E-3,1.460054E-4,1.01281534E-4,-2.4775025E-3,-1.5343704E-4,-2.6446432E-3,-1.3102439E-3,2.7584358E-5,3.5625696E-4,-4.5617818E-4,-5.574245E-4,3.03749E-4,1.9374507E-3,1.21423465E-4,7.5942953E-4,-7.145823E-4,-5.8500096E-4,1.1053849E-3,3.4338332E-4,-9.832095E-4,-3.0035495E-3,-4.2505562E-4,-8.608028E-5,-1.8225882E-3,2.794883E-4,-1.0305971E-4,5.0024316E-4,2.4685736E-3,-1.168677E-3,1.3912866E-3,-5.138129E-4,1.159914E-3,-1.7652412E-4,-1.5401704E-3,2.5034696E-4,-8.021399E-4,-6.8933266E-4,6.188598E-4,-1.3047575E-3,-1.1955956E-4,1.2924862E-5,7.2078203E-4,-1.9857637E-4,5.7040015E-4],"categories":[],"categories_nodes":[],"categories_segments":[],"categories_sizes":[],"default_left":[1,1,1,1,1,1,1,1,1,1,1,1,1,1,1,0,1,0,0,0,0,1,0,1,1,1,0,1,1,1,1,0,0,0,0,1,1,1,1,1,0,1,1,0,0,0,0,1,1,0,0,0,0,0,0,0,0,0,0,0,0,0,0,0,0,0,0],"id":94,"left_children":[1,3,5,7,9,11,13,15,17,19,21,23,25,27,29,-1,31,-1,-1,-1,-1,33,-1,35,37,39,-1,41,43,45,47,-1,-1,-1,-1,49,51,53,55,57,-1,59,61,-1,-1,-1,-1,63,65,-1,-1,-1,-1,-1,-1,-1,-1,-1,-1,-1,-1,-1,-1,-1,-1,-1,-1],"loss_changes":[9.652711E-6,1.6258698E-5,2.3571069E-5,7.5646494E-6,1.656563E-5,3.198631E-5,1.4475397E-5,4.0926907E-6,3.897291E-6,1.2632696E-5,8.058143E-6,2.5598434E-5,2.065179E-5,2.7298742E-5,1.7544828E-5,8.4372004E-7,1.6473538E-6,9.0846834E-7,0E0,1.2905177E-7,3.7511563E-7,2.1695346E-6,7.8069934E-7,2.3226647E-5,1.6379832E-5,6.8485383E-6,0E0,7.758079E-6,3.5030716E-6,6.115042E-6,1.6384953E-5,1.3083445E-7,7.0595513E-7,0E0,8.038203E-7,1.7848455E-5,1.9646724E-5,9.774427E-6,5.502911E-6,1.2891328E-6,1.3845693E-8,3.840468E-6,1.7879388E-6,0E0,0E0,3.6170837E-7,0E0,1.9988254E-5,2.1212403E-5,0E0,0E0,0E0,0E0,0E0,0E0,0E0,0E0,0E0,0E0,0E0,0E0,0E0,0E0,0E0,0E0,0E0,0E0],"parents":[2147483647,0,0,1,1,2,2,3,3,4,4,5,5,6,6,7,7,8,8,9,9,10,10,11,11,12,12,13,13,14,14,16,16,21,21,23,23,24,24,25,25,27,27,28,28,29,29,30,30,35,35,36,36,37,37,38,38,39,39,41,41,42,42,47,47,48,48],"right_children":[2,4,6,8,10,12,14,16,18,20,22,24,26,28,30,-1,32,-1,-1,-1,-1,34,-1,36,38,40,-1,42,44,46,48,-1,-1,-1,-1,50,52,54,56,58,-1,60,62,-1,-1,-1,-1,64,66,-1,-1,-1,-1,-1,-1,-1,-1,-1,-1,-1,-1,-1,-1,-1,-1,-1,-1],"split_conditions":[-5.1329243E-1,-4.426684E-2,-2.9045647E-1,1.1156297E-1,-2.3517308E-1,3.2756123E-1,-2.3896234E-1,6.466874E-2,6.7145836E-1,-3.2359144E-1,2.5225234E-1,8.43661E-2,-1.254702E-3,3.0773836E-1,-1.1028645E0,2.5839824E-4,9.061065E-2,-2.4411349E-4,2.3637415E-4,3.2599273E-5,-8.0662227E-4,-2.3614988E-1,-3.7375628E-4,3.291244E-1,-6.779895E-2,2.5671008E-1,-7.4325077E-4,1.9194147E-1,3.0684438E-1,-6.715848E-2,-1.0908589E-1,1.06877094E-4,-1.3685346E-4,-1.6722735E-4,9.1124704E-5,-1.7905286E-1,6.4238474E-2,-1.5487382E-1,4.5536977E-1,-6.340768E-1,3.3161548E-4,-3.0555367E-1,2.283105E-2,-9.010649E-4,-1.2751669E-4,-2.5824085E-5,-5.4677646E-4,1.28898E-1,4.639307E-1,1.5007296E-4,7.405721E-4,-3.506031E-4,4.17386E-4,-1.5414387E-4,3.479742E-4,-5.295724E-5,-4.6205113E-4,7.510409E-5,-2.4064198E-4,-2.0679981E-4,1.8565795E-4,-3.9142728E-4,-3.586787E-5,3.8774588E-6,2.1623462E-4,-5.957291E-5,1.7112005E-4],"split_indices":[23,32,23,51,53,25,23,13,0,5,12,57,37,36,29,0,38,0,0,0,0,4,0,7,59,3,0,53,4,36,49,0,0,0,0,38,22,32,57,2,0,5,1,0,0,0,0,8,25,0,0,0,0,0,0,0,0,0,0,0,0,0,0,0,0,0,0],"split_type":[0,0,0,0,0,0,0,0,0,0,0,0,0,0,0,0,0,0,0,0,0,0,0,0,0,0,0,0,0,0,0,0,0,0,0,0,0,0,0,0,0,0,0,0,0,0,0,0,0,0,0,0,0,0,0,0,0,0,0,0,0,0,0,0,0,0,0],"sum_hessian":[6.57E2,5.5E1,6.02E2,2.8E1,2.7E1,7.5E1,5.27E2,1.9E1,9E0,8E0,1.9E1,6.3E1,1.2E1,2.2E1,5.05E2,1.1E1,8E0,8E0,1E0,2E0,6E0,1.3E1,6E0,3.4E1,2.9E1,8E0,4E0,1.7E1,5E0,9E0,4.96E2,4E0,4E0,3E0,1E1,2.4E1,1E1,1.7E1,1.2E1,5E0,3E0,1.1E1,6E0,4E0,1E0,3E0,6E0,1.69E2,3.27E2,7E0,1.7E1,5E0,5E0,4E0,1.3E1,8E0,4E0,1E0,4E0,2E0,9E0,4E0,2E0,1.06E2,6.3E1,2.87E2,4E1],"tree_param":{"num_deleted":"0","num_feature":"60","num_nodes":"67","size_leaf_vector":"0"}},{"base_weights":[-1.2404843E-6,-2.0754933E-3,5.07572E-6,1.6307164E-4,-8.329422E-5,1.8635035E-5,8.495717E-4,-2.038801E-4,2.6484582E-4,-3.4290308E-4,3.044094E-4,-1.0915514E-5,1.4595384E-3,3.0086885E-4,-3.6913977E-4,4.706651E-4,-8.7668595E-4,5.221897E-4,-5.761474E-4,1.0662259E-4,1.3093962E-3,-4.4310713E-4,7.3154375E-4,2.2994012E-3,5.72008E-4,-2.0922616E-5,1.9114356E-3,-3.9966777E-3,-3.0555305E-4,1.2523192E-4,1.1252336E-3,-2.0448992E-3,-5.3578817E-5,5.2954667E-5,2.2685826E-3,-1.4431152E-3,-2.6496346E-4,4.230153E-4,-4.5485346E-4,-5.799507E-4,2.0806799E-3,9.4652176E-5,-8.4074266E-4,-3.5179157E-5,1.0452687E-3,3.3236232E-3,7.212423E-4,9.955103E-4,-8.7996326E-5,5.6538393E-4,-4.1615646E-4,2.6237231E-3,2.4703096E-4,-4.8060813E-3,-7.842332E-4,-8.7906665E-4,-1.0273763E-4,-6.1435177E-4,4.6631196E-4,-1.6959052E-4,1.563908E-3,-5.823796E-4,-2.513431E-3,8.879329E-4,-3.6146285E-4],"categories":[],"categories_nodes":[],"categories_segments":[],"categories_sizes":[],"default_left":[1,0,1,1,1,1,1,1,1,1,1,1,1,1,1,1,1,1,1,1,1,1,1,1,1,1,1,1,1,1,1,1,1,0,0,0,0,0,0,0,0,0,0,0,0,0,0,0,0,0,0,0,0,0,0,0,0,0,0,0,0,0,0,0,0],"id":95,"left_children":[1,-1,3,5,7,9,11,13,15,17,19,21,23,25,27,29,31,33,35,37,39,41,43,45,47,49,51,53,55,57,59,61,63,-1,-1,-1,-1,-1,-1,-1,-1,-1,-1,-1,-1,-1,-1,-1,-1,-1,-1,-1,-1,-1,-1,-1,-1,-1,-1,-1,-1,-1,-1,-1,-1],"loss_changes":[8.631259E-6,0E0,9.186675E-6,2.3384922E-5,1.7769882E-5,2.0354775E-5,2.1535541E-5,2.630326E-5,2.6022095E-5,1.7855546E-5,2.1725435E-5,6.1000765E-6,1.6574413E-5,4.0464794E-5,5.3445983E-5,2.0887284E-5,1.6237034E-5,1.5449774E-5,1.8232895E-5,1.6713577E-5,2.743669E-5,2.6455648E-6,1.7205525E-6,1.699949E-5,3.721274E-6,1.552935E-5,1.4763813E-5,6.631577E-6,2.7127957E-5,1.5926427E-5,1.844142E-5,3.3328906E-6,3.5095954E-6,0E0,0E0,0E0,0E0,0E0,0E0,0E0,0E0,0E0,0E0,0E0,0E0,0E0,0E0,0E0,0E0,0E0,0E0,0E0,0E0,0E0,0E0,0E0,0E0,0E0,0E0,0E0,0E0,0E0,0E0,0E0,0E0],"parents":[2147483647,0,0,2,2,3,3,4,4,5,5,6,6,7,7,8,8,9,9,10,10,11,11,12,12,13,13,14,14,15,15,16,16,17,17,18,18,19,19,20,20,21,21,22,22,23,23,24,24,25,25,26,26,27,27,28,28,29,29,30,30,31,31,32,32],"right_children":[2,-1,4,6,8,10,12,14,16,18,20,22,24,26,28,30,32,34,36,38,40,42,44,46,48,50,52,54,56,58,60,62,64,-1,-1,-1,-1,-1,-1,-1,-1,-1,-1,-1,-1,-1,-1,-1,-1,-1,-1,-1,-1,-1,-1,-1,-1,-1,-1,-1,-1,-1,-1,-1,-1],"split_conditions":[-1.5387831E0,-6.2264805E-4,-1.253396E-1,-1.7381093E-1,2.513092E-1,-4.2828564E-2,-1.0522026E-1,-2.1464553E-1,3.7197655E-1,-3.5765338E-1,3.3708012E-1,1.3213581E-1,-4.3323226E-2,-2.542377E-1,-2.0777264E-1,1.3319746E-1,-8.5851304E-2,3.6685455E-1,-1.3889188E-1,2.5194696E-1,-2.0136742E-1,-4.694836E-2,-1.693556E-1,8.9395106E-2,-1.4924568E-1,-5.072858E-1,2.262762E-2,-2.5270393E-1,4.5724824E-2,-3.006833E-1,-1.8282455E-1,-2.95215E-1,-4.7301516E-1,1.58864E-5,6.805748E-4,-4.3293458E-4,-7.948904E-5,1.2690459E-4,-1.3645604E-4,-1.7398522E-4,6.24204E-4,2.8395654E-5,-2.5222282E-4,-1.0553747E-5,3.1358062E-4,9.97087E-4,2.1637269E-4,2.986531E-4,-2.6398899E-5,1.6961519E-4,-1.2484695E-4,7.87117E-4,7.410929E-5,-1.4418245E-3,-2.3526997E-4,-2.6372E-4,-3.082129E-5,-1.8430554E-4,1.398936E-4,-5.087716E-5,4.691724E-4,-1.7471387E-4,-7.540293E-4,2.6637988E-4,-1.0843886E-4],"split_indices":[16,0,56,56,2,11,23,46,11,16,24,17,2,46,46,35,47,15,47,58,52,32,9,53,43,46,26,0,56,11,32,9,37,0,0,0,0,0,0,0,0,0,0,0,0,0,0,0,0,0,0,0,0,0,0,0,0,0,0,0,0,0,0,0,0],"split_type":[0,0,0,0,0,0,0,0,0,0,0,0,0,0,0,0,0,0,0,0,0,0,0,0,0,0,0,0,0,0,0,0,0,0,0,0,0,0,0,0,0,0,0,0,0,0,0,0,0,0,0,0,0,0,0,0,0,0,0,0,0,0,0,0,0],"sum_hessian":[6.57E2,1E0,6.56E2,2.35E2,4.21E2,1.95E2,4E1,3.13E2,1.08E2,8.6E1,1.09E2,1.7E1,2.3E1,7.7E1,2.36E2,9.2E1,1.6E1,1.8E1,6.8E1,9.2E1,1.7E1,1.1E1,6E0,1.1E1,1.2E1,6.5E1,1.2E1,3E0,2.33E2,6.1E1,3.1E1,6E0,1E1,1.5E1,3E0,1.7E1,5.1E1,5.9E1,3.3E1,5E0,1.2E1,5E0,6E0,2E0,4E0,6E0,5E0,7E0,5E0,2.6E1,3.9E1,8E0,4E0,2E0,1E0,6E1,1.73E2,1.9E1,4.2E1,8E0,2.3E1,2E0,4E0,2E0,8E0],"tree_param":{"num_deleted":"0","num_feature":"60","num_nodes":"65","size_leaf_vector":"0"}},{"base_weights":[-7.1021947E-7,1.4375877E-3,-9.492634E-6,1.6200345E-4,-8.307702E-5,4.204424E-4,-2.2934137E-4,-1.6819086E-4,2.677585E-4,5.330538E-4,-4.6221833E-4,2.6315355E-4,-1.0425216E-3,-1.2361204E-4,-1.2929371E-3,4.6356738E-5,8.746818E-4,2.864297E-4,1.0046443E-3,-1.3709828E-3,3.8385762E-5,6.763838E-4,-5.090549E-4,-1.6213277E-3,-3.9201554E-5,3.127019E-4,-2.1998335E-4,-2.149431E-3,-1.2938146E-4,4.8330874E-4,-2.7974494E-4,1.7418083E-3,3.3225561E-4,1.752877E-5,9.2583534E-4,1.338811E-3,1.9298036E-6,-2.053247E-4,4.5528263E-4,1.0979803E-6,1.4866536E-3,-1.6466932E-3,1.969887E-4,-7.1378227E-4,-3.075151E-3,-7.439302E-4,2.783669E-4,-1.693679E-3,4.3710225E-4,-2.901589E-4,4.288616E-4,-2.7756542E-3,-1.2185663E-3,3.5459796E-4,-3.938928E-4,1.0464038E-3,-1.1200681E-4,3.3451617E-4,-5.9974147E-4,8.269174E-4,2.6786923E-3,5.2727666E-4,-2.0224601E-4],"categories":[],"categories_nodes":[],"categories_segments":[],"categories_sizes":[],"default_left":[1,0,1,1,1,1,1,1,1,1,1,1,1,1,1,1,1,1,1,0,1,1,1,1,1,1,1,1,1,1,1,1,1,0,0,0,0,0,0,0,0,0,0,0,0,0,0,0,0,0,0,0,0,0,0,0,0,0,0,0,0,0,0],"id":96,"left_children":[1,-1,3,5,7,9,11,13,15,17,19,21,23,25,27,29,31,33,35,-1,37,39,41,43,45,47,49,51,53,55,57,59,61,-1,-1,-1,-1,-1,-1,-1,-1,-1,-1,-1,-1,-1,-1,-1,-1,-1,-1,-1,-1,-1,-1,-1,-1,-1,-1,-1,-1,-1,-1],"loss_changes":[8.325323E-6,3.5012272E-7,8.2791885E-6,2.0020758E-5,1.3751214E-5,1.2074708E-5,3.1912823E-5,1.8391924E-5,1.2053104E-5,1.2040629E-5,6.421664E-6,1.6299311E-5,1.7358274E-5,1.5079979E-5,1.3674E-5,9.682086E-6,1.0709724E-5,1.21912835E-5,1.2060071E-5,0E0,1.1095019E-6,1.8054769E-5,1.478238E-5,2.2873814E-5,2.8926809E-6,1.6963953E-5,1.3465622E-5,1.2811106E-6,1.0358E-6,9.838563E-6,7.866519E-6,5.4992615E-6,1.7744645E-6,0E0,0E0,0E0,0E0,0E0,0E0,0E0,0E0,0E0,0E0,0E0,0E0,0E0,0E0,0E0,0E0,0E0,0E0,0E0,0E0,0E0,0E0,0E0,0E0,0E0,0E0,0E0,0E0,0E0,0E0],"parents":[2147483647,0,0,2,2,3,3,4,4,5,5,6,6,7,7,8,8,9,9,10,10,11,11,12,12,13,13,14,14,15,15,16,16,17,17,18,18,20,20,21,21,22,22,23,23,24,24,25,25,26,26,27,27,28,28,29,29,30,30,31,31,32,32],"right_children":[2,-1,4,6,8,10,12,14,16,18,20,22,24,26,28,30,32,34,36,-1,38,40,42,44,46,48,50,52,54,56,58,60,62,-1,-1,-1,-1,-1,-1,-1,-1,-1,-1,-1,-1,-1,-1,-1,-1,-1,-1,-1,-1,-1,-1,-1,-1,-1,-1,-1,-1,-1,-1],"split_conditions":[-1.4727635E0,4.312763E-4,-1.6963577E-1,8.541533E-2,3.2036856E-1,4.1346756E-1,1.7889674E-1,6.8798995E-1,2.987008E-1,-2.955004E-1,-1.59746E-1,1.9858739E-1,8.8153094E-2,-3.0638856E-1,6.5464735E-2,-1.362205E-1,3.8068545E-1,1.868254E-1,2.6531798E-1,-4.1129487E-4,3.4907293E-1,-2.1477664E-2,3.134318E-1,-4.2319115E-2,1.465711E-1,-8.476826E-1,4.510328E-1,-1.0668594E-1,2.4332456E-2,2.1052632E-2,-2.1635339E-1,-1.3426745E-1,2.0006138E-1,5.258631E-6,2.777506E-4,4.016433E-4,5.789411E-7,-6.159741E-5,1.365848E-4,3.293941E-7,4.459961E-4,-4.94008E-4,5.9096612E-5,-2.1413469E-4,-9.225453E-4,-2.2317907E-4,8.351007E-5,-5.0810375E-4,1.3113068E-4,-8.704767E-5,1.2865849E-4,-8.3269627E-4,-3.655699E-4,1.0637939E-4,-1.18167845E-4,3.1392113E-4,-3.3602046E-5,1.0035485E-4,-1.7992244E-4,2.4807523E-4,8.0360775E-4,1.58183E-4,-6.0673807E-5],"split_indices":[42,0,15,40,27,11,52,17,36,15,4,6,7,34,15,10,36,20,13,0,31,19,6,7,40,52,2,0,6,4,39,6,41,0,0,0,0,0,0,0,0,0,0,0,0,0,0,0,0,0,0,0,0,0,0,0,0,0,0,0,0,0,0],"split_type":[0,0,0,0,0,0,0,0,0,0,0,0,0,0,0,0,0,0,0,0,0,0,0,0,0,0,0,0,0,0,0,0,0,0,0,0,0,0,0,0,0,0,0,0,0,0,0,0,0,0,0,0,0,0,0,0,0,0,0,0,0,0,0],"sum_hessian":[6.57E2,3E0,6.54E2,1.96E2,4.58E2,1.18E2,7.8E1,3.69E2,8.9E1,1.05E2,1.3E1,4.9E1,2.9E1,3.56E2,1.3E1,6.6E1,2.3E1,7E1,3.5E1,4E0,9E0,3.2E1,1.7E1,1.8E1,1.1E1,6.4E1,2.92E2,7E0,6E0,2.8E1,3.8E1,8E0,1.5E1,5E1,2E1,2.6E1,9E0,6E0,3E0,1.8E1,1.4E1,6E0,1.1E1,1.2E1,6E0,3E0,8E0,3E0,6.1E1,2.64E2,2.8E1,3E0,4E0,2E0,4E0,1.4E1,1.4E1,1.3E1,2.5E1,5E0,3E0,1.1E1,4E0],"tree_param":{"num_deleted":"0","num_feature":"60","num_nodes":"63","size_leaf_vector":"0"}},{"base_weights":[-1.5311855E-6,-2.8057379E-5,3.7850757E-4,-8.740935E-5,2.3127088E-4,1.6847802E-3,7.771065E-5,1.045143E-4,-2.2354757E-4,-4.190651E-4,3.8101684E-4,2.0890869E-4,2.5285215E-3,6.308566E-4,-3.474344E-4,3.0741026E-4,-3.397513E-4,3.0967308E-4,-3.4755096E-4,-8.8453107E-4,5.060667E-4,5.7857315E-4,-1.8738155E-4,3.77886E-4,2.9717088E-3,-3.1283498E-4,8.726958E-4,1.29456E-4,-8.849595E-4,5.0772046E-4,-4.706926E-4,-1.7532503E-4,-1.5099263E-3,8.856743E-4,-3.4179765E-4,4.696163E-4,-4.6263414E-4,-1.1704557E-3,-4.8804004E-4,1.3832878E-3,-2.969235E-4,5.04627E-4,2.8404295E-3,4.3986845E-4,-8.0021756E-4,3.6288318E-4,1.2578376E-3,-3.5714856E-4,5.280519E-4,-1.1116469E-3,-2.670167E-4,-1.1067326E-3,6.06743E-4,-1.00844E-3,5.4982014E-4,-7.390449E-4,1.6477716E-5,-2.7854368E-3,-1.875326E-4,1.3348772E-3,-1.4621923E-4,-3.2438901E-3,2.0125335E-5,-1.2581609E-4,8.2096225E-4,-6.530563E-4,-8.063781E-5,1.9566715E-4,-6.9053966E-4,6.082865E-4,-3.618123E-4,1.3421155E-3,3.498283E-5,-1.5330598E-3,-3.0416995E-4],"categories":[],"categories_nodes":[],"categories_segments":[],"categories_sizes":[],"default_left":[1,1,1,1,1,1,1,1,1,1,1,0,1,1,1,1,1,1,1,1,1,1,1,0,0,0,1,1,1,1,1,1,1,1,1,1,1,0,0,0,1,1,0,1,1,0,0,0,0,0,0,0,0,0,0,0,0,0,0,0,0,0,0,0,0,0,0,0,0,0,0,0,0,0,0],"id":97,"left_children":[1,3,5,7,9,11,13,15,17,19,21,-1,23,25,27,29,31,33,35,37,39,41,43,-1,-1,-1,45,47,49,51,53,55,57,59,61,63,65,-1,-1,-1,67,69,-1,71,73,-1,-1,-1,-1,-1,-1,-1,-1,-1,-1,-1,-1,-1,-1,-1,-1,-1,-1,-1,-1,-1,-1,-1,-1,-1,-1,-1,-1,-1,-1],"loss_changes":[6.6439056E-6,9.501468E-6,1.6764756E-5,1.3139692E-5,1.1358968E-5,9.4337975E-6,8.685203E-6,1.894364E-5,1.954725E-5,9.921214E-6,1.066374E-5,3.3096893E-7,3.6427082E-6,3.9245556E-6,5.497715E-6,2.26831E-5,1.2434169E-5,2.1316608E-5,2.269335E-5,1.1292677E-6,6.04593E-6,1.0274536E-5,9.962026E-6,0E0,0E0,4.9777555E-8,2.0961043E-6,2.516096E-6,1.103971E-6,1.9056226E-5,1.7017803E-5,6.391436E-6,1.2971455E-5,1.4101073E-5,2.8424301E-5,6.3793727E-6,1.5222857E-5,0E0,5.7983016E-8,0E0,1.1045742E-6,6.4172946E-6,0E0,4.7020376E-6,4.2595093E-6,0E0,5.837892E-7,1.07795756E-7,5.7573493E-7,1.3450517E-7,1.4664622E-7,0E0,0E0,0E0,0E0,0E0,0E0,0E0,0E0,0E0,0E0,0E0,0E0,0E0,0E0,0E0,0E0,0E0,0E0,0E0,0E0,0E0,0E0,0E0,0E0],"parents":[2147483647,0,0,1,1,2,2,3,3,4,4,5,5,6,6,7,7,8,8,9,9,10,10,12,12,13,13,14,14,15,15,16,16,17,17,18,18,19,19,20,20,21,21,22,22,26,26,27,27,28,28,29,29,30,30,31,31,32,32,33,33,34,34,35,35,36,36,40,40,41,41,43,43,44,44],"right_children":[2,4,6,8,10,12,14,16,18,20,22,-1,24,26,28,30,32,34,36,38,40,42,44,-1,-1,-1,46,48,50,52,54,56,58,60,62,64,66,-1,-1,-1,68,70,-1,72,74,-1,-1,-1,-1,-1,-1,-1,-1,-1,-1,-1,-1,-1,-1,-1,-1,-1,-1,-1,-1,-1,-1,-1,-1,-1,-1,-1,-1,-1,-1],"split_conditions":[6.4743185E-1,3.3529013E-1,-2.9461288E-1,-8.563565E-2,-3.362202E-1,-9.1533184E-2,-1.0694986E-1,1.7134291E-1,-3.3935207E-1,1.5610754E-1,2.560911E-1,6.267261E-5,-5.5748713E-1,-3.6031085E-1,4.488066E-2,2.1079993E-1,4.4486535E-1,1.0807991E-1,-4.5861998E-1,1.9853322E-2,1.0506393E-1,6.7191476E-1,1.4912379E-1,1.133658E-4,8.9151267E-4,-9.3850496E-5,8.494513E-2,-6.8306126E-2,5.028624E-1,-8.105854E-1,4.4243045E-2,-2.5452092E-1,-1.084391E-1,1.5191384E-1,1.2764743E-1,2.1034919E-2,1.283459E-1,-3.5113672E-4,-1.4641201E-4,4.1498637E-4,4.608295E-2,5.706872E-1,8.521289E-4,-6.1515786E-2,3.8310188E-1,1.0886496E-4,3.773513E-4,-1.0714457E-4,1.5841558E-4,-3.3349407E-4,-8.010501E-5,-3.3201982E-4,1.820229E-4,-3.0253202E-4,1.6494605E-4,-2.2171349E-4,4.9433147E-6,-8.356311E-4,-5.625978E-5,4.0046318E-4,-4.386577E-5,-9.731671E-4,6.037601E-6,-3.774483E-5,2.462887E-4,-1.959169E-4,-2.4191344E-5,5.8700145E-5,-2.0716191E-4,1.8248595E-4,-1.08543696E-4,4.0263464E-4,1.0494849E-5,-4.5991794E-4,-9.1250986E-5],"split_indices":[23,13,28,2,7,30,24,22,48,0,42,0,0,37,7,30,14,44,41,41,37,25,45,0,0,0,22,47,6,1,5,42,20,22,44,39,22,0,0,0,1,20,0,53,42,0,0,0,0,0,0,0,0,0,0,0,0,0,0,0,0,0,0,0,0,0,0,0,0,0,0,0,0,0,0],"split_type":[0,0,0,0,0,0,0,0,0,0,0,0,0,0,0,0,0,0,0,0,0,0,0,0,0,0,0,0,0,0,0,0,0,0,0,0,0,0,0,0,0,0,0,0,0,0,0,0,0,0,0,0,0,0,0,0,0,0,0,0,0,0,0,0,0,0,0,0,0,0,0,0,0,0,0],"sum_hessian":[6.57E2,6.15E2,4.2E1,5.01E2,1.14E2,7E0,3.5E1,2.08E2,2.93E2,2.1E1,9.3E1,3E0,4E0,1.5E1,2E1,1.43E2,6.5E1,5.5E1,2.38E2,1.4E1,7E0,6.9E1,2.4E1,1E0,3E0,3E0,1.2E1,1.1E1,9E0,1.14E2,2.9E1,5.8E1,7E0,2.9E1,2.6E1,2.9E1,2.09E2,7E0,7E0,3E0,4E0,6.8E1,1E0,1.2E1,1.2E1,6E0,6E0,5E0,6E0,6E0,3E0,6E0,1.08E2,1.9E1,1E1,1.4E1,4.4E1,3E0,4E0,2E1,9E0,2E0,2.4E1,1.1E1,1.8E1,1.39E2,7E1,2E0,2E0,6.1E1,7E0,3E0,9E0,4E0,8E0],"tree_param":{"num_deleted":"0","num_feature":"60","num_nodes":"75","size_leaf_vector":"0"}},{"base_weights":[-1.625009E-6,1.1591644E-4,-7.968505E-5,3.439073E-5,7.725587E-4,-1.9688421E-4,2.691933E-4,3.5267847E-4,-1.3849993E-4,1.5826169E-3,3.289016E-4,-1.4727731E-4,-1.7679408E-3,7.397743E-4,1.0246931E-4,-1.9386222E-4,6.994072E-4,-1.6138355E-3,-7.7753226E-5,2.114642E-3,2.5591906E-4,9.634113E-4,-8.6866006E-5,2.9225837E-4,-2.9446086E-4,-2.5925236E-3,2.4143606E-3,2.486661E-4,1.2920117E-3,-3.1623262E-4,3.886313E-4,-6.237107E-4,3.6353667E-4,-4.29525E-4,1.0206016E-3,-2.3623966E-3,-7.7808894E-5,9.5252134E-4,-1.3565709E-4,2.5765493E-3,6.3991547E-4,-3.900975E-4,1.2124979E-3,2.417683E-4,-3.2248348E-4,-1.1990381E-4,7.954823E-4,-5.076317E-4,1.7825669E-5,-3.2086014E-3,-1.1742953E-3,-2.6367232E-4,7.299213E-4,1.4297274E-3,-1.1143088E-4,-1.0095917E-3,-3.116894E-5,5.745023E-4,-4.186862E-4,-3.0106734E-4,-1.4668986E-3,6.678633E-4,-3.7868918E-4,-1.2977958E-3,1.6683483E-4,2.1541431E-4,1.4458789E-3,3.4623593E-4,1.8475851E-3,-5.3136693E-5,-8.252859E-4,-4.97589E-4,6.440311E-4,1.0988066E-3,-2.897568E-4,-1.1040004E-3,-2.649083E-4,-3.6564478E-4,2.615282E-4,1.4478962E-5,-7.320841E-4,-1.1642965E-3,1.14023685E-4,-1.8148648E-4,1.0314435E-3,2.5530616E-4,1.3057563E-3],"categories":[],"categories_nodes":[],"categories_segments":[],"categories_sizes":[],"default_left":[1,1,1,1,1,1,1,1,1,1,1,1,1,1,1,1,1,1,1,1,0,1,1,1,1,1,0,1,1,1,1,1,1,1,1,0,0,1,1,0,0,0,0,0,0,1,1,1,1,0,0,1,0,0,0,1,1,1,0,0,0,0,0,0,0,0,0,0,0,0,0,0,0,0,0,0,0,0,0,0,0,0,0,0,0,0,0],"id":98,"left_children":[1,3,5,7,9,11,13,15,17,19,21,23,25,27,29,31,33,35,37,39,-1,41,43,45,47,49,-1,51,53,55,57,59,61,63,65,-1,-1,67,69,-1,-1,-1,-1,-1,-1,71,73,75,77,-1,-1,79,-1,-1,-1,81,83,85,-1,-1,-1,-1,-1,-1,-1,-1,-1,-1,-1,-1,-1,-1,-1,-1,-1,-1,-1,-1,-1,-1,-1,-1,-1,-1,-1,-1,-1],"loss_changes":[6.0465777E-6,1.405267E-5,1.6244747E-5,1.2980656E-5,9.901729E-6,2.2886394E-5,7.76991E-6,1.58642E-5,1.3586652E-5,6.517188E-6,5.3598596E-6,1.8782166E-5,3.729717E-5,6.730138E-6,9.1091415E-6,8.133445E-6,1.893132E-5,6.7150413E-6,8.958433E-6,3.119534E-6,3.8163677E-8,3.1701197E-6,1.0845821E-6,1.5236303E-5,1.4454825E-5,3.2220669E-6,0E0,3.890943E-6,2.4786277E-6,6.095728E-6,6.993097E-6,4.7272947E-6,3.6410984E-6,6.4301394E-6,1.3385652E-5,0E0,0E0,3.7016116E-6,7.980237E-6,0E0,0E0,0E0,2.2804943E-7,2.0862188E-7,1.723933E-7,1.2150066E-5,1.1181306E-5,1.838063E-5,8.41292E-6,0E0,0E0,1.0529145E-6,7.2906687E-7,2.5969348E-7,0E0,1.6972162E-6,3.860967E-6,8.302929E-6,6.31709E-7,0E0,0E0,0E0,0E0,0E0,0E0,0E0,0E0,0E0,0E0,0E0,0E0,0E0,0E0,0E0,0E0,0E0,0E0,0E0,0E0,0E0,0E0,0E0,0E0,0E0,0E0,0E0,0E0],"parents":[2147483647,0,0,1,1,2,2,3,3,4,4,5,5,6,6,7,7,8,8,9,9,10,10,11,11,12,12,13,13,14,14,15,15,16,16,17,17,18,18,19,19,21,21,22,22,23,23,24,24,25,25,27,27,28,28,29,29,30,30,31,31,32,32,33,33,34,34,37,37,38,38,45,45,46,46,47,47,48,48,51,51,55,55,56,56,57,57],"right_children":[2,4,6,8,10,12,14,16,18,20,22,24,26,28,30,32,34,36,38,40,-1,42,44,46,48,50,-1,52,54,56,58,60,62,64,66,-1,-1,68,70,-1,-1,-1,-1,-1,-1,72,74,76,78,-1,-1,80,-1,-1,-1,82,84,86,-1,-1,-1,-1,-1,-1,-1,-1,-1,-1,-1,-1,-1,-1,-1,-1,-1,-1,-1,-1,-1,-1,-1,-1,-1,-1,-1,-1,-1],"split_conditions":[-8.4727846E-2,5.038079E-1,2.560911E-1,-8.67758E-2,-6.369415E-2,2.2099474E-1,-1.9731995E-1,-9.385267E-2,-8.62692E-1,1.9064298E-1,-1.3408664E-1,-2.5311208E-1,1.8865243E-1,-3.916638E-1,2.1358393E-2,8.448634E-2,-3.916638E-1,-1.305604E-1,-6.903544E-1,3.349034E-1,7.677572E-5,-3.0711663E-1,1.7465778E-1,2.1034919E-2,1.2768841E-1,-2.2848392E-1,7.243082E-4,8.359474E-2,5.254234E-1,-6.47005E-2,3.364221E-1,2.4189693E-1,2.5160316E-1,-2.751115E-1,-1.3192222E-1,-7.08719E-4,-2.3342669E-5,2.2540131E-1,3.827657E-1,7.7296485E-4,1.9197464E-4,-1.1702925E-4,3.637494E-4,7.253049E-5,-9.674505E-5,2.1294725E-1,2.2103456E-1,4.2563267E-2,-1.2669915E-1,-9.6258044E-4,-3.522886E-4,1.4422011E-1,2.1897639E-4,4.2891825E-4,-3.3429267E-5,4.655132E-1,4.210418E-1,3.01313E-1,-1.2560586E-4,-9.03202E-5,-4.400696E-4,2.0035899E-4,-1.1360676E-4,-3.8933876E-4,5.005045E-5,6.46243E-5,4.337637E-4,1.03870785E-4,5.542755E-4,-1.5941008E-5,-2.475858E-4,-1.492767E-4,1.9320934E-4,3.29642E-4,-8.6927044E-5,-3.3120014E-4,-7.947249E-5,-1.09693436E-4,7.845847E-5,4.343689E-6,-2.1962523E-4,-3.4928898E-4,3.4207107E-5,-5.4445947E-5,3.0943306E-4,7.659185E-5,3.917269E-4],"split_indices":[5,23,41,3,49,41,49,8,35,4,57,9,4,49,45,42,39,5,26,0,0,0,45,51,47,4,0,24,8,37,37,12,24,6,28,0,0,1,1,0,0,0,0,0,0,8,53,5,31,0,0,31,0,0,0,0,11,49,0,0,0,0,0,0,0,0,0,0,0,0,0,0,0,0,0,0,0,0,0,0,0,0,0,0,0,0,0],"split_type":[0,0,0,0,0,0,0,0,0,0,0,0,0,0,0,0,0,0,0,0,0,0,0,0,0,0,0,0,0,0,0,0,0,0,0,0,0,0,0,0,0,0,0,0,0,0,0,0,0,0,0,0,0,0,0,0,0,0,0,0,0,0,0,0,0,0,0,0,0,0,0,0,0,0,0,0,0,0,0,0,0,0,0,0,0,0,0],"sum_hessian":[6.57E2,2.62E2,3.95E2,2.34E2,2.8E1,2.96E2,9.9E1,8.2E1,1.52E2,9E0,1.9E1,2.88E2,8E0,2.5E1,7.4E1,3.2E1,5E1,5E0,1.47E2,6E0,3E0,7E0,1.2E1,7.2E1,2.16E2,7E0,1E0,1.4E1,1.1E1,3E1,4.4E1,1.8E1,1.4E1,1.1E1,3.9E1,3E0,2E0,7E0,1.4E2,4E0,2E0,1E0,6E0,5E0,7E0,4E1,3.2E1,1.28E2,8.8E1,4E0,3E0,7E0,7E0,1E1,1E0,8E0,2.2E1,3.6E1,8E0,1.4E1,4E0,1E1,4E0,4E0,7E0,1.4E1,2.5E1,5E0,2E0,1.26E2,1.4E1,2.7E1,1.3E1,2.5E1,7E0,3.6E1,9.2E1,3.4E1,5.4E1,5E0,2E0,7E0,1E0,2E1,2E0,2.6E1,1E1],"tree_param":{"num_deleted":"0","num_feature":"60","num_nodes":"87","size_leaf_vector":"0"}},{"base_weights":[-2.5858418E-7,1.3015093E-4,-5.586555E-5,6.315223E-5,8.841269E-4,-1.799663E-3,-4.437151E-5,-8.341856E-5,3.6256982E-4,-2.243463E-5,1.0950591E-3,1.0011012E-3,-6.273665E-5,5.4579163E-5,-4.947208E-4,-3.2527745E-4,5.9908064E-4,1.4794847E-3,6.698575E-4,8.2202256E-5,1.536E-3,-9.671125E-6,-4.1694252E-4,-7.1559596E-4,1.3548501E-4,6.0842437E-4,-7.3026505E-4,1.9058287E-4,-1.0157526E-3,3.814183E-4,1.5580915E-3,7.277567E-5,-2.98125E-4,-8.5712475E-4,-1.11906E-4,-1.2839846E-3,-4.0881337E-6,-8.18977E-5,4.1970846E-4,-1.3985219E-3,-3.5556633E-4,9.924719E-4,-1.339484E-4,-3.6644004E-4,5.621102E-4,-1.5608507E-4,2.237278E-4,-3.0375123E-3,-2.3172385E-4,-3.7788693E-4,-1.613867E-3,4.6261252E-4,-3.2054598E-4],"categories":[],"categories_nodes":[],"categories_segments":[],"categories_sizes":[],"default_left":[1,1,1,1,1,0,1,1,1,0,1,1,1,1,1,1,1,0,0,0,0,1,1,1,1,0,1,1,0,1,0,1,1,1,1,0,0,0,0,0,0,0,0,0,0,0,0,0,0,0,0,0,0],"id":99,"left_children":[1,3,5,7,9,-1,11,13,15,-1,17,19,21,23,25,27,29,-1,-1,-1,-1,31,33,35,37,-1,39,41,-1,43,-1,45,47,49,51,-1,-1,-1,-1,-1,-1,-1,-1,-1,-1,-1,-1,-1,-1,-1,-1,-1,-1],"loss_changes":[4.778875E-6,9.8957025E-6,9.180139E-6,8.017473E-6,3.0841366E-6,0E0,8.894924E-6,7.008331E-6,9.9558665E-6,1.8097953E-7,1.1339143E-6,3.8058815E-6,8.510611E-6,5.891938E-6,8.499336E-6,5.892605E-6,8.7990375E-6,3.9587576E-8,0E0,1.0390718E-7,0E0,9.415625E-6,7.826108E-6,3.6344677E-6,5.286121E-6,9.2137384E-7,6.0130033E-6,2.735321E-6,8.081515E-7,5.340994E-6,7.82371E-7,1.06754005E-5,1.5303198E-5,8.093968E-6,4.463519E-6,0E0,0E0,0E0,0E0,0E0,0E0,0E0,0E0,0E0,0E0,0E0,0E0,0E0,0E0,0E0,0E0,0E0,0E0],"parents":[2147483647,0,0,1,1,2,2,3,3,4,4,6,6,7,7,8,8,10,10,11,11,12,12,13,13,14,14,15,15,16,16,21,21,22,22,23,23,24,24,26,26,27,27,29,29,31,31,32,32,33,33,34,34],"right_children":[2,4,6,8,10,-1,12,14,16,-1,18,20,22,24,26,28,30,-1,-1,-1,-1,32,34,36,38,-1,40,42,-1,44,-1,46,48,50,52,-1,-1,-1,-1,-1,-1,-1,-1,-1,-1,-1,-1,-1,-1,-1,-1,-1,-1],"split_conditions":[-1.6963577E-1,5.091661E-1,-1.6775095E-1,-2.9045647E-1,-4.419428E-2,-5.3989893E-4,-9.781737E-1,3.1785095E-1,-2.2117889E-1,-6.730389E-6,-1.084391E-1,-3.279386E-1,3.8420784E-1,-5.510305E-1,-4.4054797E-1,1.5226549E-1,3.3705574E-1,4.4384543E-4,2.0095725E-4,2.4660678E-5,4.6080005E-4,2.961911E-1,-6.463373E-2,-1.9942876E-2,-9.11171E-2,1.8252732E-4,-2.1973187E-1,-5.254697E-1,-3.0472578E-4,-4.1401505E-1,4.6742745E-4,-8.338545E-2,2.9882616E-1,1.5259102E-1,-1.509767E-1,-3.851954E-4,-1.2264402E-6,-2.456931E-5,1.2591254E-4,-4.195566E-4,-1.06669904E-4,2.977416E-4,-4.018452E-5,-1.09932014E-4,1.6863307E-4,-4.682552E-5,6.7118344E-5,-9.1125374E-4,-6.951716E-5,-1.13366084E-4,-4.8416012E-4,1.3878375E-4,-9.61638E-5],"split_indices":[15,38,15,15,48,0,53,19,34,0,24,0,9,26,49,5,57,0,0,0,0,7,43,50,19,0,4,12,0,16,0,32,7,53,45,0,0,0,0,0,0,0,0,0,0,0,0,0,0,0,0,0,0],"split_type":[0,0,0,0,0,0,0,0,0,0,0,0,0,0,0,0,0,0,0,0,0,0,0,0,0,0,0,0,0,0,0,0,0,0,0,0,0,0,0,0,0,0,0,0,0,0,0,0,0,0,0,0,0],"sum_hessian":[6.57E2,1.96E2,4.61E2,1.81E2,1.5E1,2E0,4.59E2,1.22E2,5.9E1,3E0,1.2E1,7E0,4.52E2,9.2E1,3E1,1.5E1,4.4E1,5E0,7E0,3E0,4E0,3.94E2,5.8E1,8E0,8.4E1,5E0,2.5E1,9E0,6E0,3.7E1,7E0,3.07E2,8.7E1,2.3E1,3.5E1,4E0,4E0,4.8E1,3.6E1,8E0,1.7E1,2E0,7E0,7E0,3E1,1.22E2,1.85E2,1E0,8.6E1,1.5E1,8E0,9E0,2.6E1],"tree_param":{"num_deleted":"0","num_feature":"60","num_nodes":"53","size_leaf_vector":"0"}}]},"name":"gbtree"},"learner_model_param":{"base_score":"5E-1","num_class":"0","num_feature":"60","num_target":"1"},"objective":{"name":"reg:squarederror","reg_loss_param":{"scale_pos_weight":"1"}}},"version":[1,6,1]}