{"learner":{"attributes":{"best_iteration":"99","best_ntree_limit":"100","scikit_learn":"{\"n_estimators\": 100, \"objective\": \"reg:squarederror\", \"max_depth\": null, \"max_leaves\": null, \"max_bin\": null, \"grow_policy\": null, \"learning_rate\": null, \"verbosity\": null, \"booster\": null, \"tree_method\": null, \"gamma\": null, \"min_child_weight\": null, \"max_delta_step\": null, \"subsample\": null, \"sampling_method\": null, \"colsample_bytree\": null, \"colsample_bylevel\": null, \"colsample_bynode\": null, \"reg_alpha\": null, \"reg_lambda\": null, \"scale_pos_weight\": null, \"base_score\": null, \"missing\": NaN, \"num_parallel_tree\": null, \"random_state\": null, \"n_jobs\": null, \"monotone_constraints\": null, \"interaction_constraints\": null, \"importance_type\": null, \"gpu_id\": null, \"validate_parameters\": null, \"predictor\": null, \"enable_categorical\": false, \"max_cat_to_onehot\": null, \"eval_metric\": null, \"early_stopping_rounds\": null, \"callbacks\": null, \"_estimator_type\": \"regressor\"}"},"feature_names":[],"feature_types":[],"gradient_booster":{"model":{"gbtree_model_param":{"num_parallel_tree":"1","num_trees":"100","size_leaf_vector":"0"},"tree_info":[0,0,0,0,0,0,0,0,0,0,0,0,0,0,0,0,0,0,0,0,0,0,0,0,0,0,0,0,0,0,0,0,0,0,0,0,0,0,0,0,0,0,0,0,0,0,0,0,0,0,0,0,0,0,0,0,0,0,0,0,0,0,0,0,0,0,0,0,0,0,0,0,0,0,0,0,0,0,0,0,0,0,0,0,0,0,0,0,0,0,0,0,0,0,0,0,0,0,0,0],"trees":[{"base_weights":[3.549686E2,2.7122894E2,3.9834283E2,2.2166478E2,3.00239E2,3.736231E2,4.1325885E2],"categories":[],"categories_nodes":[],"categories_segments":[],"categories_sizes":[],"default_left":[1,1,1,0,0,0,0],"id":0,"left_children":[1,3,5,-1,-1,-1,-1],"loss_changes":[2.285536E6,2.6128E5,4.888E3,0E0,0E0,0E0,0E0],"parents":[2147483647,0,0,1,1,2,2],"right_children":[2,4,6,-1,-1,-1,-1],"split_conditions":[3.36E2,2.632E2,3.933E2,6.6499435E1,9.007171E1,1.1208694E2,1.2397766E2],"split_indices":[58,59,59,0,0,0,0],"split_type":[0,0,0,0,0,0,0],"sum_hessian":[6.58E2,2.27E2,4.31E2,8.7E1,1.4E2,1.72E2,2.59E2],"tree_param":{"num_deleted":"0","num_feature":"60","num_nodes":"7","size_leaf_vector":"0"}},{"base_weights":[2.490738E2,1.8798134E2,2.782335E2,1.5609845E2,2.0909534E2,2.6466202E2,2.9597223E2],"categories":[],"categories_nodes":[],"categories_segments":[],"categories_sizes":[],"default_left":[1,1,1,0,0,0,0],"id":1,"left_children":[1,3,5,-1,-1,-1,-1],"loss_changes":[1.121664E6,1.127665E5,2.856E4,0E0,0E0,0E0,0E0],"parents":[2147483647,0,0,1,1,2,2],"right_children":[2,4,6,-1,-1,-1,-1],"split_conditions":[3.2485E2,2.6875E2,4.0465002E2,4.6829536E1,6.2728603E1,7.9398605E1,8.879167E1],"split_indices":[59,57,59,0,0,0,0],"split_type":[0,0,0,0,0,0,0],"sum_hessian":[6.58E2,2.15E2,4.43E2,8.9E1,1.26E2,2.6E2,1.83E2],"tree_param":{"num_deleted":"0","num_feature":"60","num_nodes":"7","size_leaf_vector":"0"}},{"base_weights":[1.7477313E2,1.3390675E2,1.9681061E2,1.10133804E2,1.488057E2,1.8865443E2,2.1100732E2],"categories":[],"categories_nodes":[],"categories_segments":[],"categories_sizes":[],"default_left":[1,1,1,0,0,0,0],"id":2,"left_children":[1,3,5,-1,-1,-1,-1],"loss_changes":[5.67134E5,6.64925E4,9.52E3,0E0,0E0,0E0,0E0],"parents":[2147483647,0,0,1,1,2,2],"right_children":[2,4,6,-1,-1,-1,-1],"split_conditions":[3.5605E2,2.7205E2,4.1195E2,3.3040142E1,4.464171E1,5.6596333E1,6.33022E1],"split_indices":[59,59,59,0,0,0,0],"split_type":[0,0,0,0,0,0,0],"sum_hessian":[6.58E2,2.33E2,4.25E2,9.3E1,1.4E2,2.79E2,1.46E2],"tree_param":{"num_deleted":"0","num_feature":"60","num_nodes":"7","size_leaf_vector":"0"}},{"base_weights":[1.22641014E2,8.8987946E1,1.3598451E2,6.755106E1,9.657611E1,1.20147194E2,1.425429E2,3.7724712E1,6.921597E1],"categories":[],"categories_nodes":[],"categories_segments":[],"categories_sizes":[],"default_left":[1,1,1,1,0,0,0,0,0],"id":3,"left_children":[1,3,5,7,-1,-1,-1,-1,-1],"loss_changes":[2.83823E5,2.4382875E4,3.1692E4,2.0734375E1,0E0,0E0,0E0,0E0,0E0],"parents":[2147483647,0,0,1,1,2,2,3,3],"right_children":[2,4,6,8,-1,-1,-1,-1,-1],"split_conditions":[3.125E2,2.304E2,3.8115002E2,2.05E2,2.8972834E1,3.604416E1,4.276287E1,1.1317414E1,2.0764793E1],"split_indices":[59,59,59,59,0,0,0,0,0],"split_type":[0,0,0,0,0,0,0,0,0],"sum_hessian":[6.58E2,1.89E2,4.69E2,5.2E1,1.37E2,1.43E2,3.26E2,4E0,4.8E1],"tree_param":{"num_deleted":"0","num_feature":"60","num_nodes":"9","size_leaf_vector":"0"}},{"base_weights":[8.6060936E1,6.682416E1,9.780748E1,5.5241478E1,7.7023125E1,9.414853E1,1.1379706E2,4.4281044E1,5.8972996E1],"categories":[],"categories_nodes":[],"categories_segments":[],"categories_sizes":[],"default_left":[1,1,1,1,0,0,0,0,0],"id":4,"left_children":[1,3,5,7,-1,-1,-1,-1,-1],"loss_changes":[1.423755E5,2.5632375E4,1.3098E4,2.3782812E3,0E0,0E0,0E0,0E0,0E0],"parents":[2147483647,0,0,1,1,2,2,3,3],"right_children":[2,4,6,8,-1,-1,-1,-1,-1],"split_conditions":[3.6565002E2,2.9415002E2,4.2455E2,2.2015E2,2.3106937E1,2.824456E1,3.413912E1,1.3284314E1,1.76919E1],"split_indices":[59,59,59,59,0,0,0,0,0],"split_type":[0,0,0,0,0,0,0,0,0],"sum_hessian":[6.58E2,2.52E2,4.06E2,1.21E2,1.31E2,3.36E2,7E1,3.4E1,8.7E1],"tree_param":{"num_deleted":"0","num_feature":"60","num_nodes":"9","size_leaf_vector":"0"}},{"base_weights":[6.041938E1,4.795056E1,6.939151E1,3.872705E1,5.4470108E1,6.706065E1,8.284902E1,2.944361E1,4.088282E1,4.1241272E1,1.6262686E1],"categories":[],"categories_nodes":[],"categories_segments":[],"categories_sizes":[],"default_left":[1,1,1,1,0,0,0,0,1,0,0],"id":5,"left_children":[1,3,5,7,-1,-1,-1,-1,9,-1,-1],"loss_changes":[7.039625E4,1.46676875E4,6.39525E3,1.1778125E3,0E0,0E0,0E0,0E0,1.5885938E2,0E0,0E0],"parents":[2147483647,0,0,1,1,2,2,3,3,8,8],"right_children":[2,4,6,8,-1,-1,-1,-1,10,-1,-1],"split_conditions":[3.716E2,2.912E2,4.2815E2,2.1725E2,1.6341034E1,2.0118196E1,2.4854708E1,8.833083E0,4.0215E2,1.2372382E1,4.878806E0],"split_indices":[59,59,59,59,0,0,0,0,20,0,0],"split_type":[0,0,0,0,0,0,0,0,0,0,0],"sum_hessian":[6.58E2,2.78E2,3.8E2,1.18E2,1.6E2,3.29E2,5.1E1,2.5E1,9.3E1,9.1E1,2E0],"tree_param":{"num_deleted":"0","num_feature":"60","num_nodes":"11","size_leaf_vector":"0"}},{"base_weights":[4.2426193E1,2.9007172E1,4.6670753E1,2.3128008E1,3.2181118E1,4.4232594E1,5.5840603E1,9.172058E0,2.3701618E1,3.232929E1,8.608009E0,3.9804234E1,4.6603886E1,4.0273E1,2.474258E1],"categories":[],"categories_nodes":[],"categories_segments":[],"categories_sizes":[],"default_left":[1,1,1,1,1,1,0,0,0,0,0,1,0,0,0],"id":6,"left_children":[1,3,5,7,9,11,-1,-1,-1,-1,-1,13,-1,-1,-1],"loss_changes":[3.6181375E4,2.26E3,8.6865E3,2.6292383E2,7.797656E1,2.334875E3,0E0,0E0,0E0,0E0,0E0,3.4359375E1,0E0,0E0,0E0],"parents":[2147483647,0,0,1,1,2,2,3,3,4,4,5,5,11,11],"right_children":[2,4,6,8,10,12,-1,-1,-1,-1,-1,14,-1,-1,-1],"split_conditions":[3.035E2,2.3370001E2,4.1815002E2,2.007E2,4.0295E2,3.7665002E2,1.6752182E1,2.7516174E0,7.1104856E0,9.698787E0,2.582403E0,4.2915002E2,1.3981166E1,1.2081901E1,7.4227743E0],"split_indices":[59,59,59,59,18,59,0,0,0,0,0,12,0,0,0],"split_type":[0,0,0,0,0,0,0,0,0,0,0,0,0,0,0],"sum_hessian":[6.58E2,1.6E2,4.98E2,5.9E1,1.01E2,3.98E2,1E2,3E0,5.6E1,1E2,1E0,1.45E2,2.53E2,1.39E2,6E0],"tree_param":{"num_deleted":"0","num_feature":"60","num_nodes":"15","size_leaf_vector":"0"}},{"base_weights":[2.9808163E1,2.0930998E1,3.2949802E1,1.6606358E1,2.3274878E1,3.1924177E1,4.4174305E1,8.676193E0,1.71226E1,2.355397E1,9.920639E0,2.8824005E1,3.3956284E1,9.362539E0,2.6222305E0,1.7274115E1,4.0916443E0,2.3952473E1,1.2787351E1,2.8897871E1,7.6532288E0],"categories":[],"categories_nodes":[],"categories_segments":[],"categories_sizes":[],"default_left":[1,1,1,1,1,1,0,1,1,1,0,1,0,0,0,0,0,0,0,0,0],"id":7,"left_children":[1,3,5,7,9,11,-1,13,15,17,-1,19,-1,-1,-1,-1,-1,-1,-1,-1,-1],"loss_changes":[1.7689125E4,1.3873672E3,4.1731875E3,1.1754492E2,1.8003516E2,1.8435938E3,0E0,3.7994385E-1,4.778125E1,1.5708594E2,0E0,6.65625E1,0E0,0E0,0E0,0E0,0E0,0E0,0E0,0E0,0E0],"parents":[2147483647,0,0,1,1,2,2,3,3,4,4,5,5,7,7,8,8,9,9,11,11],"right_children":[2,4,6,8,10,12,-1,14,16,18,-1,20,-1,-1,-1,-1,-1,-1,-1,-1,-1],"split_conditions":[3.069E2,2.35E2,4.3345E2,2.0504999E2,4.0125E2,3.843E2,1.3252292E1,2.9075E2,3.0685E2,3.9055E2,2.9761918E0,4.323E2,1.0186886E1,2.8087618E0,7.866692E-1,5.182235E0,1.2274933E0,7.185742E0,3.8362052E0,8.669362E0,2.2959688E0],"split_indices":[59,59,59,58,2,59,0,4,17,19,0,24,0,0,0,0,0,0,0,0,0],"split_type":[0,0,0,0,0,0,0,0,0,0,0,0,0,0,0,0,0,0,0,0,0],"sum_hessian":[6.58E2,1.74E2,4.84E2,6.4E1,1.1E2,4.47E2,3.7E1,5E0,5.9E1,1.07E2,3E0,1.83E2,2.64E2,4E0,1E0,5.8E1,1E0,1.02E2,5E0,1.82E2,1E0],"tree_param":{"num_deleted":"0","num_feature":"60","num_nodes":"21","size_leaf_vector":"0"}},{"base_weights":[2.0954342E1,1.4211313E1,2.2999893E1,1.1856293E1,1.5942808E1,2.1621737E1,2.7852934E1,9.211007E0,1.2802008E1,1.6123577E1,5.506785E0,1.9586718E1,2.2778278E1,2.6048956E1,3.4932148E1,1.0158911E1,2.4057121E0,1.3147337E1,5.6302147E0,1.6284288E1,6.302694E0,1.9981747E1,1.2018643E1,1.5360809E1,2.3026438E1,-3.720169E-1,3.4556274E0,1.6450851E1,6.358953E0,4.4929504E0,2.005973E1,4.277725E0,1.4725076E1,1.6572693E1,1.6209869E0,2.3071741E1,6.167389E0,1.46012335E1,1.8255772E1,2.0119015E1,5.879959E0,8.669281E-1,5.1256814E0,2.3115728E1,6.367386E0],"categories":[],"categories_nodes":[],"categories_segments":[],"categories_sizes":[],"default_left":[1,1,1,1,1,1,1,1,1,1,0,1,1,0,0,0,1,0,0,1,0,1,1,1,1,0,0,1,0,0,1,1,0,0,0,1,0,0,0,0,0,0,0,0,0],"id":8,"left_children":[1,3,5,7,9,11,13,15,17,19,-1,21,23,-1,-1,-1,25,-1,-1,27,-1,29,31,33,35,-1,-1,37,-1,-1,39,41,-1,-1,-1,43,-1,-1,-1,-1,-1,-1,-1,-1,-1],"loss_changes":[8.762875E3,4.470996E2,2.768625E3,5.7198242E1,7.533789E1,4.8823438E2,4.6928906E2,1.1747742E2,4.733252E1,3.1523438E1,0E0,2.1127734E2,1.00953125E2,0E0,0E0,0E0,1.2951073E1,0E0,0E0,3.260547E1,0E0,8.139453E1,1.4651294E2,1.562976E2,3.871875E1,0E0,0E0,3.8554688E0,0E0,0E0,2.3046875E-1,7.125229E0,0E0,0E0,0E0,2.621875E1,0E0,0E0,0E0,0E0,0E0,0E0,0E0,0E0,0E0],"parents":[2147483647,0,0,1,1,2,2,3,3,4,4,5,5,6,6,7,7,8,8,9,9,11,11,12,12,16,16,19,19,21,21,22,22,23,23,24,24,27,27,30,30,31,31,35,35],"right_children":[2,4,6,8,10,12,14,16,18,20,-1,22,24,-1,-1,-1,26,-1,-1,28,-1,30,32,34,36,-1,-1,38,-1,-1,40,42,-1,-1,-1,44,-1,-1,-1,-1,-1,-1,-1,-1,-1],"split_conditions":[3.0215002E2,2.3765E2,4.1759998E2,2.1785E2,4.0215E2,3.7665002E2,4.408E2,2.905E2,2.996E2,4.0205E2,1.6520356E0,4.2734998E2,3.613E2,7.8146873E0,1.0479645E1,3.0476735E0,2.8945E2,3.9442012E0,1.6890645E0,4.0215E2,1.8908082E0,2.6415002E2,3.9884998E2,3.7355E2,4.5634998E2,-1.1160508E-1,1.0366883E0,3.0715E2,1.907686E0,1.3478851E0,3.765E2,3.9485E2,4.417523E0,4.971808E0,4.862961E-1,4.3859998E2,1.8502167E0,4.38037E0,5.476732E0,6.0357046E0,1.7639878E0,2.6007843E-1,1.5377045E0,6.9347186E0,1.9102159E0],"split_indices":[59,59,59,52,7,59,59,8,8,2,0,9,13,0,0,0,3,0,0,20,0,53,0,11,24,0,0,21,0,0,59,0,0,0,0,39,0,0,0,0,0,0,0,0,0],"split_type":[0,0,0,0,0,0,0,0,0,0,0,0,0,0,0,0,0,0,0,0,0,0,0,0,0,0,0,0,0,0,0,0,0,0,0,0,0,0,0,0,0,0,0,0,0],"sum_hessian":[6.58E2,1.55E2,5.03E2,6.9E1,8.6E1,3.96E2,1.07E2,2.1E1,4.8E1,8.4E1,2E0,1.5E2,2.46E2,8.9E1,1.8E1,1.8E1,3E0,4.5E1,3E0,8.2E1,2E0,1.41E2,9E0,1E1,2.36E2,1E0,2E0,8E1,2E0,1E0,1.4E2,3E0,6E0,9E0,1E0,2.35E2,1E0,4.4E1,3.6E1,1.39E2,1E0,1E0,2E0,2.34E2,1E0],"tree_param":{"num_deleted":"0","num_feature":"60","num_nodes":"45","size_leaf_vector":"0"}},{"base_weights":[1.4781425E1,1.1321908E1,1.6735989E1,9.004237E0,1.2901787E1,1.617859E1,2.319058E1,7.4453106E0,9.90443E0,1.380386E1,8.380931E0,1.4870596E1,1.7167988E1,1.3707214E1,2.49183E1,9.362335E-1,7.584632E0,1.0274075E1,5.5851636E0,2.4500423E1,1.3203086E1,2.8430176E0,8.723965E0,5.621033E-1,1.4949597E1,1.219364E1,1.7453794E1,8.572367E0,5.901158E0,1.982521E0,1.0390908E1,2.7798462E-1,6.4233627E0,9.469823E0,1.4221633E1,-1.6056824E-1,4.4250946E0,3.9761047E0,9.212893E0,1.0738088E1,1.5308117E1,3.2809448E0,1.2595908E1,1.7499563E1,4.1500244E0,9.42811E0,5.2695074E0,-3.1621552E-1,6.2854867E0,2.436203E0,1.049503E1,1.0400266E1,1.5197144E0,1.8361359E0,1.4345743E1,9.7016735E0,4.7101517E0,4.1028647E0,1.1349259E1,1.5403245E1,5.258779E0,6.624237E0,1.757596E1],"categories":[],"categories_nodes":[],"categories_segments":[],"categories_sizes":[],"default_left":[1,1,1,1,1,1,1,1,1,1,1,1,1,0,0,0,1,1,1,0,1,1,1,0,1,1,1,1,1,0,1,0,0,1,1,0,0,0,1,1,1,0,0,1,0,0,0,0,0,0,0,0,0,0,0,0,0,0,0,0,0,0,0],"id":9,"left_children":[1,3,5,7,9,11,13,15,17,19,21,23,25,-1,-1,-1,27,29,31,-1,33,35,37,-1,39,41,43,45,47,-1,49,-1,-1,51,53,-1,-1,-1,55,57,59,-1,-1,61,-1,-1,-1,-1,-1,-1,-1,-1,-1,-1,-1,-1,-1,-1,-1,-1,-1,-1,-1],"loss_changes":[4.266578E3,7.662832E2,1.1322812E3,6.799609E1,4.5933008E2,2.4811719E2,1.6636328E2,3.0079834E1,4.0009766E1,4.2195898E2,2.45896E1,1.8941797E2,9.283984E1,0E0,0E0,0E0,1.592627E1,3.2680176E1,2.9353714E1,0E0,2.9120508E2,1.4966242E1,1.9081299E1,0E0,9.834375E1,1.2452881E1,4.9765625E1,1.5325684E1,4.49989E1,0E0,1.9158203E1,0E0,0E0,1.839165E2,1.0585547E2,0E0,0E0,0E0,5.214844E-1,2.2375E1,7.003906E1,0E0,0E0,4.973828E1,0E0,0E0,0E0,0E0,0E0,0E0,0E0,0E0,0E0,0E0,0E0,0E0,0E0,0E0,0E0,0E0,0E0,0E0,0E0],"parents":[2147483647,0,0,1,1,2,2,3,3,4,4,5,5,6,6,7,7,8,8,9,9,10,10,11,11,12,12,16,16,17,17,18,18,20,20,21,21,22,22,24,24,25,25,26,26,27,27,28,28,30,30,33,33,34,34,38,38,39,39,40,40,43,43],"right_children":[2,4,6,8,10,12,14,16,18,20,22,24,26,-1,-1,-1,28,30,32,-1,34,36,38,-1,40,42,44,46,48,-1,50,-1,-1,52,54,-1,-1,-1,56,58,60,-1,-1,62,-1,-1,-1,-1,-1,-1,-1,-1,-1,-1,-1,-1,-1,-1,-1,-1,-1,-1,-1],"split_conditions":[3.6105E2,2.8955E2,4.3575E2,2.212E2,3.8555E2,3.9625E2,4.0325E2,2.0715E2,2.876E2,2.7290002E2,2.98E2,3.4325E2,3.6815002E2,4.1121645E0,7.4754906E0,2.8087008E-1,2.858E2,1.903E2,2.969E2,7.350127E0,2.9765002E2,3.8445E2,3.8265002E2,1.6863099E-1,3.6505E2,3.39E2,4.5505E2,2.199E2,2.0985E2,5.9475636E-1,2.1165E2,8.339539E-2,1.9270089E0,3.063E2,2.5125E2,-4.8170473E-2,1.3275285E0,1.1928315E0,3.755E2,3.635E2,4.317E2,9.842835E-1,3.7787726E0,3.645E2,1.2450074E0,2.828433E0,1.5808523E0,-9.486466E-2,1.8856461E0,7.3086095E-1,3.1485093E0,3.1200798E0,4.5591432E-1,5.508408E-1,4.3037233E0,2.9105022E0,1.4130455E0,1.2308595E0,3.404778E0,4.6209736E0,1.5776337E0,1.9872712E0,5.272788E0],"split_indices":[59,46,59,59,4,49,10,0,46,55,52,38,17,0,0,0,5,19,13,0,58,0,12,0,2,10,14,59,42,0,53,0,0,53,22,0,0,0,55,14,22,0,0,30,0,0,0,0,0,0,0,0,0,0,0,0,0,0,0,0,0,0,0],"split_type":[0,0,0,0,0,0,0,0,0,0,0,0,0,0,0,0,0,0,0,0,0,0,0,0,0,0,0,0,0,0,0,0,0,0,0,0,0,0,0,0,0,0,0,0,0,0,0,0,0,0,0,0,0,0,0,0,0,0,0,0,0,0,0],"sum_hessian":[6.58E2,2.4E2,4.18E2,1E2,1.4E2,3.88E2,3E1,4E1,6E1,1.15E2,2.5E1,1.74E2,2.14E2,6E0,2.4E1,1E0,3.9E1,5.4E1,6E0,4E0,1.11E2,2E0,2.3E1,1E0,1.73E2,1.4E1,2E2,2.2E1,1.7E1,1E0,5.3E1,1E0,5E0,2.6E1,8.5E1,1E0,1E0,3E0,2E1,1.6E1,1.57E2,1E0,1.3E1,1.99E2,1E0,1.6E1,6E0,1E0,1.6E1,1E0,5.2E1,2.3E1,3E0,1E0,8.4E1,1.7E1,3E0,2E0,1.4E1,1.55E2,2E0,2E0,1.97E2],"tree_param":{"num_deleted":"0","num_feature":"60","num_nodes":"63","size_leaf_vector":"0"}},{"base_weights":[1.0455343E1,8.690891E0,1.240177E1,6.891985E0,9.848777E0,1.1989996E1,1.8099035E1,7.020904E0,7.535019E-1,1.2039074E1,9.089065E0,6.2228446E0,1.2068513E1,1.9202827E1,9.159103E0,6.1059184E0,8.490861E0,-1.5481415E0,2.0367634E0,1.0108084E1,1.5017663E1,6.467225E0,9.880672E0,1.2111085E1,3.987152E0,5.637741E0,1.9731318E1,7.5890965E0,4.983271E0,1.5018623E1,7.75465E0,1.0642699E1,3.43779E0,1.5570296E1,2.8114471E0,6.8976097E0,-1.1400553E0,1.001287E1,-2.9915314E0,1.1543401E1,1.3428577E1,8.17459E0,4.5180454E0,2.6035204E0,5.616283E0,8.069412E0,2.3535995E0,1.0961617E1,5.375824E-1,1.0025787E0,3.915334E0,3.028881E0,7.6734877E0,-1.3648987E-1,-1.5735931E0,4.777832E-1,1.0088982E1,1.1633855E1,4.0444183E0,1.3541829E1,2.2408447E0],"categories":[],"categories_nodes":[],"categories_segments":[],"categories_sizes":[],"default_left":[1,1,1,1,1,1,1,1,1,1,1,0,1,1,0,1,1,0,0,1,1,1,1,1,0,0,0,1,1,0,1,1,1,0,0,1,1,1,0,1,1,0,0,0,0,0,0,0,0,0,0,0,0,0,0,0,0,0,0,0,0],"id":10,"left_children":[1,3,5,7,9,11,13,15,17,19,21,-1,23,25,-1,27,29,-1,-1,31,33,35,37,39,-1,-1,-1,41,43,-1,45,47,49,-1,-1,51,53,55,-1,57,59,-1,-1,-1,-1,-1,-1,-1,-1,-1,-1,-1,-1,-1,-1,-1,-1,-1,-1,-1,-1],"loss_changes":[2.1554688E3,6.5906445E2,5.1259375E2,1.05501465E2,2.4001562E2,5.7578125E1,1.1608398E1,1.3241895E2,1.496764E1,1.415332E2,2.681748E2,0E0,5.079297E1,3.4638672E0,0E0,1.0870923E2,1.2382666E2,0E0,0E0,8.46582E1,7.764526E1,1.3882593E2,2.3585645E2,5.889453E1,0E0,0E0,0E0,2.7797607E1,6.521765E1,0E0,6.0909912E1,9.401099E1,7.262497E-1,0E0,0E0,9.0821045E1,1.0904713E0,8.226758E1,0E0,9.335742E1,7.10166E1,0E0,0E0,0E0,0E0,0E0,0E0,0E0,0E0,0E0,0E0,0E0,0E0,0E0,0E0,0E0,0E0,0E0,0E0,0E0,0E0],"parents":[2147483647,0,0,1,1,2,2,3,3,4,4,5,5,6,6,7,7,8,8,9,9,10,10,12,12,13,13,15,15,16,16,19,19,20,20,21,21,22,22,23,23,27,27,28,28,30,30,31,31,32,32,35,35,36,36,37,37,39,39,40,40],"right_children":[2,4,6,8,10,12,14,16,18,20,22,-1,24,26,-1,28,30,-1,-1,32,34,36,38,40,-1,-1,-1,42,44,-1,46,48,50,-1,-1,52,54,56,-1,58,60,-1,-1,-1,-1,-1,-1,-1,-1,-1,-1,-1,-1,-1,-1,-1,-1,-1,-1,-1,-1],"split_conditions":[3.831E2,3.0134998E2,4.408E2,3.0745E2,3.1434998E2,3.542E2,4.4785E2,2.8955E2,3.0475E2,3.0540002E2,3.58E2,1.8668535E0,4.5290002E2,4.037E2,2.7477312E0,2.211E2,2.969E2,-4.6444246E-1,6.11029E-1,3.032E2,3.973E2,4.038E2,4.316E2,4.183E2,1.1961457E0,1.6913224E0,5.9193954E0,2.212E2,2.3145001E2,4.505587E0,3.0745E2,3.33E2,3.0255E2,4.671089E0,8.4343415E-1,3.0084998E2,3.881E2,3.542E2,-8.9745945E-1,4.2715E2,4.5285E2,2.452377E0,1.3554137E0,7.8105617E-1,1.6848849E0,2.4208238E0,7.060799E-1,3.2884853E0,1.6127473E-1,3.0077362E-1,1.1746002E0,9.0866435E-1,2.3020463E0,-4.094696E-2,-4.7207797E-1,1.4333497E-1,3.0266945E0,3.4901567E0,1.2133255E0,4.062549E0,6.7225343E-1],"split_indices":[57,50,59,53,40,9,55,34,0,32,47,0,51,7,0,28,7,0,0,32,0,25,25,59,0,0,0,24,32,0,57,15,7,0,0,17,0,26,0,56,25,0,0,0,0,0,0,0,0,0,0,0,0,0,0,0,0,0,0,0,0],"split_type":[0,0,0,0,0,0,0,0,0,0,0,0,0,0,0,0,0,0,0,0,0,0,0,0,0,0,0,0,0,0,0,0,0,0,0,0,0,0,0,0,0,0,0,0,0,0,0,0,0,0,0,0,0,0,0,0,0,0,0,0,0],"sum_hessian":[6.58E2,3.48E2,3.1E2,1.39E2,2.09E2,2.92E2,1.8E1,1.36E2,3E0,5E1,1.59E2,5E0,2.87E2,1.5E1,3E0,8.7E1,4.9E1,1E0,2E0,3.3E1,1.7E1,3.9E1,1.2E2,2.85E2,2E0,1E0,1.4E1,3.5E1,5.2E1,3E0,4.6E1,3E1,3E0,1.6E1,1E0,3.7E1,2E0,1.19E2,1E0,2.06E2,7.9E1,2.8E1,7E0,1.2E1,4E1,4.3E1,3E0,2.9E1,1E0,1E0,2E0,7E0,3E1,1E0,1E0,1E0,1.18E2,2.03E2,3E0,7.8E1,1E0],"tree_param":{"num_deleted":"0","num_feature":"60","num_nodes":"61","size_leaf_vector":"0"}},{"base_weights":[7.3981385E0,5.377164E0,8.223613E0,5.233984E0,1.27483015E1,7.92755E0,1.2743761E1,4.58322E0,6.302697E0,1.0936828E1,7.7506247E0,1.4180279E1,5.3525696E0,5.0278783E0,2.53951E0,8.849276E0,5.50803E0,1.4573466E0,1.1811908E1,3.544366E0,8.019882E0,4.633066E0,1.0441093E1,-1.2813822E0,2.9451087E0,6.0997534E0,2.176126E0,2.3020325E0,-1.1601257E-1,2.633255E0,1.2156403E1,6.446757E0,2.591697E0,7.4543934E0,8.813779E0,2.3538835E0,4.81559E0,1.268597E1,3.9675598E0,3.9995575E-1,3.3259246E0,7.18277E-1,6.2011275E0,3.2160084E0,4.93042E-1,1.2565707E0,4.0681915E0,7.6620502E0,1.3654886E0,1.0094351E1,7.6526866E0],"categories":[],"categories_nodes":[],"categories_segments":[],"categories_sizes":[],"default_left":[1,1,1,1,0,1,1,1,1,1,1,0,0,1,1,0,1,1,1,1,1,1,1,0,1,1,1,0,0,0,0,0,1,1,1,0,0,0,0,0,0,0,0,0,0,0,0,0,0,0,0],"id":11,"left_children":[1,3,5,7,-1,9,11,13,15,17,19,-1,-1,21,23,-1,25,27,29,31,33,35,37,-1,39,41,43,-1,-1,-1,-1,-1,45,47,49,-1,-1,-1,-1,-1,-1,-1,-1,-1,-1,-1,-1,-1,-1,-1,-1],"loss_changes":[1.0551641E3,1.3802344E2,5.225957E2,1.0464551E2,0E0,1.494961E2,2.1077344E2,9.900806E1,9.291577E1,1.6528271E2,4.461211E2,0E0,0E0,1.6534595E2,4.0967773E1,0E0,9.713379E1,4.2540474E0,3.1229248E1,5.794745E1,1.1073242E2,2.818518E1,3.686139E1,0E0,1.999295E1,2.1186401E1,1.5916466E1,0E0,0E0,0E0,0E0,0E0,3.8256775E1,2.8793652E2,1.5767578E2,0E0,0E0,0E0,0E0,0E0,0E0,0E0,0E0,0E0,0E0,0E0,0E0,0E0,0E0,0E0,0E0],"parents":[2147483647,0,0,1,1,2,2,3,3,5,5,6,6,7,7,8,8,9,9,10,10,13,13,14,14,16,16,17,17,18,18,19,19,20,20,21,21,22,22,24,24,25,25,26,26,32,32,33,33,34,34],"right_children":[2,4,6,8,-1,10,12,14,16,18,20,-1,-1,22,24,-1,26,28,30,32,34,36,38,-1,40,42,44,-1,-1,-1,-1,-1,46,48,50,-1,-1,-1,-1,-1,-1,-1,-1,-1,-1,-1,-1,-1,-1,-1,-1],"split_conditions":[3.167E2,4.024E2,4.3565E2,2.9515002E2,3.8244905E0,3.2435E2,4.329E2,3.0065002E2,3.008E2,3.017E2,3.6105E2,4.2540836E0,1.605771E0,3.0715E2,3.009E2,2.6547828E0,3.0834998E2,3.4075E2,2.93E2,3.0125E2,4.0445E2,2.0865E2,2.9075E2,-3.8441467E-1,2.9615002E2,2.5125E2,3.2440002E2,6.9060975E-1,-3.4803774E-2,7.8997654E-1,3.646921E0,1.9340271E0,3.9775E2,4.0635E2,4.1525E2,7.061651E-1,1.444677E0,3.8057911E0,1.190268E0,1.1998673E-1,9.977774E-1,2.154831E-1,1.8603383E0,9.6480256E-1,1.479126E-1,3.7697122E-1,1.2204576E0,2.2986152E0,4.096466E-1,3.0283053E0,2.2958062E0],"split_indices":[59,12,48,58,0,59,5,30,3,52,59,0,0,21,4,0,58,0,13,10,39,58,40,0,33,22,6,0,0,0,0,0,7,38,38,0,0,0,0,0,0,0,0,0,0,0,0,0,0,0,0],"split_type":[0,0,0,0,0,0,0,0,0,0,0,0,0,0,0,0,0,0,0,0,0,0,0,0,0,0,0,0,0,0,0,0,0,0,0,0,0,0,0,0,0,0,0,0,0,0,0,0,0,0,0],"sum_hessian":[6.58E2,1.93E2,4.65E2,1.91E2,2E0,4.39E2,2.6E1,1.22E2,6.9E1,2.1E1,4.18E2,2.1E1,5E0,9.9E1,2.3E1,1.4E1,5.5E1,2E0,1.9E1,2.6E1,3.92E2,9.4E1,5E0,2E0,2.1E1,4.6E1,9E0,1E0,1E0,1E0,1.8E1,5E0,2.1E1,2.35E2,1.57E2,8E0,8.6E1,3E0,2E0,3E0,1.8E1,1E0,4.5E1,5E0,4E0,1.2E1,9E0,2.27E2,8E0,7.1E1,8.6E1],"tree_param":{"num_deleted":"0","num_feature":"60","num_nodes":"51","size_leaf_vector":"0"}},{"base_weights":[5.239491E0,4.5418057E0,6.6591673E0,3.1055064E0,4.91246E0,6.291048E0,9.760312E0,4.818852E0,2.7454352E0,1.0467938E1,4.8022428E0,8.8979845E0,5.8907137E0,1.07776375E1,2.7422714E0,1.2685903E0,5.267462E0,1.4763651E0,3.0155845E0,2.6167095E0,1.3739376E1,2.3634853E0,4.96807E0,9.992849E0,3.9479167E0,2.5636709E0,6.262942E0,1.4039154E0,5.472431E0,2.4423661E0,-1.1454555E-1,5.929119E0,2.778976E0,3.3753967E0,5.4966736E-1,4.255659E0,1.334022E0,5.1590447E0,2.5807776E0,1.0577423E1,3.3493145E0,4.5959535E0,3.5386658E-1,4.3221273E0,-3.2244325E0,2.8280196E0,6.4818387E0,8.308716E-1,2.7413807E0,-1.0887909E0,4.9291077E-1,2.9408317E0,7.78183E-1,5.3204346E-1,4.711598E0,-1.0251058E0,1.7169129E0,5.1947975E0,-2.7476196E0,7.0979613E-1,4.7044396E0,1.0250244E0,5.060984E0,1.1974589E0,-6.5715127E0,4.781901E-1,3.2970717E0,7.4203963E0,5.467346E0],"categories":[],"categories_nodes":[],"categories_segments":[],"categories_sizes":[],"default_left":[1,1,1,1,1,1,1,1,1,1,1,1,1,0,0,0,1,1,1,1,0,1,1,1,1,1,1,0,0,1,1,0,1,0,0,1,1,1,1,0,0,0,0,1,1,1,1,0,0,0,0,0,0,0,0,0,0,0,0,0,0,0,0,0,0,0,0,0,0],"id":12,"left_children":[1,3,5,7,9,11,13,15,17,19,21,23,25,-1,-1,-1,27,29,31,33,-1,35,37,39,41,43,45,-1,-1,47,49,-1,51,-1,-1,53,55,57,59,-1,-1,-1,-1,61,63,65,67,-1,-1,-1,-1,-1,-1,-1,-1,-1,-1,-1,-1,-1,-1,-1,-1,-1,-1,-1,-1,-1,-1],"loss_changes":[6.224863E2,2.2164844E2,1.8403906E2,4.476123E1,1.6526367E2,1.510957E2,1.20377075E2,1.7208008E1,2.2974915E1,1.1815692E2,1.2858887E2,9.062073E1,1.9695215E2,0E0,0E0,0E0,2.611969E0,2.4868904E1,2.833197E1,2.849371E0,0E0,4.1073013E1,1.3440186E2,3.836194E1,1.2348106E1,2.0732083E2,9.746094E1,0E0,0E0,2.5408669E0,4.6793575E0,0E0,1.7789581E1,0E0,0E0,1.1075165E1,1.7115921E1,9.879541E1,9.996747E1,0E0,0E0,0E0,0E0,3.1353668E1,8.187125E1,1.0547493E1,9.6541016E1,0E0,0E0,0E0,0E0,0E0,0E0,0E0,0E0,0E0,0E0,0E0,0E0,0E0,0E0,0E0,0E0,0E0,0E0,0E0,0E0,0E0,0E0],"parents":[2147483647,0,0,1,1,2,2,3,3,4,4,5,5,6,6,7,7,8,8,9,9,10,10,11,11,12,12,16,16,17,17,18,18,19,19,21,21,22,22,23,23,24,24,25,25,26,26,29,29,30,30,32,32,35,35,36,36,37,37,38,38,43,43,44,44,45,45,46,46],"right_children":[2,4,6,8,10,12,14,16,18,20,22,24,26,-1,-1,-1,28,30,32,34,-1,36,38,40,42,44,46,-1,-1,48,50,-1,52,-1,-1,54,56,58,60,-1,-1,-1,-1,62,64,66,68,-1,-1,-1,-1,-1,-1,-1,-1,-1,-1,-1,-1,-1,-1,-1,-1,-1,-1,-1,-1,-1,-1],"split_conditions":[4.007E2,2.848E2,4.3834998E2,2.1405E2,2.7059998E2,4.0375E2,4.306E2,2.079E2,2.1595E2,2.7505E2,2.9075E2,4.062E2,3.923E2,3.2332914E0,8.226815E-1,3.8057712E-1,1.9070001E2,2.6135E2,2.094E2,3.4909998E2,4.121813E0,3.0065002E2,3.989E2,4.2109998E2,4.185E2,3.8805E2,3.7235E2,4.2117465E-1,1.6417295E0,2.1345001E2,2.893E2,1.7787358E0,2.962E2,1.012619E0,1.6490021E-1,3.0165E2,3.009E2,4.317E2,4.082E2,3.173227E0,1.0047944E0,1.3787861E0,1.0615998E-1,3.6555E2,3.8565002E2,3.721E2,4.1465002E2,2.4926148E-1,8.224142E-1,-3.2663727E-1,1.4787324E-1,8.8224953E-1,2.334549E-1,1.5961304E-1,1.4134794E0,-3.0753177E-1,5.150739E-1,1.5584394E0,-8.242859E-1,2.1293885E-1,1.4113319E0,3.0750734E-1,1.5182953E0,3.5923767E-1,-1.9714539E0,1.4345704E-1,9.8912156E-1,2.226119E0,1.640204E0],"split_indices":[59,49,51,26,54,59,4,34,51,51,59,52,48,0,0,0,27,15,56,0,0,30,57,21,5,46,2,0,0,38,5,0,55,0,0,0,4,27,46,0,0,0,0,31,0,13,14,0,0,0,0,0,0,0,0,0,0,0,0,0,0,0,0,0,0,0,0,0,0],"split_type":[0,0,0,0,0,0,0,0,0,0,0,0,0,0,0,0,0,0,0,0,0,0,0,0,0,0,0,0,0,0,0,0,0,0,0,0,0,0,0,0,0,0,0,0,0,0,0,0,0,0,0,0,0,0,0,0,0,0,0,0,0,0,0,0,0,0,0,0,0],"sum_hessian":[6.58E2,4.44E2,2.14E2,9.3E1,3.51E2,1.94E2,2E1,1.4E1,7.9E1,5E0,3.46E2,2.3E1,1.71E2,1.7E1,3E0,2E0,1.2E1,1.5E1,6.4E1,2E0,3E0,2.3E1,3.23E2,1.8E1,5E0,1.8E1,1.53E2,1E0,1.1E1,9E0,6E0,3E0,6.1E1,1E0,1E0,7E0,1.6E1,2.98E2,2.5E1,1.6E1,2E0,4E0,1E0,1.4E1,4E0,1E1,1.43E2,2E0,7E0,2E0,4E0,5.6E1,5E0,1E0,6E0,2E0,1.4E1,2.97E2,1E0,1.4E1,1.1E1,3E0,1.1E1,2E0,2E0,2E0,8E0,7.1E1,7.2E1],"tree_param":{"num_deleted":"0","num_feature":"60","num_nodes":"69","size_leaf_vector":"0"}},{"base_weights":[3.71408E0,3.018891E0,4.4822693E0,3.2741587E0,1.9732782E0,4.3286138E0,9.157301E0,2.7082562E0,4.6006765E0,-3.2499695E0,2.3336208E0,1.2023295E1,4.237542E0,2.6220362E0,9.846817E0,8.58218E0,4.1146407E0,-9.4358826E-1,-3.5906677E0,-4.1180855E-1,3.0021837E0,2.6626089E0,4.3767624E0,2.7300558E0,3.290619E-1,3.231307E0,5.7520556E0,-3.5954852E0,2.4253845E0,6.276197E0,2.462178E0,3.2134836E0,6.296125E-1,5.17658E0,3.8752716E0,2.0767453E0,3.2052093E0,1.5325369E0,-1.6337395E-1,3.6525831E0,6.148856E-2,1.0310583E1,4.3927846E0,-7.635091E-1,-4.575574E0,3.4750824E0,-4.8247275E-1,1.6744181E0,7.7820253E0,1.3229011E-1,3.6229877E0,3.658598E0,1.0573975E0,1.2733154E0,-1.7149353E-1,2.7942972E0,5.5199246E0,-5.7259965E-1,4.363646E0],"categories":[],"categories_nodes":[],"categories_segments":[],"categories_sizes":[],"default_left":[1,1,1,1,1,1,0,1,1,1,1,0,1,1,0,0,1,0,0,1,1,1,1,1,1,1,1,1,1,1,1,1,1,1,1,0,0,0,0,0,0,0,0,0,0,0,0,0,0,0,0,0,0,0,0,0,0,0,0],"id":13,"left_children":[1,3,5,7,9,11,-1,13,15,17,19,-1,21,23,-1,-1,25,-1,-1,27,29,31,33,35,37,39,41,43,45,47,49,51,53,55,57,-1,-1,-1,-1,-1,-1,-1,-1,-1,-1,-1,-1,-1,-1,-1,-1,-1,-1,-1,-1,-1,-1,-1,-1],"loss_changes":[3.383994E2,8.669092E1,1.8376611E2,1.9697998E2,1.412175E2,1.6138379E2,0E0,9.604785E1,1.2337012E2,5.4078674E-1,1.24214264E2,0E0,5.4344727E1,4.7895752E1,0E0,0E0,8.989209E1,0E0,0E0,1.3517831E2,8.001819E1,2.8214752E1,9.024219E1,5.1703125E1,6.1767178E0,6.787927E1,1.09614685E2,1.5935623E1,2.6095604E1,3.5476074E1,1.2933945E2,1.6285233E1,3.8280852E0,6.8823975E1,3.782937E2,0E0,0E0,0E0,0E0,0E0,0E0,0E0,0E0,0E0,0E0,0E0,0E0,0E0,0E0,0E0,0E0,0E0,0E0,0E0,0E0,0E0,0E0,0E0,0E0],"parents":[2147483647,0,0,1,1,2,2,3,3,4,4,5,5,7,7,8,8,9,9,10,10,12,12,13,13,16,16,19,19,20,20,21,21,22,22,23,23,24,24,25,25,26,26,27,27,28,28,29,29,30,30,31,31,32,32,33,33,34,34],"right_children":[2,4,6,8,10,12,-1,14,16,18,20,-1,22,24,-1,-1,26,-1,-1,28,30,32,34,36,38,40,42,44,46,48,50,52,54,56,58,-1,-1,-1,-1,-1,-1,-1,-1,-1,-1,-1,-1,-1,-1,-1,-1,-1,-1,-1,-1,-1,-1,-1,-1],"split_conditions":[3.831E2,3.8345E2,4.468E2,3.1855E2,3.711E2,3.6605E2,2.7471905E0,4.039E2,3.1725E2,3.5925E2,3.7405E2,3.6069887E0,3.6875E2,3.3135E2,2.9540453E0,2.574654E0,3.784E2,-2.830765E-1,-1.0772004E0,3.9415E2,3.7655E2,3.78E2,4.022E2,2.8995E2,2.714E2,3.749E2,3.8065E2,3.824E2,4.3085E2,3.618E2,3.797E2,4.0825E2,3.628E2,3.7085E2,3.958E2,6.230236E-1,9.615628E-1,4.5976108E-1,-4.9012188E-2,1.095775E0,1.8446568E-2,3.0931752E0,1.3178355E0,-2.2905274E-1,-1.3726722E0,1.0425248E0,-1.4474183E-1,5.023255E-1,2.3346076E0,3.9687034E-2,1.0868964E0,1.0975795E0,3.1721926E-1,3.8199463E-1,-5.1448062E-2,8.382892E-1,1.6559775E0,-1.717799E-1,1.3090938E0],"split_indices":[57,29,59,59,40,52,0,14,54,0,44,0,17,40,0,0,45,0,0,0,42,23,17,22,58,45,45,17,9,2,47,50,16,43,35,0,0,0,0,0,0,0,0,0,0,0,0,0,0,0,0,0,0,0,0,0,0,0,0],"split_type":[0,0,0,0,0,0,0,0,0,0,0,0,0,0,0,0,0,0,0,0,0,0,0,0,0,0,0,0,0,0,0,0,0,0,0,0,0,0,0,0,0,0,0,0,0,0,0,0,0,0,0,0,0,0,0,0,0,0,0],"sum_hessian":[6.58E2,3.48E2,3.1E2,2.78E2,7E1,3.02E2,8E0,1.97E2,8.1E1,4E0,6.6E1,2E0,3E2,1.96E2,1E0,7E0,7.4E1,1E0,3E0,1.3E1,5.3E1,2.6E1,2.74E2,1.87E2,9E0,5E1,2.4E1,6E0,7E0,6E0,4.7E1,2E1,6E0,1.02E2,1.72E2,8.1E1,1.06E2,2E0,7E0,4.4E1,6E0,4E0,2E1,2E0,4E0,5E0,2E0,2E0,4E0,1.6E1,3.1E1,1.6E1,4E0,3E0,3E0,1.4E1,8.8E1,1.7E1,1.55E2],"tree_param":{"num_deleted":"0","num_feature":"60","num_nodes":"59","size_leaf_vector":"0"}},{"base_weights":[2.6403496E0,2.501854E0,4.9009566E0,1.6730684E0,2.7364163E0,-1.7170868E0,5.132488E0,1.9775257E0,-4.981717E-2,4.664506E0,2.6432562E0,5.472042E0,-4.2662558E-1,1.624948E0,4.313735E0,7.63326E-1,-9.323536E-1,5.9510107E0,1.830059E0,9.089991E-1,2.7870045E0,4.8524985E-1,5.768553E0,2.7304077E-1,-9.129791E-1,1.7695389E0,-1.0557251E0,6.6711297E0,2.000902E0,1.3751051E0,-8.040085E-1,-1.9370499E0,-3.134613E-1,3.2240753E0,7.107744E0,7.7178955E-1,2.3106627E0,1.724851E0,-5.545327E-1,5.3247137E0,2.6096284E0,1.3909912E-1,5.8877563E-1,6.008433E0,1.4468994E0,1.3849479E0,2.7580645E0,-2.8533936E-2,-1.2554566E0,8.25589E0,3.4185867E0,2.6191885E0,-1.0873413E-1,4.6134645E-1,2.0138428E0,-5.250473E-1,-8.150025E-2,2.2497187E0,1.2878418E-1,-1.4869308E0,5.9028405E-1,4.239583E0,9.251373E0,-7.7991945E-1,2.6892362E0,6.162241E0,7.740021E-1],"categories":[],"categories_nodes":[],"categories_segments":[],"categories_sizes":[],"default_left":[1,1,1,1,1,0,1,1,1,1,1,1,1,1,1,1,1,1,1,1,1,1,1,0,0,1,1,1,1,1,0,0,1,0,0,0,0,1,1,1,1,0,0,1,0,0,0,0,0,0,0,0,0,0,0,0,0,0,0,0,0,0,0,0,0,0,0],"id":14,"left_children":[1,3,5,7,9,-1,11,13,15,17,19,21,23,25,27,29,31,33,35,37,39,41,43,-1,-1,45,47,49,51,53,-1,-1,55,-1,-1,-1,-1,57,59,61,63,-1,-1,65,-1,-1,-1,-1,-1,-1,-1,-1,-1,-1,-1,-1,-1,-1,-1,-1,-1,-1,-1,-1,-1,-1,-1],"loss_changes":[1.9406104E2,1.1653418E2,6.550745E1,7.353482E1,7.460693E1,0E0,7.028888E1,9.101013E1,1.6499517E1,6.568643E1,1.1314014E2,4.7474426E1,1.2701362E0,4.2566254E1,6.843561E1,1.2611946E1,6.2325974E0,2.1244843E1,2.2855225E0,4.513542E1,1.7875952E2,2.560836E-2,2.4480103E1,0E0,0E0,3.419806E1,1.1951509E0,7.8580627E0,1.2024033E1,4.3237896E0,0E0,0E0,3.4984624E-1,0E0,0E0,0E0,0E0,1.9815636E1,1.5821661E1,7.5823425E1,1.105708E2,0E0,0E0,1.93833E1,0E0,0E0,0E0,0E0,0E0,0E0,0E0,0E0,0E0,0E0,0E0,0E0,0E0,0E0,0E0,0E0,0E0,0E0,0E0,0E0,0E0,0E0,0E0],"parents":[2147483647,0,0,1,1,2,2,3,3,4,4,6,6,7,7,8,8,9,9,10,10,11,11,12,12,13,13,14,14,15,15,16,16,17,17,18,18,19,19,20,20,21,21,22,22,25,25,26,26,27,27,28,28,29,29,32,32,37,37,38,38,39,39,40,40,43,43],"right_children":[2,4,6,8,10,-1,12,14,16,18,20,22,24,26,28,30,32,34,36,38,40,42,44,-1,-1,46,48,50,52,54,-1,-1,56,-1,-1,-1,-1,58,60,62,64,-1,-1,66,-1,-1,-1,-1,-1,-1,-1,-1,-1,-1,-1,-1,-1,-1,-1,-1,-1,-1,-1,-1,-1,-1,-1],"split_conditions":[4.3135E2,3.0134998E2,3.999E2,2.996E2,3.0025E2,-5.1512605E-1,4.4995E2,3.0965002E2,3.178E2,3.0485E2,3.1495E2,3.755E2,4.28E2,3.017E2,3.019E2,3.066E2,3.1985E2,2.938E2,3.0075E2,3.0765E2,3.5875E2,3.7905E2,4.4945E2,8.1912234E-2,-2.7389374E-1,2.9845E2,3.0195E2,3.7615E2,2.994E2,3.051E2,-2.4120255E-1,-5.81115E-1,3.007E2,9.6722263E-1,2.1323233E0,2.3153688E-1,6.9319886E-1,3.079E2,3.2015002E2,3.6655E2,3.6385E2,4.1729737E-2,1.766327E-1,4.3959998E2,4.3406984E-1,4.154844E-1,8.274194E-1,-8.560181E-3,-3.7663698E-1,2.476767E0,1.0255761E0,7.857566E-1,-3.262024E-2,1.3840394E-1,6.0415286E-1,-1.575142E-1,-2.4450075E-2,6.749156E-1,3.8635254E-2,-4.4607928E-1,1.7708522E-1,1.2718749E0,2.775412E0,-2.3397584E-1,8.0677086E-1,1.8486724E0,2.3220064E-1],"split_indices":[50,50,37,55,10,0,34,22,18,36,23,1,0,28,35,9,17,10,22,57,32,0,45,0,0,1,0,3,54,3,0,0,33,0,0,0,0,30,46,48,31,0,0,9,0,0,0,0,0,0,0,0,0,0,0,0,0,0,0,0,0,0,0,0,0,0,0],"split_type":[0,0,0,0,0,0,0,0,0,0,0,0,0,0,0,0,0,0,0,0,0,0,0,0,0,0,0,0,0,0,0,0,0,0,0,0,0,0,0,0,0,0,0,0,0,0,0,0,0,0,0,0,0,0,0,0,0,0,0,0,0,0,0,0,0,0,0],"sum_hessian":[6.58E2,6.22E2,3.6E1,1.39E2,4.83E2,1E0,3.5E1,1.18E2,2.1E1,2E1,4.63E2,3.3E1,2E0,1.04E2,1.4E1,1.1E1,1E1,1.3E1,7E0,3.6E1,4.27E2,2E0,3.1E1,1E0,1E0,9.9E1,5E0,6E0,8E0,8E0,3E0,3E0,7E0,5E0,8E0,3E0,4E0,2.3E1,1.3E1,2.6E1,4.01E2,1E0,1E0,2.9E1,2E0,7.3E1,2.6E1,1E0,4E0,3E0,3E0,6E0,2E0,4E0,4E0,3E0,4E0,1.7E1,6E0,7E0,6E0,2.2E1,4E0,9E0,3.92E2,2.8E1,1E0],"tree_param":{"num_deleted":"0","num_feature":"60","num_nodes":"67","size_leaf_vector":"0"}},{"base_weights":[1.8724779E0,1.6710634E0,2.9074879E0,1.8291531E0,8.779745E-1,4.735768E0,2.2226863E0,1.7135984E0,4.7463684E0,-2.8864872E0,1.411656E0,8.0288515E0,3.8523853E0,-1.8770813E0,2.776615E0,1.8155913E0,-2.366877E-1,5.676043E0,3.0591583E-1,2.5073242E-1,-3.5390046E0,1.0371437E0,3.3484802E0,4.084718E0,-7.45636E-1,2.9649734E0,-4.3758154E0,3.665759E0,6.700384E-1,1.4210374E0,2.6559272E0,-1.324379E0,8.7072754E-1,7.335968E0,2.9681222E0,1.8637848E0,-8.3463544E-1,-3.5331726E-1,7.294159E-1,-4.6541877E0,-7.026825E-1,4.8619995E-1,2.7586005E0,5.5915756E0,2.116394E0,7.993927E-1,4.1977153E0,4.0294595E0,-1.1424255E-1,-5.07369E0,-9.428406E-2,-6.511841E-2,3.9988396E0,1.8673142E0,-9.534241E-1,1.6084322E0,-8.711012E-2,6.0740433E0,2.4197001E0,6.473144E-1,-2.39114E0,4.2419738E-1,2.068919E0,3.5167236E0,1.0644125E0,-6.4556885E-1,-5.2146964E0,4.8103333E-1,-1.2575989E0,7.788324E-1,-2.033437E0,3.9424105E0,5.0424194E-1,6.0295105E-1,2.2175598E0,9.217224E-1,4.309823E0,-1.3700714E0,-5.540399E0,-9.5603436E-1,8.4750366E-1,4.6908984E0,1.9344717E0,-9.3742067E-1,3.218021E0,-1.5414352E0,9.3241376E-1],"categories":[],"categories_nodes":[],"categories_segments":[],"categories_sizes":[],"default_left":[1,1,1,1,1,1,1,1,1,1,1,0,1,1,1,1,1,1,1,1,1,1,1,1,0,1,1,1,1,1,1,1,1,0,1,0,0,0,0,1,1,1,1,0,1,0,1,0,0,1,0,1,1,1,1,0,0,0,0,0,0,0,0,0,0,0,0,0,0,0,0,0,0,0,0,0,0,0,0,0,0,0,0,0,0,0,0],"id":15,"left_children":[1,3,5,7,9,11,13,15,17,19,21,-1,23,25,27,29,31,33,35,37,39,41,43,45,-1,47,49,51,53,55,57,59,61,-1,63,-1,-1,-1,-1,65,67,69,71,-1,73,-1,75,-1,-1,77,-1,79,81,83,85,-1,-1,-1,-1,-1,-1,-1,-1,-1,-1,-1,-1,-1,-1,-1,-1,-1,-1,-1,-1,-1,-1,-1,-1,-1,-1,-1,-1,-1,-1,-1,-1],"loss_changes":[1.3252051E2,6.7854004E1,1.2218677E2,1.4726868E2,1.9292294E2,5.0523254E1,1.8461914E2,8.894702E1,6.8442566E1,2.5452415E1,5.6732407E1,0E0,2.8684235E1,1.3396423E2,1.2865735E2,1.3647485E2,2.885727E1,4.115518E1,8.662898E0,1.1251612E0,2.8359772E1,6.5997E1,2.4093948E1,5.1827087E0,0E0,1.3571472E1,2.0437424E1,6.1151855E1,4.4542458E1,8.209955E1,9.350122E1,2.6787727E1,5.542713E0,0E0,3.567402E0,0E0,0E0,0E0,0E0,1.2361603E1,3.2324E0,4.213672E1,4.3380524E1,0E0,1.9400787E-1,0E0,4.1073914E0,0E0,0E0,2.7803497E0,0E0,4.8755903E0,5.5215515E1,5.22655E1,1.2526193E1,0E0,0E0,0E0,0E0,0E0,0E0,0E0,0E0,0E0,0E0,0E0,0E0,0E0,0E0,0E0,0E0,0E0,0E0,0E0,0E0,0E0,0E0,0E0,0E0,0E0,0E0,0E0,0E0,0E0,0E0,0E0,0E0],"parents":[2147483647,0,0,1,1,2,2,3,3,4,4,5,5,6,6,7,7,8,8,9,9,10,10,12,12,13,13,14,14,15,15,16,16,17,17,18,18,19,19,20,20,21,21,22,22,23,23,25,25,26,26,27,27,28,28,29,29,30,30,31,31,32,32,34,34,39,39,40,40,41,41,42,42,44,44,46,46,49,49,51,51,52,52,53,53,54,54],"right_children":[2,4,6,8,10,12,14,16,18,20,22,-1,24,26,28,30,32,34,36,38,40,42,44,46,-1,48,50,52,54,56,58,60,62,-1,64,-1,-1,-1,-1,66,68,70,72,-1,74,-1,76,-1,-1,78,-1,80,82,84,86,-1,-1,-1,-1,-1,-1,-1,-1,-1,-1,-1,-1,-1,-1,-1,-1,-1,-1,-1,-1,-1,-1,-1,-1,-1,-1,-1,-1,-1,-1,-1,-1],"split_conditions":[4.1734998E2,4.032E2,4.1795E2,4.03E2,3.96E2,4.0275E2,4.053E2,3.985E2,4.243E2,3.9345E2,4.3084998E2,2.4086556E0,4.296E2,3.9925E2,4.385E2,3.7725E2,3.9434998E2,4.0195E2,3.9884998E2,3.9965E2,4.0065E2,4.2125E2,4.3445E2,3.6795E2,-2.2369081E-1,4.237E2,4.1795E2,4.1255E2,4.225E2,3.837E2,3.6605E2,3.9559998E2,4.0135E2,2.2007904E0,4.072E2,5.5913544E-1,-2.5039065E-1,-1.05995186E-1,2.1882477E-1,3.743E2,4.193E2,4.222E2,4.2240002E2,1.6774727E0,3.8955E2,2.3981781E-1,4.1759998E2,1.2088379E0,-3.4272768E-2,3.9515E2,-2.8285218E-2,3.8085E2,4.4484998E2,4.2665002E2,4.4555E2,4.8252967E-1,-2.6133036E-2,1.822213E0,7.2591007E-1,1.9419433E-1,-7.17342E-1,1.2725922E-1,6.206757E-1,1.0550171E0,3.1932375E-1,-1.9367066E-1,-1.564409E0,1.4431E-1,-3.7727967E-1,2.3364972E-1,-6.100311E-1,1.1827232E0,1.512726E-1,1.8088531E-1,6.6526794E-1,2.7651674E-1,1.2929469E0,-4.1102144E-1,-1.6621197E0,-2.868103E-1,2.5425112E-1,1.4072696E0,5.803415E-1,-2.8122622E-1,9.654063E-1,-4.624306E-1,2.7972415E-1],"split_indices":[31,31,36,30,38,44,19,30,11,19,52,0,22,49,4,59,46,31,2,0,42,17,53,17,0,0,3,28,46,28,52,32,31,0,29,0,0,0,0,1,1,20,5,0,1,0,31,0,0,19,0,0,44,31,1,0,0,0,0,0,0,0,0,0,0,0,0,0,0,0,0,0,0,0,0,0,0,0,0,0,0,0,0,0,0,0,0],"split_type":[0,0,0,0,0,0,0,0,0,0,0,0,0,0,0,0,0,0,0,0,0,0,0,0,0,0,0,0,0,0,0,0,0,0,0,0,0,0,0,0,0,0,0,0,0,0,0,0,0,0,0,0,0,0,0,0,0,0,0,0,0,0,0,0,0,0,0,0,0,0,0,0,0,0,0,0,0,0,0,0,0,0,0,0,0,0,0],"sum_hessian":[6.58E2,5.53E2,1.05E2,4.6E2,9.3E1,2.7E1,7.8E1,4.44E2,1.6E1,1.1E1,8.2E1,4E0,2.3E1,9E0,6.9E1,4.22E2,2.2E1,1.3E1,3E0,2E0,9E0,7E1,1.2E1,2.2E1,1E0,3E0,6E0,4.8E1,2.1E1,2.89E2,1.33E2,1.1E1,1.1E1,7E0,6E0,1E0,2E0,1E0,1E0,6E0,3E0,5.4E1,1.6E1,3E0,9E0,1E0,2.1E1,2E0,1E0,5E0,1E0,4E0,4.4E1,1.2E1,9E0,2.57E2,3.2E1,7E0,1.26E2,4E0,7E0,9E0,2E0,4E0,2E0,1E0,5E0,1E0,2E0,4.9E1,5E0,1E1,6E0,1E0,8E0,1E0,2E1,1E0,4E0,2E0,2E0,3.2E1,1.2E1,4E0,8E0,7E0,2E0],"tree_param":{"num_deleted":"0","num_feature":"60","num_nodes":"87","size_leaf_vector":"0"}},{"base_weights":[1.3323388E0,1.1870908E0,2.225897E0,1.220483E0,-2.1496227E0,2.5021813E0,-2.622223E-1,1.1436402E0,2.6506283E0,-2.9905853E0,-3.117981E-1,-1.848009E-3,2.772912E0,1.848526E0,-1.4309038E0,1.2112164E0,-1.2805721E-1,3.7682312E0,-1.2744819E-1,-5.5155945E-1,8.3862305E-2,1.317858E0,-3.0805461E0,2.915085E0,-4.438858E-1,-7.846069E-2,2.5170085E0,1.0294527E0,1.8265837E0,-3.4755797E0,5.746791E-1,4.404062E0,1.2389374E-1,9.453064E-1,-1.1747131E0,2.0839782E0,-3.9829507E-1,1.7800488E0,3.4568048E0,-6.2480164E-1,-1.7531331E-1,1.2824266E0,4.22595E-1,3.2599263E0,1.3922116E0,-2.3630778E-1,-5.5563254E0,-2.6353723E-1,2.2840538E0,1.8294154E0,5.6421037E0,-8.276367E-2,2.2036743E-1,1.2394104E0,-1.1555481E-1,-1.5053024E0,7.382202E-2,8.8760376E-1,2.5856934E0,1.4190674E-3,-5.988617E-1,2.3374345E0,1.285226E-2,4.152002E0,2.1060977E0],"categories":[],"categories_nodes":[],"categories_segments":[],"categories_sizes":[],"default_left":[1,1,1,1,1,1,1,1,1,0,1,1,1,1,0,1,1,1,1,0,0,1,0,1,1,0,0,1,1,1,1,1,1,1,1,1,1,1,1,0,0,0,0,0,0,0,0,0,0,0,0,0,0,0,0,0,0,0,0,0,0,0,0,0,0],"id":16,"left_children":[1,3,5,7,9,11,13,15,17,-1,19,21,23,25,-1,27,29,31,33,-1,-1,35,-1,37,39,-1,-1,41,43,45,47,49,51,53,55,57,59,61,63,-1,-1,-1,-1,-1,-1,-1,-1,-1,-1,-1,-1,-1,-1,-1,-1,-1,-1,-1,-1,-1,-1,-1,-1,-1,-1],"loss_changes":[8.2887695E1,6.602161E1,6.3212097E1,5.8950134E1,8.340792E0,5.559442E1,2.731299E1,4.630304E1,8.7414276E1,0E0,3.308472E-1,4.062651E1,3.5137268E1,5.350113E0,0E0,5.516388E1,6.7865265E1,4.5797974E1,1.1221587E1,0E0,0E0,1.0033496E1,0E0,3.7502563E1,8.481997E-2,0E0,0E0,6.0251648E1,6.7060974E1,3.2387497E1,3.4989754E1,4.386612E1,9.798644E-2,1.7032375E0,2.1748867E0,7.0612526E-1,2.413578E-1,2.4595207E1,3.5388855E1,0E0,0E0,0E0,0E0,0E0,0E0,0E0,0E0,0E0,0E0,0E0,0E0,0E0,0E0,0E0,0E0,0E0,0E0,0E0,0E0,0E0,0E0,0E0,0E0,0E0,0E0],"parents":[2147483647,0,0,1,1,2,2,3,3,4,4,5,5,6,6,7,7,8,8,10,10,11,11,12,12,13,13,15,15,16,16,17,17,18,18,21,21,23,23,24,24,27,27,28,28,29,29,30,30,31,31,32,32,33,33,34,34,35,35,36,36,37,37,38,38],"right_children":[2,4,6,8,10,12,14,16,18,-1,20,22,24,26,-1,28,30,32,34,-1,-1,36,-1,38,40,-1,-1,42,44,46,48,50,52,54,56,58,60,62,64,-1,-1,-1,-1,-1,-1,-1,-1,-1,-1,-1,-1,-1,-1,-1,-1,-1,-1,-1,-1,-1,-1,-1,-1,-1,-1],"split_conditions":[4.206E2,4.2305E2,4.3745E2,4.3095E2,4.197E2,3.8295E2,4.235E2,4.2015E2,4.262E2,-8.971756E-1,3.9659998E2,3.8295E2,4.489E2,4.387E2,-4.2927116E-1,3.9434998E2,4.2105E2,4.7335E2,4.425E2,-1.6546784E-1,2.5158692E-2,4.1645E2,-9.241639E-1,4.1555E2,4.3734998E2,-2.353821E-2,7.551026E-1,3.774E2,3.9940002E2,4.157E2,4.268E2,4.3535E2,4.7585E2,4.4595E2,4.486E2,3.8355E2,3.802E2,4.3E2,4.3595E2,-1.874405E-1,-5.2593995E-2,3.8472798E-1,1.267785E-1,9.7797793E-1,4.1766348E-1,-7.089234E-2,-1.6668977E0,-7.906117E-2,6.852162E-1,5.4882467E-1,1.6926311E0,-2.4829103E-2,6.611023E-2,3.7182313E-1,-3.4666445E-2,-4.5159075E-1,2.2146607E-2,2.6628113E-1,7.75708E-1,4.2572024E-4,-1.7965852E-1,7.012304E-1,3.855678E-3,1.2456006E0,6.318293E-1],"split_indices":[59,58,4,15,26,10,59,38,40,0,0,14,23,1,0,48,38,0,8,0,0,34,0,46,1,0,0,33,46,0,42,15,0,10,0,3,0,54,35,0,0,0,0,0,0,0,0,0,0,0,0,0,0,0,0,0,0,0,0,0,0,0,0,0,0],"split_type":[0,0,0,0,0,0,0,0,0,0,0,0,0,0,0,0,0,0,0,0,0,0,0,0,0,0,0,0,0,0,0,0,0,0,0,0,0,0,0,0,0,0,0,0,0,0,0,0,0,0,0,0,0,0,0,0,0,0,0,0,0,0,0,0,0],"sum_hessian":[6.58E2,5.68E2,9E1,5.63E2,5E0,8.1E1,9E0,5.36E2,2.7E1,3E0,2E0,8E0,7.3E1,3E0,6E0,5.09E2,2.7E1,1.9E1,8E0,1E0,1E0,6E0,2E0,7E1,3E0,1E0,2E0,3.95E2,1.14E2,4E0,2.3E1,1.6E1,3E0,4E0,4E0,4E0,2E0,2.4E1,4.6E1,1E0,2E0,2.78E2,1.17E2,2.5E1,8.9E1,2E0,2E0,1.6E1,7E0,6E0,1E1,1E0,2E0,3E0,1E0,3E0,1E0,2E0,2E0,1E0,1E0,1.8E1,6E0,2.9E1,1.7E1],"tree_param":{"num_deleted":"0","num_feature":"60","num_nodes":"65","size_leaf_vector":"0"}},{"base_weights":[9.394826E-1,3.44727E-1,1.0978024E0,5.6725687E-1,-8.746269E-1,7.3002167E0,1.0717858E0,2.866269E-1,2.4938498E0,1.069458E0,-1.1225083E0,2.8143473E0,1.0107613E0,1.172315E0,-1.7296448E-1,6.288157E0,1.4264057E0,-1.6191E0,-3.3566284E-1,3.9149525E0,1.4407857E-1,4.3804005E-1,1.2071329E0,-2.3555145E-1,1.6503279E0,-8.55324E-1,6.640663E-1,2.3068352E0,1.4765422E-2,-5.6639606E-1,-1.7730011E0,-7.917684E-1,4.324112E-1,1.913559E0,5.071154E0,-4.4763184E-1,8.849996E-1,5.878859E-1,-4.429077E0,3.7533677E0,1.0602827E0,5.1277417E-1,-1.0864319E0,1.983193E0,-7.594452E-1,-2.5354136E-2,-1.9279112E0,3.005953E0,8.01732E-3,2.6980808E0,-2.1594238E-1,1.1959127E0,-8.747864E-1,-5.1226807E-1,-1.8561639E0,2.0876403E0,5.215759E-1,-1.1501058E-1,-7.227478E-1,2.4454575E0,3.906554E-1,-1.5727451E-1,5.440591E0,6.515655E-1,1.4323387E0],"categories":[],"categories_nodes":[],"categories_segments":[],"categories_sizes":[],"default_left":[1,1,1,1,1,0,1,1,1,0,1,1,1,1,1,0,1,1,1,1,1,1,1,1,1,1,1,1,1,0,1,0,0,1,0,1,0,1,0,1,1,0,0,0,0,0,0,0,0,0,0,0,0,0,0,0,0,0,0,0,0,0,0,0,0],"id":17,"left_children":[1,3,5,7,9,-1,11,13,15,-1,17,19,21,23,25,-1,27,29,31,33,35,37,39,41,43,45,47,49,51,-1,53,-1,-1,55,-1,57,-1,59,-1,61,63,-1,-1,-1,-1,-1,-1,-1,-1,-1,-1,-1,-1,-1,-1,-1,-1,-1,-1,-1,-1,-1,-1,-1,-1],"loss_changes":[6.1674072E1,3.8484116E1,7.6086E1,6.36237E1,1.1802328E1,0E0,5.2345276E1,4.29435E1,5.1783707E1,0E0,7.271345E0,4.9397446E1,5.6041748E1,2.4615963E1,4.0548904E1,0E0,1.6122984E1,9.3992805E-1,3.4952748E0,1.8064224E1,3.026618E0,9.741507E1,1.3586462E2,6.9244504E0,2.3163628E1,3.4669506E1,4.9140457E1,8.478836E0,7.3503184E0,0E0,9.760666E-2,0E0,0E0,3.6504745E-1,0E0,2.8291398E-1,0E0,4.557364E1,0E0,1.328182E2,5.305005E1,0E0,0E0,0E0,0E0,0E0,0E0,0E0,0E0,0E0,0E0,0E0,0E0,0E0,0E0,0E0,0E0,0E0,0E0,0E0,0E0,0E0,0E0,0E0,0E0],"parents":[2147483647,0,0,1,1,2,2,3,3,4,4,6,6,7,7,8,8,10,10,11,11,12,12,13,13,14,14,16,16,17,17,18,18,19,19,20,20,21,21,22,22,23,23,24,24,25,25,26,26,27,27,28,28,30,30,33,33,35,35,37,37,39,39,40,40],"right_children":[2,4,6,8,10,-1,12,14,16,-1,18,20,22,24,26,-1,28,30,32,34,36,38,40,42,44,46,48,50,52,-1,54,-1,-1,56,-1,58,-1,60,-1,62,64,-1,-1,-1,-1,-1,-1,-1,-1,-1,-1,-1,-1,-1,-1,-1,-1,-1,-1,-1,-1,-1,-1,-1,-1],"split_conditions":[3.0134998E2,2.996E2,2.8975E2,3.0965002E2,2.9845E2,2.1900651E0,2.9790002E2,2.211E2,3.1045E2,3.208374E-1,3.0725E2,3.042E2,3.7395E2,2.122E2,2.9845E2,1.8864472E0,3.0015002E2,3.0259998E2,2.972E2,2.949E2,2.9985E2,3.9625E2,3.6875E2,2.2015E2,2.3875E2,2.3429999E2,2.886E2,4.018E2,3.212E2,-1.6991882E-1,3.0145E2,-2.3753051E-1,1.2972337E-1,3.0890002E2,1.5213463E0,2.9745E2,2.654999E-1,3.031E2,-1.3287232E0,3.725E2,4.0475E2,1.5383226E-1,-3.2592958E-1,5.9495795E-1,-2.2783357E-1,-7.606241E-3,-5.783734E-1,9.0178597E-1,2.4051962E-3,8.094243E-1,-6.478272E-2,3.5877383E-1,-2.624359E-1,-1.5368043E-1,-5.568492E-1,6.262921E-1,1.5647279E-1,-3.4503177E-2,-2.1682435E-1,7.336373E-1,1.1719663E-1,-4.7182355E-2,1.6321774E0,1.9546966E-1,4.2970163E-1],"split_indices":[50,55,51,22,9,0,12,28,23,0,31,36,44,40,1,0,59,9,49,10,0,34,36,57,43,47,18,2,24,0,3,0,0,1,0,0,0,50,0,10,25,0,0,0,0,0,0,0,0,0,0,0,0,0,0,0,0,0,0,0,0,0,0,0,0],"split_type":[0,0,0,0,0,0,0,0,0,0,0,0,0,0,0,0,0,0,0,0,0,0,0,0,0,0,0,0,0,0,0,0,0,0,0,0,0,0,0,0,0,0,0,0,0,0,0,0,0,0,0,0,0,0,0,0,0,0,0,0,0,0,0,0,0],"sum_hessian":[6.58E2,1.39E2,5.19E2,1.18E2,2.1E1,1E0,5.18E2,1.04E2,1.4E1,2E0,1.9E1,1.6E1,5.02E2,3.5E1,6.9E1,2E0,1.2E1,1.1E1,8E0,1.1E1,5E0,1.29E2,3.73E2,9E0,2.6E1,3.8E1,3.1E1,7E0,5E0,2E0,9E0,5E0,3E0,5E0,6E0,3E0,2E0,1.26E2,3E0,1.9E1,3.54E2,5E0,4E0,2.3E1,3E0,2.2E1,1.6E1,6E0,2.5E1,6E0,1E0,2E0,3E0,1E0,8E0,4E0,1E0,2E0,1E0,1.1E1,1.15E2,6E0,1.3E1,1.7E2,1.84E2],"tree_param":{"num_deleted":"0","num_feature":"60","num_nodes":"65","size_leaf_vector":"0"}},{"base_weights":[6.71019E-1,6.452481E-1,3.912805E0,-2.6018816E-1,7.061326E-1,4.8536887E0,1.6676534E0,1.4196692E-1,-2.2912445E0,4.3078103E0,6.8732345E-1,7.243818E-1,-8.24998E-1,-4.586792E-1,-2.5202255E0,6.690802E-1,3.2930298E0,1.7513167E0,2.5891563E-1,8.669942E-1,-1.1792463E0,8.118426E-1,4.0930063E-1,4.348938E0,6.265259E-2,-2.3035255E-1,1.4792297E0,-1.3808385E0,5.191345E-1,6.069843E-1,1.7455196E0,-1.2043356E0,6.6326773E-1],"categories":[],"categories_nodes":[],"categories_segments":[],"categories_sizes":[],"default_left":[1,1,1,1,1,0,0,1,1,0,1,1,1,0,0,1,1,0,1,0,1,1,1,0,0,0,0,0,0,0,0,0,0],"id":18,"left_children":[1,3,5,7,9,-1,-1,11,13,-1,15,17,19,-1,-1,21,23,-1,25,-1,27,29,31,-1,-1,-1,-1,-1,-1,-1,-1,-1,-1],"loss_changes":[5.253064E1,3.629196E1,2.4678574E0,3.4630867E1,3.8634125E1,0E0,0E0,2.0871906E1,1.7813797E0,0E0,2.68891E1,1.0540634E1,9.4137945E0,0E0,0E0,2.225354E1,1.3371452E1,0E0,1.0490779E1,0E0,4.825407E0,7.3918915E1,9.01375E1,0E0,0E0,0E0,0E0,0E0,0E0,0E0,0E0,0E0,0E0],"parents":[2147483647,0,0,1,1,2,2,3,3,4,4,7,7,8,8,10,10,11,11,12,12,15,15,16,16,18,18,20,20,21,21,22,22],"right_children":[2,4,6,8,10,-1,-1,12,14,-1,16,18,20,-1,-1,22,24,-1,26,-1,28,30,32,-1,-1,-1,-1,-1,-1,-1,-1,-1,-1],"split_conditions":[4.489E2,2.2715E2,4.374E2,2.2845E2,2.2154999E2,1.4561067E0,5.0029606E-1,2.836E2,2.206E2,1.2923431E0,4.565E2,2.161E2,2.14E2,-1.3760376E-1,-7.560677E-1,4.02E2,4.7775E2,5.2539504E-1,2.2904999E2,2.6009828E-1,2.907E2,3.9095E2,3.9784998E2,1.3046814E0,1.8795777E-2,-6.910577E-2,4.4376892E-1,-4.1425157E-1,1.5574037E-1,1.820953E-1,5.236559E-1,-3.6130068E-1,1.9898033E-1],"split_indices":[59,52,36,47,51,0,0,6,6,0,19,55,45,0,0,3,0,0,56,0,7,0,10,0,0,0,0,0,0,0,0,0,0],"split_type":[0,0,0,0,0,0,0,0,0,0,0,0,0,0,0,0,0,0,0,0,0,0,0,0,0,0,0,0,0,0,0,0,0],"sum_hessian":[6.58E2,6.54E2,4E0,4.1E1,6.13E2,2E0,2E0,3.5E1,6E0,2E0,6.11E2,2.2E1,1.3E1,1E0,5E0,6.08E2,3E0,6E0,1.6E1,2E0,1.1E1,3.91E2,2.17E2,2E0,1E0,1.2E1,4E0,1E1,1E0,3.22E2,6.9E1,2.9E1,1.88E2],"tree_param":{"num_deleted":"0","num_feature":"60","num_nodes":"33","size_leaf_vector":"0"}},{"base_weights":[4.7748855E-1,4.5650956E-1,3.1302369E0,4.092564E-1,1.1541725E0,1.6700897E0,4.4854126E0,4.7950915E-1,-4.4995767E-1,5.6371665E0,7.797327E-1,3.8391453E-1,1.0047123E0,-1.553949E0,3.5467747E-1,2.4178971E-1,2.1270614E0,5.016589E-1,-4.2369917E-1,2.2048035E0,5.125379E-1,-3.193373E0,-1.9488525E-1,2.079337E0,-2.1019953E-1,7.1466064E-1,-8.884413E-1,2.9722214E0,-9.502411E-2,2.504196E-1,9.4629186E-1,-2.940075E0,-4.997725E-2,3.1332417E0,2.0610894E-1,-1.2937438E0,8.375431E-1,-9.527537E-1,4.8255703E-1,3.251953E-1,2.3174946E0,-9.3338245E-1,7.5095826E-1,2.3695374E-1,1.8694357E0,-1.2846222E0,-7.205963E-2,9.7805786E-1,3.9731078E0,-2.2842407E-1,2.5583902E-2],"categories":[],"categories_nodes":[],"categories_segments":[],"categories_sizes":[],"default_left":[1,1,1,1,1,0,0,1,1,0,1,1,1,1,1,1,1,1,1,1,1,0,1,1,1,1,1,1,1,0,0,0,0,0,0,0,0,0,0,0,0,0,0,0,0,0,0,0,0,0,0],"id":19,"left_children":[1,3,5,7,9,-1,-1,11,13,-1,15,17,19,21,23,25,27,29,31,33,35,-1,37,39,41,43,45,47,49,-1,-1,-1,-1,-1,-1,-1,-1,-1,-1,-1,-1,-1,-1,-1,-1,-1,-1,-1,-1,-1,-1],"loss_changes":[3.524565E1,2.1120895E1,2.4027405E0,3.7338463E1,6.442758E1,0E0,0E0,2.8181824E1,4.2301727E1,0E0,2.775235E1,4.6141983E1,5.0256874E1,4.3939297E1,2.7715248E1,1.613408E1,2.0940628E1,4.6904343E1,5.8159393E1,4.5745804E1,3.8067776E1,0E0,6.620703E0,2.1707E0,1.5992974E1,1.1141554E1,2.818344E0,1.208152E1,7.02004E-2,0E0,0E0,0E0,0E0,0E0,0E0,0E0,0E0,0E0,0E0,0E0,0E0,0E0,0E0,0E0,0E0,0E0,0E0,0E0,0E0,0E0,0E0],"parents":[2147483647,0,0,1,1,2,2,3,3,4,4,7,7,8,8,10,10,11,11,12,12,13,13,14,14,15,15,16,16,17,17,18,18,19,19,20,20,22,22,23,23,24,24,25,25,26,26,27,27,28,28],"right_children":[2,4,6,8,10,-1,-1,12,14,-1,16,18,20,22,24,26,28,30,32,34,36,-1,38,40,42,44,46,48,50,-1,-1,-1,-1,-1,-1,-1,-1,-1,-1,-1,-1,-1,-1,-1,-1,-1,-1,-1,-1,-1,-1],"split_conditions":[4.489E2,4.3345E2,4.136E2,4.2259998E2,4.1465E2,5.010269E-1,1.3456239E0,4.1345E2,4.073E2,1.6911501E0,4.4815E2,4.017E2,4.1675E2,4.277E2,4.1405E2,4.448E2,4.7335E2,3.7605E2,3.9115E2,4.1415E2,3.8215002E2,-9.580119E-1,3.692E2,3.999E2,4.2775E2,4.412E2,4.3575E2,4.416E2,4.7585E2,7.512588E-2,2.8388757E-1,-8.820225E-1,-1.4993176E-2,9.399725E-1,6.1832685E-2,-3.8812318E-1,2.5126293E-1,-2.8582612E-1,1.4476712E-1,9.7558595E-2,6.952484E-1,-2.8001475E-1,2.2528748E-1,7.108612E-2,5.608307E-1,-3.8538668E-1,-2.161789E-2,2.9341736E-1,1.1919324E0,-6.852722E-2,7.675171E-3],"split_indices":[59,15,0,12,9,0,0,55,25,0,10,56,52,7,55,21,0,41,52,38,15,0,46,1,14,21,38,15,0,0,0,0,0,0,0,0,0,0,0,0,0,0,0,0,0,0,0,0,0,0,0],"split_type":[0,0,0,0,0,0,0,0,0,0,0,0,0,0,0,0,0,0,0,0,0,0,0,0,0,0,0,0,0,0,0,0,0,0,0,0,0,0,0,0,0,0,0,0,0,0,0,0,0,0,0],"sum_hessian":[6.58E2,6.54E2,4E0,6.14E2,4E1,3E0,1E0,5.68E2,4.6E1,2E0,3.8E1,4.82E2,8.6E1,1.9E1,2.7E1,2.8E1,1E1,4.21E2,6.1E1,2.4E1,6.2E1,8E0,1.1E1,6E0,2.1E1,2E1,8E0,7E0,3E0,2.7E2,1.51E2,7E0,5.4E1,1.6E1,8E0,9E0,5.3E1,5E0,6E0,1E0,5E0,1.2E1,9E0,1.5E1,5E0,5E0,3E0,3E0,4E0,1E0,2E0],"tree_param":{"num_deleted":"0","num_feature":"60","num_nodes":"51","size_leaf_vector":"0"}},{"base_weights":[3.4206378E-1,3.1248736E-1,1.6823709E0,2.7070257E-1,9.2246526E-1,2.9400558E0,4.677909E-3,4.1488054E-1,-6.7464136E-2,2.3191407E0,1.1236911E-1,1.0074463E0,3.8981323E0,5.757446E-1,-5.675583E-1,3.1208333E-1,2.377642E0,3.3347473E0,-1.6265287E-1,3.7708588E0,5.775299E-1,1.2355957E0,-4.2559975E-1,1.0195923E-1,1.2752889E0,-7.0180255E-1,-8.241272E-2,3.8414893E-1,-1.1722043E0,-8.444519E-1,2.7612545E0,6.800639E-1,4.877848E0,-1.8405561E0,1.6282614E-1,1.525472E0,4.2650757E0,1.120404E0,-2.4544525E-1,1.9078776E0,-8.1726074E-2,1.3049927E0,-5.9424335E-1,3.176398E-1,2.628676E0,-3.1123168E0,-4.473531E-1,1.1021423E-1,-1.3768921E0,3.0592313E0,-1.3011627E0,1.18118286E-1,9.0197754E-1,-1.0049624E0,-4.323142E0,1.8878901E0,-8.597996E-4,4.6114683E0,1.2665558E0,-3.71816E-1,6.6833496E-2,3.787384E-1,2.1379578E0,-1.9415283E-1,2.0467123E-2,-1.5702565E-1,-1.2588675E0],"categories":[],"categories_nodes":[],"categories_segments":[],"categories_sizes":[],"default_left":[1,1,1,1,1,1,1,1,1,1,1,1,0,0,1,1,1,1,1,1,1,1,1,0,0,0,0,1,1,1,1,1,0,1,1,0,1,0,1,1,1,0,1,0,0,0,0,0,0,0,0,0,0,0,0,0,0,0,0,0,0,0,0,0,0,0,0],"id":20,"left_children":[1,3,5,7,9,11,13,15,17,19,21,23,-1,-1,25,27,29,31,33,35,37,39,41,-1,-1,-1,-1,43,45,47,49,51,-1,53,55,-1,57,-1,59,61,63,-1,65,-1,-1,-1,-1,-1,-1,-1,-1,-1,-1,-1,-1,-1,-1,-1,-1,-1,-1,-1,-1,-1,-1,-1,-1],"loss_changes":[2.5598015E1,1.6215397E1,2.9526375E1,2.9574238E1,4.61285E1,1.0885544E1,2.614264E0,8.500869E1,5.94835E1,3.574713E1,1.6840916E1,8.40085E-1,0E0,0E0,2.0267451E-1,4.3771557E1,2.8288506E1,1.716497E1,9.750946E1,2.3714142E0,3.849173E0,8.126427E0,6.3206973E0,0E0,0E0,0E0,0E0,5.6936993E1,2.5327261E1,1.676661E0,2.6980164E1,2.6757014E-1,0E0,5.5813957E1,4.235693E1,0E0,3.9131165E-1,0E0,1.8270136E-1,1.3012218E0,4.993075E-2,0E0,5.032864E0,0E0,0E0,0E0,0E0,0E0,0E0,0E0,0E0,0E0,0E0,0E0,0E0,0E0,0E0,0E0,0E0,0E0,0E0,0E0,0E0,0E0,0E0,0E0,0E0],"parents":[2147483647,0,0,1,1,2,2,3,3,4,4,5,5,6,6,7,7,8,8,9,9,10,10,11,11,14,14,15,15,16,16,17,17,18,18,19,19,20,20,21,21,22,22,27,27,28,28,29,29,30,30,31,31,33,33,34,34,36,36,38,38,39,39,40,40,42,42],"right_children":[2,4,6,8,10,12,14,16,18,20,22,24,-1,-1,26,28,30,32,34,36,38,40,42,-1,-1,-1,-1,44,46,48,50,52,-1,54,56,-1,58,-1,60,62,64,-1,66,-1,-1,-1,-1,-1,-1,-1,-1,-1,-1,-1,-1,-1,-1,-1,-1,-1,-1,-1,-1,-1,-1,-1,-1],"split_conditions":[4.428E2,4.3145E2,4.138E2,3.9865E2,4.373E2,4.354E2,4.157E2,3.9625E2,3.7515002E2,4.2325E2,4.2359998E2,4.034E2,1.1694398E0,1.727234E-1,4.3075E2,4.025E2,3.7805E2,4.0775E2,3.8925E2,4.0525E2,4.3875E2,4.7335E2,4.218E2,3.058777E-2,3.825867E-1,-2.1054077E-1,-2.4723817E-2,4.022E2,3.7835E2,3.8255E2,4.3159998E2,4.3085E2,1.4633545E0,3.889E2,3.9034998E2,4.5764163E-1,4.4365E2,3.361212E-1,4.308E2,4.4065002E2,4.7585E2,3.9149782E-1,4.3255E2,9.529194E-2,7.886028E-1,-9.336951E-1,-1.3420594E-1,3.3064272E-2,-4.1306764E-1,9.1776943E-1,-3.9034882E-1,3.5435487E-2,2.705933E-1,-3.0148876E-1,-1.2969427E0,5.6636703E-1,-2.579399E-4,1.3834405E0,3.7996677E-1,-1.1154481E-1,2.0050049E-2,1.13621525E-1,6.4138734E-1,-5.8245853E-2,6.140137E-3,-4.7107697E-2,-3.7766027E-1],"split_indices":[51,16,1,21,4,37,0,22,35,59,24,0,0,0,0,13,29,13,41,0,14,0,11,0,0,0,0,11,43,0,30,0,0,45,48,0,2,0,4,7,0,0,33,0,0,0,0,0,0,0,0,0,0,0,0,0,0,0,0,0,0,0,0,0,0,0,0],"split_type":[0,0,0,0,0,0,0,0,0,0,0,0,0,0,0,0,0,0,0,0,0,0,0,0,0,0,0,0,0,0,0,0,0,0,0,0,0,0,0,0,0,0,0,0,0,0,0,0,0,0,0,0,0,0,0,0,0,0,0,0,0,0,0,0,0,0,0],"sum_hessian":[6.58E2,6.45E2,1.3E1,6.05E2,4E1,7E0,6E0,4.24E2,1.81E2,1.4E1,2.6E1,3E0,4E0,3E0,3E0,4.04E2,2E1,4E0,1.77E2,7E0,7E0,8E0,1.8E1,1E0,2E0,2E0,1E0,3.86E2,1.8E1,2E0,1.8E1,2E0,2E0,2.8E1,1.49E2,2E0,5E0,4E0,3E0,5E0,3E0,1E0,1.7E1,3.76E2,1E1,4E0,1.4E1,1E0,1E0,1.7E1,1E0,1E0,1E0,2.2E1,6E0,1.2E1,1.37E2,4E0,1E0,2E0,1E0,1E0,4E0,1E0,2E0,1.1E1,6E0],"tree_param":{"num_deleted":"0","num_feature":"60","num_nodes":"67","size_leaf_vector":"0"}},{"base_weights":[2.4756294E-1,2.315774E-1,2.292157E0,-4.366974E-1,2.6886892E-1,2.6519775E0,4.2643738E-1,-1.37272E-1,-2.2057953E0,9.345908E-1,1.9993144E-1,9.941468E-2,-9.6297127E-1,4.8305008E-1,4.7674356E0,-3.722918E-1,3.1810609E-1,-3.823689E-1,6.5321094E-1,-3.608602E-1,-1.1316437E0,-6.9979155E-1,8.463157E-1,5.572644E0,3.7069702E-1,-5.088724E-1,2.2425659E0,1.5975586E0,2.1419145E-1,6.827342E-1,-6.167806E-1,-2.5287628E-1,9.833374E-1,4.9241385E-1,-1.5064716E0,4.5125324E-2,1.4119453E0,1.0364668E0,-6.665098E-1,2.7261505E0,1.5411377E-1,2.6885548E0,-4.5555466E-1,-1.1449808E0,2.9303804E-1],"categories":[],"categories_nodes":[],"categories_segments":[],"categories_sizes":[],"default_left":[1,1,1,1,1,0,0,1,0,1,1,1,1,1,1,1,1,1,1,0,0,1,1,0,0,1,1,1,1,0,0,0,0,0,0,0,0,0,0,0,0,0,0,0,0],"id":21,"left_children":[1,3,5,7,9,-1,-1,11,-1,13,15,17,19,21,23,25,27,29,31,-1,-1,33,35,-1,-1,37,39,41,43,-1,-1,-1,-1,-1,-1,-1,-1,-1,-1,-1,-1,-1,-1,-1,-1],"loss_changes":[2.1007912E1,1.6440662E1,2.2257175E0,1.8237154E1,2.831282E1,0E0,0E0,6.1541257E0,0E0,9.8076866E1,3.8257385E1,6.9200163E0,3.0255175E-1,2.3365585E1,1.9175964E1,3.5783653E1,6.1880207E1,3.9165137E0,3.8381433E0,0E0,0E0,1.3244276E1,1.8516542E1,0E0,0E0,2.334592E1,4.6295795E0,7.962264E1,4.6845596E1,0E0,0E0,0E0,0E0,0E0,0E0,0E0,0E0,0E0,0E0,0E0,0E0,0E0,0E0,0E0,0E0],"parents":[2147483647,0,0,1,1,2,2,3,3,4,4,7,7,9,9,10,10,11,11,12,12,13,13,14,14,15,15,16,16,17,17,18,18,21,21,22,22,25,25,26,26,27,27,28,28],"right_children":[2,4,6,8,10,-1,-1,12,-1,14,16,18,20,22,24,26,28,30,32,-1,-1,34,36,-1,-1,38,40,42,44,-1,-1,-1,-1,-1,-1,-1,-1,-1,-1,-1,-1,-1,-1,-1,-1],"split_conditions":[4.489E2,2.224E2,4.137E2,2.905E2,2.9675E2,7.955933E-1,1.2793122E-1,2.3365E2,-6.6173863E-1,3.0515E2,3.2175E2,2.1635E2,2.3304999E2,2.106E2,3.337E2,3.2834998E2,3.5885E2,2.05E2,2.1220001E2,-1.0825806E-1,-3.394931E-1,1.999E2,2.35E2,1.6717933E0,1.1120911E-1,2.8485E2,2.975E2,3.9825E2,3.6405E2,2.0482026E-1,-1.8503419E-1,-7.5862885E-2,2.9500124E-1,1.4772417E-1,-4.5194152E-1,1.3537598E-2,4.2358363E-1,3.1094006E-1,-1.9995295E-1,8.1784517E-1,4.623413E-2,8.065665E-1,-1.366664E-1,-3.4349424E-1,8.791141E-2],"split_indices":[59,54,1,8,7,0,0,40,0,1,22,51,42,4,0,52,33,48,46,0,0,4,52,0,0,17,0,5,39,0,0,0,0,0,0,0,0,0,0,0,0,0,0,0,0],"split_type":[0,0,0,0,0,0,0,0,0,0,0,0,0,0,0,0,0,0,0,0,0,0,0,0,0,0,0,0,0,0,0,0,0,0,0,0,0,0,0,0,0,0,0,0,0],"sum_hessian":[6.58E2,6.54E2,4E0,3.4E1,6.2E2,3E0,1E0,3E1,4E0,5.7E1,5.63E2,2.4E1,6E0,5.2E1,5E0,9.6E1,4.67E2,1.3E1,1.1E1,2E0,4E0,1.2E1,4E1,4E0,1E0,9.2E1,4E0,3.4E1,4.33E2,2E0,1.1E1,3E0,8E0,5E0,7E0,1.7E1,2.3E1,8E0,8.4E1,3E0,1E0,2.2E1,1.2E1,2.3E1,4.1E2],"tree_param":{"num_deleted":"0","num_feature":"60","num_nodes":"45","size_leaf_vector":"0"}},{"base_weights":[1.7838353E-1,1.3734552E-1,7.630828E-1,1.9359834E-1,-5.651318E-1,1.4041455E0,-1.2058298E-1,2.1136571E-1,-3.2467346E0,-3.397943E0,-2.1443684E-1,1.8066647E0,1.1100115E-1,-9.131877E-1,5.3887385E-1,1.518338E-1,1.2778789E0,-7.5061035E-1,-4.912628E0,-1.3117396E0,2.1724282E-1,2.2026443E0,-2.2891998E-1,-5.739517E-1,7.6820374E-1,-3.017044E-1,-1.1686453E0,1.5147583E0,-2.3516846E-1,2.6943526E-1,-2.5001043E-1,1.9338448E0,-4.6758017E-1,-1.7986112E0,1.1165619E-1,1.5419617E0,-3.612151E-2,1.5284144E0,3.3802674E0,-6.521301E-1,1.2952678E-1,-7.7923584E-1,7.5E-1,7.978619E-2,7.525249E-1,-4.1708603E0,-1.17232E-1,3.1259003E0,8.681218E-1,1.8964641E-1,-1.336525E0,-2.0184848E0,-6.8603516E-1,3.3877563E-1,-2.8485107E-1,1.7795792E0,2.9574585E-1,7.5753784E-1,-2.9895455E-1,1.75849E0,2.5202432E-1,1.8144226E-1,1.28479E-2,-8.5770416E-1,-2.3268127E-1,9.239197E-2,1.032608E0],"categories":[],"categories_nodes":[],"categories_segments":[],"categories_sizes":[],"default_left":[1,1,1,1,1,1,1,1,0,1,1,1,1,1,1,1,1,0,0,1,1,1,1,0,0,0,0,0,1,1,1,1,1,1,1,1,1,1,0,0,1,1,1,0,0,0,0,0,0,0,0,0,0,0,0,0,0,0,0,0,0,0,0,0,0,0,0],"id":22,"left_children":[1,3,5,7,9,11,13,15,-1,17,19,21,23,25,27,29,31,-1,-1,33,35,37,39,-1,-1,-1,-1,-1,41,43,45,47,49,51,53,55,57,59,-1,-1,61,63,65,-1,-1,-1,-1,-1,-1,-1,-1,-1,-1,-1,-1,-1,-1,-1,-1,-1,-1,-1,-1,-1,-1,-1,-1],"loss_changes":[1.570783E1,2.4490984E1,2.4528177E1,3.565013E1,4.4970177E1,1.2812347E1,1.0423175E1,3.5996162E1,0E0,1.6361908E1,2.0179665E1,1.581918E1,3.5919814E0,1.0532875E0,8.665358E0,2.5633648E1,3.5253082E1,0E0,0E0,8.516954E0,1.046043E1,7.537369E0,6.9126153E-1,0E0,0E0,0E0,0E0,0E0,4.336413E0,3.83277E1,6.3545364E1,2.523516E1,5.3933096E0,8.16885E-1,4.5671862E-1,9.543104E-1,5.8586664E0,3.0808105E0,0E0,0E0,1.5841171E-2,1.4864445E-2,4.6213102E-1,0E0,0E0,0E0,0E0,0E0,0E0,0E0,0E0,0E0,0E0,0E0,0E0,0E0,0E0,0E0,0E0,0E0,0E0,0E0,0E0,0E0,0E0,0E0,0E0],"parents":[2147483647,0,0,1,1,2,2,3,3,4,4,5,5,6,6,7,7,9,9,10,10,11,11,12,12,13,13,14,14,15,15,16,16,19,19,20,20,21,21,22,22,28,28,29,29,30,30,31,31,32,32,33,33,34,34,35,35,36,36,37,37,40,40,41,41,42,42],"right_children":[2,4,6,8,10,12,14,16,-1,18,20,22,24,26,28,30,32,-1,-1,34,36,38,40,-1,-1,-1,-1,-1,42,44,46,48,50,52,54,56,58,60,-1,-1,62,64,66,-1,-1,-1,-1,-1,-1,-1,-1,-1,-1,-1,-1,-1,-1,-1,-1,-1,-1,-1,-1,-1,-1,-1,-1],"split_conditions":[4.3095E2,4.202E2,4.338E2,4.293E2,4.2105E2,4.473E2,4.3815E2,4.1734998E2,-9.740204E-1,4.157E2,4.1540002E2,4.373E2,4.1015E2,4.326E2,4.403E2,4.039E2,4.2685E2,-2.2518311E-1,-1.4737885E0,4.1665E2,4.032E2,4.166E2,4.3155E2,-1.7218553E-1,2.3046114E-1,-9.051132E-2,-3.505936E-1,4.544275E-1,4.4495E2,3.8275E2,3.951E2,4.0575E2,4.274E2,4.1584998E2,4.4055E2,4.425E2,4.186E2,4.3485E2,1.0140803E0,-1.9563904E-1,4.353E2,4.446E2,4.417E2,2.3935858E-2,2.2575748E-1,-1.2512581E0,-3.51696E-2,9.377701E-1,2.6043656E-1,5.6893926E-2,-4.009575E-1,-6.0554546E-1,-2.0581056E-1,1.0163269E-1,-8.545533E-2,5.338738E-1,8.872376E-2,2.2726136E-1,-8.9686364E-2,5.27547E-1,7.56073E-2,5.443268E-2,3.8543702E-3,-2.5731125E-1,-6.9804385E-2,2.7717592E-2,3.0978242E-1],"split_indices":[29,38,3,30,38,56,2,32,0,0,44,13,3,0,1,2,20,0,0,58,56,7,0,0,0,0,0,0,1,56,0,47,23,5,2,2,44,24,0,0,0,0,0,0,0,0,0,0,0,0,0,0,0,0,0,0,0,0,0,0,0,0,0,0,0,0,0],"split_type":[0,0,0,0,0,0,0,0,0,0,0,0,0,0,0,0,0,0,0,0,0,0,0,0,0,0,0,0,0,0,0,0,0,0,0,0,0,0,0,0,0,0,0,0,0,0,0,0,0,0,0,0,0,0,0,0,0,0,0,0,0,0,0,0,0,0,0],"sum_hessian":[6.58E2,6.16E2,4.2E1,5.71E2,4.5E1,2.4E1,1.8E1,5.69E2,2E0,4E0,4.1E1,1.8E1,6E0,8E0,1E1,5.4E2,2.9E1,2E0,2E0,1.1E1,3E1,1.5E1,3E0,3E0,3E0,3E0,5E0,4E0,6E0,4.18E2,1.22E2,2.1E1,8E0,8E0,3E0,4E0,2.6E1,1.1E1,4E0,1E0,2E0,4E0,2E0,3.01E2,1.17E2,3E0,1.19E2,9E0,1.2E1,5E0,3E0,6E0,2E0,2E0,1E0,3E0,1E0,6E0,2E1,9E0,2E0,1E0,1E0,3E0,1E0,1E0,1E0],"tree_param":{"num_deleted":"0","num_feature":"60","num_nodes":"67","size_leaf_vector":"0"}},{"base_weights":[1.2285052E-1,2.560798E-1,-3.6458977E-2,4.8461642E-2,1.0034162E0,-1.4139636E0,1.3266411E-1,-1.6330536E-2,1.8124421E0,3.1501007E0,5.256162E-1,-5.850273E-1,-3.0186517E0,-2.1093721E0,2.2737351E-1,9.322394E-2,-1.1568426E0,2.6457138E0,1.0773665E0,4.677331E0,3.3423868E-1,6.757912E-2,2.1893528E0,-1.0530579E0,1.9013824E0,-1.0665162E0,-3.9817984E0,7.366943E-2,-2.9372215E0,3.040802E0,1.8252552E-1,4.4521846E-2,2.0663555E0,-2.143681E0,2.0430131E-1,1.1534983E0,3.1028748E-1,-2.5621542E-1,6.1235175E0,-9.516907E-2,7.9536945E-1,-1.3212608E0,9.0725243E-1,-1.3428223E0,3.736505E0,-2.8188782E0,-5.7562613E-1,-1.185524E0,-2.952423E-1,-2.453003E-1,2.6175943E-1,-3.6437733E0,-5.4504395E-1,3.4634502E0,8.8642883E-1,6.8636054E-1,2.1395795E-2,1.6856849E-1,-1.160127E0,2.4126039E0,1.6755676E-1,-2.6615143E-1,-2.631539E0,1.3082784E0,-1.8639119E-1,-6.213379E-2,-3.2218933E-1,6.56576E0,1.7350311E0,-3.9726257E-1,1.3794963E-1,-2.4587166E0,6.2066652E-2,3.3716493E0,4.5107192E-1,-1.0035197E-1,-2.137685E0,1.6855367E0,5.450366E0,-7.4223444E-2,-1.764148E0,3.3517456E-1,5.74646E-2,1.23275E-1,1.6357979E0,-1.0316528E0,1.7522515E-1],"categories":[],"categories_nodes":[],"categories_segments":[],"categories_sizes":[],"default_left":[1,1,1,1,1,1,1,1,1,1,1,1,1,1,1,1,1,0,1,1,1,1,1,1,0,1,0,1,1,1,1,1,1,1,1,0,0,1,1,1,0,1,1,1,1,0,1,0,0,0,1,0,0,0,0,1,1,0,0,0,0,0,0,0,0,0,0,0,0,0,0,0,0,0,0,0,0,0,0,0,0,0,0,0,0,0,0],"id":23,"left_children":[1,3,5,7,9,11,13,15,17,19,21,23,25,27,29,31,33,-1,35,37,39,41,43,45,-1,47,-1,49,51,53,55,57,59,61,63,-1,-1,65,67,69,-1,71,73,75,77,-1,79,-1,-1,-1,81,-1,-1,-1,-1,83,85,-1,-1,-1,-1,-1,-1,-1,-1,-1,-1,-1,-1,-1,-1,-1,-1,-1,-1,-1,-1,-1,-1,-1,-1,-1,-1,-1,-1,-1,-1],"loss_changes":[1.3996406E1,5.565403E1,7.03109E1,3.225998E1,7.8347755E1,4.213009E1,5.7599594E1,3.4218704E1,3.2747765E0,5.864322E1,4.9385494E1,2.8767727E1,1.643547E1,2.009591E1,3.2124725E1,2.393191E1,3.2675457E1,0E0,5.0878525E-2,6.578241E1,1.2637734E0,6.1839653E1,8.152483E1,1.523855E1,0E0,1.0892153E-1,0E0,3.0418974E-1,1.1535561E1,5.7206345E-1,2.0768108E1,3.680656E1,3.5404873E0,1.2123169E1,4.9883227E0,0E0,0E0,1.8394127E-2,2.1936035E0,3.3649683E-1,0E0,3.1622078E1,3.557807E1,4.723446E0,2.5963959E1,0E0,9.999834E0,0E0,0E0,0E0,2.573432E-2,0E0,0E0,0E0,0E0,3.2944443E1,3.176878E1,0E0,0E0,0E0,0E0,0E0,0E0,0E0,0E0,0E0,0E0,0E0,0E0,0E0,0E0,0E0,0E0,0E0,0E0,0E0,0E0,0E0,0E0,0E0,0E0,0E0,0E0,0E0,0E0,0E0,0E0],"parents":[2147483647,0,0,1,1,2,2,3,3,4,4,5,5,6,6,7,7,8,8,9,9,10,10,11,11,12,12,13,13,14,14,15,15,16,16,18,18,19,19,20,20,21,21,22,22,23,23,25,25,27,27,28,28,29,29,30,30,31,31,32,32,33,33,34,34,37,37,38,38,39,39,41,41,42,42,43,43,44,44,46,46,50,50,55,55,56,56],"right_children":[2,4,6,8,10,12,14,16,18,20,22,24,26,28,30,32,34,-1,36,38,40,42,44,46,-1,48,-1,50,52,54,56,58,60,62,64,-1,-1,66,68,70,-1,72,74,76,78,-1,80,-1,-1,-1,82,-1,-1,-1,-1,84,86,-1,-1,-1,-1,-1,-1,-1,-1,-1,-1,-1,-1,-1,-1,-1,-1,-1,-1,-1,-1,-1,-1,-1,-1,-1,-1,-1,-1,-1,-1],"split_conditions":[3.853E2,3.765E2,3.8975E2,3.8295E2,3.7E2,3.9305E2,3.795E2,3.7255E2,3.675E2,3.9235E2,3.9955E2,3.957E2,3.767E2,3.7875E2,3.7815002E2,3.853E2,3.749E2,7.9371417E-1,3.749E2,3.712E2,3.757E2,3.667E2,3.7795E2,3.6545E2,5.704148E-1,3.7665002E2,-1.1945395E0,3.976E2,4.0525E2,3.9385E2,4.0245E2,3.774E2,4.7445E2,3.6845E2,3.697E2,3.460495E-1,9.308624E-2,3.8025E2,4.065E2,4E2,2.3861085E-1,3.9365E2,3.703E2,3.6895E2,4.0035E2,-8.456635E-1,4.0215E2,-3.5565722E-1,-8.8572696E-2,-7.359009E-2,4.016E2,-1.093132E0,-1.6351318E-1,1.0390351E0,2.6592866E-1,3.9805E2,4.06E2,5.057055E-2,-3.4803814E-1,7.2378117E-1,5.026703E-2,-7.984543E-2,-7.894618E-1,3.9248356E-1,-5.591736E-2,-1.8640138E-2,-9.665681E-2,1.9697281E0,5.2050936E-1,-1.1917878E-1,4.138489E-2,-7.37615E-1,1.8619996E-2,1.0114949E0,1.3532159E-1,-3.010559E-2,-6.4130557E-1,5.056611E-1,1.6351099E0,-2.2267034E-2,-5.292444E-1,1.0055237E-1,1.723938E-2,3.69825E-2,4.9073938E-1,-3.0949587E-1,5.256755E-2],"split_indices":[36,28,35,35,32,58,43,32,23,15,26,56,7,22,45,22,31,0,28,14,42,58,2,19,0,0,0,0,1,0,31,13,0,35,5,0,0,0,0,15,0,0,13,2,28,0,42,0,0,0,0,0,0,0,0,31,32,0,0,0,0,0,0,0,0,0,0,0,0,0,0,0,0,0,0,0,0,0,0,0,0,0,0,0,0,0,0],"split_type":[0,0,0,0,0,0,0,0,0,0,0,0,0,0,0,0,0,0,0,0,0,0,0,0,0,0,0,0,0,0,0,0,0,0,0,0,0,0,0,0,0,0,0,0,0,0,0,0,0,0,0,0,0,0,0,0,0,0,0,0,0,0,0,0,0,0,0,0,0,0,0,0,0,0,0,0,0,0,0,0,0,0,0,0,0,0,0],"sum_hessian":[6.58E2,3.58E2,3E2,2.81E2,7.7E1,3.2E1,2.68E2,2.72E2,9E0,1.3E1,6.4E1,2.2E1,1E1,1E1,2.58E2,2.49E2,2.3E1,3E0,6E0,8E0,5E0,5.1E1,1.3E1,1.9E1,3E0,4E0,6E0,3E0,7E0,3E0,2.55E2,2.44E2,5E0,1.3E1,1E1,5E0,1E0,2E0,6E0,3E0,2E0,1.9E1,3.2E1,4E0,9E0,3E0,1.6E1,3E0,1E0,1E0,2E0,5E0,2E0,2E0,1E0,6.1E1,1.94E2,2.22E2,2.2E1,4E0,1E0,3E0,1E1,2E0,8E0,1E0,1E0,5E0,1E0,1E0,2E0,1E1,9E0,4E0,2.8E1,2E0,2E0,5E0,4E0,1.2E1,4E0,1E0,1E0,3.9E1,2.2E1,2.4E1,1.7E2],"tree_param":{"num_deleted":"0","num_feature":"60","num_nodes":"87","size_leaf_vector":"0"}},{"base_weights":[9.131559E-2,1.3550088E0,7.762927E-2,1.7240753E0,-4.2969513E-1,-3.2858333E-1,1.3572682E-1,1.8789428E0,4.7486877E-1,5.422139E-1,-5.4790103E-1,2.049365E0,8.051329E-2,-4.4376832E-1,8.7972903E-1,5.9783363E-1,-6.939684E-1,9.926491E-1,4.1756105E0,4.0317993E0,5.9009917E-2,-6.3091534E-1,-1.08698525E-1,1.2085351E0,1.11932375E-1,7.534027E-2,1.4435425E0,-8.790481E-1,2.854802E-2,4.4031715E-1,1.6778504E0,4.7215805E0,9.9586487E-1,-5.8511853E-1,1.2960483E-1,2.504476E-2,1.5430974E0,-6.691742E-2,4.1366577E-1,-3.6553955E-1,3.8716507E-1,-5.0089693E-1,-1.58041E0,1.2681999E0,-4.7016755E-1,1.1357625E-2,5.814107E-1,2.479882E-1,-1.2876403E0,2.8194504E0,1.077394E-1],"categories":[],"categories_nodes":[],"categories_segments":[],"categories_sizes":[],"default_left":[1,1,1,1,0,1,1,0,0,1,1,1,1,1,1,1,1,1,1,0,1,0,0,1,1,1,0,1,1,1,0,0,0,1,1,0,0,0,0,0,0,0,0,0,0,0,0,0,0,0,0],"id":24,"left_children":[1,3,5,7,-1,9,11,-1,-1,13,15,17,19,21,23,25,27,29,31,-1,33,-1,-1,35,37,39,-1,41,43,45,-1,-1,-1,47,49,-1,-1,-1,-1,-1,-1,-1,-1,-1,-1,-1,-1,-1,-1,-1,-1],"loss_changes":[1.1292422E1,5.351548E0,1.5455371E1,2.6851845E-1,0E0,1.5957542E1,6.0271797E1,0E0,0E0,6.047723E0,1.1460272E1,3.1804482E1,4.708813E1,2.4495709E-1,3.146656E0,3.4262614E0,7.9147587E0,3.8027163E0,3.9781647E0,0E0,2.5312902E1,0E0,0E0,3.5249157E0,2.9750624E-1,9.663877E-1,0E0,1.1673756E1,8.633305E0,4.77584E-1,0E0,0E0,0E0,3.2509483E1,2.9162369E1,0E0,0E0,0E0,0E0,0E0,0E0,0E0,0E0,0E0,0E0,0E0,0E0,0E0,0E0,0E0,0E0],"parents":[2147483647,0,0,1,1,2,2,3,3,5,5,6,6,9,9,10,10,11,11,12,12,13,13,14,14,15,15,16,16,17,17,18,18,20,20,23,23,24,24,25,25,27,27,28,28,29,29,33,33,34,34],"right_children":[2,4,6,8,-1,10,12,-1,-1,14,16,18,20,22,24,26,28,30,32,-1,34,-1,-1,36,38,40,-1,42,44,46,-1,-1,-1,48,50,-1,-1,-1,-1,-1,-1,-1,-1,-1,-1,-1,-1,-1,-1,-1,-1],"split_conditions":[2.0715E2,2.1870001E2,2.9075E2,2.1775E2,-1.2890854E-1,2.1515E2,2.9645E2,5.6368285E-1,1.4246064E-1,2.123E2,2.119E2,3.0515E2,2.529E2,2.58E2,2.1505E2,2.359E2,2.89E2,3.011E2,3.059E2,1.2095399E0,3.0605E2,-1.8927461E-1,-3.260956E-2,1.9270001E2,2.597E2,2.3055E2,4.3306276E-1,2.3895E2,2.89E2,2.927E2,5.0335515E-1,1.4164742E0,2.9875946E-1,3.0045E2,2.9495E2,7.513428E-3,4.6292922E-1,-2.0075226E-2,1.2409974E-1,-1.0966187E-1,1.1614952E-1,-1.5026909E-1,-4.7412303E-1,3.8046E-1,-1.4105026E-1,3.4072876E-3,1.7442322E-1,7.439646E-2,-3.8629213E-1,8.4583515E-1,3.2321822E-2],"split_indices":[12,2,21,0,0,30,7,0,0,46,48,1,55,2,22,28,40,32,0,0,28,0,0,24,0,12,0,36,44,11,0,0,0,25,2,0,0,0,0,0,0,0,0,0,0,0,0,0,0,0,0],"split_type":[0,0,0,0,0,0,0,0,0,0,0,0,0,0,0,0,0,0,0,0,0,0,0,0,0,0,0,0,0,0,0,0,0,0,0,0,0,0,0,0,0,0,0,0,0,0,0,0,0,0,0],"sum_hessian":[6.58E2,6E0,6.52E2,5E0,1E0,8.1E1,5.71E2,4E0,1E0,1.6E1,6.5E1,1.5E1,5.56E2,4E0,1.2E1,7E0,5.8E1,1.1E1,4E0,2E0,5.54E2,2E0,2E0,8E0,4E0,5E0,2E0,4.6E1,1.2E1,7E0,4E0,3E0,1E0,5.4E1,5E2,2E0,6E0,3E0,1E0,2E0,3E0,3.1E1,1.5E1,3E0,9E0,2E0,5E0,2.5E1,2.9E1,3E0,4.97E2],"tree_param":{"num_deleted":"0","num_feature":"60","num_nodes":"51","size_leaf_vector":"0"}},{"base_weights":[7.174829E-2,1.8597229E-1,-6.4724036E-2,-5.9037427E-3,6.8299025E-1,-1.0958205E0,6.2007975E-2,-5.299008E-2,2.4060974E0,2.173919E0,2.591495E-1,-4.7637144E-1,-2.2914124E0,-1.616161E0,1.3304214E-1,2.7855573E-2,-1.699173E0,-1.447347E-1,4.154897E0,2.775479E0,-1.2269707E0,-3.215615E-1,8.629956E-1,-8.376953E-1,1.4493408E0,-1.2401085E0,-3.821167E0,3.8375854E-2,-2.2414093E0,1.7170715E0,7.571423E-2,-2.979749E-2,2.3293355E0,-2.2147489E0,-1.1433411E-1,-4.5695496E-1,2.398529E-1,3.3308249E0,5.543457E-1,2.928238E-1,-1.8311768E0,-9.419908E-1,7.067337E-1,2.5606477E0,1.3644748E-2,5.11792E-1,-1.2070541E0,-4.5609537E-1,-1.4254303E0,-2.2467041E-1,2.0094807E-1,-2.7597554E0,-4.5758057E-1,6.108948E-1,2.479834E0,-1.8013829E0,1.2903655E-1,5.049664E-2,-1.3295811E0,1.2797038E-1,3.3980255E0,-3.9259338E-1,-2.393444E0,3.4649658E-1,-3.834432E-1,1.9834933E0,4.587276E0,7.1941376E-1,-5.2963257E-2,-2.1558973E-1,-2.2901273E0,1.9383789E0,1.3465373E-1,3.28173E0,-9.368693E-1,-9.929301E-1,1.1740277E0,-2.2669983E-1,7.530899E-1,-1.911766E0,-4.465264E-1,2.687378E-1,3.2684326E-2,-2.0016224E0,-2.9997253E-1,1.2888412E0,2.5827998E-2],"categories":[],"categories_nodes":[],"categories_segments":[],"categories_sizes":[],"default_left":[1,1,1,1,1,1,1,1,1,1,1,1,1,1,1,1,1,1,0,1,1,1,1,1,0,1,0,1,1,1,1,1,1,1,1,0,0,1,1,0,0,1,1,1,1,1,1,0,0,0,1,0,0,0,0,1,1,0,0,0,0,0,0,0,0,0,0,0,0,0,0,0,0,0,0,0,0,0,0,0,0,0,0,0,0,0,0],"id":25,"left_children":[1,3,5,7,9,11,13,15,17,19,21,23,25,27,29,31,33,35,-1,37,39,41,43,45,-1,47,-1,49,51,53,55,57,59,61,63,-1,-1,65,67,-1,-1,69,71,73,75,77,79,-1,-1,-1,81,-1,-1,-1,-1,83,85,-1,-1,-1,-1,-1,-1,-1,-1,-1,-1,-1,-1,-1,-1,-1,-1,-1,-1,-1,-1,-1,-1,-1,-1,-1,-1,-1,-1,-1,-1],"loss_changes":[1.0284802E1,3.424037E1,3.9400505E1,2.9656296E1,6.262827E1,2.3348507E1,3.2281796E1,3.411754E1,2.2905828E1,4.8413895E1,2.7979654E1,1.721764E1,1.2951946E1,1.1465475E1,2.338955E1,3.2577812E1,9.552032E0,4.698301E-1,0E0,2.1590027E1,4.209288E0,2.68231E1,5.619925E1,1.0586661E1,0E0,5.122261E-1,0E0,2.1620314E-1,6.1343155E0,6.0788345E0,2.5355324E1,2.5114742E1,1.3680614E1,1.9908409E0,6.289167E-1,0E0,0E0,1.6294006E1,5.3933895E-1,0E0,0E0,2.4967752E1,1.1012583E1,3.586052E1,3.2702057E1,1.061708E0,7.721592E0,0E0,0E0,0E0,2.5436133E-2,0E0,0E0,0E0,0E0,1.5040607E0,2.9293642E1,0E0,0E0,0E0,0E0,0E0,0E0,0E0,0E0,0E0,0E0,0E0,0E0,0E0,0E0,0E0,0E0,0E0,0E0,0E0,0E0,0E0,0E0,0E0,0E0,0E0,0E0,0E0,0E0,0E0,0E0],"parents":[2147483647,0,0,1,1,2,2,3,3,4,4,5,5,6,6,7,7,8,8,9,9,10,10,11,11,12,12,13,13,14,14,15,15,16,16,17,17,19,19,20,20,21,21,22,22,23,23,25,25,27,27,28,28,29,29,30,30,31,31,32,32,33,33,34,34,37,37,38,38,41,41,42,42,43,43,44,44,45,45,46,46,50,50,55,55,56,56],"right_children":[2,4,6,8,10,12,14,16,18,20,22,24,26,28,30,32,34,36,-1,38,40,42,44,46,-1,48,-1,50,52,54,56,58,60,62,64,-1,-1,66,68,-1,-1,70,72,74,76,78,80,-1,-1,-1,82,-1,-1,-1,-1,84,86,-1,-1,-1,-1,-1,-1,-1,-1,-1,-1,-1,-1,-1,-1,-1,-1,-1,-1,-1,-1,-1,-1,-1,-1,-1,-1,-1,-1,-1,-1],"split_conditions":[3.853E2,3.8375E2,3.8975E2,3.9915002E2,3.8925E2,3.9305E2,3.795E2,3.8385E2,3.7525E2,3.9109998E2,3.7385E2,3.957E2,4.031E2,3.7875E2,3.635E2,3.8490002E2,3.803E2,3.7425E2,1.2464693E0,3.9345E2,3.897E2,3.7385E2,3.7745E2,3.79E2,4.3480226E-1,3.717E2,-1.1463501E0,3.976E2,4.0525E2,3.642E2,3.6495E2,3.813E2,3.6634998E2,3.641E2,3.773E2,-1.370865E-1,7.1955875E-2,3.837E2,3.8525E2,8.784714E-2,-5.4935306E-1,3.6590002E2,3.6475E2,3.832E2,3.8735E2,3.6234998E2,3.897E2,-1.3682862E-1,-4.276291E-1,-6.7401126E-2,4.016E2,-8.2792664E-1,-1.3727418E-1,1.8326844E-1,7.4395025E-1,3.713E2,3.9084998E2,1.5148993E-2,-3.9887437E-1,3.8391117E-2,1.0194077E0,-1.1777802E-1,-7.1803325E-1,1.0394898E-1,-1.1503296E-1,5.95048E-1,1.3761828E0,2.1582414E-1,-1.5888978E-2,-6.4676926E-2,-6.870382E-1,5.815137E-1,4.039612E-2,9.84519E-1,-2.810608E-1,-2.9787904E-1,3.5220832E-1,-6.800995E-2,2.2592698E-1,-5.7352984E-1,-1.3395792E-1,8.062134E-2,9.805298E-3,-6.0048676E-1,-8.999176E-2,3.8665238E-1,7.7484E-3],"split_indices":[36,1,35,28,2,58,43,28,2,15,44,56,19,22,6,33,3,0,0,8,0,56,42,51,0,6,0,0,1,8,7,1,0,4,0,0,0,5,2,0,0,56,40,49,47,0,22,0,0,0,0,0,0,0,0,4,42,0,0,0,0,0,0,0,0,0,0,0,0,0,0,0,0,0,0,0,0,0,0,0,0,0,0,0,0,0,0],"split_type":[0,0,0,0,0,0,0,0,0,0,0,0,0,0,0,0,0,0,0,0,0,0,0,0,0,0,0,0,0,0,0,0,0,0,0,0,0,0,0,0,0,0,0,0,0,0,0,0,0,0,0,0,0,0,0,0,0,0,0,0,0,0,0,0,0,0,0,0,0,0,0,0,0,0,0,0,0,0,0,0,0,0,0,0,0,0,0],"sum_hessian":[6.58E2,3.58E2,3E2,2.59E2,9.9E1,3.2E1,2.68E2,2.55E2,4E0,2.1E1,7.8E1,2.2E1,1E1,1E1,2.58E2,2.44E2,1.1E1,2E0,2E0,1.8E1,3E0,4E1,3.8E1,1.9E1,3E0,7E0,3E0,3E0,7E0,8E0,2.5E2,2.39E2,5E0,8E0,3E0,1E0,1E0,1.4E1,4E0,1E0,2E0,2.5E1,1.5E1,1.2E1,2.6E1,4E0,1.5E1,2E0,5E0,1E0,2E0,5E0,2E0,4E0,4E0,6E0,2.44E2,2.26E2,1.3E1,2E0,3E0,1E0,7E0,1E0,2E0,8E0,6E0,3E0,1E0,1.7E1,8E0,4E0,1.1E1,1E1,2E0,1.4E1,1.2E1,1E0,3E0,7E0,8E0,1E0,1E0,5E0,1E0,1.9E1,2.25E2],"tree_param":{"num_deleted":"0","num_feature":"60","num_nodes":"87","size_leaf_vector":"0"}},{"base_weights":[5.206007E-2,4.5219027E-2,2.2767334E0,2.3671437E-2,6.670643E-1,7.3263384E-2,-3.4891438E-1,3.4885767E-1,2.0117798E0,3.0997429E-2,1.1626514E0,-1.952591E0,-4.2773247E-2,6.3335365E-1,-5.7440186E-1,8.003939E-2,-6.048279E-1,2.5387006E0,4.4298503E-1,-3.5808868E0,-2.7796718E-1,-1.7573913E0,1.0082448E-1,-1.2546387E-1,9.2069316E-1,1.8076578E-2,-9.75413E-1,2.2021903E-2,7.5394213E-1,-9.3729377E-1,1.0489153E0,9.6928406E-1,3.473442E0,-1.752048E-2,9.7177994E-1,-4.5376406E0,6.014404E-1,2.0056152E-1,-6.870041E-1,3.9216614E-1,-2.3928223E0,7.245189E-1,-4.3142608E-1,-2.9379272E-1,-9.933472E-3,1.0733371E0,1.5586345E-1,1.078949E-1,-8.078003E-2],"categories":[],"categories_nodes":[],"categories_segments":[],"categories_sizes":[],"default_left":[1,1,0,1,1,1,1,1,0,1,1,1,1,1,1,1,1,1,1,1,1,1,1,1,1,1,0,0,0,0,0,0,0,0,0,0,0,0,0,0,0,0,0,0,0,0,0,0,0],"id":26,"left_children":[1,3,-1,5,7,9,11,13,-1,15,17,19,21,23,25,27,29,31,33,35,37,39,41,43,45,47,-1,-1,-1,-1,-1,-1,-1,-1,-1,-1,-1,-1,-1,-1,-1,-1,-1,-1,-1,-1,-1,-1,-1],"loss_changes":[9.926427E0,8.800928E0,0E0,1.1795574E1,8.711918E0,2.5886745E1,3.6737835E1,5.3544083E0,0E0,1.69803E1,1.9671616E1,3.1726028E1,1.5934964E1,3.386087E0,1.2055846E0,1.9727959E1,2.2425858E1,6.9022408E0,3.669721E0,2.6737862E1,1.5079378E0,7.7678604E0,2.023028E1,9.431712E-2,1.1169186E0,3.5353154E-2,0E0,0E0,0E0,0E0,0E0,0E0,0E0,0E0,0E0,0E0,0E0,0E0,0E0,0E0,0E0,0E0,0E0,0E0,0E0,0E0,0E0,0E0,0E0],"parents":[2147483647,0,0,1,1,3,3,4,4,5,5,6,6,7,7,9,9,10,10,11,11,12,12,13,13,14,14,15,15,16,16,17,17,18,18,19,19,20,20,21,21,22,22,23,23,24,24,25,25],"right_children":[2,4,-1,6,8,10,12,14,-1,16,18,20,22,24,26,28,30,32,34,36,38,40,42,44,46,48,-1,-1,-1,-1,-1,-1,-1,-1,-1,-1,-1,-1,-1,-1,-1,-1,-1,-1,-1,-1,-1,-1,-1],"split_conditions":[4.5505E2,4.4495E2,6.8302006E-1,4.2155E2,4.2784998E2,4.1795E2,4.206E2,4.35E2,6.03534E-1,4.1425E2,3.9915E2,4.225E2,3.9705E2,3.7309998E2,4.4175E2,4.0505E2,4.217E2,4.1640002E2,4.213E2,4.3125E2,4.1875E2,3.8255E2,4.1945E2,4.623E2,4.75E2,4.4185E2,-2.926239E-1,6.606571E-3,2.2618265E-1,-2.8118813E-1,3.146746E-1,2.9078522E-1,1.0420327E0,-5.2561443E-3,2.91534E-1,-1.3612922E0,1.8043214E-1,6.016846E-2,-2.0610124E-1,1.17649846E-1,-7.178467E-1,2.1735568E-1,-1.2942784E-1,-8.813782E-2,-2.9800416E-3,3.2200113E-1,4.6759035E-2,3.236847E-2,-2.423401E-2],"split_indices":[58,9,0,24,47,25,25,32,0,22,57,22,14,24,5,23,23,2,55,11,5,0,7,0,0,0,0,0,0,0,0,0,0,0,0,0,0,0,0,0,0,0,0,0,0,0,0,0,0],"split_type":[0,0,0,0,0,0,0,0,0,0,0,0,0,0,0,0,0,0,0,0,0,0,0,0,0,0,0,0,0,0,0,0,0,0,0,0,0,0,0,0,0,0,0,0,0,0,0,0,0],"sum_hessian":[6.58E2,6.57E2,1E0,6.36E2,2.1E1,5.62E2,7.4E1,1.8E1,3E0,5.42E2,2E1,1.1E1,6.3E1,1.4E1,4E0,5.04E2,3.8E1,6E0,1.4E1,5E0,6E0,4E0,5.9E1,4E0,1E1,2E0,2E0,4.65E2,3.9E1,3.2E1,6E0,3E0,3E0,8E0,6E0,4E0,1E0,3E0,3E0,1E0,3E0,2.7E1,3.2E1,1E0,3E0,8E0,2E0,1E0,1E0],"tree_param":{"num_deleted":"0","num_feature":"60","num_nodes":"49","size_leaf_vector":"0"}},{"base_weights":[3.846238E-2,9.412188E-3,4.2538318E-1,4.266996E-2,-5.96797E-1,1.9610329E0,9.947087E-2,1.5556553E-2,6.735382E-1,-7.592519E-1,1.2266846E0,9.120911E-1,2.781952E0,4.0085855E-1,-3.588276E-1,3.8798753E-2,-1.2666442E0,1.2065266E0,-1.9329834E-1,-1.4854703E0,-4.2765114E-1,1.1273532E-1,1.0844814E0,-3.1083541E-2,-8.998871E-1,1.1071777E-2,9.091007E-1,-3.077525E0,-4.2923355E-1,6.345825E-1,2.6207275E0,-3.3984715E-1,5.6282043E-1,-4.6266937E-1,-1.9197592E0,-6.0289655E-2,-9.5158553E-1,6.1445236E-1,-2.6239845E-1,1.4799194E0,6.3924156E-2,-3.3385468E-1,5.822296E-1,-2.381897E-1,-9.845886E-1,6.340149E-2,-1.0589905E0,-8.648682E-2,1.3311361E0,1.0613251E-1,-7.716797E-1,-5.5548096E-1,9.281433E-1,-5.743103E-1,9.680939E-2,1.7489369E-1,-9.809265E-1,-3.545634E-1,-1.0715114E0,7.916107E-1,5.5318195E-2,3.452846E-3,-5.821106E-1,-5.734924E-1,4.915619E-2,9.170532E-2,7.1516925E-1],"categories":[],"categories_nodes":[],"categories_segments":[],"categories_sizes":[],"default_left":[1,1,1,1,1,1,1,1,1,1,0,0,0,1,1,1,1,1,1,1,1,1,1,1,1,1,1,0,1,1,0,1,0,0,0,1,1,1,1,0,0,1,1,0,0,0,0,0,0,0,0,0,0,0,0,0,0,0,0,0,0,0,0,0,0,0,0],"id":27,"left_children":[1,3,5,7,9,11,13,15,17,19,-1,-1,-1,21,23,25,27,29,31,33,35,37,39,41,43,45,47,-1,49,51,-1,53,-1,-1,-1,55,57,59,61,-1,-1,63,65,-1,-1,-1,-1,-1,-1,-1,-1,-1,-1,-1,-1,-1,-1,-1,-1,-1,-1,-1,-1,-1,-1,-1,-1],"loss_changes":[7.403239E0,1.2404423E1,2.2827343E1,9.96173E0,1.0410835E1,4.3513775E0,5.530734E0,1.6737799E1,1.1321552E1,6.5891743E0,0E0,0E0,0E0,4.604964E0,2.8092928E0,1.3286028E1,1.3843533E1,1.0469591E1,1.299356E0,3.1095066E0,4.1770425E0,3.5490294E0,2.7303667E0,2.2370088E0,1.0176182E-1,3.002503E1,7.258069E0,0E0,1.5485725E0,4.7078376E0,0E0,9.770174E-1,0E0,0E0,0E0,3.2028165E0,2.6446724E-1,7.4865174E-1,9.369647E-1,0E0,0E0,7.6246166E-1,1.9525576E-1,0E0,0E0,0E0,0E0,0E0,0E0,0E0,0E0,0E0,0E0,0E0,0E0,0E0,0E0,0E0,0E0,0E0,0E0,0E0,0E0,0E0,0E0,0E0,0E0],"parents":[2147483647,0,0,1,1,2,2,3,3,4,4,5,5,6,6,7,7,8,8,9,9,13,13,14,14,15,15,16,16,17,17,18,18,19,19,20,20,21,21,22,22,23,23,24,24,25,25,26,26,28,28,29,29,31,31,35,35,36,36,37,37,38,38,41,41,42,42],"right_children":[2,4,6,8,10,12,14,16,18,20,-1,-1,-1,22,24,26,28,30,32,34,36,38,40,42,44,46,48,-1,50,52,-1,54,-1,-1,-1,56,58,60,62,-1,-1,64,66,-1,-1,-1,-1,-1,-1,-1,-1,-1,-1,-1,-1,-1,-1,-1,-1,-1,-1,-1,-1,-1,-1,-1,-1],"split_conditions":[4.3175E2,4.248E2,4.1625E2,4.308E2,4.425E2,4.1305E2,4.416E2,4.2709998E2,4.252E2,3.9775E2,3.680054E-1,2.7362734E-1,8.345856E-1,4.4665E2,4.274E2,4.2225E2,4.1609998E2,3.986E2,4.2895E2,3.8165002E2,4.3345E2,4.2359998E2,4.5E2,4.2665002E2,4.166E2,4.1734998E2,4.03E2,-9.232575E-1,3.972E2,3.5984998E2,7.862183E-1,4.448E2,1.6884613E-1,-1.3880081E-1,-5.759278E-1,4.2485E2,3.9909998E2,4.7335E2,4.396E2,4.4397584E-1,1.9177247E-2,4.4559998E2,4.2895E2,-7.145691E-2,-2.953766E-1,1.9020448E-2,-3.1769717E-1,-2.5946045E-2,3.9934084E-1,3.1839754E-2,-2.3150392E-1,-1.6664429E-1,2.78443E-1,-1.722931E-1,2.9042818E-2,5.246811E-2,-2.9427797E-1,-1.0636902E-1,-3.2145342E-1,2.3748322E-1,1.6595459E-2,1.0358539E-3,-1.7463318E-1,-1.7204773E-1,1.4746857E-2,2.7511599E-2,2.1455078E-1],"split_indices":[16,17,4,0,25,1,23,1,11,39,0,0,0,19,53,2,4,24,15,40,20,24,20,53,0,1,13,0,21,13,0,8,0,0,0,50,46,0,6,0,0,1,1,0,0,0,0,0,0,0,0,0,0,0,0,0,0,0,0,0,0,0,0,0,0,0,0],"split_type":[0,0,0,0,0,0,0,0,0,0,0,0,0,0,0,0,0,0,0,0,0,0,0,0,0,0,0,0,0,0,0,0,0,0,0,0,0,0,0,0,0,0,0,0,0,0,0,0,0,0,0,0,0,0,0,0,0,0,0,0,0,0,0,0,0,0,0],"sum_hessian":[6.58E2,6.13E2,4.5E1,5.82E2,3.1E1,7E0,3.8E1,5.59E2,2.3E1,2.9E1,2E0,4E0,3E0,2.3E1,1.5E1,5.5E2,9E0,1.4E1,9E0,8E0,2.1E1,1.7E1,6E0,1E1,5E0,5.34E2,1.6E1,2E0,7E0,1.1E1,3E0,8E0,1E0,3E0,5E0,1.3E1,8E0,7E0,1E1,4E0,2E0,7E0,3E0,1E0,4E0,5.1E2,2.4E1,5E0,1.1E1,3E0,4E0,2E0,9E0,5E0,3E0,1.1E1,2E0,2E0,6E0,5E0,2E0,6E0,4E0,4E0,3E0,1E0,2E0],"tree_param":{"num_deleted":"0","num_feature":"60","num_nodes":"67","size_leaf_vector":"0"}},{"base_weights":[2.7274657E-2,1.540568E0,2.0323128E-2,-2.0337036E-1,7.274595E-2,-7.469899E-2,-1.2182149E0,2.7077255E0,4.266522E-2,-2.5301132E-1,1.0109882E0,-1.5605469E0,-5.01681E-1,4.9153647E-1,3.692936E0,2.0849545E0,1.5196468E-2,-1.1670728E-1,-1.5727946E0,2.2767901E0,2.3828125E-2,-1.6556511E0,-3.9985657E-1,8.260956E-1,-8.879089E-2,5.164154E-1,4.0042014E0,-9.693992E-1,3.632021E-2,-2.54684E-1,3.7204665E-1,-2.4526165E0,1.4013672E-1,6.84845E-1,2.7765992E0,-7.2839355E-1,4.5026508E-1,1.6918716E0,-2.0041656E-1,-1.8524895E0,1.0391312E0,1.1642557E0,9.231294E-3],"categories":[],"categories_nodes":[],"categories_segments":[],"categories_sizes":[],"default_left":[1,0,1,1,1,1,1,1,1,1,1,1,0,1,0,1,1,1,1,1,1,0,0,0,0,1,0,1,1,0,0,0,0,0,0,0,0,0,0,0,0,0,0],"id":28,"left_children":[1,-1,3,5,7,9,11,13,15,17,19,21,-1,23,-1,25,27,29,31,33,35,-1,-1,-1,-1,37,-1,39,41,-1,-1,-1,-1,-1,-1,-1,-1,-1,-1,-1,-1,-1,-1],"loss_changes":[6.901175E0,0E0,7.719199E0,1.6231678E1,4.2131172E1,2.1938032E1,2.6511974E0,1.1285259E1,2.958866E1,1.726595E1,1.9938532E1,3.3145714E-1,0E0,6.5581125E-1,0E0,1.9005064E1,1.0891944E1,6.0966187E0,1.3907368E1,3.6681404E0,3.5357213E0,0E0,0E0,0E0,0E0,4.552102E0,0E0,2.143583E1,1.56331835E1,0E0,0E0,0E0,0E0,0E0,0E0,0E0,0E0,0E0,0E0,0E0,0E0,0E0,0E0],"parents":[2147483647,0,0,2,2,3,3,4,4,5,5,6,6,7,7,8,8,9,9,10,10,11,11,13,13,15,15,16,16,17,17,18,18,19,19,20,20,25,25,27,27,28,28],"right_children":[2,-1,4,6,8,10,12,14,16,18,20,22,-1,24,-1,26,28,30,32,34,36,-1,-1,-1,-1,38,-1,40,42,-1,-1,-1,-1,-1,-1,-1,-1,-1,-1,-1,-1,-1,-1],"split_conditions":[1.9505E2,4.6217042E-1,3.042E2,3.0259998E2,2.9984998E2,3.0625E2,3.073E2,2.9755E2,2.6875E2,3.0175E2,3.009E2,3.028E2,-1.5050432E-1,3.2065E2,1.1078808E0,2.7975E2,2.876E2,2.8855E2,3.0259998E2,2.949E2,3.015E2,-4.9669534E-1,-1.1995698E-1,2.4782868E-1,-2.663727E-2,3.032E2,1.2012604E0,3.7625E2,2.957E2,-7.6405205E-2,1.11614E-1,-7.3578495E-1,4.204102E-2,2.054535E-1,8.329798E-1,-2.1851808E-1,1.3507953E-1,5.075615E-1,-6.012497E-2,-5.5574685E-1,3.1173936E-1,3.4927672E-1,2.7693883E-3],"split_indices":[17,0,1,3,3,30,4,13,54,20,12,1,0,0,0,51,40,27,11,10,5,0,0,0,0,0,0,8,41,0,0,0,0,0,0,0,0,0,0,0,0,0,0],"split_type":[0,0,0,0,0,0,0,0,0,0,0,0,0,0,0,0,0,0,0,0,0,0,0,0,0,0,0,0,0,0,0,0,0,0,0,0,0,0,0,0,0,0,0],"sum_hessian":[6.58E2,2E0,6.56E2,1.24E2,5.32E2,1.11E2,1.3E1,5E0,5.27E2,9.6E1,1.5E1,8E0,5E0,2E0,3E0,6E0,5.21E2,8.8E1,8E0,6E0,9E0,7E0,1E0,1E0,1E0,4E0,2E0,1E1,5.11E2,6.9E1,1.9E1,5E0,3E0,2E0,4E0,3E0,6E0,1E0,3E0,7E0,3E0,1.1E1,5E2],"tree_param":{"num_deleted":"0","num_feature":"60","num_nodes":"43","size_leaf_vector":"0"}},{"base_weights":[2.3756037E-2,7.000417E-1,7.9916315E-3,1.4579086E0,1.7531738E-1,-4.9074858E-1,3.2267954E-2,1.7310638E0,6.077321E-1,-7.073466E-2,4.3551636E-1,-1.9394048E-1,-1.4382695E0,1.4886881E0,1.7913144E-2,-1.9741058E-1,-5.917358E-3,2.3299102E-1,-4.656321E-1,-1.705954E0,-5.127055E-1,2.0670573E-1,2.078003E0,-1.1595978E0,2.7583065E-2,1.3793945E-2,-2.365621E-2,-1.9661255E-1,5.521622E-1,-1.1587524E0,-1.08247235E-1,3.396988E-1,-2.9640198E-2,-1.4066048E0,-8.578491E-2,3.617921E-1,-8.383996E-3,-6.2561035E-4,2.1316528E-2,-2.8686523E-3,-2.4433136E-1,1.8832906E-1,6.8699646E-1,5.071564E-1,-3.013543E-1,-3.349184E-2,1.0281101E0,-8.595829E-1,4.4215906E-2],"categories":[],"categories_nodes":[],"categories_segments":[],"categories_sizes":[],"default_left":[1,1,1,1,1,1,1,0,0,1,0,1,1,1,1,0,1,1,1,0,0,1,0,1,1,1,0,1,1,0,1,0,0,0,0,1,1,0,0,0,0,0,0,0,0,0,0,0,0],"id":29,"left_children":[1,3,5,7,9,11,13,-1,-1,15,-1,17,19,21,23,-1,25,27,29,-1,-1,31,-1,33,35,37,-1,39,41,-1,43,-1,-1,-1,-1,45,47,-1,-1,-1,-1,-1,-1,-1,-1,-1,-1,-1,-1],"loss_changes":[7.020163E0,5.7094707E0,7.8252244E0,3.4135818E-1,6.71031E-1,8.158018E0,1.2851821E1,0E0,0E0,4.80966E-2,0E0,2.8923373E0,8.5966206E-1,4.1034117E0,6.989098E0,0E0,2.0745918E-3,1.4797328E0,3.590229E0,0E0,0E0,1.04365855E-1,0E0,1.2055306E0,7.2994866E0,3.3875275E-4,0E0,4.5525238E-2,1.649617E-1,0E0,1.4600605E0,0E0,0E0,0E0,0E0,1.5574139E1,2.4618374E1,0E0,0E0,0E0,0E0,0E0,0E0,0E0,0E0,0E0,0E0,0E0,0E0],"parents":[2147483647,0,0,1,1,2,2,3,3,4,4,5,5,6,6,9,9,11,11,12,12,13,13,14,14,16,16,17,17,18,18,21,21,23,23,24,24,25,25,27,27,28,28,30,30,35,35,36,36],"right_children":[2,4,6,8,10,12,14,-1,-1,16,-1,18,20,22,24,-1,26,28,30,-1,-1,32,-1,34,36,38,-1,40,42,-1,44,-1,-1,-1,-1,46,48,-1,-1,-1,-1,-1,-1,-1,-1,-1,-1,-1,-1],"split_conditions":[2.1465E2,2.1495001E2,2.2715E2,2.265E2,2.1535E2,2.9009998E2,2.215E2,5.193192E-1,1.8231964E-1,2.1E2,1.3065492E-1,2.154E2,2.903E2,2.807E2,2.129E2,-5.922318E-2,2.318E2,2.1045001E2,2.3245E2,-5.117862E-1,-1.5381166E-1,2.4270001E2,6.234009E-1,2.1635E2,3.009E2,2.4420001E2,-7.0968634E-3,2.6375E2,2.221E2,-3.4762573E-1,2.381E2,1.01909645E-1,-8.892059E-3,-4.2198145E-1,-2.5735475E-2,2.9765002E2,3.0475E2,-1.8768311E-4,6.3949586E-3,-8.605957E-4,-7.329941E-2,5.6498718E-2,2.0609894E-1,1.5214692E-1,-9.040629E-2,-1.0047552E-2,3.0843306E-1,-2.5787488E-1,1.32647725E-2],"split_indices":[35,14,52,0,33,6,55,0,0,18,0,47,12,0,28,0,10,41,32,0,0,0,0,0,10,0,0,0,27,0,27,0,0,0,0,21,8,0,0,0,0,0,0,0,0,0,0,0,0],"split_type":[0,0,0,0,0,0,0,0,0,0,0,0,0,0,0,0,0,0,0,0,0,0,0,0,0,0,0,0,0,0,0,0,0,0,0,0,0,0,0,0,0,0,0,0,0,0,0,0,0],"sum_hessian":[6.58E2,1.4E1,6.44E2,5E0,9E0,2.9E1,6.15E2,3E0,2E0,5E0,4E0,2.3E1,6E0,5E0,6.1E2,1E0,4E0,9E0,1.4E1,4E0,2E0,2E0,3E0,4E0,6.06E2,2E0,2E0,4E0,5E0,4E0,1E1,1E0,1E0,3E0,1E0,5.8E1,5.48E2,1E0,1E0,1E0,3E0,2E0,3E0,2E0,8E0,3.7E1,2.1E1,3.1E1,5.17E2],"tree_param":{"num_deleted":"0","num_feature":"60","num_nodes":"49","size_leaf_vector":"0"}},{"base_weights":[1.7123602E-2,-7.219314E-5,5.665329E-1,2.1853356E-2,-1.0592393E0,1.6224569E0,1.0639445E-1,1.1666584E-1,-1.0761576E-1,-2.5439148E0,-5.5803335E-1,2.1399536E0,3.9164224E-1,4.599266E-1,-2.60437E-1,-3.7791442E-2,5.016873E-1,-9.5400476E-1,-4.032167E-3,-8.599777E-1,1.8536377E-1,5.037689E-1,8.369446E-2,7.01828E-1,-1.7718506E-1,-4.2552185E-1,-7.628174E-2,4.7067326E-2,-8.0333066E-1,1.2356186E0,1.7309152E-1,-1.9620112E0,-3.2021132E-1,-1.7418365E0,5.616899E-2,3.1196085E-1,-9.7213745E-2,-2.865448E-1,2.0767212E-2,5.458069E-2,-1.2264252E-1,-2.0334374E-2,1.0369812E0,-1.531577E0,4.2729303E-2,-4.8074577E-2,2.0082383E0,3.910452E-1,-1.4202508E0,-2.386264E0,1.1402588E0,7.9455566E-1,-6.704529E-1,-2.1301525E0,-3.8459268E-1,1.753043E0,3.1277128E-3],"categories":[],"categories_nodes":[],"categories_segments":[],"categories_sizes":[],"default_left":[1,1,1,1,1,1,1,1,1,0,1,0,1,1,1,1,1,1,1,0,1,0,0,0,1,0,1,1,1,1,1,1,1,1,1,0,0,0,0,0,0,0,0,0,0,0,0,0,0,0,0,0,0,0,0,0,0],"id":30,"left_children":[1,3,5,7,9,11,13,15,17,-1,19,-1,21,23,25,27,29,31,33,-1,35,-1,-1,-1,37,-1,39,41,43,45,47,49,51,53,55,-1,-1,-1,-1,-1,-1,-1,-1,-1,-1,-1,-1,-1,-1,-1,-1,-1,-1,-1,-1,-1,-1],"loss_changes":[6.225963E0,1.4885754E1,9.544805E0,7.7214365E0,8.254077E0,2.9835596E0,2.0650828E0,2.1606339E1,2.331691E1,0E0,2.628519E0,0E0,6.142485E-2,1.357299E0,2.1075046E-1,1.6928116E1,2.4867464E1,1.7898907E1,2.4996881E1,0E0,1.7342083E-1,0E0,0E0,0E0,7.089476E-2,0E0,3.7028335E-2,1.5700727E1,1.6085083E1,3.1834354E1,2.5906445E1,1.7198578E1,7.951029E0,3.3970737E0,2.0785526E1,0E0,0E0,0E0,0E0,0E0,0E0,0E0,0E0,0E0,0E0,0E0,0E0,0E0,0E0,0E0,0E0,0E0,0E0,0E0,0E0,0E0,0E0],"parents":[2147483647,0,0,1,1,2,2,3,3,4,4,5,5,6,6,7,7,8,8,10,10,12,12,13,13,14,14,15,15,16,16,17,17,18,18,20,20,24,24,26,26,27,27,28,28,29,29,30,30,31,31,32,32,33,33,34,34],"right_children":[2,4,6,8,10,12,14,16,18,-1,20,-1,22,24,26,28,30,32,34,-1,36,-1,-1,-1,38,-1,40,42,44,46,48,50,52,54,56,-1,-1,-1,-1,-1,-1,-1,-1,-1,-1,-1,-1,-1,-1,-1,-1,-1,-1,-1,-1,-1,-1],"split_conditions":[4.3834998E2,4.377E2,4.314E2,3.8640002E2,4.151E2,4.373E2,4.427E2,3.7275E2,3.912E2,-7.631745E-1,4.0745E2,6.4198613E-1,4.0735E2,4.3345E2,4.4415E2,3.7095E2,3.7695E2,3.875E2,3.6709998E2,-2.5799334E-1,4.1215E2,1.5113068E-1,2.510834E-2,2.1054842E-1,4.3545E2,-1.2765656E-1,4.137E2,3.677E2,3.8385E2,3.6755E2,3.898E2,4.089E2,3.852E2,3.829E2,3.6795E2,9.3588255E-2,-2.9164124E-2,-8.596344E-2,6.230164E-3,1.6374208E-2,-3.6792755E-2,-6.1003123E-3,3.1109437E-1,-4.594731E-1,1.2818792E-2,-1.4422374E-2,6.0247153E-1,1.1731357E-1,-4.2607525E-1,-7.1587926E-1,3.4207764E-1,2.3836671E-1,-2.0113587E-1,-6.390458E-1,-1.15377806E-1,5.2591294E-1,9.3831384E-4],"split_indices":[48,59,34,29,45,45,52,22,30,0,1,0,0,0,48,20,16,20,12,0,1,0,0,0,0,0,11,19,36,15,36,0,27,0,15,0,0,0,0,0,0,0,0,0,0,0,0,0,0,0,0,0,0,0,0,0,0],"split_type":[0,0,0,0,0,0,0,0,0,0,0,0,0,0,0,0,0,0,0,0,0,0,0,0,0,0,0,0,0,0,0,0,0,0,0,0,0,0,0,0,0,0,0,0,0,0,0,0,0,0,0,0,0,0,0,0,0],"sum_hessian":[6.58E2,6.39E2,1.9E1,6.27E2,1.2E1,5E0,1.4E1,3.62E2,2.65E2,2E0,1E1,3E0,2E0,7E0,7E0,2.59E2,1.03E2,2.8E1,2.37E2,7E0,3E0,1E0,1E0,5E0,2E0,3E0,4E0,2.34E2,2.5E1,3.1E1,7.2E1,1E1,1.8E1,7E0,2.3E2,2E0,1E0,1E0,1E0,1E0,3E0,2.2E2,1.4E1,1.3E1,1.2E1,1.2E1,1.9E1,6.4E1,8E0,9E0,1E0,4E0,1.4E1,5E0,2E0,6E0,2.24E2],"tree_param":{"num_deleted":"0","num_feature":"60","num_nodes":"57","size_leaf_vector":"0"}},{"base_weights":[1.1102101E-2,6.4505357E-1,-1.6528782E-3,1.0864309E0,-2.7843627E-1,-7.900987E-1,1.1964951E-2,1.3480312E0,1.1388651E-1,4.1890717E-1,-5.5749893E-1,-1.2013615E0,-5.6311034E-2,-1.1655868E-2,3.3853292E-1,5.690562E-1,1.54581E0,-1.2411499E-1,2.9494476E-1,-3.3187357E-1,-1.482782E0,-9.598287E-2,2.1311443E-3,1.4626749E-3,-1.5599365E0,9.494601E-1,1.2463194E-1,-1.7974854E-2,2.117157E-2,3.81681E-2,-4.3424657E-1,-2.2590535E0,-3.4084067E-1,1.0351288E0,4.638672E-2,-1.5039062E-1,6.18454E-1,-7.287716E-3,7.685299E-1,-3.308899E0,-2.9683432E-1,-5.372467E-1,2.5985718E-2,1.0840658E0,2.9734802E-1,-2.488037E-1,5.5582684E-1,-2.5888062E-1,1.0894814E0],"categories":[],"categories_nodes":[],"categories_segments":[],"categories_sizes":[],"default_left":[1,1,1,1,1,1,1,1,1,0,0,1,1,1,1,0,0,0,0,0,0,0,1,1,1,1,1,0,0,1,1,0,1,1,0,1,1,0,0,0,0,0,0,0,0,0,0,0,0],"id":31,"left_children":[1,3,5,7,9,11,13,15,17,-1,-1,19,21,23,25,-1,-1,-1,-1,-1,-1,-1,27,29,31,33,35,-1,-1,37,39,-1,41,43,-1,45,47,-1,-1,-1,-1,-1,-1,-1,-1,-1,-1,-1,-1],"loss_changes":[5.329765E0,5.6013985E0,6.9562407E0,2.136239E0,1.2065529E0,3.2519255E0,4.9176383E0,1.9879913E-1,1.6588347E-1,0E0,0E0,1.220746E0,1.1797095E-2,1.2087438E1,5.5008183E0,0E0,0E0,0E0,0E0,0E0,0E0,0E0,1.5290361E-3,9.468374E0,3.491477E0,8.029995E-1,4.5748124E0,0E0,0E0,1.8132359E1,1.7188377E1,0E0,2.3010153E-1,3.870201E-2,0E0,1.6673145E0,5.241029E0,0E0,0E0,0E0,0E0,0E0,0E0,0E0,0E0,0E0,0E0,0E0,0E0],"parents":[2147483647,0,0,1,1,2,2,3,3,4,4,5,5,6,6,7,7,8,8,11,11,12,12,13,13,14,14,22,22,23,23,24,24,25,25,26,26,29,29,30,30,32,32,33,33,35,35,36,36],"right_children":[2,4,6,8,10,12,14,16,18,-1,-1,20,22,24,26,-1,-1,-1,-1,-1,-1,-1,28,30,32,34,36,-1,-1,38,40,-1,42,44,-1,46,48,-1,-1,-1,-1,-1,-1,-1,-1,-1,-1,-1,-1],"split_conditions":[2.122E2,2.3805E2,2.1535E2,2.2575E2,2.114E2,2.1595001E2,4.3095E2,2.0654999E2,2.3185E2,1.2567216E-1,-1.6724968E-1,2.1129999E2,2.239E2,4.3075E2,4.1275E2,1.7071687E-1,4.63743E-1,-3.72345E-2,8.848343E-2,-9.956207E-2,-4.4483462E-1,-2.8794862E-2,2.471E2,4.1945E2,4.1575E2,4.167E2,4.448E2,-5.3924564E-3,6.3514714E-3,4.1734998E2,4.1205E2,-6.777161E-1,4.327E2,4.3765E2,1.3916017E-2,4.4995E2,4.3815E2,-2.186315E-3,2.3055898E-1,-9.926697E-1,-8.90503E-2,-1.6117401E-1,7.7957157E-3,3.2521975E-1,8.920441E-2,-7.4641116E-2,1.6674806E-1,-7.766419E-2,3.2684442E-1],"split_indices":[15,58,16,0,2,0,29,7,0,0,0,9,0,29,6,0,0,0,0,0,0,0,0,37,0,4,30,0,0,31,39,0,0,32,0,6,25,0,0,0,0,0,0,0,0,0,0,0,0],"split_type":[0,0,0,0,0,0,0,0,0,0,0,0,0,0,0,0,0,0,0,0,0,0,0,0,0,0,0,0,0,0,0,0,0,0,0,0,0,0,0,0,0,0,0,0,0,0,0,0,0],"sum_hessian":[6.58E2,1.2E1,6.46E2,8E0,4E0,1E1,6.36E2,6E0,2E0,1E0,3E0,6E0,4E0,5.94E2,4.2E1,2E0,4E0,1E0,1E0,2E0,4E0,2E0,2E0,5.9E2,4E0,1E1,3.2E1,1E0,1E0,5.45E2,4.5E1,2E0,2E0,9E0,1E0,2.1E1,1.1E1,5.14E2,3.1E1,1E0,4.4E1,1E0,1E0,8E0,1E0,1.9E1,2E0,4E0,7E0],"tree_param":{"num_deleted":"0","num_feature":"60","num_nodes":"49","size_leaf_vector":"0"}},{"base_weights":[6.49948E-3,1.0106279E-1,-7.377834E-2,-6.7124595E-3,9.830637E-1,-5.919817E-1,5.243005E-2,3.8867705E-2,-1.7312883E0,2.2232313E0,1.6852824E-1,1.7858429E0,-6.5232474E-1,2.3334289E0,1.2087002E-2,-4.828918E-2,6.1299264E-1,-2.6579742E0,-3.717804E-1,-6.692505E-2,2.4196548E0,-1.1787977E-1,1.9262695E0,8.847237E-2,-8.597401E-1,2.73423E0,3.651123E-1,1.4717306E0,-1.9346504E-2,2.9553577E-2,-1.0299306E0,1.1843247E0,-2.2773844E-1,3.751526E-1,-7.458089E-1,2.703827E0,6.6586304E-1,-1.3200277E0,1.01198085E-1,-1.1711578E0,4.692453E-1,-1.3063965E0,-2.0092508E-1,2.5779521E0,2.7413177E-1,-1.1245939E0,3.45395E-2,-7.120937E-3,1.5713074E0,-1.74863E0,-1.967943E-1,2.7205113E-1,2.632763E0,-6.2409127E-1,3.143921E-1,3.0068817E0,9.944051E-1,-1.5096492E-1,4.8299736E-1,-4.8149619E-1,-1.6200714E0,-3.16258E-1,1.1877136E0,-1.6150734E0,-5.702792E-1,-6.665802E-1,4.710846E-1,4.123942E-2,4.8640442E-1,-2.3585765E0,-5.8532715E-2,5.405625E-1,-7.04677E-2],"categories":[],"categories_nodes":[],"categories_segments":[],"categories_sizes":[],"default_left":[1,1,1,1,1,1,1,1,1,1,1,0,1,1,1,1,1,0,1,0,1,1,0,1,1,0,0,1,1,1,1,1,1,0,0,1,0,0,1,1,1,1,1,0,1,1,1,0,0,0,0,0,0,0,0,0,0,0,0,0,0,0,0,0,0,0,0,0,0,0,0,0,0],"id":32,"left_children":[1,3,5,7,9,11,13,15,17,19,21,-1,23,25,27,29,31,-1,33,-1,35,37,-1,39,41,-1,-1,43,45,47,49,51,53,-1,-1,55,-1,-1,57,59,61,63,65,-1,67,69,71,-1,-1,-1,-1,-1,-1,-1,-1,-1,-1,-1,-1,-1,-1,-1,-1,-1,-1,-1,-1,-1,-1,-1,-1,-1,-1],"loss_changes":[5.0101466E0,2.8809132E1,2.3379414E1,2.136964E1,3.2960617E1,1.1208902E1,2.6474258E1,1.328992E1,7.830675E0,6.009857E0,1.0799123E1,0E0,1.0678097E1,2.9462185E0,1.305888E1,1.7681997E1,1.7081497E1,0E0,1.397289E0,0E0,4.180168E0,5.1375003E0,0E0,8.22369E0,1.5627766E1,0E0,0E0,7.242159E0,1.6655348E1,1.216795E1,9.835049E0,2.7032564E1,3.4193337E0,0E0,0E0,2.1904297E0,0E0,0E0,1.7096015E0,4.5833588E-1,7.7122946E0,6.350075E0,7.511285E0,0E0,1.7768764E-1,1.6963457E1,1.422542E1,0E0,0E0,0E0,0E0,0E0,0E0,0E0,0E0,0E0,0E0,0E0,0E0,0E0,0E0,0E0,0E0,0E0,0E0,0E0,0E0,0E0,0E0,0E0,0E0,0E0,0E0],"parents":[2147483647,0,0,1,1,2,2,3,3,4,4,5,5,6,6,7,7,8,8,9,9,10,10,12,12,13,13,14,14,15,15,16,16,18,18,20,20,21,21,23,23,24,24,27,27,28,28,29,29,30,30,31,31,32,32,35,35,38,38,39,39,40,40,41,41,42,42,44,44,45,45,46,46],"right_children":[2,4,6,8,10,12,14,16,18,20,22,-1,24,26,28,30,32,-1,34,-1,36,38,-1,40,42,-1,-1,44,46,48,50,52,54,-1,-1,56,-1,-1,58,60,62,64,66,-1,68,70,72,-1,-1,-1,-1,-1,-1,-1,-1,-1,-1,-1,-1,-1,-1,-1,-1,-1,-1,-1,-1,-1,-1,-1,-1,-1,-1],"split_conditions":[3.774E2,3.8295E2,3.815E2,3.8175E2,3.9565E2,2.98E2,3.8015002E2,3.8175E2,3.8215E2,3.7140002E2,3.8765E2,5.357529E-1,3.8095E2,4.0185E2,3.6385E2,3.6590002E2,3.9955E2,-7.973923E-1,3.857E2,-2.0077515E-2,3.885E2,3.6915E2,5.7788086E-1,3.6575E2,3.9615002E2,8.2026905E-1,1.095337E-1,3.7745E2,3.8590002E2,3.802E2,3.6475E2,3.9045E2,3.8095E2,1.1254578E-1,-2.2374268E-1,3.81E2,1.9975892E-1,-3.9600834E-1,3.8559998E2,4.0534998E2,3.788E2,3.9575E2,3.7940002E2,7.733857E-1,4.2965002E2,3.885E2,3.9615E2,-2.1362812E-3,4.7139224E-1,-5.2458906E-1,-5.9038293E-2,8.161534E-2,7.898289E-1,-1.8722738E-1,9.431763E-2,9.0206456E-1,2.9832155E-1,-4.5289475E-2,1.4489922E-1,-1.4444886E-1,-4.8602143E-1,-9.487741E-2,3.563141E-1,-4.8452204E-1,-1.7108376E-1,-1.9997407E-1,1.4132538E-1,1.2371827E-2,1.4592133E-1,-7.07573E-1,-1.7559815E-2,1.6216876E-1,-2.114031E-2],"split_indices":[33,19,51,20,18,57,50,7,23,14,31,0,22,0,15,21,9,0,0,0,3,6,0,27,17,0,0,5,51,5,31,0,40,0,0,37,0,0,22,0,20,1,47,0,0,13,50,0,0,0,0,0,0,0,0,0,0,0,0,0,0,0,0,0,0,0,0,0,0,0,0,0,0],"split_type":[0,0,0,0,0,0,0,0,0,0,0,0,0,0,0,0,0,0,0,0,0,0,0,0,0,0,0,0,0,0,0,0,0,0,0,0,0,0,0,0,0,0,0,0,0,0,0,0,0,0,0,0,0,0,0,0,0,0,0,0,0,0,0,0,0,0,0,0,0,0,0,0,0],"sum_hessian":[6.58E2,3.02E2,3.56E2,2.7E2,3.2E1,6.9E1,2.87E2,2.64E2,6E0,1.2E1,2E1,1E0,6.8E1,4E0,2.83E2,2.3E2,3.4E1,3E0,3E0,1E0,1.1E1,1.8E1,2E0,1.5E1,5.3E1,3E0,1E0,5E0,2.78E2,2.14E2,1.6E1,2E1,1.4E1,1E0,2E0,9E0,2E0,2E0,1.6E1,3E0,1.2E1,3.1E1,2.2E1,2E0,3E0,1.2E1,2.66E2,2.1E2,4E0,8E0,8E0,1.3E1,7E0,8E0,6E0,7E0,2E0,1E1,6E0,2E0,1E0,6E0,6E0,2.1E1,1E1,1.3E1,9E0,2E0,1E0,5E0,7E0,4.5E1,2.21E2],"tree_param":{"num_deleted":"0","num_feature":"60","num_nodes":"73","size_leaf_vector":"0"}},{"base_weights":[7.810578E-3,7.389663E-2,-9.324745E-2,2.0463817E-2,9.465173E-1,-1.0484405E0,1.6894922E-2,-5.868262E-2,4.0126953E-1,2.7979343E0,1.2849157E-1,7.797165E-1,-1.3094482E0,1.9064407E0,-1.5756277E-2,6.6324347E-3,-8.8250864E-1,7.8325325E-1,-2.8392157E-1,-7.481893E-2,3.9619994E0,8.7361145E-1,-9.3577795E-2,1.2967529E0,-3.856964E-1,-1.4081581E0,4.8043823E-1,-3.0140156E-1,1.7073394E-1,5.876267E-2,-6.334492E-1,-1.4855245E0,-2.0595042E-1,1.5955331E0,3.6410943E-1,-4.9903652E-1,9.1641235E-1,-1.4608765E-1,3.3859253E-2,-3.3485717E-1,4.0769655E-1,-9.046725E-1,-1.875172E0,-1.0861438E-1,-1.3677434E0,1.423706E0,1.0271345E-2,7.554934E-3,1.0705191E0,-1.0960617E0,5.144435E-1,-1.9800568E0,-3.9716798E-1,-5.0627816E-1,5.2127457E-1,2.544515E0,7.855971E-1,-5.509949E-1,8.034561E-1,2.4604143E-1,-8.134705E-1,1.1597595E0,9.3185425E-2,8.279419E-2,-6.2709045E-1,-2.1104431E-1,6.151428E-1,2.4437714E-1,-1.273825E0,-2.2079506E0,-7.4082184E-1,2.181563E-1,-5.0498366E-1,-1.8148082E0,2.0362091E-1,1.8685232E0,-3.7787628E-1,-2.8019867E0,5.5185303E-2],"categories":[],"categories_nodes":[],"categories_segments":[],"categories_sizes":[],"default_left":[1,1,1,1,1,1,1,1,1,1,1,1,1,0,1,1,1,1,1,1,0,0,1,0,0,1,0,1,1,1,1,1,1,1,1,1,1,0,0,1,1,1,1,1,1,1,1,0,0,0,0,0,0,0,0,0,0,0,0,0,0,0,0,0,0,0,0,0,0,0,0,0,0,0,0,0,0,0,0],"id":33,"left_children":[1,3,5,7,9,11,13,15,17,19,21,23,25,-1,27,29,31,33,35,37,-1,-1,39,-1,-1,41,-1,43,45,47,49,51,53,55,57,59,61,-1,-1,63,65,67,69,71,73,75,77,-1,-1,-1,-1,-1,-1,-1,-1,-1,-1,-1,-1,-1,-1,-1,-1,-1,-1,-1,-1,-1,-1,-1,-1,-1,-1,-1,-1,-1,-1,-1,-1],"loss_changes":[4.4080396E0,1.8584637E1,2.7476799E1,1.1386108E1,3.4474144E1,1.39044075E1,1.4528584E1,1.6847834E1,1.7234951E1,2.3704933E1,2.8947117E0,2.9103968E0,4.916836E0,0E0,1.2410112E1,9.747196E0,9.077488E0,1.3718462E1,6.6543584E0,2.818248E-2,0E0,0E0,1.8297803E0,0E0,0E0,3.7116814E0,0E0,1.876453E1,2.8334156E1,1.3980547E1,1.2246512E1,5.6723137E0,2.88478E0,8.761642E0,1.2102093E1,5.1199813E0,6.932466E-1,0E0,0E0,1.2724357E0,7.7159977E-1,5.8255634E0,2.5166626E0,1.0342393E1,1.0204557E1,1.3528069E1,1.6069643E1,0E0,0E0,0E0,0E0,0E0,0E0,0E0,0E0,0E0,0E0,0E0,0E0,0E0,0E0,0E0,0E0,0E0,0E0,0E0,0E0,0E0,0E0,0E0,0E0,0E0,0E0,0E0,0E0,0E0,0E0,0E0,0E0],"parents":[2147483647,0,0,1,1,2,2,3,3,4,4,5,5,6,6,7,7,8,8,9,9,10,10,11,11,12,12,14,14,15,15,16,16,17,17,18,18,19,19,22,22,25,25,27,27,28,28,29,29,30,30,31,31,32,32,33,33,34,34,35,35,36,36,39,39,40,40,41,41,42,42,43,43,44,44,45,45,46,46],"right_children":[2,4,6,8,10,12,14,16,18,20,22,24,26,-1,28,30,32,34,36,38,-1,-1,40,-1,-1,42,-1,44,46,48,50,52,54,56,58,60,62,-1,-1,64,66,68,70,72,74,76,78,-1,-1,-1,-1,-1,-1,-1,-1,-1,-1,-1,-1,-1,-1,-1,-1,-1,-1,-1,-1,-1,-1,-1,-1,-1,-1,-1,-1,-1,-1,-1,-1],"split_conditions":[3.961E2,3.919E2,3.985E2,3.8415002E2,3.853E2,3.752E2,3.9925E2,3.7984998E2,3.8925E2,3.7705E2,3.892E2,3.8745E2,4.308E2,5.7193226E-1,4.07E2,4.071E2,3.813E2,3.87E2,3.9105E2,3.698E2,1.1885998E0,2.6208344E-1,4.019E2,3.890259E-1,-1.15708925E-1,3.951E2,1.4413148E-1,4.041E2,4.125E2,4.0135E2,3.825E2,3.817E2,3.9365002E2,3.7495E2,3.885E2,3.7865E2,3.8995E2,-4.3826297E-2,1.0157776E-2,3.755E2,3.8645E2,3.9055E2,4.185E2,3.896E2,4.033E2,4.2209998E2,3.9959998E2,2.2664804E-3,3.2115573E-1,-3.2881853E-1,1.5433306E-1,-5.94017E-1,-1.191504E-1,-1.5188345E-1,1.5638238E-1,7.633545E-1,2.3567913E-1,-1.6529846E-1,2.4103685E-1,7.381243E-2,-2.4404116E-1,3.4792787E-1,2.7955629E-2,2.4838258E-2,-1.8812715E-1,-6.33133E-2,1.8454285E-1,7.331315E-2,-3.8214752E-1,-6.623852E-1,-2.2224656E-1,6.544689E-2,-1.514951E-1,-5.444425E-1,6.1086275E-2,5.60557E-1,-1.13362886E-1,-8.40596E-1,1.6555592E-2],"split_indices":[4,5,2,10,1,25,2,9,6,0,2,0,27,0,21,59,10,10,4,0,0,0,6,0,0,2,0,21,22,58,15,39,20,52,9,29,5,0,0,50,0,9,23,25,53,6,18,0,0,0,0,0,0,0,0,0,0,0,0,0,0,0,0,0,0,0,0,0,0,0,0,0,0,0,0,0,0,0,0],"split_type":[0,0,0,0,0,0,0,0,0,0,0,0,0,0,0,0,0,0,0,0,0,0,0,0,0,0,0,0,0,0,0,0,0,0,0,0,0,0,0,0,0,0,0,0,0,0,0,0,0,0,0,0,0,0,0,0,0,0,0,0,0,0,0,0,0,0,0,0,0,0,0,0,0,0,0,0,0,0,0],"sum_hessian":[6.58E2,3.98E2,2.6E2,3.76E2,2.2E1,2.6E1,2.34E2,3.12E2,6.4E1,6E0,1.6E1,3E0,2.3E1,3E0,2.31E2,2.9E2,2.2E1,4.1E1,2.3E1,2E0,4E0,3E0,1.3E1,2E0,1E0,2.2E1,1E0,9.1E1,1.4E2,2.69E2,2.1E1,1.1E1,1.1E1,1.3E1,2.8E1,2E1,3E0,1E0,1E0,9E0,4E0,1.2E1,1E1,7.8E1,1.3E1,1.5E1,1.25E2,2.57E2,1.2E1,1.5E1,6E0,7E0,4E0,8E0,3E0,5E0,8E0,9E0,1.9E1,6E0,1.4E1,2E0,1E0,4E0,5E0,1E0,3E0,3E0,9E0,7E0,3E0,4.3E1,3.5E1,1E1,3E0,1.2E1,3E0,1E0,1.24E2],"tree_param":{"num_deleted":"0","num_feature":"60","num_nodes":"79","size_leaf_vector":"0"}},{"base_weights":[6.905262E-3,6.606038E-1,-2.1426529E-3,9.3951637E-1,-2.1039326E-1,-7.868252E-1,7.6082833E-3,-2.5580597E-1,-5.9783936E-2,-2.7494812E-1,-1.5483042E0,1.6261676E-1,-3.191257E-2,-1.08161926E-1,-4.0568033E-1,-3.9198417E-3,1.6745582E0,-5.5617404E-1,2.7036695E-2,-1.3355E-1,-1.599884E-2,-6.815737E-2,1.0336173E0,8.3889335E-1,2.2710004E0,6.8089515E-1,-7.32333E-1,2.1032002E0,-2.2098591E-4,1.8439251E-1,-4.994772E-1,-4.335785E-2,1.8521881E0,2.0880127E-1,9.0910846E-1,4.0873718E-1,2.513255E0,9.5098877E-1,3.774007E-3,-8.18204E-2,-9.1075814E-1,2.607904E0,-2.101593E-1,3.9024544E-1,-4.5822367E-2],"categories":[],"categories_nodes":[],"categories_segments":[],"categories_sizes":[],"default_left":[1,1,1,0,1,1,1,0,0,1,0,1,1,1,0,1,1,1,1,0,0,1,1,1,1,1,1,1,1,0,0,0,0,0,0,0,0,0,0,0,0,0,0,0,0],"id":34,"left_children":[1,3,5,-1,7,9,11,-1,-1,13,-1,15,17,19,-1,21,23,25,27,-1,-1,29,31,33,35,37,39,41,43,-1,-1,-1,-1,-1,-1,-1,-1,-1,-1,-1,-1,-1,-1,-1,-1],"loss_changes":[3.899143E0,2.3840556E0,4.9870405E0,0E0,5.2256286E-3,2.6925664E0,3.9503765E0,0E0,0E0,8.6946815E-2,0E0,3.2991524E1,1.590012E1,7.2227307E-3,0E0,8.0016575E0,4.5744057E0,1.1830523E1,2.6202286E1,0E0,0E0,1.2401164E1,6.2513704E0,1.1987114E-1,2.1307297E0,1.276614E0,5.2646008E0,7.553442E0,8.172942E0,0E0,0E0,0E0,0E0,0E0,0E0,0E0,0E0,0E0,0E0,0E0,0E0,0E0,0E0,0E0,0E0],"parents":[2147483647,0,0,1,1,2,2,4,4,5,5,6,6,9,9,11,11,12,12,13,13,15,15,16,16,17,17,18,18,21,21,22,22,23,23,24,24,25,25,26,26,27,27,28,28],"right_children":[2,4,6,-1,8,10,12,-1,-1,14,-1,16,18,20,-1,22,24,26,28,-1,-1,30,32,34,36,38,40,42,44,-1,-1,-1,-1,-1,-1,-1,-1,-1,-1,-1,-1,-1,-1,-1,-1],"split_conditions":[2.08E2,2.3954999E2,2.11E2,2.8185493E-1,2.14E2,2.0829999E2,3.0259998E2,-7.674179E-2,-1.7935181E-2,2.1375E2,-4.6449128E-1,3.0745E2,3.2105E2,2.1420001E2,-1.217041E-1,3.0734998E2,2.9984998E2,2.905E2,3.042E2,-4.0065E-2,-4.7996524E-3,2.8984998E2,3.0009998E2,2.9265002E2,2.933E2,3.0075E2,3.027E2,4.0125E2,3.6855E2,5.5317756E-2,-1.4984317E-1,-1.3007355E-2,5.5565643E-1,6.2640384E-2,2.7273256E-1,1.2262116E-1,7.539765E-1,2.8529665E-1,1.1322022E-3,-2.454612E-2,-2.7322745E-1,7.823712E-1,-6.30478E-2,1.1707363E-1,-1.37467105E-2],"split_indices":[12,54,8,0,0,4,35,0,0,1,0,42,35,0,0,43,35,18,41,0,0,27,30,3,0,0,34,2,9,0,0,0,0,0,0,0,0,0,0,0,0,0,0,0,0],"split_type":[0,0,0,0,0,0,0,0,0,0,0,0,0,0,0,0,0,0,0,0,0,0,0,0,0,0,0,0,0,0,0,0,0,0,0,0,0,0,0,0,0,0,0,0,0],"sum_hessian":[6.58E2,8E0,6.5E2,6E0,2E0,7E0,6.43E2,1E0,1E0,5E0,2E0,1.3E2,5.13E2,3E0,2E0,1.18E2,1.2E1,5.1E1,4.62E2,2E0,1E0,1.12E2,6E0,6E0,6E0,6E0,4.5E1,5E0,4.57E2,7.1E1,4.1E1,3E0,3E0,1E0,5E0,1E0,5E0,4E0,2E0,1E1,3.5E1,4E0,1E0,4.7E1,4.1E2],"tree_param":{"num_deleted":"0","num_feature":"60","num_nodes":"45","size_leaf_vector":"0"}},{"base_weights":[7.902038E-3,-1.8375544E-2,2.56788E-1,1.2644915E-2,-4.5065156E-1,1.4750845E0,1.02667555E-1,3.965244E-2,-5.414957E-1,-1.2889811E0,-8.821685E-2,2.1254807E0,4.5591736E-1,1.800059E0,8.215887E-3,2.0509358E-2,9.4621414E-1,-1.4689407E0,2.3656006E-1,-6.5003663E-1,-2.9891357E0,1.1185099E0,-2.190303E-1,6.317342E-1,-3.57666E-2,-6.457449E-1,2.057339E-1,-9.709114E-3,4.4211861E-1,1.7907593E0,2.0779419E-1,-2.153608E0,-4.2533875E-1,1.4602814E0,-1.9106038E-1,8.8401794E-2,-9.7913903E-1,-5.086229E-1,3.2413942E-1,-8.1374013E-1,1.8548584E-1,4.6470878E-1,-1.7977057E-1,5.2454878E-2,-4.725563E-1,2.3006897E0,3.197874E-1,-1.5151215E-1,5.15152E-1,5.1676434E-2,-6.7676544E-1,-3.7737697E-1,2.7591705E-1,2.2808838E-1,-1.6532898E-1,-1.761678E-1,-1.265094E0,-7.3897445E-1,2.3808594E-1,-5.895386E-2,5.8936054E-1,-8.8223946E-1,-3.3699545E-1,-1.8624878E-2,7.2168684E-1,6.6763306E-1,-3.274231E-1],"categories":[],"categories_nodes":[],"categories_segments":[],"categories_sizes":[],"default_left":[1,1,1,1,1,1,1,1,1,1,1,0,1,0,1,1,1,1,1,1,0,0,1,0,0,1,1,1,1,0,1,0,1,0,1,1,1,1,1,1,0,1,1,0,0,0,0,0,0,0,0,0,0,0,0,0,0,0,0,0,0,0,0,0,0,0,0],"id":35,"left_children":[1,3,5,7,9,11,13,15,17,19,21,-1,23,-1,25,27,29,31,33,35,-1,-1,37,-1,-1,39,41,43,45,-1,47,-1,49,-1,51,53,55,57,59,61,-1,63,65,-1,-1,-1,-1,-1,-1,-1,-1,-1,-1,-1,-1,-1,-1,-1,-1,-1,-1,-1,-1,-1,-1,-1,-1],"loss_changes":[4.314658E0,8.01111E0,1.1677713E1,8.37248E0,1.2039878E1,3.670991E0,9.123534E0,9.230481E0,1.9109196E1,1.1092606E1,4.822815E0,0E0,3.6838025E-1,0E0,7.237149E0,6.6675153E0,6.48781E0,7.6582317E0,8.128325E0,2.516776E0,0E0,0E0,4.411909E0,0E0,0E0,1.9662933E0,4.3764873E0,1.4094504E1,7.2219114E0,0E0,8.5110104E-1,0E0,7.5457895E-1,0E0,1.1481925E0,1.7948076E-1,1.3844261E0,3.2720385E0,1.0507895E0,6.1913013E-2,0E0,3.2428017E0,2.4707818E0,0E0,0E0,0E0,0E0,0E0,0E0,0E0,0E0,0E0,0E0,0E0,0E0,0E0,0E0,0E0,0E0,0E0,0E0,0E0,0E0,0E0,0E0,0E0,0E0],"parents":[2147483647,0,0,1,1,2,2,3,3,4,4,5,5,6,6,7,7,8,8,9,9,10,10,12,12,14,14,15,15,16,16,17,17,18,18,19,19,22,22,25,25,26,26,27,27,28,28,30,30,32,32,34,34,35,35,36,36,37,37,38,38,39,39,41,41,42,42],"right_children":[2,4,6,8,10,12,14,16,18,20,22,-1,24,-1,26,28,30,32,34,36,-1,-1,38,-1,-1,40,42,44,46,-1,48,-1,50,-1,52,54,56,58,60,62,-1,64,66,-1,-1,-1,-1,-1,-1,-1,-1,-1,-1,-1,-1,-1,-1,-1,-1,-1,-1,-1,-1,-1,-1,-1,-1],"split_conditions":[4.2665002E2,4.206E2,4.1165002E2,4.2284998E2,4.2425E2,4.248E2,4.1884998E2,4.203E2,4.036E2,4.235E2,3.966E2,6.3764423E-1,4.423E2,5.400177E-1,4.1609998E2,4.202E2,4.15E2,4.34E2,4.1745E2,4.1975E2,-8.9674073E-1,3.35553E-1,4.3195E2,1.8952027E-1,-1.0729981E-2,4.1265002E2,4.4025E2,4.0195E2,4.206E2,5.372278E-1,4.213E2,-6.4608246E-1,4.3E2,4.3808442E-1,4.3675E2,4.024E2,3.792E2,4.1759998E2,4.293E2,4.344E2,5.5645753E-2,4.1325E2,4.213E2,1.5736464E-2,-1.4176689E-1,6.9020694E-1,9.593623E-2,-4.5453645E-2,1.545456E-1,1.5502931E-2,-2.0302965E-1,-1.132131E-1,8.2775116E-2,6.842652E-2,-4.9598698E-2,-5.2850343E-2,-3.7952822E-1,-2.2169234E-1,7.142579E-2,-1.7686158E-2,1.7680816E-1,-2.6467186E-1,-1.0109864E-1,-5.5874633E-3,2.1650606E-1,2.0028992E-1,-9.8226935E-2],"split_indices":[43,36,52,52,36,4,42,53,39,31,54,0,0,0,30,26,13,2,49,34,0,0,34,0,0,2,23,32,26,0,55,0,0,0,51,21,0,58,38,40,0,13,50,0,0,0,0,0,0,0,0,0,0,0,0,0,0,0,0,0,0,0,0,0,0,0,0],"split_type":[0,0,0,0,0,0,0,0,0,0,0,0,0,0,0,0,0,0,0,0,0,0,0,0,0,0,0,0,0,0,0,0,0,0,0,0,0,0,0,0,0,0,0,0,0,0,0,0,0,0,0,0,0,0,0,0,0,0,0,0,0,0,0,0,0,0,0],"sum_hessian":[6.58E2,5.96E2,6.2E1,5.57E2,3.9E1,6E0,5.6E1,5.32E2,2.5E1,1.1E1,2.8E1,3E0,3E0,2E0,5.4E1,5.22E2,1E1,1.1E1,1.4E1,9E0,2E0,2E0,2.6E1,2E0,1E0,1.2E1,4.2E1,4.88E2,3.4E1,4E0,6E0,6E0,5E0,3E0,1.1E1,3E0,6E0,1.7E1,9E0,1E1,2E0,2.5E1,1.7E1,4.31E2,5.7E1,1E0,3.3E1,3E0,3E0,2E0,3E0,8E0,3E0,2E0,1E0,2E0,4E0,1.3E1,4E0,4E0,5E0,8E0,2E0,9E0,1.6E1,2E0,1.5E1],"tree_param":{"num_deleted":"0","num_feature":"60","num_nodes":"67","size_leaf_vector":"0"}},{"base_weights":[7.4586305E-3,-6.81124E-2,8.4861286E-2,-1.9725727E-2,-7.8836495E-1,2.6442566E0,4.485558E-2,-6.477053E-2,5.5300504E-1,-1.5520668E0,-2.9565212E-1,3.3348312E0,-5.9020996E-2,-1.0879364E0,8.090371E-2,8.506896E-3,-5.1357883E-1,1.5682242E0,1.0244392E-1,3.1674194E-1,-1.8642883E0,2.141157E-1,-7.0474243E-1,-1.07177734E-1,-1.3197289E0,2.1029766E0,6.113804E-2,-3.0040054E-2,1.0526123E0,-9.35305E-1,2.7976686E-1,6.546631E-1,1.802716E0,6.2820774E-1,-4.3470255E-1,3.8036498E-1,-1.3433838E-1,1.8676758E-1,-1.0330404E0,-2.4743652E-1,8.666992E-2,4.1741392E-1,-2.045699E-2,2.384098E-2,-6.693597E-1,1.5372838E0,-4.2915854E-1,1.234909E0,-1.0662713E0,1.2016983E0,-5.0857544E-2,-5.7932537E-2,8.325239E-1,-9.298808E-1,-1.6038296E-1,9.710693E-2,4.2690277E-1,-4.434204E-2,3.244934E-1,-1.1388366E0,-2.5202942E-1,8.594977E-2,1.5581782E0,-8.72098E-1,1.8020505E-2],"categories":[],"categories_nodes":[],"categories_segments":[],"categories_sizes":[],"default_left":[1,1,1,1,1,1,1,1,1,1,1,0,0,1,1,1,1,1,1,0,0,1,1,1,0,0,1,1,1,1,1,0,0,1,1,1,0,1,1,0,0,1,1,0,0,0,0,0,0,0,0,0,0,0,0,0,0,0,0,0,0,0,0,0,0],"id":36,"left_children":[1,3,5,7,9,11,13,15,17,19,21,-1,-1,23,25,27,29,31,33,-1,-1,35,37,39,-1,-1,41,43,45,47,49,-1,-1,51,53,55,-1,57,59,-1,-1,61,63,-1,-1,-1,-1,-1,-1,-1,-1,-1,-1,-1,-1,-1,-1,-1,-1,-1,-1,-1,-1,-1,-1],"loss_changes":[3.860534E0,1.1624558E1,3.326067E1,8.136561E0,7.4431276E0,9.530899E0,1.3236898E1,9.607523E0,1.0359966E1,5.258356E0,3.0704713E0,0E0,0E0,2.1318789E0,1.2381291E1,1.0173885E1,1.3979226E1,3.1938744E-1,5.0740905E0,0E0,0E0,4.5660934E-1,2.5343852E0,1.0301182E-1,0E0,0E0,9.049415E0,8.421076E0,7.1232862E0,8.990818E0,4.633311E0,0E0,0E0,1.309936E0,1.0733968E0,2.4455726E-2,0E0,1.0987799E-1,2.0874834E-1,0E0,0E0,2.1797176E1,8.339045E0,0E0,0E0,0E0,0E0,0E0,0E0,0E0,0E0,0E0,0E0,0E0,0E0,0E0,0E0,0E0,0E0,0E0,0E0,0E0,0E0,0E0,0E0],"parents":[2147483647,0,0,1,1,2,2,3,3,4,4,5,5,6,6,7,7,8,8,9,9,10,10,13,13,14,14,15,15,16,16,17,17,18,18,21,21,22,22,23,23,26,26,27,27,28,28,29,29,30,30,33,33,34,34,35,35,37,37,38,38,41,41,42,42],"right_children":[2,4,6,8,10,12,14,16,18,20,22,-1,-1,24,26,28,30,32,34,-1,-1,36,38,40,-1,-1,42,44,46,48,50,-1,-1,52,54,56,-1,58,60,-1,-1,62,64,-1,-1,-1,-1,-1,-1,-1,-1,-1,-1,-1,-1,-1,-1,-1,-1,-1,-1,-1,-1,-1,-1],"split_conditions":[3.8315002E2,3.8055E2,3.8345E2,3.8695E2,3.8165002E2,3.779E2,3.652E2,3.9495E2,3.9255E2,3.7809998E2,3.8440002E2,1.0004494E0,-1.77063E-2,3.634E2,3.7555E2,3.8905E2,3.886E2,3.635E2,3.71E2,9.502259E-2,-5.5928653E-1,4.021E2,3.848E2,3.605E2,-3.9591867E-1,6.30893E-1,3.942E2,3.8209998E2,3.6965002E2,3.3590002E2,4.1165002E2,1.9639893E-1,5.408148E-1,3.226E2,3.7115E2,3.6809998E2,-4.0301517E-2,3.8745E2,4.003E2,-7.423096E-2,2.6000978E-2,3.985E2,3.9105E2,7.1522943E-3,-2.0080791E-1,4.6118516E-1,-1.2874757E-1,3.7047273E-1,-3.198814E-1,3.605095E-1,-1.5257264E-2,-1.7379763E-2,2.4975717E-1,-2.7896425E-1,-4.811489E-2,2.9132081E-2,1.2807083E-1,-1.3302613E-2,9.734803E-2,-3.41651E-1,-7.560883E-2,2.5784932E-2,4.6745348E-1,-2.6162943E-1,5.4061515E-3],"split_indices":[19,19,19,8,19,13,0,59,9,4,40,0,0,2,16,59,34,40,47,0,0,10,2,0,0,0,20,28,20,24,37,0,0,44,25,1,0,0,0,0,0,26,17,0,0,0,0,0,0,0,0,0,0,0,0,0,0,0,0,0,0,0,0,0,0],"split_type":[0,0,0,0,0,0,0,0,0,0,0,0,0,0,0,0,0,0,0,0,0,0,0,0,0,0,0,0,0,0,0,0,0,0,0,0,0,0,0,0,0,0,0,0,0,0,0,0,0,0,0,0,0,0,0,0,0,0,0,0,0,0,0,0,0],"sum_hessian":[6.58E2,3.33E2,3.25E2,3.13E2,2E1,4E0,3.21E2,2.91E2,2.2E1,7E0,1.3E1,3E0,1E0,9E0,3.12E2,2.51E2,4E1,6E0,1.6E1,1E0,6E0,6E0,7E0,2E0,7E0,2E0,3.1E2,2.43E2,8E0,2.6E1,1.4E1,2E0,4E0,8E0,8E0,4E0,2E0,2E0,5E0,1E0,1E0,5.7E1,2.53E2,2.25E2,1.8E1,6E0,2E0,1E0,2.5E1,3E0,1.1E1,2E0,6E0,2E0,6E0,1E0,3E0,1E0,1E0,4E0,1E0,4.5E1,1.2E1,1E1,2.43E2],"tree_param":{"num_deleted":"0","num_feature":"60","num_nodes":"65","size_leaf_vector":"0"}},{"base_weights":[8.112095E-3,-3.6483625E-1,2.0959668E-2,-1.1379466E-1,-1.0153147E0,2.6409557E-1,-8.509344E-3,-3.6533287E-1,2.9773602E-1,-5.4870605E-2,-1.1964295E0,8.7303534E-2,1.4330088E0,-4.6007022E-1,2.2794517E-2,-1.9032966E-1,-7.685649E-1,4.4390565E-1,-4.5125324E-2,-2.0045413E-1,2.9270342E-1,1.9988683E0,2.259674E-1,2.3746666E-1,-8.043866E-1,-9.314168E-1,3.357424E-2,-2.9814148E-1,-8.67335E-2,1.2674713E-1,4.9150848E-1,-1.3544464E-1,6.775665E-2,7.498169E-2,-1.1310705E0,1.0341415E0,1.3975722E-1,4.96521E-1,2.2000337E0,-6.3568115E-2,3.436686E-1,-4.2127556E-1,8.622851E-1,-3.5275936E-1,-1.4465516E0,4.2715454E-1,-1.288562E0,9.6418E-1,1.5613409E-2,-2.5301716E-1,7.671247E-1,-2.0218658E-1,-1.2764099E0,3.0223083E-1,1.3245392E0,2.6761737E-2,8.957863E-1,-8.687134E-2,-8.3819073E-1,1.55893965E-2,1.1978455E0,-8.0514306E-1,-8.1481936E-4,-3.920822E-1,-1.8424551E0,4.5611355E-1,1.6122513E0,8.198378E-1,1.4461577E-3],"categories":[],"categories_nodes":[],"categories_segments":[],"categories_sizes":[],"default_left":[1,1,1,1,1,1,1,1,1,0,0,1,1,1,1,1,0,1,1,1,1,1,1,1,1,1,1,0,0,0,0,0,0,1,1,1,1,0,0,0,0,1,1,1,1,0,0,1,1,0,0,0,0,0,0,0,0,0,0,0,0,0,0,0,0,0,0,0,0],"id":37,"left_children":[1,3,5,7,9,11,13,15,17,-1,-1,19,21,23,25,27,-1,29,31,33,35,37,39,41,43,45,47,-1,-1,-1,-1,-1,-1,49,51,53,55,-1,-1,-1,-1,57,59,61,63,-1,-1,65,67,-1,-1,-1,-1,-1,-1,-1,-1,-1,-1,-1,-1,-1,-1,-1,-1,-1,-1,-1,-1],"loss_changes":[3.165233E0,3.4769998E0,4.5735016E0,1.8685393E0,9.780545E-1,1.4134059E1,8.067779E0,6.299552E-1,3.7084275E-1,0E0,0E0,3.6641026E0,5.695463E0,9.077431E0,5.5240674E0,7.4661165E-2,0E0,1.3190925E-2,3.9763547E-2,6.7492614E0,3.9378762E0,7.209587E-1,1.5816112E-1,5.7139845E0,6.7401943E0,3.4616575E0,8.826891E0,0E0,0E0,0E0,0E0,0E0,0E0,4.9615602E0,5.519476E-1,8.749547E-1,2.6242912E0,0E0,0E0,0E0,0E0,9.0311253E-1,1.970149E0,2.546768E0,3.4522877E0,0E0,0E0,2.5572634E0,5.923512E0,0E0,0E0,0E0,0E0,0E0,0E0,0E0,0E0,0E0,0E0,0E0,0E0,0E0,0E0,0E0,0E0,0E0,0E0,0E0,0E0],"parents":[2147483647,0,0,1,1,2,2,3,3,4,4,5,5,6,6,7,7,8,8,11,11,12,12,13,13,14,14,15,15,17,17,18,18,19,19,20,20,21,21,22,22,23,23,24,24,25,25,26,26,33,33,34,34,35,35,36,36,41,41,42,42,43,43,44,44,47,47,48,48],"right_children":[2,4,6,8,10,12,14,16,18,-1,-1,20,22,24,26,28,-1,30,32,34,36,38,40,42,44,46,48,-1,-1,-1,-1,-1,-1,50,52,54,56,-1,-1,-1,-1,58,60,62,64,-1,-1,66,68,-1,-1,-1,-1,-1,-1,-1,-1,-1,-1,-1,-1,-1,-1,-1,-1,-1,-1,-1,-1],"split_conditions":[2.1785E2,2.9015E2,2.9645E2,2.2085E2,2.807E2,3.0165002E2,3.013E2,2.8855E2,2.2435E2,-1.6461182E-2,-3.5892886E-1,2.1625E2,3.0134998E2,3.0084998E2,2.837E2,2.106E2,-2.3056947E-1,2.885E2,2.543E2,2.2515E2,2.1504999E2,2.7235E2,3.027E2,2.9755E2,3.011E2,2.981E2,2.9625E2,-8.944245E-2,-2.602005E-2,3.8024142E-2,1.4745255E-1,-4.0633395E-2,2.0326996E-2,2.1535E2,2.079E2,2.1375E2,3.083E2,1.489563E-1,6.600101E-1,-1.9070435E-2,1.0310059E-1,3.024E2,2.9625E2,2.9195E2,2.983E2,1.2814637E-1,-3.8656864E-1,2.987E2,3.0005E2,-7.590515E-2,2.3013742E-1,-6.0655978E-2,-3.8292298E-1,9.066925E-2,3.973618E-1,8.028521E-3,2.687359E-1,-2.6061403E-2,-2.5145724E-1,4.6768193E-3,3.5935366E-1,-2.4154292E-1,-2.444458E-4,-1.1762467E-1,-5.527366E-1,1.3683407E-1,4.836754E-1,2.4595135E-1,4.3384734E-4],"split_indices":[52,8,7,32,5,23,18,0,42,0,0,5,14,5,25,47,0,1,0,27,15,2,0,4,30,9,24,0,0,0,0,0,0,13,5,34,2,0,0,0,0,13,1,35,8,0,0,26,3,0,0,0,0,0,0,0,0,0,0,0,0,0,0,0,0,0,0,0,0],"split_type":[0,0,0,0,0,0,0,0,0,0,0,0,0,0,0,0,0,0,0,0,0,0,0,0,0,0,0,0,0,0,0,0,0,0,0,0,0,0,0,0,0,0,0,0,0,0,0,0,0,0,0,0,0,0,0,0,0,0,0,0,0,0,0,0,0,0,0,0,0],"sum_hessian":[6.58E2,2.1E1,6.37E2,1.6E1,5E0,6.8E1,5.69E2,1E1,6E0,1E0,4E0,6E1,8E0,3.6E1,5.33E2,8E0,2E0,4E0,2E0,2.5E1,3.5E1,5E0,3E0,1.2E1,2.4E1,5E0,5.28E2,3E0,5E0,1E0,3E0,1E0,1E0,2E1,5E0,5E0,3E1,1E0,4E0,1E0,2E0,6E0,6E0,1.5E1,9E0,1E0,4E0,9E0,5.19E2,1.4E1,6E0,1E0,4E0,2E0,3E0,2.7E1,3E0,4E0,2E0,2E0,4E0,6E0,9E0,3E0,6E0,6E0,3E0,8E0,5.11E2],"tree_param":{"num_deleted":"0","num_feature":"60","num_nodes":"69","size_leaf_vector":"0"}},{"base_weights":[6.5869577E-3,-3.0710345E-2,1.3013692E-1,6.254071E-3,-9.3110657E-1,1.008913E0,2.730682E-2,-1.0643037E-2,1.6406434E0,-2.3217642E0,-1.6927011E-1,6.5029705E-1,3.1940765E0,-7.2424316E-1,9.167981E-2,3.8055018E-2,-3.0408865E-1,2.0558624E0,-1.0116577E-2,-7.019348E-1,-2.829309E0,-6.17926E-1,7.1984865E-2,-6.5263873E-1,9.009517E-1,-1.9293671E0,-4.1079408E-1,8.313424E-1,8.3671237E-4,-3.092662E-3,1.3138709E0,-2.325063E0,-2.0905861E-1,-7.3976135E-1,-6.529236E-2,2.467575E-1,-4.1807047E-1,-8.5061646E-1,-1.2834167E-1,1.1701934E0,2.609253E-3,-6.628113E-1,1.3293457E-1,2.310757E-1,1.5931854E0,-5.21228E-1,7.836279E-2,3.190597E-2,-1.1490402E0,3.3619308E-1,2.398463E0,1.854575E-1,-4.7999343E-1,3.6591798E-1,3.6117554E-2,1.3077087E0,-3.3721924E-2,2.6437378E-1,-1.7277019E-1,-1.7533875E-1,-7.1483356E-1,3.2984924E-1,-4.26534E-2,-5.19104E-1,5.1957047E-1,1.9650345E0,5.663249E-1,-1.5348308E-1,-9.1958183E-1,-2.0879593E-1,2.6236257E-1],"categories":[],"categories_nodes":[],"categories_segments":[],"categories_sizes":[],"default_left":[1,1,1,1,1,1,1,1,1,1,1,1,0,1,1,1,1,0,0,0,0,1,1,1,1,0,1,1,1,1,1,0,1,0,0,1,0,0,0,1,1,1,1,1,1,1,1,0,0,0,0,0,0,0,0,0,0,0,0,0,0,0,0,0,0,0,0,0,0,0,0],"id":38,"left_children":[1,3,5,7,9,11,13,15,17,19,21,23,-1,25,27,29,31,-1,-1,-1,-1,33,35,37,39,-1,41,43,45,47,49,-1,51,-1,-1,53,-1,-1,-1,55,57,59,61,63,65,67,69,-1,-1,-1,-1,-1,-1,-1,-1,-1,-1,-1,-1,-1,-1,-1,-1,-1,-1,-1,-1,-1,-1,-1,-1],"loss_changes":[3.0407217E0,1.6880112E1,1.3798239E1,1.3494289E1,2.0796068E1,1.0461056E1,6.742772E0,6.9280434E0,3.4479322E0,3.7689629E0,1.559848E0,5.4867997E0,0E0,3.3626223E0,8.6000395E0,2.1842758E1,1.2765599E1,0E0,0E0,0E0,0E0,2.883507E-1,9.5964473E-1,2.0222783E-1,3.1412745E0,0E0,1.4584002E0,6.0341797E0,4.695313E0,1.6239727E1,1.2978613E1,0E0,7.250524E0,0E0,0E0,1.8758357E-1,0E0,0E0,0E0,1.699666E0,2.2930837E-1,5.2178144E-2,1.5237258E-1,2.2175174E0,1.178175E0,2.0562487E0,5.3913317E0,0E0,0E0,0E0,0E0,0E0,0E0,0E0,0E0,0E0,0E0,0E0,0E0,0E0,0E0,0E0,0E0,0E0,0E0,0E0,0E0,0E0,0E0,0E0,0E0],"parents":[2147483647,0,0,1,1,2,2,3,3,4,4,5,5,6,6,7,7,8,8,9,9,10,10,11,11,13,13,14,14,15,15,16,16,21,21,22,22,23,23,24,24,26,26,27,27,28,28,29,29,30,30,32,32,35,35,39,39,40,40,41,41,42,42,43,43,44,44,45,45,46,46],"right_children":[2,4,6,8,10,12,14,16,18,20,22,24,-1,26,28,30,32,-1,-1,-1,-1,34,36,38,40,-1,42,44,46,48,50,-1,52,-1,-1,54,-1,-1,-1,56,58,60,62,64,66,68,70,-1,-1,-1,-1,-1,-1,-1,-1,-1,-1,-1,-1,-1,-1,-1,-1,-1,-1,-1,-1,-1,-1,-1,-1],"split_conditions":[4.0915E2,4.0645E2,4.1090002E2,4.0584998E2,4.0395E2,4.1395E2,3.9609998E2,4.04E2,4.148E2,3.98E2,3.75E2,3.6395E2,9.58223E-1,4.1235E2,4.0145E2,4.0045E2,4.0175E2,6.1675876E-1,-3.0349733E-3,-2.1058045E-1,-8.4879273E-1,3.722E2,4.2205E2,3.5809998E2,4.1385E2,-5.7881016E-1,4.29E2,3.9775E2,4.0645E2,3.9659998E2,3.9709998E2,-6.9751894E-1,3.905E2,-2.2192842E-1,-1.9587709E-2,4.0765002E2,-1.2542115E-1,-2.5518495E-1,-3.8502503E-2,4.1355E2,4.295E2,3.7145E2,4.237E2,4.021E2,4.21E2,4.1709998E2,4.105E2,9.571792E-3,-3.4471208E-1,1.0085793E-1,7.195389E-1,5.563725E-2,-1.4399804E-1,1.097754E-1,1.0835267E-2,3.9231265E-1,-1.0116577E-2,7.931214E-2,-5.183106E-2,-5.2601624E-2,-2.1445008E-1,9.8954774E-2,-1.2796021E-2,-1.557312E-1,1.5587115E-1,5.895104E-1,1.6989747E-1,-4.6044923E-2,-2.7587456E-1,-6.263878E-2,7.8708775E-2],"split_indices":[38,38,39,38,39,40,59,59,0,2,0,8,0,39,57,59,58,0,0,0,0,2,50,0,3,0,36,57,58,59,35,0,36,0,0,38,0,0,0,41,0,0,0,44,34,7,12,0,0,0,0,0,0,0,0,0,0,0,0,0,0,0,0,0,0,0,0,0,0,0,0],"split_type":[0,0,0,0,0,0,0,0,0,0,0,0,0,0,0,0,0,0,0,0,0,0,0,0,0,0,0,0,0,0,0,0,0,0,0,0,0,0,0,0,0,0,0,0,0,0,0,0,0,0,0,0,0,0,0,0,0,0,0,0,0,0,0,0,0,0,0,0,0,0,0],"sum_hessian":[6.58E2,5.06E2,1.52E2,4.87E2,1.9E1,1.5E1,1.37E2,4.83E2,4E0,6E0,1.3E1,1.4E1,1E0,1E1,1.27E2,4.15E2,6.8E1,3E0,1E0,2E0,4E0,4E0,9E0,2E0,1.2E1,1E0,9E0,1.3E1,1.14E2,4.03E2,1.2E1,2E0,6.6E1,3E0,1E0,7E0,2E0,1E0,1E0,9E0,3E0,6E0,3E0,8E0,5E0,1.4E1,1E2,3.92E2,1.1E1,7E0,5E0,2.7E1,3.9E1,4E0,3E0,8E0,1E0,1E0,2E0,1E0,5E0,1E0,2E0,2E0,6E0,3E0,2E0,8E0,6E0,3.9E1,6.1E1],"tree_param":{"num_deleted":"0","num_feature":"60","num_nodes":"71","size_leaf_vector":"0"}},{"base_weights":[4.26827E-3,-1.1941528E-1,3.2026045E-2,-4.2911287E-2,-8.805542E-1,1.1458759E0,1.5216225E-2,-8.945422E-2,7.86499E-1,1.3586807E-1,-1.2786961E0,3.2709503E-1,2.401479E0,1.0491267E0,1.4280312E-3,6.860427E-2,-2.9710886E-1,1.279419E0,-1.3289388E-1,3.0514526E-1,-1.8598175E-1,-1.3655504E0,-3.3535767E-1,-1.7166646E-1,6.193924E-1,2.018758E0,2.5752258E-1,-3.9116734E-1,2.9353661E-2,6.993065E-1,-2.6103549E-2,-4.88807E-1,1.7597307E-1,2.0159912E-1,-4.0093994E-1,-2.3828888E-1,-1.9210815E-2,-1.0506058E-1,8.539276E-1,-8.9580536E-2,-9.6174365E-1,7.0544165E-1,-3.7939518E-3,3.193268E-1,9.994545E-1,-1.3793573E-1,4.797516E-1,-3.231697E-1,-1.1803131E0,1.0846252E0,-2.9595032E-1,-1.566925E-1,-3.56191E-2,3.278473E-1,-3.618937E-1,-1.4598846E0,-3.9737374E-1,1.3992779E-1,1.3096452E0,-1.0787582E0,1.478814E-2],"categories":[],"categories_nodes":[],"categories_segments":[],"categories_sizes":[],"default_left":[1,1,1,1,1,1,1,1,1,1,1,1,0,1,1,1,1,0,1,0,0,0,0,1,0,0,1,1,1,1,1,1,1,0,0,0,0,1,0,1,1,1,1,0,0,0,0,0,0,0,0,0,0,0,0,0,0,0,0,0,0],"id":39,"left_children":[1,3,5,7,9,11,13,15,17,19,21,23,-1,25,27,29,31,-1,33,-1,-1,-1,-1,35,-1,-1,37,39,41,43,45,47,49,-1,-1,-1,-1,51,-1,53,55,57,59,-1,-1,-1,-1,-1,-1,-1,-1,-1,-1,-1,-1,-1,-1,-1,-1,-1,-1],"loss_changes":[2.2662902E0,7.008065E0,1.00745945E1,4.3553095E0,4.6252165E0,7.438999E0,7.582566E0,3.4994702E0,2.8891494E0,2.746788E-1,1.9751644E-1,9.810489E-1,0E0,4.8530746E0,5.778269E0,3.6619325E0,4.2577076E0,0E0,3.498077E-1,0E0,0E0,0E0,0E0,2.5893167E-2,0E0,0E0,1.1709464E0,5.9365873E0,1.1028743E1,5.932486E-1,3.1210024E0,3.3983526E0,6.324394E0,0E0,0E0,0E0,0E0,8.760344E-3,0E0,2.8467522E0,2.7935085E0,7.6755114E0,9.4042425E0,0E0,0E0,0E0,0E0,0E0,0E0,0E0,0E0,0E0,0E0,0E0,0E0,0E0,0E0,0E0,0E0,0E0,0E0],"parents":[2147483647,0,0,1,1,2,2,3,3,4,4,5,5,6,6,7,7,8,8,9,9,10,10,11,11,13,13,14,14,15,15,16,16,18,18,23,23,26,26,27,27,28,28,29,29,30,30,31,31,32,32,37,37,39,39,40,40,41,41,42,42],"right_children":[2,4,6,8,10,12,14,16,18,20,22,24,-1,26,28,30,32,-1,34,-1,-1,-1,-1,36,-1,-1,38,40,42,44,46,48,50,-1,-1,-1,-1,52,-1,54,56,58,60,-1,-1,-1,-1,-1,-1,-1,-1,-1,-1,-1,-1,-1,-1,-1,-1,-1,-1],"split_conditions":[3.0259998E2,3.0515E2,2.9984998E2,3.0659998E2,3.0405E2,3.0245E2,2.6875E2,2.8605E2,3.005E2,2.9785E2,3.037E2,3E2,7.204437E-1,3.054E2,3.1515E2,2.161E2,3.011E2,3.838257E-1,2.8765002E2,9.1543585E-2,-5.5794526E-2,-4.0966514E-1,-1.00607306E-1,3.2025E2,1.8581772E-1,6.056274E-1,3.9055E2,3.057E2,3.24E2,2.309E2,2.3925E2,3.0465E2,3.015E2,6.0479738E-2,-1.2028199E-1,-7.148667E-2,-5.763245E-3,3.0875E2,2.561783E-1,2.9845E2,3.022E2,3.0065002E2,3.231E2,9.579804E-2,2.9983637E-1,-4.138072E-2,1.4392549E-1,-9.695092E-2,-3.5409394E-1,3.253876E-1,-8.87851E-2,-4.7007754E-2,-1.068573E-2,9.83542E-2,-1.0856812E-1,-4.3796542E-1,-1.1921213E-1,4.1978337E-2,3.9289358E-1,-3.2362747E-1,4.436442E-3],"split_indices":[1,5,3,6,6,15,54,2,4,0,0,11,0,0,13,55,2,0,0,0,0,0,0,0,0,0,0,13,17,19,49,18,2,0,0,0,0,0,0,25,28,38,22,0,0,0,0,0,0,0,0,0,0,0,0,0,0,0,0,0,0],"split_type":[0,0,0,0,0,0,0,0,0,0,0,0,0,0,0,0,0,0,0,0,0,0,0,0,0,0,0,0,0,0,0,0,0,0,0,0,0,0,0,0,0,0,0,0,0,0,0,0,0,0,0,0,0,0,0,0,0,0,0,0,0],"sum_hessian":[6.58E2,1.2E2,5.38E2,1.1E2,1E1,7E0,5.31E2,1.05E2,5E0,3E0,7E0,5E0,2E0,6E0,5.25E2,6E1,4.5E1,3E0,2E0,2E0,1E0,6E0,1E0,2E0,3E0,2E0,4E0,3.4E1,4.91E2,7E0,5.3E1,3.2E1,1.3E1,1E0,1E0,1E0,1E0,3E0,1E0,2.3E1,1.1E1,2.2E1,4.69E2,4E0,3E0,4.4E1,9E0,2.7E1,5E0,4E0,9E0,1E0,2E0,9E0,1.4E1,5E0,6E0,1.2E1,1E1,7E0,4.62E2],"tree_param":{"num_deleted":"0","num_feature":"60","num_nodes":"61","size_leaf_vector":"0"}},{"base_weights":[4.9910364E-3,-6.568947E-1,9.019317E-3,-8.2069904E-1,-8.274078E-2,5.087233E-1,-1.0818813E-3,6.8869436E-1,-3.2074484E-1,-2.0324601E-1,1.8895295E-2,9.954376E-1,3.712071E-1,3.486105E-2,-3.8468656E-1,7.3032224E-1,6.554178E-3,1.4795262E-1,-1.9519551E-1,4.7600555E-1,-4.8662263E-1,1.5083967E-1,1.5618362E0,-6.269665E-1,1.5418646E-2,3.3122763E-2,5.415764E-1,1.1053467E-1,-2.9833767E-1,5.363566E-1,1.474762E-1,-5.8798105E-1,3.1920242E-1,9.571228E-1,-1.4306132E-1,-8.935394E-1,-1.3700867E-1,5.486153E-1,-3.9280048E-3],"categories":[],"categories_nodes":[],"categories_segments":[],"categories_sizes":[],"default_left":[1,1,1,0,0,1,1,1,0,1,1,0,0,1,1,1,1,1,1,1,1,1,0,1,1,0,0,0,0,0,0,0,0,0,0,0,0,0,0],"id":40,"left_children":[1,3,5,-1,-1,7,9,11,-1,13,15,-1,-1,17,19,21,23,25,27,29,31,33,-1,35,37,-1,-1,-1,-1,-1,-1,-1,-1,-1,-1,-1,-1,-1,-1],"loss_changes":[1.7629908E0,3.0829048E-1,3.3117821E0,0E0,0E0,2.1615384E0,2.6047428E0,7.017441E-1,0E0,2.5191426E0,5.1489573E0,0E0,0E0,7.0533353E-1,3.1269083E0,4.5828924E0,3.2556129E0,7.956571E-1,3.1677967E-1,2.0855665E-4,2.637999E0,1.7956991E0,0E0,9.224534E-1,5.8923445E0,0E0,0E0,0E0,0E0,0E0,0E0,0E0,0E0,0E0,0E0,0E0,0E0,0E0,0E0],"parents":[2147483647,0,0,1,1,2,2,5,5,6,6,7,7,9,9,10,10,13,13,14,14,15,15,16,16,17,17,18,18,19,19,20,20,21,21,23,23,24,24],"right_children":[2,4,6,-1,-1,8,10,12,-1,14,16,-1,-1,18,20,22,24,26,28,30,32,34,-1,36,38,-1,-1,-1,-1,-1,-1,-1,-1,-1,-1,-1,-1,-1,-1],"split_conditions":[1.9505E2,2.1475E2,2.125E2,-2.4620973E-1,-2.4822237E-2,2.3185E2,2.8505E2,2.2085E2,-9.622346E-2,2.236E2,2.773E2,2.986313E-1,1.1136213E-1,2.35E2,2.1535E2,2.711E2,2.891E2,2.3670001E2,2.1575E2,2.121E2,2.8995E2,2.797E2,4.685509E-1,3.0025E2,2.9615002E2,9.936829E-3,1.6247292E-1,3.3160403E-2,-8.950131E-2,1.60907E-1,4.424286E-2,-1.7639431E-1,9.576073E-2,2.8713685E-1,-4.29184E-2,-2.6806185E-1,-4.1102603E-2,1.6458459E-1,-1.1784015E-3],"split_indices":[22,0,23,0,0,8,23,0,0,27,29,0,0,58,15,32,22,46,33,0,39,1,0,4,24,0,0,0,0,0,0,0,0,0,0,0,0,0,0],"split_type":[0,0,0,0,0,0,0,0,0,0,0,0,0,0,0,0,0,0,0,0,0,0,0,0,0,0,0,0,0,0,0,0,0,0,0,0,0,0,0],"sum_hessian":[6.58E2,3E0,6.55E2,2E0,1E0,1.2E1,6.43E2,1E1,2E0,5.7E1,5.86E2,4E0,6E0,2.5E1,3.2E1,9E0,5.77E2,1.7E1,8E0,3E0,2.9E1,6E0,3E0,7E0,5.7E2,1.4E1,3E0,2E0,6E0,2E0,1E0,2.6E1,3E0,1E0,5E0,4E0,3E0,1.9E1,5.51E2],"tree_param":{"num_deleted":"0","num_feature":"60","num_nodes":"39","size_leaf_vector":"0"}},{"base_weights":[4.7941078E-3,-4.669966E-2,5.753682E-2,5.0761923E-3,-4.8915842E-1,1.7437317E0,3.1174986E-2,-2.0147916E-2,6.696139E-1,4.1146018E-2,-7.0292604E-1,2.2080612E0,-5.6793213E-2,1.6735535E0,1.5680265E-2,-4.322011E-2,5.179596E-1,1.8197021E0,2.1184963E-1,4.2990547E-1,-5.1134646E-1,-9.987488E-1,2.0043945E-1,-1.2390085E0,3.9529324E-2,-1.40287485E-2,-6.9155884E-1,9.288521E-1,-2.430603E-1,4.4419643E-1,-4.0090942E-1,5.2886963E-2,4.839274E-1,-4.4328478E-1,-1.362424E0,4.8135376E-1,-1.3058472E-1,1.8627167E0,2.7790774E-2,-4.7483936E-2,8.5386354E-1,-1.8481369E0,-1.0068427E-1,-7.688395E-2,1.2769114E0,-3.818868E-1,-2.3213705E-2,1.6248576E-1,5.2438354E-1,-7.30896E-2,-5.2827454E-1,-6.4341956E-1,1.7145793E-1,-1.6891403E0,-3.6838531E-1,4.738856E-1,-1.9264087E-2],"categories":[],"categories_nodes":[],"categories_segments":[],"categories_sizes":[],"default_left":[1,1,1,1,1,1,1,1,1,1,1,0,0,0,1,1,1,0,1,1,0,1,1,0,1,1,1,1,1,1,1,0,0,1,1,0,0,0,1,0,0,0,0,0,0,0,0,0,0,0,0,0,0,0,0,0,0],"id":41,"left_children":[1,3,5,7,9,11,13,15,17,19,21,-1,-1,-1,23,25,27,-1,29,31,-1,33,35,-1,37,39,41,43,45,47,49,-1,-1,51,53,-1,-1,-1,55,-1,-1,-1,-1,-1,-1,-1,-1,-1,-1,-1,-1,-1,-1,-1,-1,-1,-1],"loss_changes":[1.7924789E0,7.653982E0,1.4436728E1,5.0422025E0,3.9965897E0,4.305588E0,8.168077E0,3.6228292E0,5.4056587E0,2.5824842E0,6.88109E0,0E0,0E0,0E0,9.624383E0,5.270622E0,3.9781356E0,0E0,1.4594359E0,1.16977334E-1,0E0,3.2342186E0,7.1378344E-1,0E0,6.689729E0,7.8220587E0,8.014633E0,2.8986201E0,1.4373764E-1,7.292223E-2,8.664706E-2,0E0,0E0,1.2176018E0,2.950201E0,0E0,0E0,0E0,6.600281E0,0E0,0E0,0E0,0E0,0E0,0E0,0E0,0E0,0E0,0E0,0E0,0E0,0E0,0E0,0E0,0E0,0E0,0E0],"parents":[2147483647,0,0,1,1,2,2,3,3,4,4,5,5,6,6,7,7,8,8,9,9,10,10,14,14,15,15,16,16,18,18,19,19,21,21,22,22,24,24,25,25,26,26,27,27,28,28,29,29,30,30,33,33,34,34,38,38],"right_children":[2,4,6,8,10,12,14,16,18,20,22,-1,-1,-1,24,26,28,-1,30,32,-1,34,36,-1,38,40,42,44,46,48,50,-1,-1,52,54,-1,-1,-1,56,-1,-1,-1,-1,-1,-1,-1,-1,-1,-1,-1,-1,-1,-1,-1,-1,-1,-1],"split_conditions":[3.8315002E2,3.796E2,3.8345E2,4.0475E2,3.817E2,3.779E2,3.6915E2,3.774E2,4.0485E2,3.865E2,4.0035E2,6.6241837E-1,-1.7037965E-2,5.020661E-1,3.7095E2,3.8334998E2,3.773E2,5.4591066E-1,3.9034998E2,3.7105E2,-1.5340394E-1,3.8245E2,3.7945E2,-3.7170258E-1,3.6159998E2,3.794E2,3.827E2,3.6555E2,3.7465E2,3.5375E2,4.3815E2,1.586609E-2,1.4517823E-1,3.823E2,3.9909998E2,1.4440614E-1,-3.9175417E-2,5.58815E-1,3.774E2,-1.4245181E-2,2.5615907E-1,-5.544411E-1,-3.0205281E-2,-2.3065185E-2,3.8307342E-1,-1.1456605E-1,-6.9641117E-3,4.8745733E-2,1.5731508E-1,-2.192688E-2,-1.5848237E-1,-1.9302587E-1,5.143738E-2,-5.067421E-1,-1.105156E-1,1.4216569E-1,-5.7792263E-3],"split_indices":[19,17,19,0,4,13,17,17,1,31,11,0,0,0,14,12,24,0,13,1,0,14,26,0,4,14,9,21,19,18,0,0,0,15,14,0,0,0,33,0,0,0,0,0,0,0,0,0,0,0,0,0,0,0,0,0,0],"split_type":[0,0,0,0,0,0,0,0,0,0,0,0,0,0,0,0,0,0,0,0,0,0,0,0,0,0,0,0,0,0,0,0,0,0,0,0,0,0,0,0,0,0,0,0,0,0,0,0,0,0,0,0,0,0,0,0,0],"sum_hessian":[6.58E2,3.33E2,3.25E2,2.99E2,3.4E1,4E0,3.21E2,2.89E2,1E1,1E1,2.4E1,3E0,1E0,2E0,3.19E2,2.78E2,1.1E1,2E0,8E0,6E0,4E0,1.8E1,6E0,5E0,3.14E2,2.67E2,1.1E1,7E0,4E0,6E0,2E0,1E0,5E0,8E0,1E1,3E0,3E0,1E0,3.13E2,2.58E2,9E0,3E0,8E0,2E0,5E0,2E0,2E0,2E0,4E0,1E0,1E0,6E0,2E0,7E0,3E0,2.9E1,2.84E2],"tree_param":{"num_deleted":"0","num_feature":"60","num_nodes":"57","size_leaf_vector":"0"}},{"base_weights":[5.315083E-3,-2.4314743E-2,9.864356E-2,1.0954571E-2,-7.927218E-1,5.169949E-1,1.2973413E-2,-1.7269457E-2,4.2030483E-1,-2.0987375E-1,-1.6112943E0,8.940358E-1,-1.1270419E-1,-4.123487E-1,8.313121E-2,-2.463778E-2,1.6455536E0,1.2439003E0,1.282603E-1,-4.894928E-1,3.9133912E-1,-1.9664438E0,-2.4551392E-1,1.9949035E-1,1.6504631E0,-8.371582E-1,1.4130317E-1,4.824829E-2,-6.8505096E-1,9.5526886E-1,5.1241193E-2,-5.883176E-3,-1.2080165E0,1.6479187E0,2.1230062E-2,-2.4687313E-1,5.239665E-1,1.9544983E-1,-8.1096107E-1,4.9114227E-1,-3.9367676E-3,-3.227539E-1,-4.5516968E-2,-4.989624E-1,4.3647385E-1,2.6972759E0,8.5197955E-1,-8.533325E-2,3.3967894E-1,2.8809357E-1,-1.5327759E-1,-9.5074844E-1,-1.22924805E-1,1.31132E0,-5.644226E-2,4.2984772E-1,-1.1737627E-2,1.2998022E-2,-4.797884E-1,-1.4421539E0,9.840393E-2,1.980896E-1,-1.662445E-1,-5.433289E-1,-5.4745145E-2,-1.8262736E-1,1.0547659E0,-1.0357666E-1,3.2965088E-1,-8.988088E-1,-1.4193726E-1,-1.4692688E-1,-6.015167E-1,5.403951E-1,8.314005E-2,1.0155334E0,3.4991455E-1,1.4770508E-2,-1.569926E-1,8.8378906E-2,3.2520548E-1,-2.2658539E-1,6.997681E-2,-1.6789246E-1,-1.0386003E0,1.30778E-1,-3.3565268E-1,1.3961792E0,1.9207327E-1,-5.5532837E-1,6.4248726E-2],"categories":[],"categories_nodes":[],"categories_segments":[],"categories_sizes":[],"default_left":[1,1,1,1,1,1,1,1,1,1,1,1,1,1,1,1,0,1,1,1,1,0,1,1,1,0,1,1,1,1,1,1,1,0,1,1,1,1,1,0,0,0,0,1,1,0,1,1,0,1,1,1,1,0,0,1,1,0,0,0,0,0,0,0,0,0,0,0,0,0,0,0,0,0,0,0,0,0,0,0,0,0,0,0,0,0,0,0,0,0,0],"id":42,"left_children":[1,3,5,7,9,11,13,15,17,19,21,23,25,27,29,31,-1,33,35,37,39,-1,41,43,45,-1,47,49,51,53,55,57,59,-1,61,63,65,67,69,-1,-1,-1,-1,71,73,-1,75,77,-1,79,81,83,85,-1,-1,87,89,-1,-1,-1,-1,-1,-1,-1,-1,-1,-1,-1,-1,-1,-1,-1,-1,-1,-1,-1,-1,-1,-1,-1,-1,-1,-1,-1,-1,-1,-1,-1,-1,-1,-1],"loss_changes":[1.8247355E0,1.358638E1,5.691888E0,5.552944E0,1.0158104E1,6.5111637E0,4.002954E0,5.55404E0,7.2967806E0,2.545106E0,3.882719E0,8.602092E0,2.1424763E0,2.4195638E0,3.1494865E0,9.957909E0,0E0,3.9168644E0,3.691976E0,2.3603752E0,1.9918239E-1,0E0,3.165251E-2,1.8730018E0,4.388878E0,0E0,4.3361852E-1,4.3083853E-1,1.6753955E0,1.5148976E0,2.675595E0,3.9701555E0,2.2830858E0,0E0,1.324013E-1,7.1070206E-1,4.693345E0,1.946628E-1,2.8383112E-1,0E0,0E0,0E0,0E0,1.992935E-2,2.4882257E-1,0E0,1.3733816E-1,3.818571E-2,0E0,9.058714E-4,9.768716E-2,3.7583017E-1,3.1374425E-1,0E0,0E0,3.408134E0,4.0423107E0,0E0,0E0,0E0,0E0,0E0,0E0,0E0,0E0,0E0,0E0,0E0,0E0,0E0,0E0,0E0,0E0,0E0,0E0,0E0,0E0,0E0,0E0,0E0,0E0,0E0,0E0,0E0,0E0,0E0,0E0,0E0,0E0,0E0,0E0],"parents":[2147483647,0,0,1,1,2,2,3,3,4,4,5,5,6,6,7,7,8,8,9,9,10,10,11,11,12,12,13,13,14,14,15,15,17,17,18,18,19,19,20,20,22,22,23,23,24,24,26,26,27,27,28,28,29,29,30,30,31,31,32,32,34,34,35,35,36,36,37,37,38,38,43,43,44,44,46,46,47,47,49,49,50,50,51,51,52,52,55,55,56,56],"right_children":[2,4,6,8,10,12,14,16,18,20,22,24,26,28,30,32,-1,34,36,38,40,-1,42,44,46,-1,48,50,52,54,56,58,60,-1,62,64,66,68,70,-1,-1,-1,-1,72,74,-1,76,78,-1,80,82,84,86,-1,-1,88,90,-1,-1,-1,-1,-1,-1,-1,-1,-1,-1,-1,-1,-1,-1,-1,-1,-1,-1,-1,-1,-1,-1,-1,-1,-1,-1,-1,-1,-1,-1,-1,-1,-1,-1],"split_conditions":[4.0765002E2,4.0515002E2,4.1275E2,4.0440002E2,4.055E2,4.1559998E2,4.1490002E2,4.05E2,4.0745E2,4.1465E2,4.207E2,4.091E2,4.1405E2,4.128E2,4.1534998E2,4.0485E2,4.9366608E-1,4.192E2,4.2175E2,3.845E2,4.49E2,-5.8993316E-1,4.0075E2,3.724E2,4.098E2,-2.5114748E-1,4.148E2,4.108E2,4.178E2,4.2245E2,4.013E2,4.02E2,4.1625E2,4.9437562E-1,4.089E2,4.1035E2,3.9955E2,3.744E2,4.0815002E2,1.4734268E-1,-1.1810303E-3,-9.682617E-2,-1.3655091E-2,3.515E2,4.0995E2,8.091828E-1,4.0945E2,4.397E2,1.01903684E-1,3.8075E2,4.2235E2,3.8135E2,4.158E2,3.93396E-1,-1.693268E-2,3.999E2,4.0540002E2,3.8994069E-3,-1.4393653E-1,-4.326462E-1,2.952118E-2,5.942688E-2,-4.9873356E-2,-1.6299868E-1,-1.6423544E-2,-5.4788213E-2,3.164298E-1,-3.1072998E-2,9.889527E-2,-2.6964265E-1,-4.258118E-2,-4.4078067E-2,-1.8045503E-1,1.6211852E-1,2.4942016E-2,3.0466005E-1,1.0497437E-1,4.4311527E-3,-4.7097784E-2,2.6513673E-2,9.756165E-2,-6.797562E-2,2.0993043E-2,-5.036774E-2,-3.1158012E-1,3.92334E-2,-1.0069581E-1,4.188538E-1,5.7621982E-2,-1.6659851E-1,1.9274618E-2],"split_indices":[40,41,39,35,36,44,40,41,31,0,19,39,55,40,40,33,0,15,28,5,0,0,0,0,39,0,32,32,52,3,57,35,0,0,0,29,41,5,1,0,0,0,0,0,40,0,0,0,0,0,0,0,33,0,0,17,56,0,0,0,0,0,0,0,0,0,0,0,0,0,0,0,0,0,0,0,0,0,0,0,0,0,0,0,0,0,0,0,0,0,0],"split_type":[0,0,0,0,0,0,0,0,0,0,0,0,0,0,0,0,0,0,0,0,0,0,0,0,0,0,0,0,0,0,0,0,0,0,0,0,0,0,0,0,0,0,0,0,0,0,0,0,0,0,0,0,0,0,0,0,0,0,0,0,0,0,0,0,0,0,0,0,0,0,0,0,0,0,0,0,0,0,0,0,0,0,0,0,0,0,0,0,0,0,0],"sum_hessian":[6.58E2,5E2,1.58E2,4.79E2,2.1E1,2.6E1,1.32E2,4.49E2,3E1,1.3E1,8E0,1.6E1,1E1,1.8E1,1.14E2,4.48E2,1E0,7E0,2.3E1,9E0,4E0,6E0,2E0,9E0,7E0,2E0,8E0,7E0,1.1E1,3E0,1.11E2,4.42E2,6E0,5E0,2E0,1.2E1,1.1E1,3E0,6E0,3E0,1E0,1E0,1E0,2E0,7E0,2E0,5E0,4E0,4E0,3E0,4E0,7E0,4E0,2E0,1E0,1.5E1,9.6E1,4.26E2,1.6E1,5E0,1E0,1E0,1E0,4E0,8E0,5E0,6E0,1E0,2E0,5E0,1E0,1E0,1E0,5E0,2E0,3E0,2E0,2E0,2E0,1E0,2E0,3E0,1E0,1E0,6E0,2E0,2E0,2E0,1.3E1,1.1E1,8.5E1],"tree_param":{"num_deleted":"0","num_feature":"60","num_nodes":"91","size_leaf_vector":"0"}},{"base_weights":[5.3638928E-3,2.710151E-3,8.7576294E-1,3.966073E-2,-5.40052E-2,-6.9630793E-3,3.1952575E-1,-7.320012E-1,-1.5357631E-2,1.5587411E-2,-4.6881294E-1,1.0379578E0,6.147908E-2,4.7623903E-1,-1.2629211E0,8.249512E-1,-3.9701216E-2,-2.0056786E-2,3.7032166E-1,-1.1263977E0,-1.5575154E-1,6.93465E-1,2.1847737E0,1.5813599E0,-1.2359982E-2,-3.189392E-1,1.1126709E0,-1.6006906E0,-3.5609436E-1,-2.961731E-2,9.723155E-1,-4.3696085E-1,1.037186E-2,-3.3827085E-2,1.0039597E0,1.3944778E0,-2.0075259E-3,-5.642929E-1,4.3128118E-2,9.667494E-1,6.286011E-2,1.1690369E0,-6.9687635E-2,1.3916168E0,2.7738953E-1,-2.61734E-1,-1.7802277E0,-1.6662598E-2,-4.6368408E-1,5.421309E-2,-7.2907573E-1,-1.2010294E0,2.7385157E-2],"categories":[],"categories_nodes":[],"categories_segments":[],"categories_sizes":[],"default_left":[1,1,0,1,1,1,1,1,1,1,1,1,1,1,1,1,1,1,1,0,1,1,0,0,1,0,1,1,1,0,0,1,1,0,0,0,0,0,0,0,0,0,0,0,0,0,0,0,0,0,0,0,0],"id":43,"left_children":[1,3,-1,5,7,9,11,13,15,17,19,21,23,25,27,29,31,33,35,-1,37,39,-1,-1,41,-1,43,45,47,-1,-1,49,51,-1,-1,-1,-1,-1,-1,-1,-1,-1,-1,-1,-1,-1,-1,-1,-1,-1,-1,-1,-1],"loss_changes":[1.5197941E0,1.3810894E0,0E0,5.208525E0,6.8015103E0,3.5796323E0,1.0503361E1,9.582157E0,5.0854154E0,4.154731E0,3.118392E0,4.410982E0,4.8452883E0,2.8852582E0,2.4929876E0,9.1032743E-1,4.7985067E0,4.2501645E0,1.1442497E1,0E0,9.9934375E-1,2.1795788E0,0E0,0E0,2.9259892E0,0E0,3.129747E-1,1.2167988E0,1.3835132E-1,0E0,0E0,3.9134645E0,4.4640255E0,0E0,0E0,0E0,0E0,0E0,0E0,0E0,0E0,0E0,0E0,0E0,0E0,0E0,0E0,0E0,0E0,0E0,0E0,0E0,0E0],"parents":[2147483647,0,0,1,1,3,3,4,4,5,5,6,6,7,7,8,8,9,9,10,10,11,11,12,12,13,13,14,14,15,15,16,16,17,17,18,18,20,20,21,21,24,24,26,26,27,27,28,28,31,31,32,32],"right_children":[2,4,-1,6,8,10,12,14,16,18,20,22,24,26,28,30,32,34,36,-1,38,40,-1,-1,42,-1,44,46,48,-1,-1,50,52,-1,-1,-1,-1,-1,-1,-1,-1,-1,-1,-1,-1,-1,-1,-1,-1,-1,-1,-1,-1],"split_conditions":[4.5505E2,3.961E2,2.627289E-1,3.8955E2,3.8715E2,3.967E2,3.9315002E2,3.63E2,3.9405E2,3.8440002E2,3.9545E2,4.0305E2,3.6209998E2,3.9935E2,3.9075E2,3.9655E2,3.988E2,3.978E2,3.7295E2,-3.3791932E-1,3.7140002E2,3.9045E2,6.554321E-1,4.7440797E-1,3.818E2,-9.5681764E-2,4.226E2,3.865E2,4.031E2,-8.885194E-3,2.9169467E-1,3.835E2,3.39E2,-1.0148126E-2,3.011879E-1,4.1834337E-1,-6.022578E-4,-1.6928788E-1,1.2938436E-2,2.9002485E-1,1.8858034E-2,3.5071108E-1,-2.0906292E-2,4.1748506E-1,8.321686E-2,-7.852021E-2,-5.3406835E-1,-4.9987794E-3,-1.3910523E-1,1.6263928E-2,-2.1872273E-1,-3.6030883E-1,8.215548E-3],"split_indices":[58,4,0,14,7,21,15,37,7,20,20,28,4,0,35,3,1,3,10,0,5,31,0,0,13,0,0,0,0,0,0,36,44,0,0,0,0,0,0,0,0,0,0,0,0,0,0,0,0,0,0,0,0],"split_type":[0,0,0,0,0,0,0,0,0,0,0,0,0,0,0,0,0,0,0,0,0,0,0,0,0,0,0,0,0,0,0,0,0,0,0,0,0,0,0,0,0,0,0,0,0,0,0,0,0,0,0,0,0],"sum_hessian":[6.58E2,6.57E2,1E0,3.98E2,2.59E2,3.42E2,5.6E1,1.3E1,2.46E2,3.27E2,1.5E1,1.4E1,4.2E1,4E0,9E0,6E0,2.4E2,2.98E2,2.9E1,4E0,1.1E1,1.2E1,2E0,1E0,4.1E1,2E0,2E0,6E0,3E0,1E0,5E0,2.6E1,2.14E2,2.95E2,3E0,7E0,2.2E1,3E0,8E0,8E0,4E0,1E0,4E1,1E0,1E0,1E0,5E0,1E0,2E0,1E1,1.6E1,2E0,2.12E2],"tree_param":{"num_deleted":"0","num_feature":"60","num_nodes":"53","size_leaf_vector":"0"}},{"base_weights":[6.223016E-3,-2.1891832E-2,8.4105745E-2,-3.5458503E-3,-5.594368E-1,9.6513873E-1,1.4995314E-3,-1.7724656E-2,4.2772624E-1,-1.324056E-1,-1.4724243E0,-4.3006593E-1,1.5115829E0,-4.3802288E-1,4.6338554E-2,7.893562E-3,-4.596985E-1,1.03479E0,2.0715332E-2,-3.2673034E-1,5.5947876E-1,-9.034729E-2,-1.7953568E0,-6.3731384E-1,1.9946289E-1,3.829651E-1,2.3882701E0,1.7931111E-1,-7.6462096E-1,8.156128E-1,1.3507682E-2,-9.822119E-3,5.7963914E-1,-1.0874107E0,3.1270344E-2,-3.8663483E-1,2.5052753E-1,-4.4613987E-1,3.7397766E-1,-6.531779E-2,6.23436E-1,-1.860733E-1,6.0672E-1,-8.6596E-1,7.371521E-2,8.993347E-1,1.9850159E-1,2.0587595E-1,-8.691309E-2,3.1373102E-2,-1.491828E-1,-8.734131E-2,7.884674E-1,-8.4238686E-2,-1.300978E0,1.1553345E0,-1.3154384E-1,-1.5934245E-1,-5.34256E-1,1.0499573E-1,3.3342743E-1,-5.4803467E-1,-5.967204E-2,-1.0030736E0,-2.573751E-1,-1.09228514E-1,5.127454E-1,-7.699348E-1,-1.4423459E-2],"categories":[],"categories_nodes":[],"categories_segments":[],"categories_sizes":[],"default_left":[1,1,1,1,1,1,1,1,1,1,1,1,1,1,1,1,1,0,1,1,0,0,0,0,0,1,0,1,1,1,1,1,1,1,1,1,1,1,0,0,0,0,0,1,0,0,0,1,1,0,0,0,0,0,0,0,0,0,0,0,0,0,0,0,0,0,0,0,0],"id":44,"left_children":[1,3,5,7,9,11,13,15,17,19,21,23,25,27,29,31,33,-1,35,37,-1,-1,-1,-1,-1,39,-1,41,43,45,47,49,51,53,55,57,59,61,-1,-1,-1,-1,-1,63,-1,-1,-1,65,67,-1,-1,-1,-1,-1,-1,-1,-1,-1,-1,-1,-1,-1,-1,-1,-1,-1,-1,-1,-1],"loss_changes":[1.444828E0,4.780985E0,1.2734843E1,2.8815951E0,6.0430293E0,1.2086101E1,3.193246E0,5.1667256E0,3.6847878E0,1.7962016E0,2.0693817E0,7.794632E-1,9.969269E0,3.1614068E0,3.701607E0,4.3813624E0,7.7386823E0,0E0,1.0330029E0,1.0035585E0,0E0,0E0,0E0,0E0,0E0,6.875154E-1,0E0,1.0499055E0,9.1339636E-1,1.3147497E-1,2.7610164E0,2.415898E0,1.8795624E0,2.247099E0,2.897181E0,4.9082994E-2,4.9443573E-2,3.2170916E-1,0E0,0E0,0E0,0E0,0E0,4.9284124E-1,0E0,0E0,0E0,4.7941065E0,4.6430216E0,0E0,0E0,0E0,0E0,0E0,0E0,0E0,0E0,0E0,0E0,0E0,0E0,0E0,0E0,0E0,0E0,0E0,0E0,0E0,0E0],"parents":[2147483647,0,0,1,1,2,2,3,3,4,4,5,5,6,6,7,7,8,8,9,9,10,10,11,11,12,12,13,13,14,14,15,15,16,16,18,18,19,19,25,25,27,27,28,28,29,29,30,30,31,31,32,32,33,33,34,34,35,35,36,36,37,37,43,43,47,47,48,48],"right_children":[2,4,6,8,10,12,14,16,18,20,22,24,26,28,30,32,34,-1,36,38,-1,-1,-1,-1,-1,40,-1,42,44,46,48,50,52,54,56,58,60,62,-1,-1,-1,-1,-1,64,-1,-1,-1,66,68,-1,-1,-1,-1,-1,-1,-1,-1,-1,-1,-1,-1,-1,-1,-1,-1,-1,-1,-1,-1],"split_conditions":[4.0665E2,4.0505E2,4.0685E2,4.0495E2,4.1185E2,4.018E2,4.0575E2,4.0505E2,3.9715E2,4.157E2,4.0959998E2,4.2685E2,3.981E2,3.994E2,3.808E2,4.0265E2,4.1735E2,3.1043702E-1,4.0295E2,4.2084998E2,1.6784364E-1,-2.7104188E-2,-5.3860706E-1,-1.9119416E-1,5.983887E-2,3.873E2,7.164811E-1,4.147E2,4.3085E2,4.0275E2,4.1795E2,3.8925E2,3.8609998E2,3.871E2,4.0875E2,3.9609998E2,4.2455E2,4.0995E2,1.121933E-1,-1.9595336E-2,1.8703079E-1,-5.5821992E-2,1.82016E-1,4.1665002E2,2.2114564E-2,2.6980042E-1,5.955048E-2,4.144E2,4.04E2,9.411931E-3,-4.475484E-2,-2.6202394E-2,2.3654023E-1,-2.5271608E-2,-3.902934E-1,3.4660035E-1,-3.9463155E-2,-4.780274E-2,-1.602768E-1,3.149872E-2,1.0002823E-1,-1.6441041E-1,-1.7901612E-2,-3.009221E-1,-7.721253E-2,-3.2768555E-2,1.5382361E-1,-2.3098044E-1,-4.327038E-3],"split_indices":[27,28,28,25,18,29,32,19,33,47,0,0,5,33,56,20,8,0,0,3,0,0,0,0,0,0,0,29,18,5,29,6,25,30,5,2,15,28,0,0,0,0,0,13,0,0,0,29,18,0,0,0,0,0,0,0,0,0,0,0,0,0,0,0,0,0,0,0,0],"split_type":[0,0,0,0,0,0,0,0,0,0,0,0,0,0,0,0,0,0,0,0,0,0,0,0,0,0,0,0,0,0,0,0,0,0,0,0,0,0,0,0,0,0,0,0,0,0,0,0,0,0,0,0,0,0,0,0,0,0,0,0,0,0,0,0,0,0,0,0,0],"sum_hessian":[6.58E2,4.84E2,1.74E2,4.69E2,1.5E1,1.4E1,1.6E2,4.55E2,1.4E1,1.1E1,4E0,4E0,1E1,1.4E1,1.46E2,4.31E2,2.4E1,5E0,9E0,9E0,2E0,1E0,3E0,3E0,1E0,5E0,5E0,5E0,9E0,5E0,1.41E2,4.19E2,1.2E1,1E1,1.4E1,3E0,6E0,8E0,1E0,2E0,3E0,3E0,2E0,8E0,1E0,4E0,1E0,4.8E1,9.3E1,3.24E2,9.5E1,3E0,9E0,2E0,8E0,1E0,1.3E1,2E0,1E0,3E0,3E0,6E0,2E0,6E0,2E0,2.4E1,2.4E1,8E0,8.5E1],"tree_param":{"num_deleted":"0","num_feature":"60","num_nodes":"69","size_leaf_vector":"0"}},{"base_weights":[5.229273E-3,1.0178946E-2,-3.9882278E-1,5.482026E-3,6.16864E-1,-5.755717E-1,8.761597E-2,1.2717793E-2,-3.4893563E-1,6.9898987E-1,1.441803E-1,7.3394775E-3,1.2408447E-1,7.358569E-3,8.576355E-1,6.061554E-2,-4.7786254E-1,-5.08634E-3,1.9198151E-1,1.3966878E-1,-8.8272095E-2,-5.298729E-1,-1.7988078E-1,6.0823034E-3,-2.4931218E-1,7.224121E-1,3.6798477E-2],"categories":[],"categories_nodes":[],"categories_segments":[],"categories_sizes":[],"default_left":[1,1,1,1,1,0,1,1,1,0,0,0,0,1,0,1,1,1,1,0,0,0,0,0,0,0,0],"id":45,"left_children":[1,3,5,7,9,-1,11,13,15,-1,-1,-1,-1,17,-1,19,21,23,25,-1,-1,-1,-1,-1,-1,-1,-1],"loss_changes":[1.3220108E0,1.8545258E0,7.382493E-1,1.666223E0,9.331727E-2,0E0,7.871974E-3,2.8735626E0,7.1539414E-1,0E0,0E0,0E0,0E0,1.4553672E0,0E0,5.9409056E-2,5.966735E-2,1.6217532E0,3.2659693E0,0E0,0E0,0E0,0E0,0E0,0E0,0E0,0E0],"parents":[2147483647,0,0,1,1,2,2,3,3,4,4,6,6,7,7,8,8,13,13,15,15,16,16,17,17,18,18],"right_children":[2,4,6,8,10,-1,12,14,16,-1,-1,-1,-1,18,-1,20,22,24,26,-1,-1,-1,-1,-1,-1,-1,-1],"split_conditions":[4.4945E2,4.4765002E2,4.425E2,4.4025E2,4.442E2,-1.7267153E-1,4.345E2,4.4365E2,4.283E2,2.0969696E-1,4.3254092E-2,2.2018433E-3,3.7225343E-2,4.2665002E2,2.5729066E-1,4.266E2,4.499E2,4.2085E2,4.2685E2,4.1900635E-2,-2.648163E-2,-1.5896188E-1,-5.396424E-2,1.8246911E-3,-7.479366E-2,2.1672364E-1,1.1039544E-2],"split_indices":[23,23,7,32,0,0,0,30,38,0,0,0,0,43,0,0,40,45,42,0,0,0,0,0,0,0,0],"split_type":[0,0,0,0,0,0,0,0,0,0,0,0,0,0,0,0,0,0,0,0,0,0,0,0,0,0,0],"sum_hessian":[6.58E2,6.51E2,7E0,6.47E2,4E0,5E0,2E0,6.35E2,1.2E1,3E0,1E0,1E0,1E0,6.32E2,3E0,3E0,9E0,5.93E2,3.9E1,2E0,1E0,7E0,2E0,5.68E2,2.5E1,8E0,3.1E1],"tree_param":{"num_deleted":"0","num_feature":"60","num_nodes":"27","size_leaf_vector":"0"}},{"base_weights":[4.161991E-3,-7.829666E-1,6.548154E-3,2.7446288E-1,-1.8475313E-3,9.949341E-2,6.6614276E-1,-1.18849106E-1,2.6272707E-2,2.3419467E-1,-2.1674804E-1,1.7526245E-1,8.6776733E-1,-8.54024E-3,-3.779932E-1,5.5523545E-1,2.7101766E-3,-2.1763103E-1,3.587816E-1,-2.6075745E-1,-2.0355225E-2,-9.109968E-2,8.284416E-1,2.3443326E-1,-6.1350054E-1,6.46342E-2,1.4057083E0,-4.6172392E-1,1.5204862E-2,-2.8501892E-1,-4.1427612E-2,4.1009903E-1,-2.5878906E-2,-4.918811E-2,-6.0679626E-1,1.4430847E0,3.8304648E-1,2.5889078E-2,7.819214E-1,-3.341962E-1,-9.893799E-1,3.6686847E-1,-6.13208E-1,1.7580923E0,2.3237102E-1,2.0309448E-1,-9.026222E-1,-6.148246E-1,2.44187E-2],"categories":[],"categories_nodes":[],"categories_segments":[],"categories_sizes":[],"default_left":[1,0,1,1,1,1,1,1,1,1,1,0,0,1,1,1,1,1,1,0,0,1,1,1,1,1,1,1,1,0,0,0,0,0,0,0,0,0,0,0,0,0,0,0,0,0,0,0,0],"id":46,"left_children":[1,-1,3,5,7,9,11,13,15,17,19,-1,-1,21,23,25,27,29,31,-1,-1,33,35,37,39,41,43,45,47,-1,-1,-1,-1,-1,-1,-1,-1,-1,-1,-1,-1,-1,-1,-1,-1,-1,-1,-1,-1],"loss_changes":[1.242872E0,0E0,1.4805647E0,1.3043637E0,2.1055043E0,6.89733E-1,4.417541E-1,3.5414221E0,6.4297647E0,6.9728935E-1,3.7907884E-2,0E0,0E0,6.1563373E0,5.480369E0,9.08849E0,2.8794847E0,2.381429E-2,1.8827093E-1,0E0,0E0,1.7208587E0,1.6373038E0,1.2356868E0,2.5039406E0,3.2979734E0,2.8991928E0,3.9938426E0,2.818823E0,0E0,0E0,0E0,0E0,0E0,0E0,0E0,0E0,0E0,0E0,0E0,0E0,0E0,0E0,0E0,0E0,0E0,0E0,0E0,0E0],"parents":[2147483647,0,0,2,2,3,3,4,4,5,5,6,6,7,7,8,8,9,9,10,10,13,13,14,14,15,15,16,16,17,17,18,18,21,21,22,22,23,23,24,24,25,25,26,26,27,27,28,28],"right_children":[2,-1,4,6,8,10,12,14,16,18,20,-1,-1,22,24,26,28,30,32,-1,-1,34,36,38,40,42,44,46,48,-1,-1,-1,-1,-1,-1,-1,-1,-1,-1,-1,-1,-1,-1,-1,-1,-1,-1,-1,-1],"split_conditions":[1.903E2,-2.3489E-1,2.1535E2,2.173E2,3.0134998E2,2.3775E2,2.1375E2,3.0075E2,3.0125E2,2.1465E2,2.1685E2,5.2578736E-2,2.603302E-1,3.0745E2,2.876E2,2.9805E2,3.018E2,2.2875E2,2.199E2,-7.822724E-2,-6.1065676E-3,3.0734998E2,2.9090002E2,2.919E2,3.16E2,3.061E2,3.1925E2,2.995E2,3.005E2,-8.550568E-2,-1.2428285E-2,1.2302972E-1,-7.763672E-3,-1.4756434E-2,-1.8203889E-1,4.3292543E-1,1.1491395E-1,7.7667236E-3,2.3457642E-1,-1.00258864E-1,-2.9681396E-1,1.1006054E-1,-1.839624E-1,5.2742773E-1,6.9711305E-2,6.092835E-2,-2.7078667E-1,-1.8444738E-1,7.3256106E-3],"split_indices":[19,0,15,5,51,58,34,29,44,37,0,0,0,23,53,43,29,0,4,0,0,18,27,54,10,30,0,10,56,0,0,0,0,0,0,0,0,0,0,0,0,0,0,0,0,0,0,0,0],"split_type":[0,0,0,0,0,0,0,0,0,0,0,0,0,0,0,0,0,0,0,0,0,0,0,0,0,0,0,0,0,0,0,0,0,0,0,0,0,0,0,0,0,0,0,0,0,0,0,0,0],"sum_hessian":[6.58E2,1E0,6.57E2,1.9E1,6.38E2,1.4E1,5E0,1.23E2,5.15E2,1E1,4E0,2E0,3E0,8.7E1,3.6E1,2.1E1,4.94E2,2E0,8E0,3E0,1E0,8E1,7E0,1E1,2.6E1,1.4E1,7E0,1.2E1,4.82E2,1E0,1E0,7E0,1E0,7.5E1,5E0,2E0,5E0,8E0,2E0,1.6E1,1E1,1E1,4E0,5E0,2E0,5E0,7E0,6E0,4.76E2],"tree_param":{"num_deleted":"0","num_feature":"60","num_nodes":"49","size_leaf_vector":"0"}},{"base_weights":[3.435566E-3,-6.655197E-1,5.4636435E-3,2.522634E-1,-2.932815E-4,-7.852827E-2,4.815165E-1,-3.0060518E-1,5.8844844E-3,1.9615681E-1,-2.2763367E-1,6.4890444E-1,2.1782532E-1,-6.453095E-2,-8.156395E-1,4.7334725E-1,6.4786477E-4,-2.8500366E-1,-9.438578E-2,6.741333E-2,-1.3070896E-1,2.7705383E-1,8.255539E-1,-4.4802222E-1,9.401349E-3,1.3595581E-1,-7.527669E-4,-3.5008747E-2,-1.619873E-1,-3.4512836E-2,-7.3845565E-1,1.6936222E-1,-8.517379E-3],"categories":[],"categories_nodes":[],"categories_segments":[],"categories_sizes":[],"default_left":[1,0,1,1,1,1,1,1,1,0,1,0,0,1,0,1,1,0,0,1,1,0,0,1,1,0,0,0,0,0,0,0,0],"id":47,"left_children":[1,-1,3,5,7,9,11,13,15,-1,17,-1,-1,19,-1,21,23,-1,-1,25,27,-1,-1,29,31,-1,-1,-1,-1,-1,-1,-1,-1],"loss_changes":[8.97697E-1,0E0,9.349654E-1,1.175338E0,1.1965541E0,3.3135113E-1,2.5590086E-1,1.5279883E0,1.5467818E0,0E0,1.1321843E-2,0E0,0E0,9.612964E-2,0E0,2.5522804E-1,2.4627812E0,0E0,0E0,1.8791433E-2,1.528243E-2,0E0,0E0,1.4156771E0,1.7642142E0,0E0,0E0,0E0,0E0,0E0,0E0,0E0,0E0],"parents":[2147483647,0,0,2,2,3,3,4,4,5,5,6,6,7,7,8,8,10,10,13,13,15,15,16,16,19,19,20,20,23,23,24,24],"right_children":[2,-1,4,6,8,10,12,14,16,-1,18,-1,-1,20,-1,22,24,-1,-1,26,28,-1,-1,30,32,-1,-1,-1,-1,-1,-1,-1,-1],"split_conditions":[1.903E2,-1.9965592E-1,2.125E2,2.1575E2,2.157E2,2.1345001E2,2.0825E2,2.237E2,2.116E2,5.8847047E-2,2.281E2,1.9467135E-1,6.53476E-2,2.1504999E2,-2.4469186E-1,2.9184998E2,2.2220001E2,-8.5501105E-2,-2.8315736E-2,2.199E2,2.0904999E2,8.311615E-2,2.4766618E-1,2.221E2,2.992E2,4.0786743E-2,-2.2583008E-4,-1.0502624E-2,-4.8596192E-2,-1.0353851E-2,-2.2153671E-1,5.0808668E-2,-2.5552139E-3],"split_indices":[19,0,23,45,20,13,23,27,48,0,5,0,0,34,0,3,39,0,0,0,16,0,0,29,8,0,0,0,0,0,0,0,0],"split_type":[0,0,0,0,0,0,0,0,0,0,0,0,0,0,0,0,0,0,0,0,0,0,0,0,0,0,0,0,0,0,0,0,0],"sum_hessian":[6.58E2,1E0,6.57E2,1.4E1,6.43E2,6E0,8E0,1.2E1,6.31E2,2E0,4E0,4E0,4E0,9E0,3E0,6E0,6.25E2,2E0,2E0,3E0,6E0,5E0,1E0,1.1E1,6.14E2,1E0,2E0,2E0,4E0,5E0,6E0,6.1E1,5.53E2],"tree_param":{"num_deleted":"0","num_feature":"60","num_nodes":"33","size_leaf_vector":"0"}},{"base_weights":[2.243505E-3,-4.475241E-2,3.356845E-2,5.571002E-4,-6.640133E-1,3.9122924E-1,4.240405E-3,2.1962525E-2,-7.364807E-1,-1.20681E0,-2.0888728E-1,6.858456E-1,-1.0784912E-1,-3.448152E-1,2.5352588E-2,3.9998544E-3,1.0852509E0,-1.0688903E0,6.302897E-2,-2.7830505E-1,-1.2996957E0,-4.1237095E-1,1.17767334E-1,3.9004517E-1,1.2617391E0,-4.149704E-1,4.0511474E-1,1.5618896E-2,-4.30542E-1,5.90388E-1,5.0972984E-3,3.2697406E-2,-4.248169E-1,1.9963074E-1,1.313914E0,-1.269989E-1,2.2154236E-1,-6.565857E-2,-4.5921326E-1,2.5691733E-1,-6.0638428E-2,-1.0082245E-2,7.916129E-1,1.4229736E0,2.277832E-1,-5.1049805E-1,-8.559164E-2,6.054535E-1,2.0366669E-1,-7.846069E-2,1.0449219E-1,2.2015381E-1,-4.849701E-1,1.3678955E0,3.0647278E-2,-6.2319183E-1,2.0359352E-2,-3.9904278E-2,4.5411634E-1,-7.528865E-1,6.65596E-1,1.0070801E-2,-1.0102844E-1,1.5597026E-1,-3.388265E-1,2.5982666E-1,9.5236206E-1,-2.0904541E-2,-1.0748291E-1,-7.7746585E-2,-6.1423236E-1,3.5326385E-1,-2.3357543E-1,-1.3167115E-1,-1.0817947E0,3.9665312E-1,-1.4337411E-4],"categories":[],"categories_nodes":[],"categories_segments":[],"categories_sizes":[],"default_left":[1,1,1,1,1,1,1,1,1,1,1,1,1,1,1,1,1,0,1,0,0,1,1,1,1,1,1,1,1,1,1,1,1,0,0,0,0,0,0,0,1,1,1,0,0,0,1,0,0,0,0,0,1,0,1,1,1,0,0,0,0,0,0,0,0,0,0,0,0,0,0,0,0,0,0,0,0],"id":48,"left_children":[1,3,5,7,9,11,13,15,17,19,21,23,25,27,29,31,33,-1,35,-1,-1,37,39,41,43,45,47,49,51,53,55,57,59,-1,-1,-1,-1,-1,-1,-1,61,63,65,-1,-1,-1,67,-1,-1,-1,-1,-1,69,-1,71,73,75,-1,-1,-1,-1,-1,-1,-1,-1,-1,-1,-1,-1,-1,-1,-1,-1,-1,-1,-1,-1],"loss_changes":[9.716454E-1,7.40779E0,4.1521797E0,3.912997E0,4.194649E0,4.485068E0,2.7132847E0,4.598638E0,1.9277244E0,3.2824612E-1,7.797215E-1,2.744506E0,2.058616E0,6.5560055E-1,3.9683897E0,2.9427161E0,5.477371E-1,0E0,1.1850152E-1,0E0,0E0,8.353436E-2,1.3970485E-1,2.2574763E0,6.761265E-1,2.080239E-1,7.8478575E-2,5.0004344E-2,7.088425E-1,5.1805096E0,3.234586E0,6.8715634E0,5.8670874E0,0E0,0E0,0E0,0E0,0E0,0E0,0E0,9.585277E-3,4.895573E-1,3.509407E-1,0E0,0E0,0E0,2.0013675E-3,0E0,0E0,0E0,0E0,0E0,7.944641E-1,0E0,7.644548E-1,1.6608615E0,2.5383077E0,0E0,0E0,0E0,0E0,0E0,0E0,0E0,0E0,0E0,0E0,0E0,0E0,0E0,0E0,0E0,0E0,0E0,0E0,0E0,0E0],"parents":[2147483647,0,0,1,1,2,2,3,3,4,4,5,5,6,6,7,7,8,8,9,9,10,10,11,11,12,12,13,13,14,14,15,15,16,16,18,18,21,21,22,22,23,23,24,24,25,25,26,26,27,27,28,28,29,29,30,30,31,31,32,32,40,40,41,41,42,42,46,46,52,52,54,54,55,55,56,56],"right_children":[2,4,6,8,10,12,14,16,18,20,22,24,26,28,30,32,34,-1,36,-1,-1,38,40,42,44,46,48,50,52,54,56,58,60,-1,-1,-1,-1,-1,-1,-1,62,64,66,-1,-1,-1,68,-1,-1,-1,-1,-1,70,-1,72,74,76,-1,-1,-1,-1,-1,-1,-1,-1,-1,-1,-1,-1,-1,-1,-1,-1,-1,-1,-1,-1],"split_conditions":[3.7395E2,3.741E2,3.751E2,3.7545E2,3.797E2,3.8685E2,3.775E2,3.7925E2,3.7125E2,3.6775E2,3.7915E2,3.7505E2,4.0735E2,3.757E2,3.7384998E2,4.0475E2,3.6405E2,-3.2066712E-1,3.683E2,-8.349152E-2,-3.8990873E-1,3.707E2,3.7945E2,3.7815E2,4.1215002E2,3.7855E2,3.763E2,3.6375E2,3.7175E2,3.728E2,3.5415E2,3.2805E2,4.0675E2,5.9889223E-2,3.941742E-1,-3.8099673E-2,6.646271E-2,-1.9697571E-2,-1.3776398E-1,7.70752E-2,3.722E2,3.775E2,3.7065E2,4.268921E-1,6.833497E-2,-1.5314943E-1,3.8785E2,1.8163605E-1,6.110001E-2,-2.353821E-2,3.134766E-2,6.604615E-2,3.0825E2,4.1036865E-1,3.6795E2,3.658E2,3.825E2,-1.1971284E-2,1.3623491E-1,-2.2586595E-1,1.9967881E-1,3.0212405E-3,-3.0308533E-2,4.679108E-2,-1.0164796E-1,7.7948004E-2,2.8570864E-1,-6.271363E-3,-3.2244876E-2,-2.3323976E-2,-1.8426971E-1,1.0597916E-1,-7.0072636E-2,-3.9501347E-2,-3.2453844E-1,1.1899594E-1,-4.3012235E-5],"split_indices":[7,6,9,8,20,36,10,9,6,18,5,35,35,6,13,59,0,0,0,0,0,4,6,6,0,13,0,0,8,39,30,19,47,0,0,0,0,0,0,0,0,6,11,0,0,0,0,0,0,0,0,0,44,0,15,27,7,0,0,0,0,0,0,0,0,0,0,0,0,0,0,0,0,0,0,0,0],"split_type":[0,0,0,0,0,0,0,0,0,0,0,0,0,0,0,0,0,0,0,0,0,0,0,0,0,0,0,0,0,0,0,0,0,0,0,0,0,0,0,0,0,0,0,0,0,0,0,0,0,0,0,0,0,0,0,0,0,0,0,0,0,0,0,0,0,0,0,0,0,0,0,0,0,0,0,0,0],"sum_hessian":[6.58E2,2.63E2,3.95E2,2.46E2,1.7E1,2.9E1,3.66E2,2.4E2,6E0,7E0,1E1,1.8E1,1.1E1,2E1,3.46E2,2.37E2,3E0,4E0,2E0,1E0,6E0,6E0,4E0,1.3E1,5E0,7E0,4E0,4E0,1.6E1,1.1E1,3.35E2,2.23E2,1.4E1,1E0,2E0,1E0,1E0,1E0,5E0,2E0,2E0,7E0,6E0,4E0,1E0,5E0,2E0,1E0,3E0,2E0,2E0,1E0,1.5E1,4E0,7E0,7E0,3.28E2,1.91E2,3.2E1,1.1E1,3E0,1E0,1E0,5E0,2E0,2E0,4E0,1E0,1E0,4E0,1.1E1,3E0,4E0,4E0,3E0,1.6E1,3.12E2],"tree_param":{"num_deleted":"0","num_feature":"60","num_nodes":"77","size_leaf_vector":"0"}},{"base_weights":[2.4768093E-3,5.6708883E-3,-4.1644287E-1,3.161423E-4,3.8998753E-1,-4.6839905E-1,-1.0430908E-1,-1.718075E-2,9.079706E-2,1.02314E0,-9.711202E-2,-1.3540945E-3,-5.067964E-1,1.1763245E0,3.61591E-2,1.6558838E-1,-1.8276978E-1,7.6510627E-3,-5.20501E-1,-8.9668274E-1,4.391098E-2,1.3063278E0,3.2815552E-1,4.244966E-1,-6.49674E-2,-7.7814637E-3,3.9308167E-1,-8.308166E-1,-1.060852E-1,-1.2241873E0,-3.2434082E-1,-2.7552795E-1,2.9067993E-1,8.569397E-1,2.8752645E-2,-5.485573E-1,-1.1809478E-2],"categories":[],"categories_nodes":[],"categories_segments":[],"categories_sizes":[],"default_left":[1,1,1,1,1,0,0,1,1,0,1,1,1,1,1,0,0,1,1,1,1,0,0,1,1,0,0,0,0,0,0,0,0,0,0,0,0],"id":49,"left_children":[1,3,5,7,9,-1,-1,11,13,-1,15,17,19,21,23,-1,-1,25,27,29,31,-1,-1,33,35,-1,-1,-1,-1,-1,-1,-1,-1,-1,-1,-1,-1],"loss_changes":[8.841447E-1,1.3478129E0,3.2228112E-2,1.0258483E0,2.8750334E0,0E0,0E0,4.2070093E0,6.185121E0,0E0,1.6527851E-1,2.4677074E0,3.6895003E0,1.2264538E-1,3.993971E0,0E0,0E0,3.0901577E0,1.0692599E0,1.4773912E0,7.1071136E-1,0E0,0E0,3.5692322E0,2.0757594E0,0E0,0E0,0E0,0E0,0E0,0E0,0E0,0E0,0E0,0E0,0E0,0E0],"parents":[2147483647,0,0,1,1,2,2,3,3,4,4,7,7,8,8,10,10,11,11,12,12,13,13,14,14,17,17,18,18,19,19,20,20,23,23,24,24],"right_children":[2,4,6,8,10,-1,-1,12,14,-1,16,18,20,22,24,-1,-1,26,28,30,32,-1,-1,34,36,-1,-1,-1,-1,-1,-1,-1,-1,-1,-1,-1,-1],"split_conditions":[4.489E2,4.4495E2,4.3285E2,4.183E2,4.1325E2,-1.4051972E-1,-3.1292725E-2,4.1675E2,4.1984998E2,3.06942E-1,4.138E2,4.2734998E2,4.1525E2,4.198E2,4.1140002E2,4.9676515E-2,-5.4830935E-2,4.166E2,4.077E2,4.1875E2,4.1695E2,3.9189836E-1,9.844666E-2,4.2675E2,4.1555E2,-2.3344392E-3,1.17924504E-1,-2.49245E-1,-3.182556E-2,-3.672562E-1,-9.730225E-2,-8.265839E-2,8.720398E-2,2.5708193E-1,8.625794E-3,-1.6456719E-1,-3.5428435E-3],"split_indices":[55,51,8,8,1,0,0,9,8,0,1,1,29,3,16,0,0,12,7,9,6,0,0,4,15,0,0,0,0,0,0,0,0,0,0,0,0],"split_type":[0,0,0,0,0,0,0,0,0,0,0,0,0,0,0,0,0,0,0,0,0,0,0,0,0,0,0,0,0,0,0,0,0,0,0,0,0],"sum_hessian":[6.58E2,6.54E2,4E0,6.46E2,8E0,3E0,1E0,5.42E2,1.04E2,3E0,5E0,5.26E2,1.6E1,4E0,1E2,1E0,4E0,5.18E2,8E0,9E0,7E0,3E0,1E0,2E1,8E1,4.99E2,1.9E1,4E0,4E0,5E0,4E0,3E0,4E0,9E0,1.1E1,7E0,7.3E1],"tree_param":{"num_deleted":"0","num_feature":"60","num_nodes":"37","size_leaf_vector":"0"}},{"base_weights":[1.8643277E-3,2.6450774E-2,-5.1572874E-2,-3.8556475E-3,5.9189904E-1,-6.3145214E-1,-1.2848368E-2,2.0875674E-2,-4.2309698E-1,8.4431964E-4,9.0707195E-1,-9.911652E-2,-1.8044281E0,-5.2682495E-1,1.18252365E-2,1.1422845E-3,6.1886126E-1,-1.4498901E-1,-9.6118927E-1,2.2514343E-1,-3.3581543E-1,-1.0449219E-1,9.8679024E-1,-5.2094424E-1,2.68926E-1,-6.077314E-1,-1.6243489E-1,2.7353173E-1,-4.5657642E-2,-2.4753604E-2,1.6167602E-1,2.1711901E-1,1.2182251E0,1.701088E-1,-3.8256836E-1,-1.1057485E0,-3.516744E-1,4.7546387E-2,2.5115356E-1,-4.1300455E-1,-5.2124023E-2,4.2559204E-1,1.1687104E0,-5.741844E-1,-1.539917E-1,2.089437E-2,3.877182E-1,1.20152794E-1,1.1390991E0,-2.9248542E-1,3.1470805E-2,-4.276264E-3,-5.410837E-1,7.4721986E-1,3.0869193E-2,8.7216187E-1,-9.463065E-2,-5.081482E-1,3.3959526E-1,-4.650811E-1,1.800232E-1,1.0108948E-1,4.814453E-1,1.2761163E0,1.0102844E-1,5.899048E-2,-2.7648926E-2,4.5371246E-1,-2.4365439E-1,1.3470535E0,1.5364075E-1,-7.584839E-1,-1.377795E-1,3.6026353E-1,-5.980666E-2],"categories":[],"categories_nodes":[],"categories_segments":[],"categories_sizes":[],"default_left":[1,1,1,1,1,1,1,1,1,1,1,1,0,1,1,1,1,1,1,1,1,0,1,1,1,0,0,1,1,1,1,1,0,1,1,0,0,0,0,0,0,1,1,0,0,1,0,1,1,1,1,0,0,0,0,0,0,0,0,0,0,0,0,0,0,0,0,0,0,0,0,0,0,0,0],"id":50,"left_children":[1,3,5,7,9,11,13,15,17,19,21,23,-1,25,27,29,31,33,35,37,39,-1,41,43,45,-1,-1,47,49,51,53,55,-1,57,59,-1,-1,-1,-1,-1,-1,61,63,-1,-1,65,-1,67,69,71,73,-1,-1,-1,-1,-1,-1,-1,-1,-1,-1,-1,-1,-1,-1,-1,-1,-1,-1,-1,-1,-1,-1,-1,-1],"loss_changes":[8.671787E-1,7.748077E0,4.6626387E0,4.467241E0,4.2837763E0,7.9385705E0,2.4918342E0,4.8020077E0,3.4521842E0,7.55219E-1,1.3127146E0,1.6926007E0,0E0,1.6661668E-1,2.8406937E0,1.6460818E0,2.8657675E0,1.3377106E0,3.160243E-1,1.5774488E-2,6.606406E-2,0E0,9.319105E-1,9.2635155E-3,1.6868424E-1,0E0,0E0,4.3769674E0,2.9600081E0,3.6031022E0,4.189556E0,1.9204177E0,0E0,1.0922078E0,5.479351E-1,0E0,0E0,0E0,0E0,0E0,0E0,4.1953623E-2,1.0178299E0,0E0,0E0,7.1789552E-3,0E0,3.751091E0,8.176904E-1,2.5629272E0,3.5928988E0,0E0,0E0,0E0,0E0,0E0,0E0,0E0,0E0,0E0,0E0,0E0,0E0,0E0,0E0,0E0,0E0,0E0,0E0,0E0,0E0,0E0,0E0,0E0,0E0],"parents":[2147483647,0,0,1,1,2,2,3,3,4,4,5,5,6,6,7,7,8,8,9,9,10,10,11,11,13,13,14,14,15,15,16,16,17,17,18,18,19,19,20,20,22,22,23,23,24,24,27,27,28,28,29,29,30,30,31,31,33,33,34,34,41,41,42,42,45,45,47,47,48,48,49,49,50,50],"right_children":[2,4,6,8,10,12,14,16,18,20,22,24,-1,26,28,30,32,34,36,38,40,-1,42,44,46,-1,-1,48,50,52,54,56,-1,58,60,-1,-1,-1,-1,-1,-1,62,64,-1,-1,66,-1,68,70,72,74,-1,-1,-1,-1,-1,-1,-1,-1,-1,-1,-1,-1,-1,-1,-1,-1,-1,-1,-1,-1,-1,-1,-1,-1],"split_conditions":[4.0315002E2,4.0555E2,4.0245E2,4.0105E2,3.7325E2,3.9975E2,3.712E2,3.9715002E2,4.021E2,3.8215E2,3.8745E2,4.024E2,-5.4132843E-1,4.0775E2,4.0440002E2,3.9E2,4.034E2,3.886E2,4.1275E2,4.281E2,4.6225E2,-3.134766E-2,3.8355E2,4.2755E2,3.9009998E2,-1.8231943E-1,-4.873047E-2,4.1605E2,4.144E2,3.977E2,3.8909998E2,3.8425E2,3.6546755E-1,3.848E2,4.0675E2,-3.3172458E-1,-1.0550233E-1,1.4263917E-2,7.534607E-2,-1.2390137E-1,-1.5637208E-2,4.0425E2,4.3085E2,-1.7225534E-1,-4.619751E-2,4.298E2,1.1631546E-1,4.127E2,4.2505E2,4.009E2,4.1805E2,-1.2828793E-3,-1.6232511E-1,2.2416596E-1,9.260759E-3,2.6164857E-1,-2.8389197E-2,-1.5244447E-1,1.0187858E-1,-1.3952434E-1,5.400696E-2,3.0326845E-2,1.444336E-1,3.8283488E-1,3.0308533E-2,1.7697144E-2,-8.294678E-3,1.3611375E-1,-7.309632E-2,4.0411606E-1,4.6092227E-2,-2.2754517E-1,-4.1333854E-2,1.0807906E-1,-1.7941998E-2],"split_indices":[17,10,18,13,34,22,50,14,8,26,19,15,0,25,7,26,34,55,4,0,2,0,31,0,18,0,0,2,7,32,29,4,0,6,13,0,0,0,0,0,0,0,39,0,0,0,0,16,0,54,7,0,0,0,0,0,0,0,0,0,0,0,0,0,0,0,0,0,0,0,0,0,0,0,0],"split_type":[0,0,0,0,0,0,0,0,0,0,0,0,0,0,0,0,0,0,0,0,0,0,0,0,0,0,0,0,0,0,0,0,0,0,0,0,0,0,0,0,0,0,0,0,0,0,0,0,0,0,0,0,0,0,0,0,0,0,0,0,0,0,0,0,0,0,0,0,0,0,0,0,0,0,0],"sum_hessian":[6.58E2,4.51E2,2.07E2,4.29E2,2.2E1,1.2E1,1.95E2,4.06E2,2.3E1,8E0,1.4E1,9E0,3E0,8E0,1.87E2,3.94E2,1.2E1,1.6E1,7E0,5E0,3E0,1E0,1.3E1,4E0,5E0,6E0,2E0,3.3E1,1.54E2,3.4E2,5.4E1,8E0,4E0,7E0,9E0,5E0,2E0,1E0,4E0,2E0,1E0,4E0,9E0,3E0,1E0,2E0,3E0,2.9E1,4E0,3.6E1,1.18E2,3.28E2,1.2E1,9E0,4.5E1,2E0,6E0,1E0,6E0,8E0,1E0,1E0,3E0,8E0,1E0,1E0,1E0,1.5E1,1.4E1,3E0,1E0,8E0,2.8E1,2.5E1,9.3E1],"tree_param":{"num_deleted":"0","num_feature":"60","num_nodes":"75","size_leaf_vector":"0"}},{"base_weights":[1.4125609E-3,-3.8527284E-4,5.921936E-1,6.2005866E-2,-1.8141065E-2,-1.0537902E-2,8.04995E-1,-3.0874136E-1,8.427841E-3,2.4308236E-2,-4.0239093E-1,3.7530082E-1,1.11969E0,-2.2311123E-2,-5.811379E-1,9.216359E-1,-3.348289E-3,-6.3468345E-2,2.5852472E-1,-6.8468803E-1,7.330322E-2,1.824646E-1,1.2454834E0,1.897137E-1,-2.957123E-1,-7.9104996E-1,-1.8319266E-2,1.13357544E-1,1.6921285E0,-1.4467947E-1,1.5916662E-2,-1.631775E-2,-6.269444E-1,1.0454865E0,1.1874695E-1,-7.8045654E-1,-5.5038452E-2,-2.7900696E-2,2.3905945E-1,-1.5078124E-1,3.5779825E-1,-4.3193224E-1,4.6513367E-1,-4.951721E-1,-1.1007254E0,3.5673013E-1,-2.3968506E-1,-1.1921692E-1,2.3062134E-1,-6.10629E-3,-6.0256726E-1,2.800293E-1,-9.41305E-3],"categories":[],"categories_nodes":[],"categories_segments":[],"categories_sizes":[],"default_left":[1,1,0,1,1,1,1,1,1,1,1,0,1,1,1,1,1,1,1,1,1,0,0,1,1,1,1,1,0,1,1,0,0,0,0,0,0,0,0,0,0,0,0,0,0,0,0,0,0,0,0,0,0],"id":51,"left_children":[1,3,-1,5,7,9,11,13,15,17,19,-1,21,23,25,27,29,31,33,35,37,-1,-1,39,41,43,45,47,-1,49,51,-1,-1,-1,-1,-1,-1,-1,-1,-1,-1,-1,-1,-1,-1,-1,-1,-1,-1,-1,-1,-1,-1],"loss_changes":[7.0016927E-1,7.300599E-1,0E0,7.877771E0,3.9634402E0,1.839493E0,1.3376732E0,3.3420067E0,5.068247E0,2.5656898E0,1.5273478E0,0E0,5.9802055E-1,1.331393E0,2.584641E0,3.5448194E0,1.2710989E0,2.4074788E0,3.6158435E0,3.791492E-1,9.054583E-2,0E0,0E0,7.979645E-1,1.2373302E0,9.2096996E-1,6.6666466E-1,1.3658422E-1,0E0,3.549575E0,2.7521834E0,0E0,0E0,0E0,0E0,0E0,0E0,0E0,0E0,0E0,0E0,0E0,0E0,0E0,0E0,0E0,0E0,0E0,0E0,0E0,0E0,0E0,0E0],"parents":[2147483647,0,0,1,1,3,3,4,4,5,5,6,6,7,7,8,8,9,9,10,10,12,12,13,13,14,14,15,15,16,16,17,17,18,18,19,19,20,20,23,23,24,24,25,25,26,26,27,27,29,29,30,30],"right_children":[2,4,-1,6,8,10,12,14,16,18,20,-1,22,24,26,28,30,32,34,36,38,-1,-1,40,42,44,46,48,-1,50,52,-1,-1,-1,-1,-1,-1,-1,-1,-1,-1,-1,-1,-1,-1,-1,-1,-1,-1,-1,-1,-1,-1],"split_conditions":[4.565E2,3.0259998E2,1.7765808E-1,3.0745E2,3.1725E2,3.0484998E2,2.9984998E2,3.073E2,3.0025E2,3.0425E2,3.055E2,1.1259025E-1,2.933E2,3.0145E2,3.2215E2,3.076E2,3.7065002E2,3.0309998E2,3.044E2,3.7784998E2,3.1515E2,5.4739382E-2,3.7364504E-1,2.9940002E2,3.2590002E2,3.1415E2,3.0490002E2,2.949E2,5.076386E-1,4.0285E2,3.752E2,-4.895325E-3,-1.8808334E-1,3.1364596E-1,3.5624087E-2,-2.3413697E-1,-1.6511537E-2,-8.3702095E-3,7.1717836E-2,-4.5234375E-2,1.0733948E-1,-1.2957968E-1,1.395401E-1,-1.4855164E-1,-3.3021763E-1,1.07019044E-1,-7.190552E-2,-3.5765078E-2,6.9186404E-2,-1.831887E-3,-1.8077019E-1,8.400879E-2,-2.8239149E-3],"split_indices":[41,35,0,42,28,44,35,34,3,1,43,0,0,28,46,9,2,0,0,1,4,0,0,52,1,47,22,3,0,55,4,0,0,0,0,0,0,0,0,0,0,0,0,0,0,0,0,0,0,0,0,0,0],"split_type":[0,0,0,0,0,0,0,0,0,0,0,0,0,0,0,0,0,0,0,0,0,0,0,0,0,0,0,0,0,0,0,0,0,0,0,0,0,0,0,0,0,0,0,0,0,0,0,0,0,0,0,0,0],"sum_hessian":[6.58E2,6.57E2,1E0,1.45E2,5.12E2,1.33E2,1.2E1,4.2E1,4.7E2,1.23E2,1E1,6E0,6E0,2.1E1,2.1E1,5E0,4.65E2,9E1,3.3E1,6E0,4E0,1E0,5E0,1.2E1,9E0,1.5E1,6E0,3E0,2E0,5.5E1,4.1E2,8.4E1,6E0,4E0,2.9E1,5E0,1E0,3E0,1E0,4E0,8E0,8E0,1E0,9E0,6E0,2E0,4E0,1E0,2E0,4.3E1,1.2E1,3.5E1,3.75E2],"tree_param":{"num_deleted":"0","num_feature":"60","num_nodes":"53","size_leaf_vector":"0"}},{"base_weights":[2.1434778E-3,5.586004E-3,-2.7869034E-1,2.055863E-3,4.619751E-1,-4.153544E-1,8.7534584E-2,6.9077928E-3,-2.3547363E-1,5.112915E-1,1.3235474E-1,-1.04400635E-1,-4.5666504E-1,1.6036987E-2,1.1526489E-1,2.13267E-3,4.3568203E-1,4.6463013E-3,-3.0797425E-1,-1.3227265E-2,1.07897565E-1,7.384949E-1,2.394867E-2,4.9682617E-2,-6.523132E-2,-3.6936733E-1,-1.23542786E-1,1.7689398E-2,-1.4627956E-1,5.963606E-1,2.959769E-2,1.6282654E-1,-7.661947E-2],"categories":[],"categories_nodes":[],"categories_segments":[],"categories_sizes":[],"default_left":[1,1,1,1,1,1,1,1,1,0,0,0,0,0,0,1,1,1,1,1,1,0,1,0,0,0,0,0,0,0,0,0,0],"id":52,"left_children":[1,3,5,7,9,11,13,15,17,-1,-1,-1,-1,-1,-1,19,21,23,25,27,29,-1,31,-1,-1,-1,-1,-1,-1,-1,-1,-1,-1],"loss_changes":[6.3866323E-1,1.0494992E0,4.367562E-1,7.484314E-1,1.36066675E-2,2.9398084E-2,4.099449E-3,1.3012488E0,2.2774589E-1,0E0,0E0,0E0,0E0,0E0,0E0,1.0248886E0,8.5506105E-1,1.5828986E-2,6.759548E-2,2.269144E0,3.042077E0,0E0,6.834244E-2,0E0,0E0,0E0,0E0,0E0,0E0,0E0,0E0,0E0,0E0],"parents":[2147483647,0,0,1,1,2,2,3,3,4,4,5,5,6,6,7,7,8,8,15,15,16,16,17,17,18,18,19,19,20,20,22,22],"right_children":[2,4,6,8,10,12,14,16,18,-1,-1,-1,-1,-1,-1,20,22,24,26,28,30,-1,32,-1,-1,-1,-1,-1,-1,-1,-1,-1,-1],"split_conditions":[4.4945E2,4.4765002E2,4.425E2,4.4025E2,4.442E2,4.355E2,4.345E2,4.4495E2,4.283E2,1.5338746E-1,3.9706424E-2,-3.1320192E-2,-1.3699952E-1,4.8110965E-3,3.457947E-2,4.2215002E2,4.1325E2,4.266E2,4.473E2,4.039E2,4.238E2,2.2154847E-1,4.138E2,1.4904786E-2,-1.9569397E-2,-1.10810205E-1,-3.706284E-2,5.3068195E-3,-4.3883868E-2,1.789082E-1,8.879308E-3,4.8847962E-2,-2.2985842E-2],"split_indices":[23,23,7,32,0,2,0,51,38,0,0,0,0,0,0,2,1,0,31,2,1,0,1,0,0,0,0,0,0,0,0,0,0],"split_type":[0,0,0,0,0,0,0,0,0,0,0,0,0,0,0,0,0,0,0,0,0,0,0,0,0,0,0,0,0,0,0,0,0],"sum_hessian":[6.58E2,6.51E2,7E0,6.47E2,4E0,5E0,2E0,6.35E2,1.2E1,3E0,1E0,1E0,4E0,1E0,1E0,6.29E2,6E0,3E0,9E0,5.5E2,7.9E1,3E0,3E0,2E0,1E0,6E0,3E0,4.47E2,1.03E2,1E1,6.9E1,1E0,2E0],"tree_param":{"num_deleted":"0","num_feature":"60","num_nodes":"33","size_leaf_vector":"0"}},{"base_weights":[1.9659756E-3,-5.5809784E-1,3.6653096E-3,1.9633905E-3,5.609131E-1,1.8181972E-1,-3.387523E-3,2.0417433E-2,4.5559257E-1,-5.225601E-1,-1.1696006E-4,2.0607866E-1,-1.6816057E-1,5.9981155E-1,1.9747543E-1,-9.700775E-2,-6.32075E-1,2.8301322E-1,-4.174372E-3,2.6697794E-2,2.7249146E-1,-6.0806274E-2,-1.9894104E-1,6.2934875E-2,5.423775E-1,-1.4231674E-1,8.806258E-3],"categories":[],"categories_nodes":[],"categories_segments":[],"categories_sizes":[],"default_left":[1,0,1,1,0,1,1,1,1,1,1,1,1,0,0,0,0,1,1,0,0,0,0,0,0,0,0],"id":53,"left_children":[1,-1,3,5,-1,7,9,11,13,15,17,19,21,-1,-1,-1,-1,23,25,-1,-1,-1,-1,-1,-1,-1,-1],"loss_changes":[6.292392E-1,0E0,6.229397E-1,6.3290983E-1,0E0,8.3026177E-1,1.0849524E0,4.8980543E-1,1.4212966E-1,1.2510109E-1,7.318028E-1,7.611737E-2,1.1034057E-2,0E0,0E0,0E0,0E0,4.7958976E-1,1.1273671E0,0E0,0E0,0E0,0E0,0E0,0E0,0E0,0E0],"parents":[2147483647,0,0,2,2,3,3,5,5,6,6,7,7,8,8,9,9,10,10,11,11,12,12,17,17,18,18],"right_children":[2,-1,4,6,-1,8,10,12,14,16,18,20,22,-1,-1,-1,-1,24,26,-1,-1,-1,-1,-1,-1,-1,-1],"split_conditions":[1.903E2,-1.6742936E-1,4.5634998E2,2.1475E2,1.6827393E-1,2.169E2,1.9775E2,2.119E2,2.378E2,1.9070001E2,2.119E2,2.2085E2,2.1254999E2,1.7994347E-1,5.9242632E-2,-2.9102327E-2,-1.896225E-1,2.3515E2,2.858E2,8.009339E-3,8.174744E-2,-1.8241882E-2,-5.9682313E-2,1.8880464E-2,1.6271324E-1,-4.2695023E-2,2.6418776E-3],"split_indices":[19,0,28,23,0,32,0,32,54,0,48,8,1,0,0,0,0,26,40,0,0,0,0,0,0,0,0],"split_type":[0,0,0,0,0,0,0,0,0,0,0,0,0,0,0,0,0,0,0,0,0,0,0,0,0,0,0],"sum_hessian":[6.58E2,1E0,6.57E2,6.56E2,1E0,1.8E1,6.38E2,1.2E1,6E0,3E0,6.35E2,6E0,6E0,3E0,3E0,1E0,2E0,8E0,6.27E2,2E0,4E0,2E0,4E0,5E0,3E0,5.3E1,5.74E2],"tree_param":{"num_deleted":"0","num_feature":"60","num_nodes":"27","size_leaf_vector":"0"}},{"base_weights":[1.629935E-3,2.7997285E-2,-2.9823583E-2,1.6091876E-2,8.6768186E-1,-2.4302377E-1,3.1088062E-2,-1.8349307E-2,1.3097958E-1,9.7066246E-2,1.3490702E0,1.1120136E-2,-3.945647E-1,4.3190002E-1,1.7967918E-3,2.0412248E-2,-4.22966E-1,8.957863E-1,4.765381E-2,-1.2669373E-1,2.722931E-1,-3.052012E-1,2.6343587E-1,-5.4044133E-1,1.262848E-1,-2.4365997E-1,6.065416E-1,3.3946344E-1,-1.9316014E-2,-1.392129E-3,6.0686237E-1,-6.204853E-1,-2.4824355E-2,7.3038734E-2,1.1578623E0,-4.4694635E-1,1.4895776E-1,4.924927E-2,-4.885826E-1,-1.1646525E-1,4.6503296E-1,-3.5685134E-1,-8.751803E-1,6.417338E-1,-8.279419E-2,-1.8920898E-3,-3.2361856E-1,7.9290164E-1,-1.09939575E-2,1.095632E0,1.0237538E-1,-2.617798E-1,3.125053E-2,1.472122E-2,-7.713318E-1,1.0921631E0,1.8218486E-1,1.5940857E-1,-6.8310547E-1,1.5086147E-1,-4.2648315E-1,1.5821838E-1,-4.866028E-2,-1.2379557E0,-1.9058505E-1,4.665718E-1,3.9983112E-2,-1.0070801E-1,1.8279012E-1,-7.2745514E-1,-1.9976807E-1,-2.3802185E-1,8.443197E-2,6.146965E-1,-8.908081E-2,-4.2505646E-1,7.3387146E-2,-9.898041E-1,1.3552856E-1,1.9114685E-1,7.7145386E-1,-2.4920654E-1,2.7762857E-1,2.939682E-1,9.6473473E-1,-1.0687256E-1,1.3832092E-1,-1.4644165E-1,2.6547676E-1,-9.437452E-2,-7.535095E-1,3.0671367E-1,-3.3441205E-2],"categories":[],"categories_nodes":[],"categories_segments":[],"categories_sizes":[],"default_left":[1,1,1,1,1,1,1,1,1,1,0,1,1,1,1,1,1,1,1,0,0,1,1,1,1,1,1,1,1,1,1,1,1,1,0,1,1,1,1,1,1,1,1,1,1,0,0,1,1,0,1,1,1,0,0,0,0,0,0,0,0,0,0,0,0,0,0,0,0,0,0,0,0,0,0,0,0,0,0,0,0,0,0,0,0,0,0,0,0,0,0,0,0],"id":54,"left_children":[1,3,5,7,9,11,13,15,17,19,-1,21,23,25,27,29,31,33,35,-1,-1,37,39,41,43,45,47,49,51,53,55,57,59,61,-1,63,65,67,69,71,73,75,77,79,81,-1,-1,83,85,-1,87,89,91,-1,-1,-1,-1,-1,-1,-1,-1,-1,-1,-1,-1,-1,-1,-1,-1,-1,-1,-1,-1,-1,-1,-1,-1,-1,-1,-1,-1,-1,-1,-1,-1,-1,-1,-1,-1,-1,-1,-1,-1],"loss_changes":[5.4737395E-1,3.5748847E0,3.9164536E0,1.4070917E0,1.7238777E0,2.5847719E0,2.7581925E0,4.3059325E0,5.1830173E0,1.5212409E-1,0E0,2.1555352E0,3.2594E0,2.0354831E0,1.574957E0,3.2104268E0,1.8719726E0,1.64041E0,3.8244474E0,0E0,0E0,8.040577E-1,1.2029647E0,1.7156973E0,1.1308274E0,7.671335E-2,1.5048084E0,2.2184553E0,2.5583763E0,3.0260875E0,1.655891E0,8.9028645E-1,6.994317E-1,3.879779E-2,0E0,2.400259E0,2.1618934E0,1.1853554E-1,4.0659642E-1,1.6661894E-1,8.840637E-1,7.061167E-1,1.4085102E0,2.788949E-2,5.490173E-1,0E0,0E0,5.737319E-1,7.2047114E-2,0E0,4.8528332E-1,2.892341E0,3.0931497E0,0E0,0E0,0E0,0E0,0E0,0E0,0E0,0E0,0E0,0E0,0E0,0E0,0E0,0E0,0E0,0E0,0E0,0E0,0E0,0E0,0E0,0E0,0E0,0E0,0E0,0E0,0E0,0E0,0E0,0E0,0E0,0E0,0E0,0E0,0E0,0E0,0E0,0E0,0E0,0E0],"parents":[2147483647,0,0,1,1,2,2,3,3,4,4,5,5,6,6,7,7,8,8,9,9,11,11,12,12,13,13,14,14,15,15,16,16,17,17,18,18,21,21,22,22,23,23,24,24,25,25,26,26,27,27,28,28,29,29,30,30,31,31,32,32,33,33,35,35,36,36,37,37,38,38,39,39,40,40,41,41,42,42,43,43,44,44,47,47,48,48,50,50,51,51,52,52],"right_children":[2,4,6,8,10,12,14,16,18,20,-1,22,24,26,28,30,32,34,36,-1,-1,38,40,42,44,46,48,50,52,54,56,58,60,62,-1,64,66,68,70,72,74,76,78,80,82,-1,-1,84,86,-1,88,90,92,-1,-1,-1,-1,-1,-1,-1,-1,-1,-1,-1,-1,-1,-1,-1,-1,-1,-1,-1,-1,-1,-1,-1,-1,-1,-1,-1,-1,-1,-1,-1,-1,-1,-1,-1,-1,-1,-1,-1,-1],"split_conditions":[3.853E2,4.0295E2,3.97E2,3.757E2,3.9695E2,3.8125E2,3.994E2,3.774E2,3.726E2,3.9625E2,4.0472108E-1,3.7635E2,4.0834998E2,3.9345E2,3.7140002E2,3.7685E2,4.048E2,3.7265E2,3.7055E2,-3.800812E-2,8.168793E-2,3.7175E2,3.8635E2,3.975E2,4.0745E2,4.04E2,4.378E2,3.7395E2,3.9925E2,3.7155E2,3.8295E2,3.0155E2,4.315E2,4.2625E2,3.473587E-1,3.728E2,3.7015E2,3.8215002E2,3.9534998E2,3.7575E2,3.9634998E2,3.9775E2,4.219E2,3.6675E2,4.362E2,-5.6762696E-4,-9.708557E-2,3.9765E2,4.4065002E2,3.286896E-1,4.0875E2,4.034E2,3.9955E2,4.416366E-3,-2.3139955E-1,3.2764894E-1,5.465546E-2,4.7822572E-2,-2.0493165E-1,4.5258444E-2,-1.2794495E-1,4.7465518E-2,-1.4598084E-2,-3.713867E-1,-5.7175517E-2,1.3997155E-1,1.1994935E-2,-3.0212404E-2,5.4837037E-2,-2.1823655E-1,-5.993042E-2,-7.140656E-2,2.5329592E-2,1.8440896E-1,-2.6724244E-2,-1.2751694E-1,2.2016145E-2,-2.9694125E-1,4.065857E-2,5.7344057E-2,2.3143616E-1,-7.4761964E-2,8.328857E-2,8.8190466E-2,2.8942043E-1,-3.206177E-2,4.1496277E-2,-4.3932498E-2,7.964303E-2,-2.8312357E-2,-2.2605287E-1,9.2014104E-2,-1.0032361E-2],"split_indices":[36,30,35,53,0,59,35,33,52,0,0,56,56,37,15,35,1,28,2,0,0,42,18,56,52,0,0,5,45,53,3,53,1,0,0,28,15,9,1,18,24,54,2,0,0,0,0,29,2,0,48,41,57,0,0,0,0,0,0,0,0,0,0,0,0,0,0,0,0,0,0,0,0,0,0,0,0,0,0,0,0,0,0,0,0,0,0,0,0,0,0,0,0],"split_type":[0,0,0,0,0,0,0,0,0,0,0,0,0,0,0,0,0,0,0,0,0,0,0,0,0,0,0,0,0,0,0,0,0,0,0,0,0,0,0,0,0,0,0,0,0,0,0,0,0,0,0,0,0,0,0,0,0,0,0,0,0,0,0,0,0,0,0,0,0,0,0,0,0,0,0,0,0,0,0,0,0,0,0,0,0,0,0,0,0,0,0,0,0],"sum_hessian":[6.58E2,3.58E2,3E2,3.54E2,4E0,6.6E1,2.34E2,2.73E2,8.1E1,2E0,2E0,2.5E1,4.1E1,1.5E1,2.19E2,2.5E2,2.3E1,7E0,7.4E1,1E0,1E0,1.1E1,1.4E1,3.2E1,9E0,3E0,1.2E1,1.2E1,2.07E2,2.42E2,8E0,1.5E1,8E0,2E0,5E0,1.2E1,6.2E1,4E0,7E0,5E0,9E0,2.2E1,1E1,2E0,7E0,1E0,2E0,9E0,3E0,2E0,1E1,3.5E1,1.72E2,2.38E2,4E0,3E0,5E0,1E0,1.4E1,6E0,2E0,1E0,1E0,2E0,1E1,1.5E1,4.7E1,2E0,2E0,3E0,4E0,3E0,2E0,7E0,2E0,1.9E1,3E0,9E0,1E0,1E0,1E0,5E0,2E0,3E0,6E0,2E0,1E0,4E0,6E0,2.7E1,8E0,3.2E1,1.4E2],"tree_param":{"num_deleted":"0","num_feature":"60","num_nodes":"93","size_leaf_vector":"0"}},{"base_weights":[2.2683034E-3,-1.814975E-2,4.1733127E-2,-2.3920417E-3,-4.5920613E-1,2.5186503E-1,-2.2883773E-2,-9.970779E-3,7.90184E-1,-6.730652E-2,-7.93705E-1,1.4432831E0,2.011977E-1,-3.6129326E-1,2.3714153E-2,1.0572909E-2,-1.7633654E-1,1.4454651E-1,9.5721436E-1,-3.0989584E-1,6.5205894E-2,-9.7509766E-1,-3.685379E-1,1.9731445E-2,3.560355E-1,-5.154152E-1,1.0991415E-1,4.0844387E-1,-3.2916892E-4,-6.152344E-3,3.225146E-1,-6.281655E-1,-3.337945E-2,-3.8035583E-1,-8.4487915E-2,-4.981486E-2,1.3516998E-1,1.2997714E-1,-5.9155273E-1,1.6687012E-1,6.7984617E-1,-2.5671083E-1,-8.1136215E-1,2.3218536E-1,-8.97522E-2,8.106995E-2,7.973938E-1,-3.470941E-1,5.155164E-2,-1.4717472E-2,5.963501E-1,8.5123986E-1,1.3007531E-2,-8.655472E-1,3.6392212E-3,2.6771963E-1,-1.5948369E-1,-1.4755249E-2,-5.996704E-2,2.1483019E-1,-2.0148925E-1,3.745034E-1,-1.0544501E-1,9.7180176E-1,3.232422E-1,-3.6987305E-2,-3.0701828E-1,-9.7276E-1,-2.7191162E-1,6.991577E-2,2.6296997E-1,-9.148153E-2,1.9021606E-1,-2.5349936E-2,-5.787853E-1,2.1444042E-1,-1.5244368E-2],"categories":[],"categories_nodes":[],"categories_segments":[],"categories_sizes":[],"default_left":[1,1,1,1,1,1,1,1,1,1,1,0,1,1,1,1,1,0,0,1,1,0,0,1,1,1,1,1,1,1,1,1,1,0,0,1,0,1,0,1,1,1,1,1,0,1,0,1,1,0,0,0,0,0,0,0,0,0,0,0,0,0,0,0,0,0,0,0,0,0,0,0,0,0,0,0,0],"id":55,"left_children":[1,3,5,7,9,11,13,15,17,19,21,-1,23,25,27,29,31,-1,-1,33,35,-1,-1,37,39,41,43,45,47,49,51,53,55,-1,-1,57,-1,59,-1,61,63,65,67,69,-1,71,-1,73,75,-1,-1,-1,-1,-1,-1,-1,-1,-1,-1,-1,-1,-1,-1,-1,-1,-1,-1,-1,-1,-1,-1,-1,-1,-1,-1,-1,-1],"loss_changes":[5.317763E-1,3.0221684E0,3.0608296E0,2.5367103E0,1.9129283E0,2.9090111E0,2.736636E0,1.4304906E0,2.9300213E-1,2.7737582E-1,2.5761652E-1,0E0,1.4540625E0,1.5817428E0,1.4154121E0,1.9480385E0,2.9502711E0,0E0,0E0,1.5511245E-2,5.501741E-2,0E0,0E0,1.7616746E0,1.6016598E0,1.0167193E0,1.6731983E-1,1.081344E0,2.6265075E0,1.840758E0,3.098168E0,1.6529174E0,1.4096123E0,0E0,0E0,1.8296577E-4,0E0,6.6205645E-1,0E0,1.1137815E0,7.2699785E-1,9.918153E-2,3.4495878E-1,1.5958697E-3,0E0,1.304012E-1,0E0,1.4016883E0,1.3850697E0,0E0,0E0,0E0,0E0,0E0,0E0,0E0,0E0,0E0,0E0,0E0,0E0,0E0,0E0,0E0,0E0,0E0,0E0,0E0,0E0,0E0,0E0,0E0,0E0,0E0,0E0,0E0,0E0],"parents":[2147483647,0,0,1,1,2,2,3,3,4,4,5,5,6,6,7,7,8,8,9,9,10,10,12,12,13,13,14,14,15,15,16,16,19,19,20,20,23,23,24,24,25,25,26,26,27,27,28,28,29,29,30,30,31,31,32,32,35,35,37,37,39,39,40,40,41,41,42,42,43,43,45,45,47,47,48,48],"right_children":[2,4,6,8,10,12,14,16,18,20,22,-1,24,26,28,30,32,-1,-1,34,36,-1,-1,38,40,42,44,46,48,50,52,54,56,-1,-1,58,-1,60,-1,62,64,66,68,70,-1,72,-1,74,76,-1,-1,-1,-1,-1,-1,-1,-1,-1,-1,-1,-1,-1,-1,-1,-1,-1,-1,-1,-1,-1,-1,-1,-1,-1,-1,-1,-1],"split_conditions":[4.012E2,3.997E2,4.04E2,4.1205E2,3.9895E2,3.8555E2,4.0735E2,3.903E2,3.6595E2,4.002E2,4.1365002E2,4.3298495E-1,3.96E2,4.1725E2,3.9784998E2,3.87E2,3.922E2,4.3363955E-2,2.8716433E-1,4.15E2,4.0355E2,-2.925293E-1,-1.1056138E-1,3.897E2,4.109E2,4.038E2,4.215E2,3.9715002E2,4.0815E2,3.985E2,3.8525E2,3.989E2,3.9585E2,-1.1410675E-1,-2.5346376E-2,4.0059998E2,4.0550996E-2,3.9625E2,-1.7746583E-1,4.0015E2,4.1495E2,4.072E2,4.212E2,4.0559998E2,-2.692566E-2,3.6384998E2,2.3921815E-1,4.0865E2,4.1640002E2,-4.4152415E-3,1.7890503E-1,2.5537196E-1,3.9022595E-3,-2.5966418E-1,1.0917664E-3,8.031589E-2,-4.7845107E-2,-4.426575E-3,-1.7990112E-2,6.444906E-2,-6.044678E-2,1.1235102E-1,-3.1633504E-2,2.9154053E-1,9.697266E-2,-1.1096192E-2,-9.2105485E-2,-2.91828E-1,-8.157349E-2,2.0974733E-2,7.8890994E-2,-2.744446E-2,5.706482E-2,-7.604981E-3,-1.736356E-1,6.433213E-2,-4.5733107E-3],"split_indices":[10,9,17,13,11,1,19,11,0,9,0,0,17,14,6,11,11,0,0,0,9,0,0,59,10,20,0,5,6,8,6,16,12,0,0,0,0,18,0,24,10,4,2,0,0,0,0,30,22,0,0,0,0,0,0,0,0,0,0,0,0,0,0,0,0,0,0,0,0,0,0,0,0,0,0,0,0],"split_type":[0,0,0,0,0,0,0,0,0,0,0,0,0,0,0,0,0,0,0,0,0,0,0,0,0,0,0,0,0,0,0,0,0,0,0,0,0,0,0,0,0,0,0,0,0,0,0,0,0,0,0,0,0,0,0,0,0,0,0,0,0,0,0,0,0,0,0,0,0,0,0,0,0,0,0,0,0],"sum_hessian":[6.58E2,4.34E2,2.24E2,4.2E2,1.4E1,5.2E1,1.72E2,4.17E2,3E0,7E0,7E0,1E0,5.1E1,2E1,1.52E2,3.72E2,4.5E1,1E0,2E0,2E0,5E0,4E0,3E0,2.4E1,2.7E1,1.5E1,5E0,8E0,1.44E2,3.54E2,1.8E1,1E1,3.5E1,1E0,1E0,2E0,3E0,2.1E1,3E0,1.8E1,9E0,9E0,6E0,3E0,2E0,5E0,3E0,1.8E1,1.26E2,3.5E2,4E0,6E0,1.2E1,7E0,3E0,1E1,2.5E1,1E0,1E0,1.7E1,4E0,1E1,8E0,4E0,5E0,2E0,7E0,4E0,2E0,1E0,2E0,2E0,3E0,8E0,1E1,3.6E1,9E1],"tree_param":{"num_deleted":"0","num_feature":"60","num_nodes":"77","size_leaf_vector":"0"}},{"base_weights":[2.329663E-3,-1.1051868E-2,6.3774236E-2,2.8819518E-4,-2.116636E-1,4.105794E-1,1.3141045E-2,-1.1222562E-2,2.7105132E-1,-4.6352133E-1,-9.364537E-2,5.968351E-1,-8.129883E-2,1.20280944E-1,-5.570078E-2,2.2269427E-3,-2.8674182E-1,5.9855044E-1,-2.445221E-2,1.4033508E-1,-5.5654526E-1,3.66164E-2,-2.7139622E-1,1.3046265E-1,8.4469604E-1,-2.5082397E-1,1.1532593E-1,1.3972691E-2,6.346392E-1,-3.4555525E-1,1.7834004E-2,-1.2581903E-2,2.2887868E-1,-7.6375836E-1,-1.11806236E-1,1.0308075E0,2.6603916E-1,-3.269857E-1,2.3835537E-1,-5.8688354E-2,2.6572418E-1,-3.403778E-1,1.4022827E-1,1.8299103E-1,-3.982544E-2,9.23289E-1,1.8656921E-1,-2.4041443E-1,1.1127648E-1,7.2754514E-1,2.682495E-1,-7.076904E-1,-1.0597399E-1,-9.518432E-3,4.6776327E-1,1.0629242E-2,-2.6819178E-1,-8.2411194E-1,2.9591805E-1,1.9935825E-1,-2.8400168E-1,-1.0661825E-1,4.3642578E-1,-1.3977814E-1,-4.676005E-1,1.1452484E-1,3.0259705E-1,-2.1295166E-1,3.7846155E-2,6.600952E-2,3.1029257E-1,4.9484253E-2,2.1099854E-1,2.7381387E-1,-4.0319824E-1,2.1193272E-1,-1.02400035E-1,7.900492E-2,-3.5694885E-1,5.085122E-2,-2.5608215E-1],"categories":[],"categories_nodes":[],"categories_segments":[],"categories_sizes":[],"default_left":[1,1,1,1,1,1,1,1,1,1,1,1,1,1,1,1,1,1,1,0,0,1,1,1,1,0,0,1,1,1,1,1,1,0,1,0,1,1,1,1,1,0,0,1,0,0,0,1,1,0,0,0,1,1,0,0,0,0,0,0,0,0,0,0,0,0,0,0,0,0,0,0,0,0,0,0,0,0,0,0,0],"id":56,"left_children":[1,3,5,7,9,11,13,15,17,19,21,23,25,27,29,31,33,35,37,-1,-1,39,41,43,45,-1,-1,47,49,51,53,55,57,-1,59,-1,61,63,65,67,69,-1,-1,71,-1,-1,-1,73,75,-1,-1,-1,77,79,-1,-1,-1,-1,-1,-1,-1,-1,-1,-1,-1,-1,-1,-1,-1,-1,-1,-1,-1,-1,-1,-1,-1,-1,-1,-1,-1],"loss_changes":[5.425494E-1,1.2330837E0,2.066667E0,1.6050197E0,8.185837E-1,1.4227483E0,7.737731E-1,1.8312038E0,2.046956E0,5.8366084E-1,4.9617445E-1,1.1613495E0,1.9559072E-1,2.2330341E0,1.3702832E0,1.5871243E0,1.833892E0,1.163068E0,1.0320358E0,0E0,0E0,2.994507E-1,3.032812E-1,5.201249E-2,1.898117E-1,0E0,0E0,8.931015E-1,4.31149E-2,1.0528938E0,6.4439875E-1,2.6371017E0,2.2910328E0,0E0,1.0210779E0,0E0,4.9100184E-1,9.258461E-2,2.1030724E-2,1.5697673E-1,1.5121609E-2,0E0,0E0,4.515663E-3,0E0,0E0,0E0,9.474818E-1,5.809066E-1,0E0,0E0,0E0,4.4602624E-1,7.5727034E-1,0E0,0E0,0E0,0E0,0E0,0E0,0E0,0E0,0E0,0E0,0E0,0E0,0E0,0E0,0E0,0E0,0E0,0E0,0E0,0E0,0E0,0E0,0E0,0E0,0E0,0E0,0E0],"parents":[2147483647,0,0,1,1,2,2,3,3,4,4,5,5,6,6,7,7,8,8,9,9,10,10,11,11,12,12,13,13,14,14,15,15,16,16,17,17,18,18,21,21,22,22,23,23,24,24,27,27,28,28,29,29,30,30,31,31,32,32,34,34,36,36,37,37,38,38,39,39,40,40,43,43,47,47,48,48,52,52,53,53],"right_children":[2,4,6,8,10,12,14,16,18,20,22,24,26,28,30,32,34,36,38,-1,-1,40,42,44,46,-1,-1,48,50,52,54,56,58,-1,60,-1,62,64,66,68,70,-1,-1,72,-1,-1,-1,74,76,-1,-1,-1,78,80,-1,-1,-1,-1,-1,-1,-1,-1,-1,-1,-1,-1,-1,-1,-1,-1,-1,-1,-1,-1,-1,-1,-1,-1,-1,-1,-1],"split_conditions":[4.164E2,4.14E2,4.1655E2,4.094E2,3.963E2,4.2685E2,4.1015E2,4.048E2,4.1045E2,3.6459998E2,4.1675E2,3.851E2,4.2085E2,4.096E2,4.17E2,4.007E2,3.744E2,3.8195E2,4.0995E2,4.2100526E-2,-1.6696358E-1,4.1845E2,4.24E2,3.8785E2,4.2E2,-7.52472E-2,3.459778E-2,4.128E2,4.254E2,4.219E2,4.5E2,3.9434998E2,3.8375E2,-2.2912751E-1,3.99E2,3.0924225E-1,4.066E2,4.0265002E2,3.9590002E2,3.863E2,3.7715002E2,-1.02113344E-1,4.206848E-2,3.7555E2,-1.1947633E-2,2.7698672E-1,5.5970766E-2,3.8515002E2,4.3605E2,2.1826355E-1,8.047485E-2,-2.1230714E-1,4.2625E2,4.425E2,1.4032899E-1,3.1887728E-3,-8.045754E-2,-2.4723358E-1,8.877542E-2,5.980748E-2,-8.52005E-2,-3.1985477E-2,1.3092774E-1,-4.1933443E-2,-1.4028016E-1,3.4357455E-2,9.077912E-2,-6.38855E-2,1.1353847E-2,1.9802857E-2,9.308778E-2,1.4845276E-2,6.329957E-2,8.214416E-2,-1.20959476E-1,6.357982E-2,-3.0720012E-2,2.3701478E-2,-1.0708466E-1,1.5255366E-2,-7.682465E-2],"split_indices":[56,58,57,58,31,39,11,59,59,3,57,1,30,12,27,59,1,3,53,0,0,49,20,10,42,0,0,42,0,50,9,59,49,0,42,0,59,52,29,0,6,0,0,0,0,0,0,0,59,0,0,0,55,8,0,0,0,0,0,0,0,0,0,0,0,0,0,0,0,0,0,0,0,0,0,0,0,0,0,0,0],"split_type":[0,0,0,0,0,0,0,0,0,0,0,0,0,0,0,0,0,0,0,0,0,0,0,0,0,0,0,0,0,0,0,0,0,0,0,0,0,0,0,0,0,0,0,0,0,0,0,0,0,0,0,0,0,0,0,0,0,0,0,0,0,0,0,0,0,0,0,0,0,0,0,0,0,0,0,0,0,0,0,0,0],"sum_hessian":[6.58E2,5.41E2,1.17E2,5.13E2,2.8E1,1.4E1,1.03E2,4.93E2,2E1,8E0,2E1,1E1,4E0,4E1,6.3E1,4.71E2,2.2E1,9E0,1.1E1,1E0,7E0,1.2E1,8E0,4E0,6E0,2E0,2E0,3.4E1,6E0,1.2E1,5.1E1,4.43E2,2.8E1,5E0,1.7E1,3E0,6E0,5E0,6E0,9E0,3E0,7E0,1E0,3E0,1E0,5E0,1E0,9E0,2.5E1,4E0,2E0,4E0,8E0,4.9E1,2E0,4.07E2,3.6E1,1E0,2.7E1,6E0,1.1E1,2E0,4E0,3E0,2E0,3E0,3E0,3E0,6E0,1E0,2E0,1E0,2E0,2E0,7E0,1.7E1,8E0,5E0,3E0,4E1,9E0],"tree_param":{"num_deleted":"0","num_feature":"60","num_nodes":"81","size_leaf_vector":"0"}},{"base_weights":[1.8964428E-3,1.5389942E-1,-3.101928E-3,1.0668586E-2,6.101044E-1,-6.56662E-1,-1.9067498E-5,2.720337E-1,-1.20903015E-1,1.15722656E-1,7.0476913E-1,-8.0568695E-1,-1.7930603E-1,-6.7347206E-2,1.2793412E-2,-3.325653E-2,3.3974305E-1,1.056366E-1,-2.0815362E-1,-1.0331859E-2,-5.380804E-1,7.2620064E-1,3.3469147E-3,2.784729E-2,1.22283936E-1,-2.8996494E-1,5.2124023E-2,3.7471008E-2,-3.0370858E-1,5.3337097E-2,-7.665291E-1,3.0643716E-1,1.6223907E0,7.123871E-1,-2.0411452E-3,1.4862061E-2,6.3323975E-2,-3.2714598E-2,2.6452556E-1,8.830261E-2,-4.3014222E-1,1.7236328E-1,-1.5187073E-1,-8.113381E-1,-2.264328E-1,3.9989623E-1,-8.042908E-2,1.1470032E0,1.8518066E-1,-1.9150478E-1,1.141376E-2],"categories":[],"categories_nodes":[],"categories_segments":[],"categories_sizes":[],"default_left":[1,1,1,1,1,1,1,1,1,0,0,0,0,1,1,0,0,1,1,1,1,1,1,0,0,0,1,1,1,1,1,1,0,1,1,0,0,0,0,0,0,0,0,0,0,0,0,0,0,0,0],"id":57,"left_children":[1,3,5,7,9,11,13,15,17,-1,-1,-1,-1,19,21,-1,-1,23,25,27,29,31,33,-1,-1,-1,35,37,39,41,43,45,-1,47,49,-1,-1,-1,-1,-1,-1,-1,-1,-1,-1,-1,-1,-1,-1,-1,-1],"loss_changes":[5.0116396E-1,1.3656859E0,1.2874666E0,6.174895E-1,1.5244508E-1,6.894934E-2,5.5036354E-1,1.3532469E-1,2.5917727E-1,0E0,0E0,0E0,0E0,2.7320204E0,3.6097808E0,0E0,0E0,1.774665E-3,2.0675713E-1,1.3016113E0,1.5270784E0,2.1361547E0,2.02624E0,0E0,0E0,0E0,3.1087175E-4,1.2835308E0,6.8230677E-1,1.23877354E-1,9.896278E-3,2.4910027E-1,0E0,7.0412683E-1,1.3456223E0,0E0,0E0,0E0,0E0,0E0,0E0,0E0,0E0,0E0,0E0,0E0,0E0,0E0,0E0,0E0,0E0],"parents":[2147483647,0,0,1,1,2,2,3,3,4,4,5,5,6,6,7,7,8,8,13,13,14,14,17,17,18,18,19,19,20,20,21,21,22,22,26,26,27,27,28,28,29,29,30,30,31,31,33,33,34,34],"right_children":[2,4,6,8,10,12,14,16,18,-1,-1,-1,-1,20,22,-1,-1,24,26,28,30,32,34,-1,-1,-1,36,38,40,42,44,46,-1,48,50,-1,-1,-1,-1,-1,-1,-1,-1,-1,-1,-1,-1,-1,-1,-1,-1],"split_conditions":[2.1570001E2,2.18E2,2.1245E2,2.1470001E2,2.151E2,2.989E2,3.023E2,2.2295E2,2.692E2,3.47168E-2,2.1143074E-1,-2.4170609E-1,-5.379181E-2,3.0515E2,2.9984998E2,-9.97696E-3,1.0192292E-1,2.563E2,2.9055E2,3.023E2,2.968E2,3.1065E2,2.97E2,8.354187E-3,3.6685184E-2,-8.6989485E-2,2.826E2,2.9755E2,2.98E2,3.012E2,3.0545E2,3.2095E2,4.8671725E-1,3.0675E2,3.1515E2,4.4586184E-3,1.8997192E-2,-9.81438E-3,7.935767E-2,2.6490785E-2,-1.2904267E-1,5.1708985E-2,-4.556122E-2,-2.4340145E-1,-6.792984E-2,1.19968876E-1,-2.4128724E-2,3.4410095E-1,5.55542E-2,-5.7451434E-2,3.424128E-3],"split_indices":[56,54,53,45,0,0,1,16,11,0,0,0,0,5,3,0,0,0,7,0,1,2,7,0,0,0,0,4,15,0,3,0,0,4,13,0,0,0,0,0,0,0,0,0,0,0,0,0,0,0,0],"split_type":[0,0,0,0,0,0,0,0,0,0,0,0,0,0,0,0,0,0,0,0,0,0,0,0,0,0,0,0,0,0,0,0,0,0,0,0,0,0,0,0,0,0,0,0,0,0,0,0,0,0,0],"sum_hessian":[6.58E2,2E1,6.38E2,1.6E1,4E0,2E0,6.36E2,5E0,1.1E1,1E0,3E0,1E0,1E0,1.01E2,5.35E2,1E0,4E0,3E0,8E0,9.1E1,1E1,6E0,5.29E2,1E0,2E0,6E0,2E0,7.9E1,1.2E1,3E0,7E0,5E0,1E0,3E0,5.26E2,1E0,1E0,6.1E1,1.8E1,3E0,9E0,2E0,1E0,6E0,1E0,4E0,1E0,1E0,2E0,3.4E1,4.92E2],"tree_param":{"num_deleted":"0","num_feature":"60","num_nodes":"51","size_leaf_vector":"0"}},{"base_weights":[2.264784E-3,-4.7106934E-1,3.7000477E-3,1.8073654E-1,-1.846791E-3,2.3814391E-2,3.0696246E-1,-2.7503496E-1,3.8203432E-3,1.0728709E-1,-8.111572E-2,4.2733002E-1,1.3543446E-1,-7.388087E-2,-4.3689838E-1,1.4790049E-1,-3.6676046E-3,2.0195007E-2,1.20666504E-1,-9.643555E-2,-9.918213E-3,4.995346E-1,1.8861389E-1,2.2888184E-3,1.6160583E-1,3.8360595E-3,-1.7878215E-1,7.2429515E-2,5.2586365E-1,-2.4615784E-1,4.7294064E-3,1.8441391E-1,3.5186768E-2,-3.5364788E-2,4.175822E-2,-3.0654398E-1,1.1500916E-1,1.1250305E-1,6.0107803E-1,-3.7124634E-2,-5.5506706E-1,6.740761E-1,6.485649E-5],"categories":[],"categories_nodes":[],"categories_segments":[],"categories_sizes":[],"default_left":[1,0,1,1,1,1,1,1,1,1,1,1,1,1,0,1,1,0,0,0,0,0,0,0,1,1,0,1,1,1,1,0,0,0,0,0,0,0,0,0,0,0,0],"id":58,"left_children":[1,-1,3,5,7,9,11,13,15,17,19,21,23,25,-1,27,29,-1,-1,-1,-1,-1,-1,-1,31,33,-1,35,37,39,41,-1,-1,-1,-1,-1,-1,-1,-1,-1,-1,-1,-1],"loss_changes":[4.4944072E-1,0E0,6.464851E-1,3.8884276E-1,9.9034685E-1,9.629067E-2,1.6923523E-1,3.9099485E-1,6.769905E-1,4.554577E-3,4.4971965E-3,9.199262E-3,2.0537734E-2,5.775405E-2,0E0,8.461946E-1,1.2167715E0,0E0,0E0,0E0,0E0,0E0,0E0,0E0,7.927954E-3,8.909674E-3,0E0,4.7094238E-1,8.7830186E-2,1.2708391E0,1.8045884E0,0E0,0E0,0E0,0E0,0E0,0E0,0E0,0E0,0E0,0E0,0E0,0E0],"parents":[2147483647,0,0,2,2,3,3,4,4,5,5,6,6,7,7,8,8,9,9,10,10,11,11,12,12,13,13,15,15,16,16,24,24,25,25,27,27,28,28,29,29,30,30],"right_children":[2,-1,4,6,8,10,12,14,16,18,20,22,24,26,-1,28,30,-1,-1,-1,-1,-1,-1,-1,32,34,-1,36,38,40,42,-1,-1,-1,-1,-1,-1,-1,-1,-1,-1,-1,-1],"split_conditions":[1.903E2,-1.4132081E-1,2.1535E2,2.146E2,2.1804999E2,2.114E2,2.1945E2,2.18E2,2.8605E2,1.9070001E2,2.213E2,2.364E2,2.1225E2,2.2579999E2,-1.3106953E-1,2.9025E2,2.6945E2,6.0585025E-3,3.6199953E-2,-2.8930666E-2,-2.975464E-3,1.4986038E-1,5.658417E-2,6.866455E-4,2.613E2,2.193E2,-5.3634647E-2,2.0904999E2,2.7140002E2,2.905E2,2.7245E2,5.5324174E-2,1.0556031E-2,-1.0609437E-2,1.2527467E-2,-9.1963194E-2,3.450275E-2,3.3750918E-2,1.8032342E-1,-1.11373905E-2,-1.6652012E-1,2.0222284E-1,1.9456947E-5],"split_indices":[19,0,17,8,17,7,0,25,2,8,0,49,5,0,0,17,36,0,0,0,0,0,0,0,0,0,0,8,2,8,35,0,0,0,0,0,0,0,0,0,0,0,0],"split_type":[0,0,0,0,0,0,0,0,0,0,0,0,0,0,0,0,0,0,0,0,0,0,0,0,0,0,0,0,0,0,0,0,0,0,0,0,0,0,0,0,0,0,0],"sum_hessian":[6.58E2,1E0,6.57E2,1.9E1,6.38E2,9E0,1E1,1.2E1,6.26E2,5E0,4E0,5E0,5E0,6E0,6E0,3E1,5.96E2,1E0,4E0,3E0,1E0,3E0,2E0,1E0,4E0,4E0,2E0,2.6E1,4E0,1.9E1,5.77E2,3E0,1E0,2E0,2E0,2E0,2.4E1,1E0,3E0,1.2E1,7E0,3E0,5.74E2],"tree_param":{"num_deleted":"0","num_feature":"60","num_nodes":"43","size_leaf_vector":"0"}},{"base_weights":[1.7893304E-3,-1.4672628E-4,3.188553E-1,2.9068815E-3,-2.4785233E-1,1.5092932E-4,2.9822794E-1,-6.990051E-2,-2.6328823E-1,-2.5421907E-3,2.4558803E-1,4.4270832E-2,4.141388E-1,5.5726306E-3,-1.5148279E-1,3.8255006E-1,-6.454468E-2,-1.852417E-2,8.493042E-2,-5.4313806E-3,1.7995368E-1,-1.9360352E-1,2.022934E-1,-7.69043E-2,-1.991272E-2],"categories":[],"categories_nodes":[],"categories_segments":[],"categories_sizes":[],"default_left":[1,1,0,1,1,1,1,0,0,1,1,1,0,1,1,0,1,0,0,0,0,0,0,0,0],"id":59,"left_children":[1,3,-1,5,7,9,11,-1,-1,13,15,17,-1,19,21,-1,23,-1,-1,-1,-1,-1,-1,-1,-1],"loss_changes":[4.0457898E-1,4.969161E-1,0E0,5.2817005E-1,3.570795E-3,4.263029E-1,1.5828401E-1,0E0,0E0,7.7194774E-1,3.2202637E-1,9.2329215E-3,0E0,1.1638253E0,5.30908E-1,0E0,1.2352783E-4,0E0,0E0,0E0,0E0,0E0,0E0,0E0,0E0],"parents":[2147483647,0,0,1,1,3,3,4,4,5,5,6,6,9,9,10,10,11,11,13,13,14,14,16,16],"right_children":[2,4,-1,6,8,10,12,-1,-1,14,16,18,-1,20,22,-1,24,-1,-1,-1,-1,-1,-1,-1,-1],"split_conditions":[4.6745E2,4.487E2,9.565659E-2,4.4945E2,4.446E2,4.5045E2,4.2305E2,-2.0970155E-2,-7.898647E-2,4.3175E2,4.598E2,4.3895E2,1.2424164E-1,4.2434998E2,4.4495E2,1.14765026E-1,4.6745E2,-5.557251E-3,2.5479127E-2,-1.6294143E-3,5.3986106E-2,-5.8081057E-2,6.0688023E-2,-2.3071289E-2,-5.9738164E-3],"split_indices":[15,12,0,21,0,9,49,0,0,9,0,0,0,19,12,0,0,0,0,0,0,0,0,0,0],"split_type":[0,0,0,0,0,0,0,0,0,0,0,0,0,0,0,0,0,0,0,0,0,0,0,0,0],"sum_hessian":[6.58E2,6.55E2,3E0,6.48E2,7E0,6.43E2,5E0,1E0,6E0,6.37E2,6E0,2E0,3E0,6.05E2,3.2E1,4E0,2E0,1E0,1E0,5.7E2,3.5E1,2.9E1,3E0,1E0,1E0],"tree_param":{"num_deleted":"0","num_feature":"60","num_nodes":"25","size_leaf_vector":"0"}},{"base_weights":[1.6695291E-3,4.853319E-2,-1.1998485E-2,-1.1574316E-2,4.6040425E-1,-2.1420506E-1,6.096568E-3,1.84217E-2,-4.2023385E-1,7.6956177E-1,1.05206296E-1,-8.853004E-3,-4.0048635E-1,9.884491E-1,-2.3306413E-3,-1.8632034E-2,5.5339813E-1,-1.16475426E-1,-7.70813E-1,2.3301697E-1,9.662214E-1,-7.7597484E-2,3.9881134E-1,1.15864344E-1,-2.2600174E-1,-7.5255966E-1,-1.8601482E-1,1.3798218E0,3.9805093E-1,-9.035383E-2,1.69305E-2,2.3272771E-2,-1.8023682E-1,7.5346375E-1,-3.1199137E-2,-1.9014485E-1,-3.2104492E-2,-2.3725383E-1,3.371582E-2,-7.459513E-2,2.2996351E-1,7.967123E-2,-3.4117126E-1,-1.0635376E-2,-8.570295E-1,1.2484232E-1,-3.539276E-1,9.464786E-2,-2.3800725E-1,2.77857E-1,1.070133E-3,-1.0211045E-2,6.146301E-1,-5.37677E-1,7.007243E-2,9.8424274E-1,3.9201355E-1,9.246826E-3,-5.6045532E-2,-3.9662678E-2,-4.714966E-3,-1.0223389E-2,4.725647E-2,5.738322E-2,-1.5493011E-1,1.46484375E-2,3.3517966E-1,1.6479492E-2,1.03027344E-1,-2.9466757E-1,-1.0230408E0,-1.3346863E-1,2.0319824E-1,-5.294364E-1,4.169464E-2,-4.5550346E-2,7.2203285E-1,-7.08964E-2,-5.033027E-1,4.8321065E-2,5.48468E-1,4.8562622E-1,-5.68154E-3],"categories":[],"categories_nodes":[],"categories_segments":[],"categories_sizes":[],"default_left":[1,1,1,1,1,1,1,1,1,1,1,1,1,1,1,1,1,1,0,0,0,1,0,1,1,1,1,0,0,1,1,1,1,1,1,0,1,0,1,1,1,1,0,0,1,1,1,1,1,1,1,0,0,0,0,0,0,0,0,0,0,0,0,0,0,0,0,0,0,0,0,0,0,0,0,0,0,0,0,0,0,0,0],"id":60,"left_children":[1,3,5,7,9,11,13,15,17,19,21,23,25,27,29,31,33,35,-1,-1,-1,37,-1,39,41,43,45,-1,-1,47,49,51,53,55,57,-1,59,-1,61,63,65,67,-1,-1,69,71,73,75,77,79,81,-1,-1,-1,-1,-1,-1,-1,-1,-1,-1,-1,-1,-1,-1,-1,-1,-1,-1,-1,-1,-1,-1,-1,-1,-1,-1,-1,-1,-1,-1,-1,-1],"loss_changes":[4.226937E-1,3.6940536E0,1.8710237E0,1.61356E0,2.0054674E0,1.6030905E0,3.8931942E0,2.4485245E0,8.6864173E-1,8.300209E-1,5.6766784E-1,5.9491205E-1,1.5212262E0,3.7502337E-1,7.932942E-1,7.8974855E-1,9.5916986E-1,3.1188853E-2,0E0,0E0,0E0,1.3240233E-1,0E0,3.2139194E-1,3.0881518E-1,6.1095476E-1,8.271385E-1,0E0,0E0,2.317082E0,1.5888445E0,1.8477597E0,2.1849704E0,1.14654064E-1,3.5330525E-3,0E0,6.410526E-4,0E0,3.4579486E-3,7.250526E-2,1.9898173E-1,2.729902E-3,0E0,0E0,3.520522E-1,1.4856175E-1,7.164264E-1,3.3753023E0,2.0480034E0,1.3400263E0,1.190337E0,0E0,0E0,0E0,0E0,0E0,0E0,0E0,0E0,0E0,0E0,0E0,0E0,0E0,0E0,0E0,0E0,0E0,0E0,0E0,0E0,0E0,0E0,0E0,0E0,0E0,0E0,0E0,0E0,0E0,0E0,0E0,0E0],"parents":[2147483647,0,0,1,1,2,2,3,3,4,4,5,5,6,6,7,7,8,8,9,9,10,10,11,11,12,12,13,13,14,14,15,15,16,16,17,17,21,21,23,23,24,24,25,25,26,26,29,29,30,30,31,31,32,32,33,33,34,34,36,36,38,38,39,39,40,40,41,41,44,44,45,45,46,46,47,47,48,48,49,49,50,50],"right_children":[2,4,6,8,10,12,14,16,18,20,22,24,26,28,30,32,34,36,-1,-1,-1,38,-1,40,42,44,46,-1,-1,48,50,52,54,56,58,-1,60,-1,62,64,66,68,-1,-1,70,72,74,76,78,80,82,-1,-1,-1,-1,-1,-1,-1,-1,-1,-1,-1,-1,-1,-1,-1,-1,-1,-1,-1,-1,-1,-1,-1,-1,-1,-1,-1,-1,-1,-1,-1,-1],"split_conditions":[3.032E2,3.025E2,3.1795E2,3.262E2,3.045E2,3.073E2,3.1395E2,3.0745E2,3.03E2,2.9605E2,3.0215002E2,3.058E2,3.073E2,3.485E2,3.7395E2,2.996E2,3.013E2,3.7884998E2,-2.3124391E-1,6.9905095E-2,2.8986642E-1,3.0095E2,1.19643405E-1,3.013E2,3.03E2,2.998E2,3.026E2,4.1394654E-1,1.1941528E-1,3.7105E2,3.73E2,2.982E2,3.054E2,3.1605E2,3.1609998E2,-5.704346E-2,3.783E2,-7.117615E-2,3.0475E2,3.2115002E2,3.015E2,2.8625E2,-1.0235138E-1,-3.190613E-3,3.016E2,2.997E2,3.044E2,4.0265002E2,3.7065002E2,3.7125E2,3.5745E2,-3.0633137E-3,1.8438904E-1,-1.613031E-1,2.102173E-2,2.9527283E-1,1.1760407E-1,2.774048E-3,-1.681366E-2,-1.18988035E-2,-1.4144898E-3,-3.0670168E-3,1.41769415E-2,1.7214967E-2,-4.6479035E-2,4.3945312E-3,1.005539E-1,4.9438477E-3,3.0908205E-2,-8.8400275E-2,-3.0691224E-1,-4.004059E-2,6.0959473E-2,-1.5883093E-1,1.2508393E-2,-1.3665104E-2,2.1660987E-1,-2.1268921E-2,-1.5099081E-1,1.449632E-2,1.6454041E-1,1.4568788E-1,-1.704462E-3],"split_indices":[35,33,37,15,24,34,38,23,42,9,43,25,24,0,7,8,33,2,0,0,0,36,0,52,12,6,3,0,0,0,9,8,4,0,0,0,0,0,7,1,23,0,0,0,31,0,55,54,8,11,20,0,0,0,0,0,0,0,0,0,0,0,0,0,0,0,0,0,0,0,0,0,0,0,0,0,0,0,0,0,0,0,0],"split_type":[0,0,0,0,0,0,0,0,0,0,0,0,0,0,0,0,0,0,0,0,0,0,0,0,0,0,0,0,0,0,0,0,0,0,0,0,0,0,0,0,0,0,0,0,0,0,0,0,0,0,0,0,0,0,0,0,0,0,0,0,0,0,0,0,0,0,0,0,0,0,0,0,0,0,0,0,0,0,0,0,0,0,0],"sum_hessian":[6.58E2,1.48E2,5.1E2,1.3E2,1.8E1,4.1E1,4.69E2,1.22E2,8E0,9E0,9E0,2E1,2.1E1,3E0,4.66E2,1.15E2,7E0,5E0,3E0,3E0,6E0,6E0,3E0,1.3E1,7E0,7E0,1.4E1,1E0,2E0,8.3E1,3.83E2,9.2E1,2.3E1,5E0,2E0,2E0,3E0,2E0,4E0,5E0,8E0,2E0,5E0,1E0,6E0,5E0,9E0,3.7E1,4.6E1,2.1E1,3.62E2,8.8E1,4E0,9E0,1.4E1,2E0,3E0,1E0,1E0,2E0,1E0,1E0,3E0,2E0,3E0,3E0,5E0,1E0,1E0,2E0,4E0,1E0,4E0,6E0,3E0,3.1E1,6E0,2.9E1,1.7E1,1.2E1,9E0,4E0,3.58E2],"tree_param":{"num_deleted":"0","num_feature":"60","num_nodes":"83","size_leaf_vector":"0"}},{"base_weights":[2.5829726E-3,3.1773176E-2,-1.6157463E-2,7.6128063E-3,3.534885E-1,-3.8444737E-1,-2.861278E-3,1.5987964E-2,-2.7464077E-1,-2.0310974E-1,4.783488E-1,-5.143211E-1,6.881714E-2,4.981515E-1,-1.2010699E-2,3.5607426E-3,3.2765368E-1,-5.5511475E-2,-2.3380534E-1,-9.926605E-2,6.3102466E-1,-8.0348206E-1,-3.0545044E-1,8.156332E-2,1.5289307E-2,3.2196045E-2,8.395691E-1,-2.110281E-1,6.1159134E-3,3.187312E-2,-1.14917405E-1,4.144999E-1,1.15470886E-1,-2.2532654E-1,1.7862955E-2,8.731308E-1,1.17449954E-1,-4.411316E-2,-3.3648247E-1,-3.652954E-2,6.728109E-2,-7.330424E-1,-8.720907E-2,1.4900316E-1,-2.0846384E-2,1.1644395E-2,9.3925476E-1,-8.632304E-1,-5.8730353E-2,-2.444458E-2,5.1239014E-2,1.93573E-1,9.425572E-1,2.1692657E-1,-1.4022827E-1,-2.507833E-1,-9.1147614E-1,2.8468704E-1,-2.3160705E-1,-2.1654053E-1,2.2360814E-1,-2.3499788E-1,1.4391298E-3],"categories":[],"categories_nodes":[],"categories_segments":[],"categories_sizes":[],"default_left":[1,1,1,1,1,1,1,1,0,1,1,1,1,1,1,1,1,0,0,1,1,0,1,0,0,1,0,1,1,1,1,0,0,0,1,1,1,0,0,0,0,1,1,1,1,0,0,0,0,0,0,0,0,0,0,0,0,0,0,0,0,0,0],"id":61,"left_children":[1,3,5,7,9,11,13,15,-1,17,19,21,23,25,27,29,31,-1,-1,33,35,-1,37,-1,-1,39,-1,41,43,45,47,-1,-1,-1,49,51,53,-1,-1,-1,-1,55,57,59,61,-1,-1,-1,-1,-1,-1,-1,-1,-1,-1,-1,-1,-1,-1,-1,-1,-1,-1],"loss_changes":[3.6101085E-1,2.0026813E0,1.9674342E0,5.7409525E-1,1.3481038E0,8.59534E-1,1.7891502E0,9.09021E-1,0E0,5.143583E-3,1.3854568E0,4.189458E-1,1.4820546E-3,1.0865668E0,1.3829674E0,7.651112E-1,1.17982864E-1,0E0,0E0,6.308636E-2,1.3895264E0,0E0,5.0035298E-2,0E0,0E0,1.2102708E-2,0E0,2.004402E0,1.3592103E0,3.3664153E0,1.7993042E0,0E0,0E0,0E0,5.4886923E-3,1.9498014E-1,1.5858404E-1,0E0,0E0,0E0,0E0,2.8772473E-1,1.5158639E0,1.5756176E0,1.4177636E0,0E0,0E0,0E0,0E0,0E0,0E0,0E0,0E0,0E0,0E0,0E0,0E0,0E0,0E0,0E0,0E0,0E0,0E0],"parents":[2147483647,0,0,1,1,2,2,3,3,4,4,5,5,6,6,7,7,9,9,10,10,11,11,12,12,13,13,14,14,15,15,16,16,19,19,20,20,22,22,25,25,27,27,28,28,29,29,30,30,34,34,35,35,36,36,41,41,42,42,43,43,44,44],"right_children":[2,4,6,8,10,12,14,16,-1,18,20,22,24,26,28,30,32,-1,-1,34,36,-1,38,-1,-1,40,-1,42,44,46,48,-1,-1,-1,50,52,54,-1,-1,-1,-1,56,58,60,62,-1,-1,-1,-1,-1,-1,-1,-1,-1,-1,-1,-1,-1,-1,-1,-1,-1,-1],"split_conditions":[3.716E2,3.693E2,3.7075E2,3.8185E2,3.6790002E2,3.8340002E2,3.726E2,3.788E2,-8.239223E-2,3.6425E2,3.818E2,3.713E2,4.2165E2,3.7135E2,3.732E2,3.178E2,3.8234998E2,-1.6653443E-2,-7.0141606E-2,3.768E2,4.1135E2,-2.4104463E-1,3.6165002E2,2.4468996E-2,4.586792E-3,3.745E2,2.5187075E-1,3.7335E2,3.862E2,3.2765E2,2.9865E2,1.24349974E-1,3.4641266E-2,-6.759796E-2,4.0315002E2,3.6405E2,3.8485E2,-1.32339485E-2,-1.0094474E-1,-1.09588625E-2,2.0184327E-2,3.723E2,3.78E2,3.5935E2,3.8855E2,3.4933186E-3,2.8177643E-1,-2.5896913E-1,-1.7619107E-2,-7.333374E-3,1.53717045E-2,5.80719E-2,2.8276718E-1,6.5077975E-2,-4.206848E-2,-7.5234994E-2,-2.7344286E-1,8.540612E-2,-6.948212E-2,-6.496216E-2,6.708244E-2,-7.049937E-2,4.3173897E-4],"split_indices":[13,13,14,17,21,8,14,18,0,2,56,17,0,14,7,40,0,0,0,0,58,0,0,0,0,2,0,35,3,25,17,0,0,0,0,26,4,0,0,0,0,11,46,45,8,0,0,0,0,0,0,0,0,0,0,0,0,0,0,0,0,0,0],"split_type":[0,0,0,0,0,0,0,0,0,0,0,0,0,0,0,0,0,0,0,0,0,0,0,0,0,0,0,0,0,0,0,0,0,0,0,0,0,0,0,0,0,0,0,0,0,0,0,0,0,0,0,0,0,0,0,0,0,0,0,0,0,0,0],"sum_hessian":[6.58E2,2.57E2,4.01E2,2.4E2,1.7E1,1.3E1,3.88E2,2.34E2,6E0,3E0,1.4E1,1E1,3E0,6E0,3.82E2,2.26E2,8E0,1E0,2E0,3E0,1.1E1,3E0,7E0,2E0,1E0,3E0,3E0,3.1E1,3.51E2,1.83E2,4.3E1,5E0,3E0,1E0,2E0,7E0,4E0,1E0,6E0,1E0,2E0,5E0,2.6E1,5.5E1,2.96E2,1.8E2,3E0,2E0,4.1E1,1E0,1E0,1E0,6E0,3E0,1E0,2E0,3E0,7E0,1.9E1,9E0,4.6E1,2.7E1,2.69E2],"tree_param":{"num_deleted":"0","num_feature":"60","num_nodes":"63","size_leaf_vector":"0"}},{"base_weights":[1.5643616E-3,-1.540808E-3,1.6911316E-1,9.493434E-3,-8.000259E-2,4.0124512E-1,2.8915405E-3,3.0069079E-3,3.7178954E-1,-3.2755825E-1,-2.7080478E-2,4.9311066E-1,1.689148E-2,-8.551534E-2,1.7874146E-1,7.703774E-4,4.1799927E-1,1.3158743E-1,6.9919586E-1,2.432373E-1,-5.802002E-1,5.93012E-2,-1.0775234E-1,-9.657593E-2,-1.5106201E-2,5.984811E-3,-1.8839112E-1,4.990692E-1,1.2792969E-1,-4.6051025E-2,2.1185303E-1,5.8095295E-2,3.473002E-1,-8.6968994E-1,-2.4225871E-1,-1.991272E-1,9.1781616E-2,-3.1153023E-1,-3.583555E-2,-5.410608E-3,2.3322472E-1,1.385498E-1,-2.4934739E-1,-7.255554E-2,3.479004E-3,1.2313843E-1,-3.3996582E-1,-5.3268433E-2,-2.2999065E-1,2.1258163E-1,4.5773715E-2,-6.580607E-2,-3.7233624E-1,1.359253E-1,-1.15309864E-1],"categories":[],"categories_nodes":[],"categories_segments":[],"categories_sizes":[],"default_left":[1,1,1,1,1,1,1,1,1,1,1,0,0,1,0,1,1,1,0,1,1,1,1,0,0,1,1,0,0,1,0,0,0,0,1,1,1,1,1,0,0,0,0,0,0,0,0,0,0,0,0,0,0,0,0],"id":62,"left_children":[1,3,5,7,9,11,13,15,17,19,21,-1,-1,23,-1,25,27,29,-1,31,33,35,37,-1,-1,39,41,-1,-1,43,-1,-1,-1,-1,45,47,49,51,53,-1,-1,-1,-1,-1,-1,-1,-1,-1,-1,-1,-1,-1,-1,-1,-1],"loss_changes":[3.431168E-1,5.617761E-1,4.6186396E-1,1.3360567E0,1.0392231E0,1.6821492E-1,1.3965587E-1,5.194381E-1,6.944314E-1,2.160023E0,4.7328407E-1,0E0,0E0,3.2137E-3,0E0,5.51522E-1,6.702006E-3,1.0956384E-1,0E0,7.615557E-2,7.6761603E-1,2.9527363E-1,5.017629E-1,0E0,0E0,1.4099467E0,3.3348358E-1,0E0,0E0,4.190729E-3,0E0,0E0,0E0,0E0,2.5607422E-1,5.7555735E-3,1.5700203E-1,1.0997158E-1,3.8423908E-1,0E0,0E0,0E0,0E0,0E0,0E0,0E0,0E0,0E0,0E0,0E0,0E0,0E0,0E0,0E0,0E0],"parents":[2147483647,0,0,1,1,2,2,3,3,4,4,5,5,6,6,7,7,8,8,9,9,10,10,13,13,15,15,16,16,17,17,19,19,20,20,21,21,22,22,25,25,26,26,29,29,34,34,35,35,36,36,37,37,38,38],"right_children":[2,4,6,8,10,12,14,16,18,20,22,-1,-1,24,-1,26,28,30,-1,32,34,36,38,-1,-1,40,42,-1,-1,44,-1,-1,-1,-1,46,48,50,52,54,-1,-1,-1,-1,-1,-1,-1,-1,-1,-1,-1,-1,-1,-1,-1,-1],"split_conditions":[4.448E2,4.213E2,4.338E2,4.1975E2,4.2085E2,4.494E2,4.4205E2,4.3734998E2,4.0384998E2,4.1684998E2,4.255E2,1.479332E-1,5.067444E-3,4.3909998E2,5.362244E-2,4.2734998E2,4.4215E2,4.1395E2,2.0975877E-1,4.086E2,4.06E2,3.9765002E2,4.27E2,-2.897278E-2,-4.5318604E-3,4.213E2,3.648E2,1.4972077E-1,3.837891E-2,4.1590002E2,6.355591E-2,1.742859E-2,1.0419007E-1,-2.60907E-1,4.005E2,4.3009998E2,3.995E2,4.273E2,4.262E2,-1.6231824E-3,6.996742E-2,4.156494E-2,-7.480422E-2,-2.1766663E-2,1.0437012E-3,3.694153E-2,-1.0198975E-1,-1.598053E-2,-6.89972E-2,6.37745E-2,1.3732115E-2,-1.9741822E-2,-1.1170088E-1,4.077759E-2,-3.459296E-2],"split_indices":[30,24,3,24,25,10,3,19,52,25,32,0,0,4,0,11,0,3,0,0,40,40,31,0,0,11,43,0,0,0,0,0,0,0,8,19,46,23,54,0,0,0,0,0,0,0,0,0,0,0,0,0,0,0,0],"split_type":[0,0,0,0,0,0,0,0,0,0,0,0,0,0,0,0,0,0,0,0,0,0,0,0,0,0,0,0,0,0,0,0,0,0,0,0,0,0,0,0,0,0,0,0,0,0,0,0,0,0,0,0,0,0,0],"sum_hessian":[6.58E2,6.47E2,1.1E1,5.68E2,7.9E1,4E0,7E0,5.59E2,9E0,1.3E1,6.6E1,3E0,1E0,5E0,2E0,5.57E2,2E0,6E0,3E0,4E0,9E0,3.2E1,3.4E1,4E0,1E0,5.43E2,1.4E1,1E0,1E0,2E0,4E0,2E0,2E0,4E0,5E0,3E0,2.9E1,8E0,2.6E1,5.18E2,2.5E1,2E0,1.2E1,1E0,1E0,1E0,4E0,1E0,2E0,7E0,2.2E1,2E0,6E0,8E0,1.8E1],"tree_param":{"num_deleted":"0","num_feature":"60","num_nodes":"55","size_leaf_vector":"0"}},{"base_weights":[1.5635281E-3,2.6746325E-2,-1.7937034E-2,8.592045E-3,3.1564152E-1,-2.90534E-1,2.77274E-5,2.0501873E-2,-2.7585948E-1,7.687073E-1,1.6364834E-1,2.7321951E-2,-4.043256E-1,2.9985148E-1,-1.3357344E-2,-1.6492E-3,3.0388921E-1,-7.217407E-3,-3.0200195E-1,2.515564E-1,-4.489746E-2,-1.5548706E-1,8.370463E-2,-9.2799884E-1,-2.726359E-1,7.966232E-2,4.825592E-1,-1.5520477E-1,1.4958718E-2,2.2424845E-2,-2.0436332E-1,4.951571E-1,-9.473528E-2,3.1028748E-2,3.4163556E-1,-7.45163E-2,3.678894E-2,1.348877E-1,4.649048E-2,6.35376E-2,-3.292424E-1,-4.1809082E-2,1.6090699E-1,6.0623676E-1,7.435099E-2,-4.945443E-2,-5.011902E-1,2.4674334E-1,-3.7479328E-3,-1.612295E-3,2.9092917E-1,-5.878703E-1,-8.50583E-2,6.804077E-1,-9.175873E-2,-2.3397319E-1,7.754517E-3,5.9590656E-2,-2.7328491E-2,1.4713542E-1,3.9000854E-1,-1.0308838E-1,-3.0629477E-2,5.1208496E-2,1.3809204E-2,-3.9312744E-1,-1.4840087E-1,4.2312622E-2,-8.395386E-2,1.7895508E-1,4.43573E-2,1.849504E-1,-1.2383674E-1,-6.036445E-1,-2.1653442E-1,5.182683E-1,-1.728753E-1,-1.3083825E-1,1.8495431E-2],"categories":[],"categories_nodes":[],"categories_segments":[],"categories_sizes":[],"default_left":[1,1,1,1,1,1,1,1,1,0,1,1,1,1,1,1,1,0,0,1,1,0,1,0,1,1,1,1,1,1,1,1,1,1,1,1,0,0,1,0,1,1,1,0,0,1,1,1,1,0,0,0,0,0,0,0,0,0,0,0,0,0,0,0,0,0,0,0,0,0,0,0,0,0,0,0,0,0,0],"id":63,"left_children":[1,3,5,7,9,11,13,15,17,-1,19,21,23,25,27,29,31,-1,-1,33,35,-1,37,-1,39,41,43,45,47,49,51,53,55,57,59,61,-1,-1,63,-1,65,67,69,-1,-1,71,73,75,77,-1,-1,-1,-1,-1,-1,-1,-1,-1,-1,-1,-1,-1,-1,-1,-1,-1,-1,-1,-1,-1,-1,-1,-1,-1,-1,-1,-1,-1,-1],"loss_changes":[3.2410064E-1,1.5077572E0,1.8217438E0,9.2712873E-1,1.0448717E0,8.4294176E-1,1.4086121E0,1.6451626E0,7.5072944E-2,0E0,2.679542E-1,8.516582E-2,9.1935444E-1,5.650121E-1,1.3518859E0,1.1953391E0,1.4955461E0,0E0,0E0,1.8804896E-1,1.48386555E-2,0E0,5.157411E-3,0E0,3.0636334E-1,8.567859E-2,3.588153E-1,2.024146E0,1.2193166E0,1.4139117E0,1.1396086E0,1.475878E0,1.0170761E-1,8.2957E-3,8.4757805E-3,1.8582083E-3,0E0,0E0,6.380491E-5,0E0,9.184945E-2,1.773347E-2,2.57954E-3,0E0,0E0,7.9006886E-1,2.48425E-1,2.4822714E0,7.40245E-1,0E0,0E0,0E0,0E0,0E0,0E0,0E0,0E0,0E0,0E0,0E0,0E0,0E0,0E0,0E0,0E0,0E0,0E0,0E0,0E0,0E0,0E0,0E0,0E0,0E0,0E0,0E0,0E0,0E0,0E0],"parents":[2147483647,0,0,1,1,2,2,3,3,4,4,5,5,6,6,7,7,8,8,10,10,11,11,12,12,13,13,14,14,15,15,16,16,19,19,20,20,22,22,24,24,25,25,26,26,27,27,28,28,29,29,30,30,31,31,32,32,33,33,34,34,35,35,38,38,40,40,41,41,42,42,45,45,46,46,47,47,48,48],"right_children":[2,4,6,8,10,12,14,16,18,-1,20,22,24,26,28,30,32,-1,-1,34,36,-1,38,-1,40,42,44,46,48,50,52,54,56,58,60,62,-1,-1,64,-1,66,68,70,-1,-1,72,74,76,78,-1,-1,-1,-1,-1,-1,-1,-1,-1,-1,-1,-1,-1,-1,-1,-1,-1,-1,-1,-1,-1,-1,-1,-1,-1,-1,-1,-1,-1,-1],"split_conditions":[3.7495E2,3.745E2,3.6945E2,3.8355E2,3.758E2,3.66E2,3.663E2,3.765E2,3.7484998E2,2.3061219E-1,3.8925E2,3.6715002E2,3.7155E2,3.6765002E2,3.8634998E2,3.6415002E2,3.9925E2,-2.1652223E-3,-9.060059E-2,3.685E2,4.2745E2,-4.664612E-2,3.688E2,-2.7839968E-1,3.634E2,3.728E2,4.0855E2,3.9084998E2,3.8795E2,3.2915002E2,3.695E2,4.126E2,4.014E2,4.4735E2,3.7355E2,3.745E2,1.1036683E-2,4.046631E-2,4.59E2,1.906128E-2,4.057E2,3.555E2,4.036E2,1.8187103E-1,2.2305299E-2,3.6975E2,4.0535E2,4.0125E2,3.904E2,-4.8368852E-4,8.727875E-2,-1.763611E-1,-2.5517492E-2,2.0412232E-1,-2.752762E-2,-7.019196E-2,2.326355E-3,1.7877197E-2,-8.198548E-3,4.414063E-2,1.1700257E-1,-3.0926514E-2,-9.188843E-3,1.536255E-2,4.142761E-3,-1.17938235E-1,-4.4520263E-2,1.2693787E-2,-2.5186159E-2,5.3686526E-2,1.33071905E-2,5.5485122E-2,-3.7151024E-2,-1.8109335E-1,-6.496033E-2,1.5548049E-1,-5.1862594E-2,-3.9251477E-2,5.5486294E-3],"split_indices":[39,40,31,28,40,27,20,28,6,0,28,0,2,19,26,29,18,0,0,19,2,0,4,0,33,0,51,31,22,30,56,54,18,0,0,1,0,0,0,0,42,0,0,0,0,8,33,29,38,0,0,0,0,0,0,0,0,0,0,0,0,0,0,0,0,0,0,0,0,0,0,0,0,0,0,0,0,0,0],"split_type":[0,0,0,0,0,0,0,0,0,0,0,0,0,0,0,0,0,0,0,0,0,0,0,0,0,0,0,0,0,0,0,0,0,0,0,0,0,0,0,0,0,0,0,0,0,0,0,0,0,0,0,0,0,0,0,0,0,0,0,0,0,0,0,0,0,0,0,0,0,0,0,0,0,0,0,0,0,0,0],"sum_hessian":[6.58E2,2.87E2,3.71E2,2.71E2,1.6E1,2.2E1,3.49E2,2.61E2,1E1,3E0,1.3E1,6E0,1.6E1,1.4E1,3.35E2,2.43E2,1.8E1,1E0,9E0,9E0,4E0,1E0,5E0,2E0,1.4E1,7E0,7E0,5.5E1,2.8E2,2.18E2,2.5E1,1.2E1,6E0,3E0,6E0,3E0,1E0,1E0,4E0,2E0,1.2E1,3E0,4E0,5E0,2E0,4.3E1,1.2E1,2E1,2.6E2,2.01E2,1.7E1,5E0,2E1,9E0,3E0,2E0,4E0,2E0,1E0,2E0,4E0,1E0,2E0,3E0,1E0,8E0,4E0,1E0,2E0,3E0,1E0,1E1,3.3E1,8E0,4E0,1.2E1,8E0,3.8E1,2.22E2],"tree_param":{"num_deleted":"0","num_feature":"60","num_nodes":"79","size_leaf_vector":"0"}},{"base_weights":[1.040654E-3,1.457611E-1,-2.3265514E-3,4.1561127E-2,2.3174095E-1,-3.322754E-1,1.2915527E-3,8.464813E-2,-5.8466595E-2,2.876587E-1,1.0390854E-1,-6.571655E-2,-6.657817E-1,5.9089232E-2,-8.046533E-3,4.1801453E-2,1.13561E-1,-6.7749023E-3,-8.092499E-2,-1.9307455E-2,-9.022013E-2,-2.3410484E-2,2.3058556E-1,-2.0924331E-1,4.76183E-3,7.503334E-2,-1.8931912E-1,7.773997E-1,1.6128823E-1,-5.3921765E-1,-1.3106155E-1,5.426745E-1,-2.5873908E-3,9.247319E-3,2.9329258E-1,7.787069E-2,-2.6786464E-1,2.2803597E-1,-1.7800903E-1,7.089403E-3,-3.4521207E-1,2.6985168E-2,9.2269516E-1,-4.760666E-1,1.1312447E-3],"categories":[],"categories_nodes":[],"categories_segments":[],"categories_sizes":[],"default_left":[1,1,1,1,1,1,1,1,1,0,0,1,0,1,1,0,0,0,0,0,0,1,1,1,1,1,1,0,1,0,1,1,1,0,0,0,0,0,0,0,0,0,0,0,0],"id":64,"left_children":[1,3,5,7,9,11,13,15,17,-1,-1,19,-1,21,23,-1,-1,-1,-1,-1,-1,25,27,29,31,33,35,-1,37,-1,39,41,43,-1,-1,-1,-1,-1,-1,-1,-1,-1,-1,-1,-1],"loss_changes":[3.214721E-1,1.24755055E-1,7.704232E-1,3.942825E-2,2.7294636E-2,5.785404E-1,3.4535635E-1,2.6859045E-3,2.9344782E-3,0E0,0E0,3.9440244E-3,0E0,1.2646055E0,1.4209242E0,0E0,0E0,0E0,0E0,0E0,0E0,1.0104988E0,9.7350466E-1,7.806622E-1,2.0531352E0,5.572657E-1,5.0354975E-1,0E0,6.520703E-1,0E0,8.308301E-1,1.346909E0,9.03776E-1,0E0,0E0,0E0,0E0,0E0,0E0,0E0,0E0,0E0,0E0,0E0,0E0],"parents":[2147483647,0,0,1,1,2,2,3,3,4,4,5,5,6,6,7,7,8,8,11,11,13,13,14,14,21,21,22,22,23,23,24,24,25,25,26,26,28,28,30,30,31,31,32,32],"right_children":[2,4,6,8,10,12,14,16,18,-1,-1,20,-1,22,24,-1,-1,-1,-1,-1,-1,26,28,30,32,34,36,-1,38,-1,40,42,44,-1,-1,-1,-1,-1,-1,-1,-1,-1,-1,-1,-1],"split_conditions":[2.1465E2,2.15E2,2.1465E2,2.1385E2,2.1555E2,2.1685E2,3.005E2,2.287E2,2.4425E2,8.629761E-2,3.1172562E-2,2.708E2,-1.9973451E-1,2.8905E2,3.0590002E2,1.2540436E-2,3.40683E-2,-2.032471E-3,-2.4277497E-2,-5.792237E-3,-2.706604E-2,2.3875E2,2.892E2,2.8905E2,3.0005E2,2.3745E2,2.2465E2,2.3321992E-1,3.0675E2,-1.617653E-1,3.0715E2,3.0705E2,2.693E2,2.7741957E-3,8.798778E-2,2.3361208E-2,-8.03594E-2,6.841079E-2,-5.340271E-2,2.126821E-3,-1.0356363E-1,8.095551E-3,2.7680856E-1,-1.4281999E-1,3.3937342E-4],"split_indices":[35,33,44,34,34,30,10,6,0,0,0,0,0,42,11,0,0,0,0,0,0,36,43,50,3,30,46,0,14,0,57,9,56,0,0,0,0,0,0,0,0,0,0,0,0],"split_type":[0,0,0,0,0,0,0,0,0,0,0,0,0,0,0,0,0,0,0,0,0,0,0,0,0,0,0,0,0,0,0,0,0,0,0,0,0,0,0,0,0,0,0,0,0],"sum_hessian":[6.58E2,1.4E1,6.44E2,7E0,7E0,6E0,6.38E2,5E0,2E0,4E0,3E0,4E0,2E0,8.8E1,5.5E2,3E0,2E0,1E0,1E0,2E0,2E0,6E1,2.8E1,3.2E1,5.18E2,3.8E1,2.2E1,2E0,2.6E1,5E0,2.7E1,6E0,5.12E2,3E1,8E0,5E0,1.7E1,2.2E1,4E0,1.7E1,1E1,3E0,3E0,3E0,5.09E2],"tree_param":{"num_deleted":"0","num_feature":"60","num_nodes":"45","size_leaf_vector":"0"}},{"base_weights":[8.316156E-4,1.4076298E-2,-3.145663E-2,2.8887737E-4,4.6116203E-1,-1.8503733E-1,4.1599275E-4,-4.1128513E-3,4.97612E-1,9.522298E-1,8.254327E-2,-3.231269E-1,-1.812172E-2,5.1954347E-1,-1.6225375E-2,1.8349125E-3,-2.671875E-1,5.4138184E-2,6.2739056E-1,1.894989E-1,1.0668762E0,-1.4641571E-1,2.2142537E-1,-1.2113444E-1,-3.9149827E-1,1.9847107E-1,-2.0863512E-1,-2.4261475E-2,6.6156006E-1,2.0224339E-1,-2.9401006E-2,2.2457423E-2,-5.7877924E-2,-3.2802963E-1,-1.5879313E-2,4.366048E-2,2.993927E-1,1.2957764E-1,-2.788849E-1,-2.0773315E-1,-5.193351E-1,-6.644694E-2,2.9785156E-1,-4.3888636E-2,-5.2349854E-1,2.844151E-1,-5.690511E-2,-4.605835E-1,-1.4225218E-2,4.909056E-3,2.4599457E-1,-2.0394258E-1,3.0158997E-2,-7.2906494E-2,4.9087524E-2,3.2196045E-3,6.227112E-2,1.541748E-1,4.019165E-2,-2.3914592E-1,-9.628296E-3,2.961731E-2,-1.2928772E-1,-7.8196205E-2,8.097839E-2,3.0911765E-1,6.8099976E-2,3.0517578E-2,-1.15875244E-1,-1.038208E-1,-5.2381897E-1,-1.2070686E-1,1.4855101E-2],"categories":[],"categories_nodes":[],"categories_segments":[],"categories_sizes":[],"default_left":[1,1,1,1,1,1,1,1,1,1,1,1,1,1,1,1,1,0,0,0,0,0,1,1,1,1,1,0,0,1,1,1,1,0,1,1,0,1,0,1,0,1,0,1,0,1,1,1,1,0,0,0,0,0,0,0,0,0,0,0,0,0,0,0,0,0,0,0,0,0,0,0,0],"id":65,"left_children":[1,3,5,7,9,11,13,15,17,19,21,23,25,27,29,31,33,-1,-1,-1,-1,-1,35,37,39,41,43,-1,-1,45,47,49,51,-1,53,55,-1,57,-1,59,-1,61,-1,63,-1,65,67,69,71,-1,-1,-1,-1,-1,-1,-1,-1,-1,-1,-1,-1,-1,-1,-1,-1,-1,-1,-1,-1,-1,-1,-1,-1],"loss_changes":[2.8226253E-1,2.8846931E0,9.3992066E-1,9.980787E-1,2.5243843E0,7.547715E-1,1.3906684E0,7.077373E-1,1.9624776E-1,3.224945E-1,3.1860492E-1,2.011652E-1,7.0162934E-1,4.02197E-1,4.549865E-1,5.4682267E-1,1.4769232E-1,0E0,0E0,0E0,0E0,0E0,7.008749E-2,2.734369E-1,1.9751227E-1,2.3041278E-1,4.4387808E-1,0E0,0E0,2.0783684E-1,9.618911E-1,1.2932874E0,1.4720862E0,0E0,1.4693426E-2,2.0574029E-3,0E0,3.9938465E-4,0E0,4.1258574E-2,0E0,2.1939412E-2,0E0,3.6319394E-2,0E0,1.6353786E-2,1.9002214E-2,5.841708E-2,4.4769204E-1,0E0,0E0,0E0,0E0,0E0,0E0,0E0,0E0,0E0,0E0,0E0,0E0,0E0,0E0,0E0,0E0,0E0,0E0,0E0,0E0,0E0,0E0,0E0,0E0],"parents":[2147483647,0,0,1,1,2,2,3,3,4,4,5,5,6,6,7,7,8,8,9,9,10,10,11,11,12,12,13,13,14,14,15,15,16,16,22,22,23,23,24,24,25,25,26,26,29,29,30,30,31,31,32,32,34,34,35,35,37,37,39,39,41,41,43,43,45,45,46,46,47,47,48,48],"right_children":[2,4,6,8,10,12,14,16,18,20,22,24,26,28,30,32,34,-1,-1,-1,-1,-1,36,38,40,42,44,-1,-1,46,48,50,52,-1,54,56,-1,58,-1,60,-1,62,-1,64,-1,66,68,70,72,-1,-1,-1,-1,-1,-1,-1,-1,-1,-1,-1,-1,-1,-1,-1,-1,-1,-1,-1,-1,-1,-1,-1,-1],"split_conditions":[4.0375E2,4.039E2,4.0665E2,4.1235E2,4.0455E2,4.135E2,4.0685E2,4.0415E2,3.7315002E2,3.8684998E2,3.9645E2,3.937E2,4.027E2,3.782E2,3.8090002E2,3.8835E2,4.0615E2,1.6241455E-2,1.8821718E-1,5.6849673E-2,3.2006288E-1,-4.3924715E-2,3.9725E2,4.059E2,3.843E2,3.751E2,4.2255E2,-7.278443E-3,1.9846803E-1,4.0365002E2,3.9175E2,3.843E2,4.0125E2,-9.840889E-2,3.9285E2,3.9565002E2,8.9817815E-2,4.1155E2,-8.366547E-2,4.0109998E2,-1.5580054E-1,3.7355E2,8.935547E-2,4.3305E2,-1.5704957E-1,4.3159998E2,3.988E2,3.743E2,4.0315E2,1.4727168E-3,7.379837E-2,-6.118278E-2,9.047699E-3,-2.1871949E-2,1.4726258E-2,9.658814E-4,1.8681336E-2,4.6252444E-2,1.2057495E-2,-7.174378E-2,-2.8884888E-3,8.885194E-3,-3.878632E-2,-2.3458863E-2,2.429352E-2,9.27353E-2,2.0429993E-2,9.155273E-3,-3.4762576E-2,-3.1146241E-2,-1.571457E-1,-3.621206E-2,4.4565303E-3],"split_indices":[31,30,27,33,30,46,28,33,17,11,35,38,15,0,59,10,32,0,0,0,0,0,3,18,59,1,45,0,0,8,52,10,10,0,0,0,0,0,0,10,0,0,0,0,0,20,0,1,59,0,0,0,0,0,0,0,0,0,0,0,0,0,0,0,0,0,0,0,0,0,0,0,0],"split_type":[0,0,0,0,0,0,0,0,0,0,0,0,0,0,0,0,0,0,0,0,0,0,0,0,0,0,0,0,0,0,0,0,0,0,0,0,0,0,0,0,0,0,0,0,0,0,0,0,0,0,0,0,0,0,0,0,0,0,0,0,0,0,0,0,0,0,0,0,0,0,0,0,0],"sum_hessian":[6.58E2,4.67E2,1.91E2,4.54E2,1.3E1,3.2E1,1.59E2,4.51E2,3E0,5E0,8E0,1.7E1,1.5E1,4E0,1.55E2,4.42E2,9E0,1E0,2E0,1E0,4E0,3E0,5E0,5E0,1.2E1,7E0,8E0,1E0,3E0,8E0,1.47E2,3.29E2,1.13E2,7E0,2E0,2E0,3E0,2E0,3E0,6E0,6E0,2E0,5E0,6E0,2E0,6E0,2E0,4E0,1.43E2,3.06E2,2.3E1,4.2E1,7.1E1,1E0,1E0,1E0,1E0,1E0,1E0,5E0,1E0,1E0,1E0,5E0,1E0,5E0,1E0,1E0,1E0,1E0,3E0,3E1,1.13E2],"tree_param":{"num_deleted":"0","num_feature":"60","num_nodes":"73","size_leaf_vector":"0"}},{"base_weights":[9.974015E-4,1.2935856E-1,-1.7859633E-3,-5.739212E-3,2.6527622E-1,-2.1464157E-1,8.816906E-4,-1.0102081E-1,7.163391E-2,3.159256E-1,-1.9309998E-2,-6.2445067E-2,-3.512268E-1,-2.658325E-1,2.9804138E-3,-2.8213501E-2,-1.15885414E-1,2.7216593E-2,9.2173256E-2,7.926941E-3,-8.2019806E-2,-3.491974E-2,-3.1483078E-1,2.4929619E-1,-1.6211248E-4,-2.407837E-2,-9.3307495E-2,3.518402E-1,5.8792114E-2,-7.894791E-2,5.6193746E-3,-6.500244E-3,8.2722984E-2,-2.6439868E-2,-3.9834085E-1,1.4128529E-1,-5.3841607E-3],"categories":[],"categories_nodes":[],"categories_segments":[],"categories_sizes":[],"default_left":[1,1,1,1,1,1,1,1,1,0,0,1,0,1,1,0,0,0,0,0,1,0,0,1,1,0,0,0,1,1,1,0,0,0,0,0,0],"id":66,"left_children":[1,3,5,7,9,11,13,15,17,-1,-1,19,-1,21,23,-1,-1,-1,-1,-1,25,-1,-1,27,29,-1,-1,-1,31,33,35,-1,-1,-1,-1,-1,-1],"loss_changes":[2.3567587E-1,2.5859293E-1,3.6700425E-1,6.621439E-2,1.0699931E-1,1.4436999E-1,3.5847852E-1,1.0594726E-3,2.0528715E-3,0E0,0E0,7.5377338E-3,0E0,4.5577824E-2,4.915646E-1,0E0,0E0,0E0,0E0,0E0,3.6940724E-4,0E0,0E0,1.35595E-1,2.8649706E-1,0E0,0E0,0E0,6.7877313E-3,7.10608E-1,8.7554425E-1,0E0,0E0,0E0,0E0,0E0,0E0],"parents":[2147483647,0,0,1,1,2,2,3,3,4,4,5,5,6,6,7,7,8,8,11,11,13,13,14,14,20,20,23,23,24,24,28,28,29,29,30,30],"right_children":[2,4,6,8,10,12,14,16,18,-1,-1,20,-1,22,24,-1,-1,-1,-1,-1,26,-1,-1,28,30,-1,-1,-1,32,34,36,-1,-1,-1,-1,-1,-1],"split_conditions":[2.125E2,2.0615E2,2.145E2,2.0904999E2,2.1635E2,2.111E2,2.106E2,2.1254999E2,2.1685E2,9.477768E-2,-5.7929996E-3,1.934E2,-1.0536805E-1,2.0945001E2,2.172E2,-8.4640505E-3,-3.4765627E-2,8.164979E-3,2.7651979E-2,2.3780824E-3,1.9070001E2,-1.0475922E-2,-9.444924E-2,2.2085E2,2.8565E2,-7.223511E-3,-2.799225E-2,1.0555206E-1,2.2520001E2,2.7834998E2,3.009E2,-1.9500733E-3,2.4816897E-2,-7.931961E-3,-1.1950226E-1,4.2385586E-2,-1.6152483E-3],"split_indices":[11,8,9,15,0,9,4,0,1,0,0,0,0,5,7,0,0,0,0,0,4,0,0,0,19,0,0,0,1,19,20,0,0,0,0,0,0],"split_type":[0,0,0,0,0,0,0,0,0,0,0,0,0,0,0,0,0,0,0,0,0,0,0,0,0,0,0,0,0,0,0,0,0,0,0,0,0],"sum_hessian":[6.58E2,1.3E1,6.45E2,7E0,6E0,7E0,6.38E2,3E0,4E0,5E0,1E0,4E0,3E0,4E0,6.34E2,1E0,2E0,2E0,2E0,1E0,3E0,1E0,3E0,7E0,6.27E2,1E0,2E0,4E0,3E0,4.2E1,5.85E2,1E0,2E0,3.7E1,5E0,4.3E1,5.42E2],"tree_param":{"num_deleted":"0","num_feature":"60","num_nodes":"37","size_leaf_vector":"0"}},{"base_weights":[5.182663E-4,2.031376E-3,-1.9780274E-1,-3.271324E-4,1.713562E-1,-2.387085E-1,-1.7089844E-2,1.7198155E-3,-1.8772234E-1,3.7052003E-1,-6.2078856E-2,-4.375253E-3,8.065332E-2,-2.7524567E-1,-5.3268433E-2,6.1975224E-3,-1.0643768E-1,4.7904968E-1,4.171753E-2,-8.178711E-3,-6.5572105E-2,-5.3086327E-3,1.5443851E-1,-2.9924774E-1,-5.2656386E-2,5.4016113E-1,1.4785767E-1,3.1567383E-1,2.0654446E-2],"categories":[],"categories_nodes":[],"categories_segments":[],"categories_sizes":[],"default_left":[1,1,1,1,1,0,0,1,1,0,0,1,1,0,1,1,1,1,1,0,0,0,0,0,0,0,0,0,0],"id":67,"left_children":[1,3,5,7,9,-1,-1,11,13,-1,-1,15,17,-1,19,21,23,25,27,-1,-1,-1,-1,-1,-1,-1,-1,-1,-1],"loss_changes":[1.9815545E-1,2.616329E-1,3.28815E-2,2.4850443E-1,4.4142786E-1,0E0,0E0,3.0874124E-1,6.771307E-2,0E0,0E0,6.437932E-1,6.9356143E-1,0E0,1.6827807E-3,9.235948E-1,5.649389E-1,1.0915399E-3,2.4160561E-1,0E0,0E0,0E0,0E0,0E0,0E0,0E0,0E0,0E0,0E0],"parents":[2147483647,0,0,1,1,2,2,3,3,4,4,7,7,8,8,11,11,12,12,14,14,15,15,16,16,17,17,18,18],"right_children":[2,4,6,8,10,-1,-1,12,14,-1,-1,16,18,-1,20,22,24,26,28,-1,-1,-1,-1,-1,-1,-1,-1,-1,-1],"split_conditions":[4.489E2,4.4495E2,4.3285E2,4.407E2,4.138E2,-7.161255E-2,-5.126953E-3,4.2665002E2,4.1165E2,1.1115601E-1,-1.8623658E-2,4.1525E2,4.0615E2,-8.2573704E-2,4.117E2,4.0915E2,4.02E2,4.276E2,4.1884998E2,-2.4536133E-3,-1.9671632E-2,-1.5925899E-3,4.6331555E-2,-8.9774325E-2,-1.5796917E-2,1.6204834E-1,4.43573E-2,9.4702154E-2,6.196334E-3],"split_indices":[55,51,8,52,1,0,0,43,2,0,0,38,52,0,0,38,56,0,42,0,0,0,0,0,0,0,0,0,0],"split_type":[0,0,0,0,0,0,0,0,0,0,0,0,0,0,0,0,0,0,0,0,0,0,0,0,0,0,0,0,0],"sum_hessian":[6.58E2,6.54E2,4E0,6.46E2,8E0,3E0,1E0,6.4E2,6E0,4E0,4E0,5.95E2,4.5E1,3E0,3E0,5.4E2,5.5E1,3E0,4.2E1,1E0,2E0,5.02E2,3.8E1,1.1E1,4.4E1,2E0,1E0,2E0,4E1],"tree_param":{"num_deleted":"0","num_feature":"60","num_nodes":"29","size_leaf_vector":"0"}},{"base_weights":[5.99029E-4,8.520783E-3,-3.6171157E-2,-2.1380098E-3,1.5022679E-1,-2.9952323E-1,-1.4094641E-2,8.61021E-3,-1.3861166E-1,4.8340988E-1,5.9398036E-2,-4.790573E-1,-1.2991333E-1,-1.2647727E-1,2.263338E-2,2.238253E-3,3.347473E-1,-2.017015E-1,1.6058786E-1,2.0311992E-1,8.828532E-1,1.2724559E-1,-1.5156937E-1,-2.218399E-1,3.595988E-2,-2.0772299E-2,-3.0409852E-1,2.5318298E-1,-8.827828E-3,1.3952674E-2,-8.842497E-2,6.229172E-1,8.684286E-2,-1.4198194E-1,-5.6931305E-1,1.8545532E-1,5.6915283E-3,2.5605774E-1,6.4829506E-2,1.903061E-1,-1.5044555E-1,-2.2155151E-1,-2.619934E-2,-2.579956E-1,-5.66864E-2,5.114746E-2,2.7923584E-3,2.3417664E-1,-8.737386E-2,-1.778717E-1,-5.3933716E-1,-3.338623E-2,3.2899857E-1,1.1535209E-1,-3.718342E-2,4.27871E-3,3.090515E-1,-2.5813293E-1,-1.1147393E-3,1.4078979E-1,-9.144592E-2,-2.4941444E-1,1.164363E-3,-1.3471985E-1,-6.692708E-1,8.0973305E-2,2.17453E-1,-1.1734009E-1,2.3100789E-1,-5.6111652E-2,-1.9463094E-1,2.8686523E-2,-9.542847E-2,-1.5102386E-1,1.2541962E-1,-1.9690813E-1,-2.230835E-2,-6.5582275E-2,1.550293E-2,1.6265106E-1,3.9627686E-1,2.2699992E-1,-7.134501E-2,-2.4780273E-1,-9.70126E-3],"categories":[],"categories_nodes":[],"categories_segments":[],"categories_sizes":[],"default_left":[1,1,1,1,1,1,1,1,1,1,1,0,1,1,1,1,1,1,1,1,0,1,1,1,1,1,1,1,1,1,1,0,1,1,1,1,0,0,0,1,1,0,1,0,0,0,0,0,1,1,0,1,1,1,1,0,0,0,0,0,0,0,0,0,0,0,0,0,0,0,0,0,0,0,0,0,0,0,0,0,0,0,0,0,0],"id":68,"left_children":[1,3,5,7,9,11,13,15,17,19,21,-1,23,25,27,29,31,33,35,37,-1,39,41,43,45,47,49,51,53,55,57,-1,59,61,63,65,-1,-1,-1,67,69,-1,71,-1,-1,-1,-1,-1,73,75,-1,77,79,81,83,-1,-1,-1,-1,-1,-1,-1,-1,-1,-1,-1,-1,-1,-1,-1,-1,-1,-1,-1,-1,-1,-1,-1,-1,-1,-1,-1,-1,-1,-1],"loss_changes":[1.9226462E-1,8.2047653E-1,6.760042E-1,7.43419E-1,1.1212654E0,2.118209E-1,4.527701E-1,9.7597265E-1,7.3081946E-1,7.163545E-1,4.630088E-1,0E0,9.946627E-2,5.0062025E-1,6.0426474E-1,4.9190882E-1,5.8885145E-1,5.997294E-1,2.590762E-2,2.7324647E-2,0E0,4.4890293E-1,6.438482E-2,9.260118E-3,1.3683813E-3,3.261009E-1,2.010014E-1,2.2824812E-1,2.648576E-1,1.1691356E0,7.850261E-1,0E0,7.0583455E-2,4.3089026E-1,8.3599806E-2,2.4512112E-3,0E0,0E0,0E0,2.7754164E-1,9.919837E-3,0E0,1.7936312E-2,0E0,0E0,0E0,0E0,0E0,2.2210594E-1,1.9298285E-2,0E0,5.73883E-3,2.507782E-2,3.0801588E-1,3.5068068E-1,0E0,0E0,0E0,0E0,0E0,0E0,0E0,0E0,0E0,0E0,0E0,0E0,0E0,0E0,0E0,0E0,0E0,0E0,0E0,0E0,0E0,0E0,0E0,0E0,0E0,0E0,0E0,0E0,0E0,0E0],"parents":[2147483647,0,0,1,1,2,2,3,3,4,4,5,5,6,6,7,7,8,8,9,9,10,10,12,12,13,13,14,14,15,15,16,16,17,17,18,18,19,19,21,21,22,22,23,23,24,24,25,25,26,26,27,27,28,28,29,29,30,30,32,32,33,33,34,34,35,35,39,39,40,40,42,42,48,48,49,49,51,51,52,52,53,53,54,54],"right_children":[2,4,6,8,10,12,14,16,18,20,22,-1,24,26,28,30,32,34,36,38,-1,40,42,44,46,48,50,52,54,56,58,-1,60,62,64,66,-1,-1,-1,68,70,-1,72,-1,-1,-1,-1,-1,74,76,-1,78,80,82,84,-1,-1,-1,-1,-1,-1,-1,-1,-1,-1,-1,-1,-1,-1,-1,-1,-1,-1,-1,-1,-1,-1,-1,-1,-1,-1,-1,-1,-1,-1],"split_conditions":[4.1695E2,4.1155E2,4.1555E2,4.044E2,4.123E2,4.179E2,4.206E2,4.047E2,4.2165002E2,4.1425E2,4.209E2,-1.437172E-1,4.0515E2,4.1734998E2,4.213E2,4.0105E2,4.055E2,4.213E2,4.275E2,4.0265002E2,2.6485598E-1,4.2675E2,4.158E2,4.2935E2,4.1925E2,4.1215002E2,4.2309998E2,4.141E2,4.2E2,4.0015E2,3.9040002E2,1.8687516E-1,4.138E2,4.0715002E2,4.157E2,3.9805E2,1.7074585E-3,7.6817326E-2,1.9448852E-2,4.13E2,4.407E2,-6.646545E-2,3.8745E2,-7.739869E-2,-1.700592E-2,1.5344239E-2,8.3770754E-4,7.025299E-2,4.3584998E2,4.5275E2,-1.6180116E-1,3.937E2,4.0655E2,4.258E2,4.034E2,1.283613E-3,9.271546E-2,-7.743988E-2,-3.344218E-4,4.223694E-2,-2.7433777E-2,-7.482433E-2,3.4930892E-4,-4.0415958E-2,-2.0078126E-1,2.4291992E-2,6.5235905E-2,-3.5202026E-2,6.930237E-2,-1.6833497E-2,-5.8389284E-2,8.605957E-3,-2.8628541E-2,-4.530716E-2,3.7625886E-2,-5.9072442E-2,-6.692505E-3,-1.9674683E-2,4.650879E-3,4.879532E-2,1.18883066E-1,6.809998E-2,-2.1403503E-2,-7.434082E-2,-2.9103782E-3],"split_indices":[52,50,51,50,49,53,54,51,40,41,59,0,41,54,53,41,52,37,40,43,0,23,43,0,0,43,58,31,57,49,52,0,9,51,0,0,0,0,0,49,3,0,0,0,0,0,0,0,7,0,0,0,0,12,37,0,0,0,0,0,0,0,0,0,0,0,0,0,0,0,0,0,0,0,0,0,0,0,0,0,0,0,0,0,0],"split_type":[0,0,0,0,0,0,0,0,0,0,0,0,0,0,0,0,0,0,0,0,0,0,0,0,0,0,0,0,0,0,0,0,0,0,0,0,0,0,0,0,0,0,0,0,0,0,0,0,0,0,0,0,0,0,0,0,0,0,0,0,0,0,0,0,0,0,0,0,0,0,0,0,0,0,0,0,0,0,0,0,0,0,0,0,0],"sum_hessian":[6.58E2,5.42E2,1.16E2,5.05E2,3.7E1,8E0,1.08E2,4.69E2,3.6E1,7E0,3E1,3E0,5E0,2.6E1,8.2E1,4.61E2,8E0,3E1,6E0,5E0,2E0,2.3E1,7E0,3E0,2E0,1.7E1,9E0,9E0,7.3E1,4.09E2,5.2E1,3E0,5E0,2.7E1,3E0,5E0,1E0,3E0,2E0,1.9E1,4E0,4E0,3E0,2E0,1E0,1E0,1E0,3E0,1.4E1,7E0,2E0,2E0,7E0,1.3E1,6E1,3.97E2,1.2E1,1.7E1,3.5E1,4E0,1E0,1.5E1,1.2E1,1E0,2E0,2E0,3E0,2E0,1.7E1,2E0,2E0,2E0,1E0,1.1E1,3E0,6E0,1E0,1E0,1E0,3E0,4E0,8E0,5E0,6E0,5.4E1],"tree_param":{"num_deleted":"0","num_feature":"60","num_nodes":"85","size_leaf_vector":"0"}},{"base_weights":[3.625757E-4,8.050855E-2,-2.6623707E-3,2.271576E-1,4.8741657E-2,-2.4945259E-1,4.8068824E-4,1.1265755E-1,8.736746E-3,-3.3807626E-1,1.0945638E-2,2.1570435E-1,-1.2418701E-3,3.9174397E-2,1.3062286E-1,-4.42827E-2,8.680979E-2,-9.877523E-2,-4.33033E-1,6.1035156E-2,-4.46167E-2,8.644867E-2,3.6636353E-1,-5.6432586E-2,7.0796013E-3,-7.2886148E-3,-8.8703156E-2,-2.38266E-2,1.13702394E-1,-2.5412575E-3,-1.7240848E-1,2.0056091E-1,-2.2359996E-3,1.6166687E-2,-1.5213013E-2,-1.0030619E-1,-2.6947021E-2,4.3477375E-2,1.4602661E-1,-4.6587627E-2,2.0913544E-1,1.18871056E-1,-2.4742126E-1,2.7648997E-1,-1.5845338E-1,-2.0405163E-1,6.6661644E-3],"categories":[],"categories_nodes":[],"categories_segments":[],"categories_sizes":[],"default_left":[1,1,1,0,1,1,1,1,1,1,1,1,1,0,0,1,1,0,0,0,0,0,0,1,1,1,1,0,1,1,1,1,1,0,0,0,0,0,0,0,0,0,0,0,0,0,0],"id":69,"left_children":[1,3,5,-1,7,9,11,13,15,17,19,21,23,-1,-1,25,27,-1,-1,-1,-1,-1,-1,29,31,33,35,-1,37,39,41,43,45,-1,-1,-1,-1,-1,-1,-1,-1,-1,-1,-1,-1,-1,-1],"loss_changes":[1.599805E-1,1.00733995E-1,4.9345E-1,0E0,5.271168E-2,1.8832004E-1,2.334604E-1,5.4441094E-3,6.179563E-2,9.356654E-2,1.107246E-2,6.5696135E-2,2.87442E-1,0E0,0E0,1.4143124E-2,2.0560943E-2,0E0,0E0,0E0,0E0,0E0,0E0,5.120696E-1,9.809512E-1,1.3611589E-3,1.632832E-4,0E0,5.000986E-3,5.4118776E-1,5.975032E-1,7.2530127E-1,9.3559E-1,0E0,0E0,0E0,0E0,0E0,0E0,0E0,0E0,0E0,0E0,0E0,0E0,0E0,0E0],"parents":[2147483647,0,0,1,1,2,2,4,4,5,5,6,6,7,7,8,8,9,9,10,10,11,11,12,12,15,15,16,16,23,23,24,24,25,25,26,26,28,28,29,29,30,30,31,31,32,32],"right_children":[2,4,6,-1,8,10,12,14,16,18,20,22,24,-1,-1,26,28,-1,-1,-1,-1,-1,-1,30,32,34,36,-1,38,40,42,44,46,-1,-1,-1,-1,-1,-1,-1,-1,-1,-1,-1,-1,-1,-1],"split_conditions":[2.1715E2,2.0725E2,2.161E2,6.814728E-2,2.18E2,2.2405E2,2.1079999E2,2.2405E2,2.2055E2,2.158E2,2.631E2,2.9184998E2,3.0125E2,1.17523195E-2,3.918686E-2,2.2465E2,2.1129999E2,-2.963257E-2,-1.299099E-1,1.8310547E-2,-1.338501E-2,2.5934601E-2,1.09909065E-1,2.9735E2,3.057E2,2.108E2,2.6865E2,-7.14798E-3,2.1585E2,2.92E2,2.9625E2,3.2115E2,3.1434998E2,4.850006E-3,-4.563904E-3,-3.0091858E-2,-8.084107E-3,1.3043213E-2,4.3807983E-2,-1.3976289E-2,6.274064E-2,3.5661317E-2,-7.422638E-2,8.294699E-2,-4.7536016E-2,-6.121549E-2,1.9998495E-3],"split_indices":[34,18,42,0,58,34,48,8,41,29,0,3,14,0,0,9,0,0,0,0,0,0,0,18,14,10,0,0,4,19,3,0,13,0,0,0,0,0,0,0,0,0,0,0,0,0,0],"split_type":[0,0,0,0,0,0,0,0,0,0,0,0,0,0,0,0,0,0,0,0,0,0,0,0,0,0,0,0,0,0,0,0,0,0,0,0,0,0,0,0,0,0,0,0,0,0,0],"sum_hessian":[6.58E2,2.3E1,6.35E2,3E0,2E1,7E0,6.28E2,7E0,1.3E1,5E0,2E0,4E0,6.24E2,2E0,5E0,8E0,5E0,2E0,3E0,1E0,1E0,3E0,1E0,8.1E1,5.43E2,5E0,3E0,1E0,4E0,5.6E1,2.5E1,2.4E1,5.19E2,1E0,4E0,2E0,1E0,2E0,2E0,4.7E1,9E0,5E0,2E1,2E1,4E0,2.1E1,4.98E2],"tree_param":{"num_deleted":"0","num_feature":"60","num_nodes":"47","size_leaf_vector":"0"}},{"base_weights":[3.924218E-4,3.0446548E-2,-1.0118106E-2,3.5682821E-3,4.2107877E-1,-2.724234E-1,-2.9481133E-3,-1.2378377E-2,5.0357974E-1,-5.619812E-2,6.0708237E-1,-1.1534119E-1,-5.97023E-1,3.3748168E-1,-6.5405043E-3,9.073045E-3,-2.3213741E-1,8.1172687E-1,2.7572632E-2,3.0654907E-2,-9.536743E-2,1.9094086E-1,8.185791E-1,-1.9345474E-1,1.3140869E-1,1.4844768E-1,4.1402182E-1,-8.25605E-2,7.314858E-3,-3.204887E-2,8.244353E-2,2.0436604E-1,-3.219185E-1,-6.6070557E-3,4.7966003E-2,-1.1846924E-1,-2.458191E-2,-2.8889975E-2,-2.4349467E-1,3.955078E-2,1.5756226E-1,-6.538984E-2,-6.594238E-1,1.9599958E-1,-1.0699529E-2,1.04592405E-2,-2.9444182E-1,2.7927983E-1,-1.2797038E-2,-4.3680828E-2,-3.7319794E-1,-3.727722E-2,-6.0577393E-3,8.2286835E-2,-1.05695754E-1,5.542908E-1,1.1780802E-1,-1.1331765E-1,8.142699E-3],"categories":[],"categories_nodes":[],"categories_segments":[],"categories_sizes":[],"default_left":[1,1,1,1,1,1,1,1,1,1,1,1,0,1,1,1,1,0,1,0,1,0,0,1,1,0,0,1,1,1,1,0,1,0,0,0,0,1,0,0,0,1,0,1,1,0,0,0,0,0,0,0,0,0,0,0,0,0,0],"id":70,"left_children":[1,3,5,7,9,11,13,15,17,19,21,23,-1,25,27,29,31,-1,33,-1,35,-1,-1,37,39,-1,-1,41,43,45,47,-1,49,-1,-1,-1,-1,51,-1,-1,-1,53,-1,55,57,-1,-1,-1,-1,-1,-1,-1,-1,-1,-1,-1,-1,-1,-1],"loss_changes":[2.0847611E-1,1.7939149E0,9.1887236E-1,1.2899688E0,1.0106441E0,5.939933E-1,5.8555776E-1,7.422268E-1,7.1101975E-1,1.6531374E-2,5.4780054E-1,2.1816671E-1,0E0,1.0882854E-2,4.9880752E-1,4.3710965E-1,6.144458E-1,0E0,2.4080311E-3,0E0,1.993619E-3,0E0,0E0,5.884394E-2,9.7552314E-4,0E0,0E0,6.7995423E-1,1.3651121E0,1.0403857E0,9.784076E-1,0E0,1.5491283E-1,0E0,0E0,0E0,0E0,3.486832E-4,0E0,0E0,0E0,4.3725884E-1,0E0,9.1523707E-1,7.105371E-1,0E0,0E0,0E0,0E0,0E0,0E0,0E0,0E0,0E0,0E0,0E0,0E0,0E0,0E0],"parents":[2147483647,0,0,1,1,2,2,3,3,4,4,5,5,6,6,7,7,8,8,9,9,10,10,11,11,13,13,14,14,15,15,16,16,18,18,20,20,23,23,24,24,27,27,28,28,29,29,30,30,32,32,37,37,41,41,43,43,44,44],"right_children":[2,4,6,8,10,12,14,16,18,20,22,24,-1,26,28,30,32,-1,34,-1,36,-1,-1,38,40,-1,-1,42,44,46,48,-1,50,-1,-1,-1,-1,52,-1,-1,-1,54,-1,56,58,-1,-1,-1,-1,-1,-1,-1,-1,-1,-1,-1,-1,-1,-1],"split_conditions":[3.0534998E2,3.023E2,3.0190002E2,3.16E2,3.0259998E2,3.0725E2,2.9590002E2,3.0634998E2,3.8265002E2,3.437E2,3.125E2,3.015E2,-1.791069E-1,2.933E2,3.6835E2,2.905E2,2.9695E2,2.4351807E-1,3.87E2,9.196472E-3,3.6825E2,5.7282258E-2,2.4557373E-1,3.0165E2,2.8645E2,4.4534303E-2,1.2420655E-1,3.6815002E2,3.7095E2,2.996E2,2.9009998E2,6.1309814E-2,3.081E2,-1.9821168E-3,1.4389802E-2,-3.5540774E-2,-7.374573E-3,3.4545E2,-7.3048405E-2,1.1865235E-2,4.7268678E-2,3.1359998E2,-1.9782716E-1,3.6440002E2,3.815E2,3.1377722E-3,-8.833255E-2,8.3783954E-2,-3.8391117E-3,-1.3104249E-2,-1.1195939E-1,-1.1183167E-2,-1.8173219E-3,2.4686052E-2,-3.170873E-2,1.6628724E-1,3.5342406E-2,-3.3995297E-2,2.4428098E-3],"split_indices":[57,57,52,54,33,48,24,53,3,0,10,51,0,0,25,35,41,0,0,0,0,0,0,36,0,0,0,25,39,8,59,0,14,0,0,0,0,0,0,0,0,48,0,36,41,0,0,0,0,0,0,0,0,0,0,0,0,0,0],"split_type":[0,0,0,0,0,0,0,0,0,0,0,0,0,0,0,0,0,0,0,0,0,0,0,0,0,0,0,0,0,0,0,0,0,0,0,0,0,0,0,0,0,0,0,0,0,0,0,0,0,0,0,0,0,0,0,0,0,0,0],"sum_hessian":[6.58E2,1.7E2,4.88E2,1.6E2,1E1,1.2E1,4.76E2,1.56E2,4E0,3E0,7E0,9E0,3E0,4E0,4.72E2,1.43E2,1.3E1,2E0,2E0,1E0,2E0,3E0,4E0,7E0,2E0,2E0,2E0,7.2E1,4E2,9.2E1,5.1E1,2E0,1.1E1,1E0,1E0,1E0,1E0,2E0,5E0,1E0,1E0,7.1E1,1E0,3.4E1,3.66E2,8E1,1.2E1,1.6E1,3.5E1,2E0,9E0,1E0,1E0,1.5E1,5.6E1,5E0,2.9E1,5.6E1,3.1E2],"tree_param":{"num_deleted":"0","num_feature":"60","num_nodes":"59","size_leaf_vector":"0"}},{"base_weights":[8.58058E-4,1.4098605E-2,-2.1428302E-2,-4.7303988E-3,1.1526865E-1,-1.8754028E-1,-2.625474E-3,7.8590745E-3,-1.6191688E-1,2.7687618E-1,-6.8439683E-3,-3.6569685E-1,5.042443E-3,2.881775E-1,-1.3433838E-2,-5.4103904E-3,1.2158921E-1,-2.0230591E-1,4.2390442E-1,1.9809547E-1,8.673503E-1,-6.021208E-2,3.5742798E-1,-5.0128173E-2,-5.003798E-1,1.5294799E-1,-7.7687584E-2,5.930684E-1,8.770243E-2,-1.015009E-1,1.6004775E-2,8.985035E-3,-1.5951294E-1,2.218681E-1,-8.074442E-2,-3.043159E-1,1.2858073E-2,5.9432983E-1,9.903786E-2,2.1355183E-1,-1.1477661E-1,4.3434143E-1,2.4887085E-2,-5.6152344E-3,-5.98526E-2,-5.861308E-1,-2.4665833E-1,1.6983795E-1,4.269409E-2,-8.105469E-3,-1.3173218E-1,1.6722107E-1,-4.755656E-2,-6.107297E-2,-2.9685465E-1,2.484192E-1,-7.658881E-3,-4.2426586E-4,1.9358474E-1,-4.4495392E-1,-1.0036399E-1,3.720938E-1,2.4158824E-2,-2.501648E-1,3.523636E-2,-3.6977497E-1,8.69751E-4,-8.039202E-2,2.261556E-1,-6.947545E-2,1.6657257E-1,6.4437866E-2,2.3048706E-1,2.5701904E-1,-1.5183626E-1,3.1036377E-2,-4.454549E-2,-5.8380127E-2,-1.2954712E-2,-1.18011475E-1,1.2330554E-2,-3.890686E-1,-8.432007E-2,1.297404E-1,5.4235077E-1,-4.3189088E-1,7.124583E-3],"categories":[],"categories_nodes":[],"categories_segments":[],"categories_sizes":[],"default_left":[1,1,1,1,1,1,1,1,1,1,1,1,1,1,1,1,1,1,0,1,0,1,1,1,1,1,1,0,1,1,1,1,1,1,1,1,1,0,1,1,1,0,0,0,0,0,0,0,0,1,0,0,1,1,1,1,1,0,0,0,0,0,0,0,0,0,0,0,0,0,0,0,0,0,0,0,0,0,0,0,0,0,0,0,0,0,0],"id":71,"left_children":[1,3,5,7,9,11,13,15,17,19,21,23,25,27,29,31,33,35,-1,37,-1,39,41,43,45,47,49,-1,51,53,55,57,59,61,63,65,67,-1,69,71,73,-1,-1,-1,-1,-1,-1,-1,-1,75,-1,-1,77,79,81,83,85,-1,-1,-1,-1,-1,-1,-1,-1,-1,-1,-1,-1,-1,-1,-1,-1,-1,-1,-1,-1,-1,-1,-1,-1,-1,-1,-1,-1,-1,-1],"loss_changes":[1.9476222E-1,7.891867E-1,7.678579E-1,6.938858E-1,1.2846258E0,8.595908E-1,7.016404E-1,4.9112773E-1,7.00938E-1,1.1306846E0,7.602607E-1,5.274391E-1,1.7095315E-1,4.3697077E-1,5.590275E-1,6.491978E-1,7.077676E-1,5.5263484E-1,0E0,9.616395E-1,0E0,5.3239596E-1,1.1707491E-1,1.8282272E-3,5.123782E-2,2.0598397E-3,3.2777086E-2,0E0,7.248612E-2,4.0834862E-1,8.9286613E-1,4.6558586E-1,3.7743104E-1,6.741339E-1,2.44609E-1,3.3993328E-1,1.9719122E-1,0E0,2.6194367E-1,2.9957294E-4,4.3860465E-1,0E0,0E0,0E0,0E0,0E0,0E0,0E0,0E0,8.51418E-3,0E0,0E0,3.6724843E-4,1.9371155E-1,1.4358163E-1,4.5288688E-1,9.312765E-1,0E0,0E0,0E0,0E0,0E0,0E0,0E0,0E0,0E0,0E0,0E0,0E0,0E0,0E0,0E0,0E0,0E0,0E0,0E0,0E0,0E0,0E0,0E0,0E0,0E0,0E0,0E0,0E0,0E0,0E0],"parents":[2147483647,0,0,1,1,2,2,3,3,4,4,5,5,6,6,7,7,8,8,9,9,10,10,11,11,12,12,13,13,14,14,15,15,16,16,17,17,19,19,21,21,22,22,23,23,24,24,25,25,26,26,28,28,29,29,30,30,31,31,32,32,33,33,34,34,35,35,36,36,38,38,39,39,40,40,49,49,52,52,53,53,54,54,55,55,56,56],"right_children":[2,4,6,8,10,12,14,16,18,20,22,24,26,28,30,32,34,36,-1,38,-1,40,42,44,46,48,50,-1,52,54,56,58,60,62,64,66,68,-1,70,72,74,-1,-1,-1,-1,-1,-1,-1,-1,76,-1,-1,78,80,82,84,86,-1,-1,-1,-1,-1,-1,-1,-1,-1,-1,-1,-1,-1,-1,-1,-1,-1,-1,-1,-1,-1,-1,-1,-1,-1,-1,-1,-1,-1,-1],"split_conditions":[3.9695E2,3.853E2,3.8875E2,3.8334998E2,3.8775E2,4.048E2,3.868E2,3.942E2,4.0215E2,3.919E2,4.008E2,3.8509998E2,3.6490002E2,3.8959998E2,3.9984998E2,3.8375E2,3.8055E2,3.9745E2,1.2717134E-1,3.695E2,2.602051E-1,3.8765E2,4.3145E2,3.872E2,4.202E2,4.75E2,3.9555E2,1.7792054E-1,4.04E2,4.0025E2,3.9109998E2,3.833E2,3.702E2,4.0415E2,3.8005E2,4.0015E2,3.8035E2,1.7829895E-1,3.8205E2,3.8045E2,3.848E2,1.3030243E-1,7.466126E-3,-1.6845703E-3,-1.795578E-2,-1.7583925E-1,-7.39975E-2,5.0951388E-2,1.2808228E-2,4.037E2,-3.9519656E-2,5.0166324E-2,3.9259998E2,4.136E2,4.1855E2,3.9405E2,3.903E2,-1.2727977E-4,5.8075424E-2,-1.3348618E-1,-3.0109199E-2,1.11628145E-1,7.2476477E-3,-7.5049445E-2,1.0570908E-2,-1.1093249E-1,2.609253E-4,-2.4117606E-2,6.784668E-2,-2.0842636E-2,4.9971774E-2,1.933136E-2,6.914612E-2,7.7105716E-2,-4.555088E-2,9.310913E-3,-1.3363647E-2,-1.7514039E-2,-3.8864138E-3,-3.5403445E-2,3.6991665E-3,-1.1672059E-1,-2.5296021E-2,3.8922124E-2,1.6270524E-1,-1.2956727E-1,2.1373748E-3],"split_indices":[21,20,32,17,2,16,34,0,28,5,19,24,40,7,1,0,36,16,0,6,0,20,3,0,0,0,22,0,21,3,51,5,16,1,38,41,22,0,14,11,5,0,0,0,0,0,0,0,0,0,0,0,0,37,23,48,52,0,0,0,0,0,0,0,0,0,0,0,0,0,0,0,0,0,0,0,0,0,0,0,0,0,0,0,0,0,0],"split_type":[0,0,0,0,0,0,0,0,0,0,0,0,0,0,0,0,0,0,0,0,0,0,0,0,0,0,0,0,0,0,0,0,0,0,0,0,0,0,0,0,0,0,0,0,0,0,0,0,0,0,0,0,0,0,0,0,0,0,0,0,0,0,0,0,0,0,0,0,0,0,0,0,0,0,0,0,0,0,0,0,0,0,0,0,0,0,0],"sum_hessian":[6.58E2,4.13E2,2.45E2,3.49E2,6.4E1,2.4E1,2.21E2,3.24E2,2.5E1,2.7E1,3.7E1,1.2E1,1.2E1,7E0,2.14E2,2.91E2,3.3E1,2.4E1,1E0,2.5E1,2E0,3.3E1,4E0,4E0,8E0,4E0,8E0,2E0,5E0,5.3E1,1.61E2,2.67E2,2.4E1,2.2E1,1.1E1,1.6E1,8E0,4E0,2.1E1,5E0,2.8E1,3E0,1E0,1E0,3E0,5E0,3E0,3E0,1E0,4E0,4E0,3E0,2E0,4.5E1,8E0,1.4E1,1.47E2,2.55E2,1.2E1,3E0,2.1E1,1.2E1,1E1,4E0,7E0,1.3E1,3E0,6E0,2E0,6E0,1.5E1,1E0,4E0,2E0,2.6E1,2E0,2E0,1E0,1E0,2.5E1,2E1,5E0,3E0,1.1E1,3E0,4E0,1.43E2],"tree_param":{"num_deleted":"0","num_feature":"60","num_nodes":"87","size_leaf_vector":"0"}},{"base_weights":[1.499066E-3,1.4562212E-2,-1.8731901E-2,9.074741E-3,3.7430826E-1,-1.9888665E-1,-6.051397E-3,-5.279725E-3,8.225332E-2,5.33728E-1,-2.1139526E-1,-5.071289E-1,-6.503296E-2,2.159907E-1,-1.751025E-2,9.458966E-3,-9.949002E-2,1.8696016E-1,-2.0372546E-3,1.3397217E-1,-1.6836548E-1,3.890737E-1,3.677804E-2,-7.212117E-2,1.6982712E-2,-2.2245054E-3,1.749894E-1,-2.932129E-1,-4.9679317E-2,2.932475E-1,6.820882E-2,3.6725044E-2,-2.0842998E-1,1.9028728E-1,3.2999676E-2,-1.9968796E-1,4.1107178E-2,4.8711395E-1,1.2866211E-1,-6.1294556E-2,6.333923E-2,3.357103E-2,-1.3999024E-1,1.0072254E-1,-1.766489E-2,1.0357955E-2,-1.900904E-1,5.638977E-1,3.368734E-2,-7.0007324E-2,-4.577759E-1,-1.5998077E-1,3.2798074E-2,7.711283E-2,3.936035E-1,-2.6831055E-2,2.1524048E-1,3.4077961E-3,3.5765585E-1,-2.6813507E-1,-5.9346516E-2,-2.554779E-1,-1.1511841E-1,8.10791E-2,-1.2680054E-2,-8.351644E-3,3.7104034E-1,1.509552E-1,-1.8556468E-1,1.8663908E-3,1.7478688E-1,-1.1161194E-1,5.185782E-3],"categories":[],"categories_nodes":[],"categories_segments":[],"categories_sizes":[],"default_left":[1,1,1,1,1,1,1,1,1,0,0,0,1,1,1,1,1,1,1,1,1,1,1,1,1,1,1,1,1,1,1,1,1,0,0,1,0,0,0,0,1,1,1,1,1,0,0,0,0,0,0,0,0,0,0,0,0,0,0,0,0,0,0,0,0,0,0,0,0,0,0,0,0],"id":72,"left_children":[1,3,5,7,9,11,13,15,17,-1,-1,-1,19,21,23,25,27,29,31,33,35,37,39,41,43,45,47,49,51,53,55,57,59,-1,-1,61,-1,-1,-1,-1,63,65,67,69,71,-1,-1,-1,-1,-1,-1,-1,-1,-1,-1,-1,-1,-1,-1,-1,-1,-1,-1,-1,-1,-1,-1,-1,-1,-1,-1,-1,-1],"loss_changes":[1.7443335E-1,7.8821576E-1,5.904697E-1,4.1640833E-1,6.73064E-1,6.684292E-1,6.220586E-1,4.6193516E-1,5.740578E-1,0E0,0E0,0E0,2.8988442E-1,3.5791457E-1,4.3824148E-1,5.573727E-1,4.196596E-1,3.4602904E-1,3.036641E-1,2.215197E-2,6.725943E-2,9.05118E-2,2.2116829E-2,6.5029037E-1,4.166772E-1,6.40199E-1,1.0251212E0,2.985347E-1,3.4184998E-1,2.9500437E-1,2.1538319E-1,3.4094217E-1,3.7493378E-2,0E0,0E0,8.334845E-3,0E0,0E0,0E0,0E0,9.11952E-3,5.1241297E-1,7.5729406E-1,3.0718583E-1,2.1954763E-1,0E0,0E0,0E0,0E0,0E0,0E0,0E0,0E0,0E0,0E0,0E0,0E0,0E0,0E0,0E0,0E0,0E0,0E0,0E0,0E0,0E0,0E0,0E0,0E0,0E0,0E0,0E0,0E0],"parents":[2147483647,0,0,1,1,2,2,3,3,4,4,5,5,6,6,7,7,8,8,12,12,13,13,14,14,15,15,16,16,17,17,18,18,19,19,20,20,21,21,22,22,23,23,24,24,25,25,26,26,27,27,28,28,29,29,30,30,31,31,32,32,35,35,40,40,41,41,42,42,43,43,44,44],"right_children":[2,4,6,8,10,12,14,16,18,-1,-1,-1,20,22,24,26,28,30,32,34,36,38,40,42,44,46,48,50,52,54,56,58,60,-1,-1,62,-1,-1,-1,-1,64,66,68,70,72,-1,-1,-1,-1,-1,-1,-1,-1,-1,-1,-1,-1,-1,-1,-1,-1,-1,-1,-1,-1,-1,-1,-1,-1,-1,-1,-1,-1],"split_conditions":[3.936E2,3.9209998E2,3.6935E2,3.8345E2,4.2325E2,3.7095E2,3.668E2,3.8465002E2,4.0415E2,1.601184E-1,-6.341858E-2,-1.5213868E-1,3.6835E2,4.005E2,4.1175E2,3.793E2,3.7335E2,3.8965E2,3.9775E2,3.7040002E2,3.8095E2,3.726E2,3.735E2,4.0145E2,4.1695E2,3.997E2,3.7505E2,3.629E2,3.8925E2,3.8195E2,4.0645E2,3.997E2,4.13E2,5.7086185E-2,9.899903E-3,3.7095E2,1.23321535E-2,1.461342E-1,3.8598634E-2,-1.8388368E-2,3.8355E2,4.0045E2,3.9255E2,3.987E2,3.9859998E2,3.1073864E-3,-5.7027124E-2,1.6916932E-1,1.0106202E-2,-2.1002198E-2,-1.3733277E-1,-4.7994234E-2,9.839423E-3,2.313385E-2,1.18081056E-1,-8.049317E-3,6.457215E-2,1.0223389E-3,1.0729676E-1,-8.044052E-2,-1.7803956E-2,-7.664338E-2,-3.4535524E-2,2.4323732E-2,-3.8040162E-3,-2.5054931E-3,1.11312106E-1,4.5286562E-2,-5.566941E-2,5.5991724E-4,5.2436065E-2,-3.3483583E-2,1.5557347E-3],"split_indices":[59,59,31,52,23,21,11,37,1,0,0,0,26,43,55,45,19,42,56,9,15,6,5,57,52,13,47,18,28,0,36,55,5,0,0,11,0,0,0,0,2,57,54,22,8,0,0,0,0,0,0,0,0,0,0,0,0,0,0,0,0,0,0,0,0,0,0,0,0,0,0,0,0],"split_type":[0,0,0,0,0,0,0,0,0,0,0,0,0,0,0,0,0,0,0,0,0,0,0,0,0,0,0,0,0,0,0,0,0,0,0,0,0,0,0,0,0,0,0,0,0,0,0,0,0,0,0,0,0,0,0,0,0,0,0,0,0,0,0,0,0,0,0,0,0,0,0,0,0],"sum_hessian":[6.58E2,4E2,2.58E2,3.95E2,5E0,1.6E1,2.42E2,3.31E2,6.4E1,4E0,1E0,4E0,1.2E1,1.1E1,2.31E2,2.87E2,4.4E1,2.8E1,3.6E1,4E0,8E0,5E0,6E0,8.9E1,1.42E2,2.69E2,1.8E1,8E0,3.6E1,1.4E1,1.4E1,3.1E1,5E0,2E0,2E0,7E0,1E0,3E0,2E0,1E0,5E0,3.5E1,5.4E1,4.1E1,1.01E2,2.53E2,1.6E1,4E0,1.4E1,4E0,4E0,1.5E1,2.1E1,5E0,9E0,9E0,5E0,2.9E1,2E0,3E0,2E0,3E0,4E0,4E0,1E0,3.2E1,3E0,7E0,4.7E1,1.8E1,2.3E1,1.9E1,8.2E1],"tree_param":{"num_deleted":"0","num_feature":"60","num_nodes":"73","size_leaf_vector":"0"}},{"base_weights":[1.5880718E-3,7.4619654E-4,2.77771E-1,8.916905E-3,-3.416504E-2,-3.1182778E-3,6.0544156E-2,-2.2527313E-1,-6.056907E-3,1.1035514E-2,-6.8883725E-2,1.9002424E-1,1.0733527E-2,-7.9706825E-2,-5.295776E-1,9.4329834E-2,-2.6723115E-2,6.7244708E-3,3.140503E-1,-4.0951538E-1,-4.4609174E-2,1.22697756E-1,5.633087E-1,-3.985476E-2,1.1778641E-1,-1.7730102E-1,2.7217612E-1,2.2945149E-2,2.8961793E-1,-1.9120134E-1,-1.3024619E-2,-2.394675E-2,3.2728035E-2,-3.794861E-2,4.1153717E-1,-1.3463338E-1,-5.478923E-1,1.3706753E-1,-6.292451E-2,-1.0801391E-1,1.7178635E-1,-1.1878273E-2,-1.8874359E-1,2.9943544E-1,-1.1165365E-2,4.2999268E-2,-2.37751E-1,8.161926E-2,3.266449E-1,-8.574219E-2,7.026256E-2,4.191793E-1,6.351725E-2,-2.79274E-1,-5.532837E-2,1.06630765E-1,-3.386915E-2],"categories":[],"categories_nodes":[],"categories_segments":[],"categories_sizes":[],"default_left":[1,1,0,1,1,1,1,1,1,1,1,1,1,1,0,1,1,1,1,1,1,1,0,1,1,1,1,1,1,1,1,0,0,0,0,0,0,0,0,0,0,0,0,0,0,0,0,0,0,0,0,0,0,0,0,0,0],"id":73,"left_children":[1,3,-1,5,7,9,11,13,15,17,19,21,23,25,-1,27,29,31,33,35,37,39,-1,41,43,45,47,49,51,53,55,-1,-1,-1,-1,-1,-1,-1,-1,-1,-1,-1,-1,-1,-1,-1,-1,-1,-1,-1,-1,-1,-1,-1,-1,-1,-1],"loss_changes":[1.5301783E-1,1.8799885E-1,0E0,3.3198616E-1,6.70097E-1,4.0474057E-1,6.493584E-1,6.6653275E-1,2.3072825E-1,4.6554708E-1,6.184202E-1,6.345774E-1,4.0545037E-1,4.603579E-1,0E0,2.5822568E-1,2.047953E-1,2.8312033E-1,1.8719366E-1,1.16422E-1,2.5153023E-1,3.0168813E-1,0E0,2.1019277E-1,5.655184E-1,1.4339459E-1,4.4776946E-3,8.316652E-2,1.1984444E-1,6.831506E-2,2.181093E-1,0E0,0E0,0E0,0E0,0E0,0E0,0E0,0E0,0E0,0E0,0E0,0E0,0E0,0E0,0E0,0E0,0E0,0E0,0E0,0E0,0E0,0E0,0E0,0E0,0E0,0E0],"parents":[2147483647,0,0,1,1,3,3,4,4,5,5,6,6,7,7,8,8,9,9,10,10,11,11,12,12,13,13,15,15,16,16,17,17,18,18,19,19,20,20,21,21,23,23,24,24,25,25,26,26,27,27,28,28,29,29,30,30],"right_children":[2,4,-1,6,8,10,12,14,16,18,20,22,24,26,-1,28,30,32,34,36,38,40,-1,42,44,46,48,50,52,54,56,-1,-1,-1,-1,-1,-1,-1,-1,-1,-1,-1,-1,-1,-1,-1,-1,-1,-1,-1,-1,-1,-1,-1,-1,-1,-1],"split_conditions":[4.565E2,4.1625E2,8.33313E-2,4.0155E2,4.1784998E2,3.8559998E2,4.0545E2,4.1595E2,4.062E2,4.0505E2,3.7835E2,4.0709998E2,4.1E2,4.1625E2,-1.5887329E-1,4.1534998E2,4.077E2,3.0705E2,3.725E2,3.7484998E2,3.66E2,3.9695E2,1.6899262E-1,4.272E2,4.1634998E2,3.7365002E2,4.127E2,3.9795E2,4.2505E2,4.2035E2,4.1640002E2,-7.1840254E-3,9.8184105E-3,-1.1384583E-2,1.2346116E-1,-4.0390015E-2,-1.6436769E-1,4.112026E-2,-1.8877354E-2,-3.2404177E-2,5.1535908E-2,-3.563482E-3,-5.662308E-2,8.983064E-2,-3.3496094E-3,1.2899781E-2,-7.13253E-2,2.448578E-2,9.799347E-2,-2.5722658E-2,2.107877E-2,1.2575379E-1,1.9055177E-2,-8.3782196E-2,-1.6598511E-2,3.198923E-2,-1.0160746E-2],"split_indices":[41,22,0,36,22,36,35,1,8,25,32,27,10,5,0,1,11,31,2,8,5,35,0,35,5,1,0,40,0,25,17,0,0,0,0,0,0,0,0,0,0,0,0,0,0,0,0,0,0,0,0,0,0,0,0,0,0],"split_type":[0,0,0,0,0,0,0,0,0,0,0,0,0,0,0,0,0,0,0,0,0,0,0,0,0,0,0,0,0,0,0,0,0,0,0,0,0,0,0,0,0,0,0,0,0,0,0,0,0,0,0,0,0,0,0,0,0],"sum_hessian":[6.58E2,6.57E2,1E0,5.33E2,1.24E2,4.33E2,1E2,1.5E1,1.09E2,3.57E2,7.6E1,2.7E1,7.3E1,1.1E1,4E0,1.8E1,9.1E1,3.53E2,4E0,4E0,7.2E1,2.4E1,3E0,5E1,2.3E1,9E0,2E0,1.4E1,4E0,6E0,8.5E1,1.62E2,1.91E2,1E0,3E0,2E0,2E0,6E0,6.6E1,4E0,2E1,4.3E1,7E0,9E0,1.4E1,2E0,7E0,1E0,1E0,4E0,1E1,2E0,2E0,3E0,3E0,1.2E1,7.3E1],"tree_param":{"num_deleted":"0","num_feature":"60","num_nodes":"57","size_leaf_vector":"0"}},{"base_weights":[1.4082543E-3,2.6850862E-2,-6.6691567E-3,5.2571753E-3,2.5012425E-1,-2.75692E-1,2.2012845E-3,2.0692661E-2,-3.0420357E-1,-1.09817505E-1,3.582736E-1,-1.3504791E-1,-5.580994E-1,3.1809998E-1,-1.7438163E-3,-5.465421E-3,1.7791443E-1,-4.2952728E-1,-1.0282898E-1,1.0803223E-1,-2.1844482E-1,4.614067E-1,6.2438965E-2,-6.0913086E-2,-2.680893E-1,-6.882248E-1,-1.8798828E-2,9.341431E-2,7.2076416E-1,-8.037676E-2,3.1096337E-3,-1.9989284E-2,1.7749701E-1,5.837097E-1,7.196763E-2,-1.2020874E-1,-2.5344849E-2,5.2300006E-1,1.8441772E-1,7.560221E-2,1.1474609E-2,-1.4068604E-1,2.4210613E-3,-3.0763754E-1,-7.472229E-2,-6.2194824E-2,1.478653E-1,-7.1207684E-4,-2.0343018E-1,1.8873902E-1,-3.225708E-3,1.0727426E-2,-1.4753237E-1,2.838222E-1,-1.2976074E-1,-6.941877E-2,1.5539828E-1,3.6895752E-2,-4.4352215E-2,-7.7064514E-2,1.3027954E-1,-2.4417114E-1,1.01989746E-1,2.5623575E-1,-6.0935974E-2,-1.1120954E-1,6.091188E-3],"categories":[],"categories_nodes":[],"categories_segments":[],"categories_sizes":[],"default_left":[1,1,1,1,1,1,1,1,1,1,1,1,1,1,1,1,1,0,1,0,0,1,1,1,1,0,0,1,0,1,1,1,1,0,1,0,0,0,0,0,0,0,1,0,0,0,0,1,1,1,1,0,0,0,0,0,0,0,0,0,0,0,0,0,0,0,0],"id":74,"left_children":[1,3,5,7,9,11,13,15,17,19,21,23,25,27,29,31,33,-1,35,-1,-1,37,39,41,43,-1,-1,45,-1,47,49,51,53,-1,55,-1,-1,-1,-1,-1,-1,-1,57,-1,-1,-1,-1,59,61,63,65,-1,-1,-1,-1,-1,-1,-1,-1,-1,-1,-1,-1,-1,-1,-1,-1],"loss_changes":[1.3561042E-1,7.6527107E-1,1.1961688E0,7.036897E-1,5.8432925E-1,5.601326E-1,6.062333E-1,5.767392E-1,1.3249123E-1,1.18256815E-1,3.0680406E-1,1.0202587E-1,3.3794582E-1,4.7550756E-1,1.8381931E-1,3.250839E-1,8.178461E-1,0E0,2.3399517E-3,0E0,0E0,4.003501E-2,1.8159207E-3,4.5811772E-2,7.601917E-3,0E0,0E0,5.1561814E-2,0E0,2.7433944E-1,5.345244E-1,4.4428325E-1,3.3085212E-1,0E0,2.1131888E-1,0E0,0E0,0E0,0E0,0E0,0E0,0E0,1.1311374E-2,0E0,0E0,0E0,0E0,1.9006747E-1,1.6177708E-1,2.6839775E-1,4.4335005E-1,0E0,0E0,0E0,0E0,0E0,0E0,0E0,0E0,0E0,0E0,0E0,0E0,0E0,0E0,0E0,0E0],"parents":[2147483647,0,0,1,1,2,2,3,3,4,4,5,5,6,6,7,7,8,8,9,9,10,10,11,11,12,12,13,13,14,14,15,15,16,16,18,18,21,21,22,22,23,23,24,24,27,27,29,29,30,30,31,31,32,32,34,34,42,42,47,47,48,48,49,49,50,50],"right_children":[2,4,6,8,10,12,14,16,18,20,22,24,26,28,30,32,34,-1,36,-1,-1,38,40,42,44,-1,-1,46,-1,48,50,52,54,-1,56,-1,-1,-1,-1,-1,-1,-1,58,-1,-1,-1,-1,60,62,64,66,-1,-1,-1,-1,-1,-1,-1,-1,-1,-1,-1,-1,-1,-1,-1,-1],"split_conditions":[3.073E2,3.23E2,3.1155E2,3.2095E2,3.0065E2,3.2765002E2,3.0015E2,3.029E2,3.286E2,3.1365E2,3.043E2,3.025E2,3.7715E2,3.051E2,3.028E2,3.19E2,2.876E2,-1.288582E-1,3.5935E2,3.2409668E-2,-6.553345E-2,3.0659998E2,3.758E2,2.9965E2,3.152E2,-2.0646745E-1,-5.6396485E-3,2.9325E2,2.1622926E-1,3E2,3.563E2,2.995E2,3.0575E2,1.7511292E-1,2.9865E2,-3.6062624E-2,-7.603455E-3,1.5690002E-1,5.5325318E-2,2.2680664E-2,3.442383E-3,-4.220581E-2,3.1695E2,-9.2291266E-2,-2.2416689E-2,-1.8658448E-2,4.435959E-2,2.9745E2,3.9055E2,3.752E2,3.6935E2,3.218228E-3,-4.4259712E-2,8.5146666E-2,-3.8928226E-2,-2.0825632E-2,4.6619486E-2,1.1068726E-2,-1.3305665E-2,-2.3119355E-2,3.9083865E-2,-7.3251344E-2,3.0596925E-2,7.6870725E-2,-1.8280793E-2,-3.3362865E-2,1.8273565E-3],"split_indices":[25,10,23,15,22,5,3,24,4,6,34,20,2,1,51,0,56,0,0,0,0,35,0,14,2,0,0,3,0,47,29,8,51,0,31,0,0,0,0,0,0,0,0,0,0,0,0,45,0,39,31,0,0,0,0,0,0,0,0,0,0,0,0,0,0,0,0],"split_type":[0,0,0,0,0,0,0,0,0,0,0,0,0,0,0,0,0,0,0,0,0,0,0,0,0,0,0,0,0,0,0,0,0,0,0,0,0,0,0,0,0,0,0,0,0,0,0,0,0,0,0,0,0,0,0,0,0,0,0,0,0,0,0,0,0,0,0],"sum_hessian":[6.58E2,1.58E2,5E2,1.45E2,1.3E1,1.5E1,4.85E2,1.39E2,6E0,3E0,1E1,1.1E1,4E0,5E0,4.8E2,1.2E2,1.9E1,3E0,3E0,1E0,2E0,7E0,3E0,8E0,3E0,3E0,1E0,4E0,1E0,2.7E1,4.53E2,1.12E2,8E0,3E0,1.6E1,2E0,1E0,5E0,2E0,2E0,1E0,3E0,5E0,2E0,1E0,1E0,3E0,1.7E1,1E1,1.4E1,4.39E2,9.1E1,2.1E1,6E0,2E0,6E0,1E1,3E0,2E0,1.1E1,6E0,9E0,1E0,1.1E1,3E0,3.4E1,4.05E2],"tree_param":{"num_deleted":"0","num_feature":"60","num_nodes":"67","size_leaf_vector":"0"}},{"base_weights":[1.1493411E-3,-1.0234287E-3,8.8531494E-2,7.362351E-3,-3.488612E-2,2.197609E-1,-3.7953693E-2,3.160732E-3,2.2006837E-1,4.5288086E-2,-6.67509E-2,2.98879E-1,-1.1728923E-2,-1.01735435E-1,6.720734E-2,4.9477154E-3,-2.2323608E-1,3.8398743E-2,2.9244122E-1,1.593951E-1,-4.924084E-2,-2.3485565E-1,-4.1022405E-2,-3.1219482E-2,1.3626099E-2,-3.294881E-2,-1.2789154E-1,7.405599E-3,1.23306274E-1,-7.671269E-4,1.1470337E-1,3.4721678E-1,1.0366821E-1,1.6113281E-2,2.5808105E-1,-9.132576E-2,7.119242E-2,-5.7800293E-2,-3.161583E-1,8.256277E-2,-6.16224E-2,7.240432E-3,-1.06255926E-1,2.8009865E-1,-1.4233398E-2,4.359131E-2,-2.2262573E-2,3.1543732E-1,1.9104004E-2,3.520711E-2,-1.11916676E-1,-2.5054932E-2,1.2557983E-1,-8.920288E-2,3.390503E-2,3.4484863E-3,2.399292E-1,-2.5024414E-1,-3.6692303E-2],"categories":[],"categories_nodes":[],"categories_segments":[],"categories_sizes":[],"default_left":[1,1,1,1,1,1,1,1,1,1,1,0,1,1,1,1,0,0,1,1,1,1,1,0,0,0,0,0,0,1,1,0,0,1,1,1,1,1,0,1,1,0,0,0,0,0,0,0,0,0,0,0,0,0,0,0,0,0,0],"id":75,"left_children":[1,3,5,7,9,11,13,15,17,19,21,-1,23,25,27,29,-1,-1,31,33,35,37,39,-1,-1,-1,-1,-1,-1,41,43,-1,-1,45,47,49,51,53,-1,55,57,-1,-1,-1,-1,-1,-1,-1,-1,-1,-1,-1,-1,-1,-1,-1,-1,-1,-1],"loss_changes":[1.2520921E-1,1.8313037E-1,2.739179E-1,4.613523E-1,3.300289E-1,1.5002578E-1,6.7203544E-2,2.066247E-1,1.20250195E-1,4.0694606E-1,3.882732E-1,0E0,1.9079504E-3,6.581269E-3,1.2506099E-2,3.1684232E-1,0E0,0E0,3.6385655E-2,2.3621982E-1,1.1293861E-1,1.5446675E-1,2.113019E-1,0E0,0E0,0E0,0E0,0E0,0E0,4.0707377E-1,5.371251E-1,0E0,0E0,9.406397E-3,1.3104218E-1,4.5627117E-2,3.4554254E-2,1.742335E-2,0E0,1.4857179E-1,3.199831E-1,0E0,0E0,0E0,0E0,0E0,0E0,0E0,0E0,0E0,0E0,0E0,0E0,0E0,0E0,0E0,0E0,0E0,0E0],"parents":[2147483647,0,0,1,1,2,2,3,3,4,4,5,5,6,6,7,7,8,8,9,9,10,10,12,12,13,13,14,14,15,15,18,18,19,19,20,20,21,21,22,22,29,29,30,30,33,33,34,34,35,35,36,36,37,37,39,39,40,40],"right_children":[2,4,6,8,10,12,14,16,18,20,22,-1,24,26,28,30,-1,-1,32,34,36,38,40,-1,-1,-1,-1,-1,-1,42,44,-1,-1,46,48,50,52,54,-1,56,58,-1,-1,-1,-1,-1,-1,-1,-1,-1,-1,-1,-1,-1,-1,-1,-1,-1,-1],"split_conditions":[4.4565E2,4.1405E2,4.4945E2,4.1415002E2,4.0125E2,4.4955E2,4.4065002E2,4.2259998E2,3.9775E2,4.2259998E2,4.036E2,8.96637E-2,4.233E2,4.3825E2,4.489E2,4.073E2,-6.6970825E-2,1.1519623E-2,4.1905E2,3.9495E2,4.2925E2,3.988E2,4.1425E2,-9.3658455E-3,4.08783E-3,-9.884643E-3,-3.8367465E-2,2.2216798E-3,3.6991883E-2,4.0475E2,4.0715002E2,1.0416504E-1,3.1100465E-2,3.882E2,4.1484998E2,3.6915E2,4.0365E2,4.362E2,-9.484749E-2,4.1815002E2,4.1390002E2,2.1721297E-3,-3.187678E-2,8.40296E-2,-4.2700195E-3,1.3077393E-2,-6.678772E-3,9.46312E-2,5.7312013E-3,1.0562134E-2,-3.3575006E-2,-7.5164796E-3,3.767395E-2,-2.6760865E-2,1.0171509E-2,1.034546E-3,7.197876E-2,-7.507324E-2,-1.1007691E-2],"split_indices":[19,15,20,14,40,24,25,12,58,18,39,0,0,3,2,13,0,0,10,38,21,37,14,0,0,0,0,0,0,19,14,0,0,46,33,55,4,0,0,4,16,0,0,0,0,0,0,0,0,0,0,0,0,0,0,0,0,0,0],"split_type":[0,0,0,0,0,0,0,0,0,0,0,0,0,0,0,0,0,0,0,0,0,0,0,0,0,0,0,0,0,0,0,0,0,0,0,0,0,0,0,0,0,0,0,0,0,0,0,0,0,0,0,0,0,0,0,0,0,0,0],"sum_hessian":[6.58E2,6.43E2,1.5E1,5.16E2,1.27E2,7E0,8E0,5.07E2,9E0,3.6E1,9.1E1,5E0,2E0,5E0,3E0,5.04E2,3E0,3E0,6E0,1.6E1,2E1,1.1E1,8E1,1E0,1E0,2E0,3E0,2E0,1E0,4.8E2,2.4E1,4E0,2E0,7E0,9E0,1.5E1,5E0,4E0,7E0,1.1E1,6.9E1,4.47E2,3.3E1,1E1,1.4E1,4E0,3E0,7E0,2E0,2E0,1.3E1,2E0,3E0,3E0,1E0,8E0,3E0,7E0,6.2E1],"tree_param":{"num_deleted":"0","num_feature":"60","num_nodes":"59","size_leaf_vector":"0"}},{"base_weights":[1.1052086E-3,6.4871326E-2,-1.6164192E-3,2.4983088E-2,2.8798294E-1,-2.9015023E-1,1.6074295E-3,1.5110016E-1,-2.2888184E-4,-2.470398E-2,-3.3027396E-1,-6.084391E-2,4.737752E-3,1.8478394E-1,2.5024414E-2,5.392583E-2,-6.519165E-2,-5.6257984E-3,-3.3580932E-1,1.2024498E-1,-1.7895303E-3,-2.571106E-2,7.2424315E-2,-9.707423E-2,6.9007874E-3,-2.4608765E-2,2.3447418E-1,-3.7169266E-1,-9.6138E-2,9.063228E-2,5.1911926E-1,-1.2345398E-1,3.8152593E-3,1.465861E-2,8.503342E-2,-1.54953E-2,1.953125E-2,3.0408733E-2,-9.7395465E-2,-4.743788E-2,1.407192E-1,-4.4174194E-3,-2.1666718E-1,7.737343E-2,-3.8019456E-3],"categories":[],"categories_nodes":[],"categories_segments":[],"categories_sizes":[],"default_left":[1,1,1,1,0,1,1,1,1,0,0,1,1,0,0,1,1,1,1,1,1,0,1,0,1,1,0,0,0,1,0,1,1,0,0,0,0,0,0,0,0,0,0,0,0],"id":76,"left_children":[1,3,5,7,-1,9,11,13,15,-1,-1,17,19,-1,-1,21,23,25,27,29,31,-1,33,-1,35,37,-1,-1,-1,39,-1,41,43,-1,-1,-1,-1,-1,-1,-1,-1,-1,-1,-1,-1],"loss_changes":[1.1447276E-1,2.3309259E-1,5.8927625E-1,7.634642E-2,0E0,6.639576E-2,1.2286227E-1,1.2362719E-2,7.739435E-2,0E0,0E0,4.5360294E-1,4.5107627E-1,0E0,0E0,1.954005E-2,2.3654819E-2,1.2427318E-1,7.2672367E-3,3.3092684E-1,3.8711038E-1,0E0,6.0372613E-3,0E0,1.4341343E-3,1.0307522E-1,0E0,0E0,0E0,2.2105622E-1,0E0,2.7643737E-1,3.0454123E-1,0E0,0E0,0E0,0E0,0E0,0E0,0E0,0E0,0E0,0E0,0E0,0E0],"parents":[2147483647,0,0,1,1,2,2,3,3,5,5,6,6,7,7,8,8,11,11,12,12,15,15,16,16,17,17,18,18,19,19,20,20,22,22,24,24,25,25,29,29,31,31,32,32],"right_children":[2,4,6,8,-1,10,12,14,16,-1,-1,18,20,-1,-1,22,24,26,28,30,32,-1,34,-1,36,38,-1,-1,-1,40,-1,42,44,-1,-1,-1,-1,-1,-1,-1,-1,-1,-1,-1,-1],"split_conditions":[2.1635E2,2.1785E2,2.193E2,1.9505E2,8.639488E-2,2.079E2,2.217E2,2.0935E2,2.206E2,-7.411194E-3,-9.9082194E-2,2.265E2,2.8845E2,5.5435184E-2,7.5073247E-3,2.1335E2,2.392E2,2.318E2,3.0325E2,2.883E2,2.9625E2,-7.7133183E-3,2.136E2,-2.912227E-2,1.9775E2,2.6135E2,7.034226E-2,-1.115078E-1,-2.88414E-2,2.252E2,1.5573579E-1,3.0065002E2,3.031E2,4.397583E-3,2.5510026E-2,-4.6485905E-3,5.859375E-3,9.12262E-3,-2.921864E-2,-1.4231364E-2,4.2215765E-2,-1.3252259E-3,-6.5000154E-2,2.321203E-2,-1.1405838E-3],"split_indices":[10,12,9,5,0,5,54,0,35,0,0,47,43,0,0,1,51,49,0,43,43,0,37,0,4,15,0,0,0,52,0,15,54,0,0,0,0,0,0,0,0,0,0,0,0],"split_type":[0,0,0,0,0,0,0,0,0,0,0,0,0,0,0,0,0,0,0,0,0,0,0,0,0,0,0,0,0,0,0,0,0,0,0,0,0,0,0,0,0,0,0,0,0],"sum_hessian":[6.58E2,2.6E1,6.32E2,2.3E1,3E0,6E0,6.26E2,3E0,2E1,1E0,5E0,2.9E1,5.97E2,2E0,1E0,1.1E1,9E0,2.5E1,4E0,3.1E1,5.66E2,2E0,9E0,6E0,3E0,2.4E1,1E0,3E0,1E0,3E1,1E0,2.4E1,5.42E2,2E0,7E0,1E0,2E0,1.4E1,1E1,8E0,2.2E1,1.1E1,1.3E1,5E1,4.92E2],"tree_param":{"num_deleted":"0","num_feature":"60","num_nodes":"45","size_leaf_vector":"0"}},{"base_weights":[8.956145E-4,-7.2394474E-4,8.827718E-2,9.6178055E-4,-1.20517306E-1,-4.5648195E-2,1.6094589E-1,-3.5739582E-4,2.1080017E-1,-1.8788656E-2,-1.4689854E-1,-1.8447876E-2,-7.722473E-2,2.264862E-1,-2.3783365E-2,1.3492043E-2,-1.1824818E-2,-4.8828125E-3,-2.330017E-2,-1.8501282E-1,-7.205963E-2,-4.5928955E-3,-2.1535238E-2,7.888794E-3,-4.3563843E-2,3.9390647E-3,2.5456378E-1,-1.7568415E-1,-7.982021E-4,-2.0333616E-2,3.6745474E-2,6.28713E-2,4.0382895E-1,-3.2583183E-1,-9.901428E-2,-3.4615073E-1,2.3823369E-3],"categories":[],"categories_nodes":[],"categories_segments":[],"categories_sizes":[],"default_left":[1,1,1,1,1,1,1,1,0,1,1,1,0,0,1,1,1,0,0,0,0,0,0,0,0,1,1,1,1,0,0,0,0,0,0,0,0],"id":77,"left_children":[1,3,5,7,9,11,13,15,-1,17,19,21,-1,-1,23,25,27,-1,-1,-1,-1,-1,-1,-1,-1,29,31,33,35,-1,-1,-1,-1,-1,-1,-1,-1],"loss_changes":[9.332534E-2,1.3097219E-1,1.241331E-1,1.772362E-1,2.1393523E-2,2.8698267E-3,1.022443E-1,1.01326205E-1,0E0,7.443887E-5,6.635055E-3,7.2192284E-5,0E0,0E0,2.2231373E-3,6.6455066E-1,6.304378E-1,0E0,0E0,0E0,0E0,0E0,0E0,0E0,0E0,2.2291473E-1,2.8935385E-1,2.2099769E-1,3.611022E-1,0E0,0E0,0E0,0E0,0E0,0E0,0E0,0E0],"parents":[2147483647,0,0,1,1,2,2,3,3,4,4,5,5,6,6,7,7,9,9,10,10,11,11,14,14,15,15,16,16,25,25,26,26,27,27,28,28],"right_children":[2,4,6,8,10,12,14,16,-1,18,20,22,-1,-1,24,26,28,-1,-1,-1,-1,-1,-1,-1,-1,30,32,34,36,-1,-1,-1,-1,-1,-1,-1,-1],"split_conditions":[4.448E2,4.436E2,4.3815E2,4.4495E2,4.343E2,4.3665E2,4.47E2,3.7655E2,6.324005E-2,4.1135E2,4.396E2,4.3075E2,-2.316742E-2,6.794587E-2,4.396E2,3.8105E2,3.8055E2,-1.4648438E-3,-6.9900514E-3,-5.550385E-2,-2.161789E-2,-1.3778687E-3,-6.4605717E-3,2.3666383E-3,-1.3069154E-2,3.0705E2,3.704E2,3.6345E2,3.5595E2,-6.100085E-3,1.10236425E-2,1.886139E-2,1.2114869E-1,-9.774955E-2,-2.9704286E-2,-1.03845224E-1,7.147011E-4],"split_indices":[30,40,25,51,33,2,11,13,0,0,48,0,0,0,0,11,13,0,0,0,0,0,0,0,0,31,14,21,26,0,0,0,0,0,0,0,0],"split_type":[0,0,0,0,0,0,0,0,0,0,0,0,0,0,0,0,0,0,0,0,0,0,0,0,0,0,0,0,0,0,0,0,0,0,0,0,0],"sum_hessian":[6.58E2,6.47E2,1.1E1,6.39E2,8E0,4E0,7E0,6.36E2,3E0,2E0,6E0,3E0,1E0,5E0,2E0,2.88E2,3.48E2,1E0,1E0,3E0,3E0,1E0,2E0,1E0,1E0,2.78E2,1E1,2.1E1,3.27E2,1.6E2,1.18E2,5E0,5E0,6E0,1.5E1,2E0,3.25E2],"tree_param":{"num_deleted":"0","num_feature":"60","num_nodes":"37","size_leaf_vector":"0"}},{"base_weights":[5.110189E-4,5.6608412E-2,-1.8825681E-3,2.5723776E-2,2.2776413E-1,-2.1309116E-1,4.784251E-4,1.2608337E-1,5.3827194E-3,-1.7944336E-2,-2.4262492E-1,3.5491172E-2,-4.5607104E-3,1.5189616E-1,2.432251E-2,4.519272E-2,-4.2927552E-2,-4.4985864E-2,8.56809E-2,-1.15081295E-1,2.0494994E-3,-1.6494751E-2,5.9179686E-2,-8.008728E-2,-4.8065186E-3,1.600769E-2,-2.5639343E-1,1.22476116E-1,-2.5634766E-2,5.375417E-2,-1.4961712E-1,2.9202706E-1,-1.9113047E-3,8.150635E-2,3.0710855E-2,1.969401E-2,-2.1980286E-2,-2.4643747E-2,1.240605E-1,-3.2595825E-1,-1.22730255E-1,9.437692E-2,4.094747E-1,2.9028999E-2,-1.1890259E-1,-2.7915955E-2,1.4472961E-1,-2.3375893E-1,-1.3627485E-2,4.5654297E-2,6.0530597E-1,1.22605264E-1,-6.166577E-3],"categories":[],"categories_nodes":[],"categories_segments":[],"categories_sizes":[],"default_left":[1,1,1,1,0,1,1,1,1,0,0,1,1,0,0,1,1,1,1,1,1,0,1,0,1,1,1,1,1,1,1,1,1,0,0,0,0,0,0,0,0,0,0,0,0,0,0,0,0,0,0,0,0],"id":78,"left_children":[1,3,5,7,-1,9,11,13,15,-1,-1,17,19,-1,-1,21,23,25,27,29,31,-1,33,-1,35,37,39,41,43,45,47,49,51,-1,-1,-1,-1,-1,-1,-1,-1,-1,-1,-1,-1,-1,-1,-1,-1,-1,-1,-1,-1],"loss_changes":[8.859313E-2,1.3686527E-1,3.1575504E-1,4.831541E-2,0E0,3.599021E-2,1.1078596E-1,6.812431E-3,4.232788E-2,0E0,0E0,3.2294497E-1,4.0131563E-1,0E0,0E0,1.1330003E-2,1.378073E-2,4.0383375E-1,2.0383793E-1,1.8879962E-1,5.966526E-1,0E0,3.8530082E-3,0E0,2.9574782E-3,1.12869866E-1,2.5082856E-2,2.5973892E-1,6.973044E-2,4.8620123E-2,2.943172E-1,5.1264906E-1,2.725701E-1,0E0,0E0,0E0,0E0,0E0,0E0,0E0,0E0,0E0,0E0,0E0,0E0,0E0,0E0,0E0,0E0,0E0,0E0,0E0,0E0],"parents":[2147483647,0,0,1,1,2,2,3,3,5,5,6,6,7,7,8,8,11,11,12,12,15,15,16,16,17,17,18,18,19,19,20,20,22,22,24,24,25,25,26,26,27,27,28,28,29,29,30,30,31,31,32,32],"right_children":[2,4,6,8,-1,10,12,14,16,-1,-1,18,20,-1,-1,22,24,26,28,30,32,-1,34,-1,36,38,40,42,44,46,48,50,52,-1,-1,-1,-1,-1,-1,-1,-1,-1,-1,-1,-1,-1,-1,-1,-1,-1,-1,-1,-1],"split_conditions":[2.1635E2,2.1785E2,2.193E2,1.9505E2,6.8329245E-2,2.079E2,3.009E2,2.0935E2,2.206E2,-5.383301E-3,-7.278748E-2,2.2175E2,3.0590002E2,4.556885E-2,7.296753E-3,2.1335E2,2.383E2,2.2104999E2,3.0525E2,2.8995E2,3.0005E2,-4.9484256E-3,2.1870001E2,-2.4026185E-2,2.079E2,2.2215E2,2.9835E2,3.0695E2,3.0215002E2,2.996E2,3.1465E2,3.087E2,3.0185E2,2.4451906E-2,9.213257E-3,5.9082033E-3,-6.594086E-3,-7.3931245E-3,3.721815E-2,-9.778748E-2,-3.6819078E-2,2.8313078E-2,1.22842416E-1,8.7087E-3,-3.5670776E-2,-8.374787E-3,4.3418884E-2,-7.012768E-2,-4.088246E-3,1.369629E-2,1.815918E-1,3.678158E-2,-1.8499731E-3],"split_indices":[10,12,9,5,0,5,10,0,35,0,0,53,11,0,0,1,47,47,4,42,3,0,1,0,9,39,0,3,27,11,27,10,24,0,0,0,0,0,0,0,0,0,0,0,0,0,0,0,0,0,0,0,0],"split_type":[0,0,0,0,0,0,0,0,0,0,0,0,0,0,0,0,0,0,0,0,0,0,0,0,0,0,0,0,0,0,0,0,0,0,0,0,0,0,0,0,0,0,0,0,0,0,0,0,0,0,0,0,0],"sum_hessian":[6.58E2,2.6E1,6.32E2,2.3E1,3E0,6E0,6.26E2,3E0,2E1,1E0,5E0,7.8E1,5.48E2,2E0,1E0,1.1E1,9E0,3E1,4.8E1,3E1,5.18E2,2E0,9E0,4E0,5E0,2.4E1,6E0,3.6E1,1.2E1,5E0,2.5E1,6E0,5.12E2,4E0,5E0,2E0,3E0,1.8E1,6E0,3E0,3E0,3.4E1,2E0,8E0,4E0,3E0,2E0,1.5E1,1E1,4E0,2E0,1.6E1,4.96E2],"tree_param":{"num_deleted":"0","num_feature":"60","num_nodes":"53","size_leaf_vector":"0"}},{"base_weights":[7.573592E-4,7.122476E-2,-7.709704E-4,8.444801E-2,-5.0338745E-2,-1.3137163E-1,6.58679E-4,2.8982544E-2,1.0587904E-1,-3.7756346E-2,-2.4360657E-1,1.6495666E-1,-6.340075E-4,1.0955811E-2,3.734843E-2,1.3463974E-1,6.905874E-2,-7.863362E-3,-5.5063885E-2,6.768417E-2,2.7702332E-1,-2.7416524E-2,6.2345546E-3,-3.0295632E-4,-1.6813442E-1,8.838908E-2,-1.7636919E-3,-8.395414E-3,4.4088745E-1,-6.604004E-2,-2.9692248E-1,1.4744059E-2,2.2094917E-1,-2.6729837E-1,1.7187793E-3],"categories":[],"categories_nodes":[],"categories_segments":[],"categories_sizes":[],"default_left":[1,1,1,1,0,1,1,1,1,1,0,1,1,0,0,0,0,0,0,0,0,1,1,1,1,1,1,0,0,0,0,0,0,0,0],"id":79,"left_children":[1,3,5,7,-1,9,11,13,15,17,-1,19,21,-1,-1,-1,-1,-1,-1,-1,-1,23,25,27,29,31,33,-1,-1,-1,-1,-1,-1,-1,-1],"loss_changes":[7.102751E-2,2.6755512E-2,1.20703235E-1,1.2384221E-2,0E0,6.435063E-2,1.3603148E-1,3.448655E-4,2.3275614E-4,2.1538818E-3,0E0,3.575492E-2,1.1716781E-1,0E0,0E0,0E0,0E0,0E0,0E0,0E0,0E0,4.9594638E-1,3.3330157E-1,3.9643604E-1,2.5651044E-1,4.360499E-1,4.2860338E-1,0E0,0E0,0E0,0E0,0E0,0E0,0E0,0E0],"parents":[2147483647,0,0,1,1,2,2,3,3,5,5,6,6,7,7,8,8,9,9,11,11,12,12,21,21,22,22,23,23,24,24,25,25,26,26],"right_children":[2,4,6,8,-1,10,12,14,16,18,-1,20,22,-1,-1,-1,-1,-1,-1,-1,-1,24,26,28,30,32,34,-1,-1,-1,-1,-1,-1,-1,-1],"split_conditions":[2.1435E2,2.3315E2,2.1465E2,2.0795E2,-1.5101624E-2,2.1685E2,2.1079999E2,2.3135E2,2.227E2,2.708E2,-7.308197E-2,2.9184998E2,3.06E2,3.2867433E-3,1.120453E-2,4.0391922E-2,2.0717623E-2,-2.3590089E-3,-1.6519167E-2,2.0305254E-2,8.3106995E-2,3.055E2,3.2545E2,3.2765E2,3.1925E2,3.112E2,3.3415002E2,-2.5186243E-3,1.3226624E-1,-1.9812012E-2,-8.907674E-2,4.423218E-3,6.628475E-2,-8.018951E-2,5.1563384E-4],"split_indices":[35,22,44,31,0,30,48,0,6,0,0,3,28,0,0,0,0,0,0,0,0,25,26,16,11,13,22,0,0,0,0,0,0,0,0],"split_type":[0,0,0,0,0,0,0,0,0,0,0,0,0,0,0,0,0,0,0,0,0,0,0,0,0,0,0,0,0,0,0,0,0,0,0],"sum_hessian":[6.58E2,1.3E1,6.45E2,1.2E1,1E0,6E0,6.39E2,4E0,8E0,4E0,2E0,4E0,6.35E2,2E0,2E0,3E0,5E0,2E0,2E0,3E0,1E0,1.29E2,5.06E2,1.09E2,2E1,4.4E1,4.62E2,1.08E2,1E0,1.2E1,8E0,2.9E1,1.5E1,5E0,4.57E2],"tree_param":{"num_deleted":"0","num_feature":"60","num_nodes":"35","size_leaf_vector":"0"}},{"base_weights":[6.5612793E-4,-3.8548888E-4,9.773036E-2,7.012098E-3,-1.89967E-2,1.5978393E-1,-3.8269043E-2,3.971555E-3,1.813469E-1,-1.24673024E-1,-2.6755664E-4,1.7993927E-1,3.95813E-2,-3.291567E-3,3.9677545E-2,2.7420554E-1,-6.4819336E-2,-2.814331E-1,-4.789734E-2,9.6601404E-2,-1.6528275E-2,4.524853E-3,-1.7230046E-1,1.5588549E-1,4.736228E-3,8.09021E-2,2.9668579E-1,-1.6616821E-2,-8.061218E-2,-7.6059975E-2,-3.2924542E-1,6.1110064E-2,-1.6301575E-1,2.293362E-1,1.0520427E-2,-2.1944885E-1,-5.4597855E-4,2.0874108E-3,3.0038452E-1,-2.2824708E-1,1.6486613E-1,2.849155E-1,2.4169922E-2,1.3582866E-1,-9.393965E-3,-3.5327658E-1,-9.25293E-2,1.0461426E-1,-4.1175842E-2,-5.7428997E-2,-2.571167E-1,-1.1274719E-1,2.8619003E-1,-1.109848E-1,5.0145466E-2,1.2664795E-3,-3.1422207E-1,1.7742412E-1,-9.223008E-3],"categories":[],"categories_nodes":[],"categories_segments":[],"categories_sizes":[],"default_left":[1,1,1,1,1,1,0,1,1,1,1,0,0,1,1,1,1,1,1,1,1,1,1,1,1,0,0,0,0,0,1,1,1,1,1,1,1,0,0,0,0,0,0,0,0,0,0,0,0,0,0,0,0,0,0,0,0,0,0],"id":80,"left_children":[1,3,5,7,9,11,-1,13,15,17,19,-1,-1,21,23,25,27,29,31,33,35,37,39,41,43,-1,-1,-1,-1,-1,45,47,49,51,53,55,57,-1,-1,-1,-1,-1,-1,-1,-1,-1,-1,-1,-1,-1,-1,-1,-1,-1,-1,-1,-1,-1,-1],"loss_changes":[6.66719E-2,9.003697E-2,6.518953E-2,2.4735369E-1,3.6810288E-1,4.9913824E-3,0E0,1.1968495E-1,2.0064309E-1,3.235103E-1,2.520469E-1,0E0,0E0,5.0806075E-1,3.1597745E-1,2.070576E-3,9.442456E-4,6.33319E-2,2.609371E-1,2.6038396E-1,4.4418994E-1,2.647528E-1,3.5830677E-1,2.9902834E-1,1.1427E-1,0E0,0E0,0E0,0E0,0E0,7.131517E-3,5.3256106E-2,8.459216E-2,2.0730588E-1,7.778513E-2,2.0957696E-1,1.9930059E-1,0E0,0E0,0E0,0E0,0E0,0E0,0E0,0E0,0E0,0E0,0E0,0E0,0E0,0E0,0E0,0E0,0E0,0E0,0E0,0E0,0E0,0E0],"parents":[2147483647,0,0,1,1,2,2,3,3,4,4,5,5,7,7,8,8,9,9,10,10,13,13,14,14,15,15,16,16,17,17,18,18,19,19,20,20,21,21,22,22,23,23,24,24,30,30,31,31,32,32,33,33,34,34,35,35,36,36],"right_children":[2,4,6,8,10,12,-1,14,16,18,20,-1,-1,22,24,26,28,30,32,34,36,38,40,42,44,-1,-1,-1,-1,-1,46,48,50,52,54,56,58,-1,-1,-1,-1,-1,-1,-1,-1,-1,-1,-1,-1,-1,-1,-1,-1,-1,-1,-1,-1,-1,-1],"split_conditions":[4.505E2,4.0684998E2,4.5E2,4.06E2,4.1275E2,4.7445E2,-1.1480713E-2,3.9385E2,4.1285E2,4.063E2,4.1490002E2,5.3981785E-2,1.187439E-2,3.903E2,3.9715002E2,3.89E2,4.063E2,3.978E2,4.128E2,4.1515002E2,4.0465002E2,3.898E2,4.0255E2,3.9835E2,3.72E2,2.4270631E-2,8.900574E-2,-4.9850466E-3,-2.4183655E-2,-2.2817994E-2,4.0785E2,4.3075E2,4.16E2,3.708E2,4.1145E2,3.992E2,4.0809998E2,6.262233E-4,9.011536E-2,-6.847413E-2,4.945984E-2,8.5474655E-2,7.2509767E-3,4.07486E-2,-2.8181896E-3,-1.0598298E-1,-2.775879E-2,3.1384278E-2,-1.2352753E-2,-1.72287E-2,-7.713501E-2,-3.382416E-2,8.585701E-2,-3.329544E-2,1.50436405E-2,3.7994387E-4,-9.426662E-2,5.322724E-2,-2.7669023E-3],"split_indices":[17,0,20,0,0,0,0,11,4,1,1,0,0,11,13,16,0,7,1,18,5,11,26,7,1,0,0,0,0,0,5,45,18,23,1,4,5,0,0,0,0,0,0,0,0,0,0,0,0,0,0,0,0,0,0,0,0,0,0],"split_type":[0,0,0,0,0,0,0,0,0,0,0,0,0,0,0,0,0,0,0,0,0,0,0,0,0,0,0,0,0,0,0,0,0,0,0,0,0,0,0,0,0,0,0,0,0,0,0,0,0,0,0,0,0,0,0,0,0,0,0],"sum_hessian":[6.58E2,6.52E2,6E0,4.67E2,1.85E2,4E0,2E0,4.6E2,7E0,2.7E1,1.58E2,3E0,1E0,3.83E2,7.7E1,5E0,2E0,8E0,1.9E1,2.2E1,1.36E2,3.67E2,1.6E1,1.7E1,6E1,1E0,4E0,1E0,1E0,2E0,6E0,1E1,9E0,8E0,1.4E1,9E0,1.27E2,3.65E2,2E0,1.4E1,2E0,8E0,9E0,5E0,5.5E1,5E0,1E0,7E0,3E0,5E0,4E0,1E0,7E0,3E0,1.1E1,3E0,6E0,5E0,1.22E2],"tree_param":{"num_deleted":"0","num_feature":"60","num_nodes":"59","size_leaf_vector":"0"}},{"base_weights":[6.05327E-4,5.2706037E-2,-1.1078502E-3,1.3878716E-2,2.1425247E-1,-2.5112625E-2,5.432432E-3,-8.934021E-2,3.2364845E-2,-1.2972745E-2,-2.8800455E-1,1.0712629E-1,-2.1682447E-3,-3.1026204E-3,6.822014E-2,-2.2417376E-2,1.185947E-1,-1.3117981E-1,-4.011027E-1,3.2968026E-2,3.1769815E-1,-2.768046E-1,1.3877605E-3,-4.002762E-2,2.2031149E-2,2.6348114E-2,8.807373E-2,-2.740089E-4,-8.883864E-2,1.7028809E-1,1.1405945E-2,1.1002197E-1,-5.8476374E-2,5.6309E-1,1.6714478E-1,1.7745972E-2,-3.3926392E-1,4.9798105E-2,-4.5791846E-3,-1.209259E-2,-4.530843E-2,2.6313782E-2,8.977254E-3,7.6065063E-3,3.0059814E-2,-1.860984E-2,1.2657166E-1,-1.1149755E-1,1.5981038E-1,7.519531E-2,1.9903564E-1,-1.0406494E-2,2.214559E-2,4.460653E-3,1.6235657E-1,2.2162544E-2,-1.9193116E-1,3.3416748E-2,1.8386333E-1,-1.457538E-2,1.5898374E-1,-9.871928E-2,6.033317E-3],"categories":[],"categories_nodes":[],"categories_segments":[],"categories_sizes":[],"default_left":[1,1,1,1,0,1,1,0,1,1,1,1,1,1,1,1,1,0,0,1,1,1,1,1,1,1,0,1,1,1,1,1,1,0,1,0,0,1,1,0,0,0,0,0,0,0,0,0,0,0,0,0,0,0,0,0,0,0,0,0,0,0,0],"id":81,"left_children":[1,3,5,7,-1,9,11,-1,13,15,17,19,21,23,25,27,29,-1,-1,31,33,35,37,39,41,43,-1,45,47,49,51,53,55,-1,57,-1,-1,59,61,-1,-1,-1,-1,-1,-1,-1,-1,-1,-1,-1,-1,-1,-1,-1,-1,-1,-1,-1,-1,-1,-1,-1,-1],"loss_changes":[5.8879253E-2,1.2874718E-1,1.0045815E-1,3.723761E-2,0E0,4.334961E-1,3.8902217E-1,0E0,2.0558804E-2,1.6668257E-1,5.3802937E-2,5.360737E-1,4.5841348E-1,9.234433E-3,4.329901E-3,1.8235368E-1,4.7926247E-2,0E0,0E0,1.9667979E-1,2.3838365E-1,1.164051E-1,1.3425994E-1,4.2182393E-5,9.920471E-5,4.9602706E-5,0E0,2.2098261E-1,1.9247606E-1,1.435563E-3,1.1674893E-3,8.214344E-2,1.4415511E-1,0E0,9.506047E-3,0E0,0E0,3.6077887E-1,4.1420725E-1,0E0,0E0,0E0,0E0,0E0,0E0,0E0,0E0,0E0,0E0,0E0,0E0,0E0,0E0,0E0,0E0,0E0,0E0,0E0,0E0,0E0,0E0,0E0,0E0],"parents":[2147483647,0,0,1,1,2,2,3,3,5,5,6,6,8,8,9,9,10,10,11,11,12,12,13,13,14,14,15,15,16,16,19,19,20,20,21,21,22,22,23,23,24,24,25,25,27,27,28,28,29,29,30,30,31,31,32,32,34,34,37,37,38,38],"right_children":[2,4,6,8,-1,10,12,-1,14,16,18,20,22,24,26,28,30,-1,-1,32,34,36,38,40,42,44,-1,46,48,50,52,54,56,-1,58,-1,-1,60,62,-1,-1,-1,-1,-1,-1,-1,-1,-1,-1,-1,-1,-1,-1,-1,-1,-1,-1,-1,-1,-1,-1,-1,-1],"split_conditions":[2.1535E2,2.1595E2,3.0355E2,2.0420001E2,6.427574E-2,3.1884998E2,3.178E2,-2.6802065E-2,2.1379999E2,3.0775E2,3.2655E2,3.1365E2,3.1705E2,2.1585E2,2.1575E2,3.027E2,3.098E2,-3.9353944E-2,-1.2033081E-1,3.0705E2,3.1725E2,2.9865E2,3.6725E2,2.1254999E2,2.1570001E2,2.1695001E2,2.642212E-2,3.0634998E2,3.0965002E2,3.133E2,2.9835E2,3.028E2,3.028E2,1.6892701E-1,3.1745E2,5.323792E-3,-1.0177918E-1,3.62E2,3.753E2,-3.6277773E-3,-1.3592529E-2,7.894135E-3,2.6931763E-3,2.281952E-3,9.017944E-3,-5.5829524E-3,3.7971497E-2,-3.3449266E-2,4.7943115E-2,2.2558594E-2,5.9710696E-2,-3.1219483E-3,6.643677E-3,1.3381959E-3,4.8706975E-2,6.6487635E-3,-5.757935E-2,1.0025024E-2,5.5159E-2,-4.372614E-3,4.7695123E-2,-2.9615784E-2,1.8099953E-3],"split_indices":[15,13,40,22,0,51,40,0,8,51,18,13,38,1,36,29,59,0,0,38,3,18,9,0,5,4,0,23,48,14,7,43,15,0,3,0,0,9,10,0,0,0,0,0,0,0,0,0,0,0,0,0,0,0,0,0,0,0,0,0,0,0,0],"split_type":[0,0,0,0,0,0,0,0,0,0,0,0,0,0,0,0,0,0,0,0,0,0,0,0,0,0,0,0,0,0,0,0,0,0,0,0,0,0,0,0,0,0,0,0,0,0,0,0,0,0,0,0,0,0,0,0,0,0,0,0,0,0,0],"sum_hessian":[6.58E2,2E1,6.38E2,1.7E1,3E0,1.36E2,5.02E2,2E0,1.5E1,1.31E2,5E0,3.4E1,4.68E2,8E0,7E0,1.23E2,8E0,3E0,2E0,2.6E1,8E0,5E0,4.63E2,3E0,5E0,3E0,4E0,9.3E1,3E1,5E0,3E0,1.4E1,1.2E1,2E0,6E0,1E0,4E0,5E1,4.13E2,1E0,2E0,3E0,2E0,1E0,2E0,8.2E1,1.1E1,2.8E1,2E0,2E0,3E0,1E0,2E0,5E0,9E0,8E0,4E0,1E0,5E0,3.2E1,1.8E1,4.1E1,3.72E2],"tree_param":{"num_deleted":"0","num_feature":"60","num_nodes":"63","size_leaf_vector":"0"}},{"base_weights":[7.2221074E-4,8.5647395E-3,-1.2565021E-2,4.108731E-3,1.5786998E-1,-8.632584E-2,1.8184625E-3,-4.711022E-3,3.988762E-2,9.041249E-2,4.4995117E-1,-1.7924042E-1,6.2749954E-3,1.7761612E-1,-5.257918E-3,3.5485704E-3,-2.032142E-1,3.1061554E-1,2.530581E-2,-3.9927166E-2,1.23813204E-1,-3.3981323E-2,-2.253947E-1,-6.0366545E-2,7.2346084E-2,2.6100159E-2,2.6330566E-1,1.1542358E-1,-1.1581902E-2,-3.0272065E-3,7.942261E-2,-6.621007E-2,-3.1118774E-1,9.298706E-2,3.521627E-1,3.773346E-1,1.5708923E-2,-5.4473877E-2,-5.41687E-3,1.7999268E-1,8.590698E-3,-5.6861877E-2,7.85319E-3,-3.2626778E-1,-1.2189399E-1,-9.323459E-2,5.8359783E-2,1.7550659E-1,1.1722565E-2,-1.8692017E-2,4.7261555E-2,1.3897705E-1,-4.827881E-2,-1.6984558E-1,-6.3864216E-3,9.14053E-3,-5.738053E-2,2.2163086E-1,-1.4421463E-2,-1.2081299E-1,4.6864826E-2,-8.6364746E-2,-3.83844E-1,-2.5666046E-1,3.0418083E-2,4.8294067E-2,1.9667359E-1,2.5482178E-2,-2.104187E-2,-1.373291E-4,1.1917114E-2,-8.329773E-2,-3.5287985E-1,-4.5791626E-2,-1.5231323E-1,-1.2283834E-1,-2.5520325E-2,4.2119343E-2,-5.2978516E-2,7.737223E-2,1.9664001E-1,-3.4169514E-2,-2.2914124E-1,-1.25177E-1,3.9932944E-4],"categories":[],"categories_nodes":[],"categories_segments":[],"categories_sizes":[],"default_left":[1,1,1,1,1,1,1,1,1,1,0,1,1,1,1,1,1,1,1,1,1,1,1,1,1,1,0,1,1,1,1,1,1,0,0,0,1,0,0,1,1,0,1,1,1,1,0,0,1,0,0,1,0,1,1,0,0,0,0,0,0,0,0,0,0,0,0,0,0,0,0,0,0,0,0,0,0,0,0,0,0,0,0,0,0],"id":82,"left_children":[1,3,5,7,9,11,13,15,17,19,-1,21,23,25,27,29,31,33,35,37,39,41,43,45,47,49,-1,51,53,55,57,59,61,-1,-1,-1,63,-1,-1,65,67,-1,69,71,73,75,-1,-1,77,-1,-1,79,-1,81,83,-1,-1,-1,-1,-1,-1,-1,-1,-1,-1,-1,-1,-1,-1,-1,-1,-1,-1,-1,-1,-1,-1,-1,-1,-1,-1,-1,-1,-1,-1],"loss_changes":[6.8779044E-2,2.7545312E-1,2.6008666E-1,1.2767453E-1,1.9575557E-1,3.4528345E-1,2.572002E-1,5.3357667E-1,3.0795586E-1,5.2831337E-2,0E0,1.2642735E-1,9.683194E-2,9.699434E-2,1.5321124E-1,1.5640575E-1,1.7170292E-1,3.4207702E-3,2.5420776E-1,1.2109559E-3,5.6712E-2,6.1897277E-3,1.1683649E-1,4.836648E-2,6.673609E-2,4.6748742E-3,0E0,4.5267224E-2,1.5514392E-1,1.9165665E-1,3.3683127E-1,4.888142E-2,8.119297E-2,0E0,0E0,0E0,3.1228778E-1,0E0,0E0,3.6829412E-3,2.5383444E-3,0E0,9.905516E-5,1.5867472E-2,1.38601065E-2,1.4906488E-2,0E0,0E0,1.7965056E-2,0E0,0E0,1.675637E-2,0E0,4.0440366E-2,1.4917539E-1,0E0,0E0,0E0,0E0,0E0,0E0,0E0,0E0,0E0,0E0,0E0,0E0,0E0,0E0,0E0,0E0,0E0,0E0,0E0,0E0,0E0,0E0,0E0,0E0,0E0,0E0,0E0,0E0,0E0,0E0],"parents":[2147483647,0,0,1,1,2,2,3,3,4,4,5,5,6,6,7,7,8,8,9,9,11,11,12,12,13,13,14,14,15,15,16,16,17,17,18,18,19,19,20,20,21,21,22,22,23,23,24,24,25,25,27,27,28,28,29,29,30,30,31,31,32,32,36,36,39,39,40,40,42,42,43,43,44,44,45,45,48,48,51,51,53,53,54,54],"right_children":[2,4,6,8,10,12,14,16,18,20,-1,22,24,26,28,30,32,34,36,38,40,42,44,46,48,50,-1,52,54,56,58,60,62,-1,-1,-1,64,-1,-1,66,68,-1,70,72,74,76,-1,-1,78,-1,-1,80,-1,82,84,-1,-1,-1,-1,-1,-1,-1,-1,-1,-1,-1,-1,-1,-1,-1,-1,-1,-1,-1,-1,-1,-1,-1,-1,-1,-1,-1,-1,-1,-1],"split_conditions":[3.9715002E2,3.9845E2,3.8925E2,3.8245E2,4.133E2,4.0685E2,3.898E2,3.8055E2,3.65E2,3.93E2,1.3498536E-1,3.7559998E2,3.747E2,3.8725E2,3.8725E2,3.966E2,3.7359998E2,3.6735E2,3.657E2,3.914E2,4.03E2,3.7365002E2,3.879E2,3.7965002E2,3.79E2,4E2,7.89917E-2,4.3085E2,3.9315002E2,3.7355E2,3.7015E2,3.7865002E2,3.817E2,2.789612E-2,1.0564881E-1,1.1320038E-1,3.677E2,-1.6342163E-2,-1.6250612E-3,3.7240002E2,4.138E2,-1.7058564E-2,3.7440002E2,3.693E2,3.906E2,4.28E2,1.7507935E-2,5.265198E-2,4.0205E2,-5.607605E-3,1.4178467E-2,4.021E2,-1.4483643E-2,4.0425E2,3.98E2,2.742159E-3,-1.721416E-2,6.648926E-2,-4.326439E-3,-3.6243897E-2,1.4059449E-2,-2.5909426E-2,-1.151532E-1,-7.6998144E-2,9.1254255E-3,1.4488221E-2,5.900208E-2,7.644654E-3,-6.312561E-3,-4.119873E-5,3.5751343E-3,-2.498932E-2,-1.0586396E-1,-1.3737489E-2,-4.569397E-2,-3.6851503E-2,-7.656098E-3,1.2635804E-2,-1.5893556E-2,2.321167E-2,5.8992006E-2,-1.0250854E-2,-6.874237E-2,-3.75531E-2,1.1979884E-4],"split_indices":[21,22,41,19,45,13,42,19,8,21,0,3,53,43,48,1,35,2,6,0,12,6,7,47,37,0,0,17,48,12,41,13,16,0,0,0,6,0,0,8,0,0,0,0,23,7,0,0,25,0,0,38,0,24,22,0,0,0,0,0,0,0,0,0,0,0,0,0,0,0,0,0,0,0,0,0,0,0,0,0,0,0,0,0,0],"split_type":[0,0,0,0,0,0,0,0,0,0,0,0,0,0,0,0,0,0,0,0,0,0,0,0,0,0,0,0,0,0,0,0,0,0,0,0,0,0,0,0,0,0,0,0,0,0,0,0,0,0,0,0,0,0,0,0,0,0,0,0,0,0,0,0,0,0,0,0,0,0,0,0,0,0,0,0,0,0,0,0,0,0,0,0,0],"sum_hessian":[6.58E2,4.14E2,2.44E2,4.03E2,1.1E1,3.9E1,2.05E2,3.24E2,7.9E1,1E1,1E0,1.9E1,2E1,7E0,1.98E2,3.12E2,1.2E1,3E0,7.6E1,2E0,8E0,5E0,1.4E1,1E1,1E1,3E0,4E0,9E0,1.89E2,2.88E2,2.4E1,6E0,6E0,1E0,2E0,1E0,7.5E1,1E0,1E0,5E0,3E0,3E0,2E0,6E0,8E0,8E0,2E0,3E0,7E0,1E0,2E0,8E0,1E0,5E0,1.84E2,2.36E2,5.2E1,9E0,1.5E1,4E0,2E0,2E0,4E0,3E0,7.2E1,1E0,4E0,2E0,1E0,1E0,1E0,1E0,5E0,3E0,5E0,5E0,3E0,5E0,2E0,5E0,3E0,2E0,3E0,9E0,1.75E2],"tree_param":{"num_deleted":"0","num_feature":"60","num_nodes":"85","size_leaf_vector":"0"}},{"base_weights":[6.745126E-4,8.989136E-3,-1.08961025E-2,8.915613E-4,1.304156E-1,-1.0225751E-1,6.612142E-4,-4.389633E-3,1.8670043E-1,3.379364E-1,5.8018733E-2,-1.7458428E-1,-1.9618443E-3,9.678511E-2,-8.740505E-3,-2.6408604E-3,-2.0694987E-1,2.58946E-1,1.3595581E-2,4.6410522E-1,-1.4645386E-1,-3.2773104E-2,1.6254002E-1,8.890788E-3,-1.9807434E-1,-1.4726765E-1,3.4528095E-2,2.1954006E-1,1.0957991E-2,-2.1396485E-1,-4.057871E-3,-8.019879E-4,-1.6150284E-1,3.569336E-1,9.6221924E-2,-4.8533123E-2,9.9990845E-2,5.6274414E-2,-1.1635844E-1,2.671051E-1,6.573995E-2,-7.404175E-2,-2.332484E-1,-3.955078E-2,-1.8135071E-1,9.336199E-2,-3.986613E-2,2.614877E-1,4.8482258E-2,-1.1282349E-1,4.0990192E-2,-1.0965729E-1,-3.1559753E-1,-2.602539E-1,-5.2980747E-4,-9.82775E-3,3.637471E-2,2.0401001E-2,1.1469523E-1,3.153483E-4,8.417511E-2,-1.4396667E-1,-4.076131E-2,1.059672E-1,1.9134521E-2,-2.4897628E-1,-3.012085E-2,-3.2424927E-3,-7.5408936E-2,3.4175873E-1,1.1584473E-1,7.2955325E-2,-7.922363E-2,5.5048943E-2,-9.9872025E-3],"categories":[],"categories_nodes":[],"categories_segments":[],"categories_sizes":[],"default_left":[1,1,1,1,1,1,1,1,1,1,1,1,1,1,1,1,0,1,1,0,0,1,1,0,1,1,1,1,1,1,1,1,0,0,1,0,0,1,1,0,1,0,1,0,0,0,1,1,0,0,1,0,0,0,1,0,0,0,0,0,0,0,0,0,0,0,0,0,0,0,0,0,0,0,0],"id":83,"left_children":[1,3,5,7,9,11,13,15,17,19,21,23,25,27,29,31,-1,33,35,-1,-1,37,39,-1,41,43,45,47,49,51,53,55,-1,-1,57,-1,-1,59,61,-1,63,-1,65,-1,-1,-1,67,69,-1,-1,71,-1,-1,-1,73,-1,-1,-1,-1,-1,-1,-1,-1,-1,-1,-1,-1,-1,-1,-1,-1,-1,-1,-1,-1],"loss_changes":[6.349723E-2,3.774555E-1,2.91494E-1,3.5506624E-1,3.4096584E-1,2.2453344E-1,2.2316352E-1,1.2414304E-1,1.2154007E-1,4.3465972E-1,1.8563083E-1,7.933819E-2,7.931568E-2,2.293798E-1,2.1535462E-1,1.021149E-1,0E0,7.726973E-2,2.632337E-2,0E0,0E0,8.842174E-2,7.353768E-2,0E0,5.2533567E-2,3.8414001E-3,5.624481E-2,5.1901698E-2,5.6668684E-2,1.8397734E-2,1.996187E-1,1.1679265E-1,0E0,0E0,3.2627545E-3,0E0,0E0,9.341236E-3,6.6543445E-3,0E0,9.2212185E-3,0E0,3.0837774E-2,0E0,0E0,0E0,7.5657284E-3,4.2245418E-2,0E0,0E0,5.1891588E-2,0E0,0E0,0E0,1.1566279E-1,0E0,0E0,0E0,0E0,0E0,0E0,0E0,0E0,0E0,0E0,0E0,0E0,0E0,0E0,0E0,0E0,0E0,0E0,0E0,0E0],"parents":[2147483647,0,0,1,1,2,2,3,3,4,4,5,5,6,6,7,7,8,8,9,9,10,10,11,11,12,12,13,13,14,14,15,15,17,17,18,18,21,21,22,22,24,24,25,25,26,26,27,27,28,28,29,29,30,30,31,31,34,34,37,37,38,38,40,40,42,42,46,46,47,47,50,50,54,54],"right_children":[2,4,6,8,10,12,14,16,18,20,22,24,26,28,30,32,-1,34,36,-1,-1,38,40,-1,42,44,46,48,50,52,54,56,-1,-1,58,-1,-1,60,62,-1,64,-1,66,-1,-1,-1,68,70,-1,-1,72,-1,-1,-1,74,-1,-1,-1,-1,-1,-1,-1,-1,-1,-1,-1,-1,-1,-1,-1,-1,-1,-1,-1,-1],"split_conditions":[3.936E2,3.919E2,3.9855E2,3.94E2,3.958E2,3.983E2,4.0245E2,3.923E2,4.0134998E2,3.974E2,4.054E2,3.9125E2,3.777E2,3.892E2,3.951E2,3.9115E2,-6.2084965E-2,3.8409998E2,4.0915E2,1.3923158E-1,-4.393616E-2,3.92E2,4.055E2,2.6672366E-3,3.5845E2,3.9159998E2,3.9965E2,4.0109998E2,3.7490002E2,4.0195E2,3.388E2,3.9790002E2,-4.8450854E-2,1.0708008E-1,3.958E2,-1.4559938E-2,2.9997254E-2,3.8375E2,3.998E2,8.013153E-2,3.9865E2,-2.2212524E-2,4.168E2,-1.1865235E-2,-5.4405216E-2,2.8008597E-2,4.1575E2,4.0109998E2,1.4544678E-2,-3.384705E-2,4.3065002E2,-3.289719E-2,-9.4679266E-2,-7.807618E-2,4.0684998E2,-2.9483251E-3,1.0912414E-2,6.1203004E-3,3.440857E-2,9.46045E-5,2.5252534E-2,-4.3190002E-2,-1.2228394E-2,3.1790163E-2,5.7403566E-3,-7.469288E-2,-9.036255E-3,-9.7274786E-4,-2.2622682E-2,1.02527626E-1,3.475342E-2,2.1886598E-2,-2.3767091E-2,1.6514683E-2,-2.9961609E-3],"split_indices":[2,5,2,0,8,1,2,0,0,4,10,3,14,10,0,5,0,3,0,0,0,14,18,0,51,0,9,6,23,1,40,51,0,0,0,0,0,10,5,0,5,0,34,0,0,0,25,1,0,0,53,0,0,0,0,0,0,0,0,0,0,0,0,0,0,0,0,0,0,0,0,0,0,0,0],"split_type":[0,0,0,0,0,0,0,0,0,0,0,0,0,0,0,0,0,0,0,0,0,0,0,0,0,0,0,0,0,0,0,0,0,0,0,0,0,0,0,0,0,0,0,0,0,0,0,0,0,0,0,0,0,0,0,0,0,0,0,0,0,0,0,0,0,0,0,0,0,0,0,0,0,0,0],"sum_hessian":[6.58E2,3.83E2,2.75E2,3.6E2,2.3E1,3E1,2.45E2,3.51E2,9E0,5E0,1.8E1,1.7E1,1.3E1,2.1E1,2.24E2,3.49E2,2E0,6E0,3E0,4E0,1E0,1E1,8E0,2E0,1.5E1,2E0,1.1E1,8E0,1.3E1,4E0,2.2E2,3.46E2,3E0,3E0,3E0,2E0,1E0,5E0,5E0,3E0,5E0,4E0,1.1E1,1E0,1E0,6E0,5E0,6E0,2E0,2E0,1.1E1,3E0,1E0,2E0,2.18E2,2.79E2,6.7E1,1E0,2E0,2E0,3E0,3E0,2E0,2E0,3E0,1E1,1E0,3E0,2E0,3E0,3E0,9E0,2E0,3.1E1,1.87E2],"tree_param":{"num_deleted":"0","num_feature":"60","num_nodes":"75","size_leaf_vector":"0"}},{"base_weights":[4.7603255E-4,-2.5919007E-4,1.2093353E-1,2.1068011E-3,-5.7670005E-2,1.8230183E-1,-3.1585693E-2,-5.807138E-4,6.727539E-2,-2.623349E-2,-1.5808614E-1,1.4507726E-3,-7.117058E-2,-5.8031354E-2,1.0990022E-1,-1.08673096E-1,1.3987224E-2,-6.6321896E-4,1.12976074E-1,3.8154602E-2,-9.732274E-2,3.4128826E-2,-1.0172119E-1,1.4505577E-1,-5.819702E-2,-2.6321411E-2,-1.18011475E-1,4.536133E-2,-4.0634155E-2,1.3954929E-3,-7.843831E-2,-2.0777384E-2,2.2790019E-1,3.0517578E-3,4.88383E-2,-1.0623873E-1,9.292603E-3,-1.14349365E-1,-2.5604248E-2,1.9278632E-1,7.322693E-2,-8.050537E-2,4.3640137E-3,8.3459474E-2,6.052653E-3,-5.368805E-2,-9.684245E-3],"categories":[],"categories_nodes":[],"categories_segments":[],"categories_sizes":[],"default_left":[1,1,1,1,1,0,0,1,1,1,0,1,1,1,1,1,1,1,1,1,1,0,1,1,1,0,0,1,1,0,0,0,0,0,0,0,0,0,0,0,0,0,0,0,0,0,0],"id":84,"left_children":[1,3,5,7,9,-1,-1,11,13,15,-1,17,19,21,23,25,27,29,31,33,35,-1,37,39,41,-1,-1,43,45,-1,-1,-1,-1,-1,-1,-1,-1,-1,-1,-1,-1,-1,-1,-1,-1,-1,-1],"loss_changes":[5.8394413E-2,8.9228265E-2,4.3197513E-2,1.1055339E-1,7.792792E-2,0E0,0E0,8.714849E-2,1.3990712E-1,7.115141E-2,0E0,1.3941118E-1,5.2317828E-2,3.165687E-2,1.2072328E-1,2.2769943E-3,2.7548673E-2,9.313716E-2,1.7382164E-1,1.3510701E-3,1.4295369E-2,0E0,1.8782616E-3,4.073772E-2,5.9338603E-3,0E0,0E0,1.4470724E-2,1.9041719E-3,0E0,0E0,0E0,0E0,0E0,0E0,0E0,0E0,0E0,0E0,0E0,0E0,0E0,0E0,0E0,0E0,0E0,0E0],"parents":[2147483647,0,0,1,1,2,2,3,3,4,4,7,7,8,8,9,9,11,11,12,12,13,13,14,14,15,15,16,16,17,17,18,18,19,19,20,20,22,22,23,23,24,24,27,27,28,28],"right_children":[2,4,6,8,10,-1,-1,12,14,16,-1,18,20,22,24,26,28,30,32,34,36,-1,38,40,42,-1,-1,44,46,-1,-1,-1,-1,-1,-1,-1,-1,-1,-1,-1,-1,-1,-1,-1,-1,-1,-1],"split_conditions":[4.5005E2,4.362E2,4.3445E2,4.282E2,4.425E2,5.469055E-2,-9.475708E-3,4.254E2,4.0725E2,4.1595E2,-4.7425844E-2,4.2635E2,3.8355E2,3.675E2,4.475E2,3.7859998E2,4.453E2,4.206E2,4.1E2,3.6895E2,4.4765002E2,1.0238648E-2,4.0459998E2,4.2625E2,4.392E2,-7.896423E-3,-3.5403445E-2,4.3915002E2,4.306E2,4.186479E-4,-2.3531495E-2,-6.2332153E-3,6.837006E-2,9.155274E-4,1.465149E-2,-3.187162E-2,2.787781E-3,-3.4304813E-2,-7.681275E-3,5.78359E-2,2.196808E-2,-2.4151612E-2,1.3092041E-3,2.5037844E-2,1.8157959E-3,-1.6106416E-2,-2.9052736E-3],"split_indices":[43,40,0,39,23,0,0,40,6,20,0,43,7,11,17,0,48,44,21,0,8,0,3,57,0,0,0,45,2,0,0,0,0,0,0,0,0,0,0,0,0,0,0,0,0,0,0],"split_type":[0,0,0,0,0,0,0,0,0,0,0,0,0,0,0,0,0,0,0,0,0,0,0,0,0,0,0,0,0,0,0,0,0,0,0,0,0,0,0,0,0,0,0,0,0,0,0],"sum_hessian":[6.58E2,6.55E2,3E0,6.3E2,2.5E1,2E0,1E0,6.06E2,2.4E1,2E1,5E0,5.9E2,1.6E1,6E0,1.8E1,6E0,1.4E1,5.8E2,1E1,3E0,1.3E1,2E0,4E0,1.5E1,3E0,1E0,5E0,9E0,5E0,5.66E2,1.4E1,5E0,5E0,1E0,2E0,1.2E1,1E0,3E0,1E0,8E0,7E0,2E0,1E0,4E0,5E0,3E0,2E0],"tree_param":{"num_deleted":"0","num_feature":"60","num_nodes":"47","size_leaf_vector":"0"}},{"base_weights":[3.4743268E-4,7.499542E-2,-8.015325E-4,1.8911362E-2,1.9955444E-1,-9.766579E-2,4.0486813E-4,-2.802658E-2,5.2679442E-2,2.3784637E-1,6.148529E-2,5.203247E-3,-1.13104686E-1,1.4840443E-1,-9.87612E-4,-3.3950806E-3,-3.510539E-2,5.8696747E-2,1.4305115E-2,-1.2063599E-1,-3.3958435E-2,4.5888264E-2,1.8819046E-1,-1.9206746E-1,-8.473906E-5,-2.3147583E-1,-5.6625366E-2,5.166626E-2,-1.84884E-3,1.3974762E-1,1.5406609E-2,-5.3858005E-2,2.4428787E-3],"categories":[],"categories_nodes":[],"categories_segments":[],"categories_sizes":[],"default_left":[1,1,1,1,1,1,1,1,1,0,0,0,1,1,1,0,0,0,0,0,0,0,0,1,1,0,0,1,1,0,0,0,0],"id":85,"left_children":[1,3,5,7,9,11,13,15,17,-1,-1,-1,19,21,23,-1,-1,-1,-1,-1,-1,-1,-1,25,27,-1,-1,29,31,-1,-1,-1,-1],"loss_changes":[5.658118E-2,6.608391E-2,7.5996645E-2,1.4156458E-2,1.2367517E-3,1.3293989E-2,1.3266015E-1,5.78261E-4,3.1488668E-4,0E0,0E0,0E0,7.5913966E-5,1.5836537E-2,1.1005201E-1,0E0,0E0,0E0,0E0,0E0,0E0,0E0,0E0,2.9052496E-3,5.81585E-2,0E0,0E0,6.4916745E-2,1.3762812E-1,0E0,0E0,0E0,0E0],"parents":[2147483647,0,0,1,1,2,2,3,3,4,4,5,5,6,6,7,7,8,8,12,12,13,13,14,14,23,23,24,24,27,27,28,28],"right_children":[2,4,6,8,10,12,14,16,18,-1,-1,-1,20,22,24,-1,-1,-1,-1,-1,-1,-1,-1,26,28,-1,-1,30,32,-1,-1,-1,-1],"split_conditions":[2.116E2,2.8859998E2,2.1435E2,2.3055E2,2.866E2,2.5085E2,2.125E2,2.5805E2,2.879E2,7.135391E-2,1.8445589E-2,1.5609742E-3,2.9184998E2,2.3579999E2,2.1245E2,-1.0185242E-3,-1.0531617E-2,1.7609024E-2,4.2915344E-3,-3.6190797E-2,-1.0187531E-2,1.376648E-2,5.645714E-2,2.989E2,2.1595E2,-6.944275E-2,-1.698761E-2,2.0875E2,2.9585E2,4.1924287E-2,4.6219826E-3,-1.6157402E-2,7.328636E-4],"split_indices":[48,3,48,12,0,0,56,0,0,0,0,0,2,22,53,0,0,0,0,0,0,0,0,0,23,0,0,0,5,0,0,0,0],"split_type":[0,0,0,0,0,0,0,0,0,0,0,0,0,0,0,0,0,0,0,0,0,0,0,0,0,0,0,0,0,0,0,0,0],"sum_hessian":[6.58E2,9E0,6.49E2,7E0,2E0,7E0,6.42E2,3E0,4E0,1E0,1E0,1E0,6E0,5E0,6.37E2,1E0,2E0,3E0,1E0,5E0,1E0,2E0,3E0,2E0,6.35E2,1E0,1E0,2E1,6.15E2,5E0,1.5E1,4.6E1,5.69E2],"tree_param":{"num_deleted":"0","num_feature":"60","num_nodes":"33","size_leaf_vector":"0"}},{"base_weights":[3.4988704E-4,1.9162277E-2,-3.6622216E-3,1.6566481E-3,2.0455627E-1,-1.01625144E-1,-1.1667462E-4,9.495348E-3,-1.1168126E-1,-7.156372E-3,2.963126E-1,2.3332596E-2,-1.7646153E-1,1.8566704E-1,-2.980168E-3,-8.260225E-3,6.1031047E-2,1.7028809E-2,-1.6657105E-1,4.6223957E-2,-8.364868E-2,3.981018E-2,3.3242798E-1,-8.6300656E-2,1.5454102E-1,3.6621094E-4,-2.3544481E-1,4.312744E-2,3.1742477E-1,-1.10943384E-1,1.28463325E-5,9.020256E-3,-1.1119218E-1,2.445755E-1,5.6835357E-3,4.0267944E-2,-1.4724731E-2,-4.6813965E-2,-1.8480682E-1,5.7647705E-2,1.1688232E-2,-9.4810486E-2,-2.6130676E-2,4.7592163E-2,1.7432658E-1,5.758667E-2,-3.7902832E-2,-2.9468027E-1,-8.773041E-2,1.2054443E-3,1.05407715E-1,4.858017E-2,-1.5886618E-1,9.839422E-2,-2.1690247E-3,-6.301335E-3,8.6201064E-2,-1.6340256E-1,2.1026611E-2,3.388214E-2,2.7993774E-1,-7.225291E-2,9.8638915E-2,-8.1380205E-3,1.461792E-2,-1.7227173E-2,7.625834E-2,-2.26423E-1,-3.251343E-2,1.345486E-1,-4.2867023E-2,-1.8036228E-1,1.1217712E-3],"categories":[],"categories_nodes":[],"categories_segments":[],"categories_sizes":[],"default_left":[1,1,1,1,1,1,1,1,1,1,1,1,1,1,1,1,1,1,1,1,0,0,0,1,1,1,1,1,0,1,1,1,1,1,1,0,0,0,0,0,0,0,0,0,0,0,0,0,0,1,0,1,1,1,1,0,0,0,0,0,0,0,0,0,0,0,0,0,0,0,0,0,0],"id":86,"left_children":[1,3,5,7,9,11,13,15,17,19,21,23,25,27,29,31,33,35,37,39,-1,-1,-1,41,43,45,47,49,-1,51,53,55,57,59,61,-1,-1,-1,-1,-1,-1,-1,-1,-1,-1,-1,-1,-1,-1,63,-1,65,67,69,71,-1,-1,-1,-1,-1,-1,-1,-1,-1,-1,-1,-1,-1,-1,-1,-1,-1,-1],"loss_changes":[4.980975E-2,3.7613198E-1,1.8893683E-1,9.612159E-2,1.9638029E-1,1.8179365E-1,2.8038028E-1,9.292377E-2,5.2290596E-2,2.0199314E-2,5.161178E-2,1.2841544E-1,1.252448E-1,1.3655582E-1,1.6770872E-1,1.3618524E-1,2.6273692E-1,2.8067091E-3,2.267778E-3,5.097822E-4,0E0,0E0,0E0,8.272007E-5,1.6759336E-4,1.0941787E-2,5.2896976E-2,1.2927503E-2,0E0,1.14745155E-1,1.0882908E-1,7.859035E-2,7.9370916E-2,3.5218656E-2,1.5926379E-1,0E0,0E0,0E0,0E0,0E0,0E0,0E0,0E0,0E0,0E0,0E0,0E0,0E0,0E0,6.202369E-4,0E0,8.599423E-3,8.653411E-2,6.1947048E-2,2.9105553E-1,0E0,0E0,0E0,0E0,0E0,0E0,0E0,0E0,0E0,0E0,0E0,0E0,0E0,0E0,0E0,0E0,0E0,0E0],"parents":[2147483647,0,0,1,1,2,2,3,3,4,4,5,5,6,6,7,7,8,8,9,9,10,10,11,11,12,12,13,13,14,14,15,15,16,16,17,17,18,18,19,19,23,23,24,24,25,25,26,26,27,27,29,29,30,30,31,31,32,32,33,33,34,34,49,49,51,51,52,52,53,53,54,54],"right_children":[2,4,6,8,10,12,14,16,18,20,22,24,26,28,30,32,34,36,38,40,-1,-1,-1,42,44,46,48,50,-1,52,54,56,58,60,62,-1,-1,-1,-1,-1,-1,-1,-1,-1,-1,-1,-1,-1,-1,64,-1,66,68,70,72,-1,-1,-1,-1,-1,-1,-1,-1,-1,-1,-1,-1,-1,-1,-1,-1,-1,-1],"split_conditions":[3.009E2,2.983E2,3.0115E2,3.067E2,3.014E2,3.019E2,3.023E2,2.9065002E2,3.003E2,3.1445E2,2.9625E2,3.022E2,2.968E2,3.0484998E2,3.0435E2,2.905E2,2.2235E2,3.286E2,2.9855E2,2.9965E2,-2.5094606E-2,1.1943054E-2,9.97284E-2,3.01E2,2.9895E2,3.2335E2,3.0245E2,3.257E2,9.5227435E-2,2.89E2,3.032E2,2.3835E2,2.9905E2,2.846E2,3.028E2,1.20803835E-2,-4.4174194E-3,-1.404419E-2,-5.544205E-2,1.7294312E-2,3.5064698E-3,-2.8443146E-2,-7.839203E-3,1.4277649E-2,5.2297976E-2,1.7276002E-2,-1.137085E-2,-8.840408E-2,-2.6319124E-2,3.2485E2,3.1622317E-2,3.023E2,3.0525E2,3.263E2,3.0540002E2,-1.8904005E-3,2.586032E-2,-4.902077E-2,6.307984E-3,1.0164643E-2,8.398133E-2,-2.1675874E-2,2.9591676E-2,-2.4414062E-3,4.3853763E-3,-5.168152E-3,2.2877503E-2,-6.79269E-2,-9.754029E-3,4.0364582E-2,-1.2860107E-2,-5.4108687E-2,3.3653138E-4],"split_indices":[20,20,22,29,3,0,22,14,30,0,7,5,11,18,23,8,59,0,0,0,0,0,0,7,7,2,24,1,0,31,25,41,24,0,16,0,0,0,0,0,0,0,0,0,0,0,0,0,0,0,0,0,39,16,26,0,0,0,0,0,0,0,0,0,0,0,0,0,0,0,0,0,0],"split_type":[0,0,0,0,0,0,0,0,0,0,0,0,0,0,0,0,0,0,0,0,0,0,0,0,0,0,0,0,0,0,0,0,0,0,0,0,0,0,0,0,0,0,0,0,0,0,0,0,0,0,0,0,0,0,0,0,0,0,0,0,0,0,0,0,0,0,0,0,0,0,0,0,0],"sum_hessian":[6.58E2,1.15E2,5.43E2,1.06E2,9E0,1.8E1,5.25E2,1E2,6E0,3E0,6E0,7E0,1.1E1,7E0,5.18E2,7.5E1,2.5E1,2E0,4E0,2E0,1E0,1E0,5E0,4E0,3E0,3E0,8E0,4E0,3E0,1.3E1,5.05E2,6.5E1,1E1,5E0,2E1,1E0,1E0,1E0,3E0,1E0,1E0,3E0,1E0,1E0,2E0,1E0,2E0,5E0,3E0,3E0,1E0,3E0,1E1,1E1,4.95E2,5.5E1,1E1,7E0,3E0,1E0,4E0,1.1E1,9E0,2E0,1E0,1E0,2E0,6E0,4E0,8E0,2E0,8E0,4.87E2],"tree_param":{"num_deleted":"0","num_feature":"60","num_nodes":"73","size_leaf_vector":"0"}},{"base_weights":[3.8637847E-4,1.1643413E-2,-6.7023383E-3,1.871109E-3,1.0562388E-1,-9.792565E-2,3.3261732E-4,7.720174E-3,-7.7573776E-2,-2.2233443E-2,1.9853865E-1,9.75429E-2,-1.5315844E-1,9.9302016E-2,-3.474812E-3,-2.4034549E-3,9.321528E-2,-1.7949568E-1,1.5289306E-3,-8.626175E-2,1.1138153E-1,3.5629272E-1,7.130941E-2,2.2428131E-1,-5.3581238E-2,-2.443709E-1,-6.419725E-2,3.3792114E-1,3.137207E-2,-1.7162323E-1,3.029532E-4,1.19967675E-2,-6.422053E-2,2.2000122E-1,-2.1235539E-2,-2.5118002E-1,-1.0058594E-1,-4.1007996E-2,2.5617328E-2,-1.1364746E-1,-2.7364094E-3,3.225708E-2,1.2700398E-1,1.361084E-1,-7.751465E-3,-8.850098E-3,-9.388733E-2,7.6497397E-3,-3.0122545E-1,4.2427063E-2,-1.0042725E-1,-5.229405E-2,1.2375387E-1,-2.3555501E-1,1.3448079E-2,1.2654962E-1,-2.9535594E-3,3.2640223E-3,1.0220991E-1,-1.961037E-2,-1.6787997E-1,1.4343262E-2,2.6410928E-1,5.722724E-2,-1.5822144E-1,2.7008057E-3,-5.6477863E-2,3.7521362E-2,-2.2903442E-2,-3.3325195E-2,-1.23046875E-1,1.2359619E-3,-5.340576E-3,5.4992676E-2,-6.791178E-2,4.737854E-2,-3.590393E-2,-3.3480835E-1,-1.2245687E-1,-1.2268066E-2,6.474813E-2,-1.2866211E-1,-6.016032E-2,3.9347332E-2,-9.682007E-2,5.6755066E-2,1.718343E-1,-2.7511597E-2,-2.7166137E-1,-7.095337E-3,2.7267456E-2,1.925354E-1,-4.0664673E-3,-1.3646589E-1,-2.2020702E-4],"categories":[],"categories_nodes":[],"categories_segments":[],"categories_sizes":[],"default_left":[1,1,1,1,1,1,1,1,1,1,1,1,1,1,1,1,1,1,1,1,1,0,1,0,1,1,1,0,1,1,1,1,1,1,1,0,0,1,1,1,1,0,0,0,1,0,0,1,1,1,1,1,1,1,1,1,1,0,0,0,0,0,0,0,0,0,0,0,0,0,0,0,0,0,0,0,0,0,0,0,0,0,0,0,0,0,0,0,0,0,0,0,0,0,0],"id":87,"left_children":[1,3,5,7,9,11,13,15,17,19,21,23,25,27,29,31,33,35,37,39,41,-1,43,-1,45,47,49,-1,51,53,55,57,59,61,63,-1,-1,65,67,69,71,-1,-1,-1,73,-1,-1,75,77,79,81,83,85,87,89,91,93,-1,-1,-1,-1,-1,-1,-1,-1,-1,-1,-1,-1,-1,-1,-1,-1,-1,-1,-1,-1,-1,-1,-1,-1,-1,-1,-1,-1,-1,-1,-1,-1,-1,-1,-1,-1,-1,-1],"loss_changes":[5.266488E-2,2.3399581E-1,2.599421E-1,1.0840425E-1,2.8953025E-1,3.2803145E-1,1.4240582E-1,1.8804203E-1,1.2927121E-1,1.0371451E-1,2.5558597E-1,1.4608991E-1,1.7094254E-1,2.163301E-1,2.3127398E-1,1.7435546E-1,3.3841926E-1,1.4330968E-2,1.1296978E-2,1.798822E-2,8.4769353E-4,0E0,4.716262E-2,0E0,6.3808374E-3,1.5991801E-1,5.4479823E-2,0E0,9.922231E-2,9.782326E-2,1.4714497E-1,1.2492791E-1,1.6780561E-1,9.599477E-2,1.487824E-1,0E0,0E0,2.8572138E-3,4.902519E-3,4.2933226E-4,3.7634898E-5,0E0,0E0,0E0,2.2608187E-2,0E0,0E0,6.892081E-3,1.3032556E-2,5.6777485E-3,3.6289543E-3,3.2372586E-2,9.575523E-3,3.7596315E-2,1.0451635E-3,7.835218E-2,1.273327E-1,0E0,0E0,0E0,0E0,0E0,0E0,0E0,0E0,0E0,0E0,0E0,0E0,0E0,0E0,0E0,0E0,0E0,0E0,0E0,0E0,0E0,0E0,0E0,0E0,0E0,0E0,0E0,0E0,0E0,0E0,0E0,0E0,0E0,0E0,0E0,0E0,0E0,0E0],"parents":[2147483647,0,0,1,1,2,2,3,3,4,4,5,5,6,6,7,7,8,8,9,9,10,10,11,11,12,12,13,13,14,14,15,15,16,16,17,17,18,18,19,19,20,20,22,22,24,24,25,25,26,26,28,28,29,29,30,30,31,31,32,32,33,33,34,34,37,37,38,38,39,39,40,40,44,44,47,47,48,48,49,49,50,50,51,51,52,52,53,53,54,54,55,55,56,56],"right_children":[2,4,6,8,10,12,14,16,18,20,22,24,26,28,30,32,34,36,38,40,42,-1,44,-1,46,48,50,-1,52,54,56,58,60,62,64,-1,-1,66,68,70,72,-1,-1,-1,74,-1,-1,76,78,80,82,84,86,88,90,92,94,-1,-1,-1,-1,-1,-1,-1,-1,-1,-1,-1,-1,-1,-1,-1,-1,-1,-1,-1,-1,-1,-1,-1,-1,-1,-1,-1,-1,-1,-1,-1,-1,-1,-1,-1,-1,-1,-1],"split_conditions":[3.7145E2,3.6965002E2,3.7615002E2,3.968E2,3.88E2,3.653E2,3.6565002E2,3.2655E2,4.0740002E2,3.7705E2,4.001E2,3.7755E2,3.7345E2,3.7705E2,3.6835E2,3.073E2,3.7135E2,3.6675E2,3.643E2,4.268E2,3.8145E2,1.06887825E-1,3.75E2,6.72844E-2,3.97E2,3.6555E2,3.733E2,1.0137635E-1,3.8275E2,3.7784998E2,3.6565002E2,3.1745E2,3.0784998E2,3.022E2,3.871E2,-7.535401E-2,-3.0175783E-2,3.735E2,3.8340002E2,3.7934998E2,4.512E2,9.677124E-3,3.8101196E-2,4.083252E-2,3.7755E2,-2.6550293E-3,-2.81662E-2,3.621E2,3.792E2,3.5940002E2,3.684E2,3.7575E2,3.7285E2,3.6159998E2,3.8205E2,3.87E2,3.57E2,9.792068E-4,3.0662974E-2,-5.883111E-3,-5.036399E-2,4.3029785E-3,7.923279E-2,1.7168172E-2,-4.7466435E-2,8.1024173E-4,-1.694336E-2,1.1256409E-2,-6.871033E-3,-9.997559E-3,-3.6914065E-2,3.707886E-4,-1.602173E-3,1.6497804E-2,-2.0373534E-2,1.4213563E-2,-1.077118E-2,-1.0044251E-1,-3.6737062E-2,-3.68042E-3,1.942444E-2,-3.8598634E-2,-1.8048096E-2,1.18042E-2,-2.9046023E-2,1.7026521E-2,5.1550295E-2,-8.253479E-3,-8.1498414E-2,-2.128601E-3,8.180237E-3,5.7760622E-2,-1.2199403E-3,-4.093977E-2,-6.606211E-5],"split_indices":[15,14,15,43,55,32,6,25,49,26,50,13,19,55,6,25,9,16,18,0,0,0,30,0,0,6,40,0,56,2,8,45,58,0,28,0,0,4,1,4,0,0,0,0,0,0,0,0,21,0,14,16,3,2,1,15,26,0,0,0,0,0,0,0,0,0,0,0,0,0,0,0,0,0,0,0,0,0,0,0,0,0,0,0,0,0,0,0,0,0,0,0,0,0,0],"split_type":[0,0,0,0,0,0,0,0,0,0,0,0,0,0,0,0,0,0,0,0,0,0,0,0,0,0,0,0,0,0,0,0,0,0,0,0,0,0,0,0,0,0,0,0,0,0,0,0,0,0,0,0,0,0,0,0,0,0,0,0,0,0,0,0,0,0,0,0,0,0,0,0,0,0,0,0,0,0,0,0,0,0,0,0,0,0,0,0,0,0,0,0,0,0,0],"sum_hessian":[6.58E2,2.54E2,4.04E2,2.31E2,2.3E1,2.8E1,3.76E2,2.16E2,1.5E1,1E1,1.3E1,6E0,2.2E1,1.3E1,3.63E2,1.94E2,2.2E1,6E0,9E0,7E0,3E0,5E0,8E0,3E0,3E0,1E1,1.2E1,2E0,1.1E1,7E0,3.56E2,1.58E2,3.6E1,1E1,1.2E1,2E0,4E0,3E0,6E0,5E0,2E0,1E0,2E0,4E0,4E0,2E0,1E0,2E0,8E0,3E0,9E0,6E0,5E0,5E0,2E0,8E0,3.48E2,1.45E2,1.3E1,2.6E1,1E1,2E0,8E0,8E0,4E0,1E0,2E0,5E0,1E0,1E0,4E0,1E0,1E0,2E0,2E0,1E0,1E0,6E0,2E0,1E0,2E0,4E0,5E0,2E0,4E0,3E0,2E0,1E0,4E0,1E0,1E0,5E0,3E0,6E0,3.42E2],"tree_param":{"num_deleted":"0","num_feature":"60","num_nodes":"95","size_leaf_vector":"0"}},{"base_weights":[2.7000415E-4,7.3244967E-3,-9.54592E-3,1.2704838E-3,1.0229094E-1,-7.228236E-2,-1.6013045E-3,7.6014753E-3,-4.9884032E-2,2.5602214E-2,2.1873982E-1,-1.6094056E-1,-2.8697621E-2,6.774764E-2,-8.374973E-3,1.2411326E-3,9.0508506E-2,-9.997777E-3,-1.3195565E-1,8.803711E-2,-8.2722984E-2,3.8022614E-1,7.462565E-2,-2.0946394E-1,-3.578949E-2,4.6691895E-2,-7.511248E-2,-3.1010946E-2,1.693254E-1,-5.1769733E-2,8.8203335E-3,5.5515612E-3,-1.8058994E-1,-1.043396E-1,1.1403402E-1,-7.382202E-2,6.93242E-2,-1.998024E-1,-1.9500732E-2,-5.3253174E-2,1.3001633E-1,-1.8806458E-1,-2.4041748E-2,-6.277466E-2,1.1466064E-1,-5.6955975E-2,-2.5907594E-1,2.4261475E-3,-4.933675E-2,7.474772E-2,-7.0648193E-3,7.6141357E-3,-9.836648E-2,-7.084656E-2,7.564E-3,3.949992E-2,1.9378662E-1,-2.775768E-2,-1.7865905E-1,9.914358E-2,-3.1585693E-3,3.5745667E-3,1.9678752E-1,-3.2165527E-1,-5.9832763E-2,-1.55181885E-2,-1.4099121E-1,1.8631814E-1,3.1383168E-2,-9.645735E-2,5.641683E-2,1.5784912E-1,1.2440999E-2,3.31014E-2,-5.407715E-2,1.6616821E-2,-3.8360596E-2,6.8206787E-3,-1.3966878E-2,1.8636068E-2,-1.272583E-2,-3.4057617E-2,-1.182251E-1,-9.7235106E-2,3.0548096E-2,1.5182495E-2,-1.9073486E-2,2.0674515E-1,4.5059204E-2,-5.984921E-2,3.139496E-2,-2.3992483E-1,-2.6779175E-2,-1.097325E-2,1.5081082E-1,-3.164978E-1,1.2458855E-3],"categories":[],"categories_nodes":[],"categories_segments":[],"categories_sizes":[],"default_left":[1,1,1,1,1,1,1,1,1,1,1,1,1,1,1,1,1,1,1,1,1,0,1,1,1,1,1,1,1,1,1,1,1,1,1,1,1,0,1,0,0,0,1,0,0,0,0,0,0,0,1,1,1,1,1,0,1,1,1,1,1,0,0,0,0,0,0,0,0,0,0,0,0,0,0,0,0,0,0,0,0,0,0,0,0,0,0,0,0,0,0,0,0,0,0,0,0],"id":88,"left_children":[1,3,5,7,9,11,13,15,17,19,21,23,25,27,29,31,33,35,37,39,41,-1,43,45,47,49,51,53,55,57,59,61,63,65,67,69,71,-1,73,-1,-1,-1,75,-1,-1,-1,-1,-1,-1,-1,77,79,81,83,85,-1,87,89,91,93,95,-1,-1,-1,-1,-1,-1,-1,-1,-1,-1,-1,-1,-1,-1,-1,-1,-1,-1,-1,-1,-1,-1,-1,-1,-1,-1,-1,-1,-1,-1,-1,-1,-1,-1,-1,-1],"loss_changes":[4.5703277E-2,2.2064243E-1,1.3744733E-1,1.1761608E-1,1.9979708E-1,1.1516984E-1,1.1612508E-1,1.7021109E-1,1.2962194E-1,1.0873178E-1,1.810776E-1,5.323094E-2,8.048941E-2,2.259478E-1,1.6834854E-1,2.369173E-1,1.1732799E-1,1.4687228E-1,9.528978E-2,6.623634E-2,3.256805E-2,0E0,4.0202703E-2,3.820765E-2,2.1905676E-3,1.4101781E-2,2.768112E-2,1.8975763E-2,2.7278036E-2,1.9004072E-1,1.7559284E-1,1.1082794E-1,9.999706E-2,7.578414E-3,1.19614005E-1,5.2609786E-2,6.349875E-2,0E0,1.2702788E-2,0E0,0E0,0E0,3.5483504E-3,0E0,0E0,0E0,0E0,0E0,0E0,0E0,4.7861767E-4,1.1339023E-3,1.00214705E-2,1.9024292E-2,1.7101461E-3,0E0,8.029819E-3,1.06285386E-1,8.662543E-2,1.0975413E-1,1.9912706E-1,0E0,0E0,0E0,0E0,0E0,0E0,0E0,0E0,0E0,0E0,0E0,0E0,0E0,0E0,0E0,0E0,0E0,0E0,0E0,0E0,0E0,0E0,0E0,0E0,0E0,0E0,0E0,0E0,0E0,0E0,0E0,0E0,0E0,0E0,0E0,0E0],"parents":[2147483647,0,0,1,1,2,2,3,3,4,4,5,5,6,6,7,7,8,8,9,9,10,10,11,11,12,12,13,13,14,14,15,15,16,16,17,17,18,18,19,19,20,20,22,22,23,23,24,24,25,25,26,26,27,27,28,28,29,29,30,30,31,31,32,32,33,33,34,34,35,35,36,36,38,38,42,42,50,50,51,51,52,52,53,53,54,54,56,56,57,57,58,58,59,59,60,60],"right_children":[2,4,6,8,10,12,14,16,18,20,22,24,26,28,30,32,34,36,38,40,42,-1,44,46,48,50,52,54,56,58,60,62,64,66,68,70,72,-1,74,-1,-1,-1,76,-1,-1,-1,-1,-1,-1,-1,78,80,82,84,86,-1,88,90,92,94,96,-1,-1,-1,-1,-1,-1,-1,-1,-1,-1,-1,-1,-1,-1,-1,-1,-1,-1,-1,-1,-1,-1,-1,-1,-1,-1,-1,-1,-1,-1,-1,-1,-1,-1,-1,-1],"split_conditions":[3.936E2,3.9075E2,3.9855E2,4.127E2,3.945E2,3.775E2,3.8925E2,4.036E2,3.8665E2,3.8795E2,3.883E2,3.7515E2,4.055E2,3.8095E2,3.9609998E2,4.0290002E2,3.9334998E2,3.8240002E2,4.1555E2,3.6105E2,3.8045E2,1.14067845E-1,3.9115E2,3.7505E2,3.948E2,3.9965E2,3.729E2,3.633E2,3.8709998E2,3.9775E2,4.04E2,3.972E2,3.7315E2,3.7575E2,4.0775E2,3.886E2,4.1485E2,-5.994072E-2,3.8584998E2,-1.5975952E-2,3.90049E-2,-5.6419376E-2,3.9345E2,-1.8832399E-2,3.4398194E-2,-1.7086793E-2,-7.772279E-2,7.2784425E-4,-1.4801025E-2,2.2424316E-2,3.9109998E2,4.0365E2,3.951E2,4.2890002E2,3.8909998E2,1.1849976E-2,4.0059998E2,3.9925E2,4.2275E2,4.0145E2,3.989E2,1.0723701E-3,5.903626E-2,-9.649659E-2,-1.7949829E-2,-4.6554566E-3,-4.2297363E-2,5.5895444E-2,9.41495E-3,-2.8937206E-2,1.692505E-2,4.735474E-2,3.7323E-3,9.93042E-3,-1.6223146E-2,4.9850466E-3,-1.1508179E-2,2.0462037E-3,-4.1900636E-3,5.5908207E-3,-3.8177492E-3,-1.0217286E-2,-3.546753E-2,-2.9170534E-2,9.164429E-3,4.5547485E-3,-5.722046E-3,6.2023547E-2,1.3517762E-2,-1.7954763E-2,9.418488E-3,-7.197745E-2,-8.033752E-3,-3.291975E-3,4.524325E-2,-9.494934E-2,3.7376568E-4],"split_indices":[2,0,2,59,30,39,10,56,7,6,3,49,22,11,34,55,51,8,56,18,2,0,3,45,1,9,55,21,4,56,17,3,7,0,50,17,55,0,1,0,0,0,6,0,0,0,0,0,0,0,0,0,2,2,8,0,13,19,11,7,18,0,0,0,0,0,0,0,0,0,0,0,0,0,0,0,0,0,0,0,0,0,0,0,0,0,0,0,0,0,0,0,0,0,0,0,0],"split_type":[0,0,0,0,0,0,0,0,0,0,0,0,0,0,0,0,0,0,0,0,0,0,0,0,0,0,0,0,0,0,0,0,0,0,0,0,0,0,0,0,0,0,0,0,0,0,0,0,0,0,0,0,0,0,0,0,0,0,0,0,0,0,0,0,0,0,0,0,0,0,0,0,0,0,0,0,0,0,0,0,0,0,0,0,0,0,0,0,0,0,0,0,0,0,0,0,0],"sum_hessian":[6.58E2,3.83E2,2.75E2,3.61E2,2.2E1,3E1,2.45E2,3.22E2,3.9E1,1.4E1,8E0,9E0,2.1E1,2.1E1,2.24E2,3E2,2.2E1,2.7E1,1.2E1,9E0,5E0,3E0,5E0,6E0,3E0,8E0,1.3E1,1.1E1,1E1,6.3E1,1.61E2,2.94E2,6E0,2E0,2E1,1.5E1,1.2E1,7E0,5E0,2E0,7E0,1E0,4E0,1E0,4E0,2E0,4E0,1E0,2E0,5E0,3E0,3E0,1E1,5E0,6E0,2E0,8E0,5.4E1,9E0,1.8E1,1.43E2,2.92E2,2E0,2E0,4E0,1E0,1E0,1E1,1E1,1.3E1,2E0,4E0,8E0,2E0,3E0,1E0,3E0,1E0,2E0,2E0,1E0,3E0,7E0,4E0,1E0,5E0,1E0,7E0,1E0,3.5E1,1.9E1,6E0,3E0,6E0,1.2E1,1E0,1.42E2],"tree_param":{"num_deleted":"0","num_feature":"60","num_nodes":"97","size_leaf_vector":"0"}},{"base_weights":[-8.337921E-5,-1.1464107E-3,5.732727E-2,2.1769465E-3,-3.31626E-2,1.3494262E-1,1.6517639E-3,4.0121176E-4,1.4950562E-1,-1.08270645E-1,-6.3171387E-3,1.6506958E-1,7.217407E-3,-2.7079264E-2,5.8563232E-2,-1.2156963E-3,1.3339233E-1,2.1936035E-1,-1.675415E-2,-2.3123932E-1,-6.210562E-2,6.3784085E-2,-3.293475E-2,-6.378174E-3,-3.5835266E-2,1.1237027E-3,-9.520613E-2,2.5253296E-2,1.4720662E-1,-2.494812E-2,-1.8310547E-4,2.4963379E-2,-8.0205746E-2,8.1035264E-2,-2.0731607E-2,-1.5843885E-2,-1.10051475E-1,-5.493164E-4,-9.017944E-3,-5.199875E-4,7.663981E-2,1.2707519E-2,-1.3964233E-1,4.3182373E-3,3.312683E-2,-1.0555267E-1,-9.460449E-3,2.0039876E-3,9.837511E-2,7.890181E-3,-7.913208E-2,-1.2907104E-1,-7.4768066E-3],"categories":[],"categories_nodes":[],"categories_segments":[],"categories_sizes":[],"default_left":[1,1,1,1,1,1,1,1,1,1,1,0,0,1,0,1,1,0,1,0,1,1,1,1,0,1,1,0,0,0,0,1,1,1,0,1,1,0,0,0,0,0,0,0,0,0,0,0,0,0,0,0,0],"id":89,"left_children":[1,3,5,7,9,11,13,15,17,19,21,-1,-1,23,-1,25,27,-1,29,-1,31,33,35,37,-1,39,41,-1,-1,-1,-1,43,45,47,-1,49,51,-1,-1,-1,-1,-1,-1,-1,-1,-1,-1,-1,-1,-1,-1,-1,-1],"loss_changes":[4.028405E-2,6.90202E-2,5.16324E-2,1.537706E-1,1.2231097E-1,1.804848E-2,1.466685E-2,1.253122E-1,8.4973425E-2,7.646835E-2,8.793336E-2,0E0,0E0,8.589891E-4,0E0,1.2675852E-1,6.7396015E-3,0E0,4.0277978E-4,0E0,2.2489686E-2,2.0633936E-2,4.3068077E-2,4.1206833E-5,0E0,6.9922276E-2,6.8908334E-2,0E0,0E0,0E0,0E0,3.6255736E-4,1.8726364E-2,1.48771405E-2,0E0,4.4184867E-2,1.0740511E-2,0E0,0E0,0E0,0E0,0E0,0E0,0E0,0E0,0E0,0E0,0E0,0E0,0E0,0E0,0E0,0E0],"parents":[2147483647,0,0,1,1,2,2,3,3,4,4,5,5,6,6,7,7,8,8,9,9,10,10,13,13,15,15,16,16,18,18,20,20,21,21,22,22,23,23,25,25,26,26,31,31,32,32,33,33,35,35,36,36],"right_children":[2,4,6,8,10,12,14,16,18,20,22,-1,-1,24,-1,26,28,-1,30,-1,32,34,36,38,-1,40,42,-1,-1,-1,-1,44,46,48,-1,50,52,-1,-1,-1,-1,-1,-1,-1,-1,-1,-1,-1,-1,-1,-1,-1,-1],"split_conditions":[4.448E2,4.2425E2,4.338E2,4.2675E2,4.251E2,4.494E2,4.4205E2,4.268E2,4.198E2,4.1205E2,4.3095E2,4.9520876E-2,2.1652223E-3,4.349E2,1.756897E-2,4.1975E2,3.912E2,6.580811E-2,4.203E2,-6.93718E-2,4.1955E2,4.426E2,4.4145E2,4.3355E2,-1.0750581E-2,4.1795E2,4.1395E2,7.5759892E-3,4.4161987E-2,-7.4844365E-3,-5.4931643E-5,4.0275E2,4.274E2,3.999E2,-6.2194825E-3,4.436E2,4.48E2,-1.6479492E-4,-2.7053833E-3,-1.5599625E-4,2.2991944E-2,3.812256E-3,-4.18927E-2,1.2954712E-3,9.93805E-3,-3.1665802E-2,-2.8381348E-3,6.011963E-4,2.9512534E-2,2.3670543E-3,-2.3739625E-2,-3.8721316E-2,-2.243042E-3],"split_indices":[30,31,3,32,34,10,3,29,21,20,33,0,0,2,0,30,0,0,0,0,24,27,5,0,0,31,3,0,0,0,0,0,31,7,0,40,0,0,0,0,0,0,0,0,0,0,0,0,0,0,0,0,0],"split_type":[0,0,0,0,0,0,0,0,0,0,0,0,0,0,0,0,0,0,0,0,0,0,0,0,0,0,0,0,0,0,0,0,0,0,0,0,0,0,0,0,0,0,0,0,0,0,0,0,0,0,0,0,0],"sum_hessian":[6.58E2,6.47E2,1.1E1,5.87E2,6E1,4E0,7E0,5.81E2,6E0,1.5E1,4.5E1,3E0,1E0,5E0,2E0,5.75E2,6E0,4E0,2E0,3E0,1.2E1,1.2E1,3.3E1,2E0,3E0,5.62E2,1.3E1,1E0,5E0,1E0,1E0,2E0,1E1,1E1,2E0,2.8E1,5E0,1E0,1E0,5.51E2,1.1E1,4E0,9E0,1E0,1E0,7E0,3E0,2E0,8E0,2.1E1,7E0,4E0,1E0],"tree_param":{"num_deleted":"0","num_feature":"60","num_nodes":"53","size_leaf_vector":"0"}},{"base_weights":[-3.1837382E-5,4.8571777E-2,-1.1621047E-3,5.706242E-2,-3.514862E-2,-8.836111E-2,-3.4279824E-4,9.465027E-2,3.8206622E-2,-9.693146E-3,-1.6379802E-1,1.592331E-1,-8.417168E-4,4.425049E-3,4.1142274E-2,-2.1031698E-2,1.2161255E-2,-2.2376299E-2,1.5524758E-3,1.1398315E-2,4.3180678E-2,-1.999179E-3,-1.3221283E-1,6.386239E-2,-2.4740915E-3,1.8952621E-2,-4.611969E-2,-4.81898E-2,-2.065979E-1,-1.2292044E-2,1.0942147E-1,-7.687109E-2,-6.492237E-5],"categories":[],"categories_nodes":[],"categories_segments":[],"categories_sizes":[],"default_left":[1,1,1,1,0,1,1,0,1,1,0,0,1,0,1,0,0,1,1,0,0,1,1,1,1,0,0,0,0,0,0,0,0],"id":90,"left_children":[1,3,5,7,-1,9,11,-1,13,15,-1,-1,17,-1,19,-1,-1,21,23,-1,-1,25,27,29,31,-1,-1,-1,-1,-1,-1,-1,-1],"loss_changes":[3.6258664E-2,1.2668267E-2,4.605025E-2,6.306216E-3,0E0,3.4019087E-2,5.1087875E-2,0E0,9.088237E-4,1.2469608E-3,0E0,0E0,3.298026E-2,0E0,1.14114955E-4,0E0,0E0,1.4297742E-1,1.4467357E-1,0E0,0E0,5.1716316E-2,5.2544683E-2,1.22778416E-1,9.714036E-2,0E0,0E0,0E0,0E0,0E0,0E0,0E0,0E0],"parents":[2147483647,0,0,1,1,2,2,3,3,5,5,6,6,8,8,9,9,12,12,14,14,17,17,18,18,21,21,22,22,23,23,24,24],"right_children":[2,4,6,8,-1,10,12,-1,14,16,-1,-1,18,-1,20,-1,-1,22,24,-1,-1,26,28,30,32,-1,-1,-1,-1,-1,-1,-1,-1],"split_conditions":[2.1465E2,2.3315E2,2.1245E2,2.1375E2,-1.0544587E-2,2.837E2,2.0795001E2,2.8395081E-2,2.0995001E2,2.8655E2,-4.9139407E-2,4.776993E-2,2.8995E2,1.3275146E-3,1.9070001E2,-6.3095097E-3,3.6483766E-3,2.8505E2,3.009E2,3.4194947E-3,1.2954204E-2,2.3875E2,2.9275E2,2.9675E2,3.0115E2,5.6857867E-3,-1.3835908E-2,-1.4456941E-2,-6.1979372E-2,-3.6876134E-3,3.2826442E-2,-2.3061328E-2,-1.9476713E-5],"split_indices":[35,22,53,47,0,6,48,0,6,4,0,0,22,0,34,0,0,22,20,0,0,36,15,12,22,0,0,0,0,0,0,0,0],"split_type":[0,0,0,0,0,0,0,0,0,0,0,0,0,0,0,0,0,0,0,0,0,0,0,0,0,0,0,0,0,0,0,0,0],"sum_hessian":[6.58E2,1.4E1,6.44E2,1.3E1,1E0,5E0,6.39E2,3E0,1E1,3E0,2E0,1E0,6.38E2,1E0,9E0,2E0,1E0,6.3E1,5.75E2,1E0,8E0,5.4E1,9E0,3.4E1,5.41E2,3.7E1,1.7E1,5E0,4E0,1.3E1,2.1E1,1.6E1,5.25E2],"tree_param":{"num_deleted":"0","num_feature":"60","num_nodes":"33","size_leaf_vector":"0"}},{"base_weights":[-8.5254724E-5,-6.2170264E-4,8.791351E-2,3.4526587E-3,-1.5004125E-2,1.2764485E-1,-1.5640259E-2,-2.8517358E-3,4.9256355E-2,-9.950497E-2,-2.2441233E-3,1.8870396E-3,-7.187416E-2,9.549889E-2,1.5430347E-2,-4.543813E-2,-1.6816711E-1,5.0614495E-2,-1.7022096E-2,-9.3731494E-4,7.877197E-2,-1.1608887E-1,1.1030718E-2,1.2729412E-1,-1.11198425E-1,-4.87637E-2,7.243347E-2,-8.072335E-2,3.3009846E-3,-1.784232E-1,-4.8187256E-2,-4.1000366E-2,1.1230648E-1,-5.7785932E-2,3.9180927E-3,4.149666E-3,-6.3099526E-2,1.8611799E-1,-1.3471816E-2,-1.2817383E-3,-1.4661865E-1,8.786011E-2,-2.8762817E-2,3.729248E-2,2.0668793E-1,-1.2785847E-1,-3.060913E-2,-6.6532135E-2,6.225586E-2,1.0002944E-1,-6.295776E-2,-1.2802124E-2,-8.9909874E-2,-2.4841309E-2,2.3582458E-2,-1.1238792E-2,-1.8418884E-1,1.5538025E-1,-6.652832E-2,5.083586E-3,-1.2883186E-1,7.611084E-2,-1.0082579E-2],"categories":[],"categories_nodes":[],"categories_segments":[],"categories_sizes":[],"default_left":[1,1,1,1,1,0,0,1,1,1,1,1,1,1,1,1,1,1,1,1,1,1,1,1,1,1,1,1,1,0,0,1,1,1,1,0,0,0,0,0,0,0,0,0,0,0,0,0,0,0,0,0,0,0,0,0,0,0,0,0,0,0,0],"id":91,"left_children":[1,3,5,7,9,-1,-1,11,13,15,17,19,21,23,25,27,29,31,33,35,37,39,41,43,45,47,49,51,53,-1,-1,55,57,59,61,-1,-1,-1,-1,-1,-1,-1,-1,-1,-1,-1,-1,-1,-1,-1,-1,-1,-1,-1,-1,-1,-1,-1,-1,-1,-1,-1,-1],"loss_changes":[3.1163905E-2,3.8492866E-2,1.845372E-2,1.4798793E-1,1.561202E-1,0E0,0E0,1.476495E-1,9.550685E-2,6.289336E-2,1.00066744E-1,9.192842E-2,1.075834E-1,1.8502663E-1,1.3892479E-1,2.0903712E-2,1.2464672E-3,1.6285789E-1,8.558665E-2,1.2959498E-1,1.510374E-1,6.640777E-2,3.615755E-2,1.5664029E-1,1.4568493E-3,3.9649606E-2,8.1022665E-2,3.2166801E-3,4.010422E-3,0E0,0E0,4.9068112E-2,1.4128968E-1,1.5252014E-1,6.848745E-2,0E0,0E0,0E0,0E0,0E0,0E0,0E0,0E0,0E0,0E0,0E0,0E0,0E0,0E0,0E0,0E0,0E0,0E0,0E0,0E0,0E0,0E0,0E0,0E0,0E0,0E0,0E0,0E0],"parents":[2147483647,0,0,1,1,2,2,3,3,4,4,7,7,8,8,9,9,10,10,11,11,12,12,13,13,14,14,15,15,16,16,17,17,18,18,19,19,20,20,21,21,22,22,23,23,24,24,25,25,26,26,27,27,28,28,31,31,32,32,33,33,34,34],"right_children":[2,4,6,8,10,-1,-1,12,14,16,18,20,22,24,26,28,30,32,34,36,38,40,42,44,46,48,50,52,54,-1,-1,56,58,60,62,-1,-1,-1,-1,-1,-1,-1,-1,-1,-1,-1,-1,-1,-1,-1,-1,-1,-1,-1,-1,-1,-1,-1,-1,-1,-1,-1,-1],"split_conditions":[4.5005E2,4.1175E2,4.3445E2,4.0305E2,4.141E2,3.829346E-2,-4.6920776E-3,4.0425E2,4.0515002E2,4.0565002E2,4.1515002E2,3.986E2,4.1385E2,4.2675E2,4.1365002E2,4.156E2,4.3390002E2,4.097E2,4.2155E2,3.903E2,4.0165E2,3.6795E2,4.246E2,3.9675E2,4.369E2,4.1335E2,4.1365E2,3.5115002E2,3.8305E2,-5.352696E-2,-1.4456177E-2,4.2259998E2,4.266E2,4.1425E2,4.2359998E2,1.2448998E-3,-1.8929858E-2,5.58354E-2,-4.041545E-3,-3.845215E-4,-4.3985598E-2,2.6358033E-2,-8.628845E-3,1.1187744E-2,6.200638E-2,-3.8357545E-2,-9.18274E-3,-1.9959642E-2,1.8676758E-2,3.0008832E-2,-1.888733E-2,-3.8406374E-3,-2.6972963E-2,-7.452393E-3,7.074738E-3,-3.3716378E-3,-5.5256654E-2,4.6614077E-2,-1.9958496E-2,1.5250759E-3,-3.864956E-2,2.2833252E-2,-3.024774E-3],"split_indices":[43,30,0,36,31,0,0,44,35,0,35,44,55,1,37,28,0,12,29,45,43,18,56,32,1,32,29,0,1,0,0,0,6,14,28,0,0,0,0,0,0,0,0,0,0,0,0,0,0,0,0,0,0,0,0,0,0,0,0,0,0,0,0],"split_type":[0,0,0,0,0,0,0,0,0,0,0,0,0,0,0,0,0,0,0,0,0,0,0,0,0,0,0,0,0,0,0,0,0,0,0,0,0,0,0,0,0,0,0,0,0,0,0,0,0,0,0,0,0,0,0,0,0,0,0,0,0,0,0],"sum_hessian":[6.58E2,6.55E2,3E0,5.11E2,1.44E2,2E0,1E0,4.5E2,6.1E1,1.8E1,1.26E2,4.22E2,2.8E1,2.5E1,3.6E1,1.1E1,7E0,2.7E1,9.9E1,4.08E2,1.4E1,1.8E1,1E1,2.2E1,3E0,1.7E1,1.9E1,6E0,5E0,6E0,1E0,1.1E1,1.6E1,3.3E1,6.6E1,3.78E2,3E1,6E0,8E0,4E0,1.4E1,3E0,7E0,1.1E1,1.1E1,2E0,1E0,1.5E1,2E0,1.6E1,3E0,1E0,5E0,2E0,3E0,1E1,1E0,1.3E1,3E0,1.8E1,1.5E1,1E1,5.6E1],"tree_param":{"num_deleted":"0","num_feature":"60","num_nodes":"63","size_leaf_vector":"0"}},{"base_weights":[-1.7370476E-4,4.177562E-3,-9.899214E-3,2.1575378E-4,1.391672E-1,-1.1720276E-1,-6.614187E-3,-1.587606E-3,1.9898224E-1,2.4262783E-1,1.5825544E-2,-1.3359375E-1,-1.7623901E-2,-1.8716859E-2,1.2006543E-2,3.061774E-3,-3.6427423E-2,2.0843506E-2,2.7611795E-1,-3.339844E-2,9.259033E-2,1.7469358E-3,-5.4568205E-2,9.472275E-2,2.6490954E-3,-3.9616486E-4,1.1201986E-1,-1.301244E-1,-8.1154425E-3,1.5258789E-4,-4.182434E-2,-1.03815645E-2,1.0916901E-1,-1.6694132E-2,-1.2667847E-1,4.170736E-3,1.2421163E-1,-5.427699E-3,4.7932018E-2,-6.466524E-3,3.4732275E-2,1.5335083E-1,-8.979797E-3,-1.790229E-1,1.2428284E-2,-2.1378581E-1,7.913442E-3,-1.7085683E-2,6.5093994E-2,1.4756775E-1,-4.018148E-3,-8.976848E-2,5.2856445E-2,-2.2790527E-1,-5.3274535E-2,1.9498698E-2,-2.7923584E-2,-2.2407532E-2,7.711029E-2],"categories":[],"categories_nodes":[],"categories_segments":[],"categories_sizes":[],"default_left":[1,1,1,1,1,1,1,1,0,1,1,0,0,1,1,1,1,0,0,1,0,1,1,1,1,1,1,1,1,0,0,1,1,1,1,0,0,1,1,0,0,0,0,0,0,0,0,0,0,0,0,0,0,0,0,0,0,0,0],"id":92,"left_children":[1,3,5,7,9,11,13,15,-1,17,19,-1,-1,21,23,25,27,-1,-1,29,-1,31,33,35,37,39,41,43,45,-1,-1,47,49,51,53,-1,-1,55,57,-1,-1,-1,-1,-1,-1,-1,-1,-1,-1,-1,-1,-1,-1,-1,-1,-1,-1,-1,-1],"loss_changes":[2.7929107E-2,2.4384017E-1,7.113379E-2,1.594666E-1,1.6205335E-1,7.4387416E-3,4.507148E-2,7.154628E-2,0E0,4.6237856E-2,2.9543051E-2,0E0,0E0,8.886754E-2,6.089606E-2,1.4698482E-1,1.3688685E-1,0E0,0E0,1.4198702E-3,0E0,1.027571E-1,1.1805402E-1,2.0844169E-2,2.6593503E-2,8.104341E-2,6.1389476E-2,8.587228E-2,1.3685511E-1,0E0,0E0,3.7037965E-2,3.5362914E-2,1.5721573E-1,9.931514E-2,0E0,0E0,3.5310436E-2,2.4304103E-2,0E0,0E0,0E0,0E0,0E0,0E0,0E0,0E0,0E0,0E0,0E0,0E0,0E0,0E0,0E0,0E0,0E0,0E0,0E0,0E0],"parents":[2147483647,0,0,1,1,2,2,3,3,4,4,5,5,6,6,7,7,9,9,10,10,13,13,14,14,15,15,16,16,19,19,21,21,22,22,23,23,24,24,25,25,26,26,27,27,28,28,31,31,32,32,33,33,34,34,37,37,38,38],"right_children":[2,4,6,8,10,12,14,16,-1,18,20,-1,-1,22,24,26,28,-1,-1,30,-1,32,34,36,38,40,42,44,46,-1,-1,48,50,52,54,-1,-1,56,58,-1,-1,-1,-1,-1,-1,-1,-1,-1,-1,-1,-1,-1,-1,-1,-1,-1,-1,-1,-1],"split_conditions":[4.0245E2,4.0315002E2,3.7695E2,4.1235E2,4.1135E2,3.9625E2,4.2175E2,3.9390002E2,5.9694674E-2,3.835E2,4.122E2,-4.0078126E-2,-5.2871704E-3,4.1625E2,4.2085E2,3.9155E2,3.977E2,6.253052E-3,8.283539E-2,3.8465002E2,2.77771E-2,4.1784998E2,4.15E2,4.0905E2,4.448E2,3.8955E2,3.978E2,4.065E2,3.8559998E2,4.5776367E-5,-1.2547303E-2,4.3909998E2,4.1675E2,4.1534998E2,4.131E2,1.2512208E-3,3.726349E-2,4.255E2,4.3815E2,-1.9399574E-3,1.0419683E-2,4.600525E-2,-2.6939393E-3,-5.370687E-2,3.7284852E-3,-6.4135745E-2,2.3740327E-3,-5.125705E-3,1.9528199E-2,4.4270325E-2,-1.2054445E-3,-2.6930545E-2,1.5856935E-2,-6.837159E-2,-1.5982362E-2,5.8496096E-3,-8.377075E-3,-6.72226E-3,2.3133088E-2],"split_indices":[31,30,48,33,17,1,25,28,0,22,1,0,0,22,24,30,25,0,0,0,0,20,38,10,30,14,30,7,21,0,0,47,35,32,47,0,0,32,25,0,0,0,0,0,0,0,0,0,0,0,0,0,0,0,0,0,0,0,0],"split_type":[0,0,0,0,0,0,0,0,0,0,0,0,0,0,0,0,0,0,0,0,0,0,0,0,0,0,0,0,0,0,0,0,0,0,0,0,0,0,0,0,0,0,0,0,0,0,0,0,0,0,0,0,0,0,0,0,0,0,0],"sum_hessian":[6.58E2,4.55E2,2.03E2,4.43E2,1.2E1,5E0,1.98E2,4.4E2,3E0,6E0,6E0,4E0,1E0,1.2E2,7.8E1,3.89E2,5.1E1,1E0,5E0,4E0,2E0,7.7E1,4.3E1,7E0,7.1E1,3.78E2,1.1E1,1.1E1,4E1,1E0,3E0,7E1,7E0,2.9E1,1.4E1,2E0,5E0,6.1E1,1E1,3.23E2,5.5E1,8E0,3E0,8E0,3E0,2E0,3.8E1,6.5E1,5E0,5E0,2E0,1.4E1,1.5E1,5E0,9E0,2.9E1,3.2E1,3E0,7E0],"tree_param":{"num_deleted":"0","num_feature":"60","num_nodes":"59","size_leaf_vector":"0"}},{"base_weights":[-6.0664684E-6,1.2961848E-2,-3.4658245E-3,2.6157587E-3,1.331149E-1,-7.7056885E-2,-6.690627E-5,9.177286E-3,-9.7774506E-2,3.4539795E-1,7.73468E-2,-1.5594822E-1,-2.458496E-2,-9.049988E-2,2.1569924E-3,-1.4243936E-3,7.4742034E-2,-1.6098633E-1,5.683899E-3,6.4086914E-3,1.06833324E-1,-5.243683E-2,-1.9896443E-1,2.4416605E-2,-1.6544342E-1,-1.6551971E-2,-1.9071655E-1,1.142911E-1,-4.2801222E-4,-5.9766034E-3,1.5686035E-1,2.2430038E-1,2.6672363E-2,-1.4546712E-2,3.3187866E-2,-7.761637E-3,2.4459839E-2,2.9378256E-2,1.319397E-1,-2.4597168E-2,9.7955324E-2,-1.9632976E-1,-3.6392212E-2,8.654785E-3,-4.3922424E-2,3.9592743E-2,2.3511505E-1,-9.6584745E-2,1.4141976E-3,7.711939E-3,-5.7348076E-2,2.975006E-1,1.0073344E-1,6.2176514E-2,-4.967041E-2,-1.9226074E-3,-1.9897461E-2,-5.0086975E-2,7.141113E-4,1.1968994E-1,5.508423E-3,1.7364502E-2,-2.93986E-3,7.32371E-2,-4.0893555E-2,-1.6200562E-1,-1.1846924E-2,5.8874723E-2,-2.3590364E-3],"categories":[],"categories_nodes":[],"categories_segments":[],"categories_sizes":[],"default_left":[1,1,1,1,1,1,1,1,1,0,1,1,1,1,1,1,1,0,1,1,1,0,0,1,1,1,0,1,1,1,0,1,1,1,0,0,0,0,0,1,1,0,0,1,0,1,0,1,1,0,0,0,0,0,0,0,0,0,0,0,0,0,0,0,0,0,0,0,0],"id":93,"left_children":[1,3,5,7,9,11,13,15,17,-1,19,21,23,25,27,29,31,-1,33,35,37,-1,-1,39,41,43,-1,45,47,49,-1,51,53,55,-1,-1,-1,-1,-1,57,59,-1,-1,61,-1,63,-1,65,67,-1,-1,-1,-1,-1,-1,-1,-1,-1,-1,-1,-1,-1,-1,-1,-1,-1,-1,-1,-1],"loss_changes":[2.9611515E-2,1.7244467E-1,1.3031258E-1,8.587135E-2,1.035094E-1,9.137635E-2,1.0055097E-1,8.490823E-2,5.3233378E-2,0E0,2.0232514E-2,2.9640958E-2,1.07573844E-1,8.577303E-2,1.4150412E-1,7.731531E-2,1.16234146E-1,0E0,2.7084625E-3,1.2130112E-3,9.736158E-3,0E0,0E0,4.5662344E-2,8.7988E-3,5.899502E-3,0E0,8.997001E-2,8.480993E-2,7.357513E-2,0E0,6.2122494E-3,4.1035127E-2,1.6439025E-4,0E0,0E0,0E0,0E0,0E0,5.1972046E-3,9.387188E-3,0E0,0E0,5.5597955E-4,0E0,2.4658203E-2,0E0,4.7973342E-2,1.0204053E-1,0E0,0E0,0E0,0E0,0E0,0E0,0E0,0E0,0E0,0E0,0E0,0E0,0E0,0E0,0E0,0E0,0E0,0E0,0E0,0E0],"parents":[2147483647,0,0,1,1,2,2,3,3,4,4,5,5,6,6,7,7,8,8,10,10,11,11,12,12,13,13,14,14,15,15,16,16,18,18,19,19,20,20,23,23,24,24,25,25,27,27,28,28,29,29,31,31,32,32,33,33,39,39,40,40,43,43,45,45,47,47,48,48],"right_children":[2,4,6,8,10,12,14,16,18,-1,20,22,24,26,28,30,32,-1,34,36,38,-1,-1,40,42,44,-1,46,48,50,-1,52,54,56,-1,-1,-1,-1,-1,58,60,-1,-1,62,-1,64,-1,66,68,-1,-1,-1,-1,-1,-1,-1,-1,-1,-1,-1,-1,-1,-1,-1,-1,-1,-1,-1,-1],"split_conditions":[3.015E2,3.0175E2,3.0345E2,3.072E2,3.0215002E2,3.017E2,3.0045E2,3.074E2,3.042E2,1.0361939E-1,3.01E2,3.0045E2,3.1955E2,3.0485E2,3.0140002E2,3.207E2,3.0045E2,-4.8295904E-2,3.9225E2,3.8605E2,2.983E2,-1.573105E-2,-5.968933E-2,3.185E2,3.1725E2,3.028E2,-5.7214968E-2,3.1745E2,3.029E2,3.0025E2,4.705811E-2,3.063E2,3.0965002E2,3.5595E2,9.95636E-3,-2.3284913E-3,7.337952E-3,8.813477E-3,3.958191E-2,3.0165002E2,3.714E2,-5.889893E-2,-1.0917664E-2,3.0255E2,-1.3176728E-2,3.06E2,7.053452E-2,3.072E2,3.542E2,2.3135818E-3,-1.7204424E-2,8.9250185E-2,3.0220032E-2,1.8652955E-2,-1.4901123E-2,-5.767823E-4,-5.9692385E-3,-1.5026093E-2,2.142334E-4,3.5906985E-2,1.6525269E-3,5.209351E-3,-8.8195805E-4,2.197113E-2,-1.2268067E-2,-4.8601687E-2,-3.5540774E-3,1.7662417E-2,-7.077109E-4],"split_indices":[44,45,43,33,45,57,17,3,29,0,59,42,54,10,24,14,11,0,1,0,20,0,0,11,0,19,0,45,24,3,0,1,39,0,0,0,0,0,0,41,0,0,0,4,0,13,0,28,28,0,0,0,0,0,0,0,0,0,0,0,0,0,0,0,0,0,0,0,0],"split_type":[0,0,0,0,0,0,0,0,0,0,0,0,0,0,0,0,0,0,0,0,0,0,0,0,0,0,0,0,0,0,0,0,0,0,0,0,0,0,0,0,0,0,0,0,0,0,0,0,0,0,0,0,0,0,0,0,0,0,0,0,0,0,0,0,0,0,0,0,0],"sum_hessian":[6.58E2,1.38E2,5.2E2,1.28E2,1E1,2.2E1,4.98E2,1.21E2,7E0,1E0,9E0,8E0,1.4E1,1.1E1,4.87E2,1.05E2,1.6E1,4E0,3E0,3E0,6E0,3E0,5E0,1.1E1,3E0,7E0,4E0,1E1,4.77E2,1.03E2,2E0,3E0,1.3E1,2E0,1E0,2E0,1E0,2E0,4E0,7E0,4E0,2E0,1E0,4E0,3E0,7E0,3E0,8E0,4.69E2,8.2E1,2.1E1,1E0,2E0,9E0,4E0,1E0,1E0,3E0,4E0,3E0,1E0,2E0,2E0,5E0,2E0,4E0,4E0,2.8E1,4.41E2],"tree_param":{"num_deleted":"0","num_feature":"60","num_nodes":"69","size_leaf_vector":"0"}},{"base_weights":[1.793313E-4,-9.257507E-2,6.025944E-4,-1.3459778E-1,-4.2648315E-3,1.3184039E-2,-2.7069268E-3,8.721698E-3,2.0959473E-1,-5.6908242E-2,1.3972867E-4,-5.5059954E-3,3.46241E-2,2.9359436E-1,2.079773E-2,-7.7517554E-2,2.4709066E-2,6.748047E-2,-1.9562275E-3,8.861542E-3,-1.3260566E-1,1.1675415E-1,1.2677315E-2,1.6296387E-2,-1.07852936E-1,-1.7669678E-2,7.29777E-2,2.7780386E-2,2.1702068E-1,-7.442017E-2,3.705147E-4,-6.883332E-3,7.754822E-2,-1.5464783E-2,-1.8859863E-1,2.5286865E-1,7.35338E-2,-9.088516E-3,9.8155975E-2,5.1071167E-2,-3.5502117E-2,-1.3533528E-1,-2.0324707E-2,3.3111572E-3,-2.5767008E-2,-4.6218872E-2,5.460205E-2,-2.170817E-2,-2.1395111E-1,1.541748E-1,-6.204368E-4],"categories":[],"categories_nodes":[],"categories_segments":[],"categories_sizes":[],"default_left":[1,1,1,0,0,1,1,1,1,1,1,1,1,0,0,1,1,1,1,1,1,1,1,1,1,1,0,1,0,1,1,0,0,0,0,0,0,0,0,0,0,0,0,0,0,0,0,0,0,0,0],"id":94,"left_children":[1,3,5,-1,-1,7,9,11,13,15,17,19,21,-1,-1,23,25,27,29,31,33,35,37,39,41,43,-1,45,-1,47,49,-1,-1,-1,-1,-1,-1,-1,-1,-1,-1,-1,-1,-1,-1,-1,-1,-1,-1,-1,-1],"loss_changes":[2.5927808E-2,1.0559069E-2,2.7392222E-2,0E0,0E0,1.1824584E-1,8.039433E-2,4.994238E-2,4.1470543E-2,4.564938E-2,7.013905E-2,1.618727E-1,8.503942E-2,0E0,0E0,6.1521143E-2,1.3562878E-2,8.302245E-2,8.129513E-2,8.705084E-2,5.6114957E-2,4.023476E-2,7.345214E-2,1.2620823E-2,3.5737038E-2,7.648736E-4,0E0,2.832583E-2,0E0,1.05679825E-1,7.1424745E-2,0E0,0E0,0E0,0E0,0E0,0E0,0E0,0E0,0E0,0E0,0E0,0E0,0E0,0E0,0E0,0E0,0E0,0E0,0E0,0E0],"parents":[2147483647,0,0,1,1,2,2,5,5,6,6,7,7,8,8,9,9,10,10,11,11,12,12,15,15,16,16,17,17,18,18,19,19,20,20,21,21,22,22,23,23,24,24,25,25,27,27,29,29,30,30],"right_children":[2,4,6,-1,-1,8,10,12,14,16,18,20,22,-1,-1,24,26,28,30,32,34,36,38,40,42,44,-1,46,-1,48,50,-1,-1,-1,-1,-1,-1,-1,-1,-1,-1,-1,-1,-1,-1,-1,-1,-1,-1,-1,-1],"split_conditions":[1.9270001E2,1.9775E2,3.015E2,-4.0379334E-2,-1.2794496E-3,3.253E2,3.042E2,3.009E2,3.481E2,3.1909998E2,3.0259998E2,2.995E2,3.0215002E2,8.807831E-2,6.239319E-3,3.0075E2,3.2235E2,3.0735E2,3.029E2,2.8565E2,2.9165002E2,2.8655E2,3.0015002E2,3.0534998E2,3.333E2,2.9345E2,2.1893311E-2,3.017E2,6.5106206E-2,3.2625E2,2.998E2,-2.0649997E-3,2.3264468E-2,-4.639435E-3,-5.6579594E-2,7.58606E-2,2.2060141E-2,-2.7265549E-3,2.9446794E-2,1.5321351E-2,-1.0650636E-2,-4.0600587E-2,-6.097412E-3,9.933473E-4,-7.7301026E-3,-1.3865662E-2,1.6380616E-2,-6.5124515E-3,-6.4185336E-2,4.6252444E-2,-1.8613104E-4],"split_indices":[1,0,44,0,0,34,43,4,0,55,35,3,6,0,0,29,13,33,24,23,20,27,45,20,20,0,0,41,0,3,12,0,0,0,0,0,0,0,0,0,0,0,0,0,0,0,0,0,0,0,0],"split_type":[0,0,0,0,0,0,0,0,0,0,0,0,0,0,0,0,0,0,0,0,0,0,0,0,0,0,0,0,0,0,0,0,0,0,0,0,0,0,0,0,0,0,0,0,0,0,0,0,0,0,0],"sum_hessian":[6.58E2,2E0,6.56E2,1E0,1E0,1.36E2,5.2E2,1.34E2,2E0,2.5E1,4.95E2,8.7E1,4.7E1,1E0,1E0,2E1,5E0,1.4E1,4.81E2,7.9E1,8E0,9E0,3.8E1,5E0,1.5E1,3E0,2E0,1.2E1,2E0,1.4E1,4.67E2,6.5E1,1.4E1,3E0,5E0,1E0,8E0,3.1E1,7E0,3E0,2E0,1.1E1,4E0,1E0,2E0,3E0,9E0,1.1E1,3E0,2E0,4.65E2],"tree_param":{"num_deleted":"0","num_feature":"60","num_nodes":"51","size_leaf_vector":"0"}},{"base_weights":[3.5461056E-4,6.2578835E-2,-2.1679614E-4,1.02274574E-1,1.7162323E-2,-5.0354004E-3,8.171305E-3,3.9749146E-3,2.0233154E-2,-6.7153707E-4,-1.6564387E-1,9.623799E-2,5.629872E-4,3.5800277E-3,-2.5737181E-2,-2.1012267E-1,1.3957214E-1,3.0314127E-2,1.8309402E-1,-5.3497314E-2,6.8083336E-3,-5.573619E-4,7.525153E-2,-1.0058403E-1,2.0647915E-3,-2.4990082E-1,-3.4006756E-2,1.0862223E-1,3.790283E-3,2.2174683E-1,8.900452E-2,-1.1639404E-1,2.5698574E-2,6.817466E-2,3.2894913E-4,4.4595874E-3,-4.2970493E-2,-1.7718505E-2,1.0122477E-1,-1.3861084E-2,-1.283366E-1,1.6993204E-2,-5.7878282E-2,-2.793579E-1,-1.0768636E-1,-2.0747593E-2,4.5783997E-2,1.0742188E-3,-1.6872151E-1,9.37439E-2,-2.657645E-2,-5.165754E-2,1.2745549E-1,-4.1711718E-2,5.8104713E-3],"categories":[],"categories_nodes":[],"categories_segments":[],"categories_sizes":[],"default_left":[1,1,1,0,1,1,1,0,0,1,1,1,1,1,1,1,0,1,1,1,1,1,1,1,1,1,0,0,1,0,0,1,1,1,1,0,0,0,0,0,0,0,0,0,0,0,0,0,0,0,0,0,0,0,0],"id":95,"left_children":[1,3,5,-1,7,9,11,-1,-1,13,15,17,19,21,23,25,-1,27,29,31,33,35,37,39,41,43,-1,-1,45,-1,-1,47,49,51,53,-1,-1,-1,-1,-1,-1,-1,-1,-1,-1,-1,-1,-1,-1,-1,-1,-1,-1,-1,-1],"loss_changes":[2.3444535E-2,9.061784E-3,2.6475132E-2,0E0,8.1560225E-5,2.914521E-1,1.6008522E-1,0E0,0E0,4.335883E-2,1.7865938E-1,1.0324149E-1,7.497942E-2,1.03235394E-1,1.229802E-1,6.1557323E-2,0E0,2.4512675E-2,9.358138E-3,1.1755789E-1,7.910317E-2,7.041053E-2,4.7673494E-2,3.672965E-2,4.0357158E-2,3.430754E-3,0E0,0E0,1.1254273E-2,0E0,0E0,8.008988E-2,4.161916E-2,1.4155534E-1,4.195324E-2,0E0,0E0,0E0,0E0,0E0,0E0,0E0,0E0,0E0,0E0,0E0,0E0,0E0,0E0,0E0,0E0,0E0,0E0,0E0,0E0],"parents":[2147483647,0,0,1,1,2,2,4,4,5,5,6,6,9,9,10,10,11,11,12,12,13,13,14,14,15,15,17,17,18,18,19,19,20,20,21,21,22,22,23,23,24,24,25,25,28,28,31,31,32,32,33,33,34,34],"right_children":[2,4,6,-1,8,10,12,-1,-1,14,16,18,20,22,24,26,-1,28,30,32,34,36,38,40,42,44,-1,-1,46,-1,-1,48,50,52,54,-1,-1,-1,-1,-1,-1,-1,-1,-1,-1,-1,-1,-1,-1,-1,-1,-1,-1,-1,-1],"split_conditions":[2.0795E2,2.2225E2,3.97E2,3.0682374E-2,2.2075E2,3.9925E2,3.9340002E2,1.1924744E-3,6.0699466E-3,3.942E2,4.219E2,3.8775E2,4.017E2,3.908E2,3.9365002E2,3.9565002E2,4.1871645E-2,3.867E2,3.9085E2,4.2E2,3.9784998E2,3.997E2,3.6575E2,3.7534998E2,3.966E2,4.066E2,-1.0202027E-2,3.258667E-2,4.0975E2,6.652405E-2,2.6701355E-2,3.899E2,4.0165E2,3.698E2,4.071E2,1.3378763E-3,-1.2891148E-2,-5.3155515E-3,3.0367432E-2,-4.1583255E-3,-3.850098E-2,5.0979615E-3,-1.7363485E-2,-8.380738E-2,-3.230591E-2,-6.224278E-3,1.3735199E-2,3.2226564E-4,-5.0616454E-2,2.812317E-2,-7.972935E-3,-1.5497263E-2,3.8236648E-2,-1.2513516E-2,1.7431414E-3],"split_indices":[30,0,53,0,1,55,59,0,0,33,4,59,55,32,36,53,0,39,58,27,47,13,7,45,51,19,0,0,39,0,0,41,52,43,54,0,0,0,0,0,0,0,0,0,0,0,0,0,0,0,0,0,0,0,0],"split_type":[0,0,0,0,0,0,0,0,0,0,0,0,0,0,0,0,0,0,0,0,0,0,0,0,0,0,0,0,0,0,0,0,0,0,0,0,0,0,0,0,0,0,0,0,0,0,0,0,0,0,0,0,0,0,0],"sum_hessian":[6.58E2,5E0,6.53E2,2E0,3E0,4.15E2,2.38E2,1E0,2E0,4.05E2,1E1,1.8E1,2.2E2,3.47E2,5.8E1,9E0,1E0,1.1E1,7E0,2.2E1,1.98E2,3.29E2,1.8E1,1.5E1,4.3E1,7E0,2E0,2E0,9E0,4E0,3E0,1.2E1,1E1,1.8E1,1.8E2,2.95E2,3.4E1,4E0,1.4E1,4E0,1.1E1,3.5E1,8E0,5E0,2E0,6E0,3E0,4E0,8E0,4E0,6E0,6E0,1.2E1,2E1,1.6E2],"tree_param":{"num_deleted":"0","num_feature":"60","num_nodes":"55","size_leaf_vector":"0"}},{"base_weights":[2.8764785E-4,3.050014E-2,-7.0570107E-4,2.2257487E-3,8.673096E-2,-7.647587E-2,8.664169E-4,-3.8213093E-2,2.626648E-2,3.5865784E-2,1.1591339E-1,-1.3532366E-2,-1.2849426E-1,1.20798744E-1,2.8935546E-4,6.500244E-3,-4.8455812E-2,3.2730103E-3,3.5653252E-2,-2.6425172E-2,1.2466431E-2,-1.3979848E-1,-3.0334473E-2,-2.1940473E-2,2.4300758E-3,3.8706462E-3,7.4005127E-4,-3.2292683E-2,-1.1749268E-2,3.898425E-3,-7.992733E-2,1.3158962E-1,8.25568E-4,3.1748686E-2,-3.035736E-2,-1.7550965E-1,-3.701665E-2,2.4517822E-1,3.711853E-2,-3.3968184E-2,3.1873595E-3],"categories":[],"categories_nodes":[],"categories_segments":[],"categories_sizes":[],"default_left":[1,1,1,1,1,1,1,1,1,0,0,1,1,0,1,0,0,1,0,1,0,0,0,1,1,0,0,0,0,1,1,1,1,0,0,0,0,0,0,0,0],"id":96,"left_children":[1,3,5,7,9,11,13,15,17,-1,-1,19,21,-1,23,-1,-1,25,-1,27,-1,-1,-1,29,31,-1,-1,-1,-1,33,35,37,39,-1,-1,-1,-1,-1,-1,-1,-1],"loss_changes":[1.9799132E-2,3.319469E-2,7.618372E-2,1.55864125E-2,6.2332638E-3,4.0826023E-2,4.3358665E-2,3.0628908E-3,2.041651E-3,0E0,0E0,2.6758097E-3,3.526628E-3,0E0,2.9795721E-2,0E0,0E0,3.1906711E-6,0E0,5.1139854E-5,0E0,0E0,0E0,8.2719E-2,1.18223965E-1,0E0,0E0,0E0,0E0,3.817107E-2,6.3228756E-2,6.601522E-2,4.6537474E-2,0E0,0E0,0E0,0E0,0E0,0E0,0E0,0E0],"parents":[2147483647,0,0,1,1,2,2,3,3,4,4,5,5,6,6,7,7,8,8,11,11,12,12,14,14,17,17,19,19,23,23,24,24,29,29,30,30,31,31,32,32],"right_children":[2,4,6,8,10,12,14,16,18,-1,-1,20,22,-1,24,-1,-1,26,-1,28,-1,-1,-1,30,32,-1,-1,-1,-1,34,36,38,40,-1,-1,-1,-1,-1,-1,-1,-1],"split_conditions":[2.1535E2,2.1565E2,2.1804999E2,2.1415E2,2.149E2,2.162E2,2.0795E2,2.141E2,2.1345001E2,1.07597355E-2,3.477402E-2,2.193E2,2.4295E2,3.6239624E-2,2.9585E2,1.9500733E-3,-1.4536744E-2,2.3005E2,1.0695976E-2,2.154E2,3.7399293E-3,-4.1939545E-2,-9.100342E-3,2.9065002E2,2.9755E2,1.1611939E-3,2.2201538E-4,-9.687806E-3,-3.5247805E-3,2.287E2,2.847E2,2.8865002E2,3.015E2,9.524606E-3,-9.107209E-3,-5.2652895E-2,-1.1104995E-2,7.355347E-2,1.11355595E-2,-1.0190455E-2,9.562079E-4],"split_indices":[17,16,17,0,4,10,7,6,24,0,0,0,0,0,5,0,0,0,0,0,0,0,0,1,5,0,0,0,0,44,26,37,18,0,0,0,0,0,0,0,0],"split_type":[0,0,0,0,0,0,0,0,0,0,0,0,0,0,0,0,0,0,0,0,0,0,0,0,0,0,0,0,0,0,0,0,0,0,0,0,0,0,0,0,0],"sum_hessian":[6.58E2,2E1,6.38E2,1.4E1,6E0,1.2E1,6.26E2,5E0,9E0,3E0,3E0,6E0,6E0,2E0,6.24E2,1E0,4E0,3E0,6E0,4E0,2E0,5E0,1E0,5.4E1,5.7E2,2E0,1E0,2E0,2E0,3.8E1,1.6E1,6E0,5.64E2,2.1E1,1.7E1,4E0,1.2E1,2E0,4E0,3.5E1,5.29E2],"tree_param":{"num_deleted":"0","num_feature":"60","num_nodes":"41","size_leaf_vector":"0"}},{"base_weights":[2.5953833E-4,5.6990245E-3,-5.662749E-3,2.108884E-3,9.6947305E-2,-5.6655157E-2,2.1457742E-3,3.746865E-3,-1.7877197E-1,1.9432068E-2,1.1825867E-1,-2.8152466E-2,-1.344216E-1,9.480116E-2,-9.854777E-4,-3.1946406E-3,3.5684876E-2,-2.4891663E-1,-1.9241333E-2,-9.562175E-3,5.3207397E-2,1.4174543E-1,4.7592163E-2,-5.2664183E-2,1.1723445E-2,-1.7102432E-1,-2.7610779E-2,1.4564006E-1,-5.1574707E-3,-4.863434E-2,2.8611461E-3,2.5360694E-3,-1.175631E-1,1.4270574E-1,1.0931521E-2,2.1209717E-3,-1.6464233E-2,1.3687134E-2,5.4331463E-2,-9.3322754E-2,-1.0914195E-2,-4.1278075E-2,3.986613E-2,-5.6081135E-2,-1.9999187E-1,-3.5146076E-2,-2.5024414E-3,1.9139607E-1,7.4913025E-2,-3.6117554E-2,1.7201742E-2,-7.7200085E-2,3.8642883E-3,5.2316375E-2,-4.70776E-3,3.9501337E-4,1.8582153E-1,-1.7759487E-1,-4.073661E-2,2.2492473E-1,3.6702473E-2,-4.0411375E-2,3.262329E-2,-3.0267334E-2,-1.3031514E-1,1.3049317E-2,-2.647182E-2,-1.0732015E-2,-5.8064777E-2,5.341884E-2,-5.0455728E-3,-3.7180584E-2,-1.3379517E-1,-4.555257E-2,2.792867E-2,2.9590748E-2,1.324986E-1,-9.4680786E-2,-2.126974E-3],"categories":[],"categories_nodes":[],"categories_segments":[],"categories_sizes":[],"default_left":[1,1,1,1,1,1,1,1,1,1,1,1,1,1,1,1,1,0,0,1,0,0,1,1,1,1,1,1,1,1,1,1,1,1,1,0,0,0,0,1,1,1,1,0,0,0,0,0,0,0,0,1,1,1,1,0,0,0,0,0,0,0,0,0,0,0,0,0,0,0,0,0,0,0,0,0,0,0,0],"id":97,"left_children":[1,3,5,7,9,11,13,15,17,19,21,23,25,27,29,31,33,-1,-1,35,-1,-1,37,39,41,43,45,47,49,51,53,55,57,59,61,-1,-1,-1,-1,63,65,67,69,-1,-1,-1,-1,-1,-1,-1,-1,71,73,75,77,-1,-1,-1,-1,-1,-1,-1,-1,-1,-1,-1,-1,-1,-1,-1,-1,-1,-1,-1,-1,-1,-1,-1,-1],"loss_changes":[2.1261431E-2,1.12487935E-1,1.25945E-1,9.903459E-2,1.9177414E-2,8.931093E-2,7.987845E-2,7.327431E-2,2.8781176E-2,4.425939E-3,9.851307E-3,3.189507E-2,3.8283125E-2,4.6487205E-2,4.9076844E-2,1.7857035E-1,1.5473843E-1,0E0,0E0,2.7683345E-4,0E0,0E0,1.703417E-4,3.2931358E-2,2.1036465E-2,1.5421197E-2,6.688442E-4,5.079061E-3,3.390257E-3,3.0291572E-2,9.307815E-2,1.0195695E-1,5.2721784E-2,8.761498E-2,5.5890553E-2,0E0,0E0,0E0,0E0,1.9381419E-2,4.446408E-3,1.9406853E-3,5.747608E-3,0E0,0E0,0E0,0E0,0E0,0E0,0E0,0E0,2.4469204E-2,1.0785713E-2,5.621159E-2,4.9954064E-2,0E0,0E0,0E0,0E0,0E0,0E0,0E0,0E0,0E0,0E0,0E0,0E0,0E0,0E0,0E0,0E0,0E0,0E0,0E0,0E0,0E0,0E0,0E0,0E0],"parents":[2147483647,0,0,1,1,2,2,3,3,4,4,5,5,6,6,7,7,8,8,9,9,10,10,11,11,12,12,13,13,14,14,15,15,16,16,19,19,22,22,23,23,24,24,25,25,26,26,27,27,28,28,29,29,30,30,31,31,32,32,33,33,34,34,39,39,40,40,41,41,42,42,51,51,52,52,53,53,54,54],"right_children":[2,4,6,8,10,12,14,16,18,20,22,24,26,28,30,32,34,-1,-1,36,-1,-1,38,40,42,44,46,48,50,52,54,56,58,60,62,-1,-1,-1,-1,64,66,68,70,-1,-1,-1,-1,-1,-1,-1,-1,72,74,76,78,-1,-1,-1,-1,-1,-1,-1,-1,-1,-1,-1,-1,-1,-1,-1,-1,-1,-1,-1,-1,-1,-1,-1,-1],"split_conditions":[3.8365002E2,3.835E2,3.828E2,3.832E2,3.7175E2,3.8275E2,3.663E2,3.7535E2,3.774E2,3.7909998E2,3.9935E2,3.7595E2,3.9159998E2,3.7675E2,3.7865E2,3.744E2,3.787E2,-7.4674994E-2,-5.7724E-3,3.7425E2,1.596222E-2,4.252363E-2,3.9135E2,3.897E2,3.7559998E2,3.724E2,3.9140002E2,3.7415E2,3.8015002E2,3.749E2,3.9105E2,4.024E2,3.7145E2,3.7065E2,3.719E2,6.362915E-4,-4.93927E-3,4.10614E-3,1.629944E-2,3.752E2,4.1890002E2,3.6405E2,3.9734998E2,-1.682434E-2,-5.9997562E-2,-1.0543823E-2,-7.5073243E-4,5.7418823E-2,2.2473909E-2,-1.0835267E-2,5.1605226E-3,3.9555E2,3.7145E2,3.8925E2,3.912E2,1.1850402E-4,5.5746462E-2,-5.3278465E-2,-1.2220983E-2,6.747742E-2,1.1010742E-2,-1.2123413E-2,9.786988E-3,-9.0802E-3,-3.9094545E-2,3.9147954E-3,-7.941546E-3,-3.2196045E-3,-1.7419433E-2,1.6025653E-2,-1.513672E-3,-1.1154176E-2,-4.0138554E-2,-1.3665772E-2,8.378602E-3,8.877225E-3,3.9749585E-2,-2.8404238E-2,-6.380922E-4],"split_indices":[37,38,49,38,2,59,20,53,0,3,58,56,14,4,25,54,54,0,0,0,0,0,0,17,9,24,0,1,4,10,16,28,41,39,43,0,0,0,0,50,15,1,10,0,0,0,0,0,0,0,0,59,1,17,17,0,0,0,0,0,0,0,0,0,0,0,0,0,0,0,0,0,0,0,0,0,0,0,0],"split_type":[0,0,0,0,0,0,0,0,0,0,0,0,0,0,0,0,0,0,0,0,0,0,0,0,0,0,0,0,0,0,0,0,0,0,0,0,0,0,0,0,0,0,0,0,0,0,0,0,0,0,0,0,0,0,0,0,0,0,0,0,0,0,0,0,0,0,0,0,0,0,0,0,0,0,0,0,0,0,0],"sum_hessian":[6.58E2,3.43E2,3.15E2,3.31E2,1.2E1,4.1E1,2.74E2,3.29E2,2E0,3E0,9E0,3.1E1,1E1,8E0,2.66E2,2.71E2,5.8E1,1E0,1E0,2E0,1E0,6E0,3E0,1.9E1,1.2E1,7E0,3E0,5E0,3E0,1.9E1,2.47E2,2.59E2,1.2E1,1E1,4.8E1,1E0,1E0,1E0,2E0,9E0,1E1,4E0,8E0,2E0,5E0,2E0,1E0,2E0,3E0,1E0,2E0,1.2E1,7E0,3.2E1,2.15E2,2.57E2,2E0,6E0,6E0,5E0,5E0,1.4E1,3.4E1,4E0,5E0,4E0,6E0,2E0,2E0,6E0,2E0,8E0,4E0,2E0,5E0,2.6E1,6E0,5E0,2.1E2],"tree_param":{"num_deleted":"0","num_feature":"60","num_nodes":"79","size_leaf_vector":"0"}},{"base_weights":[1.0699676E-4,5.736606E-4,-6.1047364E-2,-8.4348704E-4,2.2978954E-2,-8.5632324E-2,-1.6113281E-2,6.338129E-4,-4.737292E-2,8.628336E-2,3.858997E-3,-2.1850586E-2,-2.319336E-3,-3.4124914E-4,3.8618978E-2,9.718154E-3,-8.9777164E-2,1.0418265E-1,1.5757242E-2,-4.3193817E-2,1.9382477E-2,7.4195204E-4,-7.8559875E-2,-4.3253582E-2,5.4541953E-2,-4.865112E-2,6.6143796E-2,-1.0807037E-1,-3.074646E-2,3.1295776E-2,1.111145E-1,2.6016235E-2,-2.380371E-3,3.8070679E-3,-7.215576E-2,6.599935E-2,-8.050919E-3,1.6511292E-3,-6.424332E-2,-1.3787079E-1,-1.539917E-2,-6.011963E-3,-5.886841E-2,9.665426E-2,1.6139984E-2,2.1443686E-2,8.879598E-2,-3.8757324E-2,-3.3569336E-3,-1.2715657E-2,2.6687622E-2,2.128601E-2,8.480835E-2,-3.7896052E-2,2.653122E-2],"categories":[],"categories_nodes":[],"categories_segments":[],"categories_sizes":[],"default_left":[1,1,1,1,1,0,1,1,1,1,1,0,0,1,1,1,1,1,1,1,1,1,1,1,1,0,1,0,1,0,0,0,0,1,0,1,1,0,0,0,0,0,0,0,0,0,0,0,0,0,0,0,0,0,0],"id":98,"left_children":[1,3,5,7,9,-1,11,13,15,17,19,-1,-1,21,23,25,27,29,31,33,35,37,39,41,43,-1,45,-1,47,-1,-1,-1,-1,49,-1,51,53,-1,-1,-1,-1,-1,-1,-1,-1,-1,-1,-1,-1,-1,-1,-1,-1,-1,-1],"loss_changes":[1.884191E-2,2.0816687E-2,4.1436963E-3,4.2441327E-2,4.687175E-2,0E0,1.8674135E-4,2.2198876E-2,4.686965E-2,9.719677E-3,2.3480328E-2,0E0,0E0,4.9623292E-2,2.1913957E-2,3.2859687E-2,8.555688E-3,5.927682E-5,6.2014925E-4,1.1164597E-2,3.1223973E-2,3.4256123E-2,2.784586E-2,1.3906495E-3,1.946354E-2,0E0,3.1586625E-3,0E0,7.4754935E-4,0E0,0E0,0E0,0E0,1.8515472E-3,0E0,5.7638884E-3,1.7519165E-2,0E0,0E0,0E0,0E0,0E0,0E0,0E0,0E0,0E0,0E0,0E0,0E0,0E0,0E0,0E0,0E0,0E0,0E0],"parents":[2147483647,0,0,1,1,2,2,3,3,4,4,6,6,7,7,8,8,9,9,10,10,13,13,14,14,15,15,16,16,17,17,18,18,19,19,20,20,21,21,22,22,23,23,24,24,26,26,28,28,33,33,35,35,36,36],"right_children":[2,4,6,8,10,-1,12,14,16,18,20,-1,-1,22,24,26,28,30,32,34,36,38,40,42,44,-1,46,-1,48,-1,-1,-1,-1,50,-1,52,54,-1,-1,-1,-1,-1,-1,-1,-1,-1,-1,-1,-1,-1,-1,-1,-1,-1,-1],"split_conditions":[4.489E2,4.3084998E2,4.314E2,4.2695E2,4.3209998E2,-2.5689699E-2,4.1225E2,4.254E2,4.1015E2,4.392E2,4.172E2,-6.555176E-3,-6.958008E-4,4.239E2,3.8425E2,4.2705E2,4.302E2,4.0175E2,4.2034998E2,3.9159998E2,4.365E2,4.3465E2,4.166E2,3.802E2,4.2740002E2,-1.4595337E-2,4.143E2,-3.2421112E-2,4.3540002E2,9.388734E-3,3.3334352E-2,7.804871E-3,-7.141114E-4,3.9955E2,-2.1646729E-2,4.239E2,4.4334998E2,4.953388E-4,-1.9272996E-2,-4.136124E-2,-4.619751E-3,-1.8035889E-3,-1.7660523E-2,2.899628E-2,4.8419954E-3,6.433106E-3,2.6638797E-2,-1.1627197E-2,-1.0070801E-3,-3.8146973E-3,8.006287E-3,6.3858037E-3,2.5442505E-2,-1.1368816E-2,7.959366E-3],"split_indices":[55,58,25,59,57,0,0,57,21,39,42,0,0,58,2,58,1,34,0,8,47,30,32,0,0,0,37,0,0,0,0,0,0,1,0,46,48,0,0,0,0,0,0,0,0,0,0,0,0,0,0,0,0,0,0],"split_type":[0,0,0,0,0,0,0,0,0,0,0,0,0,0,0,0,0,0,0,0,0,0,0,0,0,0,0,0,0,0,0,0,0,0,0,0,0,0,0,0,0,0,0,0,0,0,0,0,0,0,0,0,0,0,0],"sum_hessian":[6.58E2,6.54E2,4E0,6.16E2,3.8E1,2E0,2E0,5.98E2,1.8E1,8E0,3E1,1E0,1E0,5.84E2,1.4E1,8E0,1E1,6E0,2E0,7E0,2.3E1,5.77E2,7E0,2E0,1.2E1,4E0,4E0,7E0,3E0,1E0,5E0,1E0,1E0,3E0,4E0,8E0,1.5E1,5.7E2,7E0,3E0,4E0,1E0,1E0,5E0,7E0,2E0,2E0,2E0,1E0,2E0,1E0,3E0,5E0,8E0,7E0],"tree_param":{"num_deleted":"0","num_feature":"60","num_nodes":"55","size_leaf_vector":"0"}},{"base_weights":[6.3211673E-6,-3.5334997E-2,7.722223E-4,-9.132385E-3,-1.2836711E-1,1.0174084E-2,-3.022829E-3,2.0463943E-2,-5.4660033E-2,6.7469836E-3,1.3288574E-1,-1.3568552E-1,-9.7522105E-4,-8.392334E-4,2.7704874E-2,1.2347989E-2,-4.195364E-2,1.5325928E-1,2.56958E-2,-2.6039124E-2,-2.1141052E-1,1.561381E-1,-2.0135539E-3,4.814148E-3,-6.072998E-3,2.9989624E-2,8.140564E-3,6.9430424E-3,1.0466173E-1,-1.011467E-1,1.004537E-3,1.6921997E-2,-4.6000164E-2,-4.001336E-2,3.4474102E-3,4.1982476E-3,1.4552815E-1,1.8968964E-1,3.0532837E-2,-2.9014587E-2,-1.3862304E-1,5.5409748E-2,-4.577201E-2,-5.8084887E-2,1.4459228E-2,1.380528E-1,1.028778E-3],"categories":[],"categories_nodes":[],"categories_segments":[],"categories_sizes":[],"default_left":[1,1,1,1,0,1,1,1,0,1,1,1,1,1,1,1,1,0,0,1,0,0,1,0,0,0,0,1,1,1,1,0,0,1,1,0,0,0,0,0,0,0,0,0,0,0,0],"id":99,"left_children":[1,3,5,7,-1,9,11,13,-1,15,17,19,21,23,25,27,29,-1,-1,31,-1,-1,33,-1,-1,-1,-1,35,37,39,41,-1,-1,43,45,-1,-1,-1,-1,-1,-1,-1,-1,-1,-1,-1,-1],"loss_changes":[1.7865067E-2,3.295528E-2,2.308039E-2,1.7287975E-2,0E0,7.732484E-2,1.2509426E-1,1.2572897E-3,0E0,5.016263E-2,6.9810674E-3,5.2615866E-2,7.454123E-2,1.1800171E-4,2.406491E-5,8.110127E-2,4.8415296E-2,0E0,0E0,4.2086095E-3,0E0,0E0,9.4142504E-2,0E0,0E0,0E0,0E0,5.8729514E-2,5.0935455E-2,1.7603897E-2,3.3074867E-2,0E0,0E0,5.6950815E-2,1.2910567E-1,0E0,0E0,0E0,0E0,0E0,0E0,0E0,0E0,0E0,0E0,0E0,0E0],"parents":[2147483647,0,0,1,1,2,2,3,3,5,5,6,6,7,7,9,9,10,10,11,11,12,12,13,13,14,14,15,15,16,16,19,19,22,22,27,27,28,28,29,29,30,30,33,33,34,34],"right_children":[2,4,6,8,-1,10,12,14,-1,16,18,20,22,24,26,28,30,-1,-1,32,-1,-1,34,-1,-1,-1,-1,36,38,40,42,-1,-1,44,46,-1,-1,-1,-1,-1,-1,-1,-1,-1,-1,-1,-1],"split_conditions":[2.1435E2,2.25E2,3.1895E2,2.149E2,-3.8510136E-2,3.2705E2,3.1895E2,2.173E2,-1.639801E-2,3.207E2,3.8265002E2,3.1709998E2,3.1395E2,2.91E2,2.8955E2,3.1945E2,3.25E2,4.5977786E-2,7.7087404E-3,2.9655E2,-6.342316E-2,4.6841435E-2,3.688E2,1.4442444E-3,-1.8218994E-3,8.996888E-3,2.4421692E-3,3.202E2,3.272E2,3.08E2,3.7555E2,5.0765993E-3,-1.380005E-2,3.9945E2,3.7075E2,1.2594743E-3,4.3658447E-2,5.6906894E-2,9.159852E-3,-8.704376E-3,-4.1586913E-2,1.6622925E-2,-1.37316035E-2,-1.7425466E-2,4.3377685E-3,4.1415844E-2,3.0863343E-4],"split_indices":[51,46,54,59,0,50,55,39,0,39,1,47,56,0,0,37,28,0,0,0,0,0,56,0,0,0,0,49,5,14,20,0,0,6,56,0,0,0,0,0,0,0,0,0,0,0,0],"split_type":[0,0,0,0,0,0,0,0,0,0,0,0,0,0,0,0,0,0,0,0,0,0,0,0,0,0,0,0,0,0,0,0,0,0,0,0,0,0,0,0,0,0,0,0,0,0,0],"sum_hessian":[6.58E2,1.3E1,6.45E2,1.1E1,2E0,1.85E2,4.6E2,7E0,4E0,1.81E2,4E0,6E0,4.54E2,2E0,5E0,1.63E2,1.8E1,3E0,1E0,3E0,3E0,2E0,4.52E2,1E0,1E0,4E0,1E0,1.55E2,8E0,7E0,1.1E1,1E0,2E0,5.6E1,3.96E2,1.53E2,2E0,3E0,5E0,3E0,4E0,5E0,6E0,4.2E1,1.4E1,6E0,3.9E2],"tree_param":{"num_deleted":"0","num_feature":"60","num_nodes":"47","size_leaf_vector":"0"}}]},"name":"gbtree"},"learner_model_param":{"base_score":"5E-1","num_class":"0","num_feature":"60","num_target":"1"},"objective":{"name":"reg:squarederror","reg_loss_param":{"scale_pos_weight":"1"}}},"version":[1,6,1]}