{"learner":{"attributes":{"best_iteration":"99","best_ntree_limit":"100","scikit_learn":"{\"n_estimators\": 100, \"objective\": \"reg:squarederror\", \"max_depth\": null, \"max_leaves\": null, \"max_bin\": null, \"grow_policy\": null, \"learning_rate\": null, \"verbosity\": null, \"booster\": null, \"tree_method\": null, \"gamma\": null, \"min_child_weight\": null, \"max_delta_step\": null, \"subsample\": null, \"sampling_method\": null, \"colsample_bytree\": null, \"colsample_bylevel\": null, \"colsample_bynode\": null, \"reg_alpha\": null, \"reg_lambda\": null, \"scale_pos_weight\": null, \"base_score\": null, \"missing\": NaN, \"num_parallel_tree\": null, \"random_state\": null, \"n_jobs\": null, \"monotone_constraints\": null, \"interaction_constraints\": null, \"importance_type\": null, \"gpu_id\": null, \"validate_parameters\": null, \"predictor\": null, \"enable_categorical\": false, \"max_cat_to_onehot\": null, \"eval_metric\": null, \"early_stopping_rounds\": null, \"callbacks\": null, \"_estimator_type\": \"regressor\"}"},"feature_names":[],"feature_types":[],"gradient_booster":{"model":{"gbtree_model_param":{"num_parallel_tree":"1","num_trees":"100","size_leaf_vector":"0"},"tree_info":[0,0,0,0,0,0,0,0,0,0,0,0,0,0,0,0,0,0,0,0,0,0,0,0,0,0,0,0,0,0,0,0,0,0,0,0,0,0,0,0,0,0,0,0,0,0,0,0,0,0,0,0,0,0,0,0,0,0,0,0,0,0,0,0,0,0,0,0,0,0,0,0,0,0,0,0,0,0,0,0,0,0,0,0,0,0,0,0,0,0,0,0,0,0,0,0,0,0,0,0],"trees":[{"base_weights":[-5.053906E-1,2.0341773E0,-5.124163E-1,1.693407E0,-5.184151E-1,-1.141049E0,-5.127935E-1,-1.270646E0,-3.1133074E-1,-5.160217E-1,4.2770384E-3,-2.007768E-1,-5.217077E-1,-3.5444105E-1,3.6156943E-1,-5.120534E-1,1.3918218E-1,-9.360773E-1,-5.1689506E-1],"categories":[],"categories_nodes":[],"categories_segments":[],"categories_sizes":[],"default_left":[1,0,1,0,1,1,1,0,0,1,1,1,1,0,0,0,0,0,0],"id":0,"left_children":[1,-1,3,-1,5,7,9,-1,-1,11,13,15,17,-1,-1,-1,-1,-1,-1],"loss_changes":[1.2675522E1,0E0,9.492142E0,0E0,1.690033E0,1.420536E-1,1.0805359E0,0E0,0E0,1.0460205E0,7.689913E-1,1.4469452E0,7.72522E-1,0E0,0E0,0E0,0E0,0E0,0E0],"parents":[2147483647,0,0,2,2,4,4,5,5,6,6,9,9,10,10,11,11,12,12],"right_children":[2,-1,4,-1,6,8,10,-1,-1,12,14,16,18,-1,-1,-1,-1,-1,-1],"split_conditions":[-2.028087E0,6.102532E-1,-2.028087E0,5.080221E-1,-1.4407756E0,1.5230553E-1,1.0437595E0,-3.8119382E-1,-9.339923E-2,-8.595366E-1,2.3637626E-1,-4.009434E-2,-1.4093468E0,-1.0633232E-1,1.08470835E-1,-1.5361601E-1,4.1754656E-2,-2.808232E-1,-1.5506852E-1],"split_indices":[19,0,17,0,32,0,22,0,0,21,4,10,3,0,0,0,0,0,0],"split_type":[0,0,0,0,0,0,0,0,0,0,0,0,0,0,0,0,0,0,0],"sum_hessian":[6.51E2,1E0,6.5E2,1E0,6.49E2,4E0,6.45E2,3E0,1E0,6.41E2,4E0,1.2E1,6.29E2,2E0,2E0,6E0,6E0,5E0,6.24E2],"tree_param":{"num_deleted":"0","num_feature":"60","num_nodes":"19","size_leaf_vector":"0"}},{"base_weights":[-3.53623E-1,1.7290506E0,-3.5947818E-1,1.439396E0,-3.6446014E-1,-8.936529E-1,-3.5980004E-1,-1.1342553E0,-3.5516626E-1,-3.758977E-1,-2.6594874E-1,-3.7985525E-1,4.5568824E-2,-3.110242E-1,-9.609604E-2,-3.4667498E-1,-4.4288903E-1,2.3955826E-1,-2.2827338E-1,-3.4777135E-1,5.262052E-3,-1.833184E-1,7.945791E-2],"categories":[],"categories_nodes":[],"categories_segments":[],"categories_sizes":[],"default_left":[1,0,1,0,1,1,1,0,0,1,1,1,1,1,1,0,0,0,0,0,0,0,0],"id":1,"left_children":[1,-1,3,-1,5,7,9,-1,-1,11,13,15,17,19,21,-1,-1,-1,-1,-1,-1,-1,-1],"loss_changes":[8.572334E0,0E0,6.358803E0,0E0,1.2814255E0,2.449565E-1,8.7599945E-1,0E0,0E0,9.330292E-1,7.20418E-1,9.842224E-1,3.7341973E-1,8.9677143E-1,3.5143518E-1,0E0,0E0,0E0,0E0,0E0,0E0,0E0,0E0],"parents":[2147483647,0,0,2,2,4,4,5,5,6,6,9,9,10,10,11,11,12,12,13,13,14,14],"right_children":[2,-1,4,-1,6,8,10,-1,-1,12,14,16,18,20,22,-1,-1,-1,-1,-1,-1,-1,-1],"split_conditions":[-2.028087E0,5.187152E-1,-2.028087E0,4.318188E-1,-1.4407756E0,5.298238E-2,2.8778487E-1,-3.402766E-1,-1.0654988E-1,8.5015047E-1,2.222291E-1,1.0224156E-1,-4.0094033E-3,3.8383645E-1,1.586783E-1,-1.040025E-1,-1.3286671E-1,7.186748E-2,-6.848202E-2,-1.0433141E-1,1.5786157E-3,-5.4995526E-2,2.3837375E-2],"split_indices":[19,0,17,0,32,0,24,0,0,48,52,14,0,50,39,0,0,0,0,0,0,0,0],"split_type":[0,0,0,0,0,0,0,0,0,0,0,0,0,0,0,0,0,0,0,0,0,0,0],"sum_hessian":[6.51E2,1E0,6.5E2,1E0,6.49E2,4E0,6.45E2,2E0,2E0,5.48E2,9.7E1,5.43E2,5E0,7.6E1,2.1E1,3.6E2,1.83E2,3E0,2E0,6.8E1,8E0,1.4E1,7E0],"tree_param":{"num_deleted":"0","num_feature":"60","num_nodes":"23","size_leaf_vector":"0"}},{"base_weights":[-2.4732701E-1,1.4696931E0,-2.5222212E-1,1.2234867E0,-2.5637475E-1,-7.1492237E-1,-2.5242874E-1,-9.0740424E-1,-2.84133E-1,-9.739665E-1,-2.4980006E-1,-2.2728014E-1,-3.085191E-1,-1.3403912E-1,-2.4931417E-1,-2.1921429E-1,-4.0371946E-1],"categories":[],"categories_nodes":[],"categories_segments":[],"categories_sizes":[],"default_left":[1,0,1,0,1,1,1,0,0,0,1,1,1,0,0,0,0],"id":2,"left_children":[1,-1,3,-1,5,7,9,-1,-1,-1,11,13,15,-1,-1,-1,-1],"loss_changes":[5.850746E0,0E0,4.3030243E0,0E0,9.956589E-1,1.5677238E-1,9.8197174E-1,0E0,0E0,0E0,7.8279114E-1,9.321861E-1,1.4078255E0,0E0,0E0,0E0,0E0],"parents":[2147483647,0,0,2,2,4,4,5,5,6,6,10,10,11,11,12,12],"right_children":[2,-1,4,-1,6,8,10,-1,-1,-1,12,14,16,-1,-1,-1,-1],"split_conditions":[-2.028087E0,4.4090793E-1,-2.028087E0,3.67046E-1,-1.4407756E0,5.298238E-2,-2.028087E0,-2.722213E-1,-8.52399E-2,-2.9218996E-1,1.7714451E-1,-2.507537E-1,1.9254655E-3,-4.0211737E-2,-7.4794255E-2,-6.576429E-2,-1.2111584E-1],"split_indices":[19,0,17,0,32,0,3,0,0,0,47,6,54,0,0,0,0],"split_type":[0,0,0,0,0,0,0,0,0,0,0,0,0,0,0,0,0],"sum_hessian":[6.51E2,1E0,6.5E2,1E0,6.49E2,4E0,6.45E2,2E0,2E0,1E0,6.44E2,4.69E2,1.75E2,9.1E1,3.78E2,9.2E1,8.3E1],"tree_param":{"num_deleted":"0","num_feature":"60","num_nodes":"17","size_leaf_vector":"0"}},{"base_weights":[-1.7334913E-1,1.2492391E0,-1.7745331E-1,1.0399636E0,-1.809262E-1,-1.7236477E-1,-3.4088263E-1,-1.6868097E-1,-5.909991E-1,-1.6266632E-1,-5.089323E-1,-1.9646618E-1,-1.1454973E-1,-2.489227E-1,-7.360758E-1,-2.907831E-1,1.7812949E-2,-2.9355177E-1,-7.439142E-1,-2.0753938E-1,5.313761E-2,5.9288543E-2,-1.4711127E-1,-8.5299134E-2,-3.6666206E-1,-1.2334035E-1,1.2717299E-1,-3.687537E-2,-3.5311145E-1,-8.567726E-1,-3.0784547E-1],"categories":[],"categories_nodes":[],"categories_segments":[],"categories_sizes":[],"default_left":[1,0,1,0,1,1,1,1,1,1,1,1,1,0,0,1,1,1,1,0,0,0,0,0,0,0,0,0,0,0,0],"id":3,"left_children":[1,-1,3,-1,5,7,9,11,13,15,17,19,21,-1,-1,23,25,27,29,-1,-1,-1,-1,-1,-1,-1,-1,-1,-1,-1,-1],"loss_changes":[4.028431E0,0E0,2.9405575E0,0E0,8.313904E-1,8.549099E-1,8.755882E-1,9.024849E-1,6.491065E-2,3.9826086E-1,5.913911E-1,1.130413E0,1.2030749E0,0E0,0E0,1.2464315E-1,1.3917781E-1,1.3985449E-1,8.0744505E-2,0E0,0E0,0E0,0E0,0E0,0E0,0E0,0E0,0E0,0E0,0E0,0E0],"parents":[2147483647,0,0,2,2,4,4,5,5,6,6,7,7,8,8,9,9,10,10,11,11,12,12,15,15,16,16,17,17,18,18],"right_children":[2,-1,4,-1,6,8,10,12,14,16,18,20,22,-1,-1,24,26,28,30,-1,-1,-1,-1,-1,-1,-1,-1,-1,-1,-1,-1],"split_conditions":[-2.028087E0,3.7477174E-1,-2.028087E0,3.119891E-1,5.4404986E-1,9.556358E-1,-9.953979E-2,9.3571275E-2,1.4759758E-1,6.667004E-2,4.6678238E-2,5.444804E-1,-3.3733553E-1,-7.467681E-2,-2.2082275E-1,-1.6439436E-1,3.650479E-2,-2.8011397E-1,2.9360726E-1,-6.2261816E-2,1.5941285E-2,1.7786564E-2,-4.413338E-2,-2.5589742E-2,-1.0999862E-1,-3.700211E-2,3.8151897E-2,-1.1062612E-2,-1.05933435E-1,-2.570318E-1,-9.235364E-2],"split_indices":[19,0,17,0,56,46,23,4,5,24,19,2,20,0,0,36,9,1,7,0,0,0,0,0,0,0,0,0,0,0,0],"split_type":[0,0,0,0,0,0,0,0,0,0,0,0,0,0,0,0,0,0,0,0,0,0,0,0,0,0,0,0,0,0,0],"sum_hessian":[6.51E2,1E0,6.5E2,1E0,6.49E2,6.18E2,3.1E1,6.14E2,4E0,1.6E1,1.5E1,4.04E2,2.1E2,2E0,2E0,9E0,7E0,9E0,6E0,3.87E2,1.7E1,3.3E1,1.77E2,3E0,6E0,3E0,4E0,2E0,7E0,4E0,2E0],"tree_param":{"num_deleted":"0","num_feature":"60","num_nodes":"31","size_leaf_vector":"0"}},{"base_weights":[-1.21777244E-1,1.0618532E0,-1.2522653E-1,8.8396907E-1,-1.281391E-1,-3.540165E-1,-1.2297359E-1,-5.154718E-1,-1.1892235E-1,-7.174601E-1,-1.2091078E-1,-5.4879856E-1,-1.4109246E-1,8.821035E-2,-2.1941751E-1,-2.823731E-1,-1.1384215E-1,1.1316587E-1,1.9149654E-2,-4.935935E-2,-2.4959221E-1,-1.2546995E-1,-4.849256E-1,-1.4335515E-2,-1.2880674E-1],"categories":[],"categories_nodes":[],"categories_segments":[],"categories_sizes":[],"default_left":[1,0,1,0,1,1,1,1,1,0,1,0,0,1,1,1,1,0,0,0,0,0,0,0,0],"id":4,"left_children":[1,-1,3,-1,5,7,9,11,13,-1,15,-1,-1,17,19,21,23,-1,-1,-1,-1,-1,-1,-1,-1],"loss_changes":[2.794877E0,0E0,2.026784E0,0E0,7.148657E-1,4.700997E-1,6.9441223E-1,2.2383451E-2,1.6506574E-1,0E0,6.9373226E-1,0E0,0E0,3.003249E-3,1.3337553E-2,7.6546574E-1,9.07979E-1,0E0,0E0,0E0,0E0,0E0,0E0,0E0,0E0],"parents":[2147483647,0,0,2,2,4,4,5,5,6,6,7,7,8,8,10,10,13,13,14,14,15,15,16,16],"right_children":[2,-1,4,-1,6,8,10,12,14,-1,16,-1,-1,18,20,22,24,-1,-1,-1,-1,-1,-1,-1,-1],"split_conditions":[-2.028087E0,3.1855595E-1,-2.028087E0,2.6519072E-1,-9.257548E-1,-1.226612E-1,-2.028087E0,3.8902897E-1,-2.631502E-1,-2.1523803E-1,-7.14877E-1,-1.6463958E-1,-4.232774E-2,-1.688399E-1,-1.555731E-1,1.0792601E-1,-2.9841292E-1,3.3949763E-2,5.7448964E-3,-1.4807806E-2,-7.4877664E-2,-3.764099E-2,-1.4547768E-1,-4.300655E-3,-3.8642023E-2],"split_indices":[19,0,17,0,32,52,3,1,2,0,22,0,0,0,2,53,32,0,0,0,0,0,0,0,0],"split_type":[0,0,0,0,0,0,0,0,0,0,0,0,0,0,0,0,0,0,0,0,0,0,0,0,0],"sum_hessian":[6.51E2,1E0,6.5E2,1E0,6.49E2,1.3E1,6.36E2,7E0,6E0,1E0,6.35E2,6E0,1E0,2E0,4E0,2.5E1,6.1E2,1E0,1E0,1E0,3E0,1.5E1,1E1,8E1,5.3E2],"tree_param":{"num_deleted":"0","num_feature":"60","num_nodes":"25","size_leaf_vector":"0"}},{"base_weights":[-8.54197E-2,9.0257525E-1,-8.83238E-2,7.5137377E-1,-9.077161E-2,1.1661257E-1,-9.552002E-2,2.8457105E-1,-1.8275364E-1,-5.3396076E-2,-1.2074477E-1,3.128669E-2,3.8865194E-1,-6.0488973E-2,-3.970385E-1,-2.5452957E-1,-3.7893105E-2,-1.120157E-1,-4.4735828E-1,9.262896E-2,-7.637007E-2,1.0779744E-1,4.1749477E-1,1.3764514E-2,-8.249348E-2,-2.985176E-1,-3.6938976E-2,-3.123801E-2,-5.177391E-1,-1.5497445E-1,-6.6432506E-2,-1.4854664E-1,-8.584391E-1],"categories":[],"categories_nodes":[],"categories_segments":[],"categories_sizes":[],"default_left":[1,0,1,0,1,1,1,1,1,1,1,1,1,1,0,1,1,1,1,0,0,0,0,0,0,0,0,0,0,0,0,0,0],"id":5,"left_children":[1,-1,3,-1,5,7,9,11,13,15,17,19,21,23,-1,25,27,29,31,-1,-1,-1,-1,-1,-1,-1,-1,-1,-1,-1,-1,-1,-1],"loss_changes":[1.9504623E0,0E0,1.4062772E0,0E0,6.5122414E-1,8.062228E-1,6.693444E-1,2.5146097E-1,1.3318034E-1,7.3871493E-1,1.081749E0,3.348972E-2,1.16996765E-2,9.305038E-3,0E0,1.5168667E-1,6.9915307E-1,7.49485E-1,1.1008389E0,0E0,0E0,0E0,0E0,0E0,0E0,0E0,0E0,0E0,0E0,0E0,0E0,0E0,0E0],"parents":[2147483647,0,0,2,2,4,4,5,5,6,6,7,7,8,8,9,9,10,10,11,11,12,12,13,13,15,15,16,16,17,17,18,18],"right_children":[2,-1,4,-1,6,8,10,12,14,16,18,20,22,24,-1,26,28,30,32,-1,-1,-1,-1,-1,-1,-1,-1,-1,-1,-1,-1,-1,-1],"split_conditions":[-2.028087E0,2.7077258E-1,-2.028087E0,2.2541215E-1,-8.6506283E-1,2.6659545E-1,-7.753527E-2,1.1115749E-1,-6.0435064E-2,-4.2798442E-1,6.8231225E-1,-7.5208843E-3,-3.121542E-1,-3.123024E-1,-1.1911155E-1,2.4146411E-1,9.570411E-1,-3.6102408E-3,1.6750988E-1,2.778869E-2,-2.2911021E-2,3.2339234E-2,1.2524843E-1,4.1293544E-3,-2.4748044E-2,-8.9555286E-2,-1.1081694E-2,-9.371404E-3,-1.5532175E-1,-4.6492334E-2,-1.9929752E-2,-4.4563994E-2,-2.5753173E-1],"split_indices":[19,0,17,0,30,32,54,54,1,13,11,0,1,0,0,8,46,28,5,0,0,0,0,0,0,0,0,0,0,0,0,0,0],"split_type":[0,0,0,0,0,0,0,0,0,0,0,0,0,0,0,0,0,0,0,0,0,0,0,0,0,0,0,0,0,0,0,0,0],"sum_hessian":[6.51E2,1E0,6.5E2,1E0,6.49E2,1.4E1,6.35E2,9E0,5E0,2.39E2,3.96E2,3E0,6E0,4E0,1E0,1.6E1,2.23E2,3.87E2,9E0,2E0,1E0,1E0,5E0,1E0,3E0,1.3E1,3E0,2.21E2,2E0,1.98E2,1.89E2,6E0,3E0],"tree_param":{"num_deleted":"0","num_feature":"60","num_nodes":"33","size_leaf_vector":"0"}},{"base_weights":[-5.9970062E-2,7.67189E-1,-6.241914E-2,6.386677E-1,-6.44803E-2,-6.0650058E-2,-3.0355066E-1,5.545705E-3,-7.362786E-2,-4.1078052E-1,8.357922E-2,-1.5494366E-2,2.3403251E-1,-2.613207E-2,-1.0159679E-1,-5.008456E-1,-1.9550404E-1,1.0542592E-1,1.994291E-2,3.5237353E-2,-1.3741595E-1,8.3206214E-2,4.0176383E-1,2.4797074E-1,-3.7358444E-2,-9.132617E-2,-3.721488E-1],"categories":[],"categories_nodes":[],"categories_segments":[],"categories_sizes":[],"default_left":[1,0,1,0,1,1,1,1,1,1,1,1,1,1,1,0,0,0,0,0,0,0,0,0,0,0,0],"id":6,"left_children":[1,-1,3,-1,5,7,9,11,13,15,17,19,21,23,25,-1,-1,-1,-1,-1,-1,-1,-1,-1,-1,-1,-1],"loss_changes":[1.3686929E0,0E0,9.819107E-1,0E0,5.767927E-1,5.5107546E-1,4.4945157E-1,5.132083E-1,7.093711E-1,5.7193756E-2,2.0682309E-3,6.110007E-1,1.9425541E-1,6.2470007E-1,9.02447E-1,0E0,0E0,0E0,0E0,0E0,0E0,0E0,0E0,0E0,0E0,0E0,0E0],"parents":[2147483647,0,0,2,2,4,4,5,5,6,6,7,7,8,8,9,9,10,10,11,11,12,12,13,13,14,14],"right_children":[2,-1,4,-1,6,8,10,12,14,16,18,20,22,24,26,-1,-1,-1,-1,-1,-1,-1,-1,-1,-1,-1,-1],"split_conditions":[-2.028087E0,2.3015672E-1,-2.028087E0,1.9160032E-1,7.5914097E-1,-2.9841292E-1,2.2632036E-1,4.177285E-1,-9.304097E-2,-8.548675E-2,-1.0647584E-1,1.5741107E-1,1.9984159E-1,-6.5138805E-1,5.908899E-1,-1.5025368E-1,-5.8651213E-2,3.1627778E-2,5.982873E-3,1.0571206E-2,-4.1224785E-2,2.4961865E-2,1.2052915E-1,7.439122E-2,-1.1207534E-2,-2.7397852E-2,-1.1164465E-1],"split_indices":[19,0,17,0,3,1,27,59,18,21,0,3,7,30,11,0,0,0,0,0,0,0,0,0,0,0,0],"split_type":[0,0,0,0,0,0,0,0,0,0,0,0,0,0,0,0,0,0,0,0,0,0,0,0,0,0,0],"sum_hessian":[6.51E2,1E0,6.5E2,1E0,6.49E2,6.4E2,9E0,1.05E2,5.35E2,7E0,2E0,9.7E1,8E0,1.99E2,3.36E2,4E0,3E0,1E0,1E0,6.9E1,2.8E1,5E0,3E0,7E0,1.92E2,3.25E2,1.1E1],"tree_param":{"num_deleted":"0","num_feature":"60","num_nodes":"27","size_leaf_vector":"0"}},{"base_weights":[-4.1535113E-2,6.521107E-1,-4.360233E-2,5.4286754E-1,-4.533977E-2,-1.4617346E-2,-7.146908E-2,-3.3732852E-1,-6.8840277E-3,-6.346694E-2,-3.379955E-1,-9.297933E-2,-4.9734557E-1,-2.102914E-4,-3.2718834E-1,-7.461321E-2,1.1971882E-1,-6.231165E-1,-1.8882568E-1,6.414233E-3,-1.2824859E-1,3.536163E-1,-5.1581794E-3,-5.934369E-1,-4.5704823E-2,-1.5093787E-1,-4.9697865E-2,3.395632E-1,2.3799818E-2,-6.049439E-2,-2.2152038E-1],"categories":[],"categories_nodes":[],"categories_segments":[],"categories_sizes":[],"default_left":[1,0,1,0,1,1,1,1,1,1,1,1,0,1,1,1,1,0,1,0,0,0,0,0,0,0,0,0,0,0,0],"id":7,"left_children":[1,-1,3,-1,5,7,9,11,13,15,17,19,-1,21,23,25,27,-1,29,-1,-1,-1,-1,-1,-1,-1,-1,-1,-1,-1,-1],"loss_changes":[9.6334577E-1,0E0,6.879548E-1,0E0,5.2074647E-1,7.4636626E-1,7.271552E-1,2.274574E-1,6.283934E-1,7.072418E-1,3.0765414E-1,1.4844768E-2,0E0,5.077747E-1,4.225446E-1,6.0673356E-1,4.136635E-1,0E0,2.0165294E-2,0E0,0E0,0E0,0E0,0E0,0E0,0E0,0E0,0E0,0E0,0E0,0E0],"parents":[2147483647,0,0,2,2,4,4,5,5,6,6,7,7,8,8,9,9,10,10,11,11,13,13,14,14,15,15,16,16,18,18],"right_children":[2,-1,4,-1,6,8,10,12,14,16,18,20,-1,22,24,26,28,-1,30,-1,-1,-1,-1,-1,-1,-1,-1,-1,-1,-1,-1],"split_conditions":[-2.028087E0,1.9563322E-1,-2.028087E0,1.6286027E-1,-4.385206E-2,-9.888056E-1,5.813105E-1,6.2001843E-2,7.9575187E-1,4.780568E-1,-8.5237175E-2,-2.3156485E-1,-1.4920367E-1,-9.7382236E-1,-4.7656715E-2,-1.9320226E-1,-1.13342226E-1,-1.8693495E-1,-1.367204E-1,1.92427E-3,-3.847458E-2,1.0608489E-1,-1.5474539E-3,-1.7803107E-1,-1.3711448E-2,-4.528136E-2,-1.490936E-2,1.01868965E-1,7.139946E-3,-1.8148318E-2,-6.645612E-2],"split_indices":[19,0,17,0,23,3,56,26,18,8,28,1,0,48,1,10,3,0,14,0,0,0,0,0,0,0,0,0,0,0,0],"split_type":[0,0,0,0,0,0,0,0,0,0,0,0,0,0,0,0,0,0,0,0,0,0,0,0,0,0,0,0,0,0,0],"sum_hessian":[6.51E2,1E0,6.5E2,1E0,6.49E2,2.99E2,3.5E2,6E0,2.93E2,3.41E2,9E0,3E0,3E0,2.88E2,5E0,3.22E2,1.9E1,2E0,7E0,1E0,2E0,3E0,2.85E2,2E0,3E0,7.8E1,2.44E2,5E0,1.4E1,2E0,5E0],"tree_param":{"num_deleted":"0","num_feature":"60","num_nodes":"31","size_leaf_vector":"0"}},{"base_weights":[-2.9284988E-2,5.542941E-1,-3.1032873E-2,4.6143746E-1,-3.2500423E-2,2.228901E-2,-4.610911E-2,8.77821E-2,-3.688288E-2,-4.288782E-2,-4.517386E-1,5.9069496E-2,3.459215E-1,-7.869054E-3,-2.0727757E-1,-5.0421163E-2,9.59748E-2,-5.1145804E-1,-1.362901E-1,-1.28652E-1,9.694753E-2,-9.2658494E-4,4.1547644E-1,2.7566174E-2,-1.0703882E-1,-2.8549242E-1,-1.8582178E-2,-1.7537728E-1,-4.0762026E-2,2.7446544E-1,1.9779801E-2],"categories":[],"categories_nodes":[],"categories_segments":[],"categories_sizes":[],"default_left":[1,0,1,0,1,1,1,1,1,1,1,1,1,1,1,1,1,0,0,0,0,0,0,0,0,0,0,0,0,0,0],"id":8,"left_children":[1,-1,3,-1,5,7,9,11,13,15,17,19,21,23,25,27,29,-1,-1,-1,-1,-1,-1,-1,-1,-1,-1,-1,-1,-1,-1],"loss_changes":[6.8226033E-1,0E0,4.8549098E-1,0E0,4.856757E-1,5.070331E-1,6.613902E-1,4.3910152E-1,3.3949125E-1,5.4671854E-1,5.6470037E-3,4.177722E-1,1.4513499E-1,2.1379684E-1,1.4228278E-1,5.866797E-1,3.6177373E-1,0E0,0E0,0E0,0E0,0E0,0E0,0E0,0E0,0E0,0E0,0E0,0E0,0E0,0E0],"parents":[2147483647,0,0,2,2,4,4,5,5,6,6,7,7,8,8,9,9,10,10,11,11,12,12,13,13,14,14,15,15,16,16],"right_children":[2,-1,4,-1,6,8,10,12,14,16,18,20,22,24,26,28,30,-1,-1,-1,-1,-1,-1,-1,-1,-1,-1,-1,-1,-1,-1],"split_conditions":[-2.028087E0,1.6628824E-1,-2.028087E0,1.3843125E-1,-2.2483042E-1,-5.359487E-2,8.595644E-1,4.2479846E-1,4.2334092E-1,5.1018757E-1,2.98621E-1,-2.4109848E-1,-1.4233182E-1,2.4585634E-1,3.036089E-1,-4.315669E-1,-3.4862977E-1,-1.5343742E-1,-4.088703E-2,-3.8595602E-2,2.908426E-2,-2.779755E-4,1.2464294E-1,8.269853E-3,-3.211165E-2,-8.564773E-2,-5.574654E-3,-5.2613188E-2,-1.2228608E-2,8.233964E-2,5.933941E-3],"split_indices":[19,0,17,0,25,1,52,5,51,41,0,16,4,28,10,42,49,0,0,0,0,0,0,0,0,0,0,0,0,0,0],"split_type":[0,0,0,0,0,0,0,0,0,0,0,0,0,0,0,0,0,0,0,0,0,0,0,0,0,0,0,0,0,0,0],"sum_hessian":[6.51E2,1E0,6.5E2,1E0,6.49E2,1.29E2,5.2E2,6.1E1,6.8E1,5.17E2,3E0,5.6E1,5E0,5.9E1,9E0,4.91E2,2.6E1,2E0,1E0,9E0,4.7E1,1E0,4E0,4.4E1,1.5E1,6E0,3E0,3.4E1,4.57E2,7E0,1.9E1],"tree_param":{"num_deleted":"0","num_feature":"60","num_nodes":"31","size_leaf_vector":"0"}},{"base_weights":[-2.0294558E-2,4.7115004E-1,-2.1773199E-2,6.6349156E-2,-2.9533986E-2,-1.1197236E-2,1.4730877E-1,-1.7408952E-1,-2.4498392E-2,-1.7490277E-1,3.199539E-2,3.9388084E-1,6.9844894E-2,-4.8086266E-3,-3.804541E-1,-2.9672605E-3,-5.8211014E-2,1.19583845E-1,-3.285318E-2,-5.4387935E-2,1.2316389E-1,-1.5584423E-1,1.7220101E-1,-1.2611161E-1,-4.8660675E-1,9.706157E-3,-1.572853E-1,-7.5302005E-2,1.1221543E-1,-2.8917747E-2,1.6032396E-1,2.085183E-2,-1.0793517E-1,2.158555E-2,-1.1676443E-1,1.6434214E-1,7.938972E-3,-1.7889519E-1,-8.769225E-3,-5.0959043E-2,2.2702484E-1,-2.6959123E-2,-1.5017606E-1,5.15716E-2,-3.4836538E-2,-3.1537136E-1,-2.889043E-2,-5.4948606E-2,-2.727303E-1,2.0470938E-1,-1.0201669E-1],"categories":[],"categories_nodes":[],"categories_segments":[],"categories_sizes":[],"default_left":[1,0,1,1,1,1,1,1,1,0,1,0,1,1,1,1,1,1,1,1,1,1,1,1,0,1,1,1,1,0,0,0,0,0,0,0,0,0,0,0,0,0,0,0,0,0,0,0,0,0,0],"id":9,"left_children":[1,-1,3,5,7,9,11,13,15,-1,17,-1,19,21,23,25,27,29,31,33,35,37,39,41,-1,43,45,47,49,-1,-1,-1,-1,-1,-1,-1,-1,-1,-1,-1,-1,-1,-1,-1,-1,-1,-1,-1,-1,-1,-1],"loss_changes":[4.8404706E-1,0E0,4.4717765E-1,3.343901E-1,4.3176103E-1,2.0358048E-1,4.6910053E-1,6.968422E-1,4.208324E-1,0E0,1.345684E-1,0E0,1.4580199E-1,3.476536E-1,1.8162537E-1,6.9581336E-1,6.667332E-1,6.513594E-2,5.8702543E-2,3.5693146E-2,6.986667E-2,2.2162765E-2,8.497588E-2,5.495578E-3,0E0,6.153157E-1,5.389197E-1,8.1279135E-1,4.3700248E-1,0E0,0E0,0E0,0E0,0E0,0E0,0E0,0E0,0E0,0E0,0E0,0E0,0E0,0E0,0E0,0E0,0E0,0E0,0E0,0E0,0E0,0E0],"parents":[2147483647,0,0,2,2,3,3,4,4,5,5,6,6,7,7,8,8,10,10,12,12,13,13,14,14,15,15,16,16,17,17,18,18,19,19,20,20,21,21,22,22,23,23,25,25,26,26,27,27,28,28],"right_children":[2,-1,4,6,8,10,12,14,16,-1,18,-1,20,22,24,26,28,30,32,34,36,38,40,42,-1,44,46,48,50,-1,-1,-1,-1,-1,-1,-1,-1,-1,-1,-1,-1,-1,-1,-1,-1,-1,-1,-1,-1,-1,-1],"split_conditions":[-2.028087E0,1.4134502E-1,-4.2357868E-1,-4.2062595E-2,-6.896932E-1,-3.0919304E-1,-2.4188356E-1,1.14542075E-1,7.554709E-2,-5.2470833E-2,-1.20880194E-1,1.18164256E-1,-7.8733504E-2,4.9519025E-2,2.3842407E-3,4.3399704E-1,4.1270632E-1,-8.331064E-2,1.8244626E-1,9.469015E-2,1.2813717E-1,5.6310546E-1,-1.6168188E-1,-3.4444403E-2,-1.4598203E-1,1.7492099E-2,-3.371295E-2,2.6197445E-1,3.7866835E-2,-8.675325E-3,4.809719E-2,6.2555494E-3,-3.238055E-2,6.475665E-3,-3.5029333E-2,4.930264E-2,2.3816917E-3,-5.366856E-2,-2.6307676E-3,-1.5287713E-2,6.8107456E-2,-8.0877375E-3,-4.505282E-2,1.5471481E-2,-1.0450962E-2,-9.4611414E-2,-8.66713E-3,-1.6484583E-2,-8.181909E-2,6.1412815E-2,-3.0605007E-2],"split_indices":[19,0,41,2,59,38,9,32,14,0,46,0,26,17,7,42,6,8,53,5,21,0,1,0,0,22,8,6,59,0,0,0,0,0,0,0,0,0,0,0,0,0,0,0,0,0,0,0,0,0,0],"split_type":[0,0,0,0,0,0,0,0,0,0,0,0,0,0,0,0,0,0,0,0,0,0,0,0,0,0,0,0,0,0,0,0,0,0,0,0,0,0,0,0,0,0,0,0,0,0,0,0,0,0,0],"sum_hessian":[6.51E2,1E0,6.5E2,5.2E1,5.98E2,2.7E1,2.5E1,1.9E1,5.79E2,5E0,2.2E1,5E0,2E1,1.1E1,8E0,3.54E2,2.25E2,9E0,1.3E1,6E0,1.4E1,6E0,5E0,3E0,5E0,3.28E2,2.6E1,2.05E2,2E1,2E0,7E0,8E0,5E0,3E0,3E0,1E1,4E0,5E0,1E0,1E0,4E0,1E0,2E0,1.69E2,1.59E2,1.1E1,1.5E1,1.87E2,1.8E1,1.4E1,6E0],"tree_param":{"num_deleted":"0","num_feature":"60","num_nodes":"51","size_leaf_vector":"0"}},{"base_weights":[-1.4397739E-2,-1.2665149E-2,-3.8499323E-1,-2.1724336E-2,5.404741E-2,-7.876687E-2,-9.055937E-3,3.2405728E-1,2.2862533E-2,1.5857898E-1,-1.05703436E-1,-9.854024E-2,4.783688E-3,-2.3842782E-2,4.4399777E-1,3.8432844E-2,-3.4287545E-1,2.8930536E-1,-5.6153752E-2,-3.0073595E-1,-7.0689134E-2,1.9248502E-1,-1.2694733E-1,3.443713E-2,-4.1871306E-2,-5.2112494E-2,1.6348321E-2,5.2606535E-1,1.865751E-1,-8.021266E-2,7.0091926E-2,3.085159E-1,8.702103E-2,-1.493738E-1,4.494708E-3,-4.608838E-2,-6.325847E-1,-3.036217E-2,-1.7106311E-1,-2.7563828E-1,-7.3372066E-2,4.2149764E-2,-2.3932287E-1,-2.680297E-2,-2.6370925E-1,2.1420361E-2,-1.718191E-1,1.7941807E-1,3.1981025E-2],"categories":[],"categories_nodes":[],"categories_segments":[],"categories_sizes":[],"default_left":[1,1,0,1,1,1,1,1,1,1,1,1,1,1,1,1,0,1,1,1,1,0,1,1,1,0,0,0,0,1,1,0,0,0,0,0,0,0,0,0,0,0,0,0,0,0,0,0,0],"id":10,"left_children":[1,3,-1,5,7,9,11,13,15,17,19,21,23,25,27,29,-1,31,33,35,37,-1,39,41,43,-1,-1,-1,-1,45,47,-1,-1,-1,-1,-1,-1,-1,-1,-1,-1,-1,-1,-1,-1,-1,-1,-1,-1],"loss_changes":[4.1376692E-1,3.9400917E-1,0E0,4.133581E-1,6.4936876E-1,6.8166375E-1,5.8253306E-1,3.4440452E-1,4.1749808E-1,3.2502908E-1,6.2066054E-1,5.452679E-1,5.659023E-1,4.2605246E-3,2.860558E-2,2.648006E-1,0E0,3.5458803E-4,2.8939651E-2,1.1539079E0,3.2267615E-1,0E0,4.41813E-1,5.3794014E-1,5.244256E-1,0E0,0E0,0E0,0E0,1.43334E-1,2.2342056E-1,0E0,0E0,0E0,0E0,0E0,0E0,0E0,0E0,0E0,0E0,0E0,0E0,0E0,0E0,0E0,0E0,0E0,0E0],"parents":[2147483647,0,0,1,1,3,3,4,4,5,5,6,6,7,7,8,8,9,9,10,10,11,11,12,12,13,13,14,14,15,15,17,17,18,18,19,19,20,20,22,22,23,23,24,24,29,29,30,30],"right_children":[2,4,-1,6,8,10,12,14,16,18,20,22,24,26,28,30,-1,32,34,36,38,-1,40,42,44,-1,-1,-1,-1,46,48,-1,-1,-1,-1,-1,-1,-1,-1,-1,-1,-1,-1,-1,-1,-1,-1,-1,-1],"split_conditions":[2.512927E0,3.3196694E-1,-1.1549797E-1,-2.6138806E-1,-3.6866343E-1,-3.427474E-1,-3.4077144E-1,-3.1594998E-1,5.189535E-1,1.0928896E-1,-3.2271856E-1,-4.5869404E-1,9.0782836E-2,-6.355792E-1,7.68737E-2,-2.632889E-1,-1.0286264E-1,-6.031925E-3,-8.474451E-2,-4.5223955E-2,1.1941321E-1,5.774551E-2,-1.9033298E-1,5.781555E-1,4.3392155E-1,-1.5633749E-2,4.9044965E-3,1.5781961E-1,5.597253E-2,-4.0066596E-2,-1.8872288E-1,9.255478E-2,2.6106311E-2,-4.4812143E-2,1.3484125E-3,-1.3826515E-2,-1.8977542E-1,-9.108651E-3,-5.1318936E-2,-8.269149E-2,-2.201162E-2,1.264493E-2,-7.1796864E-2,-8.040891E-3,-7.9112776E-2,6.4261085E-3,-5.1545735E-2,5.3825423E-2,9.594308E-3],"split_indices":[59,21,0,55,0,53,39,25,47,17,27,18,25,0,7,41,0,4,0,7,32,0,17,56,58,0,0,0,0,32,18,0,0,0,0,0,0,0,0,0,0,0,0,0,0,0,0,0,0],"split_type":[0,0,0,0,0,0,0,0,0,0,0,0,0,0,0,0,0,0,0,0,0,0,0,0,0,0,0,0,0,0,0,0,0,0,0,0,0,0,0,0,0,0,0,0,0,0,0,0,0],"sum_hessian":[6.51E2,6.49E2,2E0,5.72E2,7.7E1,1.03E2,4.69E2,7E0,7E1,1E1,9.3E1,6.2E1,4.07E2,2E0,5E0,6.8E1,2E0,6E0,4E0,1.3E1,8E1,5E0,5.7E1,2.49E2,1.58E2,1E0,1E0,3E0,2E0,1.4E1,5.4E1,5E0,1E0,1E0,3E0,8E0,5E0,5.8E1,2.2E1,1.4E1,4.3E1,2.43E2,6E0,1.49E2,9E0,7E0,7E0,1.3E1,4.1E1],"tree_param":{"num_deleted":"0","num_feature":"60","num_nodes":"49","size_leaf_vector":"0"}},{"base_weights":[-1.0659848E-2,-1.3053083E-1,-6.2666857E-3,7.0540465E-2,-1.7657429E-1,3.0417528E-2,-2.2057466E-2,1.3174362E-1,-1.417619E-2,-2.4855396E-1,-8.6937174E-2,-1.0560583E-1,4.526652E-2,-1.7521862E-2,-2.6535678E-1,-2.4232306E-2,2.9680207E-3,-2.8259355E-1,-1.2684616E-1,-2.366427E-2,-1.10673524E-1,-2.739983E-1,1.5456286E-2,5.325381E-2,-1.5061304E-1,-1.7599286E-1,-1.0639369E-2,-1.061326E-1,-3.3966476E-1,-3.8995296E-3,-2.8952673E-2,-3.327934E-1,-6.507524E-2,1.16289526E-1,-1.04758546E-1,7.663921E-2,-1.1330024E-2,-1.9868195E-1,-2.0293817E-2,-8.457647E-2,-4.748061E-1,-3.9652544E-3,-1.5836194E-1,1.3987164E-1,-1.2601563E-2,-1.13186955E-1,-3.130824E-2,-1.3785544E-1,8.507848E-2,4.5048364E-2,-1.896858E-1,-4.4798687E-2,1.4357962E-2,5.6403965E-2,-1.6070709E-1,-2.2112243E-2,5.6177083E-2,8.2988895E-2,-2.332471E-1],"categories":[],"categories_nodes":[],"categories_segments":[],"categories_sizes":[],"default_left":[1,1,1,1,1,1,1,0,1,1,1,1,1,1,1,0,0,0,0,1,0,1,1,1,1,1,1,0,0,0,0,0,0,1,1,1,1,0,1,1,0,1,1,0,0,0,0,0,0,0,0,0,0,0,0,0,0,0,0],"id":11,"left_children":[1,3,5,7,9,11,13,-1,15,17,19,21,23,25,27,-1,-1,-1,-1,29,-1,31,33,35,37,39,41,-1,-1,-1,-1,-1,-1,43,45,47,49,-1,51,53,-1,55,57,-1,-1,-1,-1,-1,-1,-1,-1,-1,-1,-1,-1,-1,-1,-1,-1],"loss_changes":[3.425335E-1,2.2539005E-1,3.656125E-1,2.7792262E-2,1.0098034E-1,3.8854426E-1,4.8199803E-1,0E0,5.891345E-4,5.5829287E-3,1.2399673E-2,3.9156798E-1,2.7712283E-1,4.714808E-1,5.8603525E-2,0E0,0E0,0E0,0E0,3.0519394E-4,0E0,7.661271E-2,1.5764214E-1,2.5158122E-1,3.9818108E-2,4.515382E-1,4.1049957E-1,0E0,0E0,0E0,0E0,0E0,0E0,2.3039266E-2,1.7073005E-4,2.3257035E-1,4.6103856E-1,0E0,3.1906299E-3,1.7005843E-1,0E0,4.378031E-1,3.4468165E-1,0E0,0E0,0E0,0E0,0E0,0E0,0E0,0E0,0E0,0E0,0E0,0E0,0E0,0E0,0E0,0E0],"parents":[2147483647,0,0,1,1,2,2,3,3,4,4,5,5,6,6,8,8,9,9,10,10,11,11,12,12,13,13,14,14,19,19,21,21,22,22,23,23,24,24,25,25,26,26,33,33,34,34,35,35,36,36,38,38,39,39,41,41,42,42],"right_children":[2,4,6,8,10,12,14,-1,16,18,20,22,24,26,28,-1,-1,-1,-1,30,-1,32,34,36,38,40,42,-1,-1,-1,-1,-1,-1,44,46,48,50,-1,52,54,-1,56,58,-1,-1,-1,-1,-1,-1,-1,-1,-1,-1,-1,-1,-1,-1,-1,-1],"split_conditions":[-5.923648E-1,-3.086792E-1,-1.4785275E-1,-8.1100486E-2,2.5838649E-2,-7.574816E-1,8.041103E-1,3.9523087E-2,-6.8442106E-2,1.8366325E-1,-2.3729578E-3,-1.20556995E-1,7.178302E-1,-6.896932E-1,-2.1015705E-1,-7.269692E-3,8.9040626E-4,-8.477807E-2,-3.805385E-2,6.012725E-2,-3.320206E-2,2.0901512E-1,1.8250005E-2,1.5472743E-1,3.7653828E-1,2.6645452E-1,5.494133E-1,-3.183978E-2,-1.0189943E-1,-1.169859E-3,-8.685802E-3,-9.9838026E-2,-1.9522574E-2,2.4626893E-1,-4.9359195E-2,-7.298114E-1,2.5130123E-1,-5.960459E-2,5.063563E-2,-1.4040095E-1,-1.4244184E-1,1.9306344E-1,-2.3526853E-1,4.1961495E-2,-3.780469E-3,-3.3956088E-2,-9.392473E-3,-4.1356634E-2,2.5523545E-2,1.3514509E-2,-5.6905743E-2,-1.3439607E-2,4.307389E-3,1.692119E-2,-4.821213E-2,-6.6336733E-3,1.6853126E-2,2.489667E-2,-6.997413E-2],"split_indices":[13,33,9,3,6,9,38,0,0,33,30,27,56,22,11,0,0,0,0,0,0,0,29,31,1,18,57,0,0,0,0,0,0,2,1,27,6,0,0,5,0,21,19,0,0,0,0,0,0,0,0,0,0,0,0,0,0,0,0],"split_type":[0,0,0,0,0,0,0,0,0,0,0,0,0,0,0,0,0,0,0,0,0,0,0,0,0,0,0,0,0,0,0,0,0,0,0,0,0,0,0,0,0,0,0,0,0,0,0,0,0,0,0,0,0,0,0,0,0,0,0],"sum_hessian":[6.51E2,2.2E1,6.29E2,4E0,1.8E1,1.89E2,4.4E2,2E0,2E0,9E0,9E0,1.8E1,1.71E2,4.33E2,7E0,1E0,1E0,6E0,3E0,3E0,6E0,7E0,1.1E1,1.65E2,6E0,1.7E1,4.16E2,3E0,4E0,1E0,2E0,5E0,2E0,6E0,5E0,1.21E2,4.4E1,4E0,2E0,1.4E1,3E0,3.99E2,1.7E1,5E0,1E0,4E0,1E0,4E0,1.17E2,3.4E1,1E1,1E0,1E0,5E0,9E0,3.07E2,9.2E1,4E0,1.3E1],"tree_param":{"num_deleted":"0","num_feature":"60","num_nodes":"59","size_leaf_vector":"0"}},{"base_weights":[-8.577791E-3,-2.5243494E-1,-6.6829394E-3,-4.3441302E-1,-9.833717E-2,4.9296346E-2,-1.4766923E-2,9.041192E-2,-1.0191524E-1,-2.3318315E-2,5.526165E-2,4.450477E-2,1.9921319E-1,-1.9358194E-1,6.978698E-2,-2.6258461E-2,1.9002327E-1,1.8949604E-1,1.9255476E-2,1.1729167E-1,-9.075329E-3,-8.447938E-2,2.576855E-1,-1.02949455E-1,-2.6705617E-1,-9.107791E-2,1.5234852E-1,-2.2951921E-2,-2.0409834E-1,2.932052E-1,9.010946E-2,2.988167E-1,1.0770722E-1,-7.1891785E-2,7.743902E-2,1.6165141E-2,2.1680169E-1,-6.106416E-2,9.061098E-2,3.3249833E-2,3.0692068E-1,-1.1853578E-1,-4.715763E-3,1.9534402E-1,5.8570176E-2,4.3114386E-3,-4.412858E-2,-5.1353242E-2,-3.1602377E-1,2.3718365E-2,1.0077764E-1,1.0894283E-2,1.3381173E-1,6.436823E-2,-1.6809581E-1,1.704888E-1,1.7737186E-2],"categories":[],"categories_nodes":[],"categories_segments":[],"categories_sizes":[],"default_left":[1,1,1,0,0,1,1,1,1,1,1,1,1,1,1,1,1,1,1,1,1,0,1,1,0,0,1,1,1,0,1,0,1,1,1,0,0,0,0,0,0,0,0,0,0,0,0,0,0,0,0,0,0,0,0,0,0],"id":12,"left_children":[1,3,5,-1,-1,7,9,11,13,15,17,19,21,23,25,27,29,31,33,35,37,-1,39,41,-1,-1,43,45,47,-1,49,-1,51,53,55,-1,-1,-1,-1,-1,-1,-1,-1,-1,-1,-1,-1,-1,-1,-1,-1,-1,-1,-1,-1,-1,-1],"loss_changes":[2.995846E-1,9.749311E-2,2.9397103E-1,0E0,0E0,5.190207E-1,3.408319E-1,3.1579328E-1,2.9681826E-1,3.223809E-1,2.960137E-1,1.8436116E-1,3.369441E-1,5.2416533E-2,1.06844336E-1,2.8933287E-1,4.574454E-2,8.405095E-2,2.7073076E-1,1.9775742E-1,1.5064518E-1,0E0,1.6659701E-1,1.0158725E-2,0E0,0E0,8.7189E-3,2.8424484E-1,1.3763571E-1,0E0,1.1510812E-3,0E0,2.1287516E-2,2.729953E-1,1.6918856E-1,0E0,0E0,0E0,0E0,0E0,0E0,0E0,0E0,0E0,0E0,0E0,0E0,0E0,0E0,0E0,0E0,0E0,0E0,0E0,0E0,0E0,0E0],"parents":[2147483647,0,0,1,1,2,2,5,5,6,6,7,7,8,8,9,9,10,10,11,11,12,12,13,13,14,14,15,15,16,16,17,17,18,18,19,19,20,20,22,22,23,23,26,26,27,27,28,28,30,30,32,32,33,33,34,34],"right_children":[2,4,6,-1,-1,8,10,12,14,16,18,20,22,24,26,28,30,32,34,36,38,-1,40,42,-1,-1,44,46,48,-1,50,-1,52,54,56,-1,-1,-1,-1,-1,-1,-1,-1,-1,-1,-1,-1,-1,-1,-1,-1,-1,-1,-1,-1,-1,-1],"split_conditions":[-1.4407756E0,-2.5397414E-1,-3.3348474E-1,-1.3032392E-1,-2.9501153E-2,2.351537E-1,3.9108714E-1,1.9946484E-1,1.467485E-1,8.273668E-1,-3.227281E-1,-7.555037E-2,-2.4647641E-1,2.1632797E-1,-1.3636151E-1,7.40615E-1,-3.319612E-2,-1.0353487E-1,-1.10081136E-1,-2.5852915E-2,1.7950593E-1,-2.5343815E-2,-1.4168161E-1,-1.901855E-2,-8.011685E-2,-2.7323375E-2,-9.779497E-2,-4.270252E-2,-7.9585314E-2,8.796156E-2,-1.9159766E-1,8.964501E-2,-4.4700608E-2,-1.4581968E-1,-6.1474554E-2,4.8495424E-3,6.504051E-2,-1.831925E-2,2.7183296E-2,9.97495E-3,9.2076205E-2,-3.5560735E-2,-1.4147289E-3,5.860321E-2,1.7571054E-2,1.2934316E-3,-1.3238574E-2,-1.5405973E-2,-9.480713E-2,7.11551E-3,3.0233294E-2,3.268285E-3,4.014352E-2,1.931047E-2,-5.0428744E-2,5.1146645E-2,5.321156E-3],"split_indices":[32,2,43,0,0,53,43,58,1,9,41,32,44,54,13,58,13,26,20,1,29,0,32,1,0,0,7,15,29,0,0,0,14,10,4,0,0,0,0,0,0,0,0,0,0,0,0,0,0,0,0,0,0,0,0,0,0],"split_type":[0,0,0,0,0,0,0,0,0,0,0,0,0,0,0,0,0,0,0,0,0,0,0,0,0,0,0,0,0,0,0,0,0,0,0,0,0,0,0,0,0,0,0,0,0,0,0,0,0,0,0,0,0,0,0,0,0],"sum_hessian":[6.51E2,4E0,6.47E2,1E0,3E0,8.1E1,5.66E2,6.4E1,1.7E1,5.05E2,6.1E1,4.6E1,1.8E1,1.1E1,6E0,4.99E2,6E0,1.2E1,4.9E1,1.9E1,2.7E1,3E0,1.5E1,6E0,5E0,2E0,4E0,4.91E2,8E0,2E0,4E0,4E0,8E0,1.9E1,3E1,1E1,9E0,1.8E1,9E0,3E0,1.2E1,5E0,1E0,2E0,2E0,2.15E2,2.76E2,4E0,4E0,1E0,3E0,2E0,6E0,8E0,1.1E1,1.1E1,1.9E1],"tree_param":{"num_deleted":"0","num_feature":"60","num_nodes":"57","size_leaf_vector":"0"}},{"base_weights":[-5.8680214E-3,-3.4835476E-1,-4.806821E-3,9.707355E-3,-3.141628E-2,1.3597015E-1,3.4171236E-3,3.1967524E-2,-6.543409E-2,2.4422562E-1,-2.3478273E-2,-7.916546E-2,1.2231654E-2,8.347901E-2,-4.5487933E-2,-1.6190536E-1,-2.6418358E-2,3.3736134E-1,1.2950562E-1,-8.264512E-2,7.114156E-2,-5.5612676E-2,-4.8708558E-1,1.708468E-2,-1.4550075E-1,2.1817425E-2,1.7179742E-1,9.793252E-2,-8.786777E-2,-4.037362E-1,-9.509443E-2,1.0626896E-2,-1.10934146E-1,7.3706105E-2,3.753512E-1,1.387113E-1,3.713575E-2,-1.1269391E-1,-1.5031688E-2,9.330311E-2,-1.1973774E-1,-2.4255136E-1,1.9986555E-2,-6.2248647E-2,-2.7562976E-1,-4.7583055E-2,1.4601672E-1,2.564854E-1,6.1460916E-2,-6.7782947E-3,1.3396583E-1,6.840793E-2,-1.1122581E-1,-5.221544E-1,-1.2517485E-1,-2.5551185E-2,-2.931581E-1,4.063558E-2,-1.0444539E-1,-1.5673184E-1,2.860771E-2],"categories":[],"categories_nodes":[],"categories_segments":[],"categories_sizes":[],"default_left":[1,0,1,1,1,1,1,1,1,1,1,1,1,1,1,1,1,1,1,1,0,1,0,1,1,1,1,1,1,1,1,1,1,0,0,0,0,0,0,0,0,0,0,0,0,0,0,0,0,0,0,0,0,0,0,0,0,0,0,0,0],"id":13,"left_children":[1,-1,3,5,7,9,11,13,15,17,19,21,23,25,27,29,31,33,35,37,-1,39,-1,41,43,45,47,49,51,53,55,57,59,-1,-1,-1,-1,-1,-1,-1,-1,-1,-1,-1,-1,-1,-1,-1,-1,-1,-1,-1,-1,-1,-1,-1,-1,-1,-1,-1,-1],"loss_changes":[2.3529302E-1,0E0,2.517305E-1,3.3469713E-1,4.9801275E-1,3.509573E-1,2.9432276E-1,3.2697475E-1,5.603074E-1,8.4524214E-2,5.626472E-2,3.4761038E-1,2.818859E-1,2.6309863E-1,2.0918357E-1,6.563556E-1,3.3931702E-1,3.2431602E-2,8.011535E-4,1.0496229E-2,0E0,3.7404278E-1,0E0,2.7231574E-1,1.0201104E-1,2.6553264E-1,1.7111969E-1,3.1092688E-2,1.0251638E-1,2.3151994E-1,4.7459918E-1,2.6668498E-1,2.1537668E-1,0E0,0E0,0E0,0E0,0E0,0E0,0E0,0E0,0E0,0E0,0E0,0E0,0E0,0E0,0E0,0E0,0E0,0E0,0E0,0E0,0E0,0E0,0E0,0E0,0E0,0E0,0E0,0E0],"parents":[2147483647,0,0,2,2,3,3,4,4,5,5,6,6,7,7,8,8,9,9,10,10,11,11,12,12,13,13,14,14,15,15,16,16,17,17,18,18,19,19,21,21,23,23,24,24,25,25,26,26,27,27,28,28,29,29,30,30,31,31,32,32],"right_children":[2,-1,4,6,8,10,12,14,16,18,20,22,24,26,28,30,32,34,36,38,-1,40,-1,42,44,46,48,50,52,54,56,58,60,-1,-1,-1,-1,-1,-1,-1,-1,-1,-1,-1,-1,-1,-1,-1,-1,-1,-1,-1,-1,-1,-1,-1,-1,-1,-1,-1,-1],"split_conditions":[-2.028087E0,-1.0450643E-1,9.274946E-2,-5.4245937E-1,-9.309097E-2,1.5312055E-1,-4.0241957E-1,7.510409E-2,-1.0988463E-1,-1.3266745E-1,2.6817113E-2,7.2301817E-1,7.083248E-1,-2.2279114E-1,-1.7502356E-1,-2.5073627E-1,1.4447197E-1,-1.6654757E-1,2.3154715E-1,-2.2968072E-3,2.134247E-2,-1.3624536E-1,-1.4612567E-1,-1.4407756E0,4.187506E-2,1.2749246E-1,-1.7196482E-2,-1.4768109E-1,-4.1354647E-1,1.6749315E-1,1.9619596E-1,2.1482274E-1,8.743331E-2,2.2111833E-2,1.1260536E-1,4.1613393E-2,1.1140726E-2,-3.3808175E-2,-4.5095067E-3,2.7990934E-2,-3.5921324E-2,-7.276541E-2,5.995967E-3,-1.8674595E-2,-8.268893E-2,-1.4274917E-2,4.3805018E-2,7.6945625E-2,1.8438276E-2,-2.0334886E-3,4.018975E-2,2.052238E-2,-3.3367746E-2,-1.5664633E-1,-3.7552457E-2,-7.6653557E-3,-8.7947436E-2,1.2190674E-2,-3.1333618E-2,-4.7019556E-2,8.582314E-3],"split_indices":[18,0,32,58,7,47,45,45,56,18,4,23,18,7,6,55,20,0,6,1,0,26,0,32,9,48,3,5,7,32,6,59,30,0,0,0,0,0,0,0,0,0,0,0,0,0,0,0,0,0,0,0,0,0,0,0,0,0,0,0,0],"split_type":[0,0,0,0,0,0,0,0,0,0,0,0,0,0,0,0,0,0,0,0,0,0,0,0,0,0,0,0,0,0,0,0,0,0,0,0,0,0,0,0,0,0,0,0,0,0,0,0,0,0,0,0,0,0,0,0,0,0,0,0,0],"sum_hessian":[6.51E2,1E0,6.5E2,4.21E2,2.29E2,1.9E1,4.02E2,8E1,1.49E2,1.1E1,8E0,3.8E1,3.64E2,4.8E1,3.2E1,4.2E1,1.07E2,5E0,6E0,5E0,3E0,3.7E1,1E0,3.54E2,1E1,2.9E1,1.9E1,7E0,2.5E1,8E0,3.4E1,7.5E1,3.2E1,1E0,4E0,5E0,1E0,3E0,2E0,1.1E1,2.6E1,3E0,3.51E2,7E0,3E0,1.9E1,1E1,1E1,9E0,2E0,5E0,3E0,2.2E1,5E0,3E0,2.6E1,8E0,6E1,1.5E1,2.4E1,8E0],"tree_param":{"num_deleted":"0","num_feature":"60","num_nodes":"61","size_leaf_vector":"0"}},{"base_weights":[-4.802962E-3,-1.320225E-2,3.0365514E-2,-4.9020056E-2,1.7172194E-3,1.4194877E-1,1.6272316E-2,-4.0819306E-2,-3.483935E-1,-5.9366874E-2,1.4561066E-2,3.221589E-1,6.351339E-2,2.0731367E-1,7.3596644E-3,-2.5788688E-3,-1.04508124E-1,-8.079276E-2,-4.106628E-1,-4.1855607E-2,-4.0731454E-1,3.2852456E-2,-4.2946104E-2,-3.5095815E-2,1.24875195E-1,3.520301E-2,2.4154058E-1,6.5436095E-2,-2.2177152E-2,-2.9740697E-2,9.013549E-2,-1.2404091E-1,1.853115E-1,-1.1267606E-2,-2.0284525E-1,-5.395547E-1,-7.141708E-2,-1.1752969E-1,4.2910736E-2,-6.0290255E-2,1.6656E-1,-5.9022665E-2,5.296394E-4,1.450086E-1,4.5908187E-3,-7.930941E-2,9.231511E-3,-3.3286834E-1,-2.1146156E-2,1.4629272E-1,-2.6426252E-2,-2.3872422E-3,-1.551061E-1,-7.206705E-2,7.381282E-2,-1.09322816E-1,-3.1579816E-1,-2.1166816E-1,-7.635605E-2,7.1730435E-2,-6.390469E-4,4.238249E-2,-9.664587E-2,4.7159806E-2,2.7024025E-1,1.9812824E-1,2.345451E-2,-8.830239E-2,7.5693995E-2,-1.2988694E-1,5.07259E-2,-7.738804E-2,4.0254362E-2],"categories":[],"categories_nodes":[],"categories_segments":[],"categories_sizes":[],"default_left":[1,1,1,1,1,1,1,1,1,1,1,0,1,1,1,1,1,0,0,1,1,1,1,1,0,0,0,1,1,1,1,1,0,1,1,0,0,1,1,1,1,0,0,1,1,1,1,0,0,0,0,0,0,0,0,0,0,0,0,0,0,0,0,0,0,0,0,0,0,0,0,0,0],"id":14,"left_children":[1,3,5,7,9,11,13,15,17,19,21,-1,23,25,27,29,31,-1,-1,33,35,37,39,41,-1,-1,-1,43,45,47,49,51,-1,53,55,-1,-1,57,59,61,63,-1,-1,65,67,69,71,-1,-1,-1,-1,-1,-1,-1,-1,-1,-1,-1,-1,-1,-1,-1,-1,-1,-1,-1,-1,-1,-1,-1,-1,-1,-1],"loss_changes":[1.9299528E-1,2.8170383E-1,1.9583333E-1,3.663172E-1,2.9350337E-1,1.7742652E-1,1.9087765E-1,3.699247E-1,3.3474743E-2,3.789969E-1,3.2644367E-1,0E0,7.094182E-2,2.0951137E-2,1.8842903E-1,2.4443668E-1,3.456623E-1,0E0,0E0,3.0794853E-1,9.472397E-2,3.6050093E-1,2.8256983E-1,4.293286E-3,0E0,0E0,0E0,1.784739E-1,1.3172683E-1,1.8835431E-1,1.4787322E-1,2.037062E-1,0E0,2.8465295E-1,7.1112365E-2,0E0,0E0,4.197821E-2,2.7742112E-1,2.6538727E-1,6.1532184E-2,0E0,0E0,9.866354E-2,1.51994E-1,1.7758714E-1,1.321001E-1,0E0,0E0,0E0,0E0,0E0,0E0,0E0,0E0,0E0,0E0,0E0,0E0,0E0,0E0,0E0,0E0,0E0,0E0,0E0,0E0,0E0,0E0,0E0,0E0,0E0,0E0],"parents":[2147483647,0,0,1,1,2,2,3,3,4,4,5,5,6,6,7,7,8,8,9,9,10,10,12,12,13,13,14,14,15,15,16,16,19,19,20,20,21,21,22,22,23,23,27,27,28,28,29,29,30,30,31,31,33,33,34,34,37,37,38,38,39,39,40,40,43,43,44,44,45,45,46,46],"right_children":[2,4,6,8,10,12,14,16,18,20,22,-1,24,26,28,30,32,-1,-1,34,36,38,40,42,-1,-1,-1,44,46,48,50,52,-1,54,56,-1,-1,58,60,62,64,-1,-1,66,68,70,72,-1,-1,-1,-1,-1,-1,-1,-1,-1,-1,-1,-1,-1,-1,-1,-1,-1,-1,-1,-1,-1,-1,-1,-1,-1,-1],"split_conditions":[2.3355603E-1,-1.3179857E-1,-3.6665976E-1,2.2449934E-1,-2.591865E-1,-7.6934904E-2,-7.14877E-1,4.708922E-2,-4.105351E-2,5.666126E-1,2.1271051E-1,9.664767E-2,-9.405203E-2,-3.3069023E-1,-9.4235584E-2,-3.121852E-2,4.414106E-1,-2.423783E-2,-1.23198844E-1,-2.8343505E-1,-2.0386446E-1,-4.6588355E-1,3.2084656E-1,-1.2940991E-1,3.746256E-2,1.0560904E-2,7.246218E-2,-4.654561E-2,-9.13095E-2,-1.3567832E0,2.4188058E-1,-3.4707594E-1,5.559345E-2,-3.444136E-2,1.6328487E-1,-1.6186643E-1,-2.1425124E-2,-2.5041997E-1,9.08811E-2,-2.3688635E-1,6.929819E-2,-1.77068E-2,1.5889184E-4,2.3846459E-2,-1.2857015E-1,6.4781025E-2,-1.5132332E-1,-9.9860504E-2,-6.343847E-3,4.3887816E-2,-7.927876E-3,-7.161727E-4,-4.653183E-2,-2.1620117E-2,2.2143846E-2,-3.2796845E-2,-9.473945E-2,-6.350045E-2,-2.2906817E-2,2.1519132E-2,-1.9171408E-4,1.2714747E-2,-2.8993761E-2,1.4147942E-2,8.107208E-2,5.9438474E-2,7.036353E-3,-2.6490718E-2,2.27082E-2,-3.8966082E-2,1.5217771E-2,-2.3216413E-2,1.2076309E-2],"split_indices":[24,11,47,24,55,1,35,43,0,1,50,0,19,1,19,43,19,0,0,55,0,13,9,0,0,0,0,42,4,32,4,41,0,44,2,0,0,19,56,52,4,0,0,59,30,43,51,0,0,0,0,0,0,0,0,0,0,0,0,0,0,0,0,0,0,0,0,0,0,0,0,0,0],"split_type":[0,0,0,0,0,0,0,0,0,0,0,0,0,0,0,0,0,0,0,0,0,0,0,0,0,0,0,0,0,0,0,0,0,0,0,0,0,0,0,0,0,0,0,0,0,0,0,0,0,0,0,0,0,0,0,0,0,0,0,0,0,0,0,0,0,0,0,0,0,0,0,0,0],"sum_hessian":[6.51E2,5.26E2,1.25E2,1.54E2,3.72E2,1.3E1,1.12E2,1.51E2,3E0,6.4E1,3.08E2,3E0,1E1,4E0,1.08E2,9.5E1,5.6E1,1E0,2E0,6.2E1,2E0,2.34E2,7.4E1,4E0,6E0,1E0,3E0,3.6E1,7.2E1,7.4E1,2.1E1,5.3E1,3E0,5.3E1,9E0,1E0,1E0,1.4E1,2.2E2,6.9E1,5E0,2E0,2E0,1.5E1,2.1E1,2.5E1,4.7E1,1E0,7.3E1,1.4E1,7E0,1.1E1,4.2E1,3.1E1,2.2E1,6E0,3E0,3E0,1.1E1,1.32E2,8.8E1,1.8E1,5.1E1,3E0,2E0,1E1,5E0,9E0,1.2E1,1.8E1,7E0,1.2E1,3.5E1],"tree_param":{"num_deleted":"0","num_feature":"60","num_nodes":"73","size_leaf_vector":"0"}},{"base_weights":[-3.789051E-3,-2.9600573E-1,-2.8854834E-3,2.2577815E-1,-3.938034E-3,8.612334E-2,-6.350523E-3,-1.4900118E-2,1.7757754E-1,-2.031123E-3,-9.960788E-2,-9.288101E-2,3.9570495E-2,-1.4793327E-3,2.2894798E-1,1.1909229E-2,-2.7075851E-2,-2.4870564E-1,-2.7533488E-2,7.973024E-2,-4.4193957E-4,2.91114E-2,-3.13304E-2,1.0553141E-1,9.0803235E-4,3.823163E-2,-4.6351437E-2,-4.149654E-1,-9.641487E-2,5.7940483E-2,-5.988751E-2],"categories":[],"categories_nodes":[],"categories_segments":[],"categories_sizes":[],"default_left":[1,0,1,0,1,1,1,1,1,1,1,0,1,1,0,1,1,1,1,0,0,0,0,0,0,0,0,0,0,0,0],"id":15,"left_children":[1,-1,3,-1,5,7,9,11,13,15,17,-1,19,21,-1,23,25,27,29,-1,-1,-1,-1,-1,-1,-1,-1,-1,-1,-1,-1],"loss_changes":[1.7129831E-1,0E0,1.5757185E-1,0E0,1.4155649E-1,1.5970927E-1,2.5478008E-1,4.1904345E-2,8.312276E-2,2.1189663E-1,2.9404393E-1,0E0,9.67657E-3,3.6515698E-3,0E0,4.0158704E-1,2.7494037E-1,1.8786961E-1,5.877845E-2,0E0,0E0,0E0,0E0,0E0,0E0,0E0,0E0,0E0,0E0,0E0,0E0],"parents":[2147483647,0,0,2,2,4,4,5,5,6,6,7,7,8,8,9,9,10,10,12,12,13,13,15,15,16,16,17,17,18,18],"right_children":[2,-1,4,-1,6,8,10,12,14,16,18,-1,20,22,-1,24,26,28,30,-1,-1,-1,-1,-1,-1,-1,-1,-1,-1,-1,-1],"split_conditions":[-2.028087E0,-8.880172E-2,-1.862627E0,6.7733444E-2,-8.65407E-1,-5.5937864E-2,5.4404986E-1,-2.8530383E-1,-3.2619774E-1,1.0311808E-1,-2.3782504E-1,-2.7864303E-2,-1.7117436E-1,5.515306E-1,6.86844E-2,-3.53029E-1,-2.3391053E-1,2.464259E-2,-1.6328554E-1,2.3919074E-2,-1.3258187E-4,8.733421E-3,-9.39912E-3,3.1659424E-2,2.7240973E-4,1.1469489E-2,-1.3905431E-2,-1.2448962E-1,-2.8924463E-2,1.7382145E-2,-1.7966254E-2],"split_indices":[18,0,34,0,18,12,46,12,2,31,0,0,0,0,0,48,33,40,5,0,0,0,0,0,0,0,0,0,0,0,0],"split_type":[0,0,0,0,0,0,0,0,0,0,0,0,0,0,0,0,0,0,0,0,0,0,0,0,0,0,0,0,0,0,0],"sum_hessian":[6.51E2,1E0,6.5E2,2E0,6.48E2,1.6E1,6.32E2,8E0,8E0,6.05E2,2.7E1,3E0,5E0,2E0,6E0,3.89E2,2.16E2,8E0,1.9E1,2E0,3E0,1E0,1E0,4E1,3.49E2,4.9E1,1.67E2,3E0,5E0,5E0,1.4E1],"tree_param":{"num_deleted":"0","num_feature":"60","num_nodes":"31","size_leaf_vector":"0"}},{"base_weights":[-2.7775345E-3,-1.0047053E-3,-1.164927E-1,-3.2199642E-3,1.1574932E-1,-5.654803E-3,-1.8944217E-1,3.0710083E-2,-9.961318E-3,2.2749504E-1,3.4316576E-3,-3.7071154E-2,6.00053E-2,1.2002729E-2,1.3401957E-1,-1.5113246E-2,8.257714E-2,2.5626856E-1,4.1813716E-2,-3.7081692E-2,4.3087095E-2,-3.9839048E-2,6.0280077E-2,-4.316227E-2,1.6241428E-1,-1.30386E-2,-1.8409842E-1,-1.1153154E-1,1.5259106E-1,-8.848956E-2,3.5350014E-2,-7.1448565E-2,8.130009E-2,-7.636651E-2,1.1623099E-2,1.8997784E-1,7.480428E-2,-7.366478E-3,-7.931534E-2,-8.272987E-2,-3.454706E-1,-3.261286E-2,-1.5236017E-1,2.2328615E-1,9.800764E-3],"categories":[],"categories_nodes":[],"categories_segments":[],"categories_sizes":[],"default_left":[1,1,1,1,1,1,0,1,1,1,1,0,0,1,1,1,1,0,0,0,0,1,1,1,1,1,1,1,1,0,0,0,0,0,0,0,0,0,0,0,0,0,0,0,0],"id":16,"left_children":[1,3,5,7,9,11,-1,13,15,17,19,-1,-1,21,23,25,27,-1,-1,-1,-1,29,31,33,35,37,39,41,43,-1,-1,-1,-1,-1,-1,-1,-1,-1,-1,-1,-1,-1,-1,-1,-1],"loss_changes":[1.3132459E-1,1.6667849E-1,7.978441E-2,1.448661E-1,1.4983152E-1,1.253847E-2,0E0,2.013193E-1,2.5297275E-1,2.1340698E-2,1.2843764E-2,0E0,0E0,2.2765201E-1,8.750662E-2,1.7324242E-1,3.9754736E-1,0E0,0E0,0E0,0E0,1.6407955E-1,1.3594885E-1,6.344934E-3,1.9596666E-2,1.858769E-1,6.9567636E-2,2.0808235E-2,2.0979762E-1,0E0,0E0,0E0,0E0,0E0,0E0,0E0,0E0,0E0,0E0,0E0,0E0,0E0,0E0,0E0,0E0],"parents":[2147483647,0,0,1,1,2,2,3,3,4,4,5,5,7,7,8,8,9,9,10,10,13,13,14,14,15,15,16,16,21,21,22,22,23,23,24,24,25,25,26,26,27,27,28,28],"right_children":[2,4,6,8,10,12,-1,14,16,18,20,-1,-1,22,24,26,28,-1,-1,-1,-1,30,32,34,36,38,40,42,44,-1,-1,-1,-1,-1,-1,-1,-1,-1,-1,-1,-1,-1,-1,-1,-1],"split_conditions":[7.5914097E-1,5.8058816E-1,-1.19385704E-1,-2.9841292E-1,-1.4875174E-2,5.5850273E-1,-5.6832653E-2,2.2403052E-1,5.227617E-1,4.3876782E-1,1.8393343E-2,-1.1121347E-2,1.800159E-2,7.670489E-2,-1.4431128E-1,8.138243E-1,-1.5312885E-1,7.6880574E-2,1.2544115E-2,-1.1124508E-2,1.2926129E-2,7.962486E-2,-3.0002305E-1,3.343863E-1,5.8878306E-2,4.5106557E-1,1.0668254E-1,-2.1953586E-1,2.670173E-1,-2.654687E-2,1.0605005E-2,-2.143457E-2,2.4390027E-2,-2.2909952E-2,3.48693E-3,5.6993354E-2,2.2441287E-2,-2.2099435E-3,-2.3794604E-2,-2.4818962E-2,-1.0364119E-1,-9.783858E-3,-4.5708053E-2,6.6985846E-2,2.9402294E-3],"split_indices":[3,3,58,1,17,2,0,45,2,1,15,0,0,47,4,23,35,0,0,0,0,11,33,0,37,11,0,9,1,0,0,0,0,0,0,0,0,0,0,0,0,0,0,0,0],"split_type":[0,0,0,0,0,0,0,0,0,0,0,0,0,0,0,0,0,0,0,0,0,0,0,0,0,0,0,0,0,0,0,0,0,0,0,0,0,0,0,0,0,0,0,0,0],"sum_hessian":[6.51E2,6.42E2,9E0,6.31E2,1.1E1,4E0,5E0,1.04E2,5.27E2,5E0,6E0,3E0,1E0,8.9E1,1.5E1,5E2,2.7E1,4E0,1E0,3E0,3E0,4.3E1,4.6E1,2E0,1.3E1,4.95E2,5E0,7E0,2E1,2.6E1,1.7E1,6E0,4E1,1E0,1E0,9E0,4E0,4.57E2,3.8E1,4E0,1E0,3E0,4E0,1.3E1,7E0],"tree_param":{"num_deleted":"0","num_feature":"60","num_nodes":"45","size_leaf_vector":"0"}},{"base_weights":[-2.023617E-3,-7.0544265E-2,4.8114255E-4,-1.7758825E-1,-3.8661934E-2,1.1941139E-2,-1.6985815E-2,-2.1027821E-1,-2.341424E-2,2.3038333E-2,-5.665123E-2,3.97622E-3,9.868427E-2,-8.5108075E-3,-1.08998485E-1,3.0364096E-2,8.033127E-3,1.7963033E-3,-7.14128E-2,2.9310308E-2,-1.8010123E-2,1.2934884E-1,-5.575369E-2,-1.8559772E-3,-1.5473147E-1,6.4289E-2,-1.3062291E-1,-5.1236325E-3,1.1278056E-2,-6.3136667E-3,-7.675694E-2,-5.4192036E-2,4.7030736E-2,-6.9166474E-2,6.5097776E-3,2.6109092E-2,1.7144406E-1,1.0054257E-2,-9.117123E-2,-1.0441086E-1,8.8679455E-3,-2.3687069E-1,2.7695037E-2,-3.520517E-2,-1.7195377E-1,-8.217216E-3,5.3176656E-4,-2.1758959E-2,-8.0080844E-2,8.419092E-3,-1.318995E-1,2.6210544E-1,4.0157028E-2,-9.658503E-2,7.480673E-3,3.5017464E-2,-8.7782584E-2,8.2748145E-2,-6.537676E-2,2.0427918E-1,3.864987E-2,2.732975E-2,-1.2248365E-2,-3.7932312E-1,-3.751864E-2,2.1838842E-2,-5.327513E-2,-1.3053524E-1,-3.3513957E-1,-2.5146693E-2,5.369118E-2,-6.307456E-2,2.297887E-2,-1.0136309E-1,-2.3741572E-1],"categories":[],"categories_nodes":[],"categories_segments":[],"categories_sizes":[],"default_left":[1,1,1,1,1,1,1,0,0,1,1,1,1,1,1,0,0,1,1,1,1,1,1,1,1,0,1,1,0,0,1,1,1,1,1,1,1,1,0,1,1,1,1,1,1,0,0,0,0,0,0,0,0,0,0,0,0,0,0,0,0,0,0,0,0,0,0,0,0,0,0,0,0,0,0],"id":17,"left_children":[1,3,5,7,9,11,13,-1,-1,15,17,19,21,23,25,-1,-1,27,29,31,33,35,37,39,41,-1,43,45,-1,-1,47,49,51,53,55,57,59,61,-1,63,65,67,69,71,73,-1,-1,-1,-1,-1,-1,-1,-1,-1,-1,-1,-1,-1,-1,-1,-1,-1,-1,-1,-1,-1,-1,-1,-1,-1,-1,-1,-1,-1,-1],"loss_changes":[1.1193523E-1,7.162877E-2,1.2631074E-1,2.0276204E-2,2.239409E-2,2.6284125E-1,1.9402438E-1,0E0,0E0,3.0570407E-4,1.3069946E-2,1.9547926E-1,1.5875643E-1,2.2351977E-1,8.708969E-2,0E0,0E0,3.202371E-4,3.6901608E-3,2.437393E-1,2.362678E-1,1.12863034E-1,1.4901193E-2,2.4397963E-1,1.5640385E-1,0E0,6.8876565E-2,5.6855977E-5,0E0,0E0,2.6840717E-4,1.422057E-1,1.8905333E-1,1.289173E-1,3.4714523E-1,5.204485E-2,7.4950576E-2,1.4906111E-3,0E0,3.7194765E-1,1.6317981E-1,2.939874E-2,6.844879E-3,1.2800257E-2,3.600785E-2,0E0,0E0,0E0,0E0,0E0,0E0,0E0,0E0,0E0,0E0,0E0,0E0,0E0,0E0,0E0,0E0,0E0,0E0,0E0,0E0,0E0,0E0,0E0,0E0,0E0,0E0,0E0,0E0,0E0,0E0],"parents":[2147483647,0,0,1,1,2,2,3,3,4,4,5,5,6,6,9,9,10,10,11,11,12,12,13,13,14,14,17,17,18,18,19,19,20,20,21,21,22,22,23,23,24,24,26,26,27,27,30,30,31,31,32,32,33,33,34,34,35,35,36,36,37,37,39,39,40,40,41,41,42,42,43,43,44,44],"right_children":[2,4,6,8,10,12,14,-1,-1,16,18,20,22,24,26,-1,-1,28,30,32,34,36,38,40,42,-1,44,46,-1,-1,48,50,52,54,56,58,60,62,-1,64,66,68,70,72,74,-1,-1,-1,-1,-1,-1,-1,-1,-1,-1,-1,-1,-1,-1,-1,-1,-1,-1,-1,-1,-1,-1,-1,-1,-1,-1,-1,-1,-1,-1],"split_conditions":[-5.923648E-1,-1.4228696E-1,7.554709E-2,2.5507757E-1,-3.086792E-1,4.2727703E-1,4.1287178E-1,-6.308347E-2,-7.024272E-3,-8.1100486E-2,-2.9628888E-1,-2.87791E-2,1.9284502E-1,4.618985E-1,-4.3239695E-1,9.109229E-3,2.409938E-3,-1.0035195E-1,-4.9769068E-1,-3.0655587E-1,-9.576959E-2,-1.8173109E-1,-2.1051642E-1,-4.346829E-1,2.3838705E-1,1.9286701E-2,-3.5089202E-2,3.947688E-2,3.383417E-3,-1.8941001E-3,-6.7672056E-1,7.247326E-2,-5.900707E-1,1.9708416E-1,2.5948882E-1,2.0855092E-1,1.4770795E-1,-5.686398E-1,-2.735137E-2,-3.1771085E-1,2.6572067E-1,-2.3331046E-3,-6.002572E-2,1.5105367E-1,-4.4064682E-2,-2.4651648E-3,1.5952997E-4,-6.527688E-3,-2.4024254E-2,2.5257277E-3,-3.9569855E-2,7.863163E-2,1.2047109E-2,-2.897551E-2,2.244202E-3,1.05052395E-2,-2.6334776E-2,2.4824444E-2,-1.9613028E-2,6.1283756E-2,1.15949605E-2,8.198925E-3,-3.6745097E-3,-1.1379694E-1,-1.1255592E-2,6.5516527E-3,-1.598254E-2,-3.9160576E-2,-1.00541875E-1,-7.544008E-3,1.6107354E-2,-1.8922368E-2,6.8936613E-3,-3.0408928E-2,-7.122472E-2],"split_indices":[13,48,14,1,33,19,47,0,0,3,51,45,32,57,43,0,0,2,2,49,16,1,3,42,5,0,56,0,0,0,0,33,7,23,16,20,46,0,0,47,17,12,0,2,7,0,0,0,0,0,0,0,0,0,0,0,0,0,0,0,0,0,0,0,0,0,0,0,0,0,0,0,0,0,0],"split_type":[0,0,0,0,0,0,0,0,0,0,0,0,0,0,0,0,0,0,0,0,0,0,0,0,0,0,0,0,0,0,0,0,0,0,0,0,0,0,0,0,0,0,0,0,0,0,0,0,0,0,0,0,0,0,0,0,0,0,0,0,0,0,0,0,0,0,0,0,0,0,0,0,0,0,0],"sum_hessian":[6.51E2,2.2E1,6.29E2,4E0,1.8E1,3.8E2,2.49E2,3E0,1E0,4E0,1.4E1,3.49E2,3.1E1,2.29E2,2E1,2E0,2E0,3E0,1.1E1,1.62E2,1.87E2,2.6E1,5E0,2.2E2,9E0,2E0,1.8E1,2E0,1E0,1E0,1E1,2.8E1,1.34E2,6E1,1.27E2,8E0,1.8E1,2E0,3E0,2E1,2E2,6E0,3E0,6E0,1.2E1,1E0,1E0,1E0,9E0,1.6E1,1.2E1,3E0,1.31E2,4.4E1,1.6E1,9.8E1,2.9E1,5E0,3E0,1.4E1,4E0,1E0,1E0,3E0,1.7E1,1.66E2,3.4E1,4E0,2E0,1E0,2E0,4E0,2E0,7E0,5E0],"tree_param":{"num_deleted":"0","num_feature":"60","num_nodes":"75","size_leaf_vector":"0"}},{"base_weights":[-2.004904E-3,-8.392289E-3,2.4726499E-2,1.41372355E-2,-2.1031985E-2,-2.907016E-3,5.7174537E-2,6.860215E-3,2.0339932E-1,-1.7423565E-2,-1.8916963E-1,-1.3869116E-2,1.786944E-1,7.8964E-2,-5.5311322E-2,-1.1615161E-2,6.4186715E-2,2.304646E-1,2.0503849E-2,-9.319205E-2,-1.0681171E-2,-3.3672757E-2,-3.8527453E-1,-4.2707022E-2,2.936738E-2,2.3178513E-1,9.711079E-3,8.9607455E-2,-1.1410472E-1,-7.505325E-3,-8.593109E-2,3.8867343E-2,-3.922516E-2,1.0908051E-1,-2.4000814E-2,-4.7111608E-2,-1.9674416E-1,-3.52917E-2,1.383891E-2,-9.104782E-2,3.4329668E-3,9.954146E-2,-5.6930993E-2,7.884312E-2,-9.5748855E-3,5.0492503E-2,1.4982085E-1,-1.661923E-2,4.110355E-3,-2.3534402E-2,-9.370355E-2,-1.811801E-2,1.1842416E-1,-2.9915748E-2,-2.3422597E-1,1.3711295E-1,-2.5901377E-2,-7.2019964E-2,4.802666E-2,5.4291408E-3,-1.1193132E-1,-7.5140916E-2,-2.2475508E-1,2.7868517E-2,-5.7895925E-2,-1.9027868E-2,6.291587E-2,1.642404E-2,-1.7770125E-2,2.8685048E-2,1.13598585E-1,-2.70971E-2,-1.3477279E-1,2.292271E-2,1.3094307E-1,-5.9041418E-2,2.6009176E-2,6.629903E-2,-6.882466E-2,2.4053494E-2,1.6403843E-1,4.3298863E-4,5.7325438E-3],"categories":[],"categories_nodes":[],"categories_segments":[],"categories_sizes":[],"default_left":[1,1,1,1,1,1,1,1,1,1,1,1,1,1,1,1,1,0,0,1,1,1,0,1,1,0,0,1,0,1,1,1,1,1,1,1,1,1,1,0,1,1,1,1,1,1,1,0,1,0,0,0,0,0,0,0,0,0,0,0,0,0,0,0,0,0,0,0,0,0,0,0,0,0,0,0,0,0,0,0,0,0,0],"id":18,"left_children":[1,3,5,7,9,11,13,15,17,19,21,23,25,27,29,31,33,-1,-1,35,37,39,-1,41,43,-1,-1,45,-1,47,49,51,53,55,57,59,61,63,65,-1,67,69,71,73,75,77,79,-1,81,-1,-1,-1,-1,-1,-1,-1,-1,-1,-1,-1,-1,-1,-1,-1,-1,-1,-1,-1,-1,-1,-1,-1,-1,-1,-1,-1,-1,-1,-1,-1,-1,-1,-1],"loss_changes":[1.1153245E-1,1.503692E-1,1.13144524E-1,2.602848E-1,2.0177239E-1,1.398389E-1,1.4652602E-1,1.9562522E-1,2.9925406E-2,1.6861045E-1,2.0048264E-1,8.3546296E-2,3.36349E-2,1.109156E-1,1.3993148E-2,1.9665965E-1,1.8077628E-1,0E0,0E0,1.1956771E-1,1.8514477E-1,1.0957281E-2,0E0,8.660053E-2,5.277574E-2,0E0,0E0,1.0313165E-1,0E0,5.97632E-4,7.046014E-4,2.2882432E-1,1.5818918E-1,1.17067546E-1,5.879804E-2,6.8721205E-2,1.0361463E-2,2.200497E-1,2.4959938E-1,0E0,1.3936608E-3,7.2557107E-4,8.227404E-2,3.195984E-2,2.9699143E-2,6.1142698E-2,2.8240234E-2,0E0,1.5414025E-5,0E0,0E0,0E0,0E0,0E0,0E0,0E0,0E0,0E0,0E0,0E0,0E0,0E0,0E0,0E0,0E0,0E0,0E0,0E0,0E0,0E0,0E0,0E0,0E0,0E0,0E0,0E0,0E0,0E0,0E0,0E0,0E0,0E0,0E0],"parents":[2147483647,0,0,1,1,2,2,3,3,4,4,5,5,6,6,7,7,8,8,9,9,10,10,11,11,12,12,13,13,14,14,15,15,16,16,19,19,20,20,21,21,23,23,24,24,27,27,29,29,30,30,31,31,32,32,33,33,34,34,35,35,36,36,37,37,38,38,40,40,41,41,42,42,43,43,44,44,45,45,46,46,48,48],"right_children":[2,4,6,8,10,12,14,16,18,20,22,24,26,28,30,32,34,-1,-1,36,38,40,-1,42,44,-1,-1,46,-1,48,50,52,54,56,58,60,62,64,66,-1,68,70,72,74,76,78,80,-1,82,-1,-1,-1,-1,-1,-1,-1,-1,-1,-1,-1,-1,-1,-1,-1,-1,-1,-1,-1,-1,-1,-1,-1,-1,-1,-1,-1,-1,-1,-1,-1,-1,-1,-1],"split_conditions":[2.3355603E-1,-9.790155E-2,6.075333E-2,5.0986654E-1,7.083248E-1,5.3901756E-1,3.716473E-1,2.2027129E-1,3.3496612E-1,-3.708096E-1,1.6750988E-1,6.735383E-2,-3.378947E-1,4.0973836E-1,-1.7245913E-1,-1.0586181E-1,9.520715E-2,6.9139384E-2,6.151155E-3,-4.241653E-1,5.7924916E-3,-4.199709E-2,-1.1558236E-1,-2.9430538E-1,-9.523561E-2,6.9535546E-2,2.913324E-3,1.2588012E-1,-3.4231417E-2,-1.73558E-2,-8.705589E-1,3.3272684E-2,6.9271684E-1,2.6492575E-1,-4.4816736E-2,4.4229172E-2,1.8112022E-2,-1.7215927E-1,5.8745958E-2,-2.7314348E-2,4.7687554E-1,-2.3216712E-1,2.0969826E-1,-9.243606E-2,-1.9823745E-1,5.11938E-1,-2.7543068E-1,-4.9857693E-3,1.6071592E-1,-7.060321E-3,-2.8111067E-2,-5.4354034E-3,3.552725E-2,-8.974724E-3,-7.02678E-2,4.1133884E-2,-7.7704135E-3,-2.160599E-2,1.4407998E-2,1.6287423E-3,-3.3579398E-2,-2.2542275E-2,-6.7426525E-2,8.360555E-3,-1.7368779E-2,-5.7083606E-3,1.887476E-2,4.927212E-3,-5.3310376E-3,8.605515E-3,3.4079578E-2,-8.12913E-3,-4.043184E-2,6.8768132E-3,3.9282925E-2,-1.7712425E-2,7.8027532E-3,1.9889709E-2,-2.0647397E-2,7.2160484E-3,4.9211532E-2,1.298966E-4,1.7197632E-3],"split_indices":[24,54,33,3,11,21,30,45,2,3,5,2,0,49,36,18,32,0,0,3,49,2,0,31,23,0,0,7,0,0,0,38,33,33,30,26,12,41,40,0,1,0,28,5,21,8,13,0,0,0,0,0,0,0,0,0,0,0,0,0,0,0,0,0,0,0,0,0,0,0,0,0,0,0,0,0,0,0,0,0,0,0,0],"split_type":[0,0,0,0,0,0,0,0,0,0,0,0,0,0,0,0,0,0,0,0,0,0,0,0,0,0,0,0,0,0,0,0,0,0,0,0,0,0,0,0,0,0,0,0,0,0,0,0,0,0,0,0,0,0,0,0,0,0,0,0,0,0,0,0,0,0,0,0,0,0,0,0,0,0,0,0,0,0,0,0,0,0,0],"sum_hessian":[6.51E2,5.26E2,1.25E2,1.89E2,3.37E2,6.8E1,5.7E1,1.83E2,6E0,3.31E2,6E0,6.5E1,3E0,4.8E1,9E0,1.39E2,4.4E1,5E0,1E0,2.6E1,3.05E2,4E0,2E0,3.9E1,2.6E1,2E0,1E0,4.6E1,2E0,4E0,5E0,4.9E1,9E1,2.9E1,1.5E1,1.9E1,7E0,1.52E2,1.53E2,1E0,3E0,3E0,3.6E1,1.1E1,1.5E1,2.9E1,1.7E1,2E0,2E0,1E0,4E0,2.9E1,2E1,8.7E1,3E0,2.4E1,5E0,9E0,6E0,1.1E1,8E0,2E0,5E0,4E1,1.12E2,9.2E1,6.1E1,2E0,1E0,1E0,2E0,2.7E1,9E0,6E0,5E0,6E0,9E0,2.6E1,3E0,2E0,1.5E1,1E0,1E0],"tree_param":{"num_deleted":"0","num_feature":"60","num_nodes":"83","size_leaf_vector":"0"}},{"base_weights":[-1.59178E-3,-2.2131407E-4,-9.947937E-2,1.0618538E-1,-1.5573144E-3,-2.3851681E-1,-2.5680551E-2,2.7264653E-2,1.4808488E-1,3.0383006E-2,-6.133781E-3,4.461943E-2,-6.2724434E-2,4.10019E-2,-6.9735474E-3,-1.4106272E-3,7.811754E-2,5.0657365E-2,-9.342856E-3,6.2225267E-2,4.7038794E-3,-6.914527E-2,-1.8520534E-2,1.1474047E-2,-1.4923172E-1,4.956942E-3,1.2791389E-1,1.04553536E-1,-5.1940884E-2,-2.383767E-2,5.0780987E-3,2.774627E-2,-8.314924E-2,-3.4392204E-2,1.1192786E-1,-2.0870795E-2,1.4664568E-1,1.2232579E-2,1.6508146E-1,2.133312E-2,-6.14016E-2,-3.6147218E-3,-5.491514E-2,-3.0393219E-2,2.1616472E-2],"categories":[],"categories_nodes":[],"categories_segments":[],"categories_sizes":[],"default_left":[1,1,1,1,1,0,1,1,0,1,1,1,1,0,0,1,1,1,1,0,0,0,0,1,0,1,1,1,1,1,1,0,0,0,0,0,0,0,0,0,0,0,0,0,0],"id":19,"left_children":[1,3,5,7,9,-1,11,13,-1,15,17,19,21,-1,-1,23,25,27,29,-1,-1,-1,-1,31,-1,33,35,37,39,41,43,-1,-1,-1,-1,-1,-1,-1,-1,-1,-1,-1,-1,-1,-1],"loss_changes":[8.744483E-2,9.1716E-2,8.622195E-2,2.2416428E-2,9.329908E-2,0E0,2.1028018E-2,2.1672833E-3,0E0,1.2152253E-1,1.0216713E-1,1.8155398E-3,1.3852306E-4,0E0,0E0,9.503899E-2,1.1594613E-1,1.7132017E-1,1.1069742E-1,0E0,0E0,0E0,0E0,7.313472E-2,0E0,6.277844E-2,5.6013644E-2,1.09740555E-1,8.9353565E-3,1.657197E-1,1.5670267E-1,0E0,0E0,0E0,0E0,0E0,0E0,0E0,0E0,0E0,0E0,0E0,0E0,0E0,0E0],"parents":[2147483647,0,0,1,1,2,2,3,3,4,4,6,6,7,7,9,9,10,10,11,11,12,12,15,15,16,16,17,17,18,18,23,23,25,25,26,26,27,27,28,28,29,29,30,30],"right_children":[2,4,6,8,10,-1,12,14,-1,16,18,20,22,-1,-1,24,26,28,30,-1,-1,-1,-1,32,-1,34,36,38,40,42,44,-1,-1,-1,-1,-1,-1,-1,-1,-1,-1,-1,-1,-1,-1],"split_conditions":[8.3708084E-1,-9.786361E-1,7.784239E-2,-7.412436E-2,-3.4465235E-1,-7.155505E-2,-1.647462E-1,5.7043314E-1,4.4425465E-2,6.637818E-2,-5.5752623E-1,-8.7169595E-3,2.3215774E-1,1.23005705E-2,-2.0920644E-3,3.1090789E-2,3.110873E-3,1.6832343E-1,5.965042E-2,1.866758E-2,1.4111638E-3,-2.0743582E-2,-5.5561606E-3,4.2018664E-1,-4.4769518E-2,1.9254775E-1,-7.851914E-1,-1.3472018E-1,-7.3888564E-1,-7.766193E-2,-1.5904716E-1,8.323881E-3,-2.4944773E-2,-1.0317662E-2,3.357836E-2,-6.261239E-3,4.3993704E-2,3.669774E-3,4.9524438E-2,6.3999365E-3,-1.842048E-2,-1.0844166E-3,-1.6474543E-2,-9.117966E-3,6.484942E-3],"split_indices":[23,37,5,3,29,0,21,0,0,40,35,0,2,0,0,40,41,51,29,0,0,0,0,17,0,16,39,45,0,29,31,0,0,0,0,0,0,0,0,0,0,0,0,0,0],"split_type":[0,0,0,0,0,0,0,0,0,0,0,0,0,0,0,0,0,0,0,0,0,0,0,0,0,0,0,0,0,0,0,0,0,0,0,0,0,0,0,0,0,0,0,0,0],"sum_hessian":[6.51E2,6.43E2,8E0,7E0,6.36E2,2E0,6E0,3E0,4E0,7.9E1,5.57E2,2E0,4E0,2E0,1E0,4.8E1,3.1E1,2.9E1,5.28E2,1E0,1E0,3E0,1E0,4.5E1,3E0,1.3E1,1.8E1,1.9E1,1E1,2.63E2,2.65E2,3.9E1,6E0,1E1,3E0,2E0,1.6E1,8E0,1.1E1,1E0,9E0,1.6E2,1.03E2,8.4E1,1.81E2],"tree_param":{"num_deleted":"0","num_feature":"60","num_nodes":"45","size_leaf_vector":"0"}},{"base_weights":[-1.1181693E-3,-2.3602287E-3,9.9162646E-2,-6.053131E-4,-1.4201972E-1,-2.303571E-3,1.6050309E-1,-4.400096E-2,2.8409718E-3,-1.6805078E-1,2.0098848E-2,-6.076364E-3,9.794814E-4,-2.0844005E-1,-1.946202E-2,8.660881E-3,-2.7318776E-2,-5.7309936E-4,2.0423215E-3,-2.8200215E-1,-4.0877208E-2,4.5000907E-2,-4.3787602E-2,1.7551778E-2,-1.8225057E-2,-1.8562438E-2,-2.925778E-1,7.8018874E-2,-4.053975E-2,7.12052E-5,-9.704981E-2,5.7850726E-2,9.667104E-3,-4.7015753E-2,2.83397E-2,-1.6304223E-1,-5.063578E-3,-3.6766458E-1,-7.120211E-2],"categories":[],"categories_nodes":[],"categories_segments":[],"categories_sizes":[],"default_left":[1,1,1,1,1,1,0,1,1,0,0,0,1,1,1,1,1,0,0,0,0,1,1,1,1,1,1,0,0,0,0,0,0,0,0,0,0,0,0],"id":20,"left_children":[1,3,5,7,9,11,-1,13,15,-1,-1,-1,17,19,21,23,25,-1,-1,-1,-1,27,29,31,33,35,37,-1,-1,-1,-1,-1,-1,-1,-1,-1,-1,-1,-1],"loss_changes":[8.1443734E-2,1.579975E-1,5.0161593E-2,9.55403E-2,3.7138566E-2,5.549679E-5,0E0,1.8559593E-1,1.0414858E-1,0E0,0E0,0E0,6.1208875E-6,6.2430203E-2,6.7830615E-2,1.1912282E-1,2.1754803E-1,0E0,0E0,0E0,0E0,3.705541E-2,7.242344E-2,1.1827705E-1,1.6757074E-1,1.8250379E-1,2.3688674E-2,0E0,0E0,0E0,0E0,0E0,0E0,0E0,0E0,0E0,0E0,0E0,0E0],"parents":[2147483647,0,0,1,1,2,2,3,3,4,4,5,5,7,7,8,8,12,12,13,13,14,14,15,15,16,16,21,21,22,22,23,23,24,24,25,25,26,26],"right_children":[2,4,6,8,10,12,-1,14,16,-1,-1,-1,18,20,22,24,26,-1,-1,-1,-1,28,30,32,34,36,38,-1,-1,-1,-1,-1,-1,-1,-1,-1,-1,-1,-1],"split_conditions":[8.322429E-1,7.253804E-1,2.8984744E-2,-4.346829E-1,6.39879E-1,-2.4561399E-1,4.815093E-2,-3.2591528E-1,2.6033524E-1,-5.0415237E-2,6.0296548E-3,-1.8229092E-3,-1.448722E-1,1.377692E-1,-1.4764825E-1,1.8949735E-1,7.018883E-1,-1.7192982E-4,6.1269646E-4,-8.460065E-2,-1.2263163E-2,2.9622832E-1,-6.049324E-2,-2.8313732E-1,1.02115884E-1,-4.261178E-1,6.430103E-2,2.3405664E-2,-1.2161925E-2,2.136156E-5,-2.9114945E-2,1.7355219E-2,2.9001313E-3,-1.4104727E-2,8.501911E-3,-4.891267E-2,-1.5190735E-3,-1.1029938E-1,-2.1360632E-2],"split_indices":[33,33,8,42,6,0,0,47,16,0,0,0,0,0,48,47,11,0,0,0,0,21,29,19,22,44,0,0,0,0,0,0,0,0,0,0,0,0,0],"split_type":[0,0,0,0,0,0,0,0,0,0,0,0,0,0,0,0,0,0,0,0,0,0,0,0,0,0,0,0,0,0,0,0,0,0,0,0,0,0,0],"sum_hessian":[6.51E2,6.44E2,7E0,6.37E2,7E0,3E0,4E0,4.6E1,5.91E2,6E0,1E0,1E0,2E0,5E0,4.1E1,4.96E2,9.5E1,1E0,1E0,3E0,2E0,1.1E1,3E1,3.73E2,1.23E2,9.3E1,2E0,8E0,3E0,1.7E1,1.3E1,6E1,3.13E2,7.6E1,4.7E1,7E0,8.6E1,1E0,1E0],"tree_param":{"num_deleted":"0","num_feature":"60","num_nodes":"39","size_leaf_vector":"0"}},{"base_weights":[-1.2118137E-3,9.578382E-2,-2.2609741E-3,1.8122423E-1,2.5362818E-2,-8.4398844E-4,-7.7054724E-2,5.099119E-2,-8.719825E-3,1.4814775E-2,-9.238679E-3,2.5311818E-2,-1.5378965E-1,-3.341399E-5,-1.3046324E-2,2.3724692E-2,-7.15956E-2,-1.4825845E-1,-6.8308916E-3,-1.2727156E-2,4.7513094E-2,-2.085706E-1,-6.05613E-2,-1.0940288E-1,2.977842E-2,-2.2439705E-2,-1.346435E-1,-1.835675E-1,-7.5884804E-2,1.6968692E-2,-2.2096364E-2,-2.4914116E-2,5.8233812E-3,-1.6442832E-1,4.8602186E-4,2.263857E-2,1.0779435E-1,5.542611E-2,-6.320519E-2,-1.7355645E-1,-8.626094E-2,5.596129E-2,2.159777E-3,4.0930074E-2,-3.15792E-2],"categories":[],"categories_nodes":[],"categories_segments":[],"categories_sizes":[],"default_left":[1,1,1,0,1,1,1,0,1,1,1,1,1,0,0,1,1,1,1,1,0,0,0,1,1,1,1,0,0,1,1,0,0,0,0,0,0,0,0,0,0,0,0,0,0],"id":21,"left_children":[1,3,5,-1,7,9,11,-1,13,15,17,19,21,-1,-1,23,25,27,29,31,-1,-1,-1,33,35,37,39,-1,-1,41,43,-1,-1,-1,-1,-1,-1,-1,-1,-1,-1,-1,-1,-1,-1],"loss_changes":[6.656668E-2,3.7521243E-2,6.839912E-2,0E0,4.812047E-3,8.360792E-2,9.815377E-2,0E0,1.12309324E-4,1.7261842E-1,1.375655E-1,5.671789E-3,2.3118645E-2,0E0,0E0,1.6605332E-1,6.206131E-2,3.958121E-3,1.4860618E-1,8.2330836E-4,0E0,0E0,0E0,5.4500096E-2,1.0562198E-1,4.476831E-2,1.9732416E-3,0E0,0E0,9.2269234E-2,1.5011224E-1,0E0,0E0,0E0,0E0,0E0,0E0,0E0,0E0,0E0,0E0,0E0,0E0,0E0,0E0],"parents":[2147483647,0,0,1,1,2,2,4,4,5,5,6,6,8,8,9,9,10,10,11,11,12,12,15,15,16,16,17,17,18,18,19,19,23,23,24,24,25,25,26,26,29,29,30,30],"right_children":[2,4,6,-1,8,10,12,-1,14,16,18,20,22,-1,-1,24,26,28,30,32,-1,-1,-1,34,36,38,40,-1,-1,42,44,-1,-1,-1,-1,-1,-1,-1,-1,-1,-1,-1,-1,-1,-1],"split_conditions":[-1.3253543E0,-1.5352744E-1,8.041103E-1,5.436727E-2,-1.438627E-1,-8.599556E-2,-1.2509837E-2,1.5297357E-2,1.03915505E-1,4.3897784E-1,-8.130585E-2,-2.7314156E-1,1.4000158E-1,-1.0024198E-5,-3.9138976E-3,-6.8373847E-1,8.287158E-2,-2.668426E-1,-9.2696294E-2,-5.368041E-1,1.4253928E-2,-6.257118E-2,-1.816839E-2,1.2398578E-1,3.998407E-1,-7.404949E-2,-8.287336E-2,-5.507025E-2,-2.2765443E-2,-1.4967468E-1,-3.2568133E-1,-7.474235E-3,1.7470145E-3,-4.93285E-2,1.4580657E-4,6.7915716E-3,3.2338306E-2,1.6627833E-2,-1.8961558E-2,-5.2066937E-2,-2.5878282E-2,1.6788388E-2,6.4793316E-4,1.22790225E-2,-9.473761E-3],"split_indices":[21,6,38,0,0,58,39,0,0,0,58,0,1,0,0,59,59,7,7,0,0,0,0,2,17,8,4,0,0,3,40,0,0,0,0,0,0,0,0,0,0,0,0,0,0],"split_type":[0,0,0,0,0,0,0,0,0,0,0,0,0,0,0,0,0,0,0,0,0,0,0,0,0,0,0,0,0,0,0,0,0,0,0,0,0,0,0,0,0,0,0,0,0],"sum_hessian":[6.51E2,6E0,6.45E2,2E0,4E0,6.34E2,1.1E1,2E0,2E0,2.21E2,4.13E2,5E0,6E0,1E0,1E0,2.01E2,2E1,6E0,4.07E2,2E0,3E0,3E0,3E0,8E0,1.93E2,1.2E1,8E0,3E0,3E0,1.59E2,2.48E2,1E0,1E0,5E0,3E0,1.78E2,1.5E1,4E0,8E0,3E0,5E0,4.3E1,1.16E2,3.2E1,2.16E2],"tree_param":{"num_deleted":"0","num_feature":"60","num_nodes":"45","size_leaf_vector":"0"}},{"base_weights":[-1.0850764E-3,1.2825751E-4,-8.778529E-2,-8.016849E-3,1.2266801E-2,-1.0445678E-1,2.2793323E-2,-5.052069E-3,-1.086296E-1,2.0115936E-2,-4.404163E-2,-3.42626E-2,6.8471855E-3,-3.07778E-1,-5.7936963E-2,8.3776884E-2,1.0417724E-2,6.899997E-2,-6.753081E-2,5.1313955E-2,-5.406985E-2,5.6127604E-2,-2.0446756E-3,-1.0610182E-1,-8.143422E-3,-1.3375104E-2,1.1971284E-1,-6.860863E-2,1.9630773E-2,7.3386678E-3,9.799595E-2,-4.7963485E-2,-1.4403437E-1,1.3278593E-2,1.703714E-1,-6.03067E-2,1.4482214E-1,2.5091946E-2,1.6368861E-1,-1.4744679E-2,3.543369E-2,8.106388E-3,-1.8294925E-2,1.7756399E-2,-4.1831587E-2,1.9074944E-1,5.5860616E-2,-1.4722918E-1,-2.7345128E-2,1.2011103E-2,1.0857608E-1,-7.552451E-2,-1.1031045E-2],"categories":[],"categories_nodes":[],"categories_segments":[],"categories_sizes":[],"default_left":[1,1,1,1,1,0,0,1,1,1,1,1,1,0,1,1,1,1,1,1,1,1,1,0,1,1,1,1,1,0,0,1,0,0,0,0,0,0,0,0,0,0,0,0,0,0,0,0,0,0,0,0,0],"id":22,"left_children":[1,3,5,7,9,-1,-1,11,13,15,17,19,21,-1,23,25,27,29,31,33,35,37,39,-1,41,43,45,47,49,-1,-1,51,-1,-1,-1,-1,-1,-1,-1,-1,-1,-1,-1,-1,-1,-1,-1,-1,-1,-1,-1,-1,-1],"loss_changes":[6.8599254E-2,6.377044E-2,1.8972516E-2,1.14592925E-1,1.1535682E-1,0E0,0E0,1.3092603E-1,9.321721E-2,1.3989383E-1,8.962779E-2,1.8753348E-1,1.17550924E-1,0E0,2.3118954E-2,1.06338665E-1,1.462335E-1,1.0008421E-2,3.3509813E-2,9.283396E-2,1.19134665E-1,1.3276003E-1,1.0904485E-1,0E0,1.1380657E-3,8.715816E-3,8.913317E-2,6.410134E-2,1.2001023E-1,0E0,0E0,2.2578496E-2,0E0,0E0,0E0,0E0,0E0,0E0,0E0,0E0,0E0,0E0,0E0,0E0,0E0,0E0,0E0,0E0,0E0,0E0,0E0,0E0,0E0],"parents":[2147483647,0,0,1,1,2,2,3,3,4,4,7,7,8,8,9,9,10,10,11,11,12,12,14,14,15,15,16,16,17,17,18,18,19,19,20,20,21,21,22,22,24,24,25,25,26,26,27,27,28,28,31,31],"right_children":[2,4,6,8,10,-1,-1,12,14,16,18,20,22,-1,24,26,28,30,32,34,36,38,40,-1,42,44,46,48,50,-1,-1,52,-1,-1,-1,-1,-1,-1,-1,-1,-1,-1,-1,-1,-1,-1,-1,-1,-1,-1,-1,-1,-1],"split_conditions":[8.595644E-1,6.840403E-2,3.4713194E-1,7.083248E-1,2.9596037E-1,-3.1337038E-2,6.837997E-3,-1.3162053E-1,-5.453321E-1,-3.3348474E-1,-3.289114E-1,-2.038172E-1,-2.7601033E-1,-9.2333406E-2,2.3834057E-2,-1.4028928E-1,-4.2380986E-1,-3.0500042E-1,2.4318849E-1,3.0400425E-1,5.59855E-1,4.2271727E-1,2.0543993E-1,-3.1830546E-2,-1.4745477E-1,-2.3261583E-1,1.11436576E-1,-2.1205218E-1,4.340254E-1,2.2016005E-3,2.9398786E-2,-8.40366E-2,-4.3210313E-2,3.983578E-3,5.1111422E-2,-1.8092012E-2,4.344664E-2,7.527584E-3,4.9106587E-2,-4.423404E-3,1.06301075E-2,2.4319165E-3,-5.4884776E-3,5.3269197E-3,-1.2549477E-2,5.7224832E-2,1.6758185E-2,-4.4168755E-2,-8.203539E-3,3.603331E-3,3.2572825E-2,-2.2657353E-2,-3.3093134E-3],"split_indices":[15,8,0,11,37,0,0,11,4,14,18,48,12,0,30,13,57,0,13,5,37,10,7,0,5,19,56,37,15,0,0,46,0,0,0,0,0,0,0,0,0,0,0,0,0,0,0,0,0,0,0,0,0],"split_type":[0,0,0,0,0,0,0,0,0,0,0,0,0,0,0,0,0,0,0,0,0,0,0,0,0,0,0,0,0,0,0,0,0,0,0,0,0,0,0,0,0,0,0,0,0,0,0,0,0,0,0,0,0],"sum_hessian":[6.51E2,6.43E2,8E0,3.85E2,2.58E2,7E0,1E0,3.75E2,1E1,2.27E2,3.1E1,1.08E2,2.67E2,1E0,9E0,2.9E1,1.98E2,5E0,2.6E1,2E1,8.8E1,4E1,2.27E2,4E0,5E0,8E0,2.1E1,2E1,1.78E2,2E0,3E0,2.2E1,4E0,1.6E1,4E0,8.6E1,2E0,3.2E1,8E0,1.7E2,5.7E1,2E0,3E0,4E0,4E0,9E0,1.2E1,6E0,1.4E1,1.65E2,1.3E1,1.2E1,1E1],"tree_param":{"num_deleted":"0","num_feature":"60","num_nodes":"53","size_leaf_vector":"0"}},{"base_weights":[-7.525614E-4,3.596454E-2,-3.1472296E-3,6.3697115E-2,-3.4052897E-2,-4.3626316E-2,-9.3380084E-5,1.4014237E-1,1.608686E-2,-9.6579924E-2,9.283107E-3,-7.846446E-2,4.509476E-3,-3.082179E-3,3.762464E-2,2.666174E-2,1.6239788E-1,-8.577521E-3,7.095594E-2,-4.14838E-2,-1.1948273E-1,-1.5777528E-2,2.7474994E-2,3.169334E-3,-1.2458156E-1,5.988844E-2,-3.2785624E-2,1.5643373E-2,-1.0653415E-2,5.1704388E-2,-1.090591E-1,4.0519893E-2,-5.2728225E-4,3.4040138E-2,-2.3295077E-2,7.7834606E-2,1.8281303E-2,-2.03681E-3,-1.9678831E-2,-4.199909E-2,4.0281467E-2,1.2898432E-3,-1.4265533E-1,-5.564378E-3,1.00273006E-1,-4.7191303E-2,7.823566E-3,-6.298349E-3,4.6254493E-2,1.0008354E-2,-2.5863927E-2,2.9904738E-2,1.3243996E-1,-1.774329E-2,-1.3358328E-1,1.5236825E-3,-3.7694894E-2,-8.482242E-3,-4.8257742E-2,5.4079355E-3,4.6174586E-2,-1.6133696E-2,1.806846E-2,-1.7711812E-1,-6.718525E-2,1.4586457E-2,-3.300844E-2,-5.9701465E-2,-1.662824E-2,2.0375133E-2,-3.1520005E-3,1.8834274E-2,-4.2808168E-2,5.9365734E-2,-9.038179E-2,3.4429684E-2,-7.7646114E-3,-9.0507746E-2,-1.4663573E-2,-2.5150592E-2,4.9304456E-2,6.2716436E-3,1.4956805E-1],"categories":[],"categories_nodes":[],"categories_segments":[],"categories_sizes":[],"default_left":[1,1,1,1,1,1,1,1,1,1,1,1,1,1,1,1,0,1,1,0,0,1,0,1,1,1,1,1,1,1,1,0,0,0,1,0,0,0,0,1,1,1,1,1,0,1,1,1,1,1,1,1,1,0,0,0,0,0,0,0,0,0,0,0,0,0,0,0,0,0,0,0,0,0,0,0,0,0,0,0,0,0,0],"id":23,"left_children":[1,3,5,7,9,11,13,15,17,19,21,23,25,27,29,31,-1,33,35,-1,-1,37,-1,39,41,43,45,47,49,51,53,-1,-1,-1,55,-1,-1,-1,-1,57,59,61,63,65,-1,67,69,71,73,75,77,79,81,-1,-1,-1,-1,-1,-1,-1,-1,-1,-1,-1,-1,-1,-1,-1,-1,-1,-1,-1,-1,-1,-1,-1,-1,-1,-1,-1,-1,-1,-1],"loss_changes":[5.7440467E-2,7.983964E-2,7.5773165E-2,1.0329331E-1,3.341262E-2,7.246321E-2,6.448569E-2,2.3451447E-2,2.6321549E-2,1.3526827E-3,4.080689E-3,9.4512686E-2,4.1205395E-2,7.530771E-2,9.2380196E-2,1.1517343E-3,0E0,9.574155E-3,7.510688E-4,0E0,0E0,1.7434475E-4,0E0,1.8454751E-2,3.6583498E-2,2.170423E-2,7.389242E-3,1.030554E-1,1.1905521E-1,6.46797E-2,6.5875724E-3,0E0,0E0,0E0,3.9886767E-3,0E0,0E0,0E0,0E0,6.3951686E-4,9.833742E-4,1.1685397E-3,2.4513036E-2,2.6935595E-3,0E0,2.4484098E-3,6.1526464E-4,8.338913E-2,1.20019734E-1,7.014769E-2,1.5651217E-1,3.5417885E-2,1.6350135E-2,0E0,0E0,0E0,0E0,0E0,0E0,0E0,0E0,0E0,0E0,0E0,0E0,0E0,0E0,0E0,0E0,0E0,0E0,0E0,0E0,0E0,0E0,0E0,0E0,0E0,0E0,0E0,0E0,0E0,0E0],"parents":[2147483647,0,0,1,1,2,2,3,3,4,4,5,5,6,6,7,7,8,8,9,9,10,10,11,11,12,12,13,13,14,14,15,15,17,17,18,18,21,21,23,23,24,24,25,25,26,26,27,27,28,28,29,29,30,30,34,34,39,39,40,40,41,41,42,42,43,43,45,45,46,46,47,47,48,48,49,49,50,50,51,51,52,52],"right_children":[2,4,6,8,10,12,14,16,18,20,22,24,26,28,30,32,-1,34,36,-1,-1,38,-1,40,42,44,46,48,50,52,54,-1,-1,-1,56,-1,-1,-1,-1,58,60,62,64,66,-1,68,70,72,74,76,78,80,82,-1,-1,-1,-1,-1,-1,-1,-1,-1,-1,-1,-1,-1,-1,-1,-1,-1,-1,-1,-1,-1,-1,-1,-1,-1,-1,-1,-1,-1,-1],"split_conditions":[-5.0870824E-1,1.2893993E-1,-3.5735345E-1,-3.444136E-2,-1.5848894E-1,1.5854947E-1,4.340254E-1,-1.449002E-1,2.7004537E-1,2.1919328E-1,-1.3621484E-1,9.942612E-2,2.311637E-2,-1.5649694E-1,4.374549E-1,1.4613351E-1,4.8719365E-2,-2.731767E-1,1.6572471E-1,-1.2445141E-2,-3.584482E-2,-9.4593495E-2,8.242498E-3,9.103438E-2,-1.62379E-1,-2.5892505E-1,-5.820279E-2,6.2198523E-2,-6.6922024E-2,3.4496737E-1,-1.1849273E0,1.2155969E-2,-1.5818467E-4,1.0212041E-2,6.278546E-2,2.3350382E-2,5.484391E-3,-6.11043E-4,-5.9036496E-3,-2.1640591E-1,-1.4195305E-1,1.3992336E-1,1.2663305E-1,2.7071887E-1,3.0081904E-2,-7.676482E-3,2.1993068E-1,-8.967103E-2,4.6007073E-1,-8.611876E-2,-3.371011E-1,-2.1647048E-1,-3.7616962E-1,-5.322987E-3,-4.0074985E-2,4.5710476E-4,-1.1308469E-2,-2.5446727E-3,-1.4477323E-2,1.6223807E-3,1.38523765E-2,-4.840109E-3,5.4205386E-3,-5.313544E-2,-2.0155577E-2,4.3759374E-3,-9.902533E-3,-1.791044E-2,-4.988472E-3,6.11254E-3,-9.4560016E-4,5.6502824E-3,-1.2842451E-2,1.780972E-2,-2.7114538E-2,1.0328906E-2,-2.3293835E-3,-2.7152324E-2,-4.3990724E-3,-7.545178E-3,1.4791337E-2,1.8814931E-3,4.4870418E-2],"split_indices":[38,2,38,27,28,32,19,12,44,2,14,45,9,15,15,0,0,44,5,0,0,0,0,41,25,2,28,28,1,36,0,0,0,0,16,0,0,0,0,1,1,0,4,0,0,46,0,28,57,9,0,35,0,0,0,0,0,0,0,0,0,0,0,0,0,0,0,0,0,0,0,0,0,0,0,0,0,0,0,0,0,0,0],"split_type":[0,0,0,0,0,0,0,0,0,0,0,0,0,0,0,0,0,0,0,0,0,0,0,0,0,0,0,0,0,0,0,0,0,0,0,0,0,0,0,0,0,0,0,0,0,0,0,0,0,0,0,0,0,0,0,0,0,0,0,0,0,0,0,0,0,0,0,0,0,0,0,0,0,0,0,0,0,0,0,0,0,0,0],"sum_hessian":[6.51E2,3.9E1,6.12E2,2.8E1,1.1E1,4.2E1,5.7E2,1E1,1.8E1,4E0,7E0,2.4E1,1.8E1,5.29E2,4.1E1,2E0,8E0,1.3E1,5E0,2E0,2E0,3E0,4E0,9E0,1.5E1,7E0,1.1E1,1.52E2,3.77E2,3.8E1,3E0,1E0,1E0,3E0,1E1,4E0,1E0,1E0,2E0,4E0,5E0,2E0,1.3E1,3E0,4E0,8E0,3E0,8.9E1,6.3E1,1.6E2,2.17E2,3.1E1,7E0,1E0,2E0,4E0,6E0,1E0,3E0,1E0,4E0,1E0,1E0,8E0,5E0,2E0,1E0,5E0,3E0,1E0,2E0,5.3E1,3.6E1,5.8E1,5E0,6.7E1,9.3E1,3.1E1,1.86E2,8E0,2.3E1,1E0,6E0],"tree_param":{"num_deleted":"0","num_feature":"60","num_nodes":"83","size_leaf_vector":"0"}},{"base_weights":[-6.134993E-4,-5.7997964E-2,6.447104E-4,-1.02786705E-1,4.317911E-2,7.123194E-3,-1.0448308E-2,-1.4396587E-1,-5.133961E-2,6.5430544E-2,-2.2913322E-2,-5.1277243E-3,2.6229864E-2,1.7077139E-2,-2.3885643E-2,-1.3124347E-2,-5.6357794E-2,-3.0372694E-2,1.2544293E-2,1.336115E-1,2.1847382E-2,6.596545E-2,-1.009835E-2,-6.8408903E-3,-6.2009767E-2,-5.5791896E-2,1.5790548E-2,4.4320235E-3,1.0276198E-1,1.8876225E-2,1.527833E-1,5.9479374E-2,7.999956E-3,-3.2520104E-2,9.430333E-2,6.275496E-2,-2.31149E-2,2.392566E-2,-2.5915105E-2,-1.0132357E-2,-1.0055595E-1,-7.924088E-2,-5.292062E-3,5.056352E-2,-3.8580712E-2,1.0142434E-2,-1.2003221E-1,3.3183765E-2,2.3362245E-1,3.1446632E-2,1.1743862E-1,2.1790678E-2,-4.404858E-2,-4.906536E-2,-7.8448225E-3,1.3891247E-1,1.4433196E-2,2.803154E-2,9.047049E-2,4.6754517E-2,-3.5377294E-2,5.872438E-2,-3.4783955E-3,-7.490901E-2,-2.9196672E-3,-4.2602517E-2,6.5532625E-2,-1.7381364E-1,-5.670685E-2],"categories":[],"categories_nodes":[],"categories_segments":[],"categories_sizes":[],"default_left":[1,1,1,1,1,1,1,0,1,0,0,1,1,1,1,0,0,1,1,1,1,1,1,1,1,1,1,1,1,0,0,1,1,1,1,1,1,1,1,1,1,0,0,0,0,0,0,0,0,0,0,0,0,0,0,0,0,0,0,0,0,0,0,0,0,0,0,0,0],"id":24,"left_children":[1,3,5,7,9,11,13,-1,15,-1,-1,17,19,21,23,-1,-1,25,27,29,31,33,35,37,39,41,43,45,47,-1,-1,49,51,53,55,57,59,61,63,65,67,-1,-1,-1,-1,-1,-1,-1,-1,-1,-1,-1,-1,-1,-1,-1,-1,-1,-1,-1,-1,-1,-1,-1,-1,-1,-1,-1,-1],"loss_changes":[4.7112893E-2,6.788054E-2,4.599676E-2,1.379434E-2,8.852488E-3,9.47005E-2,8.7696895E-2,0E0,4.1096658E-4,0E0,0E0,1.10575005E-1,7.143542E-2,1.04294114E-1,1.02896586E-1,0E0,0E0,1.2057114E-1,1.063976E-1,1.0314129E-2,7.925343E-2,8.121117E-2,4.9813807E-2,6.576014E-2,9.696527E-2,7.773587E-2,7.190484E-2,9.7167574E-2,1.0150798E-1,0E0,0E0,6.2921986E-2,8.206976E-2,2.4729026E-3,7.637969E-2,5.162999E-3,3.935176E-2,4.1210186E-2,7.7519186E-2,5.6842647E-2,8.008754E-2,0E0,0E0,0E0,0E0,0E0,0E0,0E0,0E0,0E0,0E0,0E0,0E0,0E0,0E0,0E0,0E0,0E0,0E0,0E0,0E0,0E0,0E0,0E0,0E0,0E0,0E0,0E0,0E0],"parents":[2147483647,0,0,1,1,2,2,3,3,4,4,5,5,6,6,8,8,11,11,12,12,13,13,14,14,17,17,18,18,19,19,20,20,21,21,22,22,23,23,24,24,25,25,26,26,27,27,28,28,31,31,32,32,33,33,34,34,35,35,36,36,37,37,38,38,39,39,40,40],"right_children":[2,4,6,8,10,12,14,-1,16,-1,-1,18,20,22,24,-1,-1,26,28,30,32,34,36,38,40,42,44,46,48,-1,-1,50,52,54,56,58,60,62,64,66,68,-1,-1,-1,-1,-1,-1,-1,-1,-1,-1,-1,-1,-1,-1,-1,-1,-1,-1,-1,-1,-1,-1,-1,-1,-1,-1,-1,-1],"split_conditions":[-9.0555274E-1,1.2954462E-1,9.232331E-2,3.2921195E-2,1.782544E-1,8.386505E-2,-1.4897718E-1,-4.3189764E-2,-2.794335E-1,1.9629164E-2,-6.873997E-3,-5.219548E-2,-7.8115594E-1,-1.4930388E-1,1.4016868E-1,-3.937304E-3,-1.6907338E-2,9.0903014E-2,3.041693E-1,-6.2747693E-1,-1.5267283E-1,-2.4295917E-1,-2.0401591E-1,-1.0586181E-1,-5.532243E-2,2.2381899E-1,3.3112966E-2,2.5297984E-1,8.438304E-2,5.662868E-3,4.5834992E-2,-2.2569041E-1,2.4373159E-1,-2.1007384E-1,4.2870406E-2,2.3247384E-2,-3.464585E-1,1.322449E-2,-1.20305724E-1,1.7566553E-1,3.2221913E-2,-2.3772266E-2,-1.5876187E-3,1.5169057E-2,-1.1574214E-2,3.0427305E-3,-3.6009666E-2,9.95513E-3,7.008674E-2,9.43399E-3,3.5231587E-2,6.5372037E-3,-1.3214575E-2,-1.4719608E-2,-2.3534468E-3,4.1673742E-2,4.329959E-3,8.409462E-3,2.7141148E-2,1.4026356E-2,-1.0613188E-2,1.7617315E-2,-1.0435187E-3,-2.2472704E-2,-8.759002E-4,-1.2780756E-2,1.9659787E-2,-5.2144095E-2,-1.7012056E-2],"split_indices":[49,56,34,41,1,11,20,0,0,0,0,38,21,38,57,0,0,24,36,1,10,23,54,17,29,54,17,36,53,0,0,10,20,7,53,11,55,56,52,21,20,0,0,0,0,0,0,0,0,0,0,0,0,0,0,0,0,0,0,0,0,0,0,0,0,0,0,0,0],"split_type":[0,0,0,0,0,0,0,0,0,0,0,0,0,0,0,0,0,0,0,0,0,0,0,0,0,0,0,0,0,0,0,0,0,0,0,0,0,0,0,0,0,0,0,0,0,0,0,0,0,0,0,0,0,0,0,0,0,0,0,0,0,0,0,0,0,0,0,0,0],"sum_hessian":[6.51E2,1.3E1,6.38E2,9E0,4E0,4.03E2,2.35E2,4E0,5E0,3E0,1E0,2.46E2,1.57E2,7.7E1,1.58E2,1E0,4E0,1.01E2,1.45E2,5E0,1.52E2,2.7E1,5E1,1.1E2,4.8E1,6.5E1,3.6E1,1.34E2,1.1E1,1E0,4E0,4E1,1.12E2,6E0,2.1E1,7E0,4.3E1,4.2E1,6.8E1,2.1E1,2.7E1,4.4E1,2.1E1,2.2E1,1.4E1,1.29E2,5E0,8E0,3E0,2.8E1,1.2E1,8.9E1,2.3E1,3E0,3E0,1.3E1,8E0,4E0,3E0,6E0,3.7E1,1.8E1,2.4E1,2.1E1,4.7E1,1.5E1,6E0,9E0,1.8E1],"tree_param":{"num_deleted":"0","num_feature":"60","num_nodes":"69","size_leaf_vector":"0"}},{"base_weights":[-3.338059E-4,-4.065267E-3,1.7125845E-2,-7.4624065E-3,2.4177656E-2,-3.2579643E-3,3.652841E-2,-1.6376387E-2,6.276249E-3,-1.9024176E-4,7.420599E-2,9.224393E-3,-6.284749E-2,8.19245E-2,1.4600258E-2,-1.3080834E-2,-1.0800289E-1,1.0191831E-2,-1.1550023E-1,2.7463356E-2,-5.3508595E-2,3.2668013E-2,1.4074709E-1,1.7766435E-2,-6.779044E-2,-8.624853E-3,-9.755843E-2,3.9410304E-2,1.4917593E-1,-1.3857982E-2,3.980774E-2,-2.878122E-2,5.6187063E-3,-1.3691442E-1,-3.040699E-2,-3.662913E-2,1.913053E-2,-1.3660726E-2,-1.630048E-1,5.4665376E-3,7.902249E-2,-4.3295235E-3,-7.274727E-2,7.66425E-2,4.607964E-3,-3.981356E-2,2.7905738E-2,-1.0146743E-2,-7.966468E-2,1.2753617E-2,-1.7157875E-2,-1.054807E-1,-2.897355E-2,6.823426E-2,-5.590024E-3,1.7300433E-1,3.1027943E-3,-2.5752742E-2,4.015924E-2,6.656969E-2,1.0364283E-3,-2.1064166E-2,-1.2718798E-1,1.4666617E-5,1.2143308E-1,7.3216483E-3,-4.542375E-2,6.794736E-2,-5.076531E-2,3.1834166E-2,-3.760037E-2,1.991245E-2,-8.303112E-2,1.1527067E-2,9.959978E-2,1.9255143E-2,-1.5039476E-2,-9.9547446E-2,-3.828924E-2,-1.3994646E-2,3.135989E-2,-4.9254805E-2,8.416951E-3,3.2838087E-3,4.7681402E-2,-3.3323467E-3,-2.06556E-2,1.2115915E-2,8.4921055E-2,-1.4351023E-2,1.9107487E-2,5.58555E-3,-3.030355E-2,-1.3048465E-2,8.223195E-2,-2.9524008E-2,2.633072E-2],"categories":[],"categories_nodes":[],"categories_segments":[],"categories_sizes":[],"default_left":[1,1,1,1,1,1,1,1,1,1,1,1,1,1,1,1,1,1,1,1,1,1,0,1,1,1,1,1,1,1,1,1,1,0,1,1,1,0,0,1,1,1,1,0,1,1,1,0,0,0,1,0,0,1,1,0,0,1,0,1,1,0,0,0,0,0,0,0,0,0,0,0,0,0,0,0,0,0,0,0,0,0,0,0,0,0,0,0,0,0,0,0,0,0,0,0,0],"id":25,"left_children":[1,3,5,7,9,11,13,15,17,19,21,23,25,27,29,31,33,35,37,39,41,43,-1,45,47,49,51,53,55,57,59,61,63,-1,65,67,69,-1,-1,71,73,75,77,-1,79,81,83,-1,-1,-1,85,-1,-1,87,89,-1,-1,91,-1,93,95,-1,-1,-1,-1,-1,-1,-1,-1,-1,-1,-1,-1,-1,-1,-1,-1,-1,-1,-1,-1,-1,-1,-1,-1,-1,-1,-1,-1,-1,-1,-1,-1,-1,-1,-1,-1],"loss_changes":[4.254742E-2,5.179892E-2,4.5601297E-2,5.900898E-2,7.072106E-2,4.297734E-2,5.7535566E-2,8.675955E-2,9.1774054E-2,6.0447294E-2,4.791773E-2,3.2781858E-2,1.7979763E-2,4.84446E-2,2.9963437E-2,8.3247684E-2,1.8271E-2,7.812665E-2,2.6800282E-2,3.0189713E-2,1.2931004E-2,1.5687875E-2,0E0,2.6799152E-2,2.61404E-3,1.1309396E-3,2.0393729E-4,1.724357E-2,2.3828015E-2,1.3884647E-2,2.2758115E-2,1.1427006E-1,8.437191E-2,0E0,2.5988247E-3,4.779873E-2,1.1362442E-1,0E0,0E0,2.7221939E-2,9.962894E-3,1.5525405E-3,5.4232143E-3,0E0,4.9177716E-3,3.602068E-3,1.8346198E-2,0E0,0E0,0E0,1.2460002E-4,0E0,0E0,6.462585E-3,1.5724612E-3,0E0,0E0,2.59371E-3,0E0,1.7284002E-2,8.507434E-3,0E0,0E0,0E0,0E0,0E0,0E0,0E0,0E0,0E0,0E0,0E0,0E0,0E0,0E0,0E0,0E0,0E0,0E0,0E0,0E0,0E0,0E0,0E0,0E0,0E0,0E0,0E0,0E0,0E0,0E0,0E0,0E0,0E0,0E0,0E0,0E0],"parents":[2147483647,0,0,1,1,2,2,3,3,4,4,5,5,6,6,7,7,8,8,9,9,10,10,11,11,12,12,13,13,14,14,15,15,16,16,17,17,18,18,19,19,20,20,21,21,23,23,24,24,25,25,26,26,27,27,28,28,29,29,30,30,31,31,32,32,34,34,35,35,36,36,39,39,40,40,41,41,42,42,44,44,45,45,46,46,50,50,53,53,54,54,57,57,59,59,60,60],"right_children":[2,4,6,8,10,12,14,16,18,20,22,24,26,28,30,32,34,36,38,40,42,44,-1,46,48,50,52,54,56,58,60,62,64,-1,66,68,70,-1,-1,72,74,76,78,-1,80,82,84,-1,-1,-1,86,-1,-1,88,90,-1,-1,92,-1,94,96,-1,-1,-1,-1,-1,-1,-1,-1,-1,-1,-1,-1,-1,-1,-1,-1,-1,-1,-1,-1,-1,-1,-1,-1,-1,-1,-1,-1,-1,-1,-1,-1,-1,-1,-1,-1],"split_conditions":[2.4463388E-1,3.6493284E-1,-1.9009128E-2,7.027578E-2,1.390836E-1,3.1983232E-1,-9.798144E-2,5.8278763E-1,5.886494E-1,4.469411E-2,1.2047458E-2,3.7757635E-1,3.7694015E-3,4.47333E-2,4.5972344E-2,5.900877E-2,-3.09238E-2,-2.9401636E-1,-3.132434E-1,1.2576684E-1,-5.9643976E-2,-1.6626815E-1,4.2224128E-2,-3.72796E-1,3.2753892E-2,-3.1866297E-1,3.859698E-2,2.3717079E-1,6.183123E-2,3.23978E-1,1.2653282E-1,3.7109804E-1,6.3879466E-1,-4.1074328E-2,-6.031E-2,-2.2470683E-1,2.2132188E-1,-4.098218E-3,-4.8901442E-2,2.933731E-1,-1.1041795E-1,-3.9797295E-2,-1.16001144E-1,2.299275E-2,2.5638998E-1,1.5453553E-1,-9.4794616E-2,-3.044023E-3,-2.3899404E-2,3.8260852E-3,-2.2388503E-1,-3.164421E-2,-8.692065E-3,-2.9230326E-1,4.9014747E-1,5.19013E-2,9.3083835E-4,-3.4615123E-1,1.2047772E-2,2.9321864E-1,-3.7876345E-2,-6.31925E-3,-3.8156398E-2,4.3999853E-6,3.6429927E-2,2.1964945E-3,-1.3627126E-2,2.0384207E-2,-1.5229593E-2,9.55025E-3,-1.1280111E-2,5.9737354E-3,-2.4909336E-2,3.4581202E-3,2.9879935E-2,5.776543E-3,-4.511843E-3,-2.9864235E-2,-1.1486772E-2,-4.1983943E-3,9.407967E-3,-1.4776442E-2,2.5250854E-3,9.851427E-4,1.4304421E-2,-9.99704E-4,-6.1966805E-3,3.6347748E-3,2.5476318E-2,-4.3053073E-3,5.732246E-3,1.675665E-3,-9.091065E-3,-3.9145397E-3,2.4669586E-2,-8.857203E-3,7.899216E-3],"split_indices":[24,36,5,4,26,28,58,18,33,52,17,38,40,9,18,42,2,50,0,19,29,6,0,39,1,0,2,5,1,55,51,1,2,0,1,18,26,0,0,35,3,0,51,0,26,0,38,0,0,0,0,0,0,15,0,0,0,4,0,24,3,0,0,0,0,0,0,0,0,0,0,0,0,0,0,0,0,0,0,0,0,0,0,0,0,0,0,0,0,0,0,0,0,0,0,0,0],"split_type":[0,0,0,0,0,0,0,0,0,0,0,0,0,0,0,0,0,0,0,0,0,0,0,0,0,0,0,0,0,0,0,0,0,0,0,0,0,0,0,0,0,0,0,0,0,0,0,0,0,0,0,0,0,0,0,0,0,0,0,0,0,0,0,0,0,0,0,0,0,0,0,0,0,0,0,0,0,0,0,0,0,0,0,0,0,0,0,0,0,0,0,0,0,0,0,0,0],"sum_hessian":[6.51E2,5.37E2,1.14E2,4.8E2,5.7E1,5.6E1,5.8E1,2.91E2,1.89E2,3.9E1,1.8E1,4.7E1,9E0,1.8E1,4E1,2.82E2,9E0,1.84E2,5E0,2.6E1,1.3E1,1.2E1,6E0,4.3E1,4E0,4E0,5E0,1.2E1,6E0,1.9E1,2.1E1,1.53E2,1.29E2,6E0,3E0,2.9E1,1.55E2,2E0,3E0,1.9E1,7E0,4E0,9E0,4E0,8E0,6E0,3.7E1,1E0,3E0,1E0,3E0,4E0,1E0,7E0,5E0,5E0,1E0,1.6E1,3E0,1.2E1,9E0,1.43E2,1E1,1.24E2,5E0,1E0,2E0,3E0,2.6E1,1.27E2,2.8E1,1.7E1,2E0,2E0,5E0,1E0,3E0,4E0,5E0,5E0,3E0,5E0,1E0,1.7E1,2E1,1E0,2E0,2E0,5E0,4E0,1E0,2E0,1.4E1,2E0,1E1,4E0,5E0],"tree_param":{"num_deleted":"0","num_feature":"60","num_nodes":"97","size_leaf_vector":"0"}},{"base_weights":[-2.723006E-4,5.8600697E-4,-6.165872E-2,1.6368084E-2,-2.7673026E-3,-1.4823563E-1,-1.574594E-2,2.7572634E-2,-2.8674617E-2,1.2110934E-2,-8.641246E-3,-3.5296917E-2,-8.6616573E-4,4.3525793E-2,-9.876471E-3,2.8829673E-2,-5.56346E-2,-2.2340858E-2,3.043249E-2,-1.9725066E-2,5.8998996E-3,-7.7119134E-3,1.32584125E-2,5.6224402E-2,-3.0669125E-2,-2.6122415E-2,5.404573E-2,3.687861E-2,3.1219076E-3,-6.362226E-2,3.2090157E-2,-4.838307E-2,2.304794E-2,1.49157625E-2,6.5623775E-2,-3.0989656E-3,-3.8439795E-2,2.0363947E-2,-2.7114403E-2,-8.95911E-3,-1.9851625E-3,-1.9059147E-3,7.42625E-2,3.5423727E-3,-8.287196E-2,3.8168713E-2,-4.6101548E-2,-1.6470388E-2,7.144303E-2,-4.2630263E-2,-9.70802E-2,1.24828005E-2,-7.426397E-2,3.3364694E-3,1.3363412E-1,2.934752E-2,-3.5625644E-2,1.3763867E-1,9.967252E-3,1.7655177E-2,-2.2763751E-2,2.0616876E-2,-4.806946E-2,-8.098093E-3,4.443674E-2,-4.560376E-2,1.4705729E-3],"categories":[],"categories_nodes":[],"categories_segments":[],"categories_sizes":[],"default_left":[1,1,1,1,1,0,1,1,1,1,1,0,1,1,1,1,1,1,1,1,1,1,0,1,1,1,1,0,0,1,0,1,1,1,1,1,1,1,1,0,0,0,0,0,0,0,0,0,0,0,0,0,0,0,0,0,0,0,0,0,0,0,0,0,0,0,0],"id":26,"left_children":[1,3,5,7,9,-1,11,13,15,17,19,-1,21,23,25,27,29,31,33,35,37,39,-1,41,43,45,47,-1,-1,49,-1,51,53,55,57,59,61,63,65,-1,-1,-1,-1,-1,-1,-1,-1,-1,-1,-1,-1,-1,-1,-1,-1,-1,-1,-1,-1,-1,-1,-1,-1,-1,-1,-1,-1],"loss_changes":[3.438899E-2,3.4127183E-2,3.3440776E-2,5.7819836E-2,4.659822E-2,0E0,2.0058258E-3,5.479615E-2,3.7261166E-2,9.599267E-2,6.168386E-2,0E0,5.8571424E-4,6.202337E-2,3.0489149E-2,1.5402301E-3,1.3253093E-2,6.3762434E-2,5.3080477E-2,6.7401074E-2,7.982055E-2,1.0784235E-5,0E0,5.7812363E-2,1.8152935E-2,3.1302698E-2,8.537436E-3,0E0,0E0,6.396685E-3,0E0,5.448597E-2,4.3150462E-2,5.2103616E-2,1.1887108E-1,4.7744486E-2,5.899802E-2,7.9838514E-2,2.7021471E-2,0E0,0E0,0E0,0E0,0E0,0E0,0E0,0E0,0E0,0E0,0E0,0E0,0E0,0E0,0E0,0E0,0E0,0E0,0E0,0E0,0E0,0E0,0E0,0E0,0E0,0E0,0E0,0E0],"parents":[2147483647,0,0,1,1,2,2,3,3,4,4,6,6,7,7,8,8,9,9,10,10,12,12,13,13,14,14,15,15,16,16,17,17,18,18,19,19,20,20,21,21,23,23,24,24,25,25,26,26,29,29,31,31,32,32,33,33,34,34,35,35,36,36,37,37,38,38],"right_children":[2,4,6,8,10,-1,12,14,16,18,20,-1,22,24,26,28,30,32,34,36,38,40,-1,42,44,46,48,-1,-1,50,-1,52,54,56,58,60,62,64,66,-1,-1,-1,-1,-1,-1,-1,-1,-1,-1,-1,-1,-1,-1,-1,-1,-1,-1,-1,-1,-1,-1,-1,-1,-1,-1,-1,-1],"split_conditions":[8.3708084E-1,-2.6019752E-1,7.784239E-2,2.4067374E-1,-1.5405883E-1,-4.447069E-2,-3.8747978E-1,1.11454196E-1,-9.758495E-2,-1.0669279E-1,5.9605487E-2,-1.0589075E-2,5.2753225E-2,4.1927105E-1,1.8646637E-1,4.379211E-2,5.737375E-1,1.05332166E-1,1.8824165E-1,1.7013256E-2,1.3375534E-1,-3.6730036E-2,3.977524E-3,-1.260224E-1,1.8472262E-1,-2.1676776E-1,-2.7002132E-1,1.1063583E-2,9.365723E-4,1.0006815E-1,9.627048E-3,-2.1565534E-1,3.4970188E-1,5.4753795E-2,-7.257713E-2,3.3048373E-2,-2.0976117E-1,-3.121852E-2,3.025515E-1,-2.6877332E-3,-5.955488E-4,-5.7177444E-4,2.227875E-2,1.0627118E-3,-2.486159E-2,1.1450615E-2,-1.3830465E-2,-4.9411166E-3,2.143291E-2,-1.2789079E-2,-2.912406E-2,3.7448404E-3,-2.2279192E-2,1.0009409E-3,4.0090237E-2,8.804256E-3,-1.0687694E-2,4.1291602E-2,2.9901757E-3,5.2965535E-3,-6.829126E-3,6.185063E-3,-1.4420838E-2,-2.429428E-3,1.3331023E-2,-1.3681129E-2,4.411719E-4],"split_indices":[23,37,5,5,54,0,4,25,2,47,6,0,1,51,3,1,25,11,9,59,3,0,0,19,47,35,1,0,0,55,0,25,8,9,32,10,43,52,3,0,0,0,0,0,0,0,0,0,0,0,0,0,0,0,0,0,0,0,0,0,0,0,0,0,0,0,0],"split_type":[0,0,0,0,0,0,0,0,0,0,0,0,0,0,0,0,0,0,0,0,0,0,0,0,0,0,0,0,0,0,0,0,0,0,0,0,0,0,0,0,0,0,0,0,0,0,0,0,0,0,0,0,0,0,0,0,0,0,0,0,0,0,0,0,0,0,0],"sum_hessian":[6.51E2,6.43E2,8E0,1.12E2,5.31E2,2E0,6E0,9E1,2.2E1,1.5E2,3.81E2,2E0,4E0,6.3E1,2.7E1,7E0,1.5E1,5.2E1,9.8E1,2.16E2,1.65E2,3E0,1E0,5.4E1,9E0,2.2E1,5E0,5E0,2E0,1.4E1,1E0,3.3E1,1.9E1,6.9E1,2.9E1,1.15E2,1.01E2,1.15E2,5E1,2E0,1E0,1.3E1,4.1E1,6E0,3E0,5E0,1.7E1,1E0,4E0,1E1,4E0,1E1,2.3E1,1.7E1,2E0,5.4E1,1.5E1,1.2E1,1.7E1,5.6E1,5.9E1,1.4E1,8.7E1,5.3E1,6.2E1,3E1,2E1],"tree_param":{"num_deleted":"0","num_feature":"60","num_nodes":"67","size_leaf_vector":"0"}},{"base_weights":[-2.0561562E-4,3.62399E-2,-1.4162963E-3,5.014787E-2,-6.887998E-3,-1.6629702E-1,-3.655186E-4,1.1822704E-2,6.649361E-2,4.507775E-3,-1.3712828E-2,-2.1521972E-1,-9.764468E-3,1.1002001E-2,-5.729709E-3,-2.82601E-3,1.9853564E-2,2.1097995E-2,7.4237294E-2,4.6796352E-4,6.293699E-3,3.5093552E-3,4.2227436E-2,-7.917704E-3,5.1106017E-2,-9.939331E-3,2.4678228E-2,-1.8451958E-3,6.433472E-2,1.9923901E-2,-1.2161076E-2,9.340379E-2,-2.8672316E-3,5.5427432E-2,-1.6158272E-2,-7.7546504E-4,7.3306896E-2,1.748747E-2,-4.0141486E-2,7.982591E-2,-1.6693456E-2,3.169487E-2,-6.531915E-2,-1.9851392E-3,-2.7165664E-2,1.13542825E-1,1.5278116E-2,1.0342748E-2,-1.8662898E-2],"categories":[],"categories_nodes":[],"categories_segments":[],"categories_sizes":[],"default_left":[1,1,1,1,1,1,1,1,1,1,0,0,0,1,1,0,0,0,0,0,0,1,1,1,1,1,1,1,1,1,1,1,1,0,0,0,0,0,0,0,0,0,0,0,0,0,0,0,0],"id":27,"left_children":[1,3,5,7,9,11,13,15,17,19,-1,-1,-1,21,23,-1,-1,-1,-1,-1,-1,25,27,29,31,33,35,37,39,41,43,45,47,-1,-1,-1,-1,-1,-1,-1,-1,-1,-1,-1,-1,-1,-1,-1,-1],"loss_changes":[2.8820097E-2,1.294167E-2,1.0943511E-1,9.237114E-3,5.2845967E-4,2.8530464E-2,3.8417913E-2,7.6195697E-4,2.300568E-3,1.8699164E-5,0E0,0E0,0E0,4.711196E-2,5.3629126E-2,0E0,0E0,0E0,0E0,0E0,0E0,4.6935022E-2,3.811743E-2,4.9035065E-2,3.6794983E-2,4.1953325E-2,7.9274714E-2,1.1067145E-2,3.3968367E-2,5.7256903E-2,5.4760255E-2,1.2425661E-2,1.8623092E-3,0E0,0E0,0E0,0E0,0E0,0E0,0E0,0E0,0E0,0E0,0E0,0E0,0E0,0E0,0E0,0E0],"parents":[2147483647,0,0,1,1,2,2,3,3,4,4,5,5,6,6,7,7,8,8,9,9,13,13,14,14,21,21,22,22,23,23,24,24,25,25,26,26,27,27,28,28,29,29,30,30,31,31,32,32],"right_children":[2,4,6,8,10,12,14,16,18,20,-1,-1,-1,22,24,-1,-1,-1,-1,-1,-1,26,28,30,32,34,36,38,40,42,44,46,48,-1,-1,-1,-1,-1,-1,-1,-1,-1,-1,-1,-1,-1,-1,-1,-1],"split_conditions":[-7.7060187E-1,3.0657345E-1,-7.282574E-1,-1.7314428E-1,-2.609432E-1,-1.7260322E-1,-1.3910884E-1,-3.7151074E-1,-6.765718E-1,3.0099487E-1,-4.113849E-3,-6.456592E-2,-2.9293406E-3,-1.8454641E-1,5.5113065E-1,-8.478031E-4,5.9560696E-3,6.329399E-3,2.227119E-2,1.4038906E-4,1.8881098E-3,6.9818616E-2,-8.077251E-2,-3.3348474E-1,3.159567E-2,-3.7865585E-1,7.836741E-2,-4.3205917E-4,2.7266312E-1,3.951642E-1,3.0893013E-2,1.2230876E-1,1.6542445E-1,1.662823E-2,-4.847482E-3,-2.3263952E-4,2.1992069E-2,5.246241E-3,-1.2042446E-2,2.3947774E-2,-5.008037E-3,9.508462E-3,-1.9595746E-2,-5.955418E-4,-8.149699E-3,3.4062847E-2,4.583435E-3,3.1028246E-3,-5.5988696E-3],"split_indices":[4,5,4,41,1,0,27,1,5,0,0,0,0,27,1,0,0,0,0,0,0,6,16,48,43,53,52,9,41,32,23,30,9,0,0,0,0,0,0,0,0,0,0,0,0,0,0,0,0],"split_type":[0,0,0,0,0,0,0,0,0,0,0,0,0,0,0,0,0,0,0,0,0,0,0,0,0,0,0,0,0,0,0,0,0,0,0,0,0,0,0,0,0,0,0,0,0,0,0,0,0],"sum_hessian":[6.51E2,2E1,6.31E2,1.5E1,5E0,3E0,6.28E2,5E0,1E1,2E0,3E0,2E0,1E0,2.01E2,4.27E2,2E0,3E0,2E0,8E0,1E0,1E0,1.63E2,3.8E1,4.12E2,1.5E1,1E2,6.3E1,1.3E1,2.5E1,5.4E1,3.58E2,8E0,7E0,8E0,9.2E1,4.2E1,2.1E1,9E0,4E0,2.1E1,4E0,4.8E1,6E0,2.14E2,1.44E2,6E0,2E0,4E0,3E0],"tree_param":{"num_deleted":"0","num_feature":"60","num_nodes":"49","size_leaf_vector":"0"}},{"base_weights":[-1.0232133E-4,9.697872E-3,-4.5865565E-3,1.6117766E-2,-2.306447E-2,-6.0934957E-2,-1.9489002E-3,-3.825852E-2,2.1940067E-2,1.0315839E-2,-6.1262056E-2,7.3255957E-3,-1.1745046E-1,-5.6983223E-3,2.0337168E-2,-2.781229E-3,-6.948486E-2,2.7681356E-2,-4.334343E-2,-1.9366765E-2,2.5505254E-2,-1.0471818E-1,-3.8050167E-2,7.0643045E-2,-4.665988E-2,-4.1998062E-2,-1.7332779E-1,-8.58591E-4,-3.2089513E-2,3.981872E-2,-1.0088278E-2,-1.5397572E-2,2.7583981E-2,-9.7642414E-2,-9.877322E-3,7.015279E-2,2.0265376E-2,-6.928348E-2,1.2017346E-2,3.3880556E-3,-3.7279893E-2,7.999137E-3,4.4595867E-2,-6.194413E-5,-4.1498013E-2,-2.0283237E-3,8.931797E-2,-8.39361E-2,-7.0377374E-3,-9.515636E-3,-4.659142E-2,2.1523561E-2,-8.669348E-3,-4.1280493E-2,5.2913923E-2,1.547341E-2,1.0643824E-1,-4.1977547E-2,1.7965974E-2,8.0762245E-4,-1.8233042E-2,-1.579657E-2,3.9402097E-3,1.05832346E-1,2.0322045E-2,9.616187E-3,5.1902745E-2,-9.341975E-2,-3.1290505E-2,-5.6394236E-3,1.7841395E-2,-2.3453522E-3,1.0294139E-2,-2.520698E-3,1.1925865E-2,5.4110304E-2,1.7044663E-2,-1.700824E-2,-4.505038E-2,-2.4282301E-3,-1.043313E-2,2.9475843E-3,4.7115423E-2,-4.49918E-3,-6.468543E-2,-9.425085E-2,-2.120702E-2,6.347376E-2,2.1196166E-2,8.2125805E-2,1.5239945E-3,1.20599166E-1,-1.0505028E-2,-6.914162E-2,-1.269727E-2,-6.58755E-3,5.180193E-2],"categories":[],"categories_nodes":[],"categories_segments":[],"categories_sizes":[],"default_left":[1,1,1,1,1,1,1,1,1,1,1,1,1,1,1,1,1,1,1,1,1,0,1,1,1,1,0,1,1,1,1,1,0,0,1,1,1,1,1,1,0,1,1,0,1,0,0,0,1,0,0,1,1,1,1,1,1,1,1,0,0,0,0,0,0,0,0,0,0,0,0,0,0,0,0,0,0,0,0,0,0,0,0,0,0,0,0,0,0,0,0,0,0,0,0,0,0],"id":28,"left_children":[1,3,5,7,9,11,13,15,17,19,21,23,25,27,29,31,33,35,37,39,41,-1,43,45,47,49,-1,51,53,55,57,59,-1,-1,61,63,65,67,69,71,-1,73,75,-1,77,-1,-1,-1,79,-1,-1,81,83,85,87,89,91,93,95,-1,-1,-1,-1,-1,-1,-1,-1,-1,-1,-1,-1,-1,-1,-1,-1,-1,-1,-1,-1,-1,-1,-1,-1,-1,-1,-1,-1,-1,-1,-1,-1,-1,-1,-1,-1,-1,-1],"loss_changes":[2.8697515E-2,4.3489553E-2,6.6466466E-2,5.529376E-2,4.398358E-2,7.8016E-2,3.596307E-2,1.863979E-2,5.9670366E-2,9.06032E-3,1.2154635E-2,3.747842E-2,3.909743E-2,4.6975713E-2,3.7151262E-2,3.8726071E-3,1.4141176E-2,4.3933615E-2,1.95014E-2,2.9795764E-3,3.9879037E-3,0E0,1.5691593E-3,6.9668293E-3,8.271062E-3,4.5187306E-4,0E0,5.4730926E-2,4.671642E-2,5.998421E-2,2.311991E-2,3.3637066E-4,0E0,0E0,3.8939936E-4,3.5185985E-2,4.1278023E-2,5.3299293E-3,6.147846E-4,1.8252495E-4,0E0,3.6052975E-4,6.50513E-4,0E0,1.9073486E-4,0E0,0E0,0E0,3.7270307E-5,0E0,0E0,3.8368028E-2,5.3903356E-2,5.3292774E-2,6.642062E-4,2.6837936E-2,1.7827153E-2,8.666549E-3,1.1972337E-2,0E0,0E0,0E0,0E0,0E0,0E0,0E0,0E0,0E0,0E0,0E0,0E0,0E0,0E0,0E0,0E0,0E0,0E0,0E0,0E0,0E0,0E0,0E0,0E0,0E0,0E0,0E0,0E0,0E0,0E0,0E0,0E0,0E0,0E0,0E0,0E0,0E0,0E0],"parents":[2147483647,0,0,1,1,2,2,3,3,4,4,5,5,6,6,7,7,8,8,9,9,10,10,11,11,12,12,13,13,14,14,15,15,16,16,17,17,18,18,19,19,20,20,22,22,23,23,24,24,25,25,27,27,28,28,29,29,30,30,31,31,34,34,35,35,36,36,37,37,38,38,39,39,41,41,42,42,44,44,48,48,51,51,52,52,53,53,54,54,55,55,56,56,57,57,58,58],"right_children":[2,4,6,8,10,12,14,16,18,20,22,24,26,28,30,32,34,36,38,40,42,-1,44,46,48,50,-1,52,54,56,58,60,-1,-1,62,64,66,68,70,72,-1,74,76,-1,78,-1,-1,-1,80,-1,-1,82,84,86,88,90,92,94,96,-1,-1,-1,-1,-1,-1,-1,-1,-1,-1,-1,-1,-1,-1,-1,-1,-1,-1,-1,-1,-1,-1,-1,-1,-1,-1,-1,-1,-1,-1,-1,-1,-1,-1,-1,-1,-1,-1],"split_conditions":[-1.4660132E-1,2.8528225E-1,-1.2346589E-1,-3.6130306E-1,9.419437E-2,-6.811299E-2,2.8355616E-1,1.2953955E-2,5.479635E-1,8.4685676E-2,-4.2540705E-1,9.297334E-2,-1.9106591E-1,1.4590687E-1,4.8598048E-1,2.0572823E-1,-1.1716589E-1,-2.6679713E-1,-7.205434E-3,-2.1481198E-1,5.283617E-1,-3.1415455E-2,-8.7063944E-1,-1.1361947E-1,2.9878933E-3,-2.96327E-1,-5.199834E-2,-1.7202008E-1,4.0611386E-1,5.0244853E-3,-2.940937E-2,-4.6784556E-1,8.275195E-3,-2.9292725E-2,-1.5039162E-1,1.2359119E-1,2.5312272E-1,7.733005E-2,-5.5236554E-1,5.204214E-2,-1.1183968E-2,-2.2116831E-1,7.617669E-2,-1.858324E-5,-2.799887E-1,-6.084971E-4,2.6795393E-2,-2.5180832E-2,3.6599886E-1,-2.854691E-3,-1.3977426E-2,1.19908955E-2,4.6073747E-1,-2.727089E-1,-1.9291244E-1,-2.5178468E-1,3.578389E-1,-1.4351693E-1,8.562941E-2,2.4228674E-4,-5.4699127E-3,-4.738971E-3,1.182063E-3,3.1749707E-2,6.096614E-3,2.8848562E-3,1.5570824E-2,-2.8025927E-2,-9.387152E-3,-1.6918272E-3,5.352419E-3,-7.036057E-4,3.088242E-3,-7.562094E-4,3.5777597E-3,1.6233092E-2,5.113399E-3,-5.102472E-3,-1.3515114E-2,-7.2846905E-4,-3.129939E-3,8.842753E-4,1.4134628E-2,-1.3497539E-3,-1.940563E-2,-2.8275257E-2,-6.362106E-3,1.9042129E-2,6.3588503E-3,2.4637742E-2,4.5719836E-4,3.617975E-2,-3.1515085E-3,-2.0742487E-2,-3.8091813E-3,-1.976265E-3,1.554058E-2],"split_indices":[22,52,22,51,25,54,18,2,18,49,44,8,21,18,18,12,52,57,5,2,52,0,6,0,0,1,0,40,43,1,58,0,0,0,0,21,57,40,1,0,0,11,9,0,5,0,0,0,3,0,0,45,23,55,0,19,0,6,56,0,0,0,0,0,0,0,0,0,0,0,0,0,0,0,0,0,0,0,0,0,0,0,0,0,0,0,0,0,0,0,0,0,0,0,0,0,0],"split_type":[0,0,0,0,0,0,0,0,0,0,0,0,0,0,0,0,0,0,0,0,0,0,0,0,0,0,0,0,0,0,0,0,0,0,0,0,0,0,0,0,0,0,0,0,0,0,0,0,0,0,0,0,0,0,0,0,0,0,0,0,0,0,0,0,0,0,0,0,0,0,0,0,0,0,0,0,0,0,0,0,0,0,0,0,0,0,0,0,0,0,0,0,0,0,0,0,0],"sum_hessian":[6.51E2,2.04E2,4.47E2,1.71E2,3.3E1,1.9E1,4.28E2,1.6E1,1.55E2,1.8E1,1.5E1,9E0,1E1,3.67E2,6.1E1,8E0,8E0,1.43E2,1.2E1,6E0,1.2E1,4E0,1.1E1,4E0,5E0,5E0,5E0,3.11E2,5.6E1,3.7E1,2.4E1,6E0,2E0,5E0,3E0,2E1,1.23E2,8E0,4E0,3E0,3E0,7E0,5E0,1E0,1E1,1E0,3E0,2E0,3E0,1E0,4E0,8E1,2.31E2,5.1E1,5E0,2.8E1,9E0,1.1E1,1.3E1,1E0,5E0,2E0,1E0,1.1E1,9E0,9.3E1,3E1,4E0,4E0,1E0,3E0,2E0,1E0,2E0,5E0,3E0,2E0,2E0,8E0,2E0,1E0,4.7E1,3.3E1,2.16E2,1.5E1,1.3E1,3.8E1,3E0,2E0,4E0,2.4E1,8E0,1E0,5E0,6E0,8E0,5E0],"tree_param":{"num_deleted":"0","num_feature":"60","num_nodes":"97","size_leaf_vector":"0"}},{"base_weights":[-1.9655692E-4,-3.522315E-2,8.5344585E-4,-6.419557E-2,-8.316333E-3,1.3037821E-2,-1.8714886E-3,-8.1158504E-2,-2.2702273E-2,1.33999325E-2,-2.2639904E-2,-3.7415735E-2,2.0901376E-2,9.276376E-3,-7.1867434E-3,-1.2113154E-3,-2.9462153E-2,2.0545024E-2,1.7881965E-3,-3.0067168E-2,-9.552663E-3,-6.590493E-2,2.1050416E-2,-3.0495051E-2,2.7521996E-2,-3.076625E-2,1.3988236E-2,-6.370473E-2,-4.3058135E-3,-3.9239272E-2,-1.0276002E-1,2.8305824E-3,2.9452687E-2,-4.2290455E-3,-4.3099422E-2,-6.012091E-4,4.09019E-2,-6.491062E-2,-1.2640677E-2,2.0775849E-2,-2.1052366E-2,-7.762673E-3,-1.020879E-1,3.701819E-2,-7.178265E-3,-4.581959E-2,-1.2998872E-2,-2.6427507E-3,6.8886243E-3,-9.796462E-3,2.7480524E-3,-3.7148956E-2,2.5827788E-2,1.6823327E-2,6.219738E-2,-5.1333755E-3,-7.583939E-2,-2.4993125E-2,5.9360336E-3,-1.0038876E-3,3.193695E-2,8.433133E-3,-4.8918452E-2,-1.7699018E-2,3.0895874E-2,-1.882935E-2,-1.3508023E-1,4.1474174E-3,9.402362E-2,-1.9478321E-2,3.700225E-3],"categories":[],"categories_nodes":[],"categories_segments":[],"categories_sizes":[],"default_left":[1,1,1,1,1,1,1,0,1,1,1,1,1,1,1,0,0,0,0,0,0,1,1,1,1,1,1,1,1,1,0,1,0,1,0,1,1,1,1,1,1,1,1,1,1,0,0,0,0,0,0,0,0,0,0,0,0,0,0,0,0,0,0,0,0,0,0,0,0,0,0],"id":29,"left_children":[1,3,5,7,9,11,13,-1,15,17,19,21,23,25,27,-1,-1,-1,-1,-1,-1,29,31,33,35,37,39,41,43,45,-1,47,-1,49,-1,51,53,55,57,59,61,63,65,67,69,-1,-1,-1,-1,-1,-1,-1,-1,-1,-1,-1,-1,-1,-1,-1,-1,-1,-1,-1,-1,-1,-1,-1,-1,-1,-1],"loss_changes":[2.4009328E-2,1.4277685E-2,2.107423E-2,4.4921488E-3,3.7249725E-3,4.6804383E-2,3.081936E-2,0E0,5.454172E-4,3.7809607E-4,3.9319484E-4,2.8037785E-2,3.520718E-2,3.212781E-2,5.703987E-2,0E0,0E0,0E0,8.36043E-7,0E0,0E0,6.778192E-3,8.3515956E-4,3.7905276E-3,3.3890307E-2,1.0319438E-2,3.635153E-2,3.57105E-2,4.0149335E-2,7.8575965E-4,0E0,8.483796E-5,0E0,2.2114324E-4,0E0,2.9937083E-2,3.0232288E-2,3.5304409E-3,3.1314422E-3,3.0903965E-2,2.0953674E-2,3.619824E-3,2.4925455E-2,4.0833917E-2,4.2220972E-2,0E0,0E0,0E0,0E0,0E0,0E0,0E0,0E0,0E0,0E0,0E0,0E0,0E0,0E0,0E0,0E0,0E0,0E0,0E0,0E0,0E0,0E0,0E0,0E0,0E0,0E0],"parents":[2147483647,0,0,1,1,2,2,3,3,4,4,5,5,6,6,8,8,9,9,10,10,11,11,12,12,13,13,14,14,21,21,22,22,23,23,24,24,25,25,26,26,27,27,28,28,29,29,31,31,33,33,35,35,36,36,37,37,38,38,39,39,40,40,41,41,42,42,43,43,44,44],"right_children":[2,4,6,8,10,12,14,-1,16,18,20,22,24,26,28,-1,-1,-1,-1,-1,-1,30,32,34,36,38,40,42,44,46,-1,48,-1,50,-1,52,54,56,58,60,62,64,66,68,70,-1,-1,-1,-1,-1,-1,-1,-1,-1,-1,-1,-1,-1,-1,-1,-1,-1,-1,-1,-1,-1,-1,-1,-1,-1,-1],"split_conditions":[-6.612557E-1,-1.4473058E-1,-2.797448E-1,3.8032714E-2,7.710471E-2,-3.692194E-1,-1.4660132E-1,-2.4347553E-2,-5.741197E-1,7.905937E-3,-1.3519965E-1,1.1062662E-1,-3.2102334E-1,-3.6130306E-1,-1.2346589E-1,-3.6339462E-4,-8.838646E-3,6.1635077E-3,5.36459E-4,-9.020151E-3,-2.865799E-3,4.770269E-2,-2.3577401E-1,-4.3375473E-2,-1.5081368E-1,-2.786895E-1,2.8528225E-1,-5.3963214E-2,-4.642322E-1,1.1418393E-1,-3.0828007E-2,-3.4806323E-1,8.8358065E-3,-1.579206E-1,-1.2929827E-2,-1.246608E-2,-2.322071E-2,-2.4798173E-2,1.3573569E-1,-9.833774E-2,1.1525603E-1,3.1494403E-1,-1.9106591E-1,1.2692775E-1,-2.4530147E-3,-1.3745878E-2,-3.8996618E-3,-7.9282525E-4,2.0665873E-3,-2.9389388E-3,8.2441577E-4,-1.1144687E-2,7.7483365E-3,5.046998E-3,1.8659215E-2,-1.5400128E-3,-2.275182E-2,-7.497938E-3,1.7808102E-3,-3.011663E-4,9.581085E-3,2.52994E-3,-1.4675536E-2,-5.3097056E-3,9.268763E-3,-5.648805E-3,-4.0524073E-2,1.2442253E-3,2.8207088E-2,-5.8434964E-3,1.1100675E-3],"split_indices":[13,8,19,1,15,23,22,0,0,2,4,20,45,51,22,0,0,0,0,0,0,14,0,31,30,52,52,44,59,2,0,0,0,2,0,34,12,2,35,25,25,0,21,33,43,0,0,0,0,0,0,0,0,0,0,0,0,0,0,0,0,0,0,0,0,0,0,0,0,0,0],"split_type":[0,0,0,0,0,0,0,0,0,0,0,0,0,0,0,0,0,0,0,0,0,0,0,0,0,0,0,0,0,0,0,0,0,0,0,0,0,0,0,0,0,0,0,0,0,0,0,0,0,0,0,0,0,0,0,0,0,0,0,0,0,0,0,0,0,0,0,0,0,0,0],"sum_hessian":[6.51E2,1.8E1,6.33E2,8E0,1E1,1.15E2,5.18E2,5E0,3E0,4E0,6E0,1.5E1,1E2,1.67E2,3.51E2,1E0,2E0,2E0,2E0,3E0,3E0,1E1,5E0,1.1E1,8.9E1,1.7E1,1.5E2,1.6E1,3.35E2,7E0,3E0,2E0,3E0,4E0,7E0,2.9E1,6E1,5E0,1.2E1,1.26E2,2.4E1,7E0,9E0,2.1E1,3.14E2,5E0,2E0,1E0,1E0,2E0,2E0,1.2E1,1.7E1,2.9E1,3.1E1,1E0,4E0,7E0,5E0,4.3E1,8.3E1,1.2E1,1.2E1,6E0,1E0,3E0,6E0,1.4E1,7E0,1.47E2,1.67E2],"tree_param":{"num_deleted":"0","num_feature":"60","num_nodes":"71","size_leaf_vector":"0"}},{"base_weights":[-3.2502064E-4,4.8185736E-3,-5.911273E-3,1.0567074E-2,-8.888938E-3,3.5206318E-2,-9.1408035E-3,4.0451656E-3,3.006538E-2,9.157686E-3,-2.7479649E-2,5.377543E-2,-1.4919571E-2,-1.800297E-2,1.1175606E-2,1.0054579E-2,-2.2232434E-2,-1.6481303E-2,4.4590052E-2,-1.2586576E-2,2.552303E-2,-9.779747E-4,-7.066775E-2,7.585981E-2,6.4410147E-4,7.752955E-4,-3.610449E-2,-2.5071567E-2,1.43878115E-2,3.8797844E-2,-2.8217717E-3,-2.1054983E-2,1.5947178E-2,-1.7752214E-3,-5.5142146E-2,7.2704345E-2,-4.483641E-2,1.5676823E-2,6.4355776E-2,-2.74019E-2,1.3504139E-2,3.5009243E-2,-2.8909873E-2,8.587647E-2,-1.2924175E-2,-1.23903E-3,-8.9099474E-2,9.362918E-2,4.2485572E-2,-9.194273E-3,7.861856E-3,-3.4876913E-3,4.7798506E-3,1.7564178E-2,-3.132441E-2,5.217233E-3,1.16581954E-1,-1.234824E-4,5.2956663E-2,3.8192246E-2,-1.3870948E-2,3.4793217E-2,-2.7713602E-2,-3.8477987E-2,1.999743E-2,-2.6356962E-2,3.0358562E-2,-2.4367759E-2,-8.69843E-2,7.104691E-3,9.220266E-2,-2.8387189E-2,-6.218788E-2,-2.98129E-3,4.4036653E-2,9.135857E-2,3.6662966E-2,1.7523996E-3,-3.816277E-2,1.6479875E-3,3.6667112E-2,5.3480748E-2,1.2423832E-2,-3.93775E-3,-3.4168467E-2,2.3835804E-2,9.861142E-2,1.9769434E-2,-3.4001905E-2,2.3250751E-2,-1.3174163E-2,-1.13493614E-1,-4.5007076E-2,2.2562928E-3,8.97828E-3,-4.750062E-3,-4.8147514E-4,-9.894848E-3,3.3961825E-2,-1.810307E-2,-5.4182548E-2,2.5677923E-2,-3.1383775E-2,-2.5914153E-2,2.5691884E-2,6.960852E-2,2.1169705E-2,-1.1360413E-2,7.058271E-2,-2.1417126E-2,2.6537087E-2],"categories":[],"categories_nodes":[],"categories_segments":[],"categories_sizes":[],"default_left":[1,1,1,1,1,1,1,1,1,1,1,1,1,1,1,1,1,1,1,1,1,1,1,1,1,1,0,1,1,1,1,1,1,1,1,1,1,1,1,1,1,1,1,1,1,1,1,0,0,0,1,1,0,1,1,1,0,1,1,1,1,0,0,0,0,0,0,0,0,0,0,0,0,0,0,0,0,0,0,0,0,0,0,0,0,0,0,0,0,0,0,0,0,0,0,0,0,0,0,0,0,0,0,0,0,0,0,0,0,0,0],"id":30,"left_children":[1,3,5,7,9,11,13,15,17,19,21,23,25,27,29,31,33,35,37,39,41,43,45,47,49,51,-1,53,55,57,59,61,63,65,67,69,71,73,75,77,79,81,83,85,87,89,91,-1,-1,-1,93,95,-1,97,99,101,-1,103,105,107,109,-1,-1,-1,-1,-1,-1,-1,-1,-1,-1,-1,-1,-1,-1,-1,-1,-1,-1,-1,-1,-1,-1,-1,-1,-1,-1,-1,-1,-1,-1,-1,-1,-1,-1,-1,-1,-1,-1,-1,-1,-1,-1,-1,-1,-1,-1,-1,-1,-1,-1],"loss_changes":[1.876267E-2,2.6885126E-2,4.1885242E-2,3.0398263E-2,3.4137107E-2,2.221055E-2,5.2594982E-2,2.8805785E-2,4.1299414E-2,1.882557E-2,5.715874E-2,1.989847E-2,2.3554529E-3,4.683908E-2,3.452034E-2,2.7466565E-2,2.2792304E-2,4.119283E-2,2.5279686E-2,9.260514E-3,1.6502975E-2,3.431246E-2,2.4203725E-2,3.1385794E-3,4.983499E-4,1.0202747E-4,0E0,4.5071475E-2,3.4067404E-2,1.6538944E-2,2.7720029E-2,9.8891705E-3,2.8323904E-2,1.8178053E-2,1.0619383E-2,4.4612605E-3,1.6596802E-3,1.07141035E-2,1.6840667E-2,4.772761E-3,2.4111865E-3,1.0182414E-2,5.22044E-4,8.098576E-4,2.06563E-2,1.7677532E-3,1.10259205E-2,0E0,0E0,0E0,4.7750946E-6,9.097836E-6,0E0,1.0241842E-2,4.3142542E-2,2.7016737E-2,0E0,6.6579436E-3,1.0171272E-2,2.1667285E-2,1.5204809E-2,0E0,0E0,0E0,0E0,0E0,0E0,0E0,0E0,0E0,0E0,0E0,0E0,0E0,0E0,0E0,0E0,0E0,0E0,0E0,0E0,0E0,0E0,0E0,0E0,0E0,0E0,0E0,0E0,0E0,0E0,0E0,0E0,0E0,0E0,0E0,0E0,0E0,0E0,0E0,0E0,0E0,0E0,0E0,0E0,0E0,0E0,0E0,0E0,0E0,0E0],"parents":[2147483647,0,0,1,1,2,2,3,3,4,4,5,5,6,6,7,7,8,8,9,9,10,10,11,11,12,12,13,13,14,14,15,15,16,16,17,17,18,18,19,19,20,20,21,21,22,22,23,23,24,24,25,25,27,27,28,28,29,29,30,30,31,31,32,32,33,33,34,34,35,35,36,36,37,37,38,38,39,39,40,40,41,41,42,42,43,43,44,44,45,45,46,46,50,50,51,51,53,53,54,54,55,55,57,57,58,58,59,59,60,60],"right_children":[2,4,6,8,10,12,14,16,18,20,22,24,26,28,30,32,34,36,38,40,42,44,46,48,50,52,-1,54,56,58,60,62,64,66,68,70,72,74,76,78,80,82,84,86,88,90,92,-1,-1,-1,94,96,-1,98,100,102,-1,104,106,108,110,-1,-1,-1,-1,-1,-1,-1,-1,-1,-1,-1,-1,-1,-1,-1,-1,-1,-1,-1,-1,-1,-1,-1,-1,-1,-1,-1,-1,-1,-1,-1,-1,-1,-1,-1,-1,-1,-1,-1,-1,-1,-1,-1,-1,-1,-1,-1,-1,-1,-1],"split_conditions":[1.8357003E-2,1.5323216E-1,-4.6862102E-1,1.7630312E-1,-3.1054323E-3,2.4512169E-1,1.427944E-1,1.8471171E-1,-2.2315222E-1,-2.822444E-2,1.2904271E-1,9.39032E-2,1.4056125E-1,2.3173797E-1,-1.9720641E-1,-3.6275867E-1,3.8241215E-2,-1.0392776E-1,-5.1994245E-2,1.748898E-1,2.6841626E-1,-2.5621685E-1,-2.4117354E-1,1.121513E-1,-1.6640334E-1,-1.2634058E-2,-1.0831347E-2,-3.3460444E-1,5.444804E-1,-4.1866648E-1,-1.891269E-1,-4.5869404E-1,-4.7813642E-1,5.189316E-2,1.629208E-1,2.7481028E-1,3.7360483E-1,5.538377E-2,-7.1252044E-3,-1.6643147E-1,-1.8641841E-1,6.281666E-2,-2.6614642E-1,2.041691E-1,-9.443584E-2,-7.035664E-1,3.0153465E-1,2.8088756E-2,1.2745672E-2,-2.7582818E-3,-1.5030265E-1,-9.70284E-2,1.4339553E-3,-6.377962E-2,-2.9633265E-2,1.2578502E-1,3.4974586E-2,-5.556582E-2,3.0878055E-1,-1.3204469E-1,2.769944E-1,1.0437965E-2,-8.3140815E-3,-1.1543397E-2,5.999229E-3,-7.907089E-3,9.107569E-3,-7.310328E-3,-2.6095292E-2,2.1314074E-3,2.76608E-2,-8.516157E-3,-1.8656366E-2,-8.94387E-4,1.3210996E-2,2.7407574E-2,1.099889E-2,5.257199E-4,-1.1448832E-2,4.9439626E-4,1.1000134E-2,1.6044226E-2,3.7271497E-3,-1.1813251E-3,-1.025054E-2,7.1507418E-3,2.9583428E-2,5.9308303E-3,-1.0200572E-2,6.9752256E-3,-3.952249E-3,-3.4048084E-2,-1.3502124E-2,6.7688787E-4,2.693484E-3,-1.4250185E-3,-1.4444254E-4,-2.9684545E-3,1.0188548E-2,-5.4309214E-3,-1.6254766E-2,7.7033774E-3,-9.415133E-3,-7.7742464E-3,7.7075656E-3,2.0882556E-2,6.3509117E-3,-3.4081242E-3,2.1174815E-2,-6.425138E-3,7.961126E-3],"split_indices":[15,0,24,59,47,53,40,49,47,11,50,50,8,39,29,39,58,23,56,17,16,22,59,51,7,0,0,37,12,28,36,18,54,11,1,4,59,22,8,17,15,43,1,0,51,1,50,0,0,0,0,0,0,36,40,38,0,19,40,0,57,0,0,0,0,0,0,0,0,0,0,0,0,0,0,0,0,0,0,0,0,0,0,0,0,0,0,0,0,0,0,0,0,0,0,0,0,0,0,0,0,0,0,0,0,0,0,0,0,0,0],"split_type":[0,0,0,0,0,0,0,0,0,0,0,0,0,0,0,0,0,0,0,0,0,0,0,0,0,0,0,0,0,0,0,0,0,0,0,0,0,0,0,0,0,0,0,0,0,0,0,0,0,0,0,0,0,0,0,0,0,0,0,0,0,0,0,0,0,0,0,0,0,0,0,0,0,0,0,0,0,0,0,0,0,0,0,0,0,0,0,0,0,0,0,0,0,0,0,0,0,0,0,0,0,0,0,0,0,0,0,0,0,0,0],"sum_hessian":[6.51E2,3.39E2,3.12E2,2.39E2,1E2,2.2E1,2.9E2,1.8E2,5.9E1,5.1E1,4.9E1,1.6E1,6E0,2.02E2,8.8E1,1.47E2,3.3E1,1.4E1,4.5E1,2.2E1,2.9E1,3.1E1,1.8E1,1.1E1,5E0,4E0,2E0,1.66E2,3.6E1,2.9E1,5.9E1,2.3E1,1.24E2,2.1E1,1.2E1,3E0,1.1E1,1.9E1,2.6E1,1.4E1,8E0,2.5E1,4E0,3E0,2.8E1,4E0,1.4E1,6E0,5E0,2E0,3E0,2E0,2E0,2.1E1,1.45E2,3.4E1,2E0,8E0,2.1E1,1.2E1,4.7E1,2E0,2.1E1,8E0,1.16E2,1.2E1,9E0,7E0,5E0,1E0,2E0,7E0,4E0,1.2E1,7E0,1.2E1,1.4E1,4E0,1E1,6E0,2E0,1.3E1,1.2E1,1E0,3E0,1E0,2E0,1.1E1,1.7E1,1E0,3E0,8E0,6E0,1E0,2E0,1E0,1E0,8E0,1.3E1,9.3E1,5.2E1,2.2E1,1.2E1,4E0,4E0,1.3E1,8E0,5E0,7E0,4E1,7E0],"tree_param":{"num_deleted":"0","num_feature":"60","num_nodes":"111","size_leaf_vector":"0"}},{"base_weights":[-5.8324913E-5,-3.104442E-2,6.702797E-4,-1.1030935E-1,-2.0357445E-3,3.8590536E-2,6.634835E-5,4.4363625E-2,-1.575198E-2,7.9309314E-2,9.809731E-3,9.242899E-3,-2.483862E-3,5.3381428E-2,1.3164009E-2,-3.2296434E-2,6.603923E-4,-4.056254E-3,2.9649794E-2,1.6243044E-2,-6.9775055E-3,-1.1726263E-1,-2.0122332E-3,-7.388279E-3,-3.66764E-2,6.318881E-3,-3.7485724E-3,-6.1185844E-3,2.0965338E-3,-6.3163736E-3,2.1891685E-2,1.3091559E-2,-3.4463566E-2,-2.9413767E-2,-1.692466E-4,-4.471944E-3,-7.892288E-4,6.2436806E-3,-2.5936915E-2,3.5802156E-2,8.129446E-3,2.4765106E-2,-2.0464005E-2,-5.232852E-2,9.987757E-3,-1.03174016E-1,-1.4665063E-2,1.9321147E-2,-2.7962131E-3],"categories":[],"categories_nodes":[],"categories_segments":[],"categories_sizes":[],"default_left":[1,1,1,0,1,1,1,1,1,0,1,1,1,0,0,1,1,1,0,1,1,0,1,0,0,0,1,0,0,1,1,1,1,1,1,0,0,0,0,0,0,0,0,0,0,0,0,0,0],"id":31,"left_children":[1,3,5,-1,7,9,11,13,15,-1,17,19,21,-1,-1,23,25,27,-1,29,31,-1,33,-1,-1,-1,35,-1,-1,37,39,41,43,45,47,-1,-1,-1,-1,-1,-1,-1,-1,-1,-1,-1,-1,-1,-1],"loss_changes":[1.474076E-2,3.4265995E-2,1.4608425E-2,0E0,8.335912E-3,1.094119E-2,1.47429E-2,1.4134217E-4,2.7366655E-3,0E0,2.0459814E-3,1.566903E-2,2.6451599E-2,0E0,0E0,2.745092E-4,1.7337526E-4,7.627323E-5,0E0,1.2371562E-2,2.3619201E-2,0E0,2.4841346E-2,0E0,0E0,0E0,5.0334347E-6,0E0,0E0,5.090643E-3,1.4449768E-2,1.0299604E-2,1.4816817E-2,3.221086E-2,2.3708709E-2,0E0,0E0,0E0,0E0,0E0,0E0,0E0,0E0,0E0,0E0,0E0,0E0,0E0,0E0],"parents":[2147483647,0,0,1,1,2,2,4,4,5,5,6,6,7,7,8,8,10,10,11,11,12,12,15,15,16,16,17,17,19,19,20,20,22,22,26,26,29,29,30,30,31,31,32,32,33,33,34,34],"right_children":[2,4,6,-1,8,10,12,14,16,-1,18,20,22,-1,-1,24,26,28,-1,30,32,-1,34,-1,-1,-1,36,-1,-1,38,40,42,44,46,48,-1,-1,-1,-1,-1,-1,-1,-1,-1,-1,-1,-1,-1,-1],"split_conditions":[-8.6506283E-1,-4.2391545E-1,-6.965536E-1,-3.3092804E-2,-2.8289303E-1,1.2508714E-1,-2.1801066E-1,-3.3391863E-3,8.9023605E-2,2.3792796E-2,1.5195963E-1,1.4961107E-1,-1.4093468E0,1.6014429E-2,3.949203E-3,-1.2856587E0,4.023753E-2,6.2959474E-1,8.894939E-3,-2.1701762E-1,4.0315606E-2,-3.517879E-2,-4.462618E-1,-2.2164837E-3,-1.1002921E-2,1.8956644E-3,2.6755032E-1,-1.8355754E-3,6.2896014E-4,7.132576E-2,1.0213385E-2,1.174484E-1,1.7711101E-1,-1.9404599E-1,-3.534996E-1,-1.3415833E-3,-2.3676865E-4,1.8731043E-3,-7.781075E-3,1.0740647E-2,2.438834E-3,7.4295322E-3,-6.1392016E-3,-1.5698556E-2,2.9963271E-3,-3.0952206E-2,-4.399519E-3,5.7963445E-3,-8.3886395E-4],"split_indices":[57,59,57,0,32,48,59,0,19,0,7,37,7,0,0,0,0,1,0,23,6,0,45,0,0,0,1,0,0,52,43,12,25,17,35,0,0,0,0,0,0,0,0,0,0,0,0,0,0],"split_type":[0,0,0,0,0,0,0,0,0,0,0,0,0,0,0,0,0,0,0,0,0,0,0,0,0,0,0,0,0,0,0,0,0,0,0,0,0,0,0,0,0,0,0,0,0,0,0,0,0],"sum_hessian":[6.51E2,1.4E1,6.37E2,3E0,1.1E1,9E0,6.28E2,2E0,9E0,3E0,6E0,1.36E2,4.92E2,1E0,1E0,4E0,5E0,4E0,2E0,9.5E1,4.1E1,1E0,4.91E2,1E0,3E0,2E0,3E0,3E0,1E0,1.9E1,7.6E1,2.4E1,1.7E1,3E1,4.61E2,2E0,1E0,1.2E1,7E0,3.7E1,3.9E1,1.8E1,6E0,1.2E1,5E0,4E0,2.6E1,5.4E1,4.07E2],"tree_param":{"num_deleted":"0","num_feature":"60","num_nodes":"49","size_leaf_vector":"0"}},{"base_weights":[-1.3939038E-4,-9.961586E-4,2.565189E-2,-3.7807383E-2,-2.832265E-4,5.3782918E-2,-4.811126E-3,-6.4153075E-3,-5.9313823E-2,-5.1895618E-3,5.1562814E-3,2.5738435E-2,8.2288615E-2,-1.3568223E-2,8.411036E-3,9.019807E-3,-1.6387817E-2,-6.30735E-4,-2.4283204E-2,9.628936E-3,-1.4535828E-2,3.4291644E-2,2.9036105E-3,-1.1583734E-3,-1.8300489E-2,1.2545981E-2,-4.0643737E-3,1.0177493E-5,1.3519533E-2,-1.9246358E-2,8.2669E-3,1.0839408E-2,-3.969614E-2,-5.302234E-3,1.8251453E-2,-5.7999366E-3,-5.326734E-2,5.2586943E-3,-9.032786E-4,-1.1571225E-2,-7.052488E-2,-7.876769E-2,1.0692502E-2,3.3256568E-2,-2.69434E-2,3.7886683E-2,-4.6296995E-2,-1.7488977E-2,2.332988E-2,-3.865573E-2,2.043518E-2,-1.9703211E-2,1.9076426E-2,-8.30086E-2,-2.8662715E-2],"categories":[],"categories_nodes":[],"categories_segments":[],"categories_sizes":[],"default_left":[1,1,1,1,1,1,1,1,0,1,1,1,0,1,1,1,0,1,1,1,1,0,1,0,0,0,0,0,0,1,1,1,1,1,1,1,1,0,0,0,0,0,0,0,0,0,0,0,0,0,0,0,0,0,0],"id":32,"left_children":[1,3,5,7,9,11,13,15,-1,17,19,21,-1,23,25,27,-1,29,31,33,35,-1,37,-1,-1,-1,-1,-1,-1,39,41,43,45,47,49,51,53,-1,-1,-1,-1,-1,-1,-1,-1,-1,-1,-1,-1,-1,-1,-1,-1,-1,-1],"loss_changes":[1.4432896E-2,1.6575439E-2,1.8254831E-2,7.7210646E-3,1.6600037E-2,6.675724E-3,1.3877881E-3,1.0713759E-3,0E0,2.8448272E-2,2.6122384E-2,1.2676073E-3,0E0,3.8988818E-4,3.0891725E-4,1.21485005E-4,0E0,4.4052385E-2,3.4534853E-2,3.1124141E-2,1.8300537E-2,0E0,3.164669E-5,0E0,0E0,0E0,0E0,0E0,0E0,3.3030916E-2,3.8842257E-2,1.7835708E-2,2.4287023E-2,3.1462986E-2,1.9803215E-2,1.628556E-2,4.93847E-3,0E0,0E0,0E0,0E0,0E0,0E0,0E0,0E0,0E0,0E0,0E0,0E0,0E0,0E0,0E0,0E0,0E0,0E0],"parents":[2147483647,0,0,1,1,2,2,3,3,4,4,5,5,6,6,7,7,9,9,10,10,11,11,13,13,14,14,15,15,17,17,18,18,19,19,20,20,22,22,29,29,30,30,31,31,32,32,33,33,34,34,35,35,36,36],"right_children":[2,4,6,8,10,12,14,16,-1,18,20,22,-1,24,26,28,-1,30,32,34,36,-1,38,-1,-1,-1,-1,-1,-1,40,42,44,46,48,50,52,54,-1,-1,-1,-1,-1,-1,-1,-1,-1,-1,-1,-1,-1,-1,-1,-1,-1,-1],"split_conditions":[6.3879466E-1,-9.257548E-1,-5.5737536E-2,-1.3519965E-1,1.6566835E-2,1.7660737E-1,-3.451922E-2,1.1132052E-1,-1.7794147E-2,-6.004645E-2,2.7411157E-1,4.1712604E-2,2.4686586E-2,-1.3019304E-1,8.399367E-3,-2.2803493E-2,-4.9163452E-3,-1.0981375E-1,-1.638588E-1,-1.1223141E-1,3.3341056E-1,1.02874935E-2,1.442462E-1,-3.4751205E-4,-5.4901466E-3,3.7637947E-3,-1.2193122E-3,3.053248E-6,4.05586E-3,-1.3255472E-1,-8.300798E-1,7.424697E-2,-5.2992713E-1,1.2156662E-1,-6.5439546E-1,3.2363035E-2,-9.625143E-2,1.5776084E-3,-2.7098358E-4,-3.4713675E-3,-2.1157464E-2,-2.3630308E-2,3.2077509E-3,9.976971E-3,-8.08302E-3,1.1366005E-2,-1.38890995E-2,-5.2466933E-3,6.998964E-3,-1.159672E-2,6.1305542E-3,-5.9109638E-3,5.722928E-3,-2.4902582E-2,-8.598815E-3],"split_indices":[10,40,53,31,4,29,25,3,0,4,7,5,0,2,1,0,0,56,0,24,6,0,0,0,0,0,0,0,0,56,58,17,45,19,8,3,41,0,0,0,0,0,0,0,0,0,0,0,0,0,0,0,0,0,0],"split_type":[0,0,0,0,0,0,0,0,0,0,0,0,0,0,0,0,0,0,0,0,0,0,0,0,0,0,0,0,0,0,0,0,0,0,0,0,0,0,0,0,0,0,0,0,0,0,0,0,0,0,0,0,0,0,0],"sum_hessian":[6.51E2,6.31E2,2E1,1.1E1,6.2E2,1E1,1E1,5E0,6E0,3.26E2,2.94E2,6E0,4E0,6E0,4E0,2E0,3E0,2.64E2,6.2E1,2.4E2,5.4E1,4E0,2E0,2E0,4E0,3E0,1E0,1E0,1E0,8.5E1,1.79E2,1.9E1,4.3E1,8.8E1,1.52E2,4.5E1,9E0,1E0,1E0,7.5E1,1E1,4E0,1.75E2,1.2E1,7E0,3E0,4E1,6.2E1,2.6E1,5E0,1.47E2,2.9E1,1.6E1,3E0,6E0],"tree_param":{"num_deleted":"0","num_feature":"60","num_nodes":"55","size_leaf_vector":"0"}},{"base_weights":[-2.0301489E-4,2.3498788E-2,-1.1070535E-3,-1.0786079E-2,5.8682494E-2,-1.5991436E-3,4.2847127E-2,3.834684E-2,-2.9360639E-2,2.865397E-2,1.1157605E-1,-2.3083221E-3,2.9414995E-2,1.0679364E-2,8.217769E-2,-4.8756175E-2,-1.4083098E-2,-4.485983E-3,3.8763385E-2,-3.7512935E-3,1.2927271E-2,5.329011E-3,6.064147E-2,-1.5026979E-2,2.0862695E-2,-5.57763E-2,-1.3847895E-2,1.189137E-2,4.7133915E-2,-5.071664E-3,1.6747113E-2,6.4188563E-3,5.4779876E-2,1.643484E-2,-1.2661987E-2,6.8208985E-2,1.1401959E-2,-2.3691412E-3,-1.4794189E-2,2.549656E-2,-1.4875658E-2,1.5454248E-2,-2.4556447E-2,8.650124E-6,1.9718349E-2,-3.4547187E-3,-1.4579504E-2],"categories":[],"categories_nodes":[],"categories_segments":[],"categories_sizes":[],"default_left":[1,1,1,1,1,1,1,0,1,1,0,1,1,1,0,1,0,0,1,1,1,1,1,0,0,0,0,0,0,1,1,1,0,1,1,0,0,0,0,0,0,0,0,0,0,0,0],"id":33,"left_children":[1,3,5,7,9,11,13,-1,15,17,-1,19,21,23,-1,25,-1,-1,27,29,31,33,35,-1,-1,-1,-1,-1,-1,37,39,41,-1,43,45,-1,-1,-1,-1,-1,-1,-1,-1,-1,-1,-1,-1],"loss_changes":[1.3996642E-2,2.95834E-2,1.3673426E-2,1.2989977E-2,1.5862692E-2,1.3770507E-2,7.978629E-3,0E0,2.276523E-3,3.1891214E-3,0E0,1.3459057E-2,1.0206528E-2,1.6223844E-3,0E0,2.0785723E-4,0E0,0E0,1.0140436E-3,1.518748E-2,1.4085264E-2,2.0063424E-3,1.458006E-3,0E0,0E0,0E0,0E0,0E0,0E0,1.3759507E-2,9.786458E-3,1.3533579E-2,0E0,3.234425E-4,2.025225E-5,0E0,0E0,0E0,0E0,0E0,0E0,0E0,0E0,0E0,0E0,0E0,0E0],"parents":[2147483647,0,0,1,1,2,2,3,3,4,4,5,5,6,6,8,8,9,9,11,11,12,12,13,13,15,15,18,18,19,19,20,20,21,21,22,22,29,29,30,30,31,31,33,33,34,34],"right_children":[2,4,6,8,10,12,14,-1,16,18,-1,20,22,24,-1,26,-1,-1,28,30,32,34,36,-1,-1,-1,-1,-1,-1,38,40,42,-1,44,46,-1,-1,-1,-1,-1,-1,-1,-1,-1,-1,-1,-1],"split_conditions":[-6.454333E-1,-1.1503433E-1,8.322429E-1,-3.3275488E-1,3.3256036E-1,7.4197114E-1,2.8081775E-1,1.1504052E-2,-4.4268748E-1,-2.462176E-1,3.3472817E-2,4.0599817E-1,1.3937157E-1,-2.4561399E-1,2.4653308E-2,1.0372904E-1,-4.2249295E-3,-1.3457949E-3,-1.2527137E-1,4.9699104E-1,4.637305E-1,1.6416136E-2,3.5283646E-1,-4.508094E-3,6.2588085E-3,-1.6732892E-2,-4.154369E-3,3.567411E-3,1.4140175E-2,1.995582E-1,1.000274E-1,2.7467006E-1,1.6433964E-2,-3.992929E-1,-1.4994809E-1,2.0462696E-2,3.4205879E-3,-7.107424E-4,-4.438257E-3,7.648968E-3,-4.4626975E-3,4.6362747E-3,-7.3669343E-3,2.5950374E-6,5.915505E-3,-1.0364157E-3,-4.373851E-3],"split_indices":[30,31,33,41,6,22,8,0,31,5,0,45,8,0,0,0,0,0,17,10,44,7,0,0,0,0,0,0,0,33,5,55,0,3,0,0,0,0,0,0,0,0,0,0,0,0,0],"split_type":[0,0,0,0,0,0,0,0,0,0,0,0,0,0,0,0,0,0,0,0,0,0,0,0,0,0,0,0,0,0,0,0,0,0,0,0,0,0,0,0,0,0,0,0,0,0,0],"sum_hessian":[6.51E2,2.3E1,6.28E2,1.2E1,1.1E1,6.22E2,6E0,3E0,9E0,8E0,3E0,6.09E2,1.3E1,4E0,2E0,3E0,6E0,2E0,6E0,5.57E2,5.2E1,8E0,5E0,1E0,3E0,2E0,1E0,2E0,4E0,5.24E2,3.3E1,4.6E1,6E0,5E0,3E0,4E0,1E0,4.11E2,1.13E2,2.6E1,7E0,3.6E1,1E1,1E0,4E0,1E0,2E0],"tree_param":{"num_deleted":"0","num_feature":"60","num_nodes":"47","size_leaf_vector":"0"}},{"base_weights":[9.365416E-6,-3.3004426E-3,5.242226E-3,-7.534068E-3,7.5188903E-3,1.0118032E-2,-1.579232E-2,1.3109474E-4,-1.7252354E-2,1.466145E-2,-1.6945112E-2,5.2720252E-3,4.2050004E-2,7.342467E-3,-3.9233044E-2,-3.0192284E-2,5.1118564E-3,-2.4973275E-2,2.2032184E-3,2.153966E-2,-1.7636724E-2,-5.4299597E-2,-5.465493E-3,1.8151885E-2,-3.4826216E-3,2.3175534E-2,7.181905E-2,4.8604287E-2,-4.9343065E-4,-7.668643E-2,-7.003021E-3,-9.848802E-2,-1.5023522E-2,7.0973327E-3,-8.792401E-2,-1.0526995E-2,-4.5772523E-2,3.9357886E-2,-7.7781333E-3,-6.6008815E-3,2.9554563E-2,-5.4888837E-3,-3.2471247E-2,-6.063238E-2,-1.1317834E-2,3.0992307E-2,-1.3263588E-2,2.9034074E-2,-2.2430545E-2,-5.9280157E-2,9.7146654E-4,5.8288895E-2,1.2266937E-2,1.5557009E-2,8.393993E-2,1.428538E-2,-1.1823791E-2,-1.3522693E-2,-1.270691E-1,5.2495925E-3,-1.4393317E-2,6.1198655E-3,-3.2879006E-2,1.1888843E-2,-2.016436E-2,5.0873416E-3,-2.4701482E-2,-7.354426E-2,-1.8489338E-2,1.2652009E-2,6.290076E-2,5.834756E-3,-2.8683696E-2,1.1365586E-2,-5.199352E-2,-2.5492314E-2,3.4190033E-2,-1.07260225E-2,5.048331E-3,-3.7588187E-2,-8.847993E-4,4.528166E-3,-2.0454891E-2,5.218292E-2,5.230712E-4,-6.476867E-2,-1.1755907E-2,-7.481043E-2,-8.459555E-3,1.0420432E-2,-2.1738432E-2,1.2329891E-2,6.94986E-2,4.0352433E-3,2.3941936E-2,2.1967396E-2,-1.0961789E-2,-4.3291277E-3,-2.7604502E-2,9.2105055E-4,-2.8273454E-2,2.3077466E-4,1.5171841E-2,-3.8177185E-3,-1.904483E-2],"categories":[],"categories_nodes":[],"categories_segments":[],"categories_sizes":[],"default_left":[1,1,1,1,1,1,1,1,1,1,1,1,1,1,1,1,1,1,1,1,1,1,1,1,1,1,1,0,1,1,1,0,1,1,0,1,1,1,1,1,1,1,1,0,0,0,1,1,1,1,1,1,1,0,0,1,1,1,0,1,1,0,0,0,0,0,0,0,0,0,0,0,0,0,0,0,0,0,0,0,0,0,0,0,0,0,0,0,0,0,0,0,0,0,0,0,0,0,0,0,0,0,0,0,0],"id":34,"left_children":[1,3,5,7,9,11,13,15,17,19,21,23,25,27,29,31,33,35,37,39,41,43,45,47,49,51,53,-1,55,57,59,-1,61,63,-1,65,67,69,71,73,75,77,79,-1,-1,-1,81,83,85,87,89,91,93,-1,-1,95,97,99,-1,101,103,-1,-1,-1,-1,-1,-1,-1,-1,-1,-1,-1,-1,-1,-1,-1,-1,-1,-1,-1,-1,-1,-1,-1,-1,-1,-1,-1,-1,-1,-1,-1,-1,-1,-1,-1,-1,-1,-1,-1,-1,-1,-1,-1,-1],"loss_changes":[1.1309789E-2,1.837865E-2,2.610756E-2,2.145603E-2,1.999356E-2,3.1655278E-2,2.631828E-2,2.4621768E-2,1.9132316E-2,1.9929409E-2,1.0852423E-2,2.035977E-2,1.3506178E-2,8.107068E-3,2.8433926E-2,2.2347484E-2,2.6484897E-2,2.6861083E-2,1.4027721E-2,1.6659778E-2,2.705088E-3,9.469371E-4,6.3813985E-3,3.2889925E-2,2.689852E-2,6.1796494E-3,5.513601E-3,0E0,3.8527907E-3,3.3287622E-2,1.3432652E-3,0E0,7.7517238E-3,1.8265937E-2,0E0,1.229855E-2,2.6675165E-2,4.234045E-3,8.704915E-3,1.4455207E-2,1.541616E-2,6.059971E-4,1.0981238E-3,0E0,0E0,0E0,2.3956494E-3,3.825252E-2,6.469692E-3,5.6812E-3,2.1899614E-2,1.2038378E-3,1.3449639E-3,0E0,0E0,2.1802932E-3,1.4180212E-3,1.3043784E-3,0E0,2.9528647E-4,3.7002494E-4,0E0,0E0,0E0,0E0,0E0,0E0,0E0,0E0,0E0,0E0,0E0,0E0,0E0,0E0,0E0,0E0,0E0,0E0,0E0,0E0,0E0,0E0,0E0,0E0,0E0,0E0,0E0,0E0,0E0,0E0,0E0,0E0,0E0,0E0,0E0,0E0,0E0,0E0,0E0,0E0,0E0,0E0,0E0,0E0],"parents":[2147483647,0,0,1,1,2,2,3,3,4,4,5,5,6,6,7,7,8,8,9,9,10,10,11,11,12,12,13,13,14,14,15,15,16,16,17,17,18,18,19,19,20,20,21,21,22,22,23,23,24,24,25,25,26,26,28,28,29,29,30,30,32,32,33,33,35,35,36,36,37,37,38,38,39,39,40,40,41,41,42,42,46,46,47,47,48,48,49,49,50,50,51,51,52,52,55,55,56,56,57,57,59,59,60,60],"right_children":[2,4,6,8,10,12,14,16,18,20,22,24,26,28,30,32,34,36,38,40,42,44,46,48,50,52,54,-1,56,58,60,-1,62,64,-1,66,68,70,72,74,76,78,80,-1,-1,-1,82,84,86,88,90,92,94,-1,-1,96,98,100,-1,102,104,-1,-1,-1,-1,-1,-1,-1,-1,-1,-1,-1,-1,-1,-1,-1,-1,-1,-1,-1,-1,-1,-1,-1,-1,-1,-1,-1,-1,-1,-1,-1,-1,-1,-1,-1,-1,-1,-1,-1,-1,-1,-1,-1,-1],"split_conditions":[9.049166E-2,1.6370574E-1,2.5633147E-1,4.54918E-2,2.21395E-1,3.1524366E-1,-2.0810269E-2,-2.8396857E-1,1.4762038E-1,3.2669127E-1,-3.8209513E-1,-2.585454E-2,6.1576348E-2,-3.856572E-1,-7.490421E-2,-2.828086E-1,6.1494046E-1,1.838823E-2,-2.7220204E-1,-2.5403246E-1,2.9187195E-2,4.6823657E-1,2.2718059E-1,1.3347347E-1,-4.4202968E-1,-4.008438E-1,-1.4351693E-1,1.4581286E-2,-4.734018E-2,-1.3717994E-1,-8.035803E-2,-2.9546406E-2,-4.0076774E-2,3.073907E-1,-2.6377205E-2,2.189286E-3,9.448918E-3,8.627949E-3,-2.3994962E-2,2.1614698E-1,-3.2236448E-1,1.7736351E-1,7.5658077E-1,-1.8189715E-2,-3.3953504E-3,9.297692E-3,-1.95196E-1,2.0685302E-2,-2.507816E-1,1.7064553E-1,7.561779E-2,-9.903441E-2,3.2144383E-1,4.667103E-3,2.518198E-2,8.9311254E-1,9.547369E-2,-2.0730454E-1,-3.812073E-2,3.2018355E-1,-1.2194264E-1,1.8359597E-3,-9.863703E-3,3.566653E-3,-6.049308E-3,1.5262025E-3,-7.410445E-3,-2.2063278E-2,-5.5468017E-3,3.7956028E-3,1.8870229E-2,1.7504268E-3,-8.6051095E-3,3.409676E-3,-1.5598056E-2,-7.6476946E-3,1.025701E-2,-3.2178068E-3,1.5144993E-3,-1.12764565E-2,-2.654398E-4,1.3584498E-3,-6.1364677E-3,1.5654877E-2,1.5692136E-4,-1.9430602E-2,-3.5267721E-3,-2.244313E-2,-2.5378666E-3,3.1261297E-3,-6.52153E-3,3.6989676E-3,2.084958E-2,1.210573E-3,7.182581E-3,6.590219E-3,-3.2885368E-3,-1.2987384E-3,-8.281351E-3,2.7631517E-4,-8.482036E-3,6.92324E-5,4.5515522E-3,-1.1453156E-3,-5.713449E-3],"split_indices":[21,1,1,16,25,4,59,50,43,4,22,55,26,40,56,42,49,23,37,47,32,0,1,1,19,7,9,0,22,50,29,0,15,53,0,9,18,1,49,59,52,16,1,0,0,0,51,0,31,5,15,0,30,0,0,2,20,23,0,2,36,0,0,0,0,0,0,0,0,0,0,0,0,0,0,0,0,0,0,0,0,0,0,0,0,0,0,0,0,0,0,0,0,0,0,0,0,0,0,0,0,0,0,0,0],"split_type":[0,0,0,0,0,0,0,0,0,0,0,0,0,0,0,0,0,0,0,0,0,0,0,0,0,0,0,0,0,0,0,0,0,0,0,0,0,0,0,0,0,0,0,0,0,0,0,0,0,0,0,0,0,0,0,0,0,0,0,0,0,0,0,0,0,0,0,0,0,0,0,0,0,0,0,0,0,0,0,0,0,0,0,0,0,0,0,0,0,0,0,0,0,0,0,0,0,0,0,0,0,0,0,0,0],"sum_hessian":[6.51E2,3.99E2,2.52E2,2.87E2,1.12E2,2.05E2,4.7E1,1.61E2,1.26E2,8.7E1,2.5E1,1.79E2,2.6E1,2.4E1,2.3E1,2.2E1,1.39E2,9E1,3.6E1,7.2E1,1.5E1,5E0,2E1,7.2E1,1.07E2,1.7E1,9E0,3E0,2.1E1,1E1,1.3E1,3E0,1.9E1,1.37E2,2E0,5.4E1,3.6E1,7E0,2.9E1,1.6E1,5.6E1,9E0,6E0,4E0,1E0,3E0,1.7E1,5.7E1,1.5E1,7E0,1E2,3E0,1.4E1,2E0,7E0,9E0,1.2E1,5E0,5E0,5E0,8E0,9E0,1E1,1.17E2,2E1,2.6E1,2.8E1,1.7E1,1.9E1,4E0,3E0,1.8E1,1.1E1,1.2E1,4E0,4E0,5.2E1,6E0,3E0,5E0,1E0,5E0,1.2E1,3.1E1,2.6E1,2E0,1.3E1,5E0,2E0,7.1E1,2.9E1,1E0,2E0,9E0,5E0,7E0,2E0,9E0,3E0,3E0,2E0,4E0,1E0,3E0,5E0],"tree_param":{"num_deleted":"0","num_feature":"60","num_nodes":"105","size_leaf_vector":"0"}},{"base_weights":[-2.0356664E-4,2.3629605E-4,-3.165557E-2,-6.633498E-3,2.445971E-3,-9.530085E-2,-1.17873E-2,7.822341E-2,-8.233093E-3,3.2000022E-3,-1.9997958E-2,-2.0994747E-2,-2.0638823E-3,6.170257E-3,-1.5994985E-2,9.259246E-3,-4.218367E-4,-4.197674E-2,-6.191538E-3,-5.5045686E-3,2.0647645E-3,2.5385642E-2,-6.444706E-3,1.1311721E-2,-2.2877032E-2,2.422704E-3,3.0507479E-2,-1.5760772E-2,2.5249263E-3,-1.8596243E-2,-5.9158485E-2,-1.5542967E-2,8.13877E-3,-9.569868E-4,4.741758E-2,-1.9800266E-2,1.404897E-2,-9.922541E-4,2.4945319E-2,4.6816625E-4,-3.3307355E-2,-1.41275795E-2,1.4333381E-2,7.5390134E-3,6.1989293E-2,-7.1257213E-3,-4.7861397E-2,6.714652E-3,-1.0854448E-2,-1.9448036E-2,-3.8535297E-3,1.1436482E-2,2.1281354E-3],"categories":[],"categories_nodes":[],"categories_segments":[],"categories_sizes":[],"default_left":[1,1,1,1,1,0,1,0,1,1,1,0,1,1,1,1,1,1,1,0,0,1,1,1,1,1,1,1,1,0,0,1,1,0,0,0,0,0,0,0,0,0,0,0,0,0,0,0,0,0,0,0,0],"id":35,"left_children":[1,3,5,7,9,-1,11,-1,13,15,17,-1,19,21,23,25,27,29,31,-1,-1,33,35,37,39,41,43,45,47,-1,-1,49,51,-1,-1,-1,-1,-1,-1,-1,-1,-1,-1,-1,-1,-1,-1,-1,-1,-1,-1,-1,-1],"loss_changes":[9.027614E-3,9.792151E-3,1.0257356E-2,2.1954678E-2,8.322626E-3,0E0,6.728922E-4,0E0,1.7427266E-2,1.0384178E-2,4.5952713E-3,0E0,8.239253E-5,1.3495678E-2,1.9239308E-2,2.5637895E-2,1.3464257E-2,1.3101809E-3,1.6005982E-3,0E0,0E0,1.281372E-2,9.584127E-3,3.5474487E-3,1.9738931E-2,2.681438E-2,3.0625485E-2,1.2964099E-2,1.4086859E-2,0E0,0E0,2.445929E-4,7.476835E-5,0E0,0E0,0E0,0E0,0E0,0E0,0E0,0E0,0E0,0E0,0E0,0E0,0E0,0E0,0E0,0E0,0E0,0E0,0E0,0E0],"parents":[2147483647,0,0,1,1,2,2,3,3,4,4,6,6,8,8,9,9,10,10,12,12,13,13,14,14,15,15,16,16,17,17,18,18,21,21,22,22,23,23,24,24,25,25,26,26,27,27,28,28,31,31,32,32],"right_children":[2,4,6,8,10,-1,12,-1,14,16,18,-1,20,22,24,26,28,30,32,-1,-1,34,36,38,40,42,44,46,48,-1,-1,50,52,-1,-1,-1,-1,-1,-1,-1,-1,-1,-1,-1,-1,-1,-1,-1,-1,-1,-1,-1,-1],"split_conditions":[8.3708084E-1,-1.830554E-1,-3.9478803E-1,-9.50284E-1,5.813105E-1,-2.8590256E-2,-1.3665959E-1,2.3467023E-2,-7.681076E-2,-7.119572E-2,-2.4746335E-1,-6.298424E-3,-9.336451E-2,-7.211856E-2,-2.4048358E-1,2.0171462E-1,-1.0539709E-2,-1.8839584E-1,1.5110555E-1,-1.6513707E-3,6.194294E-4,-3.4437194E-2,2.4947755E-1,-3.371295E-2,-1.14145875E-1,-5.6891307E-2,-6.975033E-2,1.8003812E-1,1.9274625E-1,-5.578873E-3,-1.7747546E-2,1.128214E-2,-5.856827E-4,-2.8709605E-4,1.4225275E-2,-5.94008E-3,4.2146915E-3,-2.9767625E-4,7.483596E-3,1.4044988E-4,-9.9922065E-3,-4.238274E-3,4.3000146E-3,2.261704E-3,1.8596789E-2,-2.1377164E-3,-1.435842E-2,2.0143955E-3,-3.2563347E-3,-5.834411E-3,-1.156059E-3,3.4309446E-3,6.3844066E-4],"split_indices":[23,53,26,47,59,0,8,0,11,40,47,0,0,4,5,29,40,8,36,0,0,12,49,48,34,8,1,32,29,0,0,7,6,0,0,0,0,0,0,0,0,0,0,0,0,0,0,0,0,0,0,0,0],"split_type":[0,0,0,0,0,0,0,0,0,0,0,0,0,0,0,0,0,0,0,0,0,0,0,0,0,0,0,0,0,0,0,0,0,0,0,0,0,0,0,0,0,0,0,0,0,0,0,0,0,0,0,0,0],"sum_hessian":[6.51E2,6.43E2,8E0,1.56E2,4.87E2,1E0,7E0,2E0,1.54E2,4.72E2,1.5E1,3E0,4E0,5.4E1,1E2,1.76E2,2.96E2,5E0,1E1,2E0,2E0,2.1E1,3.3E1,2E1,8E1,1.34E2,4.2E1,4.7E1,2.49E2,3E0,2E0,6E0,4E0,1E1,1.1E1,2E1,1.3E1,1.1E1,9E0,2.5E1,5.5E1,5.6E1,7.8E1,2.5E1,1.7E1,3.8E1,9E0,1.9E2,5.9E1,4E0,2E0,2E0,2E0],"tree_param":{"num_deleted":"0","num_feature":"60","num_nodes":"53","size_leaf_vector":"0"}},{"base_weights":[-1.8233233E-4,-7.511424E-4,1.8807558E-2,-2.373405E-3,6.998303E-3,3.295247E-3,5.1868357E-2,-1.3200354E-3,-2.102357E-2,2.4545943E-2,-1.1749301E-3,1.1273905E-2,-1.9469876E-2,6.622941E-2,2.8130477E-2,1.6347269E-3,-8.6667165E-3,-3.5038892E-2,5.834382E-4,4.4083465E-2,7.6886276E-3,3.757126E-3,-3.4102213E-2,1.962373E-3,1.8706452E-2,-1.2817997E-3,-2.51053E-2,-3.8918017E-3,9.4280355E-3,-2.04911E-3,-2.350976E-2,-6.0221767E-3,-5.0318725E-2,-1.7012592E-2,1.5582402E-2,6.605597E-2,6.396535E-3,1.3525384E-2,-8.1847E-3,-1.4833728E-2,9.880409E-3,-7.189412E-2,-1.5667472E-2,4.463993E-3,-5.2728634E-3,2.4113705E-2,-8.002495E-3,4.9053063E-3,3.0461408E-2,2.0223215E-2,-6.2174406E-3,-5.392825E-2,-5.9164637E-3,-1.1751799E-2,5.534587E-3,-5.7713732E-2,-1.1360792E-2,-2.1298481E-2,-5.62721E-3,2.2608165E-2,4.6610385E-3,1.7259827E-2,7.609753E-2,1.8049886E-2,-1.8747828E-3,1.9006891E-2,2.1353078E-3,1.1072481E-2,-1.4250632E-2,-2.7164161E-2,6.6617704E-3,1.9113991E-2,-5.3873463E-3,-1.8767452E-2,-4.245023E-3],"categories":[],"categories_nodes":[],"categories_segments":[],"categories_sizes":[],"default_left":[1,1,1,1,1,1,1,1,1,1,1,1,1,0,0,1,1,1,1,1,1,1,1,1,0,0,0,1,1,1,1,1,1,1,1,1,1,1,1,1,1,0,1,0,0,0,0,0,0,0,0,0,0,0,0,0,0,0,0,0,0,0,0,0,0,0,0,0,0,0,0,0,0,0,0],"id":36,"left_children":[1,3,5,7,9,11,13,15,17,19,21,23,25,-1,-1,27,29,31,33,35,37,39,41,43,-1,-1,-1,45,47,49,51,53,55,57,59,61,63,65,67,69,71,-1,73,-1,-1,-1,-1,-1,-1,-1,-1,-1,-1,-1,-1,-1,-1,-1,-1,-1,-1,-1,-1,-1,-1,-1,-1,-1,-1,-1,-1,-1,-1,-1,-1],"loss_changes":[7.0567974E-3,7.987026E-3,9.573219E-3,1.0286143E-2,1.5805146E-2,2.762393E-3,1.8234178E-4,1.08246E-2,8.499661E-3,1.1188313E-2,1.2470466E-2,7.245834E-4,3.778102E-4,0E0,0E0,1.5369592E-2,1.3998061E-2,7.2342698E-3,3.4321637E-3,1.2826689E-2,1.963676E-3,7.7736457E-3,5.840441E-3,1.321369E-4,0E0,0E0,0E0,2.425348E-2,1.3929558E-2,9.4095785E-3,2.322804E-2,5.2855257E-4,2.513362E-3,1.7292786E-4,4.3173868E-4,3.5864636E-3,7.085595E-4,8.9593604E-4,8.586664E-4,4.6867905E-3,7.2927545E-3,0E0,2.0360667E-4,0E0,0E0,0E0,0E0,0E0,0E0,0E0,0E0,0E0,0E0,0E0,0E0,0E0,0E0,0E0,0E0,0E0,0E0,0E0,0E0,0E0,0E0,0E0,0E0,0E0,0E0,0E0,0E0,0E0,0E0,0E0,0E0],"parents":[2147483647,0,0,1,1,2,2,3,3,4,4,5,5,6,6,7,7,8,8,9,9,10,10,11,11,12,12,15,15,16,16,17,17,18,18,19,19,20,20,21,21,22,22,23,23,27,27,28,28,29,29,30,30,31,31,32,32,33,33,34,34,35,35,36,36,37,37,38,38,39,39,40,40,42,42],"right_children":[2,4,6,8,10,12,14,16,18,20,22,24,26,-1,-1,28,30,32,34,36,38,40,42,44,-1,-1,-1,46,48,50,52,54,56,58,60,62,64,66,68,70,72,-1,74,-1,-1,-1,-1,-1,-1,-1,-1,-1,-1,-1,-1,-1,-1,-1,-1,-1,-1,-1,-1,-1,-1,-1,-1,-1,-1,-1,-1,-1,-1,-1,-1],"split_conditions":[5.908544E-1,2.3355603E-1,4.2199828E-2,2.0171462E-1,-1.4660132E-1,2.4597844E-1,1.5497142E-2,1.3755105E-1,1.5898407E-1,-4.487668E-2,3.0832598E-1,-7.1165845E-2,-5.7527818E-2,1.9868825E-2,8.439143E-3,7.576965E-2,1.4715418E-1,-3.1948518E-2,-7.0056304E-2,5.0307397E-2,2.1877423E-1,-1.6049564E-1,-1.8963745E-1,1.6715266E-1,5.6119356E-3,-3.8453995E-4,-7.5315903E-3,-3.371011E-1,2.2702332E-1,-2.2898112E-1,-1.00176804E-1,1.3748306E-1,9.745933E-2,1.40218E-1,-3.3814088E-4,-3.3408302E-1,-1.502397E-1,2.50131E-1,-3.9253014E-1,6.8150654E-2,1.4726779E-1,-2.1568235E-2,2.0272478E-2,1.339198E-3,-1.5818591E-3,7.234112E-3,-2.4007487E-3,1.471592E-3,9.138423E-3,6.066965E-3,-1.8652322E-3,-1.6178476E-2,-1.7749391E-3,-3.5255398E-3,1.6603762E-3,-1.7314121E-2,-3.4082378E-3,-6.389545E-3,-1.688163E-3,6.78245E-3,1.3983116E-3,5.177948E-3,2.282926E-2,5.414966E-3,-5.624349E-4,5.7020676E-3,6.4059236E-4,3.3217445E-3,-4.2751897E-3,-8.149249E-3,1.9985312E-3,5.734198E-3,-1.6162039E-3,-5.6302357E-3,-1.2735069E-3],"split_indices":[9,30,31,30,19,41,7,41,27,31,57,8,0,0,0,53,13,18,20,11,56,11,1,0,0,0,0,22,46,28,51,7,7,3,1,9,7,23,0,25,5,0,32,0,0,0,0,0,0,0,0,0,0,0,0,0,0,0,0,0,0,0,0,0,0,0,0,0,0,0,0,0,0,0,0],"split_type":[0,0,0,0,0,0,0,0,0,0,0,0,0,0,0,0,0,0,0,0,0,0,0,0,0,0,0,0,0,0,0,0,0,0,0,0,0,0,0,0,0,0,0,0,0,0,0,0,0,0,0,0,0,0,0,0,0,0,0,0,0,0,0,0,0,0,0,0,0,0,0,0,0,0,0],"sum_hessian":[6.51E2,6.33E2,1.8E1,5.24E2,1.09E2,1.3E1,5E0,4.97E2,2.7E1,3.4E1,7.5E1,1E1,3E0,2E0,3E0,3.55E2,1.42E2,1.6E1,1.1E1,1.5E1,1.9E1,6.6E1,9E0,5E0,5E0,1E0,2E0,2.08E2,1.47E2,9.9E1,4.3E1,6E0,1E1,5E0,6E0,9E0,6E0,1.4E1,5E0,1.6E1,5E1,2E0,7E0,4E0,1E0,2.6E1,1.82E2,1.22E2,2.5E1,1.5E1,8.4E1,1.5E1,2.8E1,4E0,2E0,8E0,2E0,3E0,2E0,3E0,3E0,2E0,7E0,2E0,4E0,9E0,5E0,1E0,4E0,1E1,6E0,3.1E1,1.9E1,5E0,2E0],"tree_param":{"num_deleted":"0","num_feature":"60","num_nodes":"75","size_leaf_vector":"0"}},{"base_weights":[-1.0813247E-4,-2.133702E-2,3.5714539E-4,-5.004943E-2,-4.8471107E-3,9.042916E-3,-8.843167E-4,-5.5439584E-2,-1.4244415E-2,-1.3338314E-2,1.9411802E-2,-2.9981756E-3,1.7132772E-2,-1.2928377E-3,3.1573534E-2,-7.755657E-4,-1.7396636E-2,1.2714355E-2,-1.0382509E-2,2.6865864E-2,2.1631496E-3,1.4512634E-3,-6.599971E-3,5.2387692E-2,-1.3641235E-2,2.3377094E-2,-1.1789713E-2,-1.6887795E-2,-2.3685544E-4,1.4554464E-2,3.9017044E-2,8.380494E-3,-2.4801351E-2,7.4898044E-4,5.2006297E-2,-3.665621E-2,-3.2217929E-3,5.7489935E-2,1.5989356E-2,-2.7991086E-3,2.7516425E-2,-4.8741684E-3,-2.5288746E-2,8.8216495E-3,-7.7461335E-3,1.6098609E-3,2.7297834E-2,5.032756E-2,1.554843E-2,-1.0459833E-2,1.3164838E-2,-2.6322454E-3,-3.131364E-2,-1.0000505E-3,2.0138256E-2,4.9804114E-3,8.169675E-2,-7.5462335E-3,-6.816215E-2,3.240043E-3,-1.5867095E-2],"categories":[],"categories_nodes":[],"categories_segments":[],"categories_sizes":[],"default_left":[1,1,1,1,1,1,1,0,0,1,0,1,1,1,1,0,0,1,1,1,1,1,1,1,0,1,0,1,1,1,1,1,1,1,1,1,1,0,0,0,0,0,0,0,0,0,0,0,0,0,0,0,0,0,0,0,0,0,0,0,0],"id":37,"left_children":[1,3,5,7,9,11,13,-1,-1,15,-1,17,19,21,23,-1,-1,25,27,29,31,33,35,37,-1,39,-1,41,43,45,47,49,51,53,55,57,59,-1,-1,-1,-1,-1,-1,-1,-1,-1,-1,-1,-1,-1,-1,-1,-1,-1,-1,-1,-1,-1,-1,-1,-1],"loss_changes":[6.44764E-3,6.385916E-3,6.8983687E-3,1.7526839E-4,2.3187944E-3,7.844223E-3,7.46626E-3,0E0,0E0,3.9437728E-4,0E0,3.9608837E-3,6.935521E-3,8.077652E-3,7.3023834E-3,0E0,0E0,3.1496948E-3,1.514009E-3,3.7704706E-3,3.5607992E-3,1.295549E-2,1.9072074E-2,9.339303E-6,0E0,9.4383676E-4,0E0,1.2897006E-3,7.485619E-4,2.5953802E-3,2.9336754E-3,1.6700584E-3,4.9506105E-4,1.2296443E-2,6.5742144E-3,1.6911242E-2,1.4024139E-2,0E0,0E0,0E0,0E0,0E0,0E0,0E0,0E0,0E0,0E0,0E0,0E0,0E0,0E0,0E0,0E0,0E0,0E0,0E0,0E0,0E0,0E0,0E0,0E0],"parents":[2147483647,0,0,1,1,2,2,3,3,4,4,5,5,6,6,9,9,11,11,12,12,13,13,14,14,17,17,18,18,19,19,20,20,21,21,22,22,23,23,25,25,27,27,28,28,29,29,30,30,31,31,32,32,33,33,34,34,35,35,36,36],"right_children":[2,4,6,8,10,12,14,-1,-1,16,-1,18,20,22,24,-1,-1,26,28,30,32,34,36,38,-1,40,-1,42,44,46,48,50,52,54,56,58,60,-1,-1,-1,-1,-1,-1,-1,-1,-1,-1,-1,-1,-1,-1,-1,-1,-1,-1,-1,-1,-1,-1,-1,-1],"split_conditions":[-9.0555274E-1,-7.356131E-2,-3.4465235E-1,3.599019E-1,1.6137851E-2,-1.2218916E-1,7.765811E-1,-1.6631875E-2,-4.2733247E-3,-2.3641123E-1,5.823541E-3,-1.2965056E-1,1.924721E-2,1.0311808E-1,4.6627693E-2,-2.3266971E-4,-5.218991E-3,1.0062748E-1,4.6628997E-2,7.846579E-2,3.7109804E-1,9.925638E-2,-3.5005593E-1,-2.0381694E-1,-4.0923706E-3,-2.5081614E-1,-3.536914E-3,-5.899116E-2,-7.985068E-2,7.314401E-3,1.9155231E-1,-5.5722636E-1,-4.0964544E-2,4.167385E-1,7.964817E-2,6.7911975E-2,1.0718815E-1,1.7246982E-2,4.7968067E-3,-8.3973265E-4,8.254928E-3,-1.4622506E-3,-7.586624E-3,2.646495E-3,-2.32384E-3,4.829583E-4,8.18935E-3,1.5098269E-2,4.664529E-3,-3.13795E-3,3.9494517E-3,-7.8967365E-4,-9.3940925E-3,-3.0001515E-4,6.041477E-3,1.4941235E-3,2.4509026E-2,-2.26387E-3,-2.0448646E-2,9.7201293E-4,-4.760129E-3],"split_indices":[49,5,29,0,19,28,48,0,0,0,0,48,50,31,0,0,0,32,30,4,58,31,18,0,0,0,0,50,40,6,45,19,1,57,1,7,54,0,0,0,0,0,0,0,0,0,0,0,0,0,0,0,0,0,0,0,0,0,0,0,0],"split_type":[0,0,0,0,0,0,0,0,0,0,0,0,0,0,0,0,0,0,0,0,0,0,0,0,0,0,0,0,0,0,0,0,0,0,0,0,0,0,0,0,0,0,0,0,0,0,0,0,0,0,0,0,0,0,0,0,0,0,0,0,0],"sum_hessian":[6.51E2,1.3E1,6.38E2,4E0,9E0,7.9E1,5.59E2,3E0,1E0,7E0,2E0,3.2E1,4.7E1,5.53E2,6E0,2E0,5E0,1E1,2.2E1,2.8E1,1.9E1,3.65E2,1.88E2,4E0,2E0,7E0,3E0,1.3E1,9E0,1.5E1,1.3E1,1.6E1,3E0,3.61E2,4E0,1.8E1,1.7E2,3E0,1E0,1E0,6E0,6E0,7E0,4E0,5E0,8E0,7E0,8E0,5E0,3E0,1.3E1,1E0,2E0,3.32E2,2.9E1,2E0,2E0,1E1,8E0,1.13E2,5.7E1],"tree_param":{"num_deleted":"0","num_feature":"60","num_nodes":"61","size_leaf_vector":"0"}},{"base_weights":[-4.9807582E-5,-3.1404357E-4,3.420514E-2,-2.5555871E-2,8.146869E-5,4.762852E-2,9.380043E-3,-4.56139E-3,-3.8791962E-2,-1.593701E-2,6.51574E-4,-6.3762683E-3,1.3490617E-3,-4.520554E-2,-1.7309869E-2,-3.4872916E-2,-4.775393E-3,6.125345E-3,-1.1159282E-3,-1.194134E-2,-4.6243593E-2,6.102639E-3,-1.0824673E-2,-3.0377673E-4,2.035795E-2,-5.144935E-4,-3.173193E-2,1.0406509E-2,-1.6700675E-3,-4.5621023E-3,-1.6174823E-2,1.1373834E-2,-7.3765134E-3,4.7639158E-2,1.264295E-2,1.7145454E-3,-9.449285E-3,-5.2954566E-2,-4.162909E-3],"categories":[],"categories_nodes":[],"categories_segments":[],"categories_sizes":[],"default_left":[1,1,1,1,1,0,0,1,1,1,1,0,0,0,0,1,1,1,1,0,0,1,1,1,1,1,1,0,0,0,0,0,0,0,0,0,0,0,0],"id":38,"left_children":[1,3,5,7,9,-1,-1,11,13,15,17,-1,-1,-1,-1,19,21,23,25,-1,-1,27,29,31,33,35,37,-1,-1,-1,-1,-1,-1,-1,-1,-1,-1,-1,-1],"loss_changes":[5.912247E-3,6.4713596E-3,1.2194258E-3,2.601903E-3,5.845872E-3,0E0,0E0,6.223573E-5,4.4160523E-5,4.483285E-3,5.985925E-3,0E0,0E0,0E0,0E0,1.53377E-3,1.053123E-3,1.3823161E-2,8.6012045E-3,0E0,0E0,2.180959E-4,2.6126567E-4,8.756129E-3,9.290002E-3,9.177561E-3,5.0453413E-3,0E0,0E0,0E0,0E0,0E0,0E0,0E0,0E0,0E0,0E0,0E0,0E0],"parents":[2147483647,0,0,1,1,2,2,3,3,4,4,7,7,8,8,9,9,10,10,15,15,16,16,17,17,18,18,21,21,22,22,23,23,24,24,25,25,26,26],"right_children":[2,4,6,8,10,-1,-1,12,14,16,18,-1,-1,-1,-1,20,22,24,26,-1,-1,28,30,32,34,36,38,-1,-1,-1,-1,-1,-1,-1,-1,-1,-1,-1,-1],"split_conditions":[9.556358E-1,-9.7118604E-1,-3.6723837E-3,-1.9513525E-2,-5.923648E-1,1.4288556E-2,2.8140128E-3,1.694327E-1,5.4432523E-2,-7.934001E-2,-2.0266594E-1,-1.9128806E-3,4.0471854E-4,-1.3561663E-2,-5.1929606E-3,4.0811105E-3,-1.0937013E-1,1.3352536E-1,7.985691E-1,-3.5824021E-3,-1.3873079E-2,1.8518594E-1,3.0014077E-2,-1.4967468E-1,1.7684373E-1,2.2666375E-1,4.158543E-2,3.1219528E-3,-5.010203E-4,-1.3686307E-3,-4.852447E-3,3.4121503E-3,-2.2129542E-3,1.42917475E-2,3.792885E-3,5.1436364E-4,-2.8347857E-3,-1.588637E-2,-1.2488727E-3],"split_indices":[35,55,1,31,13,0,0,1,2,48,9,0,0,0,0,25,26,19,38,0,0,7,17,19,19,47,13,0,0,0,0,0,0,0,0,0,0,0,0],"split_type":[0,0,0,0,0,0,0,0,0,0,0,0,0,0,0,0,0,0,0,0,0,0,0,0,0,0,0,0,0,0,0,0,0,0,0,0,0,0,0],"sum_hessian":[6.51E2,6.47E2,4E0,9E0,6.38E2,2E0,2E0,4E0,5E0,2.1E1,6.17E2,3E0,1E0,3E0,2E0,7E0,1.4E1,1.5E2,4.67E2,3E0,4E0,5E0,9E0,1.04E2,4.6E1,4.59E2,8E0,3E0,2E0,5E0,4E0,3.9E1,6.5E1,9E0,3.7E1,3.68E2,9.1E1,4E0,4E0],"tree_param":{"num_deleted":"0","num_feature":"60","num_nodes":"39","size_leaf_vector":"0"}},{"base_weights":[-7.226935E-5,-1.5192692E-3,5.806027E-3,-2.1639356E-2,-5.5240025E-4,-2.1954812E-3,1.4223408E-2,-3.5922512E-2,-1.4935776E-3,-2.5177202E-3,9.233982E-3,1.3588695E-2,-1.132127E-2,-6.0079186E-3,2.3096206E-2,-5.8804814E-2,-1.1410188E-2,-1.0076463E-2,1.6045589E-2,-3.4367022E-4,-1.45375645E-2,1.5065299E-2,-2.344904E-3,5.9020147E-2,4.7107628E-3,2.2488719E-2,-1.7411774E-2,3.131664E-3,-2.7855556E-2,2.6586771E-2,-1.8456142E-2,-7.0010915E-2,-2.0526376E-2,1.2452006E-3,-1.5836185E-2,-1.6098749E-2,-3.2433434E-3,3.6181659E-3,1.8982008E-2,3.4616597E-2,-1.3530893E-3,-3.2547496E-2,-5.155199E-4,1.7645314E-2,-1.477992E-2,-8.626625E-3,1.5222941E-2,-3.7583627E-3,1.3521558E-2,3.813658E-2,-1.108729E-2,-8.5453404E-4,-2.5325067E-2,1.4969245E-2,-6.4233057E-3,-3.803417E-3,-3.19053E-2,4.7448375E-3,3.443732E-2,2.9987395E-3,-1.1309385E-3,-4.7571138E-3,-6.484588E-4,4.680676E-2,-9.429363E-3,-1.5338997E-2,1.5167776E-3,-2.258439E-2,-1.0804526E-1,1.7069692E-2,-1.6316434E-2,2.4850674E-2,3.822813E-3,-1.8798884E-2,6.479677E-4,1.0359988E-2,-1.4820334E-2,2.2422194E-2,6.4189495E-3,-1.0375033E-2,7.5799823E-3,2.5648158E-4,1.8463902E-2,-1.3282301E-2,-3.3486336E-3,-1.4544303E-2,6.845841E-3,-3.1245356E-2,1.3567783E-2,3.677239E-3,1.8750599E-2,-1.2419602E-2,8.576516E-4,-1.0231161E-2,1.08736325E-2,4.859784E-2,2.2297092E-2],"categories":[],"categories_nodes":[],"categories_segments":[],"categories_sizes":[],"default_left":[1,1,1,1,1,1,1,1,1,1,1,1,1,1,1,1,1,1,1,1,1,1,1,0,1,1,1,1,1,1,0,0,0,1,0,0,1,0,0,1,1,1,1,1,1,1,1,1,1,0,1,1,1,1,1,0,0,1,1,0,0,0,0,0,0,0,0,0,0,0,0,0,0,0,0,0,0,0,0,0,0,0,0,0,0,0,0,0,0,0,0,0,0,0,0,0,0],"id":39,"left_children":[1,3,5,7,9,11,13,15,17,19,21,23,25,27,29,31,33,35,37,39,41,43,45,-1,47,49,51,53,55,57,-1,-1,-1,59,-1,-1,61,-1,-1,63,65,67,69,71,73,75,77,79,81,-1,83,85,87,89,91,-1,-1,93,95,-1,-1,-1,-1,-1,-1,-1,-1,-1,-1,-1,-1,-1,-1,-1,-1,-1,-1,-1,-1,-1,-1,-1,-1,-1,-1,-1,-1,-1,-1,-1,-1,-1,-1,-1,-1,-1,-1],"loss_changes":[5.5546635E-3,1.0181675E-2,8.719603E-3,6.8522347E-3,9.659169E-3,9.804726E-3,1.1447794E-2,7.1816035E-3,1.8175861E-3,1.0918072E-2,5.707019E-3,9.805403E-3,9.246123E-3,4.0808003E-3,6.872503E-3,1.5655942E-3,4.678208E-4,2.7699425E-4,7.728848E-5,1.25746345E-2,1.614553E-2,4.572861E-3,3.3316552E-3,0E0,1.6924529E-3,4.1005807E-3,4.8261844E-3,1.792768E-3,4.630806E-4,6.866919E-3,0E0,0E0,0E0,1.5891346E-5,0E0,0E0,1.6555507E-5,0E0,0E0,5.8106314E-3,1.3910909E-2,1.8621251E-2,1.0559428E-2,5.083997E-3,3.2220164E-4,2.7406847E-3,3.6313047E-4,9.789076E-4,7.164306E-4,0E0,6.481743E-6,1.4699805E-3,6.1803516E-3,2.2994308E-4,4.0358072E-4,0E0,0E0,1.2126677E-3,4.073765E-3,0E0,0E0,0E0,0E0,0E0,0E0,0E0,0E0,0E0,0E0,0E0,0E0,0E0,0E0,0E0,0E0,0E0,0E0,0E0,0E0,0E0,0E0,0E0,0E0,0E0,0E0,0E0,0E0,0E0,0E0,0E0,0E0,0E0,0E0,0E0,0E0,0E0,0E0],"parents":[2147483647,0,0,1,1,2,2,3,3,4,4,5,5,6,6,7,7,8,8,9,9,10,10,11,11,12,12,13,13,14,14,15,15,16,16,17,17,18,18,19,19,20,20,21,21,22,22,24,24,25,25,26,26,27,27,28,28,29,29,33,33,36,36,39,39,40,40,41,41,42,42,43,43,44,44,45,45,46,46,47,47,48,48,50,50,51,51,52,52,53,53,54,54,57,57,58,58],"right_children":[2,4,6,8,10,12,14,16,18,20,22,24,26,28,30,32,34,36,38,40,42,44,46,-1,48,50,52,54,56,58,-1,-1,-1,60,-1,-1,62,-1,-1,64,66,68,70,72,74,76,78,80,82,-1,84,86,88,90,92,-1,-1,94,96,-1,-1,-1,-1,-1,-1,-1,-1,-1,-1,-1,-1,-1,-1,-1,-1,-1,-1,-1,-1,-1,-1,-1,-1,-1,-1,-1,-1,-1,-1,-1,-1,-1,-1,-1,-1,-1,-1],"split_conditions":[2.3173797E-1,-5.6123316E-1,2.7632164E-2,1.7348824E-2,2.4463388E-1,-1.2290411E-1,-2.2957444E-1,-4.1396186E-2,1.7433098E-1,1.3657388E-1,6.462372E-2,-7.902957E-1,2.6114374E-1,5.289175E-2,4.736134E-1,1.13944605E-1,-2.311942E-1,1.0474924E-2,3.018907E-2,-5.8753026E-1,-9.146981E-3,4.456957E-1,2.4463494E-1,1.7706044E-2,-4.429283E-2,1.5649503E-1,-8.568674E-2,-5.1752444E-2,-2.3581438E-1,-1.7654777E-1,-5.536843E-3,-2.1003276E-2,-6.157913E-3,2.2820577E-1,-4.7508557E-3,-4.8296247E-3,-1.0311049E-1,1.0854498E-3,5.6946026E-3,2.340467E-1,-2.6599577E-1,1.8814382E-1,-7.6757E-2,1.8929507E-1,3.691718E-1,-3.4999216E-1,2.2857895E-1,2.6972455E-1,-8.256025E-2,1.1440974E-2,-7.855881E-2,-8.153801E-2,4.2765287E-1,-1.6253641E-1,4.4316538E-2,-1.1410252E-3,-9.57159E-3,-4.4965512E-1,-2.0810269E-2,8.9962187E-4,-3.3928157E-4,-1.4271341E-3,-1.9453764E-4,1.4042028E-2,-2.828809E-3,-4.6016993E-3,4.550333E-4,-6.7753172E-3,-3.241358E-2,5.120908E-3,-4.8949304E-3,7.4552023E-3,1.146844E-3,-5.6396653E-3,1.9439032E-4,3.1079964E-3,-4.4461004E-3,6.7266584E-3,1.9256849E-3,-3.11251E-3,2.2739947E-3,7.6944474E-5,5.539171E-3,-3.9846906E-3,-1.0045902E-3,-4.363291E-3,2.0537525E-3,-9.373607E-3,4.070335E-3,1.1031717E-3,5.62518E-3,-3.7258808E-3,2.572955E-4,-3.0693484E-3,3.2620898E-3,1.4579352E-2,6.689128E-3],"split_indices":[38,26,59,41,24,9,24,34,45,38,31,26,38,50,0,4,13,12,0,36,26,20,6,0,14,6,24,16,0,46,0,0,0,0,0,0,3,0,0,20,47,24,19,34,0,6,1,18,31,0,0,26,34,2,9,0,0,36,34,0,0,0,0,0,0,0,0,0,0,0,0,0,0,0,0,0,0,0,0,0,0,0,0,0,0,0,0,0,0,0,0,0,0,0,0,0,0],"split_type":[0,0,0,0,0,0,0,0,0,0,0,0,0,0,0,0,0,0,0,0,0,0,0,0,0,0,0,0,0,0,0,0,0,0,0,0,0,0,0,0,0,0,0,0,0,0,0,0,0,0,0,0,0,0,0,0,0,0,0,0,0,0,0,0,0,0,0,0,0,0,0,0,0,0,0,0,0,0,0,0,0,0,0,0,0,0,0,0,0,0,0,0,0,0,0,0,0],"sum_hessian":[6.51E2,5.23E2,1.28E2,2.3E1,5E2,6.6E1,6.2E1,1.3E1,1E1,4.17E2,8.3E1,2.4E1,4.2E1,1.9E1,4.3E1,6E0,7E0,7E0,3E0,3.54E2,6.3E1,5.5E1,2.8E1,3E0,2.1E1,6E0,3.6E1,1.4E1,5E0,4E1,3E0,4E0,2E0,2E0,5E0,3E0,4E0,1E0,2E0,9E0,3.45E2,2.7E1,3.6E1,5.1E1,4E0,2.1E1,7E0,1.1E1,1E1,4E0,2E0,1.2E1,2.4E1,6E0,8E0,1E0,4E0,1.1E1,2.9E1,1E0,1E0,2E0,2E0,7E0,2E0,5.8E1,2.87E2,2.5E1,2E0,1.7E1,1.9E1,3.3E1,1.8E1,3E0,1E0,5E0,1.6E1,3E0,4E0,7E0,4E0,3E0,7E0,1E0,1E0,4E0,8E0,2.1E1,3E0,2E0,4E0,4E0,4E0,3E0,8E0,1.2E1,1.7E1],"tree_param":{"num_deleted":"0","num_feature":"60","num_nodes":"97","size_leaf_vector":"0"}},{"base_weights":[-8.533432E-5,1.9700213E-3,-3.5077825E-3,-1.9421993E-2,2.8927107E-3,-6.8742125E-3,5.355929E-3,-6.4357E-3,-4.2157575E-2,-5.3379005E-3,5.087059E-3,7.06287E-3,-1.0334778E-2,8.246766E-3,-3.2717977E-2,2.3857278E-3,-1.3077538E-2,-5.8377948E-2,-1.9452907E-2,-1.7783677E-2,6.65314E-3,-2.1578437E-4,1.1045156E-2,-2.0134605E-2,1.5552671E-2,-6.045277E-2,-8.457621E-3,1.7363896E-3,2.2482775E-2,-4.0237807E-2,-1.3193283E-3,-1.0487554E-3,6.169796E-3,-1.7247992E-3,-1.4682195E-2,-4.2243335E-2,-7.4070245E-3,2.103708E-2,-4.5447797E-3,9.638277E-3,-5.93847E-3,1.4111244E-2,-1.1542101E-2,-3.183659E-2,-4.4056987E-3,-2.2155238E-2,2.4713313E-2,-8.764117E-2,-1.311345E-2,2.89617E-3,-1.6152903E-2,-6.1531137E-3,1.28564E-2,3.3869114E-2,-3.501724E-3,-1.7655218E-3,5.5077206E-4,-5.503277E-2,-2.9062657E-3,-1.9808784E-2,4.6825646E-3,2.9000582E-2,-7.0608472E-3,-8.234214E-3,1.1859799E-2,-1.0900604E-2,1.9923111E-2,-1.5200609E-2,6.7488407E-3,-1.9316708E-3,1.9423667E-2,-1.6084427E-3,-3.7047926E-2,-7.398706E-3,5.587439E-5,-3.9679024E-2,-3.4735892E-3,4.1086063E-2,1.3242109E-2,9.1644265E-3,-1.9024424E-2,5.352172E-4,-2.2558937E-2,-1.1239008E-2,1.3520685E-2,1.9351834E-2,-1.0431792E-3,1.678276E-2,4.4586033E-2,-1.1141899E-2,1.0399143E-2],"categories":[],"categories_nodes":[],"categories_segments":[],"categories_sizes":[],"default_left":[1,1,1,1,1,1,1,1,1,1,1,1,1,1,1,1,1,0,0,1,1,1,1,1,1,1,1,1,1,0,0,1,0,0,0,1,1,1,1,1,1,1,1,0,1,1,1,0,0,1,1,1,1,1,1,0,0,0,0,0,0,0,0,0,0,0,0,0,0,0,0,0,0,0,0,0,0,0,0,0,0,0,0,0,0,0,0,0,0,0,0],"id":40,"left_children":[1,3,5,7,9,11,13,15,17,19,21,23,25,27,29,31,33,-1,-1,35,37,39,41,43,45,47,49,51,53,-1,-1,55,-1,-1,-1,57,59,61,63,65,67,69,71,-1,73,75,77,-1,-1,79,81,83,85,87,89,-1,-1,-1,-1,-1,-1,-1,-1,-1,-1,-1,-1,-1,-1,-1,-1,-1,-1,-1,-1,-1,-1,-1,-1,-1,-1,-1,-1,-1,-1,-1,-1,-1,-1,-1,-1],"loss_changes":[4.5933053E-3,8.109361E-3,7.347389E-3,4.747953E-3,7.107E-3,8.657965E-3,7.7542695E-3,7.3428545E-4,1.0740487E-3,1.25050545E-2,9.796788E-3,8.625588E-3,1.2942056E-2,5.892595E-3,1.1274759E-3,8.444852E-5,1.0219694E-4,0E0,0E0,1.0093287E-2,7.0216274E-3,9.361867E-3,1.0274036E-2,1.5162725E-3,1.0219531E-2,5.2861236E-3,1.2191299E-2,4.027018E-3,6.035966E-3,0E0,0E0,5.5583505E-6,0E0,0E0,0E0,5.877247E-3,4.5907213E-3,4.45617E-3,1.6107464E-3,1.3102752E-2,1.2441309E-2,1.1031773E-2,4.501001E-3,0E0,6.718101E-5,1.8264106E-3,3.7756842E-3,0E0,0E0,8.006371E-3,8.88516E-3,2.8535484E-3,1.7355799E-3,1.815306E-3,8.5930165E-4,0E0,0E0,0E0,0E0,0E0,0E0,0E0,0E0,0E0,0E0,0E0,0E0,0E0,0E0,0E0,0E0,0E0,0E0,0E0,0E0,0E0,0E0,0E0,0E0,0E0,0E0,0E0,0E0,0E0,0E0,0E0,0E0,0E0,0E0,0E0,0E0],"parents":[2147483647,0,0,1,1,2,2,3,3,4,4,5,5,6,6,7,7,8,8,9,9,10,10,11,11,12,12,13,13,14,14,15,15,16,16,19,19,20,20,21,21,22,22,23,23,24,24,25,25,26,26,27,27,28,28,31,31,35,35,36,36,37,37,38,38,39,39,40,40,41,41,42,42,44,44,45,45,46,46,49,49,50,50,51,51,52,52,53,53,54,54],"right_children":[2,4,6,8,10,12,14,16,18,20,22,24,26,28,30,32,34,-1,-1,36,38,40,42,44,46,48,50,52,54,-1,-1,56,-1,-1,-1,58,60,62,64,66,68,70,72,-1,74,76,78,-1,-1,80,82,84,86,88,90,-1,-1,-1,-1,-1,-1,-1,-1,-1,-1,-1,-1,-1,-1,-1,-1,-1,-1,-1,-1,-1,-1,-1,-1,-1,-1,-1,-1,-1,-1,-1,-1,-1,-1,-1,-1],"split_conditions":[9.232331E-2,-5.703044E-1,1.6455483E-1,5.764121E-2,-2.2388053E-1,-2.3285252E-1,4.769501E-1,-1.06892146E-1,-3.9755095E-2,-3.2349374E-2,1.995182E-2,-1.716602E-1,-4.5792657E-1,1.3630694E-1,4.2973018E-1,2.9896718E-1,-3.0322903E-1,-1.7513385E-2,-5.835872E-3,-9.9790394E-2,-6.98442E-3,-7.85578E-2,3.396092E-1,5.0871335E-2,-3.661387E-1,-1.6546372E-1,-5.9752893E-2,6.4107075E-2,1.3298918E-1,-1.2071342E-2,-3.957985E-4,4.3850052E-1,1.8509389E-3,-5.174398E-4,-4.404659E-3,1.9399574E-1,-5.9089404E-2,1.983134E-1,2.8661188E-1,-6.302553E-2,7.2766535E-2,-2.3138373E-1,9.097813E-2,-9.5509775E-3,8.167364E-2,2.2877347E-1,-4.80763E-2,-2.6292352E-2,-3.934035E-3,2.7331972E-1,-1.3344479E-1,2.2002642E-1,-6.933027E-2,-3.0420005E-2,1.9364728E-2,-5.296566E-4,1.6523163E-4,-1.6509833E-2,-8.7187975E-4,-5.9426357E-3,1.4047695E-3,8.700175E-3,-2.1182543E-3,-2.4702642E-3,3.5579398E-3,-3.2701811E-3,5.9769335E-3,-4.560183E-3,2.0246522E-3,-5.7950127E-4,5.8271005E-3,-4.8253284E-4,-1.1114378E-2,-2.2196118E-3,1.6762317E-5,-1.1903708E-2,-1.0420769E-3,1.232582E-2,3.972633E-3,2.749328E-3,-5.7073273E-3,1.6056516E-4,-6.7676813E-3,-3.3717025E-3,4.0562055E-3,5.8055506E-3,-3.1295378E-4,5.0348286E-3,1.337581E-2,-3.3425698E-3,3.1197432E-3],"split_indices":[58,2,27,57,31,12,15,3,6,20,4,10,21,33,0,4,1,0,0,25,4,20,38,13,27,0,11,30,30,0,0,0,0,0,0,34,14,15,32,2,51,38,9,0,3,5,35,0,0,46,2,50,8,11,4,0,0,0,0,0,0,0,0,0,0,0,0,0,0,0,0,0,0,0,0,0,0,0,0,0,0,0,0,0,0,0,0,0,0,0,0],"split_type":[0,0,0,0,0,0,0,0,0,0,0,0,0,0,0,0,0,0,0,0,0,0,0,0,0,0,0,0,0,0,0,0,0,0,0,0,0,0,0,0,0,0,0,0,0,0,0,0,0,0,0,0,0,0,0,0,0,0,0,0,0,0,0,0,0,0,0,0,0,0,0,0,0,0,0,0,0,0,0,0,0,0,0,0,0,0,0,0,0,0,0],"sum_hessian":[6.51E2,4.07E2,2.44E2,1.6E1,3.91E2,1.77E2,6.7E1,1.1E1,5E0,8.2E1,3.09E2,3.5E1,1.42E2,6.3E1,4E0,5E0,6E0,2E0,3E0,4E1,4.2E1,1.64E2,1.45E2,8E0,2.7E1,4E0,1.38E2,4.4E1,1.9E1,3E0,1E0,3E0,2E0,1E0,5E0,1.1E1,2.9E1,1.8E1,2.4E1,6E1,1.04E2,1.28E2,1.7E1,4E0,4E0,5E0,2.2E1,2E0,2E0,5.6E1,8.2E1,2.6E1,1.8E1,1.3E1,6E0,2E0,1E0,8E0,3E0,1.4E1,1.5E1,1.4E1,4E0,2E1,4E0,2E1,4E1,6E1,4.4E1,3.2E1,9.6E1,1.3E1,4E0,2E0,2E0,2E0,3E0,8E0,1.4E1,4.4E1,1.2E1,2.3E1,5.9E1,2.1E1,5E0,1.2E1,6E0,6E0,7E0,4E0,2E0],"tree_param":{"num_deleted":"0","num_feature":"60","num_nodes":"91","size_leaf_vector":"0"}},{"base_weights":[-1.87814E-4,-1.2447506E-2,3.6172068E-4,6.7015192E-3,-2.523226E-2,4.678463E-2,1.3759478E-4,1.620864E-2,-7.812094E-5,-3.8491014E-2,-5.504782E-3,5.634752E-2,1.3829425E-2,8.408603E-3,-8.9094066E-4,-2.1742405E-3,4.1401586E-3,-1.410513E-2,6.621849E-3,3.7693195E-3,3.8918346E-2,1.2235839E-2,-1.7442348E-3,-5.186413E-4,-2.401632E-3,-4.1945595E-3,-1.9313991E-2,7.889842E-3,1.4089346E-3,-1.3274008E-2,8.214094E-3,5.3941242E-2,6.6544125E-3,-1.7044552E-3,1.9917112E-2,-3.1512787E-3,6.0690744E-3,-2.0078672E-2,1.6291871E-3,-9.52008E-3,1.2442285E-2,-5.2183717E-3,1.23514645E-2,-8.330979E-3,2.3160951E-2,2.4030522E-2,-4.6008616E-3,-1.1992495E-3,-1.0484731E-2,3.1781282E-2,3.5548238E-3],"categories":[],"categories_nodes":[],"categories_segments":[],"categories_sizes":[],"default_left":[1,1,1,1,1,1,1,0,1,0,1,0,0,1,1,1,0,1,1,1,1,1,1,0,0,0,0,0,0,1,1,0,1,1,1,1,1,0,0,0,0,0,0,0,0,0,0,0,0,0,0],"id":41,"left_children":[1,3,5,7,9,11,13,-1,15,-1,17,-1,-1,19,21,23,-1,25,27,29,31,33,35,-1,-1,-1,-1,-1,-1,37,39,-1,41,43,45,47,49,-1,-1,-1,-1,-1,-1,-1,-1,-1,-1,-1,-1,-1,-1],"loss_changes":[4.3971087E-3,7.02393E-3,6.4964234E-3,7.7472447E-4,4.234666E-3,1.661866E-4,5.307368E-3,0E0,7.9737845E-5,0E0,9.27748E-4,0E0,0E0,9.619795E-3,6.2379E-3,1.0132298E-6,0E0,1.7710018E-4,1.5323487E-5,4.7300123E-3,4.003333E-3,3.6746399E-3,5.757821E-3,0E0,0E0,0E0,0E0,0E0,0E0,1.351058E-3,3.7926417E-3,0E0,3.3501402E-4,2.334979E-3,2.329316E-3,6.3290214E-3,5.058777E-3,0E0,0E0,0E0,0E0,0E0,0E0,0E0,0E0,0E0,0E0,0E0,0E0,0E0,0E0],"parents":[2147483647,0,0,1,1,2,2,3,3,4,4,5,5,6,6,8,8,10,10,13,13,14,14,15,15,17,17,18,18,19,19,20,20,21,21,22,22,29,29,30,30,32,32,33,33,34,34,35,35,36,36],"right_children":[2,4,6,8,10,12,14,-1,16,-1,18,-1,-1,20,22,24,-1,26,28,30,32,34,36,-1,-1,-1,-1,-1,-1,38,40,-1,42,44,46,48,50,-1,-1,-1,-1,-1,-1,-1,-1,-1,-1,-1,-1,-1,-1],"split_conditions":[-5.8753026E-1,-6.046217E-2,-5.7791126E-1,-2.4195334E-1,2.8880844E-1,8.269993E-2,-3.5934258E-1,4.862592E-3,2.9784006E-1,-1.1547305E-2,-1.5940674E-2,1.6904257E-2,4.148828E-3,4.2872596E-1,-4.8183954E-1,-4.7926083E-2,1.2420476E-3,-6.3850015E-2,3.1415293E-1,-1.973825E-1,2.4013776E-1,-1.3484594E-1,2.6252967E-1,-1.555924E-4,-7.2048965E-4,-1.2583679E-3,-5.7941973E-3,2.3669526E-3,4.226804E-4,5.6854624E-2,-2.2459081E-1,1.6182374E-2,-6.216971E-1,2.3523036E-1,1.5574694E-1,2.2092524E-1,-4.162075E-1,-6.023602E-3,4.8875617E-4,-2.856024E-3,3.7326857E-3,-1.5655116E-3,3.7054394E-3,-2.499294E-3,6.9482857E-3,7.2091566E-3,-1.3802585E-3,-3.5977486E-4,-3.1454193E-3,9.534385E-3,1.0664472E-3],"split_indices":[23,51,23,15,5,0,35,0,11,0,10,0,0,33,38,6,0,1,0,54,20,32,21,0,0,0,0,0,0,46,3,0,0,45,2,11,1,0,0,0,0,0,0,0,0,0,0,0,0,0,0],"split_type":[0,0,0,0,0,0,0,0,0,0,0,0,0,0,0,0,0,0,0,0,0,0,0,0,0,0,0,0,0,0,0,0,0,0,0,0,0,0,0,0,0,0,0,0,0,0,0,0,0,0,0],"sum_hessian":[6.51E2,2.7E1,6.24E2,1.1E1,1.6E1,2E0,6.22E2,4E0,7E0,9E0,7E0,1E0,1E0,6.8E1,5.54E2,5E0,2E0,4E0,3E0,6E1,8E0,3.3E1,5.21E2,1E0,4E0,2E0,2E0,2E0,1E0,1.2E1,4.8E1,5E0,3E0,1.2E1,2.1E1,4.42E2,7.9E1,8E0,4E0,9E0,3.9E1,1E0,2E0,1E1,2E0,1.8E1,3E0,3.5E2,9.2E1,6E0,7.3E1],"tree_param":{"num_deleted":"0","num_feature":"60","num_nodes":"51","size_leaf_vector":"0"}},{"base_weights":[-6.780574E-5,-3.1477466E-4,2.2733584E-2,-9.746635E-4,8.735855E-3,3.4830235E-2,1.0928879E-2,-2.1624716E-3,5.732153E-3,4.5465596E-2,5.9043057E-3,-1.2424578E-2,-7.75825E-4,-1.6395963E-3,1.3643785E-2,4.881075E-2,3.667301E-3,1.4469562E-3,-2.5040874E-2,7.947266E-3,-2.6680354E-3,-1.3968196E-2,4.9612094E-3,7.450598E-3,2.7839033E-2,-9.921321E-3,8.37077E-3,2.6116844E-2,-4.531695E-3,-1.6420295E-2,-4.885007E-2,-8.334009E-3,1.4159503E-2,1.6069263E-2,-4.060282E-3,-4.785985E-3,-3.5048302E-2,1.49541255E-2,-1.7822462E-3,-2.6018145E-3,1.6473422E-2,5.0782308E-2,7.151696E-3,-5.535215E-4,-1.5195274E-2,3.0133454E-3,1.78376E-2],"categories":[],"categories_nodes":[],"categories_segments":[],"categories_sizes":[],"default_left":[1,1,1,1,1,0,0,1,1,0,1,1,1,1,1,0,1,1,1,1,1,1,1,1,1,1,1,0,0,0,0,0,0,0,0,0,0,0,0,0,0,0,0,0,0,0,0],"id":42,"left_children":[1,3,5,7,9,-1,-1,11,13,-1,15,17,19,21,23,-1,25,27,29,31,33,35,37,39,41,43,45,-1,-1,-1,-1,-1,-1,-1,-1,-1,-1,-1,-1,-1,-1,-1,-1,-1,-1,-1,-1],"loss_changes":[3.6787211E-3,3.866691E-3,6.189265E-4,4.816142E-3,4.3076486E-3,0E0,0E0,7.290307E-3,5.3297244E-3,0E0,3.852237E-3,1.0711683E-2,7.498387E-3,3.9754766E-3,3.6607906E-3,0E0,2.7035093E-3,4.5431335E-3,5.765835E-3,8.3106E-3,9.795674E-3,3.122813E-3,2.1830292E-3,2.945297E-3,5.8070784E-3,5.3504773E-4,1.5185019E-3,0E0,0E0,0E0,0E0,0E0,0E0,0E0,0E0,0E0,0E0,0E0,0E0,0E0,0E0,0E0,0E0,0E0,0E0,0E0,0E0],"parents":[2147483647,0,0,1,1,2,2,3,3,4,4,7,7,8,8,10,10,11,11,12,12,13,13,14,14,16,16,17,17,18,18,19,19,20,20,21,21,22,22,23,23,24,24,25,25,26,26],"right_children":[2,4,6,8,10,-1,-1,12,14,-1,16,18,20,22,24,-1,26,28,30,32,34,36,38,40,42,44,46,-1,-1,-1,-1,-1,-1,-1,-1,-1,-1,-1,-1,-1,-1,-1,-1,-1,-1,-1,-1],"split_conditions":[8.595644E-1,4.4892436E-1,-3.6723837E-3,2.7974123E-1,-7.621945E-1,1.04490705E-2,3.2786636E-3,-3.0976135E-1,2.7632164E-2,1.3639679E-2,-7.2330934E-1,2.4434466E-2,-1.5256894E-1,-1.3402787E-1,9.4046205E-2,1.4643226E-2,-2.2351778E-1,-1.7654116E-1,1.7825496E-1,-1.271632E-1,-4.4841117E-1,1.0109269E-1,-1.2290411E-1,4.0224265E-2,1.10263815E-2,5.4812425E-1,1.5753737E-1,7.835054E-3,-1.3595086E-3,-4.9260887E-3,-1.4655022E-2,-2.5002027E-3,4.247851E-3,4.820779E-3,-1.2180846E-3,-1.4357956E-3,-1.0514491E-2,4.4862377E-3,-5.3467386E-4,-7.8054436E-4,4.942027E-3,1.5234693E-2,2.1455088E-3,-1.6605646E-4,-4.5585823E-3,9.040037E-4,5.3512803E-3],"split_indices":[35,41,1,38,43,0,0,55,59,0,32,59,55,58,53,0,30,52,35,57,48,46,9,57,42,41,13,0,0,0,0,0,0,0,0,0,0,0,0,0,0,0,0,0,0,0,0],"split_type":[0,0,0,0,0,0,0,0,0,0,0,0,0,0,0,0,0,0,0,0,0,0,0,0,0,0,0,0,0,0,0,0,0,0,0,0,0,0,0,0,0,0,0,0,0,0,0],"sum_hessian":[6.51E2,6.45E2,6E0,6.02E2,4.3E1,2E0,4E0,5.12E2,9E1,2E0,4.1E1,6E1,4.52E2,4.7E1,4.3E1,1E0,4E1,2.9E1,3.1E1,8E1,3.72E2,1.6E1,3.1E1,3.1E1,1.2E1,1E1,3E1,5E0,2.4E1,2.4E1,7E0,2.2E1,5.8E1,2.5E1,3.47E2,1.2E1,4E0,1.2E1,1.9E1,1.5E1,1.6E1,5E0,7E0,4E0,6E0,2E1,1E1],"tree_param":{"num_deleted":"0","num_feature":"60","num_nodes":"47","size_leaf_vector":"0"}},{"base_weights":[2.8193354E-5,4.324689E-3,-1.2420567E-3,1.0217592E-2,-5.097239E-3,4.0722205E-3,-3.1387147E-3,-3.8099296E-3,1.5801312E-2,-1.371818E-2,2.853845E-3,-2.6534433E-3,7.658818E-3,-3.784938E-3,2.6737563E-2,2.686611E-3,-3.293203E-2,6.556436E-3,2.9772028E-2,-3.6698934E-3,-2.8913725E-2,9.775857E-3,-2.761718E-2,-1.0810922E-2,9.9371E-3,6.777114E-4,1.623357E-2,2.6933488E-3,-6.5900553E-3,4.09989E-3,6.310039E-2,9.344665E-3,-1.0965324E-2,-4.3555778E-2,-1.133094E-2,-5.934039E-3,1.5651107E-2,7.6554115E-3,3.9176334E-2,1.1361804E-3,-1.639292E-2,-4.3894155E-3,-4.861908E-2,1.614351E-2,-2.0267377E-3,-1.4208815E-2,-3.6289275E-2,-1.550274E-2,1.3378662E-3,2.1532401E-2,-5.3390563E-3,3.8214345E-3,-1.8730545E-2,2.0038437E-2,-4.022733E-3,5.7619535E-3,-9.29792E-3,3.689055E-3,-1.0053679E-2,1.3386443E-2,-9.648811E-3,-9.641126E-3,1.2745573E-2,4.4736714E-4,-2.2489857E-2,-1.9782253E-2,-5.6438905E-4,2.3401152E-2,-2.774124E-3,-3.3296857E-3,1.126968E-2,4.6146862E-2,1.754413E-2,-8.241008E-3,5.7111564E-3,2.0987946E-3,-1.1577223E-2,3.117159E-3,2.2965413E-2,-5.421743E-3,2.452616E-3,-2.3725044E-2,-4.0857005E-3,7.148282E-3,-4.740123E-3,2.695807E-2,-1.922076E-3,4.350636E-3,-1.853883E-2,8.7970225E-3,-6.052799E-3,-2.1953793E-2,3.044717E-4,3.5515323E-2,1.27548E-2,3.1522177E-3,-7.5231567E-3,-2.8632969E-2,7.294718E-3,1.2512222E-3,-2.5846722E-2,1.8887443E-2,-3.9939815E-3,-4.371597E-3,-1.7882923E-2],"categories":[],"categories_nodes":[],"categories_segments":[],"categories_sizes":[],"default_left":[1,1,1,1,1,1,1,1,1,1,1,1,1,1,1,1,1,1,1,1,1,1,1,1,1,1,1,1,1,1,0,1,1,0,0,1,1,1,1,1,0,1,0,1,1,0,0,1,1,1,1,1,1,1,1,1,1,1,1,0,0,0,0,0,0,0,0,0,0,0,0,0,0,0,0,0,0,0,0,0,0,0,0,0,0,0,0,0,0,0,0,0,0,0,0,0,0,0,0,0,0,0,0,0,0],"id":43,"left_children":[1,3,5,7,9,11,13,15,17,19,21,23,25,27,29,31,33,35,37,39,41,43,45,47,49,51,53,55,57,59,-1,61,63,-1,-1,65,67,69,71,73,-1,75,-1,77,79,-1,-1,81,83,85,87,89,91,93,95,97,99,101,103,-1,-1,-1,-1,-1,-1,-1,-1,-1,-1,-1,-1,-1,-1,-1,-1,-1,-1,-1,-1,-1,-1,-1,-1,-1,-1,-1,-1,-1,-1,-1,-1,-1,-1,-1,-1,-1,-1,-1,-1,-1,-1,-1,-1,-1,-1],"loss_changes":[3.5637422E-3,8.324936E-3,5.092782E-3,7.2661713E-3,4.0148073E-3,3.228581E-3,7.2833095E-3,5.196684E-3,8.3292E-3,4.1691875E-3,6.8085263E-3,4.934663E-3,5.196928E-3,6.650659E-3,6.326653E-3,2.1930595E-3,6.538946E-4,4.7503416E-3,5.1078647E-3,1.1192859E-3,5.102452E-3,1.9867439E-3,1.8204376E-4,1.6737375E-3,3.4804635E-3,3.0612724E-3,3.0864375E-3,4.137982E-3,9.115845E-3,8.9523155E-4,0E0,1.1559844E-3,1.0622687E-3,0E0,0E0,1.3273162E-3,3.4920303E-3,3.9485237E-4,1.904577E-3,6.476715E-4,0E0,3.0411428E-4,0E0,1.4391099E-3,1.6537175E-4,0E0,0E0,1.8744282E-3,3.5172456E-4,1.4516343E-3,1.2317715E-3,2.165842E-3,4.361663E-4,3.267035E-3,1.995222E-4,4.9008885E-3,4.04758E-3,7.665471E-3,8.418726E-3,0E0,0E0,0E0,0E0,0E0,0E0,0E0,0E0,0E0,0E0,0E0,0E0,0E0,0E0,0E0,0E0,0E0,0E0,0E0,0E0,0E0,0E0,0E0,0E0,0E0,0E0,0E0,0E0,0E0,0E0,0E0,0E0,0E0,0E0,0E0,0E0,0E0,0E0,0E0,0E0,0E0,0E0,0E0,0E0,0E0,0E0],"parents":[2147483647,0,0,1,1,2,2,3,3,4,4,5,5,6,6,7,7,8,8,9,9,10,10,11,11,12,12,13,13,14,14,15,15,16,16,17,17,18,18,19,19,20,20,21,21,22,22,23,23,24,24,25,25,26,26,27,27,28,28,29,29,31,31,32,32,35,35,36,36,37,37,38,38,39,39,41,41,43,43,44,44,47,47,48,48,49,49,50,50,51,51,52,52,53,53,54,54,55,55,56,56,57,57,58,58],"right_children":[2,4,6,8,10,12,14,16,18,20,22,24,26,28,30,32,34,36,38,40,42,44,46,48,50,52,54,56,58,60,-1,62,64,-1,-1,66,68,70,72,74,-1,76,-1,78,80,-1,-1,82,84,86,88,90,92,94,96,98,100,102,104,-1,-1,-1,-1,-1,-1,-1,-1,-1,-1,-1,-1,-1,-1,-1,-1,-1,-1,-1,-1,-1,-1,-1,-1,-1,-1,-1,-1,-1,-1,-1,-1,-1,-1,-1,-1,-1,-1,-1,-1,-1,-1,-1,-1,-1,-1],"split_conditions":[-2.1530399E-1,8.055124E-2,-1.7502356E-1,-1.0158787E-1,-1.340618E-1,-8.816355E-2,5.901266E-1,3.2119998E-1,6.2638566E-2,-2.3745245E-1,3.9161777E-1,1.1845198E-1,3.25061E-2,-1.652345E-1,-9.4970934E-2,1.9716313E-1,4.6750393E-2,-4.8679568E-2,-1.2273763E-1,1.2661994E-1,2.2581402E-2,1.6816454E-1,-5.9880886E-2,2.3044717E-1,4.7750365E-2,2.353073E-1,3.1817847E-1,2.1497917E-1,-1.5576246E-1,-1.3033608E-1,1.8930119E-2,-6.776829E-1,-5.6507725E-2,-1.3066734E-2,-3.399282E-3,-2.4109848E-1,1.8912902E-1,-1.3445903E-1,1.4982337E-1,-6.44086E-2,-4.9178763E-3,3.405483E-2,-1.4585725E-2,-6.651794E-2,-1.6265352E-1,-4.262645E-3,-1.0886783E-2,4.1894622E-2,2.3059535E-1,3.2107815E-1,9.430597E-2,1.5449746E-2,8.5726306E-2,7.953772E-2,-2.2027035E-1,-9.4547033E-1,-1.8208995E-3,-2.0709808E-1,6.3817374E-2,4.0159333E-3,-2.8946435E-3,-2.8923377E-3,3.8236722E-3,1.3421015E-4,-6.7469575E-3,-5.934676E-3,-1.6931671E-4,7.020346E-3,-8.3223725E-4,-9.989057E-4,3.3809042E-3,1.3844059E-2,5.263239E-3,-2.4723024E-3,1.713347E-3,6.296384E-4,-3.473167E-3,9.3514775E-4,6.889624E-3,-1.6265229E-3,7.357849E-4,-7.1175136E-3,-1.2257101E-3,2.1444848E-3,-1.422037E-3,8.087422E-3,-5.7662284E-4,1.3051908E-3,-5.5616493E-3,2.639107E-3,-1.8158398E-3,-6.586138E-3,9.134151E-5,1.0654598E-2,3.82644E-3,9.4566535E-4,-2.256947E-3,-8.589891E-3,2.1884155E-3,3.7536668E-4,-7.7540167E-3,5.666233E-3,-1.1981945E-3,-1.3114791E-3,-5.364877E-3],"split_indices":[57,24,59,42,10,22,2,56,1,10,47,51,36,19,29,38,0,36,55,20,38,1,7,23,17,50,10,29,58,6,0,10,20,0,0,48,42,12,17,4,0,2,0,55,9,0,0,58,19,46,3,39,0,36,5,40,31,30,13,0,0,0,0,0,0,0,0,0,0,0,0,0,0,0,0,0,0,0,0,0,0,0,0,0,0,0,0,0,0,0,0,0,0,0,0,0,0,0,0,0,0,0,0,0,0],"split_type":[0,0,0,0,0,0,0,0,0,0,0,0,0,0,0,0,0,0,0,0,0,0,0,0,0,0,0,0,0,0,0,0,0,0,0,0,0,0,0,0,0,0,0,0,0,0,0,0,0,0,0,0,0,0,0,0,0,0,0,0,0,0,0,0,0,0,0,0,0,0,0,0,0,0,0,0,0,0,0,0,0,0,0,0,0,0,0,0,0,0,0,0,0,0,0,0,0,0,0,0,0,0,0,0,0],"sum_hessian":[6.51E2,1.48E2,5.03E2,9.1E1,5.7E1,1.32E2,3.71E2,2.6E1,6.5E1,2.7E1,3E1,4.6E1,8.6E1,3.64E2,7E0,2.2E1,4E0,4E1,2.5E1,1.7E1,1E1,2.5E1,5E0,2.8E1,1.8E1,4.8E1,3.8E1,1.1E2,2.54E2,5E0,2E0,1.5E1,7E0,2E0,2E0,1.7E1,2.3E1,8E0,1.7E1,1.3E1,4E0,5E0,5E0,1.6E1,9E0,3E0,2E0,2E1,8E0,1E1,8E0,4.2E1,6E0,3.2E1,6E0,8.8E1,2.2E1,6.4E1,1.9E2,3E0,2E0,2E0,1.3E1,4E0,3E0,4E0,1.3E1,1.6E1,7E0,2E0,6E0,1.2E1,5E0,4E0,9E0,3E0,2E0,6E0,1E1,5E0,4E0,1.1E1,9E0,4E0,4E0,8E0,2E0,5E0,3E0,2.8E1,1.4E1,5E0,1E0,9E0,2.3E1,2E0,4E0,3E0,8.5E1,1.4E1,8E0,2.1E1,4.3E1,1.11E2,7.9E1],"tree_param":{"num_deleted":"0","num_feature":"60","num_nodes":"105","size_leaf_vector":"0"}},{"base_weights":[-1.8148427E-5,3.3075847E-3,-1.3526848E-3,-4.6353817E-2,3.8237956E-3,-2.865112E-2,-5.680321E-4,-3.4184651E-3,6.735512E-3,-5.7962775E-2,4.7535524E-3,1.7850257E-3,-4.5467685E-3,3.994914E-3,-1.978846E-2,1.1691726E-2,1.2094106E-3,-9.844165E-3,-6.434185E-2,1.0251364E-2,-1.9326471E-3,2.6382136E-3,-2.2026783E-2,-3.0981386E-2,-2.8661878E-3,-4.1337665E-3,1.3256434E-2,-8.570063E-3,-4.4998605E-2,1.67854E-2,-9.928169E-4,9.197672E-3,-8.150541E-3,2.8637238E-3,1.1759336E-2,1.1530668E-3,-5.5948943E-3,4.4819997E-3,-7.227335E-3,-5.7114284E-2,1.1699008E-3,-5.3971853E-2,-1.34180635E-2,-5.6259697E-3,7.925276E-3,-9.813275E-3,3.0950212E-3,2.840909E-2,1.0311912E-3,8.250655E-3,-1.6962677E-2,9.804307E-3,2.5959084E-2,-1.07117E-2,1.3155882E-2,-1.748147E-3,1.7494444E-2,4.5337244E-3,-1.8116964E-2,-3.1016367E-3,7.672136E-3,-1.4275693E-2,1.2757929E-2,-1.5647963E-2,-6.57204E-2,-6.4017475E-3,8.449074E-3,-1.6245408E-2,-4.2331344E-3,-1.8998837E-2,-2.8238292E-3,-1.0736388E-3,1.5484017E-2],"categories":[],"categories_nodes":[],"categories_segments":[],"categories_sizes":[],"default_left":[1,1,1,0,1,1,1,1,1,1,1,1,1,1,1,1,1,0,0,1,1,1,1,1,1,1,1,1,0,1,1,1,1,0,0,0,0,1,1,1,1,0,1,1,1,0,0,0,0,0,0,0,0,0,0,0,0,0,0,0,0,0,0,0,0,0,0,0,0,0,0,0,0],"id":44,"left_children":[1,3,5,-1,7,9,11,13,15,17,19,21,23,25,27,29,31,-1,-1,33,35,37,39,41,43,45,47,49,-1,51,53,55,57,-1,-1,-1,-1,59,61,63,65,-1,67,69,71,-1,-1,-1,-1,-1,-1,-1,-1,-1,-1,-1,-1,-1,-1,-1,-1,-1,-1,-1,-1,-1,-1,-1,-1,-1,-1,-1,-1],"loss_changes":[2.8982535E-3,4.9711335E-3,9.965347E-3,0E0,3.9452827E-3,1.300443E-2,4.2585535E-3,6.632331E-3,3.6285357E-3,1.5152749E-3,2.7712854E-4,5.8684726E-3,7.419113E-3,2.9155887E-3,4.4222544E-3,4.539429E-3,4.86023E-3,0E0,0E0,1.0885909E-5,5.1653875E-5,5.0710123E-3,8.205955E-3,3.3136923E-3,4.809721E-3,8.9254754E-4,3.3051132E-3,1.9751603E-3,0E0,2.9476061E-3,3.0286226E-3,3.2091064E-3,3.8746402E-3,0E0,0E0,0E0,0E0,5.6849197E-3,6.380114E-3,3.990652E-4,4.398962E-4,0E0,1.1301378E-4,4.7428496E-3,2.2612996E-3,0E0,0E0,0E0,0E0,0E0,0E0,0E0,0E0,0E0,0E0,0E0,0E0,0E0,0E0,0E0,0E0,0E0,0E0,0E0,0E0,0E0,0E0,0E0,0E0,0E0,0E0,0E0,0E0],"parents":[2147483647,0,0,1,1,2,2,4,4,5,5,6,6,7,7,8,8,9,9,10,10,11,11,12,12,13,13,14,14,15,15,16,16,19,19,20,20,21,21,22,22,23,23,24,24,25,25,26,26,27,27,29,29,30,30,31,31,32,32,37,37,38,38,39,39,40,40,42,42,43,43,44,44],"right_children":[2,4,6,-1,8,10,12,14,16,18,20,22,24,26,28,30,32,-1,-1,34,36,38,40,42,44,46,48,50,-1,52,54,56,58,-1,-1,-1,-1,60,62,64,66,-1,68,70,72,-1,-1,-1,-1,-1,-1,-1,-1,-1,-1,-1,-1,-1,-1,-1,-1,-1,-1,-1,-1,-1,-1,-1,-1,-1,-1,-1,-1],"split_conditions":[-1.3255472E-1,-1.1970305E0,-1.2141204E-1,-1.39061455E-2,-1.5287676E-1,1.9734953E-2,8.749218E-2,1.6508132E-1,6.8861775E-2,-9.314896E-2,-5.9182443E-2,6.322795E-1,-5.7791126E-1,1.6769547E-2,-1.0686896E-2,2.2516873E-1,5.965042E-2,-2.9532497E-3,-1.9302556E-2,-1.8955848E-1,1.3870491E-1,2.8204745E-1,5.97628E-2,-5.793055E-2,2.5140908E-1,3.288932E-2,-5.524776E-2,6.1111473E-2,-1.3499582E-2,8.976826E-2,8.641766E-2,-6.3455105E-2,-1.04883835E-1,8.591172E-4,3.527801E-3,3.4592004E-4,-1.6784683E-3,-1.5521887E-1,1.1655155E-1,-2.0215763E-1,-5.7049446E-2,-1.6191557E-2,1.5601438E-1,-2.6226357E-1,-1.3159744E-1,-2.9439826E-3,9.2850643E-4,8.5227275E-3,3.0935736E-4,2.4751965E-3,-5.0888034E-3,2.941292E-3,7.7877254E-3,-3.2135102E-3,3.946765E-3,-5.244441E-4,5.2483333E-3,1.3601173E-3,-5.4350896E-3,-9.30491E-4,2.301641E-3,-4.2827083E-3,3.8273789E-3,-4.694389E-3,-1.9716121E-2,-1.9205243E-3,2.5347222E-3,-4.8736227E-3,-1.2699404E-3,-5.6996513E-3,-8.4714877E-4,-3.2209166E-4,4.6452056E-3],"split_indices":[56,7,56,0,35,54,55,12,53,1,0,58,53,39,40,11,50,0,0,1,1,53,48,2,22,15,55,43,0,21,51,38,32,0,0,0,0,29,26,0,4,0,10,0,35,0,0,0,0,0,0,0,0,0,0,0,0,0,0,0,0,0,0,0,0,0,0,0,0,0,0,0,0],"split_type":[0,0,0,0,0,0,0,0,0,0,0,0,0,0,0,0,0,0,0,0,0,0,0,0,0,0,0,0,0,0,0,0,0,0,0,0,0,0,0,0,0,0,0,0,0,0,0,0,0,0,0,0,0,0,0,0,0,0,0,0,0,0,0,0,0,0,0,0,0,0,0,0,0],"sum_hessian":[6.51E2,1.86E2,4.65E2,1E0,1.85E2,1.2E1,4.53E2,5.3E1,1.32E2,6E0,6E0,2.85E2,1.68E2,3.7E1,1.6E1,6.9E1,6.3E1,1E0,5E0,3E0,3E0,2.76E2,9E0,9E0,1.59E2,2E1,1.7E1,1.2E1,4E0,4.9E1,2E1,3.4E1,2.9E1,1E0,2E0,2E0,1E0,2.33E2,4.3E1,3E0,6E0,3E0,6E0,1.27E2,3.2E1,1.1E1,9E0,7E0,1E1,4E0,8E0,2.9E1,2E1,1.2E1,8E0,1.5E1,1.9E1,1.3E1,1.6E1,6.9E1,1.64E2,3.2E1,1.1E1,1E0,2E0,3E0,3E0,4E0,2E0,2.1E1,1.06E2,1.5E1,1.7E1],"tree_param":{"num_deleted":"0","num_feature":"60","num_nodes":"73","size_leaf_vector":"0"}},{"base_weights":[-1.3192471E-4,9.255604E-3,-4.744346E-4,1.725026E-2,-7.890658E-3,5.622664E-4,-4.0089497E-3,6.8265386E-3,3.3485375E-2,5.2197524E-6,-2.1052197E-2,1.3401325E-2,-1.599319E-4,-2.0009622E-2,-1.0907223E-3,2.0351238E-3,1.892527E-2,2.7678981E-3,3.907529E-2,2.3664832E-3,-3.1448714E-3,-6.3839704E-3,-2.5194325E-2,3.272793E-2,1.2444213E-3,-2.805101E-2,2.0580259E-4,-6.0930033E-3,-4.8960514E-2,-6.964696E-3,5.510985E-3,-2.3974064E-3,6.060629E-3,2.7742982E-3,5.7151914E-4,4.0183213E-2,1.1499201E-2,8.317257E-3,-1.7393837E-2,9.2913886E-4,-5.734087E-2,-9.4583794E-4,6.7120926E-3,-1.0164021E-2,5.931637E-4,-1.4855027E-2,-7.0825875E-2,-1.0343212E-2,6.0815564E-3,1.1840861E-2,-9.213234E-3,5.942639E-4,-3.29389E-3,2.533925E-3,7.567124E-3,1.3632844E-2,2.5491365E-3,1.5947099E-4,2.1337822E-2,-5.006939E-4,-2.1491949E-2,-1.0244004E-2,8.068188E-3,-4.5255295E-4,-2.4443628E-2,3.3067085E-3,2.9047241E-2,-2.0017028E-3,-1.1954387E-2,3.704845E-3,-4.790693E-3,-3.5817632E-3,-1.7418861E-2,-4.148784E-3,-1.5504551E-2,-8.808112E-3,1.8349823E-2,1.4926825E-2,-8.648396E-3,-3.1787185E-5,-2.757083E-2],"categories":[],"categories_nodes":[],"categories_segments":[],"categories_sizes":[],"default_left":[1,1,1,1,1,1,1,1,1,1,1,1,1,1,1,1,0,0,0,1,0,0,0,1,1,1,1,1,1,1,1,1,1,0,0,0,1,1,1,1,0,1,1,1,1,1,0,1,1,1,1,0,0,0,0,0,0,0,0,0,0,0,0,0,0,0,0,0,0,0,0,0,0,0,0,0,0,0,0,0,0],"id":45,"left_children":[1,3,5,7,9,11,13,15,17,19,21,23,25,27,29,31,-1,-1,-1,33,-1,-1,-1,35,37,39,41,43,45,47,49,51,53,-1,-1,-1,55,57,59,61,-1,63,65,67,69,71,-1,73,75,77,79,-1,-1,-1,-1,-1,-1,-1,-1,-1,-1,-1,-1,-1,-1,-1,-1,-1,-1,-1,-1,-1,-1,-1,-1,-1,-1,-1,-1,-1,-1],"loss_changes":[2.1007808E-3,3.288921E-3,2.3107221E-3,2.479096E-3,8.314851E-4,4.527048E-3,6.6553587E-3,5.991552E-4,9.2209224E-4,5.2071457E-5,2.1433225E-5,6.068016E-3,4.7287107E-3,8.565451E-3,4.769329E-3,1.7511837E-4,0E0,0E0,0E0,1.3424888E-6,0E0,0E0,0E0,1.1205869E-3,2.3857E-3,5.1462245E-3,3.4381E-3,4.4154085E-4,4.1679814E-3,2.927906E-3,5.5148373E-3,1.5367357E-5,7.3902775E-6,0E0,0E0,0E0,4.163303E-5,1.3774439E-3,3.3538905E-4,4.0171304E-4,0E0,4.5094704E-3,5.1520728E-3,1.2220629E-4,1.350187E-4,5.3220836E-5,0E0,1.5981952E-3,2.7190128E-3,2.7214857E-3,3.0330108E-3,0E0,0E0,0E0,0E0,0E0,0E0,0E0,0E0,0E0,0E0,0E0,0E0,0E0,0E0,0E0,0E0,0E0,0E0,0E0,0E0,0E0,0E0,0E0,0E0,0E0,0E0,0E0,0E0,0E0,0E0],"parents":[2147483647,0,0,1,1,2,2,3,3,4,4,5,5,6,6,7,7,8,8,9,9,10,10,11,11,12,12,13,13,14,14,15,15,19,19,23,23,24,24,25,25,26,26,27,27,28,28,29,29,30,30,31,31,32,32,36,36,37,37,38,38,39,39,41,41,42,42,43,43,44,44,45,45,47,47,48,48,49,49,50,50],"right_children":[2,4,6,8,10,12,14,16,18,20,22,24,26,28,30,32,-1,-1,-1,34,-1,-1,-1,36,38,40,42,44,46,48,50,52,54,-1,-1,-1,56,58,60,62,-1,64,66,68,70,72,-1,74,76,78,80,-1,-1,-1,-1,-1,-1,-1,-1,-1,-1,-1,-1,-1,-1,-1,-1,-1,-1,-1,-1,-1,-1,-1,-1,-1,-1,-1,-1,-1,-1],"split_conditions":[-6.5439546E-1,1.0376789E-1,1.995582E-1,3.579516E-2,-7.618412E-2,-4.303087E-1,-2.5635916E-1,4.627713E-1,-3.2936305E-1,6.652806E-2,2.0250604E-3,-1.4168078E-1,-4.2295608E-1,8.097464E-2,3.0184755E-2,1.3269061E-1,5.6775813E-3,8.303695E-4,1.1722587E-2,1.7716551E-1,-9.434615E-4,-1.9151912E-3,-7.558298E-3,3.5059966E-2,1.17401876E-1,8.2632855E-2,1.14127874E-1,1.3436614E-2,-4.3488878E-1,2.0130906E-1,2.2947687E-1,-2.288473E-1,-1.3491565E-1,8.322895E-4,1.7145574E-4,1.2054964E-2,-8.959559E-2,-6.767511E-2,-2.4224621E-1,-5.24288E-2,-1.7202262E-2,6.322795E-1,3.4587085E-1,2.5656155E-1,3.576163E-1,-1.2115424E0,-2.1247763E-2,-1.632854E-2,-1.0445728E-1,3.7555736E-1,1.1634031E-1,1.7827918E-4,-9.88167E-4,7.6017756E-4,2.2701372E-3,4.0898533E-3,7.64741E-4,4.78413E-5,6.401347E-3,-1.5020819E-4,-6.447585E-3,-3.0732015E-3,2.4204566E-3,-1.3576589E-4,-7.3330887E-3,9.920126E-4,8.714173E-3,-6.0051086E-4,-3.5863162E-3,1.1114535E-3,-1.4372079E-3,-1.074529E-3,-5.2256584E-3,-1.2446353E-3,-4.6513653E-3,-2.6424336E-3,5.504947E-3,4.4780476E-3,-2.5945187E-3,-9.536156E-6,-8.27125E-3],"split_indices":[30,27,33,57,0,44,0,55,1,3,0,10,44,13,44,7,0,0,0,1,0,0,0,34,28,0,33,37,0,27,0,0,3,0,0,0,1,33,1,0,0,58,7,33,4,0,0,56,23,42,32,0,0,0,0,0,0,0,0,0,0,0,0,0,0,0,0,0,0,0,0,0,0,0,0,0,0,0,0,0,0],"split_type":[0,0,0,0,0,0,0,0,0,0,0,0,0,0,0,0,0,0,0,0,0,0,0,0,0,0,0,0,0,0,0,0,0,0,0,0,0,0,0,0,0,0,0,0,0,0,0,0,0,0,0,0,0,0,0,0,0,0,0,0,0,0,0,0,0,0,0,0,0,0,0,0,0,0,0,0,0,0,0,0,0],"sum_hessian":[6.51E2,2.2E1,6.29E2,1.5E1,7E0,4.87E2,1.42E2,1E1,5E0,5E0,2E0,2.5E1,4.62E2,2.1E1,1.21E2,8E0,2E0,1E0,4E0,3E0,2E0,1E0,1E0,9E0,1.6E1,5E0,4.57E2,1.5E1,6E0,6.4E1,5.7E1,4E0,4E0,2E0,1E0,6E0,3E0,1.2E1,4E0,3E0,2E0,3.89E2,6.8E1,9E0,6E0,3E0,3E0,5.1E1,1.3E1,4E1,1.7E1,1E0,3E0,2E0,2E0,2E0,1E0,8E0,4E0,1E0,3E0,1E0,2E0,3.82E2,7E0,6E1,8E0,2E0,7E0,4E0,2E0,1E0,2E0,2.4E1,2.7E1,6E0,7E0,3.5E1,5E0,1.2E1,5E0],"tree_param":{"num_deleted":"0","num_feature":"60","num_nodes":"81","size_leaf_vector":"0"}},{"base_weights":[-1.3729958E-4,2.724563E-4,-7.593228E-3,-4.1922464E-4,6.7236037E-3,-1.2122457E-2,4.4891667E-3,-1.355212E-3,4.8272368E-3,1.6597891E-2,-8.036836E-4,-1.7998278E-2,-1.5088974E-3,-4.599519E-3,9.041392E-3,-3.2875855E-3,2.667881E-3,-5.491369E-3,1.2160088E-2,2.5122361E-2,-2.295261E-3,3.0500812E-3,-2.453629E-2,-6.01543E-3,-2.4586445E-2,-5.5766176E-3,2.1323524E-3,-8.7709725E-4,-5.5479608E-3,1.1203992E-2,2.423261E-3,4.4296618E-4,-6.974815E-3,2.0826904E-2,1.2719008E-3,-2.3490839E-2,-3.366404E-4,1.9545058E-2,-2.0545851E-3,3.8435087E-3,3.0927498E-2,-7.0601427E-3,5.425877E-3,-6.6812546E-3,1.0449449E-2,-3.0946389E-2,-9.947426E-3,-2.9917285E-3,-7.535274E-3,-7.51128E-3,-1.7830828E-3,2.4739697E-3,2.1213293E-4,2.5933634E-3,-1.2572171E-2,8.5807E-3,-9.101637E-3,3.8949665E-2,4.906803E-3,1.2319204E-2,-3.9086037E-4,1.5640864E-3,-3.883661E-2,5.4044058E-3,-4.1453023E-3,2.6006645E-3,2.7899044E-2,-1.2882925E-2,7.896379E-3,1.7940857E-2,-4.1660424E-3,3.540991E-2,1.0868993E-2,-9.132206E-3,-1.9440105E-3,-1.5229892E-2,1.6339599E-3,2.5502623E-3,2.2498133E-2],"categories":[],"categories_nodes":[],"categories_segments":[],"categories_sizes":[],"default_left":[1,1,1,1,1,1,1,1,1,1,1,1,1,1,1,1,1,1,1,1,1,1,1,1,0,1,1,0,0,0,0,1,1,1,1,1,1,1,1,1,1,1,0,1,1,0,0,0,0,0,0,0,0,0,0,0,0,0,0,0,0,0,0,0,0,0,0,0,0,0,0,0,0,0,0,0,0,0,0],"id":46,"left_children":[1,3,5,7,9,11,13,15,17,19,21,23,25,27,29,31,33,35,37,39,41,43,45,47,-1,49,51,-1,-1,-1,-1,53,55,57,59,61,63,65,67,69,71,73,-1,75,77,-1,-1,-1,-1,-1,-1,-1,-1,-1,-1,-1,-1,-1,-1,-1,-1,-1,-1,-1,-1,-1,-1,-1,-1,-1,-1,-1,-1,-1,-1,-1,-1,-1,-1],"loss_changes":[1.9940007E-3,2.7648807E-3,1.9150334E-3,2.75649E-3,4.4729356E-3,1.5319269E-3,4.5532352E-4,3.709251E-3,6.4982837E-3,4.245069E-3,3.2759334E-3,1.115222E-3,1.6000718E-4,9.255891E-6,7.303641E-5,4.432328E-3,3.9027042E-3,3.332258E-3,5.2889036E-3,2.1046093E-3,3.6942025E-4,2.3019933E-3,1.5974347E-4,9.625393E-6,0E0,2.3302797E-5,3.411069E-6,0E0,0E0,0E0,0E0,4.538626E-3,5.437675E-3,2.9825596E-3,2.6683242E-3,3.1366409E-3,6.565083E-4,4.5987004E-3,2.041272E-3,6.393095E-4,8.7387674E-4,4.585262E-5,0E0,1.0200576E-3,1.6557702E-3,0E0,0E0,0E0,0E0,0E0,0E0,0E0,0E0,0E0,0E0,0E0,0E0,0E0,0E0,0E0,0E0,0E0,0E0,0E0,0E0,0E0,0E0,0E0,0E0,0E0,0E0,0E0,0E0,0E0,0E0,0E0,0E0,0E0,0E0],"parents":[2147483647,0,0,1,1,2,2,3,3,4,4,5,5,6,6,7,7,8,8,9,9,10,10,11,11,12,12,13,13,14,14,15,15,16,16,17,17,18,18,19,19,20,20,21,21,22,22,23,23,25,25,26,26,31,31,32,32,33,33,34,34,35,35,36,36,37,37,38,38,39,39,40,40,41,41,43,43,44,44],"right_children":[2,4,6,8,10,12,14,16,18,20,22,24,26,28,30,32,34,36,38,40,42,44,46,48,-1,50,52,-1,-1,-1,-1,54,56,58,60,62,64,66,68,70,72,74,-1,76,78,-1,-1,-1,-1,-1,-1,-1,-1,-1,-1,-1,-1,-1,-1,-1,-1,-1,-1,-1,-1,-1,-1,-1,-1,-1,-1,-1,-1,-1,-1,-1,-1,-1,-1],"split_conditions":[5.479635E-1,2.9647392E-1,1.5398522E-1,2.7237356E-1,-8.3576776E-2,2.483336E-1,4.8313096E-2,1.09502696E-1,-6.0929097E-2,2.1308985E-1,2.1614364E-1,-9.677494E-2,1.2530136E-1,-4.0368024E-1,2.2828385E-1,-4.052555E-2,1.292335E-1,-3.0412292E-1,7.777665E-2,-4.1009453E-1,7.7337235E-2,-8.3529346E-2,9.60927E-2,-7.2123855E-2,-7.3759337E-3,-8.7391205E-2,2.3730288E-1,-2.631292E-4,-1.6643883E-3,3.361198E-3,7.2697835E-4,3.0156878E-1,-4.2605144E-1,-1.304385E-1,-3.298633E-1,-1.6479039E-1,-7.64278E-2,-2.4487357E-1,-5.640325E-2,-3.8825452E-1,3.0342937E-1,2.5012288E-2,1.6277632E-3,1.1329435E-2,1.0419239E-1,-9.283917E-3,-2.9842278E-3,-8.975186E-4,-2.2605823E-3,-2.253384E-3,-5.3492485E-4,7.421909E-4,6.363988E-5,7.7800907E-4,-3.7716515E-3,2.57421E-3,-2.730491E-3,1.16849E-2,1.4720409E-3,3.6957616E-3,-1.1725812E-4,4.6922595E-4,-1.1650983E-2,1.6213218E-3,-1.2435907E-3,7.8019936E-4,8.369713E-3,-3.8648776E-3,2.3689137E-3,5.382257E-3,-1.2498128E-3,1.0622973E-2,3.260698E-3,-2.739662E-3,-5.8320316E-4,-4.568968E-3,4.90188E-4,7.650787E-4,6.74944E-3],"split_indices":[18,18,43,23,33,52,4,48,8,57,4,33,47,0,2,18,48,26,34,9,13,58,6,7,0,8,0,0,0,0,0,44,44,40,9,6,31,34,46,0,23,0,0,37,26,0,0,0,0,0,0,0,0,0,0,0,0,0,0,0,0,0,0,0,0,0,0,0,0,0,0,0,0,0,0,0,0,0,0],"split_type":[0,0,0,0,0,0,0,0,0,0,0,0,0,0,0,0,0,0,0,0,0,0,0,0,0,0,0,0,0,0,0,0,0,0,0,0,0,0,0,0,0,0,0,0,0,0,0,0,0,0,0,0,0,0,0,0,0,0,0,0,0,0,0,0,0,0,0,0,0,0,0,0,0,0,0,0,0,0,0],"sum_hessian":[6.51E2,6.18E2,3.3E1,5.59E2,5.9E1,2.4E1,9E0,4.75E2,8.4E1,2.5E1,3.4E1,1.5E1,9E0,3E0,6E0,3.21E2,1.54E2,3.5E1,4.9E1,1.7E1,8E0,3E1,4E0,6E0,9E0,4E0,5E0,1E0,2E0,4E0,2E0,1.6E2,1.61E2,1E1,1.44E2,7E0,2.8E1,3.2E1,1.7E1,4E0,1.3E1,5E0,3E0,1.3E1,1.7E1,2E0,2E0,3E0,3E0,2E0,2E0,4E0,1E0,1.38E2,2.2E1,1.9E1,1.42E2,4E0,6E0,1.8E1,1.26E2,3E0,4E0,1.1E1,1.7E1,1.1E1,2.1E1,8E0,9E0,1E0,3E0,1E1,3E0,3E0,2E0,6E0,7E0,1.1E1,6E0],"tree_param":{"num_deleted":"0","num_feature":"60","num_nodes":"79","size_leaf_vector":"0"}},{"base_weights":[-8.450237E-5,2.6068976E-2,-2.0508072E-4,-1.7038882E-3,1.6155974E-3,-2.887677E-3,8.309697E-3,-3.8381892E-3,5.3461045E-3,5.882092E-3,-3.8825194E-3,1.909195E-2,1.9392468E-3,2.1964533E-3,-1.0114623E-2,8.313406E-5,9.292501E-3,1.1021984E-2,-2.679169E-4,-7.711752E-3,-6.3830824E-4,1.6200483E-3,2.5918707E-2,8.783415E-3,-3.2090927E-3,3.618553E-3,-4.2275816E-2,2.179827E-3,-1.7483752E-2,1.0799681E-2,-4.4828607E-3,3.6989484E-2,7.7531533E-3,1.3296073E-2,-4.7804886E-3,-3.2919347E-3,3.167593E-3,-8.736543E-4,-1.1608835E-2,1.4568171E-3,-1.42761115E-2,-2.2729735E-3,4.973054E-3,2.9101573E-2,8.791499E-3,-3.9144447E-3,1.4034417E-2,-6.351568E-4,-1.3293117E-2,-1.2449865E-2,6.639046E-3,-5.6562363E-3,9.834238E-3,-5.0079604E-3,-2.6750643E-2,1.0415897E-3,1.9657798E-2,-8.76712E-3,2.6670287E-3,4.746884E-3,4.3863412E-2,5.209523E-3,2.1141456E-2],"categories":[],"categories_nodes":[],"categories_segments":[],"categories_sizes":[],"default_left":[1,0,1,1,1,1,1,1,1,1,1,1,1,1,1,1,1,1,1,1,1,1,1,1,1,1,0,1,1,1,1,1,1,0,0,0,0,0,0,0,0,0,0,0,0,0,0,0,0,0,0,0,0,0,0,0,0,0,0,0,0,0,0],"id":47,"left_children":[1,-1,3,5,7,9,11,13,15,17,19,21,23,25,27,29,31,33,35,37,39,41,43,45,47,49,-1,51,53,55,57,59,61,-1,-1,-1,-1,-1,-1,-1,-1,-1,-1,-1,-1,-1,-1,-1,-1,-1,-1,-1,-1,-1,-1,-1,-1,-1,-1,-1,-1,-1,-1],"loss_changes":[2.0614567E-3,0E0,1.7765027E-3,4.2558624E-3,6.002064E-3,2.81469E-3,2.5731132E-3,4.567341E-3,3.6339373E-3,1.0460955E-3,3.5728551E-3,1.6278801E-3,9.090893E-4,4.0741055E-3,5.3834757E-3,3.7672222E-3,3.9767446E-3,7.1041426E-4,1.7665219E-4,3.5074782E-3,4.5067444E-3,7.657024E-5,2.8928975E-4,7.883784E-4,3.808913E-4,3.0432625E-3,0E0,1.4351751E-3,4.1436693E-3,1.967606E-3,1.677509E-3,8.9995237E-4,3.1591333E-3,0E0,0E0,0E0,0E0,0E0,0E0,0E0,0E0,0E0,0E0,0E0,0E0,0E0,0E0,0E0,0E0,0E0,0E0,0E0,0E0,0E0,0E0,0E0,0E0,0E0,0E0,0E0,0E0,0E0,0E0],"parents":[2147483647,0,0,2,2,3,3,4,4,5,5,6,6,7,7,8,8,9,9,10,10,11,11,12,12,13,13,14,14,15,15,16,16,17,17,18,18,19,19,20,20,21,21,22,22,23,23,24,24,25,25,27,27,28,28,29,29,30,30,31,31,32,32],"right_children":[2,-1,4,6,8,10,12,14,16,18,20,22,24,26,28,30,32,34,36,38,40,42,44,46,48,50,-1,52,54,56,58,60,62,-1,-1,-1,-1,-1,-1,-1,-1,-1,-1,-1,-1,-1,-1,-1,-1,-1,-1,-1,-1,-1,-1,-1,-1,-1,-1,-1,-1,-1,-1],"split_conditions":[-1.862627E0,7.820693E-3,4.9519025E-2,3.6493534E-1,-6.6099636E-2,-4.282991E-1,-6.1315626E-2,2.0522255E-2,-6.6130064E-2,7.710571E-2,-3.900586E-2,-3.5874933E-2,-3.3771854E-2,4.8209998E-1,-9.977204E-2,-1.3592148E-1,-5.6891307E-2,5.05134E-1,-5.0870824E-1,-5.423355E-2,8.403984E-3,4.9082838E-2,5.705175E-2,-3.293756E-1,4.0083718E-1,-2.4288529E-1,-1.2682745E-2,-1.2881146E-2,-1.437203E-1,-2.0198777E-2,5.876408E-2,-2.4173784E-1,2.9189503E-1,3.988822E-3,-1.4341467E-3,-9.875805E-4,9.502779E-4,-2.6209632E-4,-3.4826507E-3,4.3704515E-4,-4.2828335E-3,-6.818921E-4,1.4919162E-3,8.730472E-3,2.6374497E-3,-1.1743335E-3,4.2103254E-3,-1.9054706E-4,-3.9879354E-3,-3.7349598E-3,1.991714E-3,-1.696871E-3,2.9502716E-3,-1.5023882E-3,-8.025194E-3,3.124769E-4,5.89734E-3,-2.630136E-3,8.0010865E-4,1.4240653E-3,1.31590245E-2,1.562857E-3,6.342437E-3],"split_indices":[34,0,17,5,49,47,41,3,31,31,20,29,49,55,57,4,31,22,47,48,17,3,7,12,14,21,0,25,35,9,22,1,9,0,0,0,0,0,0,0,0,0,0,0,0,0,0,0,0,0,0,0,0,0,0,0,0,0,0,0,0,0,0],"split_type":[0,0,0,0,0,0,0,0,0,0,0,0,0,0,0,0,0,0,0,0,0,0,0,0,0,0,0,0,0,0,0,0,0,0,0,0,0,0,0,0,0,0,0,0,0,0,0,0,0,0,0,0,0,0,0,0,0,0,0,0,0,0,0],"sum_hessian":[6.51E2,2E0,6.49E2,3.56E2,2.93E2,3.19E2,3.7E1,1.19E2,1.74E2,3.2E1,2.87E2,1.3E1,2.4E1,6.1E1,5.8E1,7.5E1,9.9E1,1.7E1,1.5E1,1.31E2,1.56E2,4E0,9E0,1E1,1.4E1,6E1,1E0,2.2E1,3.6E1,2.2E1,5.3E1,4E0,9.5E1,1.5E1,2E0,8E0,7E0,4.8E1,8.3E1,1.36E2,2E1,2E0,2E0,7E0,2E0,3E0,7E0,1.2E1,2E0,9E0,5.1E1,1.1E1,1.1E1,1.6E1,2E1,1.1E1,1.1E1,3.3E1,2E1,1E0,3E0,8.1E1,1.4E1],"tree_param":{"num_deleted":"0","num_feature":"60","num_nodes":"63","size_leaf_vector":"0"}},{"base_weights":[-3.162102E-5,1.8634449E-3,-1.5083437E-3,4.318347E-3,-2.283713E-3,2.4132147E-3,-3.4470502E-3,6.606717E-3,-2.1123092E-3,-4.961421E-4,-1.639397E-2,3.6897874E-3,-1.2253376E-2,-1.7152539E-2,-2.3547104E-3,1.1501163E-2,2.7845516E-3,1.1376414E-3,-1.6321832E-2,1.2166423E-2,-2.4499183E-3,-5.2745524E-3,-2.6634298E-2,7.165508E-5,1.1426579E-2,-2.762486E-2,-1.7191885E-3,-8.275607E-3,-4.6152897E-2,-6.1514364E-3,1.5972513E-3,-2.173836E-3,1.5500026E-2,-1.090812E-2,4.7866735E-3,-2.9978794E-3,6.9091036E-3,3.7782046E-3,3.0095361E-2,-4.463633E-3,1.2897936E-2,-8.19362E-3,-1.036847E-3,-1.0211547E-2,-3.2292787E-2,3.3113863E-3,-1.0162846E-2,1.7108839E-2,-1.363676E-3,3.0329775E-3,-4.22665E-3,6.459975E-4,-1.4295121E-2,-1.3888559E-2,1.430307E-3,-7.019984E-3,5.8848523E-3,-1.2406422E-2,1.7447255E-3,9.609863E-3,2.3054466E-2,-2.7882397E-2,3.4976937E-4,1.0526021E-2,-1.0934587E-3,3.929635E-3,-6.707239E-3,-2.3138432E-3,1.0944818E-2,-1.9423758E-3,9.88726E-3,-7.276482E-3,2.6435244E-3,-2.01568E-3,2.3176292E-2,3.1787902E-5,-1.4036546E-3,8.9259725E-3,-9.5406035E-4,-1.753917E-2,-1.8135956E-5,2.5060112E-2,2.6759182E-3,8.691653E-3,-9.787719E-3,-1.7018368E-3,-5.3425804E-3,-2.241406E-3,5.243004E-3,-2.1336965E-2,-1.6263357E-3,-1.6795846E-2,4.9760174E-3,-3.551219E-3,-2.1874342E-2,4.50289E-3,3.8011637E-2],"categories":[],"categories_nodes":[],"categories_segments":[],"categories_sizes":[],"default_left":[1,1,1,1,1,1,1,1,1,1,1,1,1,1,1,1,1,1,0,1,1,1,1,1,1,0,1,1,0,1,1,1,1,1,1,1,1,1,0,1,1,0,1,0,0,1,1,1,1,0,1,1,0,1,1,1,1,0,0,0,0,0,0,0,0,0,0,0,0,0,0,0,0,0,0,0,0,0,0,0,0,0,0,0,0,0,0,0,0,0,0,0,0,0,0,0,0],"id":48,"left_children":[1,3,5,7,9,11,13,15,17,19,21,23,25,27,29,31,33,35,-1,37,39,41,43,45,47,-1,49,51,-1,53,55,57,59,61,63,65,67,69,-1,71,73,-1,75,-1,-1,77,79,81,83,-1,85,87,-1,89,91,93,95,-1,-1,-1,-1,-1,-1,-1,-1,-1,-1,-1,-1,-1,-1,-1,-1,-1,-1,-1,-1,-1,-1,-1,-1,-1,-1,-1,-1,-1,-1,-1,-1,-1,-1,-1,-1,-1,-1,-1,-1],"loss_changes":[1.8274242E-3,2.92159E-3,2.798528E-3,2.6627851E-3,2.6907367E-3,2.3294142E-3,3.64249E-3,2.4560564E-3,2.2352205E-3,2.404829E-3,1.2259141E-3,3.1623603E-3,1.5717688E-3,4.2518727E-3,3.4458593E-3,3.2053916E-3,2.135708E-3,9.7543263E-4,0E0,1.8413875E-3,2.6536926E-3,7.809549E-5,2.2780849E-4,2.619902E-3,2.639723E-3,0E0,9.6230455E-5,8.147905E-4,0E0,6.883188E-3,4.216353E-3,5.83004E-4,1.7808089E-3,1.9206979E-3,2.272634E-3,6.430764E-4,6.580847E-4,3.6867824E-4,0E0,1.5185875E-3,1.5795907E-3,0E0,1.6125528E-6,0E0,0E0,1.445439E-3,1.4214644E-3,2.8019436E-3,1.1015497E-3,0E0,4.995374E-6,1.0466559E-4,0E0,5.262671E-3,3.961056E-3,1.8803179E-3,3.2030856E-3,0E0,0E0,0E0,0E0,0E0,0E0,0E0,0E0,0E0,0E0,0E0,0E0,0E0,0E0,0E0,0E0,0E0,0E0,0E0,0E0,0E0,0E0,0E0,0E0,0E0,0E0,0E0,0E0,0E0,0E0,0E0,0E0,0E0,0E0,0E0,0E0,0E0,0E0,0E0,0E0],"parents":[2147483647,0,0,1,1,2,2,3,3,4,4,5,5,6,6,7,7,8,8,9,9,10,10,11,11,12,12,13,13,14,14,15,15,16,16,17,17,19,19,20,20,21,21,22,22,23,23,24,24,26,26,27,27,29,29,30,30,31,31,32,32,33,33,34,34,35,35,36,36,37,37,39,39,40,40,42,42,45,45,46,46,47,47,48,48,50,50,51,51,53,53,54,54,55,55,56,56],"right_children":[2,4,6,8,10,12,14,16,18,20,22,24,26,28,30,32,34,36,-1,38,40,42,44,46,48,-1,50,52,-1,54,56,58,60,62,64,66,68,70,-1,72,74,-1,76,-1,-1,78,80,82,84,-1,86,88,-1,90,92,94,96,-1,-1,-1,-1,-1,-1,-1,-1,-1,-1,-1,-1,-1,-1,-1,-1,-1,-1,-1,-1,-1,-1,-1,-1,-1,-1,-1,-1,-1,-1,-1,-1,-1,-1,-1,-1,-1,-1,-1,-1],"split_conditions":[-4.316411E-2,6.482856E-2,-1.2659515E-1,1.6154543E-1,4.4270024E-1,4.774531E-1,-9.2299804E-2,-5.2003145E-2,1.849221E-1,-2.8664368E-1,-6.9765575E-2,7.5841144E-2,-1.2584504E-1,1.6202599E-1,2.3919113E-2,-3.646884E-1,-3.610688E-1,1.4062645E-1,-4.89655E-3,1.8077962E-1,2.6237777E-1,6.336477E-2,3.912972E-2,1.8771982E-1,1.07449755E-1,-8.287459E-3,-1.9607764E-1,5.7475798E-2,-1.3845869E-2,2.1402303E-2,-1.3344479E-1,-2.0077041E-1,-1.8352146E-3,9.253928E-2,1.1890016E-1,-1.06737316E-1,-2.298123E-1,-1.3546565E-1,9.028609E-3,1.2212374E-1,-1.6984707E-1,-2.458086E-3,4.765226E-2,-3.0634643E-3,-9.687836E-3,-9.9924915E-2,2.4029724E-1,1.8806507E-1,-3.2793656E-2,9.0989325E-4,-8.335794E-2,-2.2734854E-2,-4.2885365E-3,1.1971742E-1,-3.9233547E-1,2.3646039E-1,3.681649E-1,-3.7219266E-3,5.2341766E-4,2.882959E-3,6.91634E-3,-8.364719E-3,1.0493081E-4,3.1578063E-3,-3.2803763E-4,1.1788906E-3,-2.0121718E-3,-6.94153E-4,3.2834455E-3,-5.8271276E-4,2.9661783E-3,-2.1829447E-3,7.930574E-4,-6.04704E-4,6.952888E-3,9.536371E-6,-4.210964E-4,2.6777918E-3,-2.8621813E-4,-5.261751E-3,-5.440787E-6,7.518034E-3,8.027755E-4,2.607496E-3,-2.9363157E-3,-5.105511E-4,-1.6027741E-3,-6.7242177E-4,1.5729013E-3,-6.40109E-3,-4.8790072E-4,-5.038754E-3,1.4928053E-3,-1.0653657E-3,-6.562303E-3,1.3508671E-3,1.1403492E-2],"split_indices":[15,39,38,40,49,17,38,3,16,18,7,17,5,58,48,39,58,14,0,59,35,25,0,5,25,0,1,17,0,52,31,41,49,12,58,12,34,32,0,4,47,0,0,0,0,53,8,31,16,0,2,1,0,56,49,13,53,0,0,0,0,0,0,0,0,0,0,0,0,0,0,0,0,0,0,0,0,0,0,0,0,0,0,0,0,0,0,0,0,0,0,0,0,0,0,0,0],"split_type":[0,0,0,0,0,0,0,0,0,0,0,0,0,0,0,0,0,0,0,0,0,0,0,0,0,0,0,0,0,0,0,0,0,0,0,0,0,0,0,0,0,0,0,0,0,0,0,0,0,0,0,0,0,0,0,0,0,0,0,0,0,0,0,0,0,0,0,0,0,0,0,0,0,0,0,0,0,0,0,0,0,0,0,0,0,0,0,0,0,0,0,0,0,0,0,0,0],"sum_hessian":[6.51E2,2.85E2,3.66E2,1.79E2,1.06E2,1.21E2,2.45E2,1.32E2,4.7E1,9.5E1,1.1E1,1.12E2,9E0,1.7E1,2.28E2,5.7E1,7.5E1,3.9E1,8E0,1.2E1,8.3E1,6E0,5E0,7.7E1,3.5E1,3E0,6E0,1.4E1,3E0,1.16E2,1.12E2,1.3E1,4.4E1,9E0,6.6E1,2.3E1,1.6E1,9E0,3E0,7.4E1,9E0,3E0,3E0,2E0,3E0,5.9E1,1.8E1,2.4E1,1.1E1,2E0,4E0,6E0,8E0,5.7E1,5.9E1,3.7E1,7.5E1,3E0,1E1,2.6E1,1.8E1,3E0,6E0,3.3E1,3.3E1,8E0,1.5E1,5E0,1.1E1,5E0,4E0,5.3E1,2.1E1,4E0,5E0,1E0,2E0,2.5E1,3.4E1,1E1,8E0,1.5E1,9E0,5E0,6E0,2E0,2E0,4E0,2E0,3.5E1,2.2E1,9E0,5E1,3.1E1,6E0,7.3E1,2E0],"tree_param":{"num_deleted":"0","num_feature":"60","num_nodes":"97","size_leaf_vector":"0"}},{"base_weights":[-6.528996E-5,-4.180211E-4,5.4896385E-3,-2.2520265E-4,-1.9919427E-2,-1.3295821E-3,1.2034378E-2,9.761984E-4,-2.0764242E-3,-2.4114914E-2,-7.685634E-3,-5.5207806E-3,9.370011E-3,5.512219E-3,1.9393437E-2,3.072228E-3,-3.058506E-3,-2.0306526E-2,-6.8362005E-4,-8.171149E-3,-1.8336996E-4,1.1942323E-2,2.816925E-3,9.201404E-3,-1.4929206E-3,2.6202321E-2,1.1621941E-2,5.9700455E-4,7.7798325E-3,-2.0278795E-2,-1.2507304E-3,-1.02079725E-2,-3.3274747E-2,2.5854558E-3,-6.71655E-3,-4.159067E-3,-1.0152693E-2,2.5878847E-3,-2.2159684E-3,1.626474E-2,5.8688214E-3,9.90597E-4,-3.4787979E-3,3.134062E-3,-5.0979443E-3,9.68046E-3,-5.713466E-3,-3.0331433E-2,-1.3881177E-4,-8.148015E-3,3.915164E-3,-1.542598E-3,-1.4939244E-2,1.9480248E-3,3.2320324E-2,-1.3567697E-2,6.5815705E-4],"categories":[],"categories_nodes":[],"categories_segments":[],"categories_sizes":[],"default_left":[1,1,1,1,1,1,1,1,1,0,0,1,1,1,1,1,1,1,1,1,1,0,0,1,1,0,0,1,1,1,1,1,0,1,1,0,0,0,0,0,0,0,0,0,0,0,0,0,0,0,0,0,0,0,0,0,0],"id":49,"left_children":[1,3,5,7,9,11,13,15,17,-1,-1,19,21,23,25,27,29,31,33,35,37,-1,-1,39,41,-1,-1,43,45,47,49,51,-1,53,55,-1,-1,-1,-1,-1,-1,-1,-1,-1,-1,-1,-1,-1,-1,-1,-1,-1,-1,-1,-1,-1,-1],"loss_changes":[1.2798213E-3,2.304296E-3,1.7565716E-3,1.3564795E-3,1.2262212E-4,9.486122E-4,8.530379E-4,3.1384346E-3,6.079949E-3,0E0,0E0,2.106932E-4,6.7498826E-5,3.23856E-4,1.7171516E-4,2.8385343E-3,3.9281994E-3,1.886657E-3,4.435117E-3,3.727543E-5,3.953176E-5,0E0,0E0,9.285833E-5,2.8105887E-5,0E0,0E0,2.3421717E-3,2.2095507E-3,2.4253097E-3,4.165055E-3,4.279354E-4,0E0,2.7043128E-3,4.0004207E-3,0E0,0E0,0E0,0E0,0E0,0E0,5.602649E-7,0E0,0E0,0E0,0E0,0E0,0E0,0E0,0E0,0E0,0E0,0E0,0E0,0E0,0E0,0E0],"parents":[2147483647,0,0,1,1,2,2,3,3,4,4,5,5,6,6,7,7,8,8,11,11,12,12,13,13,14,14,15,15,16,16,17,17,18,18,19,19,20,20,23,23,24,24,27,27,28,28,29,29,30,30,31,31,33,33,34,34],"right_children":[2,4,6,8,10,12,14,16,18,-1,-1,20,22,24,26,28,30,32,34,36,38,-1,-1,40,42,-1,-1,44,46,48,50,52,-1,54,56,-1,-1,-1,-1,-1,-1,-1,-1,-1,-1,-1,-1,-1,-1,-1,-1,-1,-1,-1,-1,-1,-1],"split_conditions":[4.5106557E-1,4.307352E-1,4.5510527E-2,7.554574E-2,-6.129741E-2,2.4789697E-1,7.7091634E-2,1.4249626E-1,8.428615E-2,-7.2344746E-3,-2.3056902E-3,1.920844E-1,3.041385E-1,1.527197E-1,1.4019596E-2,-8.638426E-2,-3.4592745E-1,1.0944034E-1,1.0153261E-1,-3.436049E-2,-8.955404E-2,3.5826971E-3,8.4507756E-4,-4.164241E-1,2.6595092E-1,7.860697E-3,3.4865823E-3,1.509037E-1,3.5249585E-1,-2.1395274E-2,-5.8716767E-2,-5.5549007E-2,-9.982425E-3,9.840459E-2,3.211251E-2,-1.2477201E-3,-3.045808E-3,7.7636546E-4,-6.6479057E-4,4.8794225E-3,1.7606465E-3,2.971791E-4,-1.0436394E-3,9.402186E-4,-1.5293834E-3,2.904138E-3,-1.71404E-3,-9.09943E-3,-4.1643532E-5,-2.4444044E-3,1.1745493E-3,-4.6277943E-4,-4.4817734E-3,5.844075E-4,9.696098E-3,-4.0703095E-3,1.9744712E-4],"split_indices":[53,53,6,12,0,9,11,11,12,0,0,55,7,29,22,12,27,32,15,24,4,0,0,15,6,0,0,39,54,56,49,21,0,15,39,0,0,0,0,0,0,0,0,0,0,0,0,0,0,0,0,0,0,0,0,0,0],"split_type":[0,0,0,0,0,0,0,0,0,0,0,0,0,0,0,0,0,0,0,0,0,0,0,0,0,0,0,0,0,0,0,0,0,0,0,0,0,0,0,0,0,0,0,0,0,0,0,0,0,0,0,0,0,0,0,0,0],"sum_hessian":[6.51E2,6.13E2,3.8E1,6.08E2,5E0,1.9E1,1.9E1,3.69E2,2.39E2,3E0,2E0,1.4E1,5E0,1.1E1,8E0,2.43E2,1.26E2,1.6E1,2.23E2,9E0,5E0,3E0,2E0,7E0,4E0,3E0,5E0,1.6E2,8.3E1,1.1E1,1.15E2,1E1,6E0,1.45E2,7.8E1,4E0,5E0,2E0,3E0,1E0,6E0,2E0,2E0,1.11E2,4.9E1,7.3E1,1E1,7E0,4E0,4.9E1,6.6E1,4E0,6E0,1.43E2,2E0,4E1,3.8E1],"tree_param":{"num_deleted":"0","num_feature":"60","num_nodes":"57","size_leaf_vector":"0"}},{"base_weights":[-6.162755E-5,2.017212E-3,-1.0608393E-3,6.581791E-3,-9.1308415E-5,-3.303376E-2,-9.130969E-4,1.2832401E-2,1.1669068E-3,3.7464646E-3,-3.6753952E-3,-1.5734705E-3,5.551844E-3,2.4189234E-2,7.830494E-3,3.2208466E-3,-1.6583309E-2,7.018491E-4,1.2672175E-2,-7.293633E-4,-9.312788E-3,-3.0045554E-3,1.4562082E-3,1.1409486E-2,1.3465738E-3,3.258229E-2,5.5523394E-3,6.623915E-4,1.3293466E-2,9.837173E-3,5.4161606E-5,-7.1962774E-3,-2.2372201E-2,-2.5170464E-3,1.2177737E-2,-2.3781061E-4,2.5608582E-2,2.7070793E-3,-5.7674753E-3,-1.6859215E-2,2.51045E-3,-4.691613E-3,3.165526E-3,2.9758497E-3,-6.9746305E-3,4.508052E-3,1.8610092E-2,7.4277883E-3,-2.538346E-3,1.6379952E-3,6.311122E-3,-4.2782226E-3,7.446773E-3,1.7056549E-2,5.6238845E-4,4.636849E-3,1.7778529E-2,-4.6213707E-3,5.114808E-3,-9.811192E-3,6.229838E-4,2.5519736E-2,4.894878E-3,-7.3956163E-3,5.7666623E-3,3.3895664E-2,1.2199785E-2,-3.1103895E-4,1.0119261E-2,-9.908136E-3,2.1996144E-3,-1.0842159E-3,-2.0416198E-2,-6.317731E-3,6.6107344E-3,-1.5938599E-2,-3.5774068E-3,9.760165E-3,-3.53463E-3,5.3735245E-3,-3.307694E-3,-1.218802E-2,2.3689554E-3,7.2202333E-3,1.496559E-3,9.300595E-3,-4.229322E-5,2.0756263E-3,-7.4117715E-3],"categories":[],"categories_nodes":[],"categories_segments":[],"categories_sizes":[],"default_left":[1,1,1,1,1,0,1,1,1,1,1,1,1,1,1,1,1,1,1,1,1,1,1,1,1,0,1,1,1,1,1,0,0,1,1,1,1,1,1,1,1,1,1,1,1,1,0,1,1,0,0,0,0,0,0,0,0,0,0,0,0,0,0,0,0,0,0,0,0,0,0,0,0,0,0,0,0,0,0,0,0,0,0,0,0,0,0,0,0],"id":50,"left_children":[1,3,5,7,9,-1,11,13,15,17,19,21,23,25,27,29,31,33,35,37,39,41,43,45,47,-1,49,51,53,55,57,-1,-1,59,61,63,65,67,69,71,73,75,77,79,81,83,-1,85,87,-1,-1,-1,-1,-1,-1,-1,-1,-1,-1,-1,-1,-1,-1,-1,-1,-1,-1,-1,-1,-1,-1,-1,-1,-1,-1,-1,-1,-1,-1,-1,-1,-1,-1,-1,-1,-1,-1,-1,-1],"loss_changes":[1.356475E-3,2.0409967E-3,2.053014E-3,2.2527303E-3,2.021987E-3,0E0,1.8872174E-3,1.5715668E-3,1.4023535E-3,1.9205562E-3,1.2554111E-3,1.7386662E-3,9.945878E-4,1.2268773E-3,8.9185475E-4,7.118292E-4,5.636562E-5,2.0253947E-3,3.012249E-3,8.9858536E-4,2.3621276E-3,2.846176E-3,1.6734845E-3,7.6091127E-4,6.094801E-4,0E0,1.5429687E-6,4.005681E-4,6.1321305E-4,3.7183752E-4,5.9150666E-4,0E0,0E0,9.909772E-4,1.0410988E-3,4.724365E-4,5.865586E-4,6.966436E-4,7.1456336E-4,8.756467E-4,4.399434E-4,2.624713E-3,2.6414199E-3,1.6750225E-3,1.003108E-3,7.087167E-5,0E0,1.4029356E-4,3.7515766E-4,0E0,0E0,0E0,0E0,0E0,0E0,0E0,0E0,0E0,0E0,0E0,0E0,0E0,0E0,0E0,0E0,0E0,0E0,0E0,0E0,0E0,0E0,0E0,0E0,0E0,0E0,0E0,0E0,0E0,0E0,0E0,0E0,0E0,0E0,0E0,0E0,0E0,0E0,0E0,0E0],"parents":[2147483647,0,0,1,1,2,2,3,3,4,4,6,6,7,7,8,8,9,9,10,10,11,11,12,12,13,13,14,14,15,15,16,16,17,17,18,18,19,19,20,20,21,21,22,22,23,23,24,24,26,26,27,27,28,28,29,29,30,30,33,33,34,34,35,35,36,36,37,37,38,38,39,39,40,40,41,41,42,42,43,43,44,44,45,45,47,47,48,48],"right_children":[2,4,6,8,10,-1,12,14,16,18,20,22,24,26,28,30,32,34,36,38,40,42,44,46,48,-1,50,52,54,56,58,-1,-1,60,62,64,66,68,70,72,74,76,78,80,82,84,-1,86,88,-1,-1,-1,-1,-1,-1,-1,-1,-1,-1,-1,-1,-1,-1,-1,-1,-1,-1,-1,-1,-1,-1,-1,-1,-1,-1,-1,-1,-1,-1,-1,-1,-1,-1,-1,-1,-1,-1,-1,-1],"split_conditions":[-1.3783354E-1,-1.3063869E-1,-1.3565823E-1,-4.3838285E-2,-2.559716E-2,-9.910128E-3,4.0611386E-1,-1.0815923E-1,3.0625385E-1,2.1147344E-1,4.2095467E-2,1.2865178E-1,-1.6953869E-1,5.2284095E-2,-4.6627805E-2,-7.2016254E-2,-4.756506E-1,2.1495277E-1,-7.940963E-3,6.0678765E-2,1.7197973E-1,1.9200431E-1,2.2784856E-1,-1.14155576E-1,-3.5089202E-2,9.774688E-3,5.6040153E-2,2.6197445E-1,2.1070373E-1,7.8385964E-2,7.0194714E-4,-2.1588833E-3,-6.7116604E-3,-5.299291E-2,-8.0112986E-2,-1.7911887E-1,6.0993835E-2,-2.0883897E-1,1.9794759E-1,-6.052974E-1,6.1922885E-2,-3.9829344E-1,8.216092E-2,1.7003997E-1,7.836741E-2,-1.1909348E-1,5.583028E-3,2.8151378E-1,-4.3855064E-2,4.913986E-4,1.8933367E-3,-1.2834668E-3,2.234032E-3,5.1169647E-3,1.6871653E-4,1.3910547E-3,5.3335587E-3,-1.3864113E-3,1.5344425E-3,-2.9433577E-3,1.8689515E-4,7.655921E-3,1.4684635E-3,-2.2186849E-3,1.7299987E-3,1.01687E-2,3.6599354E-3,-9.331169E-5,3.0357784E-3,-2.972441E-3,6.5988436E-4,-3.252648E-4,-6.1248597E-3,-1.8953193E-3,1.9832205E-3,-4.7815796E-3,-1.073222E-3,2.9280495E-3,-1.060389E-3,1.6120574E-3,-9.923083E-4,-3.6564062E-3,7.1068667E-4,2.16607E-3,4.489677E-4,2.7901786E-3,-1.2687967E-5,6.226879E-4,-2.2235315E-3],"split_indices":[27,40,27,39,32,0,43,21,17,9,38,40,17,10,58,4,2,52,44,50,20,29,16,20,52,0,0,35,23,45,58,0,0,24,57,10,10,27,55,16,10,21,51,54,10,30,0,39,25,0,0,0,0,0,0,0,0,0,0,0,0,0,0,0,0,0,0,0,0,0,0,0,0,0,0,0,0,0,0,0,0,0,0,0,0,0,0,0,0],"split_type":[0,0,0,0,0,0,0,0,0,0,0,0,0,0,0,0,0,0,0,0,0,0,0,0,0,0,0,0,0,0,0,0,0,0,0,0,0,0,0,0,0,0,0,0,0,0,0,0,0,0,0,0,0,0,0,0,0,0,0,0,0,0,0,0,0,0,0,0,0,0,0,0,0,0,0,0,0,0,0,0,0,0,0,0,0,0,0,0,0],"sum_hessian":[6.51E2,2.11E2,4.4E2,6.6E1,1.45E2,1E0,4.39E2,3E1,3.6E1,7E1,7.5E1,3.99E2,4E1,8E0,2.2E1,3.3E1,3E0,5.3E1,1.7E1,5E1,2.5E1,2.71E2,1.28E2,1.6E1,2.4E1,5E0,3E0,1E1,1.2E1,1E1,2.3E1,2E0,1E0,4.2E1,1.1E1,9E0,8E0,3E1,2E1,1.5E1,1E1,2.13E2,5.8E1,1.09E2,1.9E1,9E0,7E0,9E0,1.5E1,1E0,2E0,6E0,4E0,9E0,3E0,7E0,3E0,1.2E1,1.1E1,1.2E1,3E1,3E0,8E0,4E0,5E0,4E0,4E0,2.2E1,8E0,1.3E1,7E0,3E0,1.2E1,3E0,7E0,1.8E1,1.95E2,2.9E1,2.9E1,7.9E1,3E1,1.2E1,7E0,4E0,5E0,7E0,2E0,8E0,7E0],"tree_param":{"num_deleted":"0","num_feature":"60","num_nodes":"89","size_leaf_vector":"0"}},{"base_weights":[-7.05871E-6,1.8601693E-3,-7.5633894E-4,-3.7134243E-3,2.9488397E-3,-1.2536877E-2,-4.1734483E-4,-2.6534775E-2,-1.2245458E-3,-1.0775551E-3,5.0702267E-3,-2.5513673E-2,2.2309017E-3,2.0386758E-3,-1.5999954E-3,-8.2347505E-3,1.8381395E-3,1.6523302E-2,-2.410745E-3,-6.653824E-4,7.0155673E-3,-3.1451225E-2,-1.3197701E-2,7.363878E-3,-1.2950643E-3,7.2147585E-3,-1.2110401E-5,-2.520514E-3,5.3994777E-3,-1.152905E-2,2.1968633E-3,1.4361639E-2,4.9388263E-4,-9.957384E-4,-1.5512658E-2,8.4142E-3,-2.610275E-3,1.7134657E-2,4.692398E-3,3.484562E-4,-2.5068969E-3,4.187462E-3,1.7849572E-2,-6.940568E-4,1.4038408E-2,-6.590581E-4,-6.4051594E-3,8.196292E-3,-5.413909E-3,-1.241298E-2,-3.1127334E-3,9.24722E-3,-1.594778E-3,-6.461052E-3,1.2188366E-3,-2.2886607E-3,-2.356577E-2,-7.5044166E-3,1.0719887E-3,4.951578E-3,2.3352858E-2,-2.827669E-3,7.052167E-3,8.819882E-3,-4.202381E-4,9.178747E-3,2.6393417E-2,3.1087096E-3,-3.059941E-3,4.725466E-3,1.867188E-2,7.9737074E-4,-6.5063243E-3,-3.0263155E-3,-1.851642E-2,1.1568452E-2,-5.827795E-4,-6.758518E-3,1.999177E-3],"categories":[],"categories_nodes":[],"categories_segments":[],"categories_sizes":[],"default_left":[1,1,1,1,1,1,1,0,1,1,1,1,1,1,1,1,1,0,1,1,1,0,0,0,1,1,1,1,1,1,0,0,1,1,1,0,1,1,1,0,0,1,1,1,1,1,1,1,1,0,0,0,0,0,0,0,0,0,0,0,0,0,0,0,0,0,0,0,0,0,0,0,0,0,0,0,0,0,0],"id":51,"left_children":[1,3,5,7,9,11,13,-1,15,17,19,21,23,25,27,29,31,-1,33,35,37,-1,-1,-1,39,41,43,45,47,49,-1,-1,51,53,55,-1,57,59,61,-1,-1,63,65,67,69,71,73,75,77,-1,-1,-1,-1,-1,-1,-1,-1,-1,-1,-1,-1,-1,-1,-1,-1,-1,-1,-1,-1,-1,-1,-1,-1,-1,-1,-1,-1,-1,-1],"loss_changes":[9.136052E-4,1.14563E-3,1.8557542E-3,1.7282935E-3,1.3464857E-3,2.548218E-3,1.3219567E-3,0E0,6.377682E-4,1.330424E-3,1.1539124E-3,9.680353E-5,1.3622761E-4,1.571113E-3,1.991655E-3,3.3461145E-4,3.4643785E-4,0E0,9.485966E-4,4.987513E-4,1.7297408E-3,0E0,0E0,0E0,1.0831903E-5,1.2774346E-3,1.0349854E-3,1.9626368E-3,1.1331232E-3,1.3437762E-5,0E0,0E0,3.8040229E-4,5.888357E-4,4.7853752E-4,0E0,4.2253966E-4,9.4496226E-4,1.1556607E-3,0E0,0E0,7.2942965E-4,4.2448123E-4,9.361937E-4,1.2752297E-4,1.5806715E-3,3.5451043E-3,8.652704E-4,9.325308E-5,0E0,0E0,0E0,0E0,0E0,0E0,0E0,0E0,0E0,0E0,0E0,0E0,0E0,0E0,0E0,0E0,0E0,0E0,0E0,0E0,0E0,0E0,0E0,0E0,0E0,0E0,0E0,0E0,0E0,0E0],"parents":[2147483647,0,0,1,1,2,2,3,3,4,4,5,5,6,6,8,8,9,9,10,10,11,11,12,12,13,13,14,14,15,15,16,16,18,18,19,19,20,20,24,24,25,25,26,26,27,27,28,28,29,29,32,32,33,33,34,34,36,36,37,37,38,38,41,41,42,42,43,43,44,44,45,45,46,46,47,47,48,48],"right_children":[2,4,6,8,10,12,14,-1,16,18,20,22,24,26,28,30,32,-1,34,36,38,-1,-1,-1,40,42,44,46,48,50,-1,-1,52,54,56,-1,58,60,62,-1,-1,64,66,68,70,72,74,76,78,-1,-1,-1,-1,-1,-1,-1,-1,-1,-1,-1,-1,-1,-1,-1,-1,-1,-1,-1,-1,-1,-1,-1,-1,-1,-1,-1,-1,-1,-1],"split_conditions":[-1.3255472E-1,-2.5812644E-1,-1.2141204E-1,-5.846613E-1,-1.0837759E-1,1.9734953E-2,-1.4429846E-1,-7.960433E-3,-1.569385E-1,-4.28328E-1,-1.5053917E-1,-2.1226795E-1,-3.1012326E-1,-1.0910979E-1,2.860896E-1,3.1971398E-1,-3.6298403E-1,4.9569905E-3,3.3284098E-1,-3.791569E-1,-4.796177E-2,-9.435368E-3,-3.9593107E-3,2.2091635E-3,1.3870491E-1,-1.7679778E-1,-1.4660132E-1,3.0893013E-2,2.7107716E-1,5.63501E-1,6.5905903E-4,4.308492E-3,-5.4830265E-1,-1.3757294E-1,-2.6048014E-1,2.52426E-3,2.9293079E-2,-1.0032008E-1,-2.009581E-1,1.0453686E-4,-7.520691E-4,5.572827E-2,-1.502397E-1,-7.641938E-2,-2.5129646E-1,2.017723E-1,1.7103246E-1,1.2639219E-1,3.3512366E-1,-3.7238942E-3,-9.3382003E-4,2.7741662E-3,-4.7843342E-4,-1.9383157E-3,3.65651E-4,-6.8659824E-4,-7.069731E-3,-2.2513252E-3,3.2159663E-4,1.4854735E-3,7.005858E-3,-8.4830076E-4,2.11565E-3,2.6459647E-3,-1.2607143E-4,2.7536242E-3,7.918025E-3,9.326129E-4,-9.1798237E-4,1.4176399E-3,5.601564E-3,2.3921124E-4,-1.9518974E-3,-9.078947E-4,-5.554926E-3,3.4705359E-3,-1.7483387E-4,-2.0275556E-3,5.997531E-4],"split_indices":[56,44,56,49,47,54,27,0,12,58,19,4,2,21,23,4,11,0,9,12,47,0,0,0,1,21,27,23,51,0,0,0,56,35,4,0,58,26,24,0,0,16,15,4,0,53,2,31,1,0,0,0,0,0,0,0,0,0,0,0,0,0,0,0,0,0,0,0,0,0,0,0,0,0,0,0,0,0,0],"split_type":[0,0,0,0,0,0,0,0,0,0,0,0,0,0,0,0,0,0,0,0,0,0,0,0,0,0,0,0,0,0,0,0,0,0,0,0,0,0,0,0,0,0,0,0,0,0,0,0,0,0,0,0,0,0,0,0,0,0,0,0,0,0,0,0,0,0,0,0,0,0,0,0,0,0,0,0,0,0,0],"sum_hessian":[6.51E2,1.86E2,4.65E2,3E1,1.56E2,1.2E1,4.53E2,2E0,2.8E1,5.4E1,1.02E2,6E0,6E0,1.47E2,3.06E2,8E0,2E1,3E0,5.1E1,2.6E1,7.6E1,3E0,3E0,2E0,4E0,4.1E1,1.06E2,2.71E2,3.5E1,6E0,2E0,1E0,1.9E1,4.7E1,4E0,4E0,2.2E1,1.3E1,6.3E1,2E0,2E0,3.3E1,8E0,1.02E2,4E0,1.84E2,8.7E1,2.8E1,7E0,5E0,1E0,3E0,1.6E1,1.3E1,3.4E1,2E0,2E0,9E0,1.3E1,5E0,8E0,1.5E1,4.8E1,1.6E1,1.7E1,5E0,3E0,3.9E1,6.3E1,2E0,2E0,1.48E2,3.6E1,6.9E1,1.8E1,2E1,8E0,6E0,1E0],"tree_param":{"num_deleted":"0","num_feature":"60","num_nodes":"79","size_leaf_vector":"0"}},{"base_weights":[-7.828559E-7,3.5207653E-3,-3.5056495E-4,-1.0613318E-3,7.163064E-3,1.5567311E-3,-1.2375807E-3,3.2160063E-3,-4.6976027E-3,1.4080584E-2,2.5396917E-3,2.4632916E-3,-8.399409E-3,-1.5622348E-3,8.697137E-3,-8.0412324E-4,8.040179E-3,-6.8257595E-3,-1.9822456E-3,2.1502454E-2,4.647201E-3,6.5494278E-3,-4.794808E-3,-7.120212E-3,3.2813398E-3,-4.9205753E-4,-2.5697172E-2,-2.5616267E-3,1.8419509E-3,2.9248695E-3,1.7347792E-2,-2.8326921E-3,9.795565E-4,-9.97249E-4,-7.51594E-3,-2.7476053E-3,2.0922224E-4,2.6152486E-2,6.5849177E-3,7.7233315E-3,4.0927046E-4,9.919428E-3,4.02856E-4,-8.902831E-3,-5.4942816E-4,-4.04967E-4,-1.3777605E-2,5.806467E-3,-1.6964816E-4,-3.865988E-3,5.0046425E-3,-5.24348E-3,-2.9499725E-2,-4.657167E-3,5.7695503E-4,-4.4952314E-3,4.928402E-3,4.2455196E-3,-1.1316041E-3,1.927336E-2,4.822761E-3,-5.798042E-4,-3.3903867E-3,-3.5460666E-4,6.6844E-4,-8.2998224E-5,9.4303826E-4,4.0101362E-3,1.3844835E-2,-1.4564963E-3,2.747707E-3,-1.0106559E-2,-2.645824E-3,9.860484E-4,-1.901762E-3,1.9949228E-3,-3.3035874E-3,-9.126088E-6,8.7144105E-3,-1.0524942E-2,1.7638751E-3,-1.1635609E-3,-7.9821795E-3,7.950544E-3,2.2805312E-3,-9.247289E-3,-2.0503432E-3,-9.924475E-3,2.1273803E-3,1.0716374E-3,-1.29348375E-2,-1.1746295E-2,6.3046315E-3,2.0963661E-3,5.333293E-3],"categories":[],"categories_nodes":[],"categories_segments":[],"categories_sizes":[],"default_left":[1,1,1,1,1,1,1,1,1,1,1,1,1,1,1,1,0,1,1,1,1,1,1,1,1,1,1,1,1,1,1,1,0,0,0,0,1,0,0,0,1,1,1,1,1,1,0,1,1,1,1,0,0,1,1,1,1,1,0,0,0,0,0,0,0,0,0,0,0,0,0,0,0,0,0,0,0,0,0,0,0,0,0,0,0,0,0,0,0,0,0,0,0,0,0],"id":52,"left_children":[1,3,5,7,9,11,13,15,17,19,21,23,25,27,29,31,-1,33,35,37,39,41,43,45,47,49,51,53,55,57,59,61,-1,-1,-1,-1,63,-1,-1,-1,65,67,69,71,73,75,-1,77,79,81,83,-1,-1,85,87,89,91,93,-1,-1,-1,-1,-1,-1,-1,-1,-1,-1,-1,-1,-1,-1,-1,-1,-1,-1,-1,-1,-1,-1,-1,-1,-1,-1,-1,-1,-1,-1,-1,-1,-1,-1,-1,-1,-1],"loss_changes":[8.043512E-4,9.922751E-4,1.0068567E-3,4.3505363E-4,1.0196544E-3,1.7265746E-3,1.3230782E-3,2.5858462E-4,7.3150266E-5,8.102474E-4,6.4900087E-4,1.3874833E-3,2.1758275E-3,1.3451517E-3,5.984006E-4,3.1721316E-5,0E0,2.468651E-5,1.3992947E-5,3.1335698E-4,8.8094064E-5,2.859992E-4,1.3462946E-4,6.203049E-4,1.4039684E-3,2.4189368E-4,2.3419992E-4,2.0086793E-3,1.7825005E-3,5.301889E-5,2.7638162E-5,3.059933E-6,8.530528E-7,0E0,0E0,4.3610635E-7,1.0137941E-6,0E0,0E0,0E0,1.1292991E-6,1.5324762E-4,3.0161451E-5,3.3867545E-6,1.2257613E-5,6.224136E-5,0E0,1.5728415E-3,1.4000966E-3,7.970192E-5,2.1993357E-5,0E0,0E0,2.1707523E-3,2.0237602E-3,1.4233268E-3,1.4738968E-3,5.184018E-6,0E0,0E0,0E0,0E0,0E0,0E0,0E0,0E0,0E0,0E0,0E0,0E0,0E0,0E0,0E0,0E0,0E0,0E0,0E0,0E0,0E0,0E0,0E0,0E0,0E0,0E0,0E0,0E0,0E0,0E0,0E0,0E0,0E0,0E0,0E0,0E0,0E0],"parents":[2147483647,0,0,1,1,2,2,3,3,4,4,5,5,6,6,7,7,8,8,9,9,10,10,11,11,12,12,13,13,14,14,15,15,17,17,18,18,19,19,20,20,21,21,22,22,23,23,24,24,25,25,26,26,27,27,28,28,29,29,30,30,31,31,36,36,40,40,41,41,42,42,43,43,44,44,45,45,47,47,48,48,49,49,50,50,53,53,54,54,55,55,56,56,57,57],"right_children":[2,4,6,8,10,12,14,16,18,20,22,24,26,28,30,32,-1,34,36,38,40,42,44,46,48,50,52,54,56,58,60,62,-1,-1,-1,-1,64,-1,-1,-1,66,68,70,72,74,76,-1,78,80,82,84,-1,-1,86,88,90,92,94,-1,-1,-1,-1,-1,-1,-1,-1,-1,-1,-1,-1,-1,-1,-1,-1,-1,-1,-1,-1,-1,-1,-1,-1,-1,-1,-1,-1,-1,-1,-1,-1,-1,-1,-1,-1,-1],"split_conditions":[-4.247879E-1,-5.8309663E-2,-1.4429846E-1,2.1620537E-4,-9.942495E-2,4.0260458E-1,6.0250133E-1,-6.495565E-2,1.5802935E-1,1.6570212E-2,7.278158E-2,-4.3233436E-1,1.6352859E-1,2.1098655E-1,7.493365E-2,-9.2865694E-1,2.4120538E-3,-5.617159E-1,1.3033113E-1,1.9949529E-1,2.9973003E-1,1.4831105E-1,-4.406944E-2,-1.4336598E-1,5.7107598E-2,1.8605897E-1,1.3801936E-2,5.3696312E-2,-1.5952873E-1,-7.692568E-2,4.9101794E-1,-2.4556144E-1,2.9386696E-4,-2.9917472E-4,-2.254782E-3,-8.2428165E-4,3.1816876E-1,7.845746E-3,1.9754753E-3,2.3169995E-3,4.062147E-1,-3.132191E-2,-1.0666952E-1,1.819224E-1,1.075E-1,1.9835465E-1,-4.1332818E-3,-1.3088223E-1,-1.8458185E-1,9.779884E-2,-3.5096568E-1,-1.5730441E-3,-8.849918E-3,4.468587E-2,-2.7656972E-1,1.8114554E-2,-6.328472E-1,2.8280972E-2,-3.3948122E-4,5.782008E-3,1.4468282E-3,-1.7394125E-4,-1.017116E-3,-1.06382E-4,2.0053201E-4,-2.4899467E-5,2.829115E-4,1.2030409E-3,4.1534505E-3,-4.369489E-4,8.2431216E-4,-3.031968E-3,-7.9374725E-4,2.9581453E-4,-5.705286E-4,5.9847685E-4,-9.910762E-4,-2.7378264E-6,2.6143233E-3,-3.1574827E-3,5.291626E-4,-3.490683E-4,-2.3946539E-3,2.3851634E-3,6.841594E-4,-2.774187E-3,-6.15103E-4,-2.9773426E-3,6.382141E-4,3.214912E-4,-3.8804514E-3,-3.5238885E-3,1.8913895E-3,6.2890985E-4,1.5999881E-3],"split_indices":[35,33,33,48,34,57,45,48,37,22,59,55,29,5,3,35,0,0,0,2,25,42,2,13,24,25,0,29,37,25,0,0,0,0,0,0,0,0,0,0,1,42,3,1,10,52,0,31,37,10,0,0,0,33,44,29,7,1,0,0,0,0,0,0,0,0,0,0,0,0,0,0,0,0,0,0,0,0,0,0,0,0,0,0,0,0,0,0,0,0,0,0,0,0,0],"split_type":[0,0,0,0,0,0,0,0,0,0,0,0,0,0,0,0,0,0,0,0,0,0,0,0,0,0,0,0,0,0,0,0,0,0,0,0,0,0,0,0,0,0,0,0,0,0,0,0,0,0,0,0,0,0,0,0,0,0,0,0,0,0,0,0,0,0,0,0,0,0,0,0,0,0,0,0,0,0,0,0,0,0,0,0,0,0,0,0,0,0,0,0,0,0,0],"sum_hessian":[6.51E2,5.8E1,5.93E2,2.6E1,3.2E1,1.88E2,4.05E2,1.2E1,1.4E1,1.2E1,2E1,1.73E2,1.5E1,3.93E2,1.2E1,7E0,5E0,7E0,7E0,6E0,6E0,1.3E1,7E0,1.3E1,1.6E2,1.1E1,4E0,3.04E2,8.9E1,8E0,4E0,3E0,4E0,1E0,6E0,5E0,2E0,4E0,2E0,3E0,3E0,8E0,5E0,3E0,4E0,7E0,6E0,9.2E1,6.8E1,7E0,4E0,1E0,3E0,1.82E2,1.22E2,2.9E1,6E1,6E0,2E0,3E0,1E0,1E0,2E0,1E0,1E0,2E0,1E0,4E0,4E0,3E0,2E0,2E0,1E0,2E0,2E0,4E0,3E0,3.1E1,6.1E1,1E1,5.8E1,5E0,2E0,1E0,3E0,6.5E1,1.17E2,1.5E1,1.07E2,1.8E1,1.1E1,4E0,5.6E1,3E0,3E0],"tree_param":{"num_deleted":"0","num_feature":"60","num_nodes":"95","size_leaf_vector":"0"}},{"base_weights":[-6.9450098E-6,-3.294177E-4,3.2397623E-3,1.2349867E-5,-4.1309623E-3,2.7109869E-5,6.795659E-3,-1.9165626E-2,1.1808806E-4,-8.124908E-3,3.1988844E-3,3.7341737E-3,-3.063616E-3,1.0454645E-2,3.3980042E-3,-2.9134035E-2,3.8559735E-4,1.9249128E-3,-7.2963594E-4,-1.4646223E-3,-1.4693655E-2,-5.957255E-5,9.725727E-3,-1.756683E-4,5.1719043E-3,5.580131E-4,-6.7472467E-3,1.2528802E-2,4.630234E-3,6.197567E-3,-1.0868005E-3,3.0343537E-3,-6.3026506E-3,-9.564428E-4,1.322719E-2,-3.9342497E-3,2.6254524E-3,-8.834265E-4,-1.7812675E-2,3.95082E-3,-4.0614544E-3,1.1564137E-2,4.032603E-3,1.3602339E-3,-8.997023E-4,2.8934504E-3,6.588374E-3,2.7529143E-3,-1.3640734E-3,4.4240555E-4,-8.864634E-3,7.883312E-3,1.6981214E-3,-3.0090162E-3,1.1071153E-3,4.826078E-3,-1.7030296E-3,-2.6521375E-2,-2.778502E-3,-6.756201E-3,-3.8054917E-4,2.5708277E-3,1.7912664E-2,-7.1117054E-3,-1.0108575E-4,-9.417124E-4,3.3769319E-3,1.0588318E-3,-1.8837899E-3,-2.032794E-2,-2.6524763E-3,5.670643E-3,-2.3249227E-4,-9.276797E-4,-6.1798654E-3,-1.2081364E-3,1.28000975E-5,1.956274E-4,-2.1928307E-3,1.2753904E-3,-6.117821E-4,-2.5138482E-3,-9.504124E-3,9.542543E-3,4.2532533E-3,1.0277331E-4,2.1956463E-3,1.7016083E-3,-3.3818185E-4],"categories":[],"categories_nodes":[],"categories_segments":[],"categories_sizes":[],"default_left":[1,1,1,1,1,1,1,1,1,1,1,1,1,1,1,0,0,1,1,1,1,1,1,1,1,1,1,0,0,1,1,1,1,1,1,1,1,1,1,1,1,0,0,0,1,0,0,0,1,1,1,1,1,0,1,0,0,0,0,0,0,0,0,0,0,0,0,0,0,0,0,0,0,0,0,0,0,0,0,0,0,0,0,0,0,0,0,0,0],"id":53,"left_children":[1,3,5,7,9,11,13,15,17,19,21,23,25,27,29,-1,-1,31,33,35,37,39,41,43,45,47,49,-1,-1,51,53,55,57,59,61,63,65,67,69,71,73,-1,-1,-1,75,-1,-1,-1,77,79,81,83,85,-1,87,-1,-1,-1,-1,-1,-1,-1,-1,-1,-1,-1,-1,-1,-1,-1,-1,-1,-1,-1,-1,-1,-1,-1,-1,-1,-1,-1,-1,-1,-1,-1,-1,-1,-1],"loss_changes":[6.836946E-4,7.718024E-4,6.738236E-4,1.1094663E-3,1.4604662E-3,3.7808064E-4,3.1257037E-4,5.959178E-4,8.346431E-4,1.3784708E-3,3.833932E-4,8.5228035E-5,2.4389845E-4,9.9038356E-5,2.0762344E-4,0E0,0E0,1.6073957E-3,1.1870532E-3,1.820455E-4,6.734538E-4,2.2468458E-4,1.616421E-5,6.784033E-6,1.6437843E-5,4.5943078E-5,1.4093122E-4,0E0,0E0,6.246235E-5,3.2851585E-5,1.3153842E-3,1.4226399E-3,1.219885E-3,2.5353022E-4,1.332579E-4,2.194466E-5,9.766472E-6,4.4179615E-4,5.1680276E-5,4.0737425E-5,0E0,0E0,0E0,1.1412521E-6,0E0,0E0,0E0,8.184658E-6,3.4146278E-6,4.5368797E-6,1.5748956E-6,2.9492485E-6,0E0,4.012329E-6,0E0,0E0,0E0,0E0,0E0,0E0,0E0,0E0,0E0,0E0,0E0,0E0,0E0,0E0,0E0,0E0,0E0,0E0,0E0,0E0,0E0,0E0,0E0,0E0,0E0,0E0,0E0,0E0,0E0,0E0,0E0,0E0,0E0,0E0],"parents":[2147483647,0,0,1,1,2,2,3,3,4,4,5,5,6,6,7,7,8,8,9,9,10,10,11,11,12,12,13,13,14,14,17,17,18,18,19,19,20,20,21,21,22,22,23,23,24,24,25,25,26,26,29,29,30,30,31,31,32,32,33,33,34,34,35,35,36,36,37,37,38,38,39,39,40,40,44,44,48,48,49,49,50,50,51,51,52,52,54,54],"right_children":[2,4,6,8,10,12,14,16,18,20,22,24,26,28,30,-1,-1,32,34,36,38,40,42,44,46,48,50,-1,-1,52,54,56,58,60,62,64,66,68,70,72,74,-1,-1,-1,76,-1,-1,-1,78,80,82,84,86,-1,88,-1,-1,-1,-1,-1,-1,-1,-1,-1,-1,-1,-1,-1,-1,-1,-1,-1,-1,-1,-1,-1,-1,-1,-1,-1,-1,-1,-1,-1,-1,-1,-1,-1,-1],"split_conditions":[4.0611386E-1,4.1866976E-1,1.2993033E-2,-1.2048281E0,1.0367186E-1,-1.9709346E-1,1.8805504E-2,-9.193285E-3,-1.21260345E-1,-4.3567285E-2,9.8688275E-2,-1.5175316E-1,-8.7263525E-2,2.5319416E-2,-2.3296246E-2,-8.740211E-3,1.15679206E-4,3.074299E-1,7.4197114E-1,8.623704E-2,-2.763934E-1,-6.471062E-2,1.7684549E-3,-2.5942028E-1,5.2152954E-2,-4.016804E-2,-2.0205787E-1,3.7586407E-3,1.3890703E-3,4.229051E-1,-8.948095E-3,1.6833802E-1,-4.2045408E-1,-4.126927E-1,-6.479012E-3,1.1444491E-1,-1.8372294E-1,-6.626715E-2,3.9211738E-1,2.9719186E-1,-5.51058E-2,3.4692413E-3,1.2097809E-3,4.080702E-4,1.8028173E-1,8.680352E-4,1.9765121E-3,8.2587433E-4,-2.6741128E-2,2.120704E-1,-2.8962034E-1,2.045271E-2,-3.040544E-1,-9.027049E-4,6.2809724E-1,1.4478235E-3,-5.109089E-4,-7.956413E-3,-8.3355064E-4,-2.0268604E-3,-1.1416476E-4,7.7124836E-4,5.3737992E-3,-2.1335117E-3,-3.0325727E-5,-2.8251373E-4,1.0130797E-3,3.1764957E-4,-5.65137E-4,-6.0983826E-3,-7.957429E-4,1.7011929E-3,-6.9747686E-5,-2.7830392E-4,-1.8539598E-3,-3.6244094E-4,3.8400294E-6,5.8688223E-5,-6.5784925E-4,3.8261715E-4,-1.8353463E-4,-7.541545E-4,-2.851237E-3,2.8627631E-3,1.2759761E-3,3.0831994E-5,6.586939E-4,5.104825E-4,-1.0145456E-4],"split_indices":[43,16,21,2,51,21,19,0,28,27,46,32,55,0,52,0,0,46,50,39,47,21,2,0,7,52,6,0,0,21,0,2,6,36,0,5,3,1,23,6,8,0,0,0,3,0,0,0,4,0,3,0,0,0,0,0,0,0,0,0,0,0,0,0,0,0,0,0,0,0,0,0,0,0,0,0,0,0,0,0,0,0,0,0,0,0,0,0,0],"split_type":[0,0,0,0,0,0,0,0,0,0,0,0,0,0,0,0,0,0,0,0,0,0,0,0,0,0,0,0,0,0,0,0,0,0,0,0,0,0,0,0,0,0,0,0,0,0,0,0,0,0,0,0,0,0,0,0,0,0,0,0,0,0,0,0,0,0,0,0,0,0,0,0,0,0,0,0,0,0,0,0,0,0,0,0,0,0,0,0,0],"sum_hessian":[6.51E2,5.93E2,5.8E1,5.45E2,4.8E1,3.1E1,2.7E1,2E0,5.43E2,3.1E1,1.7E1,1.4E1,1.7E1,1.2E1,1.5E1,1E0,1E0,1.73E2,3.7E2,1.6E1,1.5E1,1.2E1,5E0,4E0,1E1,9E0,8E0,8E0,4E0,9E0,6E0,1.53E2,2E1,3.65E2,5E0,1E1,6E0,3E0,1.2E1,6E0,6E0,3E0,2E0,1E0,3E0,5E0,5E0,4E0,5E0,2E0,6E0,6E0,3E0,3E0,3E0,1.11E2,4.2E1,2E0,1.8E1,3.2E1,3.33E2,2E0,3E0,5E0,5E0,1E0,5E0,1E0,2E0,1E1,2E0,4E0,2E0,3E0,3E0,2E0,1E0,2E0,3E0,1E0,1E0,1E0,5E0,3E0,3E0,1E0,2E0,2E0,1E0],"tree_param":{"num_deleted":"0","num_feature":"60","num_nodes":"89","size_leaf_vector":"0"}},{"base_weights":[-1.6631411E-5,5.545421E-3,-2.1966407E-4,1.5198936E-2,1.2442429E-3,-5.908915E-3,1.047148E-4,2.1294901E-2,5.3032367E-3,-2.7749548E-3,5.125191E-3,-1.1290646E-2,-1.5771703E-3,-7.7612916E-5,6.329873E-3,-7.399703E-3,-3.9649755E-4,1.0641586E-3,8.161185E-3,-1.8797958E-2,-5.6571946E-3,-4.3231267E-3,7.525325E-3,8.8752E-4,-1.6887632E-3,-4.822932E-4,1.1146619E-2,-1.3628242E-3,2.7007312E-3,2.0507649E-3,-1.4411332E-3,-3.9264336E-3,-2.0986976E-2,-4.4609234E-4,-7.826797E-3,-2.615912E-4,-9.507732E-3,2.4383205E-3,-1.9226773E-3,-2.004192E-3,1.2149346E-2,-3.191213E-3,9.525488E-4,5.0266604E-3,1.6261246E-2,-1.5253276E-3,4.2209527E-4,3.2229647E-3,-2.215396E-3,-1.2219492E-2,-1.8188854E-3,3.7052203E-3,-3.1453858E-3,-5.0108284E-3,1.4410836E-3,-4.9092784E-4,-4.981867E-3,1.564774E-2,-9.2211366E-4,-9.985641E-5,2.0382395E-3],"categories":[],"categories_nodes":[],"categories_segments":[],"categories_sizes":[],"default_left":[1,1,1,1,1,1,1,0,0,1,1,1,1,1,1,0,1,1,0,1,1,1,0,1,1,1,1,0,0,0,0,0,0,1,0,1,1,1,1,1,1,0,1,0,0,0,0,0,0,0,0,0,0,0,0,0,0,0,0,0,0],"id":54,"left_children":[1,3,5,7,9,11,13,-1,-1,15,17,19,21,23,25,-1,27,29,-1,31,33,35,-1,37,39,41,43,-1,-1,-1,-1,-1,-1,45,-1,47,49,51,53,55,57,-1,59,-1,-1,-1,-1,-1,-1,-1,-1,-1,-1,-1,-1,-1,-1,-1,-1,-1,-1],"loss_changes":[7.375076E-4,9.3608303E-4,1.1632666E-3,3.0933495E-4,2.7939325E-4,7.7481044E-4,6.780976E-4,0E0,0E0,9.606394E-5,1.02278675E-4,5.2803743E-4,5.3243403E-4,9.049388E-4,5.6318805E-4,0E0,2.4631163E-5,1.5314108E-5,0E0,1.129203E-4,1.09568704E-4,3.3443214E-4,0E0,1.5910203E-3,9.759064E-4,3.4134755E-5,2.3127324E-4,0E0,0E0,0E0,0E0,0E0,0E0,4.391748E-6,0E0,7.5221564E-5,1.2372632E-4,1.6740435E-3,1.3576351E-3,9.618401E-4,2.4307455E-4,6.9316593E-7,7.0590504E-6,0E0,0E0,0E0,0E0,0E0,0E0,0E0,0E0,0E0,0E0,0E0,0E0,0E0,0E0,0E0,0E0,0E0,0E0],"parents":[2147483647,0,0,1,1,2,2,3,3,4,4,5,5,6,6,9,9,10,10,11,11,12,12,13,13,14,14,16,16,17,17,19,19,20,20,21,21,23,23,24,24,25,25,26,26,33,33,35,35,36,36,37,37,38,38,39,39,40,40,42,42],"right_children":[2,4,6,8,10,12,14,-1,-1,16,18,20,22,24,26,-1,28,30,-1,32,34,36,-1,38,40,42,44,-1,-1,-1,-1,-1,-1,46,-1,48,50,52,54,56,58,-1,60,-1,-1,-1,-1,-1,-1,-1,-1,-1,-1,-1,-1,-1,-1,-1,-1,-1,-1],"split_conditions":[-7.377485E-1,-1.5258865E-1,-4.2295608E-1,1.12497404E-1,1.3797072E-1,-8.6035326E-2,5.908373E-1,6.3884705E-3,1.590971E-3,-2.3721634E-1,1.4510216E-1,4.7180537E-2,2.114841E-1,9.494525E-2,8.911796E-2,-2.219911E-3,1.713806E-1,1.9168901E-1,2.4483558E-3,-8.603438E-2,1.2049591E-1,2.684065E-2,2.2575976E-3,1.1998285E-1,6.322795E-1,-1.9800833E-1,-1.5782956E-3,-4.088473E-4,8.102194E-4,6.152295E-4,-4.3234E-4,-1.1779302E-3,-6.296093E-3,-3.4447125E-1,-2.348039E-3,-1.8338339E-1,7.528101E-2,2.4047421E-1,-6.919696E-3,1.0153261E-1,3.1577182E-1,-9.573639E-4,-1.408124E-2,1.5079982E-3,4.878374E-3,-4.5759827E-4,1.2662858E-4,9.6688943E-4,-6.646188E-4,-3.665848E-3,-5.456657E-4,1.1115661E-3,-9.4361574E-4,-1.5032486E-3,4.323251E-4,-1.4727836E-4,-1.4945602E-3,4.694322E-3,-2.7663412E-4,-2.9956924E-5,6.114719E-4],"split_indices":[36,12,36,14,12,25,9,0,0,11,7,9,44,56,8,0,0,0,0,0,18,44,0,41,12,21,4,0,0,0,0,0,0,0,0,26,5,57,46,59,2,0,0,0,0,0,0,0,0,0,0,0,0,0,0,0,0,0,0,0,0],"split_type":[0,0,0,0,0,0,0,0,0,0,0,0,0,0,0,0,0,0,0,0,0,0,0,0,0,0,0,0,0,0,0,0,0,0,0,0,0,0,0,0,0,0,0,0,0,0,0,0,0,0,0,0,0,0,0,0,0,0,0,0,0],"sum_hessian":[6.51E2,2.2E1,6.29E2,6E0,1.6E1,3.3E1,5.96E2,3E0,3E0,8E0,8E0,1.4E1,1.9E1,5.8E2,1.6E1,2E0,6E0,4E0,4E0,5E0,9E0,1.5E1,4E0,3.63E2,2.17E2,7E0,9E0,5E0,1E0,3E0,1E0,1E0,4E0,3E0,6E0,9E0,6E0,2.34E2,1.29E2,2.13E2,4E0,2E0,5E0,5E0,4E0,1E0,2E0,3E0,6E0,4E0,2E0,1.91E2,4.3E1,6.7E1,6.2E1,1.42E2,7.1E1,3E0,1E0,3E0,2E0],"tree_param":{"num_deleted":"0","num_feature":"60","num_nodes":"61","size_leaf_vector":"0"}},{"base_weights":[-4.1714156E-6,2.8102724E-3,-3.2060943E-4,3.5635874E-4,5.1093567E-3,2.2984017E-3,-7.9950155E-4,1.9301389E-3,-2.9666687E-3,1.3675103E-2,3.5114207E-3,3.101221E-3,-1.213034E-2,-3.890073E-3,-2.2363474E-4,-2.4766754E-4,4.786054E-3,3.1291545E-4,-4.8854193E-3,-4.26423E-3,4.5333165E-3,-1.2557376E-3,5.5355327E-3,-2.8807845E-3,-1.7336449E-2,-3.8941033E-4,-7.963362E-3,-1.8991733E-3,1.2230629E-3,-2.2822893E-3,2.1129956E-3,-6.081909E-4,5.4529915E-3,8.1608444E-4,-8.498803E-4,7.007388E-3,2.976314E-4,7.1308804E-3,-3.4653756E-3,2.6119787E-3,1.06673315E-2,2.8002954E-3,-5.432507E-3,-5.6369635E-3,-2.5165312E-2,6.687841E-4,-5.300507E-3,3.1217744E-3,-1.3342111E-3,-8.859448E-4,-3.4571476E-3,8.2078885E-4,2.4657205E-3,9.711339E-3,2.7515253E-3,2.2491366E-3,-2.4940022E-3,1.1889264E-2,2.8496743E-3,-6.4723184E-3,2.9335518E-3,-3.4787897E-3,4.693968E-3,2.1833714E-4,1.5129876E-2,4.9458724E-3,1.0922236E-4,-2.5295795E-4,-1.0008444E-2,-8.962078E-3,9.2882634E-4,3.11484E-3,-3.6430405E-3,-8.3591845E-3,7.886805E-4,-8.088577E-3,4.225997E-3,-3.5244783E-3,4.1891076E-3],"categories":[],"categories_nodes":[],"categories_segments":[],"categories_sizes":[],"default_left":[1,1,1,1,1,1,1,1,1,0,1,1,1,1,1,1,1,1,0,0,1,1,1,0,0,1,1,1,1,1,1,0,0,0,0,1,1,1,1,1,1,1,1,1,0,1,1,1,1,0,0,0,0,0,0,0,0,0,0,0,0,0,0,0,0,0,0,0,0,0,0,0,0,0,0,0,0,0,0],"id":55,"left_children":[1,3,5,7,9,11,13,15,17,-1,19,21,23,25,27,29,31,33,-1,-1,35,37,39,-1,-1,41,43,45,47,49,51,-1,-1,-1,-1,53,55,57,59,61,63,65,67,69,-1,71,73,75,77,-1,-1,-1,-1,-1,-1,-1,-1,-1,-1,-1,-1,-1,-1,-1,-1,-1,-1,-1,-1,-1,-1,-1,-1,-1,-1,-1,-1,-1,-1],"loss_changes":[5.815702E-4,3.7053507E-4,7.3806697E-4,1.7830668E-4,4.1735655E-4,1.0917335E-3,8.836696E-4,1.4423687E-4,7.074846E-5,0E0,2.577082E-4,9.296903E-4,1.9082834E-4,1.1091175E-3,1.0204017E-3,7.206525E-5,3.929269E-5,3.6189879E-6,2.9898365E-7,0E0,2.8085784E-4,6.177157E-4,8.1231026E-4,0E0,0E0,7.069104E-4,1.2988134E-3,1.7067684E-3,1.1015137E-3,1.0061216E-5,1.1667216E-6,0E0,8.746574E-7,5.463098E-7,0E0,1.6890897E-4,6.5536115E-5,1.0872082E-4,5.192583E-4,4.8552323E-4,9.292788E-4,1.5535521E-4,4.003903E-4,7.287803E-4,0E0,1.1926076E-3,1.5710811E-3,1.6434159E-3,1.1882262E-3,0E0,0E0,0E0,0E0,0E0,0E0,0E0,0E0,0E0,0E0,0E0,0E0,0E0,0E0,0E0,0E0,0E0,0E0,0E0,0E0,0E0,0E0,0E0,0E0,0E0,0E0,0E0,0E0,0E0,0E0],"parents":[2147483647,0,0,1,1,2,2,3,3,4,4,5,5,6,6,7,7,8,8,10,10,11,11,12,12,13,13,14,14,15,15,16,16,17,17,20,20,21,21,22,22,25,25,26,26,27,27,28,28,29,29,30,30,35,35,36,36,37,37,38,38,39,39,40,40,41,41,42,42,43,43,45,45,46,46,47,47,48,48],"right_children":[2,4,6,8,10,12,14,16,18,-1,20,22,24,26,28,30,32,34,-1,-1,36,38,40,-1,-1,42,44,46,48,50,52,-1,-1,-1,-1,54,56,58,60,62,64,66,68,70,-1,72,74,76,78,-1,-1,-1,-1,-1,-1,-1,-1,-1,-1,-1,-1,-1,-1,-1,-1,-1,-1,-1,-1,-1,-1,-1,-1,-1,-1,-1,-1,-1,-1],"split_conditions":[-3.7275788E-1,3.6849305E-2,-2.9972637E-1,6.1726477E-2,-3.449282E-1,5.838456E-1,-1.5413812E-1,4.0009613E-3,-1.9709173E-1,4.102531E-3,-2.3312068E-1,-1.2271439E-1,-2.70737E-1,-2.3877991E-2,-4.0066596E-2,1.0232343E-1,-4.346829E-1,4.2719698E-1,-1.4656258E-3,-1.279269E-3,8.757681E-2,-2.406874E-1,4.740721E-2,-8.642354E-4,-5.2009346E-3,1.03888005E-1,4.35023E-1,6.4870454E-2,5.3937405E-2,-2.3473522E-2,-2.8308117E-1,-1.8245727E-4,1.6358976E-3,2.4482535E-4,-2.549641E-4,-2.6687115E-2,8.422845E-2,1.2991305E-2,1.4704728E-1,-2.5909942E-1,-8.161129E-2,-3.7058022E-2,1.1325538E-2,1.6003169E-1,-7.5495937E-3,9.7514704E-2,1.5957509E-1,-3.2604164E-1,1.4166924E-1,-2.6578346E-4,-1.0371443E-3,2.4623665E-4,7.3971617E-4,2.913402E-3,8.254576E-4,6.74741E-4,-7.482007E-4,3.5667794E-3,8.549023E-4,-1.9416956E-3,8.8006555E-4,-1.0436369E-3,1.4081905E-3,6.5501146E-5,4.538963E-3,1.4837618E-3,3.276671E-5,-7.588739E-5,-3.0025335E-3,-2.6886235E-3,2.786479E-4,9.3445205E-4,-1.0929122E-3,-2.5077555E-3,2.3660416E-4,-2.426573E-3,1.2677991E-3,-1.0573436E-3,1.2567323E-3],"split_indices":[29,41,32,6,52,11,32,8,52,0,11,34,1,23,46,7,9,0,0,0,13,46,37,0,0,46,9,38,43,9,16,0,0,0,0,50,30,1,46,24,10,18,56,38,0,53,43,17,26,0,0,0,0,0,0,0,0,0,0,0,0,0,0,0,0,0,0,0,0,0,0,0,0,0,0,0,0,0,0],"split_type":[0,0,0,0,0,0,0,0,0,0,0,0,0,0,0,0,0,0,0,0,0,0,0,0,0,0,0,0,0,0,0,0,0,0,0,0,0,0,0,0,0,0,0,0,0,0,0,0,0,0,0,0,0,0,0,0,0,0,0,0,0,0,0,0,0,0,0,0,0,0,0,0,0,0,0,0,0,0,0],"sum_hessian":[6.51E2,6.5E1,5.86E2,3.2E1,3.3E1,9E1,4.96E2,2.2E1,1E1,4E0,2.9E1,8.6E1,4E0,7.7E1,4.19E2,1.3E1,9E0,4E0,6E0,3E0,2.6E1,3.1E1,5.5E1,2E0,2E0,4.2E1,3.5E1,1.94E2,2.25E2,7E0,6E0,1E0,8E0,3E0,1E0,1.6E1,1E1,6E0,2.5E1,3.6E1,1.9E1,2.6E1,1.6E1,3.2E1,3E0,1.11E2,8.3E1,1.29E2,9.6E1,4E0,3E0,2E0,4E0,9E0,7E0,6E0,4E0,2E0,4E0,1.7E1,8E0,9E0,2.7E1,6E0,1.3E1,1.4E1,1.2E1,8E0,8E0,2.1E1,1.1E1,7.1E1,4E1,5.5E1,2.8E1,1.1E1,1.18E2,6.9E1,2.7E1],"tree_param":{"num_deleted":"0","num_feature":"60","num_nodes":"79","size_leaf_vector":"0"}},{"base_weights":[-1.28854235E-5,2.2555054E-3,-3.3408607E-4,3.4014906E-3,-3.0135957E-3,3.6523293E-3,-6.326274E-4,1.328386E-3,7.3096743E-3,-4.8246426E-3,1.5734263E-3,1.6547673E-3,1.4696053E-2,-4.8362315E-3,-3.0930163E-4,7.563647E-4,9.084563E-3,3.5631203E-4,1.0994379E-2,-2.4324432E-3,-6.4127347E-3,3.01616E-3,-3.9378306E-4,-3.255189E-3,6.4727925E-3,2.1351596E-2,6.0303826E-3,-1.571643E-2,-2.7114614E-3,-6.021968E-4,5.008503E-3,3.2316172E-3,-1.5365338E-3,-1.4667824E-3,2.108144E-3,1.5738642E-2,6.082801E-3,-2.7473524E-4,-1.0949422E-2,7.516015E-4,1.0045223E-2,-1.8686545E-3,-2.8941318E-2,-2.0432234E-2,-1.5191799E-3,8.8662584E-4,-1.9791785E-3,-5.048999E-4,9.770341E-3,6.5563745E-3,6.812764E-4,-3.0223534E-3,1.1105579E-3,2.7162582E-4,-1.969291E-3,2.9251054E-3,5.88468E-4,1.7327296E-2,3.103355E-3,2.919403E-3,8.029639E-3,9.096578E-3,-1.6953422E-3,-1.3428294E-2,-5.16966E-4,1.5435495E-3,-2.3960173E-3,3.6483195E-3,1.6991843E-2,-2.373308E-4,-2.3333188E-3,-3.5587715E-3,3.3237983E-3,1.966134E-2,7.165548E-4,-3.7742318E-3,4.1031773E-4,-4.436776E-3,4.8217513E-3,6.017408E-3,1.5322138E-2],"categories":[],"categories_nodes":[],"categories_segments":[],"categories_sizes":[],"default_left":[1,1,1,1,1,1,1,1,1,1,1,1,1,1,1,1,0,1,1,0,0,0,0,1,1,0,0,1,1,1,1,1,1,1,1,1,1,1,1,1,1,1,0,0,1,1,1,1,1,0,0,0,0,0,0,0,0,0,0,0,0,0,0,0,0,0,0,0,0,0,0,0,0,0,0,0,0,0,0,0,0],"id":56,"left_children":[1,3,5,7,9,11,13,15,17,19,21,23,25,27,29,31,-1,33,35,-1,-1,-1,-1,37,39,-1,-1,41,43,45,47,49,51,53,55,57,59,61,63,65,67,69,-1,-1,71,73,75,77,79,-1,-1,-1,-1,-1,-1,-1,-1,-1,-1,-1,-1,-1,-1,-1,-1,-1,-1,-1,-1,-1,-1,-1,-1,-1,-1,-1,-1,-1,-1,-1,-1],"loss_changes":[4.7580633E-4,4.99354E-4,6.8305334E-4,5.331289E-4,1.3220089E-4,8.581024E-4,7.229223E-4,1.927802E-4,5.8536767E-4,2.619074E-5,1.5378511E-5,8.490404E-4,2.1729013E-4,8.358664E-4,7.7556545E-4,2.490121E-4,0E0,3.1835985E-5,2.5379215E-4,7.4482887E-7,0E0,0E0,1.4174543E-7,4.0977332E-4,3.6034395E-4,0E0,0E0,1.0447305E-3,6.6618866E-4,9.6734334E-4,6.875352E-4,1.7359784E-4,9.381781E-5,4.902736E-6,4.486252E-6,8.673896E-5,3.1985837E-5,2.0180315E-4,1.2236164E-4,2.3640376E-5,4.2681373E-4,2.478303E-6,0E0,0E0,3.279149E-4,7.1073056E-4,1.0524205E-3,2.9366152E-4,1.994978E-4,0E0,0E0,0E0,0E0,0E0,0E0,0E0,0E0,0E0,0E0,0E0,0E0,0E0,0E0,0E0,0E0,0E0,0E0,0E0,0E0,0E0,0E0,0E0,0E0,0E0,0E0,0E0,0E0,0E0,0E0,0E0,0E0],"parents":[2147483647,0,0,1,1,2,2,3,3,4,4,5,5,6,6,7,7,8,8,9,9,10,10,11,11,12,12,13,13,14,14,15,15,17,17,18,18,23,23,24,24,27,27,28,28,29,29,30,30,31,31,32,32,33,33,34,34,35,35,36,36,37,37,38,38,39,39,40,40,41,41,44,44,45,45,46,46,47,47,48,48],"right_children":[2,4,6,8,10,12,14,16,18,20,22,24,26,28,30,32,-1,34,36,-1,-1,-1,-1,38,40,-1,-1,42,44,46,48,50,52,54,56,58,60,62,64,66,68,70,-1,-1,72,74,76,78,80,-1,-1,-1,-1,-1,-1,-1,-1,-1,-1,-1,-1,-1,-1,-1,-1,-1,-1,-1,-1,-1,-1,-1,-1,-1,-1,-1,-1,-1,-1,-1,-1],"split_conditions":[-3.5160667E-1,2.780251E-1,-4.723241E-1,1.5569097E-1,2.285146E-1,-5.194038E-1,-3.3042246E-1,2.4789697E-1,-1.1501287E-1,-8.17679E-2,1.275795E-1,-4.009434E-2,-1.420363E-2,-2.4314061E-1,5.1018757E-1,-1.800453E-2,2.7253688E-3,6.911495E-2,7.561001E-3,-7.29733E-4,-1.9238205E-3,9.0484804E-4,-1.1813492E-4,1.1087776E-1,8.1066474E-2,6.4054793E-3,1.8091148E-3,1.0403696E-2,-4.3814754E-1,1.4779229E-2,-2.9419037E-2,5.7707038E-2,9.159906E-2,-7.516275E-2,1.3134412E-1,1.3230006E-1,-5.5073567E-2,-3.884871E-1,7.203068E-2,9.1418445E-2,-1.6854607E-2,1.6028425E-1,-8.682396E-3,-6.1296704E-3,7.2638065E-2,-1.5099113E0,2.1358594E-2,1.0481802E-1,6.33865E-2,1.9669125E-3,2.0438292E-4,-9.0670603E-4,3.3316738E-4,8.148775E-5,-5.9078727E-4,8.7753165E-4,1.765404E-4,5.198189E-3,9.310065E-4,8.7582093E-4,2.4088917E-3,2.7289735E-3,-5.086027E-4,-4.0284884E-3,-1.550898E-4,4.6306485E-4,-7.1880524E-4,1.0944959E-3,5.097553E-3,-7.119924E-5,-6.9999567E-4,-1.0676315E-3,9.971395E-4,5.8984025E-3,2.1496645E-4,-1.1322696E-3,1.2309532E-4,-1.3310328E-3,1.4465254E-3,1.8052225E-3,4.5966413E-3],"split_indices":[35,32,30,33,37,30,30,32,38,5,0,19,5,44,41,40,0,2,22,0,0,0,0,10,57,0,0,0,24,57,42,17,53,1,2,1,8,1,1,0,56,3,0,0,57,42,32,11,4,0,0,0,0,0,0,0,0,0,0,0,0,0,0,0,0,0,0,0,0,0,0,0,0,0,0,0,0,0,0,0,0],"split_type":[0,0,0,0,0,0,0,0,0,0,0,0,0,0,0,0,0,0,0,0,0,0,0,0,0,0,0,0,0,0,0,0,0,0,0,0,0,0,0,0,0,0,0,0,0,0,0,0,0,0,0,0,0,0,0,0,0,0,0,0,0,0,0,0,0,0,0,0,0,0,0,0,0,0,0,0,0,0,0,0,0],"sum_hessian":[6.51E2,8E1,5.71E2,6.6E1,1.4E1,3.9E1,5.32E2,4.4E1,2.2E1,1E1,4E0,3.4E1,5E0,3.7E1,4.95E2,4.2E1,2E0,8E0,1.4E1,5E0,5E0,2E0,2E0,1.7E1,1.7E1,2E0,3E0,5E0,3.2E1,4.7E2,2.5E1,2E1,2.2E1,4E0,4E0,6E0,8E0,1.3E1,4E0,7E0,1E1,3E0,2E0,1E0,3.1E1,2.26E2,2.44E2,1.2E1,1.3E1,8E0,1.2E1,1.4E1,8E0,1E0,3E0,2E0,2E0,5E0,1E0,4E0,4E0,1E0,1.2E1,3E0,1E0,6E0,1E0,6E0,4E0,1E0,2E0,2.2E1,9E0,1E0,2.25E2,1.39E2,1.05E2,7E0,5E0,9E0,4E0],"tree_param":{"num_deleted":"0","num_feature":"60","num_nodes":"81","size_leaf_vector":"0"}},{"base_weights":[2.2531007E-5,-3.7502678E-4,1.6372423E-3,-6.738151E-3,-1.6134935E-4,7.830269E-3,8.756939E-4,-1.3915466E-2,-1.5582092E-3,1.4500646E-4,-4.065095E-3,1.6500328E-2,1.1801987E-3,1.907859E-3,-3.8844745E-3,-4.063241E-3,-2.0288825E-2,4.1009818E-4,-6.9437283E-3,2.6920359E-3,-4.294406E-4,6.8332907E-4,-1.03401095E-2,2.9536262E-3,1.8618943E-2,-4.962066E-3,3.6439982E-3,-1.5573049E-3,3.506529E-3,6.877242E-4,-8.982666E-3,-3.7591904E-4,-5.1670424E-3,-8.38764E-4,2.180867E-3,4.3235733E-3,-2.9897937E-3,1.2337539E-3,-1.5874164E-3,-1.1498059E-2,2.476371E-3,1.2691602E-3,-1.431563E-2,-6.5531675E-3,-8.8993204E-4,4.234078E-3,5.175965E-5,-1.0345657E-2,-5.944647E-4,4.3367986E-3,-4.1110017E-3,3.587408E-3,-6.774379E-4,-1.2267102E-2,-3.2448093E-3,-1.4810748E-3,2.9723844E-4,2.0789222E-3,1.0002994E-2,-6.5396396E-3,1.2140162E-3,-3.112617E-3,2.7703117E-3,-1.8378507E-2,-1.2055285E-3,-1.5950873E-3,5.3236E-3,-7.2430074E-4,1.9486006E-3,-2.5451302E-3,-1.9882739E-2,8.8813156E-4,-2.4875165E-3,6.490974E-3,3.2090538E-4,-8.083351E-4,-8.245112E-3,1.2237299E-4,-2.3178507E-3,-4.0456257E-3,-2.0772219E-5],"categories":[],"categories_nodes":[],"categories_segments":[],"categories_sizes":[],"default_left":[1,1,1,1,1,1,1,1,1,1,1,1,1,1,1,1,0,1,0,1,1,1,1,0,0,1,1,1,1,1,1,0,0,1,0,1,1,1,1,0,1,1,1,0,0,0,0,0,1,1,1,0,1,0,1,0,0,0,0,0,0,0,0,0,0,0,0,0,0,0,0,0,0,0,0,0,0,0,0,0,0],"id":57,"left_children":[1,3,5,7,9,11,13,15,17,19,21,23,25,27,29,31,-1,33,-1,35,37,39,41,-1,-1,43,45,47,49,51,53,-1,-1,55,-1,57,59,61,63,-1,65,67,69,-1,-1,-1,-1,-1,71,73,75,-1,77,-1,79,-1,-1,-1,-1,-1,-1,-1,-1,-1,-1,-1,-1,-1,-1,-1,-1,-1,-1,-1,-1,-1,-1,-1,-1,-1,-1],"loss_changes":[4.1915957E-4,7.113726E-4,6.015444E-4,6.1034405E-4,6.081246E-4,7.877174E-4,5.773514E-4,3.57104E-4,1.1945152E-4,6.917551E-4,1.1095337E-3,1.1720811E-4,1.5428154E-4,5.372674E-4,4.956864E-4,1.4337893E-5,0E0,2.1732247E-5,0E0,8.1942684E-4,7.453709E-4,5.0899165E-4,7.5661496E-4,0E0,0E0,1.3605662E-5,1.4618789E-5,2.5616502E-4,4.352525E-4,4.993271E-5,1.4865183E-4,0E0,0E0,4.818233E-6,0E0,8.4609E-4,3.0639675E-4,1.0704964E-3,1.4398516E-3,0E0,2.403391E-4,8.183563E-6,7.357276E-4,0E0,0E0,0E0,0E0,0E0,8.360155E-5,5.1697344E-4,8.89103E-5,0E0,1.2091825E-5,0E0,1.2825272E-5,0E0,0E0,0E0,0E0,0E0,0E0,0E0,0E0,0E0,0E0,0E0,0E0,0E0,0E0,0E0,0E0,0E0,0E0,0E0,0E0,0E0,0E0,0E0,0E0,0E0,0E0],"parents":[2147483647,0,0,1,1,2,2,3,3,4,4,5,5,6,6,7,7,8,8,9,9,10,10,11,11,12,12,13,13,14,14,15,15,17,17,19,19,20,20,21,21,22,22,25,25,26,26,27,27,28,28,29,29,30,30,33,33,35,35,36,36,37,37,38,38,40,40,41,41,42,42,48,48,49,49,50,50,52,52,54,54],"right_children":[2,4,6,8,10,12,14,16,18,20,22,24,26,28,30,32,-1,34,-1,36,38,40,42,-1,-1,44,46,48,50,52,54,-1,-1,56,-1,58,60,62,64,-1,66,68,70,-1,-1,-1,-1,-1,72,74,76,-1,78,-1,80,-1,-1,-1,-1,-1,-1,-1,-1,-1,-1,-1,-1,-1,-1,-1,-1,-1,-1,-1,-1,-1,-1,-1,-1,-1,-1],"split_conditions":[2.2728938E-1,-6.672105E-1,2.407093E-1,1.4505352E-1,4.340254E-1,-8.085168E-2,2.2024488E-1,-1.17075935E-1,3.2173413E-1,-2.3138373E-1,1.23031676E-1,-1.9134492E-1,-1.3494563E-1,-1.8167502E-1,4.9184345E-2,-1.1418447E0,-6.086648E-3,-9.0809906E-1,-2.0831185E-3,1.9968638E-1,-7.693743E-2,4.4895566E-1,-1.6903993E-1,8.860879E-4,5.585683E-3,6.280899E-3,2.4824056E-1,-3.5899192E-1,4.0838224E-1,-1.4990887E-1,9.639894E-2,-1.1277572E-4,-1.5501127E-3,-7.4771106E-2,6.542601E-4,1.6252957E-1,8.42074E-2,-1.841504E-1,-7.20167E-2,-3.4494179E-3,-9.883937E-2,-7.509579E-2,-6.052191E-2,-1.9659502E-3,-2.6697962E-4,1.2702234E-3,1.5527896E-5,-3.1036974E-3,1.7705036E-2,1.1646493E-1,1.09937176E-1,1.0762224E-3,-8.222826E-2,-3.6801307E-3,1.9900009E-1,-4.4432248E-4,8.917153E-5,6.236767E-4,3.0008983E-3,-1.961892E-3,3.6420487E-4,-9.337851E-4,8.310935E-4,-5.5135526E-3,-3.6165857E-4,-4.7852623E-4,1.59708E-3,-2.1729023E-4,5.8458024E-4,-7.635391E-4,-5.9648217E-3,2.6643949E-4,-7.46255E-4,1.9472924E-3,9.627162E-5,-2.4250054E-4,-2.4735339E-3,3.67119E-5,-6.9535524E-4,-1.2136877E-3,-6.231666E-6],"split_indices":[54,42,54,24,58,1,26,10,21,40,7,0,9,58,15,0,0,42,0,33,22,58,36,0,0,0,3,18,36,42,5,0,0,3,0,47,43,28,22,0,50,0,51,0,0,0,0,0,26,47,6,0,15,0,0,0,0,0,0,0,0,0,0,0,0,0,0,0,0,0,0,0,0,0,0,0,0,0,0,0,0],"split_type":[0,0,0,0,0,0,0,0,0,0,0,0,0,0,0,0,0,0,0,0,0,0,0,0,0,0,0,0,0,0,0,0,0,0,0,0,0,0,0,0,0,0,0,0,0,0,0,0,0,0,0,0,0,0,0,0,0,0,0,0,0,0,0,0,0,0,0,0,0,0,0,0,0,0,0,0,0,0,0,0,0],"sum_hessian":[6.51E2,5.23E2,1.28E2,1.6E1,5.07E2,1.3E1,1.15E2,6E0,1E1,4.71E2,3.6E1,5E0,8E0,9.5E1,2E1,3E0,3E0,8E0,2E0,8.6E1,3.85E2,2.1E1,1.5E1,1E0,4E0,2E0,6E0,3E1,6.5E1,1.1E1,9E0,1E0,2E0,5E0,3E0,6.7E1,1.9E1,1.58E2,2.27E2,2E0,1.9E1,4E0,1.1E1,1E0,1E0,5E0,1E0,2E0,2.8E1,5.9E1,6E0,3E0,8E0,5E0,4E0,3E0,2E0,4.9E1,1.8E1,1E1,9E0,4.1E1,1.17E2,4E0,2.23E2,8E0,1.1E1,1E0,3E0,4E0,7E0,1.6E1,1.2E1,3.8E1,2.1E1,4E0,2E0,6E0,2E0,3E0,1E0],"tree_param":{"num_deleted":"0","num_feature":"60","num_nodes":"81","size_leaf_vector":"0"}},{"base_weights":[-2.3171518E-5,-3.1526803E-4,2.0692593E-3,3.1930332E-3,-5.424949E-4,-1.2578636E-4,4.623658E-3,8.535625E-3,3.8869432E-4,-2.1417618E-2,-4.6388386E-4,6.4099785E-3,-1.1280633E-3,-5.8008977E-6,7.441842E-3,1.5650088E-2,3.0221324E-3,-2.5363103E-3,4.7373315E-3,7.4723326E-3,-6.1302993E-4,9.278296E-3,4.4889623E-4,-2.2479948E-3,4.3127653E-3,-3.2830548E-3,4.20864E-3,9.172714E-3,-6.238416E-4,2.5723502E-4,4.629624E-3,4.8408224E-4,-6.057342E-3,1.2353186E-4,9.326425E-3,-1.7431247E-4,1.2599148E-2,1.2890655E-3,-1.1802912E-3,-5.4285163E-3,-1.7205322E-4,8.169957E-3,1.1358965E-3,2.9447488E-4,-7.828586E-3,1.1181273E-3,1.0613066E-2,-2.8446764E-3,6.425362E-4,-6.91082E-4,1.5624299E-3,-1.636299E-3,1.412522E-3,1.1044964E-3,-7.701388E-4,1.4658783E-2,5.6532524E-3,-2.3318872E-2,1.6851547E-3,-2.3202945E-3,2.7660344E-4,-1.79491E-4,-8.68672E-3,-2.8474831E-3,1.6934024E-3,1.3978728E-3,4.399568E-5,6.742083E-4,-8.02096E-4,-3.324747E-4,1.7124861E-3,6.654248E-3,1.4752368E-2,1.0528466E-3,-2.9419735E-4],"categories":[],"categories_nodes":[],"categories_segments":[],"categories_sizes":[],"default_left":[1,1,1,1,1,1,1,1,1,0,1,1,1,1,1,0,1,1,1,1,1,0,0,1,1,1,0,1,1,0,0,1,0,1,0,1,1,1,1,1,1,0,1,1,0,1,1,0,1,0,0,0,0,0,0,0,0,0,0,0,0,0,0,0,0,0,0,0,0,0,0,0,0,0,0],"id":58,"left_children":[1,3,5,7,9,11,13,15,17,-1,19,21,23,25,27,-1,29,31,33,35,37,-1,-1,39,41,43,-1,45,47,-1,-1,49,-1,51,-1,53,55,57,59,61,63,-1,65,67,-1,69,71,-1,73,-1,-1,-1,-1,-1,-1,-1,-1,-1,-1,-1,-1,-1,-1,-1,-1,-1,-1,-1,-1,-1,-1,-1,-1,-1,-1],"loss_changes":[3.9914943E-4,4.585165E-4,4.4914332E-4,5.2106753E-4,8.7457185E-4,2.9545932E-4,4.827698E-4,4.2340992E-4,3.1729016E-4,0E0,6.413875E-4,9.842464E-5,2.4733588E-4,2.209941E-4,3.2681774E-4,0E0,3.4365483E-5,1.6245569E-4,2.1057947E-4,3.942256E-4,5.723046E-4,0E0,1.714011E-8,2.1695106E-4,7.649633E-5,1.4866129E-4,0E0,2.0856061E-4,1.5889887E-5,2.1305536E-7,0E0,1.2484888E-5,0E0,1.5921738E-5,0E0,4.6603554E-6,2.9662624E-6,1.2284229E-3,6.7827455E-4,2.2077194E-4,1.09630746E-4,0E0,1.36876E-6,3.039207E-6,0E0,4.0180707E-6,1.6402197E-4,0E0,1.8471503E-6,0E0,0E0,0E0,0E0,0E0,0E0,0E0,0E0,0E0,0E0,0E0,0E0,0E0,0E0,0E0,0E0,0E0,0E0,0E0,0E0,0E0,0E0,0E0,0E0,0E0,0E0],"parents":[2147483647,0,0,1,1,2,2,3,3,4,4,5,5,6,6,7,7,8,8,10,10,11,11,12,12,13,13,14,14,16,16,17,17,18,18,19,19,20,20,23,23,24,24,25,25,27,27,28,28,31,31,33,33,35,35,36,36,37,37,38,38,39,39,40,40,42,42,43,43,45,45,46,46,48,48],"right_children":[2,4,6,8,10,12,14,16,18,-1,20,22,24,26,28,-1,30,32,34,36,38,-1,-1,40,42,44,-1,46,48,-1,-1,50,-1,52,-1,54,56,58,60,62,64,-1,66,68,-1,70,72,-1,74,-1,-1,-1,-1,-1,-1,-1,-1,-1,-1,-1,-1,-1,-1,-1,-1,-1,-1,-1,-1,-1,-1,-1,-1,-1,-1],"split_conditions":[3.3637974E-1,-4.3233436E-1,2.2033017E-2,-5.793055E-2,-4.2892277E-1,-4.2629486E-1,-7.2794706E-2,5.7188872E-2,1.3053861E-1,-6.4252857E-3,-8.598807E-1,1.2328793E-1,1.9338688E-1,5.9812706E-2,4.3978453E-1,4.6950267E-3,-9.430597E-2,-3.971185E-2,-3.9685946E-3,-1.6744882E-1,-1.9202639E-1,2.7834887E-3,1.3466888E-4,-1.1826599E-1,3.90371E-2,-1.5397489E-2,1.2625922E-3,-3.3966422E-1,-2.3887354E-1,7.717051E-5,1.3888873E-3,-2.9277855E-1,-1.8172027E-3,-1.4065479E-1,2.7979277E-3,-3.4113488E-1,1.2882914E-1,-8.7753654E-1,2.8675769E-2,-2.705537E-1,-1.120962E-1,2.4509872E-3,-1.0419761E-1,3.8814974E-1,-2.3485757E-3,-5.430301E-1,5.1362593E-2,-8.5340295E-4,3.6478817E-2,-2.073246E-4,4.68729E-4,-4.908897E-4,4.2375663E-4,3.3134894E-4,-2.3104165E-4,4.397635E-3,1.6959758E-3,-6.9956616E-3,5.0554646E-4,-6.9608836E-4,8.298104E-5,-5.3847303E-5,-2.6060161E-3,-8.54245E-4,5.0802075E-4,4.1936187E-4,1.3198704E-5,2.022625E-4,-2.406288E-4,-9.9742414E-5,5.137459E-4,1.9962746E-3,4.4257105E-3,3.1585398E-4,-8.825921E-5],"split_indices":[45,43,44,52,43,34,13,2,14,0,21,2,22,57,54,0,8,14,37,7,2,0,0,58,6,24,0,58,4,0,0,14,0,5,0,3,2,53,30,26,49,0,2,3,0,0,37,0,0,0,0,0,0,0,0,0,0,0,0,0,0,0,0,0,0,0,0,0,0,0,0,0,0,0,0],"split_type":[0,0,0,0,0,0,0,0,0,0,0,0,0,0,0,0,0,0,0,0,0,0,0,0,0,0,0,0,0,0,0,0,0,0,0,0,0,0,0,0,0,0,0,0,0,0,0,0,0,0,0,0,0,0,0,0,0,0,0,0,0,0,0,0,0,0,0,0,0,0,0,0,0,0,0],"sum_hessian":[6.51E2,5.72E2,7.9E1,3.4E1,5.38E2,4.3E1,3.6E1,1.1E1,2.3E1,1E0,5.37E2,5E0,3.8E1,1.4E1,2.2E1,4E0,7E0,1.4E1,9E0,9E0,5.28E2,3E0,2E0,3.2E1,6E0,8E0,6E0,1.8E1,4E0,3E0,4E0,8E0,6E0,5E0,4E0,4E0,5E0,1.21E2,4.07E2,1.2E1,2E1,2E0,4E0,5E0,3E0,3E0,1.5E1,1E0,3E0,4E0,4E0,2E0,3E0,1E0,3E0,3E0,2E0,1E0,1.2E2,2.28E2,1.79E2,5E0,7E0,8E0,1.2E1,3E0,1E0,4E0,1E0,1E0,2E0,9E0,6E0,2E0,1E0],"tree_param":{"num_deleted":"0","num_feature":"60","num_nodes":"75","size_leaf_vector":"0"}},{"base_weights":[-4.1288886E-6,-6.676626E-4,7.391284E-4,5.502301E-4,-2.8702838E-3,5.3998088E-3,2.3533081E-4,1.1478678E-3,-4.4530104E-3,3.9560553E-3,-4.002395E-3,3.9445325E-3,1.7182449E-2,-1.8273004E-3,1.0306273E-3,-3.770303E-3,1.7769131E-3,-2.3478985E-2,-2.6049688E-3,6.154168E-3,-3.772886E-4,-5.9313555E-3,1.8612798E-3,7.005698E-3,1.8546794E-3,-4.673965E-3,8.5564E-4,-1.982104E-2,1.2329791E-3,-2.325207E-2,-8.076553E-4,-6.2550465E-3,2.0934644E-3,3.0957435E-3,-5.8517316E-3,7.692785E-3,1.1537373E-3,7.2059484E-4,-2.0813316E-3,-8.654766E-3,-5.64494E-4,2.8717434E-3,-2.1539666E-3,2.2216563E-3,1.0622124E-2,-1.151927E-4,3.4420963E-3,-7.0681227E-3,-6.48287E-5,5.5406215E-3,-1.5174095E-3,2.0651843E-3,-2.6386608E-3,2.315786E-3,-7.3853643E-3,-1.3374221E-2,-2.8394808E-3,7.482194E-4,4.409075E-3,4.8499093E-3,-3.0944124E-4,-3.6927725E-3,-1.3256644E-2,8.521808E-3,3.1941358E-3,1.170136E-3,3.085534E-5,-5.120365E-4,-2.6099607E-3,-4.120463E-3,-1.3568368E-2,-4.4855517E-3,4.304846E-3,4.0537934E-3,2.964316E-4,-3.941683E-4,-3.7823755E-3,-4.362464E-4,2.840486E-3,6.652858E-4,-1.2571122E-3,4.6424596E-3,4.8093684E-4,-1.05430195E-2,-8.0147496E-4,-2.4049846E-3,3.4562098E-3,9.631323E-3,7.4017924E-5,-3.0646345E-4,-1.1506472E-2,5.0281915E-3,7.812907E-4,-1.3060502E-3,-1.2973033E-2],"categories":[],"categories_nodes":[],"categories_segments":[],"categories_sizes":[],"default_left":[1,1,1,1,1,1,1,1,1,1,1,1,0,1,1,1,1,0,1,1,1,1,1,1,1,1,1,0,1,0,1,1,1,1,1,1,0,1,1,1,1,1,1,1,0,1,1,1,1,1,1,1,1,0,0,0,0,0,0,0,0,0,0,0,0,0,0,0,0,0,0,0,0,0,0,0,0,0,0,0,0,0,0,0,0,0,0,0,0,0,0,0,0,0,0],"id":59,"left_children":[1,3,5,7,9,11,13,15,17,19,21,23,-1,25,27,29,31,-1,33,35,37,39,41,43,45,47,49,-1,51,-1,53,55,57,59,61,63,-1,65,67,69,71,73,75,77,-1,79,81,83,85,87,89,91,93,-1,-1,-1,-1,-1,-1,-1,-1,-1,-1,-1,-1,-1,-1,-1,-1,-1,-1,-1,-1,-1,-1,-1,-1,-1,-1,-1,-1,-1,-1,-1,-1,-1,-1,-1,-1,-1,-1,-1,-1,-1,-1],"loss_changes":[3.2204442E-4,9.2706113E-4,7.219254E-4,6.7190937E-4,9.6639944E-4,4.466332E-4,4.595558E-4,6.2544993E-4,7.826971E-4,1.7377507E-4,1.2099844E-3,1.6613351E-4,0E0,5.997189E-4,8.76752E-4,1.3087254E-3,4.6566437E-4,0E0,4.4381927E-4,8.344953E-5,1.4595681E-5,1.1644075E-3,1.1573167E-4,1.6671378E-4,5.6682664E-5,4.1887176E-4,4.6423278E-4,0E0,6.530711E-4,0E0,4.4854978E-4,1.3223616E-4,5.324919E-4,5.5260098E-5,1.9084977E-4,6.345508E-6,4.454464E-7,1.5142268E-6,1.1523307E-6,1.1249199E-3,5.539126E-4,6.5769564E-5,1.5703135E-5,1.1107888E-5,0E0,8.857532E-6,3.331193E-5,5.359488E-4,1.2366903E-4,3.123585E-4,3.3516774E-4,6.275665E-4,4.788375E-4,0E0,0E0,0E0,0E0,0E0,0E0,0E0,0E0,0E0,0E0,0E0,0E0,0E0,0E0,0E0,0E0,0E0,0E0,0E0,0E0,0E0,0E0,0E0,0E0,0E0,0E0,0E0,0E0,0E0,0E0,0E0,0E0,0E0,0E0,0E0,0E0,0E0,0E0,0E0,0E0,0E0,0E0],"parents":[2147483647,0,0,1,1,2,2,3,3,4,4,5,5,6,6,7,7,8,8,9,9,10,10,11,11,13,13,14,14,15,15,16,16,18,18,19,19,20,20,21,21,22,22,23,23,24,24,25,25,26,26,28,28,30,30,31,31,32,32,33,33,34,34,35,35,37,37,38,38,39,39,40,40,41,41,42,42,43,43,45,45,46,46,47,47,48,48,49,49,50,50,51,51,52,52],"right_children":[2,4,6,8,10,12,14,16,18,20,22,24,-1,26,28,30,32,-1,34,36,38,40,42,44,46,48,50,-1,52,-1,54,56,58,60,62,64,-1,66,68,70,72,74,76,78,-1,80,82,84,86,88,90,92,94,-1,-1,-1,-1,-1,-1,-1,-1,-1,-1,-1,-1,-1,-1,-1,-1,-1,-1,-1,-1,-1,-1,-1,-1,-1,-1,-1,-1,-1,-1,-1,-1,-1,-1,-1,-1,-1,-1,-1,-1,-1,-1],"split_conditions":[1.7492099E-2,7.554574E-2,-3.646475E-1,3.4647912E-1,-4.2295608E-1,3.6080617E-1,-1.4411637E-1,-3.5344183E-1,-3.83869E-1,9.307474E-2,2.976228E-1,-1.2754609E-1,5.154735E-3,1.7734548E-2,-1.2048281E0,-2.839521E-1,-9.677973E-1,-7.0436955E-3,-2.2554651E-1,2.6177698E-1,-1.3802777E-1,1.2925905E-1,3.048038E-1,-1.7931387E-1,1.7423715E-2,7.609199E-2,-8.114269E-2,-5.9463126E-3,2.5356054E-1,-6.9756215E-3,8.761568E-3,-1.6425407E0,-7.5772606E-2,-6.940464E-2,6.6007555E-2,1.1835538E-1,3.461212E-4,2.1051913E-1,-5.1754527E-4,-1.0096263E-2,1.4478098E-1,1.687644E-1,-7.916525E-2,-1.2567426E0,3.1866373E-3,-8.732684E-2,9.635947E-2,6.474784E-2,8.669312E-2,4.5174796E-2,7.062993E-1,-1.2987757E-1,4.6508265E-1,6.947358E-4,-2.2156094E-3,-4.012266E-3,-8.5184426E-4,2.2446582E-4,1.3227225E-3,1.4549729E-3,-9.283238E-5,-1.1078318E-3,-3.9769933E-3,2.5565426E-3,9.5824077E-4,3.5104083E-4,9.256602E-6,-1.5361095E-4,-7.8298827E-4,-1.236139E-3,-4.0705106E-3,-1.3456655E-3,1.2914538E-3,1.216138E-3,8.892948E-5,-1.182505E-4,-1.1347127E-3,-1.3087393E-4,8.521458E-4,1.9958575E-4,-3.771337E-4,1.392738E-3,1.4428106E-4,-3.162906E-3,-2.404425E-4,-7.2149537E-4,1.036863E-3,2.8893969E-3,2.2205379E-5,-9.193904E-5,-3.4519418E-3,1.5084575E-3,2.3438722E-4,-3.918151E-4,-3.89191E-3],"split_indices":[4,12,56,11,38,8,13,5,10,25,2,16,0,21,2,43,8,0,14,35,4,52,42,47,57,47,1,0,25,0,46,8,12,24,2,23,0,2,0,44,20,24,4,2,0,5,39,36,53,42,55,30,49,0,0,0,0,0,0,0,0,0,0,0,0,0,0,0,0,0,0,0,0,0,0,0,0,0,0,0,0,0,0,0,0,0,0,0,0,0,0,0,0,0,0],"split_type":[0,0,0,0,0,0,0,0,0,0,0,0,0,0,0,0,0,0,0,0,0,0,0,0,0,0,0,0,0,0,0,0,0,0,0,0,0,0,0,0,0,0,0,0,0,0,0,0,0,0,0,0,0,0,0,0,0,0,0,0,0,0,0,0,0,0,0,0,0,0,0,0,0,0,0,0,0,0,0,0,0,0,0,0,0,0,0,0,0,0,0,0,0,0,0],"sum_hessian":[6.51E2,3.44E2,3.07E2,2.22E2,1.22E2,2.9E1,2.78E2,1.99E2,2.3E1,1.7E1,1.05E2,2.7E1,2E0,7.7E1,2.01E2,2.2E1,1.77E2,1E0,2.2E1,1.1E1,6E0,7.9E1,2.6E1,1E1,1.7E1,3.7E1,4E1,1E0,2E2,2E0,2E1,6E0,1.71E2,8E0,1.4E1,8E0,3E0,4E0,2E0,5.2E1,2.7E1,2.1E1,5E0,5E0,5E0,8E0,9E0,2.4E1,1.3E1,1.3E1,2.7E1,1.65E2,3.5E1,1.4E1,6E0,1E0,5E0,1.09E2,6.2E1,5E0,3E0,1.2E1,2E0,6E0,2E0,2E0,2E0,1E0,1E0,2.8E1,2.4E1,1.5E1,1.2E1,1.4E1,7E0,3E0,2E0,1E0,4E0,5E0,3E0,6E0,3E0,1.5E1,9E0,8E0,5E0,7E0,6E0,2.5E1,2E0,4.9E1,1.16E2,3.2E1,3E0],"tree_param":{"num_deleted":"0","num_feature":"60","num_nodes":"95","size_leaf_vector":"0"}},{"base_weights":[-4.3364587E-5,3.4877143E-3,-1.7220815E-4,1.2354975E-2,1.5398765E-3,6.30849E-5,-2.2540668E-3,2.3931712E-3,1.4877852E-2,3.5320586E-3,-1.889904E-3,6.807683E-3,-4.5617184E-5,-4.04883E-3,2.209784E-3,5.4379823E-3,1.1215551E-3,-4.4932067E-3,-2.7326867E-4,-1.2517562E-3,1.1046029E-2,1.4098585E-4,-3.3407502E-3,-1.6905004E-3,-8.365042E-3,9.3976855E-3,-3.3350213E-4,6.126597E-3,6.531477E-4,2.4677813E-4,1.7159432E-3,-6.2210485E-4,2.829358E-4,3.0399412E-3,1.2039257E-2,-2.9549413E-4,1.9105048E-3,-7.846518E-3,5.663973E-4,-3.286667E-3,1.1106522E-3,-4.0973113E-3,-2.0143904E-2,3.4574468E-3,1.2205362E-2,9.7048696E-4,-1.9624163E-3,1.263428E-4,-2.7280836E-3,5.5872323E-3,1.0332366E-3,-1.26133775E-2,-2.6947022E-3,-5.5742855E-3,3.5895389E-3,2.9205257E-5,-5.074383E-3,-1.6624928E-3,1.8315305E-3,-7.842004E-3,-1.5616694E-3,-6.480105E-4,1.8877374E-3,-6.736045E-4,-2.3432202E-3],"categories":[],"categories_nodes":[],"categories_segments":[],"categories_sizes":[],"default_left":[1,1,1,1,1,1,1,0,0,1,1,1,1,1,1,1,1,0,1,0,1,1,1,1,1,1,1,0,0,0,0,0,0,0,0,1,1,1,1,1,1,1,0,0,0,1,1,0,0,0,0,0,0,0,0,0,0,0,0,0,0,0,0,0,0],"id":60,"left_children":[1,3,5,7,9,11,13,-1,-1,15,17,19,21,23,25,27,29,-1,31,-1,33,35,37,39,41,43,45,-1,-1,-1,-1,-1,-1,-1,-1,47,49,51,53,55,57,59,-1,-1,-1,61,63,-1,-1,-1,-1,-1,-1,-1,-1,-1,-1,-1,-1,-1,-1,-1,-1,-1,-1],"loss_changes":[2.9723244E-4,3.7823053E-4,3.0874574E-4,6.492436E-5,1.433302E-4,4.1600765E-4,5.216865E-4,0E0,0E0,5.3626063E-5,3.2440876E-5,3.2125512E-4,3.441899E-4,4.540952E-4,3.5047106E-4,1.906279E-5,3.2162425E-6,0E0,1.3401611E-6,7.202516E-8,1.1112657E-5,4.099151E-4,5.325853E-4,1.4225463E-4,7.2176824E-4,4.119196E-5,3.3765795E-5,0E0,0E0,1.4716642E-7,0E0,1.498596E-7,1.13332334E-7,0E0,0E0,4.3748718E-4,3.32902E-4,3.0982244E-4,3.355997E-4,1.18704964E-4,2.7034104E-5,1.11190995E-4,0E0,0E0,0E0,1.4584383E-5,1.85709E-6,0E0,0E0,0E0,0E0,0E0,0E0,0E0,0E0,0E0,0E0,0E0,0E0,0E0,0E0,0E0,0E0,0E0,0E0],"parents":[2147483647,0,0,1,1,2,2,3,3,4,4,5,5,6,6,9,9,10,10,11,11,12,12,13,13,14,14,15,15,16,16,18,18,20,20,21,21,22,22,23,23,24,24,25,25,26,26,35,35,36,36,37,37,38,38,39,39,40,40,41,41,45,45,46,46],"right_children":[2,4,6,8,10,12,14,-1,-1,16,18,20,22,24,26,28,30,-1,32,-1,34,36,38,40,42,44,46,-1,-1,-1,-1,-1,-1,-1,-1,48,50,52,54,56,58,60,-1,-1,-1,62,64,-1,-1,-1,-1,-1,-1,-1,-1,-1,-1,-1,-1,-1,-1,-1,-1,-1,-1],"split_conditions":[-7.377485E-1,-2.4126112E-1,3.4674358E-1,-1.8874407E-1,-6.2601835E-2,-9.0589684E-1,7.884988E-2,7.179514E-4,4.463356E-3,1.22449964E-1,-2.5211883E-1,-6.655153E-2,4.5548975E-1,6.731165E-2,-2.0383564E-1,1.113136E-1,-1.3251367E-1,-1.3479621E-3,-7.7376336E-2,-3.7552687E-4,-2.7033162E-1,2.2947583E-1,7.6269925E-2,6.748261E-2,1.5382819E-1,-3.2693505E-1,5.2688384E-1,1.8379792E-3,1.9594432E-4,7.403344E-5,5.1478297E-4,-1.8663147E-4,8.488074E-5,9.119824E-4,3.6117772E-3,3.010459E-1,2.6572067E-1,-8.439153E-3,-1.2050457E-1,-1.1332216E-2,-3.5132316E-1,-2.0893109E-1,-6.0431715E-3,1.0372341E-3,3.6616088E-3,-2.3728162E-1,-2.217568E-1,3.7902842E-5,-8.1842515E-4,1.6761698E-3,3.09971E-4,-3.7840134E-3,-8.084107E-4,-1.6722857E-3,1.0768618E-3,8.761577E-6,-1.5223151E-3,-4.9874786E-4,5.494592E-4,-2.3526014E-3,-4.6850083E-4,-1.9440317E-4,5.6632125E-4,-2.0208136E-4,-7.0296606E-4],"split_indices":[36,28,1,0,46,44,8,0,0,29,11,2,49,18,47,1,1,0,4,0,0,7,3,43,34,3,1,0,0,0,0,0,0,0,0,28,7,17,45,59,2,39,0,0,0,15,4,0,0,0,0,0,0,0,0,0,0,0,0,0,0,0,0,0,0],"split_type":[0,0,0,0,0,0,0,0,0,0,0,0,0,0,0,0,0,0,0,0,0,0,0,0,0,0,0,0,0,0,0,0,0,0,0,0,0,0,0,0,0,0,0,0,0,0,0,0,0,0,0,0,0,0,0,0,0,0,0,0,0,0,0,0,0],"sum_hessian":[6.51E2,2.2E1,6.29E2,3E0,1.9E1,5.66E2,6.3E1,1E0,2E0,1.2E1,7E0,8E0,5.58E2,4.5E1,1.8E1,6E0,6E0,2E0,5E0,3E0,5E0,5.29E2,2.9E1,3E1,1.5E1,4E0,1.4E1,5E0,1E0,3E0,3E0,3E0,2E0,1E0,4E0,4.25E2,1.04E2,1.3E1,1.6E1,1.9E1,1.1E1,1.2E1,3E0,2E0,2E0,8E0,6E0,3.63E2,6.2E1,1.9E1,8.5E1,6E0,7E0,5E0,1.1E1,7E0,1.2E1,2E0,9E0,4E0,8E0,3E0,5E0,2E0,4E0],"tree_param":{"num_deleted":"0","num_feature":"60","num_nodes":"65","size_leaf_vector":"0"}},{"base_weights":[-2.980553E-5,-4.1390024E-3,6.0270468E-5,-9.08957E-3,-3.7873536E-4,-2.088129E-4,1.5301071E-3,-1.0488492E-2,-1.0474771E-3,9.2362426E-4,-5.398806E-3,1.7031998E-3,-6.043772E-4,-1.0897702E-3,3.4008785E-3,-2.4415366E-4,1.6731217E-3,3.8316255E-3,-9.725462E-4,-9.96854E-4,1.6482052E-3,-5.009675E-3,4.62766E-4,1.3133213E-2,2.6312384E-3,1.4359135E-3,7.2997757E-3,-6.319458E-3,1.1285986E-3,-1.6613563E-3,1.5011834E-3,3.7452616E-3,-7.624895E-4,-1.196719E-3,-1.2336407E-2,-7.436279E-4,3.070556E-3,1.565178E-2,2.788756E-3,1.217867E-2,2.0411718E-3,-7.4215734E-4,4.676337E-3,2.0788484E-3,1.1042234E-2,-9.496452E-3,-1.5597217E-3,-6.0345754E-3,2.4133122E-3,-2.5004705E-3,1.0655302E-3,3.0284042E-3,-3.006514E-3,7.616845E-3,6.171378E-4,-1.3997303E-3,9.4959885E-3,-3.758043E-3,7.195119E-5,8.00873E-4,-2.3609353E-3,4.074859E-3,1.251281E-3,3.4333912E-3,-6.3087343E-4],"categories":[],"categories_nodes":[],"categories_segments":[],"categories_sizes":[],"default_left":[1,1,1,1,1,1,1,0,0,1,0,1,1,1,1,0,0,1,1,1,1,1,1,1,1,1,1,1,1,1,1,1,1,1,0,1,1,0,0,0,1,0,0,0,0,0,0,0,0,0,0,0,0,0,0,0,0,0,0,0,0,0,0,0,0],"id":61,"left_children":[1,3,5,7,9,11,13,-1,-1,15,-1,17,19,21,23,-1,-1,25,27,29,31,33,35,37,39,41,43,45,47,49,51,53,55,57,-1,59,61,-1,-1,-1,63,-1,-1,-1,-1,-1,-1,-1,-1,-1,-1,-1,-1,-1,-1,-1,-1,-1,-1,-1,-1,-1,-1,-1,-1],"loss_changes":[2.4158075E-4,2.571738E-4,2.530495E-4,5.6515215E-5,6.38279E-5,4.1020065E-4,4.889242E-4,0E0,0E0,7.4104723E-6,0E0,5.333732E-4,3.9859788E-4,2.5792167E-4,3.9988634E-4,5.144489E-7,0E0,4.2156992E-4,4.789868E-4,6.382554E-4,3.4156506E-4,3.2047482E-4,9.981003E-5,6.056385E-5,2.8499035E-4,2.2932247E-4,3.8736605E-4,1.6664807E-4,2.998448E-4,6.959795E-4,5.667291E-4,4.3128786E-4,2.2247969E-4,2.9515671E-5,0E0,5.6845332E-5,1.3172248E-5,0E0,0E0,0E0,1.9932992E-4,0E0,0E0,0E0,0E0,0E0,0E0,0E0,0E0,0E0,0E0,0E0,0E0,0E0,0E0,0E0,0E0,0E0,0E0,0E0,0E0,0E0,0E0,0E0,0E0],"parents":[2147483647,0,0,1,1,2,2,3,3,4,4,5,5,6,6,9,9,11,11,12,12,13,13,14,14,17,17,18,18,19,19,20,20,21,21,22,22,23,23,24,24,25,25,26,26,27,27,28,28,29,29,30,30,31,31,32,32,33,33,35,35,36,36,40,40],"right_children":[2,4,6,8,10,12,14,-1,-1,16,-1,18,20,22,24,-1,-1,26,28,30,32,34,36,38,40,42,44,46,48,50,52,54,56,58,-1,60,62,-1,-1,-1,64,-1,-1,-1,-1,-1,-1,-1,-1,-1,-1,-1,-1,-1,-1,-1,-1,-1,-1,-1,-1,-1,-1,-1,-1],"split_conditions":[-9.0555274E-1,-4.7403768E-2,2.7339056E-1,3.599019E-1,3.5142305E-1,-2.507537E-1,-6.0929097E-2,-3.1465478E-3,-3.1424314E-4,-7.6681085E-2,-1.6196419E-3,3.7207164E-2,2.729112E-1,-2.4125448E-1,-3.5062987E-2,-7.3246105E-5,5.0193653E-4,7.6621465E-2,-2.2204897E-1,2.165467E-1,7.0923045E-2,1.0426287E-2,1.9999236E-1,-1.471442E-1,-4.239968E-1,-6.182754E-2,-3.479583E-2,-1.8828625E-2,-2.8717324E-1,1.5957509E-1,5.227617E-1,-3.3130888E-2,8.041103E-1,-7.6353773E-3,-3.7009222E-3,5.8114465E-2,5.7331685E-2,4.695534E-3,8.3662686E-4,3.653601E-3,6.980022E-2,-2.2264721E-4,1.4029011E-3,6.236546E-4,3.3126702E-3,-2.8489358E-3,-4.679165E-4,-1.8103727E-3,7.239937E-4,-7.5014116E-4,3.1965907E-4,9.085213E-4,-9.019542E-4,2.2850535E-3,1.8514135E-4,-4.1991912E-4,2.8487965E-3,-1.127413E-3,2.1585358E-5,2.402619E-4,-7.082806E-4,1.2224577E-3,3.7538432E-4,1.0300174E-3,-1.8926203E-4],"split_indices":[49,5,23,0,3,26,8,0,0,19,0,12,51,26,8,0,0,5,31,18,40,20,34,1,56,39,8,17,11,22,18,1,41,0,0,33,45,0,0,0,0,0,0,0,0,0,0,0,0,0,0,0,0,0,0,0,0,0,0,0,0,0,0,0,0],"split_type":[0,0,0,0,0,0,0,0,0,0,0,0,0,0,0,0,0,0,0,0,0,0,0,0,0,0,0,0,0,0,0,0,0,0,0,0,0,0,0,0,0,0,0,0,0,0,0,0,0,0,0,0,0,0,0,0,0,0,0,0,0,0,0,0,0],"sum_hessian":[6.51E2,1.3E1,6.38E2,5E0,8E0,5.4E2,9.8E1,4E0,1E0,7E0,1E0,9.2E1,4.48E2,4.1E1,5.7E1,3E0,4E0,5.1E1,4.1E1,3.82E2,6.6E1,1.1E1,3E1,3E0,5.4E1,3.1E1,2E1,1.1E1,3E1,3.02E2,8E1,3.5E1,3.1E1,8E0,3E0,2.1E1,9E0,2E0,1E0,2E0,5.2E1,1.9E1,1.2E1,9E0,1.1E1,6E0,5E0,4E0,2.6E1,2.31E2,7.1E1,6E1,2E1,1.5E1,2E1,3E1,1E0,2E0,6E0,1.1E1,1E1,5E0,4E0,3.4E1,1.8E1],"tree_param":{"num_deleted":"0","num_feature":"60","num_nodes":"65","size_leaf_vector":"0"}},{"base_weights":[-1.0301983E-5,1.6768699E-4,-1.9453402E-3,1.0905511E-3,-3.0230355E-4,-3.7933327E-3,1.7557682E-3,-9.0277643E-4,2.04288E-3,3.1089698E-4,-1.8850625E-3,-9.654144E-3,-1.8436557E-3,3.5223358E-3,-1.7758241E-3,-3.1913386E-3,1.6285504E-3,5.650008E-4,4.60309E-3,8.4525533E-4,-4.294948E-3,-9.354128E-3,-8.8523526E-4,-2.0568166E-3,-1.3110004E-2,-7.483816E-3,-9.050289E-4,-1.879517E-4,5.192236E-3,4.9180724E-4,-2.2357304E-3,-7.598593E-3,1.0866871E-4,3.114402E-3,-1.9517638E-3,-9.3949377E-4,3.2272255E-3,1.3435511E-3,6.9171167E-3,1.646842E-3,-1.886314E-3,-5.740099E-4,-8.506449E-3,-1.4198905E-2,-1.3354035E-3,6.6734763E-4,-4.8459754E-3,-9.310722E-3,-1.001548E-3,-3.4886699E-3,4.4496916E-5,4.2156814E-4,-7.3482096E-4,1.2264494E-3,6.970721E-3,-3.3720406E-3,-1.537729E-2,1.8452146E-3,-3.628025E-3,4.01511E-3,-1.06788706E-4,-3.5492263E-3,1.3317368E-3,2.40961E-3,-3.448224E-3,8.425248E-3,4.8152218E-4,1.7505704E-4,8.685661E-3,8.269306E-3,-1.2272529E-3,1.2503806E-4,2.8173898E-3,8.392671E-5,-4.973818E-3,1.0054081E-3,-2.476531E-3,-2.092581E-3,-1.4621376E-2,-7.129719E-3,-1.948566E-2,-3.5214946E-3,-1.9388646E-4,-3.8489192E-3,1.8238417E-3,2.1569277E-3,-8.276663E-3,-4.5716786E-3,-5.207658E-4,1.4318719E-3,-1.4860652E-3],"categories":[],"categories_nodes":[],"categories_segments":[],"categories_sizes":[],"default_left":[1,1,1,1,1,1,1,1,1,1,1,1,1,1,1,1,1,1,1,1,1,1,1,0,0,1,1,1,1,0,0,1,1,1,1,1,1,1,1,1,1,1,1,1,1,1,1,0,0,1,1,0,0,0,0,0,0,0,0,0,0,0,0,0,0,0,0,0,0,0,0,0,0,0,0,0,0,0,0,0,0,0,0,0,0,0,0,0,0,0,0],"id":62,"left_children":[1,3,5,7,9,11,13,15,17,19,21,23,25,27,29,31,33,35,37,39,41,43,45,-1,-1,47,49,51,53,-1,-1,55,57,59,61,63,65,67,69,71,73,75,77,79,81,83,85,-1,-1,87,89,-1,-1,-1,-1,-1,-1,-1,-1,-1,-1,-1,-1,-1,-1,-1,-1,-1,-1,-1,-1,-1,-1,-1,-1,-1,-1,-1,-1,-1,-1,-1,-1,-1,-1,-1,-1,-1,-1,-1,-1],"loss_changes":[2.248851E-4,2.5970466E-4,3.8283935E-4,3.853016E-4,3.8589392E-4,4.0498853E-4,1.2479218E-4,3.8754178E-4,5.1576353E-4,7.0998666E-4,8.2064234E-4,2.0933285E-4,1.4675307E-4,8.152143E-5,8.399837E-6,5.098647E-4,1.7631271E-4,3.5549857E-4,3.6783947E-4,5.6802056E-4,4.6523922E-4,4.8607483E-4,6.120223E-4,0E0,0E0,3.8044847E-5,6.3939326E-5,1.9764154E-6,5.492859E-5,0E0,0E0,4.4130313E-4,1.4296222E-4,6.7159854E-5,5.717933E-5,4.8722274E-4,4.5265432E-4,1.8722216E-4,3.2951776E-4,3.5591656E-4,3.593219E-4,5.357282E-5,5.1848823E-4,1.600571E-4,1.4289992E-5,3.8307838E-4,6.905458E-4,0E0,0E0,2.0119078E-5,4.4597127E-5,0E0,2.1772837E-7,0E0,0E0,0E0,0E0,0E0,0E0,0E0,0E0,0E0,0E0,0E0,0E0,0E0,0E0,0E0,0E0,0E0,0E0,0E0,0E0,0E0,0E0,0E0,0E0,0E0,0E0,0E0,0E0,0E0,0E0,0E0,0E0,0E0,0E0,0E0,0E0,0E0,0E0],"parents":[2147483647,0,0,1,1,2,2,3,3,4,4,5,5,6,6,7,7,8,8,9,9,10,10,11,11,12,12,13,13,14,14,15,15,16,16,17,17,18,18,19,19,20,20,21,21,22,22,25,25,26,26,27,27,28,28,31,31,32,32,33,33,34,34,35,35,36,36,37,37,38,38,39,39,40,40,41,41,42,42,43,43,44,44,45,45,46,46,49,49,50,50],"right_children":[2,4,6,8,10,12,14,16,18,20,22,24,26,28,30,32,34,36,38,40,42,44,46,-1,-1,48,50,52,54,-1,-1,56,58,60,62,64,66,68,70,72,74,76,78,80,82,84,86,-1,-1,88,90,-1,-1,-1,-1,-1,-1,-1,-1,-1,-1,-1,-1,-1,-1,-1,-1,-1,-1,-1,-1,-1,-1,-1,-1,-1,-1,-1,-1,-1,-1,-1,-1,-1,-1,-1,-1,-1,-1,-1,-1],"split_conditions":[4.1429496E-1,-1.0250463E-1,1.0367186E-1,-1.0491305E-1,8.4829465E-2,-1.8480606E-1,3.0292457E-1,-2.0948041E-2,9.769043E-2,3.076989E-1,1.08072564E-1,-1.3489796E-1,-3.9815718E-1,-6.572032E-2,-1.6294332E0,-2.7539305E-2,9.686382E-2,5.8584526E-2,-4.345664E-2,1.8981731E-1,4.112755E-2,1.891998E-1,1.490067E-1,-6.17045E-4,-3.9330013E-3,3.967399E-1,-1.815928E-1,-1.2480946E-1,-1.3028479E-1,1.4754217E-4,-6.7071914E-4,3.79337E-2,1.0912646E-1,4.2287284E-1,1.6469237E-1,-1.7649266E-1,-2.5359306E-2,3.235142E-1,2.254656E-1,-6.402313E-3,6.96406E-2,2.1561226E-1,7.777665E-2,-5.0559387E-2,-8.390861E-1,-2.1727219E-1,-1.0563514E-1,-2.7932168E-3,-3.0046442E-4,2.1563122E-1,1.4695728E-1,1.2647045E-4,-2.204463E-4,3.6793484E-4,2.0912164E-3,-1.0116122E-3,-4.613187E-3,5.535644E-4,-1.0884076E-3,1.204533E-3,-3.2036613E-5,-1.064768E-3,3.9952106E-4,7.2288304E-4,-1.0344672E-3,2.5275745E-3,1.4445666E-4,5.2517113E-5,2.6056983E-3,2.4807919E-3,-3.6817588E-4,3.7511418E-5,8.45217E-4,2.5178013E-5,-1.4921455E-3,3.0162244E-4,-7.429594E-4,-6.2777434E-4,-4.386413E-3,-2.1389157E-3,-5.845698E-3,-1.0564484E-3,-5.816594E-5,-1.1546758E-3,5.4715254E-4,6.470783E-4,-2.4829989E-3,-1.3715036E-3,-1.5622974E-4,4.295616E-4,-4.4581958E-4],"split_indices":[16,18,51,29,16,23,19,58,16,46,16,26,46,30,2,23,30,26,38,47,14,26,41,0,0,0,43,1,24,0,0,7,59,32,13,8,51,23,55,57,49,9,57,13,1,38,38,0,0,2,17,0,0,0,0,0,0,0,0,0,0,0,0,0,0,0,0,0,0,0,0,0,0,0,0,0,0,0,0,0,0,0,0,0,0,0,0,0,0,0,0],"split_type":[0,0,0,0,0,0,0,0,0,0,0,0,0,0,0,0,0,0,0,0,0,0,0,0,0,0,0,0,0,0,0,0,0,0,0,0,0,0,0,0,0,0,0,0,0,0,0,0,0,0,0,0,0,0,0,0,0,0,0,0,0,0,0,0,0,0,0,0,0,0,0,0,0,0,0,0,0,0,0,0,0,0,0,0,0,0,0,0,0,0,0],"sum_hessian":[6.51E2,5.97E2,5.4E1,2.01E2,3.96E2,3.6E1,1.8E1,6.5E1,1.36E2,2.86E2,1.1E2,8E0,2.8E1,1.2E1,6E0,3.4E1,3.1E1,8.7E1,4.9E1,2.57E2,2.9E1,1.2E1,9.8E1,3E0,5E0,3E0,2.5E1,4E0,8E0,1E0,5E0,1.4E1,2E1,2.2E1,9E0,5.6E1,3.1E1,2.1E1,2.8E1,1.99E2,5.8E1,1.6E1,1.3E1,7E0,5E0,7.1E1,2.7E1,2E0,1E0,6E0,1.9E1,2E0,2E0,3E0,5E0,1E1,4E0,1.4E1,6E0,1.7E1,5E0,6E0,3E0,2.4E1,3.2E1,1E1,2.1E1,1.9E1,2E0,2.4E1,4E0,8.7E1,1.12E2,3.6E1,2.2E1,9E0,7E0,7E0,6E0,4E0,3E0,1E0,4E0,1.4E1,5.7E1,9E0,1.8E1,4E0,2E0,1E1,9E0],"tree_param":{"num_deleted":"0","num_feature":"60","num_nodes":"91","size_leaf_vector":"0"}},{"base_weights":[-4.317731E-5,-2.5032894E-4,1.4410861E-3,-8.6047116E-4,4.5215792E-4,2.5506923E-3,-5.8427573E-5,-1.2590077E-3,2.2726986E-3,-1.452103E-3,1.3649676E-3,3.279142E-3,-1.9762628E-3,2.2422345E-3,-1.3562614E-3,-2.1867447E-3,5.022969E-4,3.4622585E-3,-2.1748487E-3,-4.895989E-3,-3.5100285E-4,2.1093409E-3,-2.9588407E-3,4.1475324E-3,6.127017E-4,-3.5864213E-3,1.3660887E-3,-3.0601397E-4,5.2661933E-3,-2.4639147E-3,1.5275052E-3,-3.9477865E-3,-1.172358E-3,-5.878098E-4,3.0034985E-3,-7.0603937E-4,4.885312E-3,-2.671657E-3,6.5140426E-4,-9.160933E-3,-1.859548E-4,1.033717E-3,-3.4334233E-3,3.776145E-3,3.1419288E-5,-6.419562E-4,-6.270495E-3,3.1355976E-3,9.941209E-3,1.7326147E-3,-1.0777168E-3,7.7747705E-4,-1.5838742E-3,6.415695E-4,6.0628043E-3,-8.598098E-4,-4.1610566E-3,5.482938E-4,2.1248404E-3,4.210443E-4,-5.266857E-3,-9.974093E-5,-4.6646013E-3,-2.7428109E-3,1.3440747E-3,6.401254E-4,6.8126433E-3,-9.695937E-4,5.6415796E-5,2.821662E-3,7.886035E-3,-7.3187426E-4,-1.2230346E-2,3.386674E-3,-2.7112677E-3,-1.4138584E-3,2.7450665E-3,-4.1092932E-4,-5.2618096E-3,1.8056398E-4,5.5088294E-3,-3.1752856E-3,2.6617562E-3,-1.452315E-3,3.6238234E-3,-1.0781198E-2,-7.1471E-4,1.1082772E-3,4.9389466E-3,8.219298E-4,2.6728846E-3,-1.3154363E-3,-6.341934E-5,-1.9283196E-3,-2.7526915E-4,-1.3176778E-3,1.5641155E-4,-3.48337E-4,-5.373907E-3],"categories":[],"categories_nodes":[],"categories_segments":[],"categories_sizes":[],"default_left":[1,1,1,1,1,1,1,1,1,1,1,1,1,1,1,1,1,1,1,1,1,1,1,1,1,0,0,1,1,1,1,1,1,1,1,1,1,0,0,1,1,1,1,1,1,1,1,1,0,1,1,0,1,0,0,1,1,0,0,0,0,0,0,0,0,0,0,0,0,0,0,0,0,0,0,0,0,0,0,0,0,0,0,0,0,0,0,0,0,0,0,0,0,0,0,0,0,0,0],"id":63,"left_children":[1,3,5,7,9,11,13,15,17,19,21,23,25,27,29,31,33,35,37,39,41,43,45,47,49,-1,-1,51,53,55,57,59,61,63,65,67,69,-1,-1,71,73,75,77,79,81,83,85,87,-1,89,91,-1,93,-1,-1,95,97,-1,-1,-1,-1,-1,-1,-1,-1,-1,-1,-1,-1,-1,-1,-1,-1,-1,-1,-1,-1,-1,-1,-1,-1,-1,-1,-1,-1,-1,-1,-1,-1,-1,-1,-1,-1,-1,-1,-1,-1,-1,-1],"loss_changes":[2.0082961E-4,2.4598656E-4,1.3325861E-4,3.8620687E-4,4.6608885E-4,1.5817277E-4,1.0754676E-4,4.4718786E-4,1.9270171E-4,3.2819097E-4,5.887946E-4,9.007924E-5,4.2571373E-5,1.01786914E-4,7.7230565E-5,3.1513337E-4,2.607903E-4,1.6953715E-4,1.2973174E-5,4.2014517E-4,2.8952453E-4,5.3672213E-4,2.0313809E-4,1.4471303E-4,2.2691605E-5,0E0,0E0,1.2307827E-5,1.8214429E-5,4.270296E-5,2.929386E-6,3.7679926E-4,4.3030633E-4,2.8262183E-4,2.567095E-4,1.6622876E-6,1.0778953E-4,0E0,0E0,2.7564378E-4,1.0842424E-4,2.0074804E-4,1.1388978E-4,5.34786E-4,5.988818E-4,6.402874E-5,2.6796E-4,9.323735E-5,0E0,3.797104E-6,1.1221673E-6,4.2742158E-7,1.2721648E-6,0E0,0E0,4.8590514E-6,3.512214E-5,1.7974651E-7,0E0,0E0,0E0,0E0,0E0,0E0,0E0,0E0,0E0,0E0,0E0,0E0,0E0,0E0,0E0,0E0,0E0,0E0,0E0,0E0,0E0,0E0,0E0,0E0,0E0,0E0,0E0,0E0,0E0,0E0,0E0,0E0,0E0,0E0,0E0,0E0,0E0,0E0,0E0,0E0,0E0],"parents":[2147483647,0,0,1,1,2,2,3,3,4,4,5,5,6,6,7,7,8,8,9,9,10,10,11,11,12,12,13,13,14,14,15,15,16,16,17,17,18,18,19,19,20,20,21,21,22,22,23,23,24,24,27,27,28,28,29,29,30,30,31,31,32,32,33,33,34,34,35,35,36,36,39,39,40,40,41,41,42,42,43,43,44,44,45,45,46,46,47,47,49,49,50,50,52,52,55,55,56,56],"right_children":[2,4,6,8,10,12,14,16,18,20,22,24,26,28,30,32,34,36,38,40,42,44,46,48,50,-1,-1,52,54,56,58,60,62,64,66,68,70,-1,-1,72,74,76,78,80,82,84,86,88,-1,90,92,-1,94,-1,-1,96,98,-1,-1,-1,-1,-1,-1,-1,-1,-1,-1,-1,-1,-1,-1,-1,-1,-1,-1,-1,-1,-1,-1,-1,-1,-1,-1,-1,-1,-1,-1,-1,-1,-1,-1,-1,-1,-1,-1,-1,-1,-1,-1],"split_conditions":[3.3637974E-1,4.9519025E-2,-4.9041994E-2,3.38229E-1,-9.527619E-2,4.020051E-1,-9.9219345E-2,1.3741454E-1,2.8683037E-1,-2.2204897E-1,4.5749027E-1,2.1233517E-1,3.5232466E-2,5.0145473E-2,9.024504E-2,-6.837334E-2,1.6045529E-1,-3.0424005E-1,1.4720228E-1,3.1724192E-2,-1.7685154E-1,1.5425062E-1,7.194631E-2,1.05692044E-1,4.8300818E-1,-1.0759265E-3,4.0982664E-4,-5.2665018E-2,-1.3488957E-1,1.1623627E-1,-2.0106375E-1,-2.9520077E-1,1.8114287E-1,-4.4657588E-2,-4.961195E-3,-1.3081782E-2,1.2946962E-1,-8.014971E-4,1.954213E-4,-8.3286196E-2,-8.329046E-2,-1.5809852E-1,-1.9810936E-1,-1.13891095E-1,1.1700678E-2,3.6493534E-1,-5.7470794E-3,8.9362234E-2,2.9823629E-3,-9.463957E-2,5.094465E-1,2.3324312E-4,3.150723E-1,1.9247086E-4,1.8188413E-3,-8.018473E-2,-3.2421887E-1,1.6448816E-4,6.374521E-4,1.263133E-4,-1.5800571E-3,-2.992228E-5,-1.3993804E-3,-8.228433E-4,4.0322242E-4,1.9203764E-4,2.043793E-3,-2.9087812E-4,1.692474E-5,8.4649865E-4,2.3658108E-3,-2.1956228E-4,-3.6691038E-3,1.0160023E-3,-8.1338035E-4,-4.2415754E-4,8.2352E-4,-1.232788E-4,-1.578543E-3,5.4169195E-5,1.6526489E-3,-9.525857E-4,7.985269E-4,-4.3569453E-4,1.087147E-3,-3.2343594E-3,-2.14413E-4,3.3248318E-4,1.481684E-3,2.4657894E-4,8.018654E-4,-3.9463092E-4,-1.9025803E-5,-5.784959E-4,-8.258075E-5,-3.9530336E-4,4.692347E-5,-1.045011E-4,-1.6121721E-3],"split_indices":[45,17,47,5,41,56,24,43,52,50,17,6,8,35,26,14,7,51,7,26,41,41,3,6,45,0,0,13,3,37,2,22,50,44,50,9,27,0,0,34,57,9,31,6,59,19,4,12,0,8,1,0,0,0,0,30,22,0,0,0,0,0,0,0,0,0,0,0,0,0,0,0,0,0,0,0,0,0,0,0,0,0,0,0,0,0,0,0,0,0,0,0,0,0,0,0,0,0,0],"split_type":[0,0,0,0,0,0,0,0,0,0,0,0,0,0,0,0,0,0,0,0,0,0,0,0,0,0,0,0,0,0,0,0,0,0,0,0,0,0,0,0,0,0,0,0,0,0,0,0,0,0,0,0,0,0,0,0,0,0,0,0,0,0,0,0,0,0,0,0,0,0,0,0,0,0,0,0,0,0,0,0,0,0,0,0,0,0,0,0,0,0,0,0,0,0,0,0,0,0,0],"sum_hessian":[6.51E2,5.72E2,7.9E1,3.06E2,2.66E2,4.5E1,3.4E1,2.72E2,3.4E1,8.6E1,1.8E2,3.9E1,6E0,1.2E1,2.2E1,1.78E2,9.4E1,2.7E1,7E0,2E1,6.6E1,1.54E2,2.6E1,2.9E1,1E1,4E0,2E0,7E0,5E0,1.6E1,6E0,6.4E1,1.14E2,6.6E1,2.8E1,7E0,2E1,6E0,1E0,1E1,1E1,4.6E1,2E1,8.5E1,6.9E1,1.6E1,1E1,2.6E1,3E0,6E0,4E0,4E0,3E0,1E0,4E0,9E0,7E0,3E0,3E0,1.5E1,4.9E1,8.8E1,2.6E1,3.1E1,3.5E1,1.8E1,1E1,5E0,2E0,1.3E1,7E0,3E0,7E0,4E0,6E0,1.9E1,2.7E1,8E0,1.2E1,2.8E1,5.7E1,3.1E1,3.8E1,1.4E1,2E0,5E0,5E0,1.3E1,1.3E1,4E0,2E0,3E0,1E0,2E0,1E0,6E0,3E0,2E0,5E0],"tree_param":{"num_deleted":"0","num_feature":"60","num_nodes":"99","size_leaf_vector":"0"}},{"base_weights":[-3.0042982E-5,7.7933394E-3,-6.610468E-5,1.2914054E-3,1.0398604E-2,9.383962E-4,-3.214573E-4,-3.0702434E-4,3.436215E-3,-8.2432106E-4,5.9856265E-4,-7.85487E-3,1.4057862E-4,1.3048423E-3,6.7445813E-3,-4.0646633E-3,-5.1654753E-4,1.0435821E-3,-1.9181019E-3,-1.1652102E-2,-1.4393479E-3,2.1509584E-3,-1.6942247E-3,-1.1190657E-3,3.8086835E-3,-1.316145E-4,8.870458E-3,-2.6711908E-3,-1.525103E-2,-1.1468142E-2,-4.4351903E-4,1.8190317E-3,-1.5205526E-3,-5.2135363E-3,8.7931985E-4,1.080748E-2,1.4299193E-3,-6.6820956E-3,-7.555241E-4,-1.766183E-3,2.058131E-3,3.9052483E-4,5.664269E-3,1.8451028E-3,-1.0870695E-3,4.171086E-3,1.0495613E-2,-4.3664314E-3,2.7961305E-3,-6.591757E-4,2.8600753E-3,7.389939E-3,1.3053878E-3,2.4560026E-3,-2.8864453E-3,-2.5731807E-3,-1.3156995E-2,3.896554E-3,-1.9003683E-3],"categories":[],"categories_nodes":[],"categories_segments":[],"categories_sizes":[],"default_left":[1,1,1,0,0,1,1,1,1,1,1,1,1,1,1,1,1,1,1,0,0,1,1,1,1,1,1,1,0,0,1,1,1,1,1,0,0,0,0,0,0,0,0,0,0,0,0,0,0,0,0,0,0,0,0,0,0,0,0],"id":64,"left_children":[1,3,5,-1,-1,7,9,11,13,15,17,19,21,23,25,27,29,31,33,-1,-1,35,37,39,41,43,45,47,-1,-1,49,51,53,55,57,-1,-1,-1,-1,-1,-1,-1,-1,-1,-1,-1,-1,-1,-1,-1,-1,-1,-1,-1,-1,-1,-1,-1,-1],"loss_changes":[1.8446034E-4,3.7388963E-5,1.670279E-4,0E0,0E0,4.1168518E-4,2.40606E-4,3.0178519E-4,3.0145934E-4,3.3299043E-4,2.0807516E-4,1.05034735E-4,3.1717957E-4,1.7419642E-4,2.4967245E-4,4.113106E-4,2.412453E-4,3.1493796E-4,2.6270852E-4,0E0,0E0,2.4045544E-4,2.056468E-4,3.4475317E-5,8.6585555E-5,1.1449077E-5,5.5505778E-5,2.624566E-4,0E0,0E0,2.2060501E-4,3.3659016E-4,2.0805642E-4,2.3880092E-4,1.415964E-4,0E0,0E0,0E0,0E0,0E0,0E0,0E0,0E0,0E0,0E0,0E0,0E0,0E0,0E0,0E0,0E0,0E0,0E0,0E0,0E0,0E0,0E0,0E0,0E0],"parents":[2147483647,0,0,1,1,2,2,5,5,6,6,7,7,8,8,9,9,10,10,11,11,12,12,13,13,14,14,15,15,16,16,17,17,18,18,21,21,22,22,23,23,24,24,25,25,26,26,27,27,30,30,31,31,32,32,33,33,34,34],"right_children":[2,4,6,-1,-1,8,10,12,14,16,18,20,22,24,26,28,30,32,34,-1,-1,36,38,40,42,44,46,48,-1,-1,50,52,54,56,58,-1,-1,-1,-1,-1,-1,-1,-1,-1,-1,-1,-1,-1,-1,-1,-1,-1,-1,-1,-1,-1,-1,-1,-1],"split_conditions":[-1.862627E0,-4.812304E-2,-2.2794329E-1,3.8742163E-4,3.1195814E-3,-3.2598466E-1,1.0153261E-1,-4.3814754E-1,-3.5222743E-2,-1.7220932E-1,3.3604884E-1,-3.9951578E-2,-1.4015174E-2,1.261508E-1,-5.0584865E-1,5.170543E-1,-1.1190631E0,1.6543344E-1,-1.2525165E-1,-3.4956306E-3,-4.3180436E-4,-3.851731E-1,3.3248283E-2,5.9616506E-1,4.1599296E-2,-3.8309884E-1,-1.4260817E-1,2.071461E-1,-4.5753093E-3,-3.4404427E-3,4.5106557E-1,-4.2668748E-1,-3.5575187E-1,9.342591E-3,-4.3612625E-2,3.242244E-3,4.289758E-4,-2.0046288E-3,-2.2665724E-4,-5.298549E-4,6.174393E-4,1.17157455E-4,1.6992808E-3,5.535309E-4,-3.2612088E-4,1.2513258E-3,3.148684E-3,-1.3099294E-3,8.3883916E-4,-1.9775271E-4,8.5802266E-4,2.2169817E-3,3.9161637E-4,7.3680084E-4,-8.659336E-4,-7.7195425E-4,-3.9470987E-3,1.1689663E-3,-5.701105E-4],"split_indices":[52,0,14,0,0,14,51,8,0,14,27,3,48,57,19,11,21,26,50,0,0,20,48,2,52,2,51,55,0,0,53,44,20,34,59,0,0,0,0,0,0,0,0,0,0,0,0,0,0,0,0,0,0,0,0,0,0,0,0],"split_type":[0,0,0,0,0,0,0,0,0,0,0,0,0,0,0,0,0,0,0,0,0,0,0,0,0,0,0,0,0,0,0,0,0,0,0,0,0,0,0,0,0,0,0,0,0,0,0,0,0,0,0,0,0,0,0,0,0,0,0],"sum_hessian":[6.51E2,2E0,6.49E2,1E0,1E0,1.31E2,5.18E2,8.8E1,4.3E1,3.35E2,1.83E2,4E0,8.4E1,2.7E1,1.6E1,2.8E1,3.07E2,1.56E2,2.7E1,2E0,2E0,4E1,4.4E1,1.4E1,1.3E1,4E0,1.2E1,2.6E1,2E0,1E0,3.06E2,1.2E2,3.6E1,1.2E1,1.5E1,2E0,3.8E1,6E0,3.8E1,1.2E1,2E0,5E0,8E0,1E0,3E0,4E0,8E0,2E1,6E0,2.88E2,1.8E1,9E0,1.11E2,9E0,2.7E1,1E1,2E0,7E0,8E0],"tree_param":{"num_deleted":"0","num_feature":"60","num_nodes":"59","size_leaf_vector":"0"}},{"base_weights":[-2.3969555E-5,5.3981814E-4,-4.163621E-4,-8.544327E-5,4.105944E-3,2.7881525E-3,-6.2766596E-4,3.883977E-4,-2.4038581E-3,8.0281554E-4,1.0904533E-2,5.8352575E-3,5.7087245E-4,-1.2405608E-3,3.761675E-4,7.1760773E-4,-2.8155437E-3,-1.2024395E-2,-1.2681358E-3,3.997448E-3,-3.7898151E-3,2.4939508E-3,1.4365464E-2,7.988686E-3,6.0794293E-4,-1.9378855E-3,1.6593195E-3,-3.815377E-3,-5.575613E-4,1.0210469E-3,-2.4410454E-3,1.0765188E-3,-2.452761E-3,-7.781543E-3,-1.3035743E-3,-1.4823456E-2,-1.8136054E-3,-7.6640197E-3,-6.66495E-4,5.5945413E-3,-9.5448457E-4,-9.194665E-3,-9.665692E-4,5.360514E-3,4.3718144E-4,-5.688071E-4,1.1897953E-3,-3.2699518E-3,-7.873811E-4,2.5135854E-3,1.3148338E-4,-5.703209E-3,-7.3313946E-4,-1.7884168E-3,1.0231219E-3,1.3794812E-3,-2.4280236E-3,8.7097846E-4,-4.927928E-3,-7.283554E-4,1.7857472E-3,-5.0412035E-3,-3.47279E-4,-3.1046322E-4,-2.741497E-3,1.3535928E-3,-1.6914759E-3,2.0607323E-3,6.9361534E-3,1.0458091E-3,-1.7160103E-3,9.77175E-4,-2.7169995E-3,-3.7963395E-3,-1.4096914E-2,2.6154425E-4,-4.5285895E-3,2.506872E-4,-3.7147012E-3,-3.90727E-3,1.7128475E-3,3.1345629E-3,6.493199E-4,-4.2053415E-3,5.458258E-4,2.4014928E-3,-5.653165E-4,-1.6848245E-3,-8.393643E-3],"categories":[],"categories_nodes":[],"categories_segments":[],"categories_sizes":[],"default_left":[1,1,1,1,1,1,1,1,1,1,1,1,1,1,1,1,1,1,1,1,1,1,0,0,1,1,1,1,1,1,1,1,1,0,1,0,0,0,1,1,1,0,1,0,0,0,0,0,0,0,0,1,1,1,1,1,1,1,1,0,0,0,0,0,0,0,0,0,0,0,0,0,0,0,0,0,0,0,0,0,0,0,0,0,0,0,0,0,0],"id":65,"left_children":[1,3,5,7,9,11,13,15,17,19,21,23,25,27,29,31,33,35,37,39,41,43,-1,-1,45,47,49,51,53,55,57,59,61,-1,63,-1,-1,-1,65,67,69,-1,71,-1,-1,-1,-1,-1,-1,-1,-1,73,75,77,79,81,83,85,87,-1,-1,-1,-1,-1,-1,-1,-1,-1,-1,-1,-1,-1,-1,-1,-1,-1,-1,-1,-1,-1,-1,-1,-1,-1,-1,-1,-1,-1,-1],"loss_changes":[1.4446417E-4,5.979268E-4,2.6244362E-4,2.5250387E-4,8.8951027E-4,1.5881963E-4,2.2318512E-4,2.0348147E-4,4.1087554E-4,4.259591E-4,3.4258293E-4,1.0770984E-4,4.4175325E-5,3.935573E-4,2.5320565E-4,2.0063162E-4,1.2500807E-4,8.743862E-5,1.3342086E-4,1.397878E-4,1.7422336E-4,2.7135779E-5,0E0,0E0,3.4155435E-6,5.0880426E-6,1.4026464E-5,2.6929984E-4,3.5009082E-4,1.4304738E-4,2.1844411E-4,2.0227133E-4,9.634783E-5,0E0,2.0569121E-5,0E0,0E0,0E0,7.2688315E-5,4.7339418E-5,9.410995E-6,0E0,3.327648E-5,0E0,0E0,0E0,0E0,0E0,6.784899E-8,0E0,7.947169E-7,4.1064853E-4,7.2914605E-5,3.9764858E-4,2.7534136E-4,1.299584E-4,6.043561E-5,2.7736845E-5,1.5445327E-4,0E0,0E0,0E0,0E0,0E0,0E0,0E0,0E0,0E0,0E0,0E0,0E0,0E0,0E0,0E0,0E0,0E0,0E0,0E0,0E0,0E0,0E0,0E0,0E0,0E0,0E0,0E0,0E0,0E0,0E0],"parents":[2147483647,0,0,1,1,2,2,3,3,4,4,5,5,6,6,7,7,8,8,9,9,10,10,11,11,12,12,13,13,14,14,15,15,16,16,17,17,18,18,19,19,20,20,21,21,24,24,25,25,26,26,27,27,28,28,29,29,30,30,31,31,32,32,34,34,38,38,39,39,40,40,42,42,51,51,52,52,53,53,54,54,55,55,56,56,57,57,58,58],"right_children":[2,4,6,8,10,12,14,16,18,20,22,24,26,28,30,32,34,36,38,40,42,44,-1,-1,46,48,50,52,54,56,58,60,62,-1,64,-1,-1,-1,66,68,70,-1,72,-1,-1,-1,-1,-1,-1,-1,-1,74,76,78,80,82,84,86,88,-1,-1,-1,-1,-1,-1,-1,-1,-1,-1,-1,-1,-1,-1,-1,-1,-1,-1,-1,-1,-1,-1,-1,-1,-1,-1,-1,-1,-1,-1],"split_conditions":[-7.06579E-2,-1.0234761E-1,-4.303087E-1,2.6341578E-1,6.2109478E-2,-1.5935121E-2,1.1686109E-1,3.3476532E-1,2.798049E-1,7.221664E-3,-1.3010384E-1,2.7550608E-1,-1.0348191E-1,-1.8228869E-1,2.1922591E-1,4.3795246E-1,-3.0482113E-1,3.830167E-2,-5.666654E-1,1.7295921E-1,-2.5603592E-1,-1.4448114E-1,4.3096393E-3,2.396606E-3,-4.610679E-1,3.8391884E-2,1.1356706E-1,7.274184E-2,7.2835885E-2,4.3163434E-1,-2.028161E-2,-9.304097E-2,5.924841E-1,-2.334463E-3,-1.5946206E-2,-4.447037E-3,-5.440817E-4,-2.299206E-3,-6.501509E-2,-6.2554106E-2,-3.7032998E-1,-2.7583996E-3,1.8240967E-1,1.6081543E-3,1.3115443E-4,-1.7064215E-4,3.569386E-4,-9.809856E-4,-2.3621433E-4,7.5407565E-4,3.9445014E-5,1.7173658E-1,7.573236E-1,2.6665844E-2,-4.38915E-1,-1.4721474E-1,1.0445565E-1,-2.1869648E-1,-3.4476988E-2,-2.1850663E-4,5.357242E-4,-1.5123611E-3,-1.0418371E-4,-9.313897E-5,-8.2244916E-4,4.0607786E-4,-5.074428E-4,6.182197E-4,2.080846E-3,3.1374276E-4,-5.148031E-4,2.931525E-4,-8.1509986E-4,-1.1389019E-3,-4.2290743E-3,7.846328E-5,-1.3585769E-3,7.520617E-5,-1.1144103E-3,-1.172181E-3,5.1385426E-4,9.403689E-4,1.9479598E-4,-1.2616025E-3,1.6374775E-4,7.2044786E-4,-1.6959496E-4,-5.054474E-4,-2.5180932E-3],"split_indices":[35,35,44,42,17,10,45,1,42,37,31,23,34,10,0,0,16,0,45,45,44,2,0,0,0,2,25,4,24,20,3,56,0,0,7,0,0,0,37,0,1,0,39,0,0,0,0,0,0,0,0,14,8,53,33,54,51,7,47,0,0,0,0,0,0,0,0,0,0,0,0,0,0,0,0,0,0,0,0,0,0,0,0,0,0,0,0,0,0],"split_type":[0,0,0,0,0,0,0,0,0,0,0,0,0,0,0,0,0,0,0,0,0,0,0,0,0,0,0,0,0,0,0,0,0,0,0,0,0,0,0,0,0,0,0,0,0,0,0,0,0,0,0,0,0,0,0,0,0,0,0,0,0,0,0,0,0,0,0,0,0,0,0,0,0,0,0,0,0,0,0,0,0,0,0,0,0,0,0,0,0],"sum_hessian":[6.51E2,2.67E2,3.84E2,2.28E2,3.9E1,2.3E1,3.61E2,1.9E2,3.8E1,2.7E1,1.2E1,9E0,1.4E1,2.24E2,1.37E2,1.73E2,1.7E1,3E0,3.5E1,1.6E1,1.1E1,4E0,8E0,6E0,3E0,4E0,1E1,4.6E1,1.78E2,1.12E2,2.5E1,1.56E2,1.7E1,3E0,1.4E1,2E0,1E0,2E0,3.3E1,1.2E1,4E0,3E0,8E0,1E0,3E0,1E0,2E0,1E0,3E0,6E0,4E0,2.8E1,1.8E1,1E2,7.8E1,1.02E2,1E1,1.1E1,1.4E1,4.4E1,1.12E2,7E0,1E1,9E0,5E0,1.1E1,2.2E1,4E0,8E0,1E0,3E0,4E0,4E0,2.4E1,4E0,1.5E1,3E0,4.9E1,5.1E1,9E0,6.9E1,2.9E1,7.3E1,6E0,4E0,5E0,6E0,8E0,6E0],"tree_param":{"num_deleted":"0","num_feature":"60","num_nodes":"89","size_leaf_vector":"0"}},{"base_weights":[-4.024013E-5,6.267185E-3,-6.928942E-5,8.2983077E-4,8.570947E-3,2.2616088E-3,-1.4305911E-4,7.454696E-3,4.974185E-4,-3.010039E-3,-8.7338434E-5,1.058427E-2,1.8402239E-3,1.461169E-3,-2.759125E-3,-1.5737679E-3,-9.40451E-3,1.0846099E-3,-3.067717E-4,-2.5265983E-5,2.7388656E-3,-7.0758164E-4,-3.2071124E-3,3.434658E-4,-2.7183965E-3,-5.1915215E-4,2.296702E-3,-4.0011425E-4,2.495078E-3,6.4874935E-4,-4.24622E-4,1.1438348E-3,3.6491798E-3,-5.019456E-4,1.0743886E-3,-5.3303316E-4,-2.9937848E-3,-3.2125765E-3,5.071055E-4,-1.2740215E-3,3.2994905E-3,-1.2249071E-3,-1.0052403E-4,-4.1930692E-4,4.577078E-3],"categories":[],"categories_nodes":[],"categories_segments":[],"categories_sizes":[],"default_left":[1,1,1,0,0,1,1,1,1,1,1,0,0,1,1,1,0,1,1,1,1,0,0,1,1,1,1,1,1,0,0,0,0,0,0,0,0,0,0,0,0,0,0,0,0],"id":66,"left_children":[1,3,5,-1,-1,7,9,11,13,15,17,-1,-1,19,21,23,-1,25,27,29,31,-1,-1,33,35,37,39,41,43,-1,-1,-1,-1,-1,-1,-1,-1,-1,-1,-1,-1,-1,-1,-1,-1],"loss_changes":[1.19897726E-4,3.0466676E-5,1.1209082E-4,0E0,0E0,1.7952378E-4,1.0053939E-4,6.837712E-5,5.4247474E-5,9.5409814E-5,1.5977467E-4,0E0,0E0,2.4758963E-5,1.4069683E-6,2.5073403E-5,0E0,1.9169523E-4,1.3777943E-4,2.159678E-6,5.9897975E-6,0E0,0E0,3.628937E-6,2.61698E-6,1.2048745E-4,2.0472176E-4,1.2515651E-4,1.0507094E-4,0E0,0E0,0E0,0E0,0E0,0E0,0E0,0E0,0E0,0E0,0E0,0E0,0E0,0E0,0E0,0E0],"parents":[2147483647,0,0,1,1,2,2,5,5,6,6,7,7,8,8,9,9,10,10,13,13,14,14,15,15,17,17,18,18,19,19,20,20,23,23,24,24,25,25,26,26,27,27,28,28],"right_children":[2,4,6,-1,-1,8,10,12,14,16,18,-1,-1,20,22,24,-1,26,28,30,32,-1,-1,34,36,38,40,42,44,-1,-1,-1,-1,-1,-1,-1,-1,-1,-1,-1,-1,-1,-1,-1,-1],"split_conditions":[-1.862627E0,-4.812304E-2,-7.4188685E-1,2.4894925E-4,2.571284E-3,-1.7056432E-1,-9.4547033E-1,6.7525215E-2,2.8634655E-1,3.8878682E-1,-2.596208E-1,3.175281E-3,5.520672E-4,-1.2253536E-2,3.598202E-2,-1.5063408E-1,-2.8213533E-3,-4.6778876E-2,5.908544E-1,3.872266E-2,-3.556112E-2,-2.122745E-4,-9.6213375E-4,-2.7570836E-3,-3.480875E-1,-1.2591593E-1,-2.0345816E-1,-1.5081368E-1,8.911796E-2,1.9462481E-4,-1.2738661E-4,3.4315046E-4,1.094754E-3,-1.5058368E-4,3.223166E-4,-1.5990995E-4,-8.981355E-4,-9.63773E-4,1.5213166E-4,-3.8220646E-4,9.898472E-4,-3.6747215E-4,-3.0157209E-5,-1.2579208E-4,1.3731234E-3],"split_indices":[52,0,45,0,0,43,40,11,56,37,40,0,0,3,1,56,0,5,9,2,27,0,0,1,1,22,7,46,8,0,0,0,0,0,0,0,0,0,0,0,0,0,0,0,0],"split_type":[0,0,0,0,0,0,0,0,0,0,0,0,0,0,0,0,0,0,0,0,0,0,0,0,0,0,0,0,0,0,0,0,0,0,0,0,0,0,0,0,0,0,0,0,0],"sum_hessian":[6.51E2,2E0,6.49E2,1E0,1E0,1.9E1,6.3E2,4E0,1.5E1,1.1E1,6.19E2,2E0,2E0,1.2E1,3E0,1E1,1E0,9.7E1,5.22E2,6E0,6E0,1E0,2E0,4E0,6E0,4.2E1,5.5E1,5.06E2,1.6E1,2E0,4E0,3E0,3E0,2E0,2E0,1E0,5E0,1.1E1,3.1E1,1.2E1,4.3E1,1.34E2,3.72E2,7E0,9E0],"tree_param":{"num_deleted":"0","num_feature":"60","num_nodes":"45","size_leaf_vector":"0"}},{"base_weights":[-2.2314438E-5,1.5248072E-4,-8.3985773E-4,9.3499274E-4,-2.1467065E-4,1.3611802E-3,-1.5638835E-3,1.3483571E-3,-1.8015133E-3,-6.226342E-4,8.960047E-4,5.292761E-3,1.05430416E-4,-2.711937E-3,5.975014E-4,1.9047554E-3,-9.407277E-4,-1.4170364E-4,-4.895943E-3,-1.3606393E-3,5.7998224E-4,1.2357887E-3,-5.7390914E-3,1.8628351E-3,7.3994966E-3,1.4886144E-3,-8.9008885E-4,-4.2283176E-3,3.0478305E-4,-3.1096935E-3,1.1057614E-3,6.724944E-4,3.3712413E-3,-2.7047596E-3,7.718476E-4,4.8692012E-4,-1.62206E-3,-1.1448883E-3,-6.9175987E-3,-7.8493456E-4,-3.6745637E-3,-1.3522897E-3,1.8795861E-3,1.8578572E-3,-2.2057674E-3,-5.989447E-4,-8.9662075E-3,1.9368863E-3,-1.2729168E-3,1.0756055E-3,-1.3073384E-3,-6.042982E-4,-7.1332715E-3,-1.2328574E-3,2.3211055E-3,3.4877242E-4,3.3269036E-3,5.6963097E-3,1.7547203E-4,6.096652E-3,1.508586E-3,1.4977483E-4,-3.4308743E-3,-1.3504103E-3,1.3654771E-3,1.1077711E-3,-3.1855935E-4,-2.1231275E-3,-5.803059E-4,4.0441006E-4,-1.7961245E-3,-5.6513594E-3,-4.746507E-4,-9.449793E-3,-2.5521254E-3,3.8988094E-4,-3.696844E-3,-2.0850878E-3,2.9739912E-3,4.6621216E-3,1.2023078E-3,-4.3274397E-3,8.372063E-4,2.4806291E-3,1.0057663E-3,-2.6596096E-4,-1.794782E-3,5.311385E-4,-4.711111E-3,-2.9117218E-3,-1.005679E-2,-3.4269032E-3,-4.513579E-4,2.2620475E-4,3.3308552E-3,-1.022956E-3,8.123959E-4,4.7537573E-3,1.0683239E-3],"categories":[],"categories_nodes":[],"categories_segments":[],"categories_sizes":[],"default_left":[1,1,1,1,1,1,1,1,1,1,1,1,1,1,1,1,1,1,1,1,1,1,1,0,0,1,1,1,1,0,1,1,1,1,1,1,1,1,0,1,1,1,1,1,1,0,0,1,0,0,1,1,1,1,1,1,1,0,0,0,0,0,0,0,0,0,0,0,0,0,0,0,0,0,0,0,0,0,0,0,0,0,0,0,0,0,0,0,0,0,0,0,0,0,0,0,0,0,0],"id":67,"left_children":[1,3,5,7,9,11,13,15,17,19,21,23,25,27,29,31,33,35,37,39,41,43,45,-1,-1,47,49,51,53,-1,55,57,59,61,63,65,67,69,-1,71,73,75,77,79,81,-1,-1,83,-1,-1,85,87,89,91,93,95,97,-1,-1,-1,-1,-1,-1,-1,-1,-1,-1,-1,-1,-1,-1,-1,-1,-1,-1,-1,-1,-1,-1,-1,-1,-1,-1,-1,-1,-1,-1,-1,-1,-1,-1,-1,-1,-1,-1,-1,-1,-1,-1],"loss_changes":[9.330056E-5,1.5476832E-4,1.8539367E-4,1.9699101E-4,1.668511E-4,1.4261735E-4,2.1750093E-4,1.9283828E-4,1.1743802E-4,2.3953666E-4,2.3028773E-4,3.6797588E-5,3.2995682E-5,2.62035E-4,6.184936E-5,2.1639108E-4,9.271878E-5,1.5679208E-5,5.2746836E-5,2.1958261E-4,2.6119413E-4,2.0748195E-4,7.7568984E-5,0E0,0E0,1.4844665E-5,1.28887705E-5,3.9573852E-4,6.486917E-5,0E0,4.5918303E-5,1.6629601E-4,2.7001026E-4,3.160465E-5,2.2001313E-5,6.3538832E-6,1.3778817E-6,4.7622075E-6,0E0,2.0116393E-4,1.898001E-4,1.729951E-4,2.752165E-4,1.4329978E-4,1.0046585E-4,5.9017657E-7,0E0,2.0616753E-6,0E0,0E0,5.6140125E-6,8.6436725E-5,2.2989477E-4,1.9028988E-5,1.828447E-5,1.4822286E-5,1.7480088E-5,0E0,0E0,0E0,0E0,0E0,0E0,0E0,0E0,0E0,0E0,0E0,0E0,0E0,0E0,0E0,0E0,0E0,0E0,0E0,0E0,0E0,0E0,0E0,0E0,0E0,0E0,0E0,0E0,0E0,0E0,0E0,0E0,0E0,0E0,0E0,0E0,0E0,0E0,0E0,0E0,0E0,0E0],"parents":[2147483647,0,0,1,1,2,2,3,3,4,4,5,5,6,6,7,7,8,8,9,9,10,10,11,11,12,12,13,13,14,14,15,15,16,16,17,17,18,18,19,19,20,20,21,21,22,22,25,25,26,26,27,27,28,28,30,30,31,31,32,32,33,33,34,34,35,35,36,36,37,37,39,39,40,40,41,41,42,42,43,43,44,44,47,47,50,50,51,51,52,52,53,53,54,54,55,55,56,56],"right_children":[2,4,6,8,10,12,14,16,18,20,22,24,26,28,30,32,34,36,38,40,42,44,46,-1,-1,48,50,52,54,-1,56,58,60,62,64,66,68,70,-1,72,74,76,78,80,82,-1,-1,84,-1,-1,86,88,90,92,94,96,98,-1,-1,-1,-1,-1,-1,-1,-1,-1,-1,-1,-1,-1,-1,-1,-1,-1,-1,-1,-1,-1,-1,-1,-1,-1,-1,-1,-1,-1,-1,-1,-1,-1,-1,-1,-1,-1,-1,-1,-1,-1,-1],"split_conditions":[2.6376957E-1,-1.2346589E-1,-3.049242E-1,3.602379E-1,1.4961107E-1,-1.8491928E-1,1.3303176E-1,2.2133482E-1,-1.8716512E-2,7.5863E-2,4.3234557E-1,-1.9936179E-1,4.1529043E-3,1.2818423E-1,-2.6469368E-1,6.346053E-2,5.862362E-2,2.1816193E-1,-2.7277088E-2,7.9794504E-2,-9.013876E-2,3.0841976E-1,-1.5950601E-1,5.588506E-4,2.219849E-3,4.9699104E-1,-1.3469863E-1,-1.494784E-1,7.16438E-2,-9.329081E-4,2.6476923E-1,-4.1663963E-1,-7.661928E-2,-1.7796335E-1,-2.9723895E-1,2.634805E-2,-9.4834216E-2,-4.764803E-1,-2.0752796E-3,-5.5600476E-1,-4.2868927E-1,4.5153923E-2,-1.9163209E-1,1.7592064E-1,7.07695E-2,-1.7968343E-4,-2.6898624E-3,1.6147426E-1,-3.8187506E-4,3.2268168E-4,-9.868577E-2,3.164925E-1,-8.524895E-2,-5.1673913E-1,-2.3383811E-1,-2.599607E-1,-1.20228454E-1,1.708893E-3,5.264161E-5,1.8289956E-3,4.5257583E-4,4.493245E-5,-1.0292623E-3,-4.051231E-4,4.0964314E-4,3.3233134E-4,-9.556781E-5,-6.3693826E-4,-1.7409177E-4,1.2132302E-4,-5.388374E-4,-1.6954079E-3,-1.4239522E-4,-2.834938E-3,-7.6563767E-4,1.16964286E-4,-1.1090533E-3,-6.2552636E-4,8.921974E-4,1.3986365E-3,3.6069233E-4,-1.298232E-3,2.511619E-4,7.441888E-4,3.0172992E-4,-7.978829E-5,-5.384346E-4,1.5934155E-4,-1.4133333E-3,-8.735166E-4,-3.0170372E-3,-1.028071E-3,-1.3540738E-4,6.786143E-5,9.992566E-4,-3.068868E-4,2.4371878E-4,1.4261273E-3,3.2049717E-4],"split_indices":[56,38,39,9,25,55,1,46,59,26,12,2,22,22,8,15,11,26,19,25,36,18,0,0,0,3,12,22,8,0,59,16,35,40,32,33,0,0,0,4,18,35,40,25,22,0,0,45,0,0,10,49,53,0,12,11,17,0,0,0,0,0,0,0,0,0,0,0,0,0,0,0,0,0,0,0,0,0,0,0,0,0,0,0,0,0,0,0,0,0,0,0,0,0,0,0,0,0,0],"split_type":[0,0,0,0,0,0,0,0,0,0,0,0,0,0,0,0,0,0,0,0,0,0,0,0,0,0,0,0,0,0,0,0,0,0,0,0,0,0,0,0,0,0,0,0,0,0,0,0,0,0,0,0,0,0,0,0,0,0,0,0,0,0,0,0,0,0,0,0,0,0,0,0,0,0,0,0,0,0,0,0,0,0,0,0,0,0,0,0,0,0,0,0,0,0,0,0,0,0,0],"sum_hessian":[6.51E2,5.37E2,1.14E2,1.71E2,3.66E2,2.8E1,8.6E1,1.49E2,2.2E1,2.68E2,9.8E1,6E0,2.2E1,5.6E1,3E1,1.2E2,2.9E1,1.5E1,7E0,1.66E2,1.02E2,9.4E1,4E0,3E0,3E0,9E0,1.3E1,3.7E1,1.9E1,3E0,2.7E1,6.6E1,5.4E1,1.4E1,1.5E1,1.1E1,4E0,3E0,4E0,1.34E2,3.2E1,4.1E1,6.1E1,8E1,1.4E1,2E0,2E0,8E0,1E0,2E0,1.1E1,1.7E1,2E1,1.1E1,8E0,2.1E1,6E0,5E0,6.1E1,2.1E1,3.3E1,3E0,1.1E1,3E0,1.2E1,6E0,5E0,2E0,2E0,1E0,2E0,7E0,1.27E2,4E0,2.8E1,2.4E1,1.7E1,1.3E1,4.8E1,1.4E1,6.6E1,8E0,6E0,4E0,4E0,4E0,7E0,1.4E1,3E0,9E0,1.1E1,2E0,9E0,3E0,5E0,5E0,1.6E1,3E0,3E0],"tree_param":{"num_deleted":"0","num_feature":"60","num_nodes":"99","size_leaf_vector":"0"}},{"base_weights":[-3.0448276E-5,-1.770375E-4,1.0198776E-3,4.1791714E-5,-9.381374E-4,6.615296E-3,8.653116E-4,-1.9097886E-4,1.6022393E-3,1.2783293E-3,-1.4102185E-3,5.658631E-3,7.313122E-4,8.883318E-5,-2.5681355E-3,3.2402647E-3,-8.5330784E-4,2.5804092E-3,-2.0664835E-3,-2.7185283E-3,-4.0050596E-4,1.096141E-3,-3.1113447E-4,-1.1880205E-3,5.17361E-4,3.679399E-3,-3.342988E-3,6.0154637E-3,1.5307931E-3,-6.7224646E-5,-9.466611E-3,4.236059E-3,-3.8995553E-4,-2.4656535E-3,-7.1237236E-4,-3.941101E-3,7.086198E-5,2.517067E-4,-3.084683E-3,1.68049E-3,1.9829272E-4,-2.259904E-3,2.803351E-4,-9.7209215E-3,-8.765469E-4,7.7387516E-4,-1.6540032E-3,5.9284765E-4,5.539484E-3,-4.874151E-3,-1.4129048E-4,8.16987E-3,2.1403444E-3,2.4630902E-3,-2.3180947E-3,-1.28636E-3,1.6462873E-3,5.713068E-4,5.5389274E-3,-1.7593751E-3,5.0968735E-4,-6.5587074E-3,-2.0426016E-3,-2.4751313E-3,9.136212E-4,-2.3978488E-3,7.387936E-4,-2.310127E-4,-5.8998517E-3,2.2213655E-3,1.06164814E-4,1.4073474E-3,-1.1280408E-3,-8.17781E-4,9.5365127E-4],"categories":[],"categories_nodes":[],"categories_segments":[],"categories_sizes":[],"default_left":[1,1,1,1,1,0,1,1,1,1,1,0,1,1,1,1,1,1,1,1,1,1,1,1,1,1,1,1,1,1,0,1,1,0,0,1,1,1,1,1,1,0,1,0,0,0,0,0,0,0,0,0,0,0,0,0,0,0,0,0,0,0,0,0,0,0,0,0,0,0,0,0,0,0,0],"id":68,"left_children":[1,3,5,7,9,-1,11,13,15,17,19,-1,21,23,25,27,29,31,33,35,37,39,41,43,45,47,49,51,53,55,-1,57,59,-1,-1,61,63,65,67,69,71,-1,73,-1,-1,-1,-1,-1,-1,-1,-1,-1,-1,-1,-1,-1,-1,-1,-1,-1,-1,-1,-1,-1,-1,-1,-1,-1,-1,-1,-1,-1,-1,-1,-1],"loss_changes":[1.0056668E-4,9.547286E-5,6.346462E-5,1.6230492E-4,1.3573577E-4,0E0,4.660362E-5,2.589742E-4,2.3605536E-4,1.0550229E-4,1.3893897E-4,0E0,3.000558E-5,1.9157601E-4,2.107778E-4,1.5683591E-4,1.6186216E-4,8.525589E-5,2.0271782E-6,1.5714997E-4,1.07566346E-4,3.0096853E-5,2.4838928E-5,2.2536315E-4,1.4721026E-4,2.5422167E-5,1.8069721E-4,9.104525E-5,8.824075E-5,5.0164785E-5,0E0,4.9357157E-5,9.5206515E-6,0E0,0E0,1.4562788E-4,3.4446224E-5,6.6299704E-5,9.503982E-5,2.9567149E-5,4.0074177E-5,8.470306E-7,1.3349328E-5,0E0,0E0,0E0,0E0,0E0,0E0,0E0,0E0,0E0,0E0,0E0,0E0,0E0,0E0,0E0,0E0,0E0,0E0,0E0,0E0,0E0,0E0,0E0,0E0,0E0,0E0,0E0,0E0,0E0,0E0,0E0,0E0],"parents":[2147483647,0,0,1,1,2,2,3,3,4,4,6,6,7,7,8,8,9,9,10,10,12,12,13,13,14,14,15,15,16,16,17,17,18,18,19,19,20,20,21,21,22,22,23,23,24,24,25,25,26,26,27,27,28,28,29,29,31,31,32,32,35,35,36,36,37,37,38,38,39,39,40,40,42,42],"right_children":[2,4,6,8,10,-1,12,14,16,18,20,-1,22,24,26,28,30,32,34,36,38,40,42,44,46,48,50,52,54,56,-1,58,60,-1,-1,62,64,66,68,70,72,-1,74,-1,-1,-1,-1,-1,-1,-1,-1,-1,-1,-1,-1,-1,-1,-1,-1,-1,-1,-1,-1,-1,-1,-1,-1,-1,-1,-1,-1,-1,-1,-1,-1],"split_conditions":[3.3637974E-1,2.1410203E-1,-1.6304375E0,1.2840512E-1,-3.3460444E-1,1.9845888E-3,3.4048373E-1,7.576625E-2,1.4731795E-1,2.3567352E-1,3.1136483E-1,1.6975894E-3,2.0501257E-1,-2.3197705E-1,-3.3324778E-1,-1.2329013E-1,3.5198498E-1,-1.671511E-2,1.3172662E-1,1.1681466E-1,2.3753941E-1,5.026636E-1,-2.207525E-1,-8.733735E-1,4.1323277E-1,1.2082036E-1,1.1225462E-1,5.7137124E-2,2.4636504E-1,1.3574651E-1,-2.8399834E-3,-3.519489E-1,-1.4286846E-2,-7.396961E-4,-2.1371171E-4,2.8630206E-2,-2.3552424E-1,-2.846788E-1,8.8316604E-2,2.359517E-1,-7.964897E-2,-6.779712E-4,-3.6075836E-1,-2.9162765E-3,-2.6296408E-4,2.3216255E-4,-4.96201E-4,1.778543E-4,1.6618453E-3,-1.4622454E-3,-4.2387146E-5,2.4509612E-3,6.421033E-4,7.389271E-4,-6.9542846E-4,-3.85908E-4,4.938862E-4,1.7139205E-4,1.6616783E-3,-5.278126E-4,1.5290621E-4,-1.9676124E-3,-6.127805E-4,-7.425394E-4,2.7408637E-4,-7.1935466E-4,2.2163808E-4,-6.930382E-5,-1.7699556E-3,6.664097E-4,3.1849446E-5,4.2220423E-4,-3.3841227E-4,-2.4533432E-4,2.860954E-4],"split_indices":[45,14,26,14,4,0,45,14,38,1,14,0,47,1,45,44,8,10,5,22,42,45,12,58,17,0,52,55,25,58,0,52,0,0,0,21,27,37,31,31,12,0,30,0,0,0,0,0,0,0,0,0,0,0,0,0,0,0,0,0,0,0,0,0,0,0,0,0,0,0,0,0,0,0,0],"split_type":[0,0,0,0,0,0,0,0,0,0,0,0,0,0,0,0,0,0,0,0,0,0,0,0,0,0,0,0,0,0,0,0,0,0,0,0,0,0,0,0,0,0,0,0,0,0,0,0,0,0,0,0,0,0,0,0,0,0,0,0,0,0,0,0,0,0,0,0,0,0,0,0,0,0,0],"sum_hessian":[6.51E2,5.72E2,7.9E1,4.45E2,1.27E2,1E0,7.8E1,3.88E2,5.7E1,2.2E1,1.05E2,1E0,7.7E1,3.48E2,4E1,3.4E1,2.3E1,1.6E1,6E0,4.5E1,6E1,5.7E1,2E1,8.7E1,2.61E2,4E0,3.6E1,1.2E1,2.2E1,2.2E1,1E0,1E1,6E0,4E0,2E0,3.1E1,1.4E1,4.9E1,1.1E1,3.4E1,2.3E1,4E0,1.6E1,2E0,8.5E1,2.34E2,2.7E1,2E0,2E0,2.4E1,1.2E1,7E0,5E0,1.8E1,4E0,1.3E1,9E0,3E0,7E0,2E0,4E0,1.2E1,1.9E1,3E0,1.1E1,7E0,4.2E1,6E0,5E0,2.5E1,9E0,1.2E1,1.1E1,6E0,1E1],"tree_param":{"num_deleted":"0","num_feature":"60","num_nodes":"75","size_leaf_vector":"0"}},{"base_weights":[-2.707691E-5,6.026681E-4,-2.2302751E-4,2.7155326E-4,4.1985726E-3,-3.6715448E-4,1.6368007E-3,-2.5384416E-4,1.8402024E-3,6.457424E-3,4.8700874E-4,-6.13227E-4,4.3764277E-4,6.178836E-3,1.1878917E-3,2.0017778E-3,-6.391786E-4,3.6149947E-3,2.3961873E-4,1.100406E-3,7.0655113E-3,8.306075E-4,-6.1549246E-4,-9.549262E-4,5.7330035E-4,-1.875464E-3,1.0780721E-3,6.4248443E-3,8.345039E-4,4.3941014E-3,5.14894E-4,6.254725E-3,-7.820985E-4,5.0793253E-3,7.974758E-4,-6.8103767E-4,1.705733E-3,-3.7524506E-4,-1.9714125E-3,1.5328575E-3,-1.4785822E-3,1.4758964E-4,-3.5986316E-3,-9.0220035E-4,1.8591807E-3,-5.036506E-4,1.5264744E-3,5.581975E-4,5.049643E-3,1.3241246E-3,-3.8015223E-4,2.0408782E-3,-1.1512528E-3,6.7399153E-3,1.738634E-3,-5.253057E-4,1.4316496E-3,-6.235577E-5,-1.6584576E-3,2.6165247E-3,1.4081015E-4,1.3802672E-4,-2.7053212E-3,-8.088104E-3,-1.5643433E-3,-8.670157E-6,2.817753E-3,1.73264E-4,-2.3632809E-3,1.5459878E-3,-2.1193654E-3,-5.5937893E-3,-1.6524345E-3,-1.7184997E-3,7.399428E-4,2.5993283E-3,-8.6413417E-4,-1.2972904E-3,8.6690334E-4,2.273545E-3,1.9475652E-4],"categories":[],"categories_nodes":[],"categories_segments":[],"categories_sizes":[],"default_left":[1,1,1,1,1,1,1,1,1,1,1,1,1,0,1,1,1,1,1,0,0,0,0,1,1,1,1,0,1,1,1,0,1,1,1,1,1,1,1,1,1,1,1,1,1,1,1,0,0,0,0,0,0,0,0,0,0,0,0,0,0,0,0,0,0,0,0,0,0,0,0,0,0,0,0,0,0,0,0,0,0],"id":69,"left_children":[1,3,5,7,9,11,13,15,17,19,21,23,25,-1,27,29,31,33,35,-1,-1,-1,-1,37,39,41,43,-1,45,47,49,-1,51,53,55,57,59,61,63,65,67,69,71,73,75,77,79,-1,-1,-1,-1,-1,-1,-1,-1,-1,-1,-1,-1,-1,-1,-1,-1,-1,-1,-1,-1,-1,-1,-1,-1,-1,-1,-1,-1,-1,-1,-1,-1,-1,-1],"loss_changes":[8.059051E-5,1.8341176E-4,1.3409056E-4,1.183226E-4,1.0584548E-4,9.196021E-5,6.606279E-5,9.5149735E-5,1.0139911E-4,1.8285355E-5,2.784141E-6,1.44477E-4,1.6349244E-4,0E0,5.75614E-5,5.4651224E-5,9.652247E-5,6.608761E-5,2.8157418E-5,0E0,0E0,3.6716415E-7,0E0,1.6188991E-4,1.5977833E-4,8.4196574E-5,1.3470283E-4,0E0,3.13256E-5,1.2268865E-5,8.470655E-6,0E0,9.822403E-5,4.930445E-5,6.6241673E-6,7.757842E-6,1.1034119E-5,2.1205873E-4,2.3633902E-4,1.08963024E-4,3.8405517E-5,4.131778E-5,4.123524E-5,3.47836E-5,1.2721677E-4,1.4177341E-5,2.1444732E-5,0E0,0E0,0E0,0E0,0E0,0E0,0E0,0E0,0E0,0E0,0E0,0E0,0E0,0E0,0E0,0E0,0E0,0E0,0E0,0E0,0E0,0E0,0E0,0E0,0E0,0E0,0E0,0E0,0E0,0E0,0E0,0E0,0E0,0E0],"parents":[2147483647,0,0,1,1,2,2,3,3,4,4,5,5,6,6,7,7,8,8,9,9,10,10,11,11,12,12,14,14,15,15,16,16,17,17,18,18,23,23,24,24,25,25,26,26,28,28,29,29,30,30,32,32,33,33,34,34,35,35,36,36,37,37,38,38,39,39,40,40,41,41,42,42,43,43,44,44,45,45,46,46],"right_children":[2,4,6,8,10,12,14,16,18,20,22,24,26,-1,28,30,32,34,36,-1,-1,-1,-1,38,40,42,44,-1,46,48,50,-1,52,54,56,58,60,62,64,66,68,70,72,74,76,78,80,-1,-1,-1,-1,-1,-1,-1,-1,-1,-1,-1,-1,-1,-1,-1,-1,-1,-1,-1,-1,-1,-1,-1,-1,-1,-1,-1,-1,-1,-1,-1,-1,-1,-1],"split_conditions":[-1.9202639E-1,-2.0495346E-1,4.461156E-1,1.2570925E-1,-2.7044691E-2,2.3672831E-1,-7.513772E-1,-2.507537E-1,1.08728215E-1,-8.797842E-2,2.3523456E-1,2.1736261E-1,-1.7683028E-1,1.8536508E-3,-7.2330934E-1,-2.3542749E-2,-1.4166962E0,3.0952126E-1,1.5605983E-1,3.3012184E-4,2.1196534E-3,2.4918225E-4,-1.8464775E-4,7.8810334E-2,4.8735335E-1,-1.0123845E-2,-9.358211E-2,1.9274533E-3,-1.569783E-1,-1.4172894E0,6.7738704E-2,1.8764177E-3,-3.7082198E-1,5.576866E-3,-1.7264274E-1,5.7914767E-2,-4.4802334E-3,1.6200203E-1,9.056924E-2,-2.4315909E-2,-5.8221994E-3,9.4235815E-2,-2.050257E-1,2.241853E-1,2.3598689E-1,1.6431847E-1,6.494121E-2,1.6745925E-4,1.514893E-3,3.972374E-4,-1.1404567E-4,6.1226345E-4,-3.4537585E-4,2.0219747E-3,5.2159023E-4,-1.5759171E-4,4.294949E-4,-1.8706733E-5,-4.975373E-4,7.8495743E-4,4.2243046E-5,4.1408017E-5,-8.115964E-4,-2.4264315E-3,-4.6930302E-4,-2.601047E-6,8.4532594E-4,5.19792E-5,-7.0898427E-4,4.6379634E-4,-6.358096E-4,-1.6781369E-3,-4.957304E-4,-5.155499E-4,2.2198286E-4,7.7979855E-4,-2.5924027E-4,-3.8918716E-4,2.60071E-4,6.820635E-4,5.842696E-5],"split_indices":[2,2,41,12,39,2,43,26,45,5,0,18,44,0,32,33,52,47,58,0,0,0,0,32,18,45,13,0,24,2,57,0,10,23,1,44,13,2,32,42,42,17,53,40,10,57,36,0,0,0,0,0,0,0,0,0,0,0,0,0,0,0,0,0,0,0,0,0,0,0,0,0,0,0,0,0,0,0,0,0,0],"split_type":[0,0,0,0,0,0,0,0,0,0,0,0,0,0,0,0,0,0,0,0,0,0,0,0,0,0,0,0,0,0,0,0,0,0,0,0,0,0,0,0,0,0,0,0,0,0,0,0,0,0,0,0,0,0,0,0,0,0,0,0,0,0,0,0,0,0,0,0,0,0,0,0,0,0,0,0,0,0,0,0,0],"sum_hessian":[6.51E2,1.54E2,4.97E2,1.42E2,1.2E1,4.62E2,3.5E1,1.07E2,3.5E1,7E0,5E0,3.54E2,1.08E2,2E0,3.3E1,1.5E1,9.2E1,1.6E1,1.9E1,1E0,6E0,4E0,1E0,2.75E2,7.9E1,2.3E1,8.5E1,1E0,3.2E1,5E0,1E1,1E0,9.1E1,1E1,6E0,1.2E1,7E0,1.76E2,9.9E1,5.4E1,2.5E1,1.1E1,1.2E1,2.4E1,6.1E1,1.1E1,2.1E1,1E0,4E0,5E0,5E0,1E1,8.1E1,6E0,4E0,2E0,4E0,8E0,4E0,4E0,3E0,1.45E2,3.1E1,5E0,9.4E1,2.5E1,2.9E1,9E0,1.6E1,7E0,4E0,5E0,7E0,1.6E1,8E0,4.8E1,1.3E1,7E0,4E0,1.3E1,8E0],"tree_param":{"num_deleted":"0","num_feature":"60","num_nodes":"81","size_leaf_vector":"0"}},{"base_weights":[-5.850702E-6,-4.9526077E-3,1.6989485E-5,2.0574339E-4,-4.6950814E-4,-2.7636572E-4,6.6299335E-4,-1.0521829E-2,-3.558388E-4,2.5944432E-4,-1.472386E-3,8.5355015E-4,-1.7452128E-3,-1.0538681E-3,6.447608E-4,-3.8545224E-4,2.1876479E-3,-2.2934845E-3,4.6067385E-4,-1.5636537E-3,1.0723526E-3,-6.326601E-3,-4.071618E-4,-1.7209804E-3,9.86501E-4,8.45489E-4,-4.4545457E-3,-1.7783486E-3,4.739969E-4,7.794492E-4,5.0524105E-3,-3.147311E-3,6.725754E-4,-1.6326495E-3,1.0165595E-3,2.538717E-4,-6.703499E-3,1.3467448E-3,-6.488255E-4,2.2725002E-3,-1.5881752E-3,-5.022853E-4,-2.9575857E-3,2.4007123E-3,-9.813226E-4,1.5353747E-3,-6.270017E-4],"categories":[],"categories_nodes":[],"categories_segments":[],"categories_sizes":[],"default_left":[1,0,1,1,1,1,1,0,1,1,1,1,1,1,1,1,1,1,1,1,1,0,1,1,1,1,0,0,0,0,0,0,0,0,0,0,0,0,0,0,0,0,0,0,0,0,0],"id":70,"left_children":[1,-1,3,5,7,9,11,-1,13,15,17,19,21,23,25,27,29,31,33,35,37,-1,39,41,43,45,-1,-1,-1,-1,-1,-1,-1,-1,-1,-1,-1,-1,-1,-1,-1,-1,-1,-1,-1,-1,-1],"loss_changes":[7.375027E-5,0E0,5.9785012E-5,1.0357164E-4,2.0421653E-4,1.4713427E-4,1.1208452E-4,0E0,1.2709854E-4,1.9855842E-4,1.1375005E-4,1.2014822E-4,1.07766406E-4,1.4734137E-4,8.053437E-5,1.4449775E-4,1.5742812E-4,1.2874184E-4,2.7259952E-5,1.7919601E-4,9.816306E-5,0E0,5.1079878E-5,1.2058507E-4,7.7494675E-5,7.511975E-5,0E0,0E0,0E0,0E0,0E0,0E0,0E0,0E0,0E0,0E0,0E0,0E0,0E0,0E0,0E0,0E0,0E0,0E0,0E0,0E0,0E0],"parents":[2147483647,0,0,2,2,3,3,4,4,5,5,6,6,8,8,9,9,10,10,11,11,12,12,13,13,14,14,15,15,16,16,17,17,18,18,19,19,20,20,22,22,23,23,24,24,25,25],"right_children":[2,-1,4,6,8,10,12,-1,14,16,18,20,22,24,26,28,30,32,34,36,38,-1,40,42,44,46,-1,-1,-1,-1,-1,-1,-1,-1,-1,-1,-1,-1,-1,-1,-1,-1,-1,-1,-1,-1,-1],"split_conditions":[-1.6618662E0,-1.4857823E-3,1.5324551E-1,3.5616253E-3,1.5539616E-1,1.5539616E-1,4.1789398E-1,-3.1565488E-3,5.047133E-2,1.4497908E-2,1.3717982E-1,-4.3939152E-1,-3.3025467E-1,1.7460775E-1,6.6293865E-1,-6.8367414E-2,1.2590507E-1,2.2650823E-1,-1.5068129E-1,1.7507344E-1,3.2594472E-1,-1.8979803E-3,-2.7484573E-2,-8.019201E-2,8.6314306E-2,8.771905E-2,-1.3363637E-3,-5.335046E-4,1.4219907E-4,2.3383477E-4,1.5157232E-3,-9.4419334E-4,2.0177262E-4,-4.897949E-4,3.0496786E-4,7.616151E-5,-2.0110498E-3,4.0402348E-4,-1.9464766E-4,6.8175007E-4,-4.7645258E-4,-1.506856E-4,-8.8727573E-4,7.2021375E-4,-2.943968E-4,4.606124E-4,-1.8810052E-4],"split_indices":[31,0,28,21,28,50,58,0,9,50,36,18,16,35,55,25,49,23,55,19,32,0,10,22,5,42,0,0,0,0,0,0,0,0,0,0,0,0,0,0,0,0,0,0,0,0,0],"split_type":[0,0,0,0,0,0,0,0,0,0,0,0,0,0,0,0,0,0,0,0,0,0,0,0,0,0,0,0,0,0,0,0,0,0,0,0,0,0,0,0,0,0,0,0,0,0,0],"sum_hessian":[6.51E2,2E0,6.49E2,4.68E2,1.81E2,2.28E2,2.4E2,1E0,1.8E2,1.58E2,7E1,2.23E2,1.7E1,1.06E2,7.4E1,1.19E2,3.9E1,4.9E1,2.1E1,1.8E1,2.05E2,3E0,1.4E1,8E1,2.6E1,7.2E1,2E0,4.5E1,7.4E1,2.7E1,1.2E1,3.8E1,1.1E1,4E0,1.7E1,1.4E1,4E0,1.77E2,2.8E1,4E0,1E1,4.1E1,3.9E1,1.5E1,1.1E1,4.9E1,2.3E1],"tree_param":{"num_deleted":"0","num_feature":"60","num_nodes":"47","size_leaf_vector":"0"}},{"base_weights":[-1.8367642E-5,2.1174701E-4,-4.0401737E-4,3.6271033E-4,-1.5781241E-3,-2.572033E-3,-2.4059505E-4,7.200375E-3,3.2547413E-4,-6.162884E-3,-1.067044E-3,-1.5755949E-3,-6.69688E-3,1.6910247E-4,-1.1489276E-3,7.579692E-5,1.2972582E-3,-1.555939E-3,7.616026E-4,-3.0605653E-3,1.0632491E-4,-2.8278626E-4,2.2772567E-3,-7.3667667E-3,-8.6193567E-4,-1.9651237E-4,1.1960572E-3,-7.215294E-4,2.4018341E-3,-2.9145172E-3,-6.9449254E-4,1.3472098E-3,-1.4405232E-5,-3.560394E-3,2.1911785E-4,5.294122E-4,-7.752913E-4,2.9192687E-4,-1.3161444E-3,-5.1171676E-4,4.4009695E-3,2.04289E-3,-1.2763864E-3,1.9282885E-3,-3.750666E-4,2.1138152E-3,-6.992616E-4,-1.8633205E-3,7.392541E-4,-4.4371095E-4,3.5207602E-3,-3.394771E-3,-8.2241994E-4,6.8081914E-5,-1.6846714E-3,2.0349023E-3,-3.117823E-4,-5.135134E-3,-6.3202064E-4,5.8245164E-4,-2.3788766E-3,-1.0737156E-3,5.259761E-3,1.0429753E-3,3.6950607E-3,-9.995409E-4,-8.943558E-3],"categories":[],"categories_nodes":[],"categories_segments":[],"categories_sizes":[],"default_left":[1,1,1,1,1,1,1,0,1,0,1,1,0,1,1,1,1,1,1,1,1,1,1,0,1,1,1,1,1,1,1,0,0,0,0,0,0,1,1,1,1,1,1,0,0,0,0,0,0,0,0,0,0,0,0,0,0,0,0,0,0,0,0,0,0,0,0],"id":71,"left_children":[1,3,5,7,9,11,13,-1,15,-1,17,19,-1,21,23,25,27,29,31,33,35,37,39,-1,41,43,45,47,49,51,53,-1,-1,-1,-1,-1,-1,55,57,59,61,63,65,-1,-1,-1,-1,-1,-1,-1,-1,-1,-1,-1,-1,-1,-1,-1,-1,-1,-1,-1,-1,-1,-1,-1,-1],"loss_changes":[5.794641E-5,1.1108619E-4,8.583089E-5,9.389849E-5,6.840569E-5,5.9321064E-5,8.504257E-5,0E0,9.137405E-5,0E0,2.80055E-5,3.7789436E-5,0E0,1.5116287E-4,1.20347664E-4,9.205728E-5,1.7343563E-4,2.6064114E-5,3.2004568E-6,1.3894387E-5,3.3944532E-6,7.818309E-5,1.6809543E-4,0E0,8.567711E-5,9.291554E-5,1.04105304E-4,4.8078935E-5,1.6075993E-4,6.2507097E-6,1.21960575E-5,0E0,9.8194825E-8,0E0,0E0,3.461014E-8,0E0,9.0075715E-5,1.19549564E-4,2.7944416E-5,8.087332E-5,1.101441E-5,1.2054047E-4,0E0,0E0,0E0,0E0,0E0,0E0,0E0,0E0,0E0,0E0,0E0,0E0,0E0,0E0,0E0,0E0,0E0,0E0,0E0,0E0,0E0,0E0,0E0,0E0],"parents":[2147483647,0,0,1,1,2,2,3,3,4,4,5,5,6,6,8,8,10,10,11,11,13,13,14,14,15,15,16,16,17,17,18,18,19,19,20,20,21,21,22,22,24,24,25,25,26,26,27,27,28,28,29,29,30,30,37,37,38,38,39,39,40,40,41,41,42,42],"right_children":[2,4,6,8,10,12,14,-1,16,-1,18,20,-1,22,24,26,28,30,32,34,36,38,40,-1,42,44,46,48,50,52,54,-1,-1,-1,-1,-1,-1,56,58,60,62,64,66,-1,-1,-1,-1,-1,-1,-1,-1,-1,-1,-1,-1,-1,-1,-1,-1,-1,-1,-1,-1,-1,-1,-1,-1],"split_conditions":[9.7222835E-2,3.7985188E-1,-4.2774308E-1,-1.862627E0,3.9614773E-1,3.2510352E-1,1.09308645E-1,2.1601126E-3,8.903822E-3,-1.8488653E-3,3.2710174E-1,6.2087886E-2,-2.009064E-3,3.663987E-2,1.15144E-1,2.3212647E-1,-1.5904716E-1,-2.0132042E-1,3.0161014E-2,5.495803E-1,9.099363E-2,9.5249325E-2,3.336367E-2,-2.21003E-3,-3.578354E-1,-4.5288134E-1,1.507006E-1,1.3583864E-1,-1.6302362E-1,7.440046E-2,4.013245E-2,4.0416294E-4,-4.3215696E-6,-1.0681183E-3,6.573536E-5,1.5882366E-4,-2.325874E-4,-1.6248962E-1,1.1279844E-1,7.2279647E-3,-2.8316244E-1,2.0663032E-1,7.018883E-1,5.784866E-4,-1.12519985E-4,6.341446E-4,-2.0977849E-4,-5.5899617E-4,2.2177624E-4,-1.331133E-4,1.0562281E-3,-1.0184313E-3,-2.46726E-4,2.0424575E-5,-5.0540146E-4,6.104707E-4,-9.353469E-5,-1.5405403E-3,-1.896062E-4,1.747355E-4,-7.13663E-4,-3.221147E-4,1.5779284E-3,3.128926E-4,1.1085182E-3,-2.998623E-4,-2.6830675E-3],"split_indices":[13,31,49,18,31,23,41,0,13,0,23,58,0,41,41,59,1,5,8,0,4,56,46,0,45,48,7,17,11,12,21,0,0,0,0,0,0,19,56,18,24,18,11,0,0,0,0,0,0,0,0,0,0,0,0,0,0,0,0,0,0,0,0,0,0,0,0],"split_type":[0,0,0,0,0,0,0,0,0,0,0,0,0,0,0,0,0,0,0,0,0,0,0,0,0,0,0,0,0,0,0,0,0,0,0,0,0,0,0,0,0,0,0,0,0,0,0,0,0,0,0,0,0,0,0,0,0,0,0,0,0,0,0,0,0,0,0],"sum_hessian":[6.51E2,4.08E2,2.43E2,3.77E2,3.1E1,1.6E1,2.27E2,1E0,3.76E2,2E0,2.9E1,1.4E1,2E0,1.57E2,7E1,3E2,7.6E1,2.3E1,6E0,7E0,7E0,1.3E2,2.7E1,2E0,6.8E1,2.42E2,5.8E1,2.7E1,4.9E1,8E0,1.5E1,3E0,3E0,6E0,1E0,5E0,2E0,8.4E1,4.6E1,1.2E1,1.5E1,8E0,6E1,1.8E1,2.24E2,3.9E1,1.9E1,1.5E1,1.2E1,1.4E1,3.5E1,6E0,2E0,9E0,6E0,2.1E1,6.3E1,6E0,4E1,8E0,4E0,2E0,1.3E1,6E0,2E0,5.9E1,1E0],"tree_param":{"num_deleted":"0","num_feature":"60","num_nodes":"67","size_leaf_vector":"0"}},{"base_weights":[-2.3464043E-5,-5.1008444E-3,-7.82929E-6,8.366962E-5,-8.483532E-4,-9.580559E-5,5.522142E-4,4.5749196E-3,-1.0970865E-3,-3.1531186E-4,7.631362E-4,-1.1913867E-3,1.0558444E-3,-1.5486693E-3,5.618165E-4,6.120324E-3,-3.523501E-4,-1.0030447E-3,1.3053252E-3,-2.4670823E-3,8.4410585E-4,6.835414E-4,2.475808E-3,-1.2641817E-3,-7.602036E-3,-1.9634168E-3,1.1463067E-3,7.3185896E-5,-9.577418E-4,-6.208867E-3,-1.2828095E-4,-7.102347E-4,1.8511378E-3,-1.7443238E-3,-6.7040324E-3,4.3780804E-3,-3.6357975E-5,-1.9286697E-4,1.5637315E-3,7.3377937E-3,1.7649011E-3,-3.0842386E-4,-1.7324224E-3,4.7965307E-4,2.3597009E-3],"categories":[],"categories_nodes":[],"categories_segments":[],"categories_sizes":[],"default_left":[1,0,1,1,1,1,1,0,1,1,1,1,1,1,1,0,1,1,1,1,1,1,1,1,0,0,1,0,0,0,0,0,0,0,0,0,0,0,0,0,0,0,0,0,0],"id":72,"left_children":[1,-1,3,5,7,9,11,-1,13,15,17,19,21,23,25,-1,27,29,31,33,35,37,39,41,-1,-1,43,-1,-1,-1,-1,-1,-1,-1,-1,-1,-1,-1,-1,-1,-1,-1,-1,-1,-1],"loss_changes":[5.1718165E-5,0E0,5.0137452E-5,4.949909E-5,9.13518E-5,8.0559985E-5,1.4439308E-4,0E0,4.7316258E-5,8.320046E-5,8.462083E-5,9.8159224E-5,6.544708E-5,7.477292E-5,2.2914315E-5,0E0,8.74019E-5,9.483467E-5,7.502266E-5,5.873872E-5,4.683223E-5,7.8984995E-5,7.691642E-5,2.094687E-5,0E0,0E0,8.575125E-6,0E0,0E0,0E0,0E0,0E0,0E0,0E0,0E0,0E0,0E0,0E0,0E0,0E0,0E0,0E0,0E0,0E0,0E0],"parents":[2147483647,0,0,2,2,3,3,4,4,5,5,6,6,8,8,9,9,10,10,11,11,12,12,13,13,14,14,16,16,17,17,18,18,19,19,20,20,21,21,22,22,23,23,26,26],"right_children":[2,-1,4,6,8,10,12,-1,14,16,18,20,22,24,26,-1,28,30,32,34,36,38,40,42,-1,-1,44,-1,-1,-1,-1,-1,-1,-1,-1,-1,-1,-1,-1,-1,-1,-1,-1,-1,-1],"split_conditions":[-1.7665689E0,-1.5302534E-3,3.6363223E-1,1.5837163E-1,-5.711159E-1,2.3630011E-1,-1.8374655E-1,1.3724759E-3,2.3567627E-1,-1.7665689E0,-2.2527145E-1,4.9929354E-2,2.2986537E-1,3.0450124E-1,-2.1518539E-1,1.8360973E-3,8.136067E-2,-3.132364E-1,-1.8671304E-1,2.2918783E-2,7.6621465E-2,2.7681477E-3,-7.8047276E-2,-1.3242248E-1,-2.2806108E-3,-5.890251E-4,1.8782273E-1,2.195577E-5,-2.8732256E-4,-1.8626602E-3,-3.8484286E-5,-2.1307041E-4,5.5534136E-4,-5.232972E-4,-2.0112097E-3,1.3134242E-3,-1.0907393E-5,-5.7860092E-5,4.6911946E-4,2.2013383E-3,5.2947033E-4,-9.252716E-5,-5.197267E-4,1.4389593E-4,7.079103E-4],"split_indices":[30,0,1,34,22,53,30,0,32,18,46,23,5,41,23,0,36,10,47,23,23,50,30,10,0,0,56,0,0,0,0,0,0,0,0,0,0,0,0,0,0,0,0,0,0],"split_type":[0,0,0,0,0,0,0,0,0,0,0,0,0,0,0,0,0,0,0,0,0,0,0,0,0,0,0,0,0,0,0,0,0,0,0,0,0,0,0,0,0,0,0,0,0],"sum_hessian":[6.51E2,1E0,6.5E2,5.87E2,6.3E1,4.25E2,1.62E2,2E0,6.1E1,3.39E2,8.6E1,3.6E1,1.26E2,4.8E1,1.3E1,1E0,3.38E2,2E1,6.6E1,2.2E1,1.4E1,1.01E2,2.5E1,4.7E1,1E0,2E0,1.1E1,1.99E2,1.39E2,2E0,1.8E1,1.4E1,5.2E1,2E1,2E0,2E0,1.2E1,5.1E1,5E1,2E0,2.3E1,1.6E1,3.1E1,8E0,3E0],"tree_param":{"num_deleted":"0","num_feature":"60","num_nodes":"45","size_leaf_vector":"0"}},{"base_weights":[-1.7753044E-5,-3.6955152E-3,-7.5144317E-7,-4.61125E-3,-9.3202293E-4,-5.8132726E-5,1.0405722E-3,-2.549653E-4,3.2181508E-4,5.235109E-4,3.366273E-3,1.0678881E-3,-3.74543E-4,-4.949442E-4,1.0345351E-3,1.2491916E-3,-6.221613E-5,4.9782954E-3,9.481857E-5,5.3571654E-4,4.0473402E-3,-5.8012856E-3,-3.1502408E-4,8.949592E-4,-1.0835466E-3,1.3611047E-4,2.4403348E-3,1.8475229E-3,-7.764324E-5,-9.068357E-4,4.8092508E-4,-5.013235E-4,1.1624936E-3,6.16091E-3,5.84657E-4,1.5668012E-4,-7.839501E-3,1.1974934E-3,-4.419861E-4,-9.620768E-5,2.389727E-3,-3.7869986E-4,-2.9555717E-3,6.6738427E-3,-5.5361634E-5,5.1543576E-4,3.7531327E-3,-2.1426124E-4,7.684026E-4],"categories":[],"categories_nodes":[],"categories_segments":[],"categories_sizes":[],"default_left":[1,1,1,0,0,1,1,1,1,1,1,1,1,1,1,1,1,0,0,1,1,1,1,1,1,1,1,0,0,0,1,0,0,0,0,0,0,0,0,0,0,0,0,0,0,0,0,0,0],"id":73,"left_children":[1,3,5,-1,-1,7,9,11,13,15,17,19,21,23,25,27,29,-1,-1,31,33,35,37,39,41,43,45,-1,-1,-1,47,-1,-1,-1,-1,-1,-1,-1,-1,-1,-1,-1,-1,-1,-1,-1,-1,-1,-1],"loss_changes":[4.0765375E-5,3.294088E-6,3.8899605E-5,0E0,0E0,4.622508E-5,3.9123734E-5,6.4780754E-5,1.233395E-4,1.2404192E-5,3.116991E-5,5.1741485E-5,1.1897214E-4,8.196166E-5,1.4238743E-4,1.0463975E-5,8.234831E-6,0E0,6.5844245E-7,2.008257E-5,3.299109E-5,4.980275E-5,7.177326E-5,4.467683E-5,9.124508E-5,8.7995E-5,1.09253655E-4,5.640686E-7,4.782929E-7,3.6638357E-7,2.3629937E-6,0E0,0E0,0E0,0E0,0E0,0E0,0E0,0E0,0E0,0E0,0E0,0E0,0E0,0E0,0E0,0E0,0E0,0E0],"parents":[2147483647,0,0,1,1,2,2,5,5,6,6,7,7,8,8,9,9,10,10,11,11,12,12,13,13,14,14,15,15,16,16,19,19,20,20,21,21,22,22,23,23,24,24,25,25,26,26,30,30],"right_children":[2,4,6,-1,-1,8,10,12,14,16,18,20,22,24,26,28,30,-1,-1,32,34,36,38,40,42,44,46,-1,-1,-1,48,-1,-1,-1,-1,-1,-1,-1,-1,-1,-1,-1,-1,-1,-1,-1,-1,-1,-1],"split_conditions":[-1.6618662E0,-2.3230277E-2,5.1018757E-1,-1.383375E-3,-2.796069E-4,9.7527616E-2,3.4907588E-1,-4.462618E-1,-2.3850773E-2,-1.0549868E-1,5.2285075E-2,-4.767943E-1,-4.303087E-1,-1.5245503E-1,8.3005995E-2,1.7346613E-1,-5.091317E-2,1.4934887E-3,2.8445573E-5,-1.05740875E-1,2.129154E-2,-2.1987388E-1,-4.303087E-1,6.873145E-2,1.4744976E-1,-1.4898958E-2,-9.222901E-2,5.542569E-4,-2.3292974E-5,-2.7205073E-4,-5.6211658E-2,-1.5039706E-4,3.487481E-4,1.848273E-3,1.7539712E-4,4.700404E-5,-2.3518503E-3,3.5924802E-4,-1.3259584E-4,-2.8862305E-5,7.169181E-4,-1.1360996E-4,-8.8667154E-4,2.0021528E-3,-1.660849E-5,1.5463073E-4,1.1259399E-3,-6.427837E-5,2.3052079E-4],"split_indices":[31,0,41,0,0,39,42,24,12,31,0,24,24,50,29,4,55,0,0,56,1,0,44,2,26,12,31,0,0,0,52,0,0,0,0,0,0,0,0,0,0,0,0,0,0,0,0,0,0],"split_type":[0,0,0,0,0,0,0,0,0,0,0,0,0,0,0,0,0,0,0,0,0,0,0,0,0,0,0,0,0,0,0,0,0,0,0,0,0,0,0,0,0,0,0,0,0,0,0,0,0],"sum_hessian":[6.51E2,2E0,6.49E2,1E0,1E0,6.16E2,3.3E1,4.06E2,2.1E2,2.8E1,5E0,3.3E1,3.73E2,9.8E1,1.12E2,1.2E1,1.6E1,3E0,2E0,2.9E1,4E0,3E0,3.7E2,2.9E1,6.9E1,6.9E1,4.3E1,8E0,4E0,6E0,1E1,1.1E1,1.8E1,2E0,2E0,1E0,2E0,2.8E1,3.42E2,1.8E1,1.1E1,5.1E1,1.8E1,1E0,6.8E1,1.8E1,2.5E1,3E0,7E0],"tree_param":{"num_deleted":"0","num_feature":"60","num_nodes":"49","size_leaf_vector":"0"}},{"base_weights":[-7.2415664E-6,3.287638E-4,-1.7911644E-4,-7.910952E-4,6.2764727E-4,2.827472E-4,-4.308522E-4,-1.1009111E-3,1.1365542E-3,1.57523E-3,1.8021159E-4,-3.7669382E-4,1.4986983E-3,-8.0482924E-4,2.7188903E-4,-3.3808588E-3,-7.6305564E-4,2.2513755E-3,-2.6240572E-4,5.7959877E-4,2.9785444E-3,-4.2895973E-3,2.923236E-4,6.672957E-4,-1.2429998E-3,4.582814E-3,7.800347E-4,-9.6873747E-4,1.8461667E-3,-5.7845784E-4,1.2862633E-3,-5.258974E-4,-2.5881366E-3,2.9685596E-4,-9.700954E-4,1.6275011E-3,-7.010102E-4,2.8031008E-4,3.7124814E-3,1.0655656E-3,-4.9897894E-4,-3.5693245E-3,1.0458814E-3,-1.957092E-3,1.4789213E-3,4.4360757E-5,6.521528E-3,4.0018954E-3,5.371134E-4,-1.2804233E-3,6.23096E-4,3.4418507E-3,-5.7211768E-5,-1.1976159E-3,2.6504009E-3,4.4806646E-3,9.5140934E-4,1.4877254E-3,-7.687553E-4,-7.6672995E-6,3.0999195E-3,-2.400814E-5,-1.8253457E-3,6.352179E-4,4.285586E-3,3.6821037E-4,2.0271346E-3,-2.8300856E-3,9.419315E-5,-4.4081584E-3,-5.2641146E-4,1.5759579E-3,-4.5481254E-4,4.3789102E-4,-2.6743778E-3,-3.6125164E-4,4.127414E-3,6.255309E-4,-8.495748E-4,-6.87854E-4,8.816004E-4,-1.7980817E-3,-1.0673217E-5,-5.821819E-4,1.9560496E-3,-1.2421521E-3,8.457964E-4,-1.6204423E-3,2.5936484E-3,3.2387911E-3,-1.0283608E-3,-1.3541145E-3,1.2297307E-3],"categories":[],"categories_nodes":[],"categories_segments":[],"categories_sizes":[],"default_left":[1,1,1,1,1,1,1,1,1,1,1,1,1,1,1,0,1,0,1,1,1,0,1,1,1,1,1,1,1,1,1,1,0,0,0,1,1,0,1,1,1,1,1,1,1,1,0,0,1,1,1,0,1,1,1,0,1,0,0,0,0,0,0,0,0,0,0,0,0,0,0,0,0,0,0,0,0,0,0,0,0,0,0,0,0,0,0,0,0,0,0,0,0],"id":74,"left_children":[1,3,5,7,9,11,13,15,17,19,21,23,25,27,29,-1,31,-1,33,35,37,-1,39,41,43,45,47,49,51,53,55,57,-1,-1,-1,59,61,-1,63,65,67,69,71,73,75,77,-1,-1,79,81,83,-1,85,87,89,-1,91,-1,-1,-1,-1,-1,-1,-1,-1,-1,-1,-1,-1,-1,-1,-1,-1,-1,-1,-1,-1,-1,-1,-1,-1,-1,-1,-1,-1,-1,-1,-1,-1,-1,-1,-1,-1],"loss_changes":[3.771246E-5,7.446685E-5,5.0349423E-5,2.9320412E-5,7.391304E-5,1.232473E-4,7.380535E-5,2.9002218E-5,1.1507906E-5,7.6515935E-5,6.1388244E-5,9.127088E-5,1.16113086E-4,8.1305625E-5,8.527591E-5,0E0,1.4653726E-5,6.517075E-7,1.8711135E-6,4.6767305E-5,4.4507018E-5,0E0,7.273216E-5,7.7513585E-5,1.0979802E-4,8.769831E-5,3.3070173E-5,8.6632106E-5,3.3606015E-5,1.1112956E-4,4.3871667E-5,1.7770519E-5,0E0,1.8335555E-8,0E0,4.5769157E-5,1.2135017E-5,7.698168E-8,2.9022427E-5,3.94869E-5,8.184868E-5,7.889488E-6,3.492251E-5,7.675814E-5,5.9975246E-5,2.6095497E-6,0E0,0E0,1.8751784E-5,9.528885E-5,4.7729583E-5,0E0,7.4706727E-6,7.794298E-5,2.2811575E-5,0E0,2.8615606E-5,0E0,0E0,0E0,0E0,0E0,0E0,0E0,0E0,0E0,0E0,0E0,0E0,0E0,0E0,0E0,0E0,0E0,0E0,0E0,0E0,0E0,0E0,0E0,0E0,0E0,0E0,0E0,0E0,0E0,0E0,0E0,0E0,0E0,0E0,0E0,0E0],"parents":[2147483647,0,0,1,1,2,2,3,3,4,4,5,5,6,6,7,7,8,8,9,9,10,10,11,11,12,12,13,13,14,14,16,16,18,18,19,19,20,20,22,22,23,23,24,24,25,25,26,26,27,27,28,28,29,29,30,30,31,31,35,35,36,36,38,38,39,39,40,40,41,41,42,42,43,43,44,44,45,45,48,48,49,49,50,50,52,52,53,53,54,54,56,56],"right_children":[2,4,6,8,10,12,14,16,18,20,22,24,26,28,30,-1,32,-1,34,36,38,-1,40,42,44,46,48,50,52,54,56,58,-1,-1,-1,60,62,-1,64,66,68,70,72,74,76,78,-1,-1,80,82,84,-1,86,88,90,-1,92,-1,-1,-1,-1,-1,-1,-1,-1,-1,-1,-1,-1,-1,-1,-1,-1,-1,-1,-1,-1,-1,-1,-1,-1,-1,-1,-1,-1,-1,-1,-1,-1,-1,-1,-1,-1],"split_conditions":[-9.661344E-2,-2.0554948E-1,-9.923819E-2,3.1049883E-1,-9.916265E-2,1.2141447E-1,1.3344961E-1,-4.4826508E-1,2.2107896E-1,5.520929E-2,-9.252682E-1,-7.3043466E-2,-3.1279013E-1,4.5106557E-1,9.981932E-3,-1.0142577E-3,5.925012E-1,6.7541265E-4,8.447148E-3,5.094008E-2,-1.029359E-1,-1.2868792E-3,1.9006873E-2,-4.067584E-1,1.2989758E-1,7.688999E-3,-5.425286E-1,2.3562792E-1,3.1220634E-2,3.1614047E-1,3.263646E-2,-4.9325866E-1,-7.76441E-4,8.905679E-5,-2.9102864E-4,5.2059498E-2,-1.8917489E-1,8.409303E-5,-3.6849204E-1,1.4884403E-1,-2.8181037E-1,-1.914952E-2,2.5144282E-1,-1.3811155E-1,1.6853862E-1,-3.8913753E-2,1.9564584E-3,1.2005686E-3,-3.1501573E-1,1.2818423E-1,1.0232597E-3,1.0325552E-3,7.4856415E-2,7.018883E-1,1.7977215E-2,1.3441994E-3,5.5429753E-2,4.4631763E-4,-2.306266E-4,-2.3001899E-6,9.299759E-4,-7.2024427E-6,-5.476037E-4,1.9056538E-4,1.2856759E-3,1.10463116E-4,6.081404E-4,-8.4902573E-4,2.8257946E-5,-1.3224476E-3,-1.5792344E-4,4.727874E-4,-1.3644376E-4,1.3136731E-4,-8.023134E-4,-1.083755E-4,1.2382242E-3,1.8765927E-4,-2.5487246E-4,-2.0635621E-4,2.6448013E-4,-5.3942454E-4,-3.2019652E-6,-1.7465457E-4,5.868149E-4,-3.7264565E-4,2.5373895E-4,-4.861327E-4,7.780946E-4,9.716374E-4,-3.0850826E-4,-4.0623438E-4,3.6891922E-4],"split_indices":[2,34,14,38,54,37,24,12,4,59,40,29,19,53,42,0,21,0,0,43,27,0,51,8,30,26,30,23,51,13,42,38,0,0,0,31,2,0,41,58,41,0,36,42,20,0,0,0,26,45,46,0,5,24,0,0,42,0,0,0,0,0,0,0,0,0,0,0,0,0,0,0,0,0,0,0,0,0,0,0,0,0,0,0,0,0,0,0,0,0,0,0,0],"split_type":[0,0,0,0,0,0,0,0,0,0,0,0,0,0,0,0,0,0,0,0,0,0,0,0,0,0,0,0,0,0,0,0,0,0,0,0,0,0,0,0,0,0,0,0,0,0,0,0,0,0,0,0,0,0,0,0,0,0,0,0,0,0,0,0,0,0,0,0,0,0,0,0,0,0,0,0,0,0,0,0,0,0,0,0,0,0,0,0,0,0,0,0,0],"sum_hessian":[6.51E2,2.2E2,4.31E2,4.6E1,1.74E2,1.52E2,2.79E2,4E1,6E0,5.5E1,1.19E2,9.9E1,5.3E1,1.82E2,9.7E1,4E0,3.6E1,3E0,3E0,3.3E1,2.2E1,2E0,1.17E2,4.5E1,5.4E1,9E0,4.4E1,1.72E2,1E1,5.3E1,4.4E1,3.3E1,3E0,2E0,1E0,1.8E1,1.5E1,5E0,1.7E1,5.9E1,5.8E1,3E0,4.2E1,4.3E1,1.1E1,3E0,6E0,2E0,4.2E1,1.44E2,2.8E1,5E0,5E0,4.5E1,8E0,3E0,4.1E1,3E0,3E1,9E0,9E0,1E1,5E0,3E0,1.4E1,3.5E1,2.4E1,1.1E1,4.7E1,2E0,1E0,3.1E1,1.1E1,1E1,3.3E1,7E0,4E0,2E0,1E0,9E0,3.3E1,1.02E2,4.2E1,1.5E1,1.3E1,2E0,3E0,4.1E1,4E0,7E0,1E0,4E0,3.7E1],"tree_param":{"num_deleted":"0","num_feature":"60","num_nodes":"93","size_leaf_vector":"0"}},{"base_weights":[2.5237532E-6,-2.4871476E-4,2.1082647E-4,-6.115027E-5,-2.1941478E-3,7.1723555E-4,-1.3490189E-4,-4.1861556E-4,6.38903E-4,1.0159375E-3,-3.2079704E-3,-1.1935309E-3,9.63482E-4,9.211499E-4,-4.3945358E-4,3.1802908E-4,-9.2415843E-4,3.6133886E-6,1.6270309E-3,1.4646832E-3,-7.061785E-5,6.613197E-5,-4.3037464E-3,-3.8189068E-3,2.18618E-4,1.6658637E-3,3.089063E-4,-9.6584053E-4,1.4431431E-3,-3.914391E-3,-3.072233E-4,1.2607661E-3,-6.5878266E-4,-1.2663649E-3,9.6201536E-4,2.933604E-4,-2.1079169E-3,2.3486863E-3,-2.2661212E-4,1.4012493E-3,-9.51739E-4,-1.1876574E-3,-5.7430253E-3,-5.274806E-3,-6.047388E-4,-2.1476375E-3,9.0663286E-4,2.2629453E-3,1.9547142E-4,-4.9008604E-4,1.0762444E-3,4.8162937E-4,-1.8617704E-3,-4.10825E-4,2.032679E-3,-4.676074E-3,-5.298853E-5,7.9652446E-4,-7.9722475E-4,2.059549E-3,-4.3378197E-4,-1.5491027E-3,4.797764E-4,-1.9473624E-3,1.8324186E-4,-6.3779176E-4,1.681751E-3,-8.25674E-4,7.3909434E-4,-1.4082086E-4,-3.5480335E-3,3.117863E-3,2.2830593E-4,-6.1037485E-4,5.9756637E-4,-3.4858784E-4,-1.5200451E-3,9.872081E-5,1.6948007E-3,4.3129325E-3,1.4489213E-3,-9.685362E-4,1.5964283E-3,-1.5470309E-3,1.5674887E-4,3.7007174E-3,7.145527E-4,-7.546516E-4,-2.5034465E-3,3.0819848E-4,-9.415404E-4,6.854668E-4,3.0844472E-3,4.6085898E-4,4.5414623E-3,-1.0932257E-3,9.212054E-4],"categories":[],"categories_nodes":[],"categories_segments":[],"categories_sizes":[],"default_left":[1,1,1,1,1,1,1,1,1,1,1,1,1,1,1,1,1,1,1,0,0,1,1,1,1,1,1,1,1,1,1,1,1,1,1,1,1,1,1,0,0,1,0,0,0,0,1,1,1,1,1,0,1,1,1,0,0,1,1,0,0,0,0,0,0,0,0,0,0,0,0,0,0,0,0,0,0,0,0,0,0,0,0,0,0,0,0,0,0,0,0,0,0,0,0,0,0],"id":75,"left_children":[1,3,5,7,9,11,13,15,17,19,21,23,25,27,29,31,33,35,37,-1,-1,39,41,43,45,47,49,51,53,55,57,59,61,63,65,67,69,71,73,-1,-1,75,-1,-1,-1,-1,77,79,81,83,85,-1,87,89,91,-1,-1,93,95,-1,-1,-1,-1,-1,-1,-1,-1,-1,-1,-1,-1,-1,-1,-1,-1,-1,-1,-1,-1,-1,-1,-1,-1,-1,-1,-1,-1,-1,-1,-1,-1,-1,-1,-1,-1,-1,-1],"loss_changes":[3.4173983E-5,1.078745E-4,6.26003E-5,6.808378E-5,8.7874985E-5,6.937527E-5,6.891037E-5,6.732689E-5,5.774688E-5,3.5165417E-6,7.2038296E-5,6.386105E-5,5.87947E-5,4.867367E-5,7.507308E-5,6.897544E-5,7.028259E-5,3.549152E-5,4.8689144E-5,1.11423105E-7,2.9414014E-8,9.487487E-6,6.045308E-5,2.4887151E-5,2.1483345E-5,5.3990196E-5,4.2218067E-5,1.5161831E-5,4.2368345E-5,1.7399201E-5,8.770992E-5,5.2329295E-5,3.8249455E-5,9.019008E-5,2.0647054E-5,2.6048623E-5,1.9330299E-5,4.169281E-5,3.8439184E-6,4.5989054E-8,2.2608492E-7,1.1435095E-6,0E0,0E0,3.4326683E-7,0E0,6.200391E-6,6.7175395E-5,3.2529962E-5,2.3487233E-5,3.0579395E-5,5.4164616E-7,3.0836527E-6,4.1061494E-6,3.8977407E-5,0E0,0E0,6.0759347E-5,5.7976657E-5,0E0,0E0,0E0,0E0,0E0,0E0,0E0,0E0,0E0,0E0,0E0,0E0,0E0,0E0,0E0,0E0,0E0,0E0,0E0,0E0,0E0,0E0,0E0,0E0,0E0,0E0,0E0,0E0,0E0,0E0,0E0,0E0,0E0,0E0,0E0,0E0,0E0,0E0],"parents":[2147483647,0,0,1,1,2,2,3,3,4,4,5,5,6,6,7,7,8,8,9,9,10,10,11,11,12,12,13,13,14,14,15,15,16,16,17,17,18,18,21,21,22,22,23,23,24,24,25,25,26,26,27,27,28,28,29,29,30,30,31,31,32,32,33,33,34,34,35,35,36,36,37,37,38,38,41,41,46,46,47,47,48,48,49,49,50,50,52,52,53,53,54,54,57,57,58,58],"right_children":[2,4,6,8,10,12,14,16,18,20,22,24,26,28,30,32,34,36,38,-1,-1,40,42,44,46,48,50,52,54,56,58,60,62,64,66,68,70,72,74,-1,-1,76,-1,-1,-1,-1,78,80,82,84,86,-1,88,90,92,-1,-1,94,96,-1,-1,-1,-1,-1,-1,-1,-1,-1,-1,-1,-1,-1,-1,-1,-1,-1,-1,-1,-1,-1,-1,-1,-1,-1,-1,-1,-1,-1,-1,-1,-1,-1,-1,-1,-1,-1,-1],"split_conditions":[-3.9140582E-2,-6.680015E-2,-6.280987E-2,1.1640493E-1,-1.774075E-1,-3.3927068E-1,-2.3649135E-1,-7.689257E-2,1.1358259E-1,3.4652404E-2,-1.7785078E-1,1.257323E-1,1.1307702E-2,-1.617063E-1,-6.612557E-1,1.022003E-1,3.3196694E-1,5.7963276E-1,1.3588671E-1,4.3940498E-4,-2.1185355E-5,1.8681303E-2,-1.2929866E-1,3.0917782E-1,-2.4590999E-1,1.5218052E-1,2.105672E-2,-7.7968836E-2,-3.35021E-1,2.542879E-1,-1.4351541E-1,1.6682544E-1,1.4422904E-1,1.3745481E-1,-1.7065242E-1,-1.8449643E-1,5.7943724E-2,1.8237227E-1,2.5006622E-2,4.2037482E-4,-2.8552173E-4,-3.6807823E-1,-1.7229076E-3,-1.582442E-3,-1.8142164E-4,-6.442913E-4,1.6877408E-1,-1.11926496E-1,3.4659933E-3,-3.6981508E-2,-3.235068E-1,1.4448882E-4,-5.4355204E-2,3.660608E-2,-1.1313268E-2,-1.4028222E-3,-1.589656E-5,-1.5278015E-1,2.426686E-1,6.178648E-4,-1.3013459E-4,-4.6473084E-4,1.4393294E-4,-5.8420876E-4,5.4972563E-5,-1.9133753E-4,5.045253E-4,-2.477022E-4,2.217283E-4,-4.224626E-5,-1.0644101E-3,9.35359E-4,6.849178E-5,-1.8311247E-4,1.7926992E-4,-1.0457636E-4,-4.5601354E-4,2.9616245E-5,5.0844025E-4,1.2938798E-3,4.346764E-4,-2.9056086E-4,4.7892853E-4,-4.6410927E-4,4.7024663E-5,1.1102152E-3,2.1436582E-4,-2.263955E-4,-7.51034E-4,9.2459544E-5,-2.8246213E-4,2.0564006E-4,9.253342E-4,1.382577E-4,1.3624388E-3,-3.2796772E-4,2.7636162E-4],"split_indices":[20,20,47,2,8,41,35,55,57,1,19,50,17,55,57,18,18,2,54,0,0,0,44,6,45,49,28,5,30,1,33,13,6,47,21,33,19,22,4,0,0,1,0,0,0,0,39,43,30,4,16,0,10,29,39,0,0,33,24,0,0,0,0,0,0,0,0,0,0,0,0,0,0,0,0,0,0,0,0,0,0,0,0,0,0,0,0,0,0,0,0,0,0,0,0,0,0],"split_type":[0,0,0,0,0,0,0,0,0,0,0,0,0,0,0,0,0,0,0,0,0,0,0,0,0,0,0,0,0,0,0,0,0,0,0,0,0,0,0,0,0,0,0,0,0,0,0,0,0,0,0,0,0,0,0,0,0,0,0,0,0,0,0,0,0,0,0,0,0,0,0,0,0,0,0,0,0,0,0,0,0,0,0,0,0,0,0,0,0,0,0,0,0,0,0,0,0],"sum_hessian":[6.51E2,2.95E2,3.56E2,2.7E2,2.5E1,1.44E2,2.12E2,1.79E2,9.1E1,6E0,1.9E1,1.6E1,1.28E2,4.7E1,1.65E2,7.3E1,1.06E2,5.6E1,3.5E1,4E0,2E0,5E0,1.4E1,5E0,1.1E1,6.1E1,6.7E1,1E1,3.7E1,5E0,1.6E2,3.7E1,3.6E1,9E1,1.6E1,5E1,6E0,2.5E1,1E1,2E0,3E0,5E0,9E0,3E0,2E0,2E0,9E0,4.3E1,1.8E1,3.3E1,3.4E1,4E0,6E0,9E0,2.8E1,4E0,1E0,4.9E1,1.11E2,2.5E1,1.2E1,2E1,1.6E1,6.1E1,2.9E1,5E0,1.1E1,1.4E1,3.6E1,3E0,3E0,1.8E1,7E0,7E0,3E0,2E0,3E0,5E0,4E0,1.1E1,3.2E1,1E1,8E0,1.2E1,2.1E1,3E0,3.1E1,3E0,3E0,4E0,5E0,1.3E1,1.5E1,4.6E1,3E0,9.5E1,1.6E1],"tree_param":{"num_deleted":"0","num_feature":"60","num_nodes":"97","size_leaf_vector":"0"}},{"base_weights":[5.105873E-7,-2.2732685E-5,1.6636392E-3,1.1539463E-5,-1.5658037E-3,6.300029E-4,3.5209109E-3,-8.95463E-5,4.472156E-4,-5.6304983E-3,-4.1914638E-4,-2.6082853E-5,1.1285879E-3,5.567071E-4,-2.0670601E-4,1.7014741E-3,1.9189174E-4,-1.6688115E-3,4.1428767E-4,9.328062E-4,-5.994256E-4,3.3163056E-3,-2.38848E-4,7.7636365E-4,2.992094E-3,7.7220483E-4,-4.278669E-4,1.4578509E-3,-4.8100422E-4,6.938784E-4,-1.5194514E-3,-3.8176434E-4,3.66689E-4,2.458662E-4,1.9085165E-3,1.7527484E-3,1.5453587E-4,1.9200966E-3,-6.227362E-4],"categories":[],"categories_nodes":[],"categories_segments":[],"categories_sizes":[],"default_left":[1,1,1,1,1,1,0,1,1,0,1,0,0,1,1,1,1,0,0,1,1,0,1,1,0,1,1,0,0,0,0,0,0,0,0,0,0,0,0],"id":76,"left_children":[1,3,5,7,9,11,-1,13,15,-1,17,-1,-1,19,21,23,25,-1,-1,27,29,-1,31,33,-1,35,37,-1,-1,-1,-1,-1,-1,-1,-1,-1,-1,-1,-1],"loss_changes":[2.5241892E-5,3.4075594E-5,1.5059508E-5,2.7829701E-5,6.2891355E-5,2.3192383E-6,0E0,3.8956798E-5,3.778231E-5,0E0,1.3189529E-5,1.8075073E-7,0E0,3.490996E-5,5.0050014E-5,2.1556367E-5,3.6295805E-5,4.3477849E-7,8.3299255E-7,4.524006E-5,2.4851775E-5,0E0,3.7525762E-5,7.3386163E-6,4.343965E-7,3.1223008E-5,2.3615466E-5,0E0,0E0,0E0,0E0,0E0,0E0,0E0,0E0,0E0,0E0,0E0,0E0],"parents":[2147483647,0,0,1,1,2,2,3,3,4,4,5,5,7,7,8,8,10,10,13,13,14,14,15,15,16,16,19,19,20,20,22,22,23,23,25,25,26,26],"right_children":[2,4,6,8,10,12,-1,14,16,-1,18,-1,-1,20,22,24,26,-1,-1,28,30,-1,32,34,-1,36,38,-1,-1,-1,-1,-1,-1,-1,-1,-1,-1,-1,-1],"split_conditions":[8.3708084E-1,6.3879466E-1,3.2659397E-2,2.316933E-1,-3.241085E-1,-1.1158224E-1,1.0562734E-3,-2.850328E-1,2.6572067E-1,-1.6891495E-3,-3.6883123E-2,-7.824856E-6,3.3857638E-4,2.2650823E-1,-9.677973E-1,5.967138E-2,4.3254264E-2,-5.006435E-4,1.242863E-4,2.1351925E-1,-1.4388868E-1,9.948917E-4,2.7467006E-1,4.2199828E-2,8.9762826E-4,-6.7830384E-2,-3.3149135E-1,4.3735528E-4,-1.4430127E-4,2.0816353E-4,-4.5583543E-4,-1.14529306E-4,1.100067E-4,7.375986E-5,5.72555E-4,5.2582455E-4,4.636076E-5,5.76029E-4,-1.8682086E-4],"split_indices":[11,11,16,7,27,17,0,32,7,0,24,0,0,50,53,36,4,0,0,47,33,0,32,12,0,55,26,0,0,0,0,0,0,0,0,0,0,0,0],"split_type":[0,0,0,0,0,0,0,0,0,0,0,0,0,0,0,0,0,0,0,0,0,0,0,0,0,0,0,0,0,0,0,0,0,0,0,0,0,0,0],"sum_hessian":[6.51E2,6.43E2,8E0,6.3E2,1.3E1,6E0,2E0,5.12E2,1.18E2,2E0,1.1E1,3E0,3E0,7.8E1,4.34E2,1.9E1,9.9E1,4E0,7E0,5.9E1,1.9E1,3E0,4.31E2,1.2E1,7E0,5.1E1,4.8E1,4.3E1,1.6E1,8E0,1.1E1,3.49E2,8.2E1,9E0,3E0,1.9E1,3.2E1,3E0,4.5E1],"tree_param":{"num_deleted":"0","num_feature":"60","num_nodes":"39","size_leaf_vector":"0"}},{"base_weights":[4.74725E-6,3.2713084E-4,-8.974288E-5,-5.610975E-4,6.612996E-4,-2.1369249E-4,3.7330043E-4,-3.4340099E-3,-2.4391995E-4,-3.639251E-3,7.355034E-4,2.5830584E-4,-4.841573E-4,1.1527173E-3,-1.893513E-4,1.0176364E-3,-5.6161446E-4,1.2995137E-3,4.137868E-5,-4.797028E-4,7.096265E-4,-5.8521825E-4,1.0557008E-3,-2.1874656E-4,1.6028599E-3,-1.7868947E-3,1.4578698E-4,3.8048252E-4,-1.098792E-3,-5.440563E-4,1.5993689E-3,-5.3482817E-4,6.638787E-4,7.6187495E-4,-1.5055517E-3,1.0809243E-3,-5.7950546E-4,-8.1249676E-4,3.3608775E-4,-3.6805077E-4,2.2039576E-3,5.7862204E-4,-8.709558E-4,-2.1410653E-4,1.9998564E-3,-4.4213086E-3,-2.4632597E-4,5.438354E-4,-1.0019075E-3,9.792054E-4,-3.8144118E-4,-3.6784195E-4,-1.7929578E-3,-9.806454E-5,-2.0559952E-3,5.209251E-4,2.1718254E-3,-9.767144E-4,5.8150524E-4,-5.7871206E-5,1.6801156E-3,-4.2717124E-4,1.531727E-3,-3.3723137E-3,-3.1021712E-4,1.3486856E-3,-5.0219963E-4,-2.8807025E-3,3.196625E-4,-1.0601896E-3,2.5378898E-4,1.3237073E-3,-7.0668623E-4,4.423745E-4,-1.2890697E-3,9.130123E-4,2.6972617E-3,-7.522479E-5,-1.4489479E-3,1.3509691E-3,3.2196222E-3,-5.029688E-3,-1.2980849E-3,4.8691407E-4,-7.836528E-4,2.9486598E-4,2.7108435E-3,5.2770163E-4,-1.9103239E-3],"categories":[],"categories_nodes":[],"categories_segments":[],"categories_sizes":[],"default_left":[1,1,1,1,1,1,1,0,1,0,1,1,1,1,1,0,1,1,1,1,1,1,1,1,1,1,1,1,1,1,1,1,1,1,1,1,1,1,1,1,1,0,1,0,1,1,1,1,1,0,0,0,0,0,0,0,0,0,0,0,0,0,0,0,0,0,0,0,0,0,0,0,0,0,0,0,0,0,0,0,0,0,0,0,0,0,0,0,0],"id":77,"left_children":[1,3,5,7,9,11,13,-1,15,-1,17,19,21,23,25,-1,27,29,31,33,35,37,39,41,43,45,47,49,51,53,55,57,59,61,63,65,67,69,71,73,75,-1,77,-1,79,81,83,85,87,-1,-1,-1,-1,-1,-1,-1,-1,-1,-1,-1,-1,-1,-1,-1,-1,-1,-1,-1,-1,-1,-1,-1,-1,-1,-1,-1,-1,-1,-1,-1,-1,-1,-1,-1,-1,-1,-1,-1,-1],"loss_changes":[1.9890625E-5,4.4300148E-5,2.9063758E-5,3.652253E-5,3.7141315E-5,5.1060975E-5,4.714207E-5,1.4491161E-7,1.5801523E-5,0E0,4.1836032E-5,4.8969876E-5,4.0145183E-5,2.813157E-5,3.399058E-5,4.6139394E-7,1.6106345E-5,3.348558E-5,1.793081E-5,7.2472634E-5,4.418372E-5,5.0318005E-5,2.6968492E-5,6.7445685E-6,2.4953384E-5,4.3554366E-5,2.4757286E-5,5.847682E-6,9.488485E-6,5.8671903E-6,3.0354116E-5,1.3393566E-5,1.7700484E-5,2.4454444E-5,6.812741E-5,3.0774165E-5,4.4373268E-5,5.097843E-5,5.0368915E-5,6.541587E-6,3.2688222E-6,4.7258527E-7,3.1104873E-6,5.8148635E-7,1.7812126E-5,1.0714648E-6,3.5334879E-6,2.0781412E-5,2.046139E-5,0E0,0E0,0E0,0E0,0E0,0E0,0E0,0E0,0E0,0E0,0E0,0E0,0E0,0E0,0E0,0E0,0E0,0E0,0E0,0E0,0E0,0E0,0E0,0E0,0E0,0E0,0E0,0E0,0E0,0E0,0E0,0E0,0E0,0E0,0E0,0E0,0E0,0E0,0E0,0E0],"parents":[2147483647,0,0,1,1,2,2,3,3,4,4,5,5,6,6,8,8,10,10,11,11,12,12,13,13,14,14,16,16,17,17,18,18,19,19,20,20,21,21,22,22,23,23,24,24,25,25,26,26,27,27,28,28,29,29,30,30,31,31,32,32,33,33,34,34,35,35,36,36,37,37,38,38,39,39,40,40,42,42,44,44,45,45,46,46,47,47,48,48],"right_children":[2,4,6,8,10,12,14,-1,16,-1,18,20,22,24,26,-1,28,30,32,34,36,38,40,42,44,46,48,50,52,54,56,58,60,62,64,66,68,70,72,74,76,-1,78,-1,80,82,84,86,88,-1,-1,-1,-1,-1,-1,-1,-1,-1,-1,-1,-1,-1,-1,-1,-1,-1,-1,-1,-1,-1,-1,-1,-1,-1,-1,-1,-1,-1,-1,-1,-1,-1,-1,-1,-1,-1,-1,-1,-1],"split_conditions":[-2.1758062E-1,-1.5456367E-1,2.1985719E-1,-5.273538E-1,-1.4286723E0,-1.2190229E-1,-6.655426E-2,-1.030203E-3,-2.4926493E-1,-1.0917754E-3,6.831753E-2,-7.758014E-2,5.058234E-1,-2.9684702E-1,-2.1662891E-1,3.0529092E-4,-1.4413592E-1,-3.5422075E-1,-3.453468E-2,-2.70467E-2,2.1460764E-1,2.3631975E-1,-3.8957745E-2,-3.339514E-1,-2.5953317E-1,-1.4827745E-1,1.3942029E-1,7.9821214E-2,-1.8248439E-1,2.8605124E-1,-1.2558821E-1,2.3726782E-1,-2.3283884E-2,7.239669E-2,-5.5073567E-2,4.3987358E-1,-3.8293626E-2,2.2132188E-1,3.053744E-2,5.942998E-2,-2.2994903E-1,1.7358662E-4,-1.09932326E-1,-6.4231965E-5,7.51354E-2,1.4014926E-2,-1.7509103E-1,4.2757052E-1,-1.3754803E-1,2.937616E-4,-1.14432354E-4,-1.1035259E-4,-5.3788733E-4,-2.9419363E-5,-6.167986E-4,1.5627753E-4,6.515476E-4,-2.9301434E-4,1.7445158E-4,-1.7361363E-5,5.040347E-4,-1.2815138E-4,4.5951814E-4,-1.0116942E-3,-9.306514E-5,4.046057E-4,-1.506599E-4,-8.642108E-4,9.589876E-5,-3.1805687E-4,7.61367E-5,3.971122E-4,-2.1200588E-4,1.3271236E-4,-3.867209E-4,2.7390372E-4,8.091786E-4,-2.2567438E-5,-4.346844E-4,4.0529075E-4,9.658867E-4,-1.5089065E-3,-3.8942546E-4,1.4607422E-4,-2.3509585E-4,8.84598E-5,8.1325305E-4,1.5831049E-4,-5.730972E-4],"split_indices":[57,55,34,9,58,30,59,0,16,0,56,51,13,36,53,0,47,52,19,2,28,26,20,59,13,12,52,41,3,8,25,42,36,57,43,58,13,54,35,0,24,0,2,0,1,0,4,4,55,0,0,0,0,0,0,0,0,0,0,0,0,0,0,0,0,0,0,0,0,0,0,0,0,0,0,0,0,0,0,0,0,0,0,0,0,0,0,0,0],"split_type":[0,0,0,0,0,0,0,0,0,0,0,0,0,0,0,0,0,0,0,0,0,0,0,0,0,0,0,0,0,0,0,0,0,0,0,0,0,0,0,0,0,0,0,0,0,0,0,0,0,0,0,0,0,0,0,0,0,0,0,0,0,0,0,0,0,0,0,0,0,0,0,0,0,0,0,0,0,0,0,0,0,0,0,0,0,0,0,0,0],"sum_hessian":[6.51E2,1.47E2,5.04E2,4E1,1.07E2,3.98E2,1.06E2,3E0,3.7E1,1E0,1.06E2,1.45E2,2.53E2,4.4E1,6.2E1,7E0,3E1,5.8E1,4.8E1,5.5E1,9E1,2.38E2,1.5E1,1.1E1,3.3E1,1E1,5.2E1,1.1E1,1.9E1,8E0,5E1,2.5E1,2.3E1,2.5E1,3E1,7E1,2E1,1.91E2,4.7E1,7E0,8E0,5E0,6E0,6E0,2.7E1,3E0,7E0,3.9E1,1.3E1,6E0,5E0,1E1,9E0,7E0,1E0,1.8E1,3.2E1,1.8E1,7E0,1.4E1,9E0,1E1,1.5E1,1.1E1,1.9E1,6E1,1E1,5E0,1.5E1,1.55E2,3.6E1,2.4E1,2.3E1,4E0,3E0,3E0,5E0,3E0,3E0,1.9E1,8E0,2E0,1E0,3E0,4E0,3.6E1,3E0,5E0,8E0],"tree_param":{"num_deleted":"0","num_feature":"60","num_nodes":"89","size_leaf_vector":"0"}},{"base_weights":[-8.9297276E-7,-5.8895836E-5,4.671703E-4,-4.4406777E-5,-4.231274E-3,1.2242612E-3,-2.0483643E-4,-3.4011525E-4,1.16935356E-4,1.8724398E-3,3.3169912E-5,-1.3200401E-3,1.2554E-4,-7.8212627E-4,5.6354325E-5,3.4032878E-4,-4.1267351E-4,2.3831706E-3,-3.4068004E-4,3.6891006E-4,-3.0730877E-4,-4.5696273E-4,-2.284646E-3,8.797418E-4,-1.750407E-4,-5.982314E-4,-3.0610275E-3,3.7960926E-4,-5.3358043E-4,-1.4580286E-4,6.916691E-4,-9.6400594E-4,1.7623477E-4,3.3617883E-3,1.0310211E-3,1.0708682E-3,1.4053285E-4,1.05209234E-4,-9.866171E-4,-3.965896E-4,-2.1918707E-3,-3.9952498E-5,-4.2614667E-3,-1.3581526E-3,5.036272E-4,-2.1619323E-6,-1.7290919E-3,1.8804531E-3,-4.5445628E-4,7.8318326E-4,-4.1756034E-3,-1.2673519E-4,-1.9206229E-3,-4.3464017E-5,2.9882602E-3,3.7485398E-3,1.2098551E-3,2.37979E-4,1.6178589E-3,3.3869914E-4,-5.6960434E-4,3.6442652E-5,-1.1985175E-3],"categories":[],"categories_nodes":[],"categories_segments":[],"categories_sizes":[],"default_left":[1,1,1,1,0,1,1,1,1,1,1,1,1,1,1,1,1,1,0,0,0,0,0,1,1,1,1,1,1,1,1,1,1,1,1,0,0,1,1,0,0,0,0,0,0,0,0,0,0,0,0,0,0,0,0,0,0,0,0,0,0,0,0],"id":78,"left_children":[1,3,5,7,-1,9,11,13,15,17,19,21,23,25,27,29,31,33,-1,-1,-1,-1,-1,35,37,39,41,43,45,47,49,51,53,55,57,-1,-1,59,61,-1,-1,-1,-1,-1,-1,-1,-1,-1,-1,-1,-1,-1,-1,-1,-1,-1,-1,-1,-1,-1,-1,-1,-1],"loss_changes":[1.7728667E-5,3.4935772E-5,3.688223E-5,2.7711707E-5,0E0,2.6187241E-5,1.4534761E-5,3.5969082E-5,4.462543E-5,2.5678703E-5,1.5994299E-6,6.4487667E-6,7.1816444E-6,3.8819388E-5,2.0988778E-5,4.536223E-5,3.6534526E-5,2.03522E-5,9.866465E-7,5.261102E-7,3.2578976E-7,3.7104633E-7,0E0,1.1210486E-6,5.335018E-6,2.8373051E-5,2.5216068E-5,1.5985468E-5,2.4773619E-5,7.090059E-5,7.1865594E-5,4.6211542E-5,3.41088E-5,3.7874415E-6,3.8034677E-6,0E0,0E0,3.0290435E-6,1.3443982E-6,0E0,0E0,0E0,0E0,0E0,0E0,0E0,0E0,0E0,0E0,0E0,0E0,0E0,0E0,0E0,0E0,0E0,0E0,0E0,0E0,0E0,0E0,0E0,0E0],"parents":[2147483647,0,0,1,1,2,2,3,3,5,5,6,6,7,7,8,8,9,9,10,10,11,11,12,12,13,13,14,14,15,15,16,16,17,17,23,23,24,24,25,25,26,26,27,27,28,28,29,29,30,30,31,31,32,32,33,33,34,34,37,37,38,38],"right_children":[2,4,6,8,-1,10,12,14,16,18,20,22,24,26,28,30,32,34,-1,-1,-1,-1,-1,36,38,40,42,44,46,48,50,52,54,56,58,-1,-1,60,62,-1,-1,-1,-1,-1,-1,-1,-1,-1,-1,-1,-1,-1,-1,-1,-1,-1,-1,-1,-1,-1,-1,-1,-1],"split_conditions":[3.524099E-1,3.4587085E-1,-7.356131E-2,-9.5716625E-2,-1.2693823E-3,1.8195069E-1,4.086925E-1,-3.3640437E-2,1.3564742E-1,2.243011E-1,-2.1256575E-2,1.6236125E-2,-3.3212328E-1,-1.20566875E-1,1.8824165E-1,-6.394194E-2,6.737959E-2,-8.6470574E-2,-1.02204016E-4,1.1067302E-4,-9.219263E-5,-1.3708882E-4,-6.853938E-4,1.14631146E-1,4.1915916E-2,3.061933E-1,-1.3685255E-1,-5.56826E-1,2.2022201E-1,-2.916757E-1,7.853317E-1,-4.589939E-3,4.7163993E-1,1.3289277E-1,-7.0552915E-2,3.2126048E-4,4.2159856E-5,4.4414353E-1,-2.760573E-1,-1.1897689E-4,-6.5756124E-4,-1.198575E-5,-1.27844E-3,-4.074458E-4,1.5108816E-4,-6.485797E-7,-5.187276E-4,5.6413596E-4,-1.363369E-4,2.3495499E-4,-1.252681E-3,-3.802056E-5,-5.7618687E-4,-1.3039205E-5,8.9647813E-4,1.124562E-3,3.6295655E-4,7.1393704E-5,4.8535768E-4,1.01609745E-4,-1.708813E-4,1.0932796E-5,-3.5955527E-4],"split_indices":[41,41,39,31,0,33,41,20,42,2,19,31,44,31,52,39,10,24,0,0,0,0,0,4,16,44,2,26,21,54,38,27,4,31,33,0,0,0,0,0,0,0,0,0,0,0,0,0,0,0,0,0,0,0,0,0,0,0,0,0,0,0,0],"split_type":[0,0,0,0,0,0,0,0,0,0,0,0,0,0,0,0,0,0,0,0,0,0,0,0,0,0,0,0,0,0,0,0,0,0,0,0,0,0,0,0,0,0,0,0,0,0,0,0,0,0,0,0,0,0,0,0,0,0,0,0,0,0,0],"sum_hessian":[6.51E2,5.8E2,7.1E1,5.79E2,1E0,3.3E1,3.8E1,2.04E2,3.75E2,2.1E1,1.2E1,8E0,3E1,9.6E1,1.08E2,2.64E2,1.11E2,1.7E1,4E0,6E0,6E0,5E0,3E0,8E0,2.2E1,9E1,6E0,7E1,3.8E1,1.11E2,1.53E2,5.7E1,5.4E1,9E0,8E0,6E0,2E0,1.7E1,5E0,8.1E1,9E0,2E0,4E0,4E0,6.6E1,2.7E1,1.1E1,1.4E1,9.7E1,1.51E2,2E0,3.1E1,2.6E1,5.1E1,3E0,7E0,2E0,4E0,4E0,1.3E1,4E0,1E0,4E0],"tree_param":{"num_deleted":"0","num_feature":"60","num_nodes":"63","size_leaf_vector":"0"}},{"base_weights":[-5.7626985E-6,-2.278529E-3,4.735858E-6,6.930687E-5,-3.5109778E-4,-1.3253838E-3,9.229565E-5,-7.337443E-4,1.94789E-4,-3.9941818E-3,7.727316E-6,-1.6815122E-4,2.187089E-4,-1.0896319E-3,1.3742369E-4,-1.5767306E-3,4.2275767E-4,5.543642E-4,-5.4084137E-4,6.5844296E-4,-3.7506898E-4,6.54634E-5,7.020814E-4,-3.6243408E-4,-1.799571E-3,1.1969022E-3,-1.5426551E-4,-1.840312E-3,-2.6120245E-4,1.2550488E-3,-6.0235652E-5,1.4106975E-3,2.2353667E-4,-3.0680335E-4,-5.0343946E-3,1.3685606E-4,-1.4058677E-3,-5.13551E-5,1.1550771E-3,-1.2364393E-3,4.259532E-5,-8.0124405E-4,-3.0416464E-3,3.9160304E-4,-5.616893E-4,1.9274534E-3,5.098135E-4,1.3474703E-3,-3.9253538E-4],"categories":[],"categories_nodes":[],"categories_segments":[],"categories_sizes":[],"default_left":[1,0,1,1,1,1,1,1,1,0,1,1,1,1,1,1,1,0,0,1,1,1,1,1,1,0,1,0,0,1,1,0,0,0,0,0,0,0,0,0,0,0,0,0,0,0,0,0,0],"id":79,"left_children":[1,-1,3,5,7,9,11,13,15,-1,17,19,21,23,25,27,29,-1,-1,31,33,35,37,39,41,-1,43,-1,-1,45,47,-1,-1,-1,-1,-1,-1,-1,-1,-1,-1,-1,-1,-1,-1,-1,-1,-1,-1],"loss_changes":[1.5568012E-5,0E0,1.4959083E-5,1.7788621E-5,2.1031094E-5,3.2051103E-5,1.7914472E-5,1.844198E-5,1.7628314E-5,0E0,2.3988982E-6,3.0691554E-5,2.7065367E-5,2.1030955E-5,5.7473326E-6,1.25305E-6,1.5351257E-5,2.2529571E-7,3.0958063E-9,1.1462425E-5,4.3939704E-5,2.9499193E-5,3.0094023E-5,7.840619E-6,2.3602843E-5,0E0,3.5559572E-6,0E0,0E0,6.032753E-6,1.2223437E-5,0E0,0E0,0E0,0E0,0E0,0E0,0E0,0E0,0E0,0E0,0E0,0E0,0E0,0E0,0E0,0E0,0E0,0E0],"parents":[2147483647,0,0,2,2,3,3,4,4,5,5,6,6,7,7,8,8,10,10,11,11,12,12,13,13,14,14,15,15,16,16,19,19,20,20,21,21,22,22,23,23,24,24,26,26,29,29,30,30],"right_children":[2,-1,4,6,8,10,12,14,16,-1,18,20,22,24,26,28,30,-1,-1,32,34,36,38,40,42,-1,44,-1,-1,46,48,-1,-1,-1,-1,-1,-1,-1,-1,-1,-1,-1,-1,-1,-1,-1,-1,-1,-1],"split_conditions":[-1.6618662E0,-6.8355876E-4,2.7804822E-1,-9.472884E-1,1.4492613E-1,-3.6801543E-2,-1.5373135E-1,1.874432E-1,-3.8209513E-1,-1.1982545E-3,-3.2576505E-2,-2.5154296E-1,1.741566E-1,2.308724E-2,-1.0692191E-1,2.488715E-1,2.869389E-1,1.6630926E-4,-1.6225241E-4,-5.9062622E-2,6.0017926E-1,1.4977399E-1,-1.0426917E-1,-1.3292617E-1,6.8923205E-2,3.590707E-4,-7.292412E-2,-5.520936E-4,-7.836074E-5,-1.2294833E-1,-2.9998136E-1,4.2320925E-4,6.7061E-5,-9.204101E-5,-1.5103185E-3,4.105682E-5,-4.2176034E-4,-1.5406531E-5,3.4652316E-4,-3.709318E-4,1.2778596E-5,-2.4037322E-4,-9.1249397E-4,1.17480915E-4,-1.685068E-4,5.7823607E-4,1.5294405E-4,4.0424112E-4,-1.1776062E-4],"split_indices":[31,0,46,58,47,4,46,5,4,0,5,9,15,49,50,1,47,0,0,10,6,15,18,33,14,0,33,0,0,8,12,0,0,0,0,0,0,0,0,0,0,0,0,0,0,0,0,0,0],"split_type":[0,0,0,0,0,0,0,0,0,0,0,0,0,0,0,0,0,0,0,0,0,0,0,0,0,0,0,0,0,0,0,0,0,0,0,0,0,0,0,0,0,0,0,0,0,0,0,0,0],"sum_hessian":[6.51E2,2E0,6.49E2,5.5E2,9.9E1,8E0,5.42E2,5.8E1,4.1E1,2E0,6E0,1.77E2,3.65E2,4.1E1,1.7E1,4E0,3.7E1,3E0,3E0,3.5E1,1.42E2,2.78E2,8.7E1,2.1E1,2E1,3E0,1.4E1,3E0,1E0,1.3E1,2.4E1,1.2E1,2.3E1,1.41E2,1E0,2.66E2,1.2E1,3.3E1,5.4E1,6E0,1.5E1,1.2E1,8E0,6E0,8E0,6E0,7E0,4E0,2E1],"tree_param":{"num_deleted":"0","num_feature":"60","num_nodes":"49","size_leaf_vector":"0"}},{"base_weights":[-9.9484305E-6,1.9071385E-4,-1.1541354E-4,4.623565E-4,-1.7912214E-4,1.1274208E-3,-1.6016499E-4,8.9734606E-4,-1.44950745E-5,-5.9937185E-4,5.7043805E-4,3.0166768E-3,4.0371716E-4,1.0302513E-4,-3.6911227E-4,-5.93403E-5,1.4205236E-3,1.6005539E-3,-3.1330978E-4,-1.4440613E-4,-2.015304E-3,-1.13165996E-4,1.1520607E-3,9.481112E-5,9.978265E-4,-5.606466E-4,3.156123E-4,-9.257445E-4,-9.556636E-5,-1.4223456E-3,2.680105E-4,1.983524E-3,1.9982134E-4,2.1835905E-3,1.8010102E-4,3.5050052E-4,-6.020325E-4,-6.932384E-4,3.4665343E-4,-3.9284356E-4,-3.8134244E-3,5.533046E-4,-5.269958E-4,2.4709075E-3,6.35641E-4,-3.201291E-4,3.556361E-4,6.4541935E-4,-1.1261415E-3,-9.2873164E-4,4.5029892E-4,-1.1496502E-3,1.8780982E-3,9.928241E-4,-2.722258E-4,-5.749294E-4,7.3054683E-4,6.1359943E-4,2.8627182E-3,1.2383014E-3,-1.6299046E-4,6.94237E-4,-3.9538927E-4,3.6489684E-4,-8.321423E-4,-2.4573593E-3,-1.9250982E-4,7.644498E-4,-2.0447983E-4,-1.9547443E-3,3.3266298E-4,-4.261268E-3,-5.6318194E-4,1.0099014E-3,1.6868561E-4,-1.0246076E-3,5.8448564E-5,6.805929E-5,1.0064667E-3,-7.122823E-5,2.09296E-3,-4.179935E-4,-2.212543E-3,2.7624724E-4,-2.5814113E-3,8.037958E-4,-1.1016218E-4,-2.8776578E-3,-7.4941723E-4,6.6371076E-4,2.8712489E-3,2.3537246E-3,-1.3039362E-4,-5.6498015E-4,3.8946792E-4],"categories":[],"categories_nodes":[],"categories_segments":[],"categories_sizes":[],"default_left":[1,1,1,1,1,1,1,1,1,1,1,0,1,1,1,1,1,1,1,1,1,1,1,1,0,1,1,1,1,0,1,1,1,0,0,1,1,1,1,1,1,1,1,0,1,0,0,1,1,1,1,1,1,1,1,0,0,0,0,0,0,0,0,0,0,0,0,0,0,0,0,0,0,0,0,0,0,0,0,0,0,0,0,0,0,0,0,0,0,0,0,0,0,0,0],"id":80,"left_children":[1,3,5,7,9,11,13,15,17,19,21,-1,23,25,27,29,31,33,35,37,39,41,43,45,-1,47,49,51,53,-1,55,57,59,-1,-1,61,63,65,67,69,71,73,75,-1,77,-1,-1,79,81,83,85,87,89,91,93,-1,-1,-1,-1,-1,-1,-1,-1,-1,-1,-1,-1,-1,-1,-1,-1,-1,-1,-1,-1,-1,-1,-1,-1,-1,-1,-1,-1,-1,-1,-1,-1,-1,-1,-1,-1,-1,-1,-1,-1],"loss_changes":[1.38202E-5,2.2687043E-5,2.3985354E-5,2.6978316E-5,3.058214E-5,1.9291037E-5,2.2805069E-5,3.4119443E-5,3.0905296E-5,3.964942E-5,1.404636E-5,0E0,2.1076821E-6,2.6137155E-5,3.5084617E-5,1.1535726E-5,2.98429E-5,7.888495E-6,1.05604995E-5,1.3176761E-5,4.226261E-5,4.980281E-6,1.1369881E-5,1.0878903E-6,0E0,3.141792E-5,2.3881717E-5,4.9871705E-5,3.0265084E-5,0E0,8.60771E-6,3.4376324E-5,5.8534233E-6,0E0,3.0192228E-7,4.633116E-6,8.758642E-6,1.984389E-5,6.143113E-6,1.0848793E-5,7.789327E-6,1.0589547E-6,3.2644505E-6,0E0,3.088608E-6,0E0,7.641853E-8,1.5709726E-5,2.2924498E-5,2.8593327E-5,2.5249947E-5,4.6947433E-5,5.3307394E-6,3.3935838E-5,2.6371394E-5,0E0,0E0,0E0,0E0,0E0,0E0,0E0,0E0,0E0,0E0,0E0,0E0,0E0,0E0,0E0,0E0,0E0,0E0,0E0,0E0,0E0,0E0,0E0,0E0,0E0,0E0,0E0,0E0,0E0,0E0,0E0,0E0,0E0,0E0,0E0,0E0,0E0,0E0,0E0,0E0],"parents":[2147483647,0,0,1,1,2,2,3,3,4,4,5,5,6,6,7,7,8,8,9,9,10,10,12,12,13,13,14,14,15,15,16,16,17,17,18,18,19,19,20,20,21,21,22,22,23,23,25,25,26,26,27,27,28,28,30,30,31,31,32,32,35,35,36,36,37,37,38,38,39,39,40,40,41,41,42,42,44,44,47,47,48,48,49,49,50,50,51,51,52,52,53,53,54,54],"right_children":[2,4,6,8,10,12,14,16,18,20,22,-1,24,26,28,30,32,34,36,38,40,42,44,46,-1,48,50,52,54,-1,56,58,60,-1,-1,62,64,66,68,70,72,74,76,-1,78,-1,-1,80,82,84,86,88,90,92,94,-1,-1,-1,-1,-1,-1,-1,-1,-1,-1,-1,-1,-1,-1,-1,-1,-1,-1,-1,-1,-1,-1,-1,-1,-1,-1,-1,-1,-1,-1,-1,-1,-1,-1,-1,-1,-1,-1,-1,-1],"split_conditions":[-1.0250463E-1,6.439902E-2,-6.42231E-1,-6.1051227E-2,1.2007234E-1,1.883465E-2,-4.474947E-2,-7.4439295E-2,-1.9195473E-1,1.5432493E-1,-1.11926496E-1,9.0500305E-4,1.0024421E-1,-1.8181184E-1,8.4822424E-2,-1.990638E-1,2.7556992E-1,5.047133E-2,-1.7649266E-1,2.0232278E-1,-2.3497535E-2,-3.752331E-2,-3.3914393E-1,8.4740415E-2,2.9934794E-4,-1.5454152E-1,-4.223962E-1,4.780568E-1,1.2216657E-1,-4.2670371E-4,-1.2617129E-1,1.332661E-2,-4.4442892E-1,6.5507716E-4,5.4030308E-5,8.7027915E-2,-2.3312068E-1,-4.394936E-1,1.4281937E-1,3.6555216E-2,1.6377337E-1,-5.7569686E-2,5.0511314E-3,7.412723E-4,3.5828475E-2,-9.603873E-5,1.0669083E-4,1.05682015E-1,-3.0245578E-1,4.6465765E-3,9.079847E-2,-1.3981823E-2,1.18868165E-2,1.2152405E-1,1.7310621E-1,-1.7247883E-4,2.1916405E-4,1.8407984E-4,8.588155E-4,3.7149043E-4,-4.889714E-5,2.0827111E-4,-1.1861679E-4,1.0946906E-4,-2.496427E-4,-7.372078E-4,-5.7752946E-5,2.2933495E-4,-6.1343955E-5,-5.864233E-4,9.97989E-5,-1.2783804E-3,-1.6895459E-4,3.0297044E-4,5.0605686E-5,-3.073823E-4,1.753457E-5,2.0417789E-5,3.0194002E-4,-2.1368469E-5,6.27888E-4,-1.2539806E-4,-6.637629E-4,8.2874176E-5,-7.744234E-4,2.4113875E-4,-3.3048655E-5,-8.632974E-4,-2.2482518E-4,1.9911323E-4,8.613747E-4,7.0611737E-4,-3.9118087E-5,-1.6949404E-4,1.1684038E-4],"split_indices":[18,7,17,48,47,2,3,36,44,36,58,0,53,48,3,54,0,17,8,7,47,24,51,24,0,39,11,52,3,0,32,59,40,0,0,47,42,33,4,26,0,5,34,0,23,0,0,58,48,55,28,18,8,50,55,0,0,0,0,0,0,0,0,0,0,0,0,0,0,0,0,0,0,0,0,0,0,0,0,0,0,0,0,0,0,0,0,0,0,0,0,0,0,0,0],"split_type":[0,0,0,0,0,0,0,0,0,0,0,0,0,0,0,0,0,0,0,0,0,0,0,0,0,0,0,0,0,0,0,0,0,0,0,0,0,0,0,0,0,0,0,0,0,0,0,0,0,0,0,0,0,0,0,0,0,0,0,0,0,0,0,0,0,0,0,0,0,0,0,0,0,0,0,0,0,0,0,0,0,0,0,0,0,0,0,0,0,0,0,0,0,0,0],"sum_hessian":[6.51E2,2.24E2,4.27E2,1.29E2,9.5E1,1.4E1,4.13E2,6.7E1,6.2E1,6.1E1,3.4E1,3E0,1.1E1,1.83E2,2.3E2,2.4E1,4.3E1,9E0,5.3E1,4.7E1,1.4E1,1.6E1,1.8E1,8E0,3E0,4.4E1,1.39E2,7.5E1,1.55E2,4E0,2E1,2.9E1,1.4E1,6E0,3E0,1.6E1,3.7E1,2.2E1,2.5E1,8E0,6E0,6E0,1E1,4E0,1.4E1,3E0,5E0,1.4E1,3E1,1.3E1,1.26E2,7E1,5E0,2.1E1,1.34E2,7E0,1.3E1,1.2E1,1.7E1,3E0,1.1E1,1.1E1,5E0,7E0,3E1,4E0,1.8E1,1.4E1,1.1E1,2E0,6E0,5E0,1E0,2E0,4E0,5E0,5E0,6E0,8E0,1E1,4E0,1.9E1,1.1E1,8E0,5E0,7.7E1,4.9E1,1.2E1,5.8E1,3E0,2E0,9E0,1.2E1,9.3E1,4.1E1],"tree_param":{"num_deleted":"0","num_feature":"60","num_nodes":"95","size_leaf_vector":"0"}},{"base_weights":[-4.899113E-6,-2.4514385E-3,2.6246626E-6,-2.83625E-4,6.7847985E-5,-8.366389E-4,7.891947E-5,3.0902505E-4,-7.648259E-5,2.2151023E-4,-1.5375473E-3,-4.583091E-4,5.470215E-4,-1.34439215E-5,6.2840374E-4,2.4822602E-4,-2.77872E-4,4.575057E-4,-5.779773E-4,-2.3572117E-3,-1.7992174E-4,4.0843306E-4,-9.8904E-4,1.9803465E-5,1.0732494E-3,-1.8113598E-3,8.033757E-5,-8.414297E-5,1.0853457E-3,9.778772E-4,-4.7918762E-5,-7.0579513E-4,8.757952E-5,6.712871E-4,-1.06779235E-5,-3.630369E-3,-6.806801E-4,-6.1746064E-4,2.2081472E-4,9.0099487E-4,-2.1284234E-4,1.20020006E-4,-1.5146028E-3,4.7940153E-4,-4.415949E-4,1.7773802E-3,1.9138046E-4,4.2364871E-4,-4.1088925E-4,-9.283092E-4,6.487344E-4,-9.082258E-5,1.4057836E-3,-1.2598386E-4,1.6552701E-3,-2.5379087E-4,1.4911206E-3,-2.4330038E-4,-1.3090004E-3,-6.129347E-6,1.7441245E-3],"categories":[],"categories_nodes":[],"categories_segments":[],"categories_sizes":[],"default_left":[1,0,1,1,1,1,1,1,1,1,1,1,1,1,1,1,1,1,0,1,1,1,1,1,1,0,1,1,1,1,1,1,1,0,0,0,0,0,0,0,0,0,0,0,0,0,0,0,0,0,0,0,0,0,0,0,0,0,0,0,0],"id":81,"left_children":[1,-1,3,5,7,9,11,13,15,17,19,21,23,25,27,29,31,33,-1,35,37,39,41,43,45,-1,47,49,51,53,55,57,59,-1,-1,-1,-1,-1,-1,-1,-1,-1,-1,-1,-1,-1,-1,-1,-1,-1,-1,-1,-1,-1,-1,-1,-1,-1,-1,-1,-1],"loss_changes":[1.2007937E-5,0E0,1.2173515E-5,2.4325574E-5,1.8507333E-5,3.5940535E-5,1.886006E-5,2.0503403E-5,2.18448E-5,4.0379364E-6,3.1847012E-5,1.6504198E-5,1.10762185E-5,1.7006645E-5,3.265058E-5,2.7705402E-5,3.2277152E-5,1.6085912E-6,5.1028815E-7,3.594967E-5,2.240398E-6,4.476002E-6,1.3005156E-5,4.6649147E-6,1.20788645E-5,0E0,1.6363863E-5,2.5349038E-5,2.3117893E-5,2.7875201E-5,2.95282E-5,2.6184556E-5,1.739678E-5,0E0,0E0,0E0,0E0,0E0,0E0,0E0,0E0,0E0,0E0,0E0,0E0,0E0,0E0,0E0,0E0,0E0,0E0,0E0,0E0,0E0,0E0,0E0,0E0,0E0,0E0,0E0,0E0],"parents":[2147483647,0,0,2,2,3,3,4,4,5,5,6,6,7,7,8,8,9,9,10,10,11,11,12,12,13,13,14,14,15,15,16,16,17,17,19,19,20,20,21,21,22,22,23,23,24,24,26,26,27,27,28,28,29,29,30,30,31,31,32,32],"right_children":[2,-1,4,6,8,10,12,14,16,18,20,22,24,26,28,30,32,34,-1,36,38,40,42,44,46,-1,48,50,52,54,56,58,60,-1,-1,-1,-1,-1,-1,-1,-1,-1,-1,-1,-1,-1,-1,-1,-1,-1,-1,-1,-1,-1,-1,-1,-1,-1,-1,-1,-1],"split_conditions":[-1.7665689E0,-7.3543156E-4,-2.646522E-1,-9.5130265E-2,-6.9616824E-2,-2.5013827E-2,-6.294296E-2,3.5573445E-2,-6.533435E-2,2.5400162E-1,1.10834554E-1,-2.332017E-1,-3.8455676E-2,-5.233891E-1,-4.327538E-2,-1.9251144E-1,1.2629016E-1,4.1224658E-1,-1.7339319E-4,1.354441E-1,-1.08603716E-1,-7.361536E-2,-1.2226815E-1,1.7654413E-1,-7.938268E-3,-5.43408E-4,1.0311808E-1,-5.2486815E-2,-2.610961E-1,-3.784412E-2,2.750458E-1,6.48243E-2,5.823158E-1,2.0138615E-4,-3.2033772E-6,-1.0891107E-3,-2.0420404E-4,-1.852382E-4,6.624442E-5,2.7029848E-4,-6.3852705E-5,3.6006004E-5,-4.5438085E-4,1.4382046E-4,-1.3247847E-4,5.332141E-4,5.741414E-5,1.2709462E-4,-1.2326679E-4,-2.7849278E-4,1.9462033E-4,-2.7246775E-5,4.2173508E-4,-3.779516E-5,4.965811E-4,-7.6137265E-5,4.4733618E-4,-7.2990115E-5,-3.9270014E-4,-1.8388042E-6,5.2323734E-4],"split_indices":[30,0,24,48,40,21,34,41,48,3,34,29,12,52,36,43,48,15,0,54,42,37,12,31,53,0,57,8,35,56,49,41,21,0,0,0,0,0,0,0,0,0,0,0,0,0,0,0,0,0,0,0,0,0,0,0,0,0,0,0,0],"split_type":[0,0,0,0,0,0,0,0,0,0,0,0,0,0,0,0,0,0,0,0,0,0,0,0,0,0,0,0,0,0,0,0,0,0,0,0,0,0,0,0,0,0,0,0,0,0,0,0,0,0,0,0,0,0,0,0,0,0,0,0,0],"sum_hessian":[6.51E2,1E0,6.5E2,1.2E2,5.3E2,4.7E1,7.3E1,1.98E2,3.32E2,1.9E1,2.8E1,3.4E1,3.9E1,9.9E1,9.9E1,1.27E2,2.05E2,1.5E1,4E0,1.7E1,1.1E1,1.3E1,2.1E1,2E1,1.9E1,4E0,9.5E1,3.9E1,6E1,3.6E1,9.1E1,9.4E1,1.11E2,1E1,5E0,9E0,8E0,5E0,6E0,7E0,6E0,7E0,1.4E1,1E1,1E1,1E1,9E0,5.6E1,3.9E1,1.8E1,2.1E1,1.3E1,4.7E1,1.4E1,2.2E1,8.1E1,1E1,5.4E1,4E1,1.06E2,5E0],"tree_param":{"num_deleted":"0","num_feature":"60","num_nodes":"61","size_leaf_vector":"0"}},{"base_weights":[-5.0804906E-6,3.5832876E-5,-3.8153195E-4,-6.99476E-5,2.5492036E-4,1.9993484E-3,-4.905821E-4,4.973891E-4,-2.187419E-4,5.412795E-4,-9.690711E-5,1.034381E-4,-7.7591167E-4,-1.176264E-3,7.694231E-4,-1.5646608E-4,-1.6582118E-3,-5.7052914E-4,7.751782E-4,3.3690408E-4,-6.150579E-4,4.5775014E-4,-2.602774E-4,-1.1468634E-3,4.7910693E-5,-2.3368464E-3,3.7379283E-4,1.542917E-4,1.2051291E-3,-1.0348279E-3,-8.088903E-5,3.284778E-4,-3.408014E-3,-2.4677292E-3,-6.0571037E-5,3.5297617E-4,1.2729963E-3,6.307803E-4,-3.516756E-4,1.1039481E-4,-1.213628E-3,7.4104965E-4,9.815892E-5,-7.865764E-5,-1.4831717E-3,4.591696E-4,-7.8418927E-4,-2.7656257E-3,-8.432654E-4,-3.2883138E-6,1.1295993E-3,4.1699613E-4,-1.0098094E-3,2.1327261E-3,7.6299935E-4,-3.286564E-4,-1.9906024E-3,3.0895416E-4,-2.5730816E-4,1.373039E-3,-3.6395443E-4,-3.7819908E-3,-5.820766E-4,7.505191E-4,-7.748099E-4,1.7881521E-3,1.1113414E-4,2.5491628E-3,7.626353E-4,3.2745177E-4,1.5756665E-3,1.537323E-4,-1.1354095E-3,-4.079193E-4,5.244341E-4,-1.4637149E-4,-2.0908108E-3,-2.0452025E-3,-4.441047E-4,-1.0900795E-4,8.5612264E-4],"categories":[],"categories_nodes":[],"categories_segments":[],"categories_sizes":[],"default_left":[1,1,1,1,1,0,1,1,1,1,1,1,1,1,1,1,1,1,1,1,1,1,0,1,1,1,1,1,1,1,1,1,1,0,1,1,1,1,1,1,1,0,0,0,1,1,0,0,0,0,0,0,0,0,0,0,0,0,0,0,0,0,0,0,0,0,0,0,0,0,0,0,0,0,0,0,0,0,0,0,0],"id":82,"left_children":[1,3,5,7,9,-1,11,13,15,17,19,21,23,25,27,29,31,33,35,37,39,41,-1,43,45,47,49,51,53,55,57,59,61,-1,63,65,67,69,71,73,75,-1,-1,-1,77,79,-1,-1,-1,-1,-1,-1,-1,-1,-1,-1,-1,-1,-1,-1,-1,-1,-1,-1,-1,-1,-1,-1,-1,-1,-1,-1,-1,-1,-1,-1,-1,-1,-1,-1,-1],"loss_changes":[1.0055708E-5,1.3668013E-5,1.7597507E-5,3.3706554E-5,1.9396266E-5,0E0,1.0588735E-5,3.869416E-5,2.8068105E-5,2.800762E-5,1.9763042E-5,2.8253864E-6,1.2890077E-5,2.2461118E-5,1.9111241E-5,2.0097026E-5,4.6311532E-5,1.8232886E-5,1.8046485E-5,9.9349745E-6,1.7503351E-5,1.0478516E-6,4.7161768E-7,1.0301483E-5,5.150995E-6,2.1507585E-6,1.7137168E-6,9.901338E-6,1.5597696E-5,1.5544352E-5,1.9405496E-5,5.5627384E-6,5.196438E-6,0E0,9.850503E-6,1.6808484E-5,2.4108143E-5,9.2288155E-6,6.1161286E-6,4.291372E-6,2.0289906E-5,0E0,2.2513788E-7,6.914593E-7,1.1939446E-5,2.348722E-6,0E0,0E0,0E0,0E0,0E0,0E0,0E0,0E0,0E0,0E0,0E0,0E0,0E0,0E0,0E0,0E0,0E0,0E0,0E0,0E0,0E0,0E0,0E0,0E0,0E0,0E0,0E0,0E0,0E0,0E0,0E0,0E0,0E0,0E0,0E0],"parents":[2147483647,0,0,1,1,2,2,3,3,4,4,6,6,7,7,8,8,9,9,10,10,11,11,12,12,13,13,14,14,15,15,16,16,17,17,18,18,19,19,20,20,21,21,23,23,24,24,25,25,26,26,27,27,28,28,29,29,30,30,31,31,32,32,34,34,35,35,36,36,37,37,38,38,39,39,40,40,44,44,45,45],"right_children":[2,4,6,8,10,-1,12,14,16,18,20,22,24,26,28,30,32,34,36,38,40,42,-1,44,46,48,50,52,54,56,58,60,62,-1,64,66,68,70,72,74,76,-1,-1,-1,78,80,-1,-1,-1,-1,-1,-1,-1,-1,-1,-1,-1,-1,-1,-1,-1,-1,-1,-1,-1,-1,-1,-1,-1,-1,-1,-1,-1,-1,-1,-1,-1,-1,-1,-1,-1],"split_conditions":[3.6363223E-1,7.815695E-2,-5.711159E-1,-2.4702588E-1,3.0893013E-2,5.9980457E-4,-8.111841E-2,-3.4898272E-1,6.928156E-2,-2.5932884E-1,2.1339965E-3,2.099986E-2,1.3240671E-1,8.858174E-2,-2.191481E-1,-4.298492E-1,6.985976E-2,-2.7498072E-1,4.2147003E-2,9.245852E-2,-5.730834E-2,-5.5641927E-2,-7.808322E-5,-9.4037205E-2,1.3770631E-1,3.5106905E-2,2.041058E-1,2.674489E-1,-8.8142596E-2,-2.5536198E-2,-1.1968602E-1,-2.1798307E-1,3.0533373E-1,-7.403188E-4,2.2730773E-2,-3.2096097E-1,8.362143E-2,1.5559754E-1,4.6634577E-2,1.2612715E-1,-1.1224078E-1,2.223149E-4,2.9447676E-5,-2.3597293E-5,4.001444E-2,-2.0644926E-1,-2.3525678E-4,-8.2968775E-4,-2.5297963E-4,-9.864942E-7,3.388798E-4,1.2509884E-4,-3.0294285E-4,6.3981785E-4,2.2889981E-4,-9.859692E-5,-5.9718074E-4,9.268625E-5,-7.719245E-5,4.1191172E-4,-1.0918633E-4,-1.1345973E-3,-1.7462298E-4,2.2515575E-4,-2.3244298E-4,5.3644564E-4,3.3340242E-5,7.647489E-4,2.2879061E-4,9.8235534E-5,4.7269996E-4,4.611969E-5,-3.4062285E-4,-1.2237579E-4,1.5733023E-4,-4.391145E-5,-6.2724325E-4,-6.135608E-4,-1.3323141E-4,-3.2702388E-5,2.568368E-4],"split_indices":[1,1,22,8,54,0,25,14,1,55,4,46,9,57,1,20,36,27,17,13,32,39,0,30,3,1,2,57,4,10,55,2,0,0,31,58,17,52,38,38,36,0,0,0,8,3,0,0,0,0,0,0,0,0,0,0,0,0,0,0,0,0,0,0,0,0,0,0,0,0,0,0,0,0,0,0,0,0,0,0,0],"split_type":[0,0,0,0,0,0,0,0,0,0,0,0,0,0,0,0,0,0,0,0,0,0,0,0,0,0,0,0,0,0,0,0,0,0,0,0,0,0,0,0,0,0,0,0,0,0,0,0,0,0,0,0,0,0,0,0,0,0,0,0,0,0,0,0,0,0,0,0,0,0,0,0,0,0,0,0,0,0,0,0,0],"sum_hessian":[6.51E2,5.88E2,6.3E1,3.97E2,1.91E2,2E0,6.1E1,8.2E1,3.15E2,1.05E2,8.6E1,2E1,4.1E1,1.1E1,7.1E1,3.03E2,1.2E1,1.8E1,8.7E1,4.7E1,3.9E1,1E1,1E1,2.8E1,1.3E1,6E0,5E0,3E1,4.1E1,2.3E1,2.8E2,6E0,6E0,3E0,1.5E1,4.8E1,3.9E1,3.3E1,1.4E1,1.8E1,2.1E1,5E0,5E0,7E0,2.1E1,9E0,4E0,4E0,2E0,4E0,1E0,2.5E1,5E0,1.2E1,2.9E1,1.4E1,9E0,8.7E1,1.93E2,2E0,4E0,5E0,1E0,7E0,8E0,6E0,4.2E1,1E1,2.9E1,2.6E1,7E0,9E0,5E0,8E0,1E1,1E1,1.1E1,1.3E1,8E0,4E0,5E0],"tree_param":{"num_deleted":"0","num_feature":"60","num_nodes":"81","size_leaf_vector":"0"}},{"base_weights":[-5.5393202E-6,-9.2255075E-5,1.4370712E-4,-2.5417976E-4,2.1199438E-4,-3.2065983E-4,2.8349546E-4,-1.4992742E-4,-2.0164745E-3,4.6761235E-4,-2.4924535E-4,-4.4109556E-4,5.854038E-4,2.533759E-5,5.869125E-4,-2.0016516E-4,1.6656959E-3,-2.5299524E-3,-4.8352778E-4,6.7047396E-4,-6.319662E-4,-3.2340253E-5,-2.2816851E-3,-7.7914214E-5,-8.640513E-4,5.159607E-4,-1.9930922E-4,-1.5909696E-4,9.18359E-4,-5.3714914E-4,-2.3311892E-5,2.2511184E-4,1.8682746E-3,9.745187E-4,1.12654765E-4,3.9526288E-4,-1.3607037E-3,-1.2658481E-4,2.198577E-3,-2.8266981E-3,-5.0816685E-5,2.914912E-4,-4.681404E-4,-1.3909569E-3,-3.9978302E-5,8.516573E-4,-2.0233812E-4,-4.9032504E-4,2.8232063E-4,-7.0740737E-4,4.005775E-4,1.5598971E-3,4.0076044E-4,-8.44826E-4,2.9288375E-4,3.5762927E-4,-2.8740053E-4,7.0330665E-5,1.193337E-3,-2.3625155E-4,7.050698E-4,-2.9660016E-4,-2.1526664E-3,6.2126416E-4,-3.7235155E-4,7.3724426E-4,1.18615884E-4,-9.5689454E-4,1.803704E-5,-1.9711421E-3,-7.094252E-4,2.9691242E-4,1.289202E-3,-6.177115E-4,2.4675825E-4,-1.2037446E-3,-1.1727111E-4,4.345957E-4,-1.0807452E-3,-2.9167812E-4,-1.0814683E-3,9.934556E-4,-1.6826307E-4,1.9925279E-3,-2.142936E-4,-2.6056866E-4,8.7671925E-4],"categories":[],"categories_nodes":[],"categories_segments":[],"categories_sizes":[],"default_left":[1,1,1,1,1,1,1,1,1,1,1,1,0,1,1,1,1,0,0,1,1,1,1,1,1,1,1,1,1,1,1,0,0,1,1,0,1,1,0,0,0,1,1,1,0,1,1,1,1,1,1,1,1,0,0,0,0,0,0,0,0,0,0,0,0,0,0,0,0,0,0,0,0,0,0,0,0,0,0,0,0,0,0,0,0,0,0],"id":83,"left_children":[1,3,5,7,9,11,13,15,17,19,21,23,-1,25,27,29,31,-1,-1,33,35,37,39,41,43,45,47,49,51,53,55,-1,-1,57,59,-1,61,63,-1,-1,-1,65,67,69,-1,71,73,75,77,79,81,83,85,-1,-1,-1,-1,-1,-1,-1,-1,-1,-1,-1,-1,-1,-1,-1,-1,-1,-1,-1,-1,-1,-1,-1,-1,-1,-1,-1,-1,-1,-1,-1,-1,-1,-1],"loss_changes":[8.451453E-6,2.0400536E-5,1.5670046E-5,4.930298E-5,1.7094319E-5,6.369074E-6,1.4476086E-5,2.3683897E-5,1.0583721E-5,2.1168506E-5,2.285023E-5,7.613159E-6,9.2167033E-7,1.1234744E-5,2.1163394E-5,1.4886658E-5,1.6222511E-6,7.7208097E-7,5.314814E-7,1.3288776E-5,1.176654E-5,1.0370392E-5,5.935617E-6,4.1727053E-6,9.931193E-6,7.888498E-6,9.949763E-6,8.569005E-6,1.8966344E-5,2.2210284E-5,1.670215E-5,0E0,0E0,1.0006566E-5,6.160797E-6,6.6276255E-7,6.946093E-6,8.86976E-6,0E0,0E0,0E0,1.0684466E-6,3.3439571E-6,4.137426E-6,9.355257E-7,4.9571863E-6,2.2043948E-6,1.1569172E-5,6.073833E-6,1.8616729E-6,4.888706E-6,2.0383799E-5,1.0930467E-5,0E0,0E0,0E0,0E0,0E0,0E0,0E0,0E0,0E0,0E0,0E0,0E0,0E0,0E0,0E0,0E0,0E0,0E0,0E0,0E0,0E0,0E0,0E0,0E0,0E0,0E0,0E0,0E0,0E0,0E0,0E0,0E0,0E0,0E0],"parents":[2147483647,0,0,1,1,2,2,3,3,4,4,5,5,6,6,7,7,8,8,9,9,10,10,11,11,13,13,14,14,15,15,16,16,19,19,20,20,21,21,22,22,23,23,24,24,25,25,26,26,27,27,28,28,29,29,30,30,33,33,34,34,36,36,37,37,41,41,42,42,43,43,45,45,46,46,47,47,48,48,49,49,50,50,51,51,52,52],"right_children":[2,4,6,8,10,12,14,16,18,20,22,24,-1,26,28,30,32,-1,-1,34,36,38,40,42,44,46,48,50,52,54,56,-1,-1,58,60,-1,62,64,-1,-1,-1,66,68,70,-1,72,74,76,78,80,82,84,86,-1,-1,-1,-1,-1,-1,-1,-1,-1,-1,-1,-1,-1,-1,-1,-1,-1,-1,-1,-1,-1,-1,-1,-1,-1,-1,-1,-1,-1,-1,-1,-1,-1,-1],"split_conditions":[9.049166E-2,1.146717E-1,-2.176913E-1,8.428615E-2,7.1320646E-2,3.8250095E-1,1.8997785E-2,7.862896E-2,1.7580345E-1,2.5633147E-1,5.8967993E-2,-2.0770766E-2,1.7562116E-4,-1.3063869E-1,-1.3741575E-1,-6.805657E-2,-2.7696678E-1,-7.5898576E-4,-1.4505834E-4,8.787175E-2,-8.106308E-2,5.2308653E-2,2.2041851E-1,5.5559665E-2,1.2953955E-2,8.075921E-2,1.20683365E-1,-7.1581215E-2,2.0993987E-1,1.397258E-1,9.1501504E-2,6.7533554E-5,5.6048244E-4,-2.2252323E-1,1.93841E-1,1.18578864E-4,-1.1857873E-1,-1.931273E-1,6.595731E-4,-8.480095E-4,-1.5245006E-5,-1.494517E-1,-1.3003334E-1,9.520011E-2,-1.1993491E-5,-1.2578495E-2,7.6502286E-2,1.22359805E-2,4.4388068E-1,-5.6008603E-2,-6.289486E-2,2.9032034E-1,-1.4558996E-1,-2.534478E-4,8.7865126E-5,1.0728878E-4,-8.622016E-5,2.10992E-5,3.5800113E-4,-7.087547E-5,2.1152095E-4,-8.898005E-5,-6.4579997E-4,1.8637926E-4,-1.1170547E-4,2.211733E-4,3.5584766E-5,-2.8706837E-4,5.4111124E-6,-5.913427E-4,-2.1282757E-4,8.907373E-5,3.8676063E-4,-1.8531346E-4,7.402748E-5,-3.6112338E-4,-3.5181336E-5,1.3037871E-4,-3.242236E-4,-8.750344E-5,-3.244405E-4,2.980367E-4,-5.0478924E-5,5.977584E-4,-6.4288084E-5,-7.8170604E-5,2.630158E-4],"split_indices":[10,29,1,29,25,35,16,29,45,9,10,35,0,29,34,43,0,0,0,58,21,10,0,42,20,25,44,9,10,0,43,0,0,57,40,0,25,49,0,0,0,7,24,3,0,18,47,1,14,55,5,15,38,0,0,0,0,0,0,0,0,0,0,0,0,0,0,0,0,0,0,0,0,0,0,0,0,0,0,0,0,0,0,0,0,0,0],"split_type":[0,0,0,0,0,0,0,0,0,0,0,0,0,0,0,0,0,0,0,0,0,0,0,0,0,0,0,0,0,0,0,0,0,0,0,0,0,0,0,0,0,0,0,0,0,0,0,0,0,0,0,0,0,0,0,0,0,0,0,0,0,0,0,0,0,0,0,0,0,0,0,0,0,0,0,0,0,0,0,0,0,0,0,0,0,0,0],"sum_hessian":[6.51E2,4.12E2,2.39E2,2.69E2,1.43E2,5.5E1,1.84E2,2.55E2,1.4E1,9.2E1,5.1E1,4.9E1,6E0,1E2,8.4E1,2.49E2,6E0,1E1,4E0,7.8E1,1.4E1,4.7E1,4E0,2.7E1,2.2E1,3.1E1,6.9E1,2.6E1,5.8E1,8.5E1,1.64E2,1E0,5E0,5E1,2.8E1,6E0,8E0,4.6E1,1E0,3E0,1E0,1.4E1,1.3E1,1.3E1,9E0,2.1E1,1E1,4.3E1,2.6E1,1.3E1,1.3E1,2.5E1,3.3E1,6.2E1,2.3E1,6.7E1,9.7E1,1E1,4E1,1.8E1,1E1,4E0,4E0,1.1E1,3.5E1,3E0,1.1E1,6E0,7E0,6E0,7E0,1E1,1.1E1,5E0,5E0,1.4E1,2.9E1,2.4E1,2E0,7E0,6E0,6E0,7E0,2E1,5E0,1.4E1,1.9E1],"tree_param":{"num_deleted":"0","num_feature":"60","num_nodes":"87","size_leaf_vector":"0"}},{"base_weights":[-5.385736E-6,1.9177534E-3,-1.1285724E-5,-1.8645637E-3,-5.565968E-6,-6.711659E-4,9.071338E-6,1.9456446E-4,-9.249618E-4,-8.832985E-5,1.3357331E-4,-1.7748773E-4,-1.1830786E-3,-1.9391223E-4,2.1904867E-4,-1.17969685E-4,3.1752422E-4,-1.1989444E-4,-8.753888E-4,-2.1728773E-3,2.9634565E-4,1.662776E-4,-1.0058502E-3,8.670954E-4,1.7021455E-4],"categories":[],"categories_nodes":[],"categories_segments":[],"categories_sizes":[],"default_left":[1,0,1,0,1,1,1,0,1,1,1,0,0,1,1,1,1,0,0,0,0,0,0,0,0],"id":84,"left_children":[1,-1,3,-1,5,7,9,-1,11,13,15,-1,-1,17,19,21,23,-1,-1,-1,-1,-1,-1,-1,-1],"loss_changes":[7.4195605E-6,0E0,6.890416E-6,0E0,6.338772E-6,3.2560292E-6,7.736469E-6,0E0,1.91231E-6,1.1660921E-5,1.2993494E-5,0E0,2.6292946E-7,1.3362895E-5,1.7653681E-5,3.0200188E-5,1.29674645E-5,0E0,0E0,0E0,0E0,0E0,0E0,0E0,0E0],"parents":[2147483647,0,0,2,2,4,4,5,5,6,6,8,8,9,9,10,10,13,13,14,14,15,15,16,16],"right_children":[2,-1,4,-1,6,8,10,-1,12,14,16,-1,-1,18,20,22,24,-1,-1,-1,-1,-1,-1,-1,-1],"split_conditions":[-1.6304375E0,5.7532603E-4,-1.7665689E0,-5.593691E-4,-9.472884E-1,-2.0061255E-1,3.5059966E-2,5.836934E-5,-1.8120858E-1,1.7461815E-1,-4.3599926E-2,-5.324632E-5,-3.549236E-4,-2.6352354E-3,-5.7309115E-1,-1.1623195E-1,3.211251E-2,-3.5968333E-5,-2.6261664E-4,-6.518632E-4,8.89037E-5,4.9883285E-5,-3.0175506E-4,2.6012864E-4,5.106437E-5],"split_indices":[44,0,30,0,10,4,27,0,2,17,43,0,0,27,40,43,43,0,0,0,0,0,0,0,0],"split_type":[0,0,0,0,0,0,0,0,0,0,0,0,0,0,0,0,0,0,0,0,0,0,0,0,0],"sum_hessian":[6.51E2,1E0,6.5E2,1E0,6.49E2,1.3E1,6.36E2,3E0,1E1,3.57E2,2.79E2,3E0,7E0,2.66E2,9.1E1,1.18E2,1.61E2,2.41E2,2.5E1,2E0,8.9E1,9E1,2.8E1,3.3E1,1.28E2],"tree_param":{"num_deleted":"0","num_feature":"60","num_nodes":"25","size_leaf_vector":"0"}},{"base_weights":[-5.5125306E-6,-1.3159521E-4,6.491435E-5,-4.4997058E-5,-7.1896275E-4,2.6426713E-3,4.621366E-5,-2.4268754E-4,2.0045634E-4,-1.8691107E-3,-2.1576759E-4,6.5565866E-5,-9.513637E-4,-1.4300069E-3,-1.3958791E-4,-1.333829E-3,2.6716068E-4,-2.8426524E-3,5.8479374E-5,1.6672457E-4,-9.059694E-4,-2.5278432E-5,2.8022518E-4,-2.9924387E-4,-1.9384822E-3,1.6855945E-4,-1.91082E-3,1.8509515E-3,-1.7617353E-4,4.0791146E-4,-5.1599793E-4,5.840313E-4,-3.8117087E-5,-1.3050456E-3,-1.8063188E-4,1.2129803E-4,-2.7947457E-4,4.563845E-4,-4.978686E-4,1.5242143E-4,-3.5720936E-4,7.402121E-4,-1.561693E-4,-1.715382E-3,-1.7315212E-4,4.5797342E-4,-9.4294235E-5,-2.1269904E-3,-1.8617013E-4,9.2191935E-5,8.9946005E-4,1.2369028E-4,-8.3761266E-4],"categories":[],"categories_nodes":[],"categories_segments":[],"categories_sizes":[],"default_left":[1,1,1,1,1,0,1,1,1,1,1,1,1,1,1,0,1,0,0,1,1,1,1,0,0,0,0,0,1,1,1,0,0,0,0,1,1,1,1,0,0,0,0,0,0,0,0,0,0,0,0,0,0],"id":85,"left_children":[1,3,5,7,9,-1,11,13,15,17,19,21,23,25,27,-1,29,-1,-1,31,33,35,37,-1,-1,-1,-1,-1,39,41,43,-1,-1,-1,-1,45,47,49,51,-1,-1,-1,-1,-1,-1,-1,-1,-1,-1,-1,-1,-1,-1],"loss_changes":[5.798048E-6,1.1870048E-5,2.007611E-5,9.996028E-6,1.6959175E-5,0E0,8.112697E-6,1.375538E-5,9.771946E-6,1.7055536E-5,5.9589765E-6,8.00232E-6,4.5696765E-6,7.2395906E-6,8.045553E-6,8.8775687E-7,1.0020969E-5,0E0,5.80761E-7,1.3044885E-6,2.0799866E-6,1.0801799E-5,1.6949572E-5,5.5955297E-8,0E0,1.7316182E-7,7.2793955E-7,0E0,6.30063E-6,1.4361373E-5,5.4598313E-6,0E0,6.2494064E-7,0E0,1.7927093E-7,1.3398752E-5,1.7876448E-5,1.6053558E-5,4.9605364E-6,0E0,0E0,0E0,0E0,0E0,0E0,0E0,0E0,0E0,0E0,0E0,0E0,0E0,0E0],"parents":[2147483647,0,0,1,1,2,2,3,3,4,4,6,6,7,7,8,8,9,9,10,10,11,11,12,12,13,13,14,14,16,16,19,19,20,20,21,21,22,22,28,28,29,29,30,30,35,35,36,36,37,37,38,38],"right_children":[2,4,6,8,10,-1,12,14,16,18,20,22,24,26,28,-1,30,-1,-1,32,34,36,38,-1,-1,-1,-1,-1,40,42,44,-1,-1,-1,-1,46,48,50,52,-1,-1,-1,-1,-1,-1,-1,-1,-1,-1,-1,-1,-1,-1],"split_conditions":[-1.01359546E-1,-1.4524971E-1,-9.8900035E-2,2.7315874E-2,-2.734205E-1,7.9280144E-4,8.041103E-1,-4.250191E-1,-9.2757297E-1,1.5232363E-1,1.2937325E-1,1.2216657E-1,2.0466362E-1,-2.3972666E-1,-1.862627E0,-4.001487E-4,2.3761491E-1,-8.527957E-4,1.7543813E-5,-8.286503E-2,2.3130248E-1,8.0186486E-2,2.543662E-1,-8.9773166E-5,-5.8154465E-4,5.0567836E-5,-5.7324604E-4,5.552855E-4,-9.707665E-2,7.773858E-2,-3.442949E-1,1.752094E-4,-1.1435126E-5,-3.915137E-4,-5.4189564E-5,-3.6981508E-2,9.119489E-2,1.295254E-2,-1.6757627E-1,4.5726432E-5,-1.07162814E-4,2.2206364E-4,-4.6850793E-5,-5.146146E-4,-5.1945637E-5,1.3739204E-4,-2.8288272E-5,-6.380971E-4,-5.585104E-5,2.7657581E-5,2.6983803E-4,3.7107086E-5,-2.512838E-4],"split_indices":[9,9,9,38,53,0,38,15,2,12,30,27,14,2,42,0,43,0,0,27,30,36,47,0,0,0,0,0,40,56,48,0,0,0,0,40,36,50,18,0,0,0,0,0,0,0,0,0,0,0,0,0,0],"split_type":[0,0,0,0,0,0,0,0,0,0,0,0,0,0,0,0,0,0,0,0,0,0,0,0,0,0,0,0,0,0,0,0,0,0,0,0,0,0,0,0,0,0,0,0,0,0,0,0,0,0,0,0,0],"sum_hessian":[6.51E2,2.33E2,4.18E2,2.04E2,2.9E1,2E0,4.16E2,1.13E2,9.1E1,8E0,2.1E1,4.09E2,7E0,8E0,1.05E2,3E0,8.8E1,5E0,3E0,1.4E1,7E0,2.88E2,1.21E2,5E0,2E0,2E0,6E0,1E0,1.04E2,7.5E1,1.3E1,4E0,1E1,4E0,3E0,1.83E2,1.05E2,9.9E1,2.2E1,3.7E1,6.7E1,4.7E1,2.8E1,2E0,1.1E1,7.1E1,1.12E2,4E0,1.01E2,5.5E1,4.4E1,8E0,1.4E1],"tree_param":{"num_deleted":"0","num_feature":"60","num_nodes":"53","size_leaf_vector":"0"}},{"base_weights":[-7.412209E-6,8.3312925E-6,-5.053234E-4,-1.5987083E-3,1.3403679E-5,-1.658947E-3,-1.1323334E-4,-3.1437383E-5,1.937292E-4,-2.515958E-3,-2.489537E-4,1.17309544E-4,-6.438896E-4,-6.453196E-5,5.832944E-4,-1.1847645E-4,4.980296E-4,3.9021143E-5,-2.1454037E-4,1.3005454E-3,-2.939279E-5,4.1939865E-4,-3.2637376E-4,-2.6264167E-4,7.162704E-4,-8.16403E-4,7.6206845E-5,-7.228942E-4,-6.790329E-5,4.3070037E-4,2.4321885E-3,-3.7537096E-4,3.2025948E-4,-8.931468E-5,1.0664547E-3,-1.7145868E-4,-1.3305644E-3,-6.9313747E-4,2.1919981E-5,-3.675859E-4,9.3147124E-4],"categories":[],"categories_nodes":[],"categories_segments":[],"categories_sizes":[],"default_left":[1,1,1,0,1,1,1,1,1,0,0,0,0,1,1,1,1,1,1,1,1,1,1,1,1,0,0,0,0,0,0,0,0,0,0,0,0,0,0,0,0],"id":86,"left_children":[1,3,5,-1,7,9,11,13,15,-1,-1,-1,-1,17,19,21,23,25,27,29,31,33,35,37,39,-1,-1,-1,-1,-1,-1,-1,-1,-1,-1,-1,-1,-1,-1,-1,-1],"loss_changes":[5.115151E-6,5.181344E-6,8.8586385E-6,0E0,5.1164343E-6,5.4155425E-6,2.032959E-6,1.0352196E-5,1.2029547E-5,0E0,0E0,7.931898E-7,0E0,7.4956806E-6,1.1463939E-5,7.1817162E-6,1.08127315E-5,9.159747E-6,1.4635987E-5,1.0764705E-5,1.934797E-6,6.0202387E-6,6.9278194E-6,1.8527323E-6,1.2004737E-5,0E0,0E0,0E0,0E0,0E0,0E0,0E0,0E0,0E0,0E0,0E0,0E0,0E0,0E0,0E0,0E0],"parents":[2147483647,0,0,1,1,2,2,4,4,5,5,6,6,7,7,8,8,13,13,14,14,15,15,16,16,17,17,18,18,19,19,20,20,21,21,22,22,23,23,24,24],"right_children":[2,4,6,-1,8,10,12,14,16,-1,-1,-1,-1,18,20,22,24,26,28,30,32,34,36,38,40,-1,-1,-1,-1,-1,-1,-1,-1,-1,-1,-1,-1,-1,-1,-1,-1],"split_conditions":[6.0250133E-1,-1.7665689E0,-2.0493457E-1,-4.7961253E-4,2.2947583E-1,1.6473319E-1,-5.5737536E-2,4.6624368E-1,3.5616253E-3,-7.547874E-4,-7.468611E-5,3.5192865E-5,-1.9316688E-4,-9.753414E-3,-4.630176E-2,-7.843396E-2,-2.2968641E-1,-5.796069E-1,-1.6020498E-1,7.134476E-2,-3.922201E-2,2.1358594E-2,-3.9868474E-2,-5.9780825E-2,-3.346898E-1,-2.4492093E-4,2.2862054E-5,-2.1686827E-4,-2.0370988E-5,1.2921012E-4,7.2965655E-4,-1.1261129E-4,9.607785E-5,-2.6794405E-5,3.1993643E-4,-5.1437608E-5,-3.9916934E-4,-2.0794125E-4,6.5759946E-6,-1.10275774E-4,2.794414E-4],"split_indices":[6,30,18,0,49,1,49,19,7,0,0,0,0,49,7,36,3,40,46,49,3,20,7,17,29,0,0,0,0,0,0,0,0,0,0,0,0,0,0,0,0],"split_type":[0,0,0,0,0,0,0,0,0,0,0,0,0,0,0,0,0,0,0,0,0,0,0,0,0,0,0,0,0,0,0,0,0,0,0,0,0,0,0,0,0],"sum_hessian":[6.51E2,6.32E2,1.9E1,1E0,6.31E2,4E0,1.5E1,5.06E2,1.25E2,2E0,2E0,1.1E1,4E0,4.81E2,2.5E1,6.2E1,6.3E1,2.85E2,1.96E2,1.1E1,1.4E1,1.7E1,4.5E1,1.4E1,4.9E1,1.1E1,2.74E2,4.3E1,1.53E2,7E0,4E0,7E0,7E0,1E1,7E0,4E1,5E0,5E0,9E0,8E0,4.1E1],"tree_param":{"num_deleted":"0","num_feature":"60","num_nodes":"41","size_leaf_vector":"0"}},{"base_weights":[-7.1406826E-6,1.2900382E-3,-1.3116677E-5,2.4217556E-4,-3.8537495E-5,6.153555E-5,1.0248288E-3,-2.2942582E-4,3.3301123E-5,2.5142904E-4,-2.7947148E-4,1.7376787E-3,-1.78127E-4,-1.629641E-4,-1.6777973E-3,9.5853553E-4,-4.6802907E-6,4.1000068E-4,-1.3842867E-4,1.01645666E-4,-6.718826E-4,1.9415952E-3,2.5708973E-4,5.6017307E-4,-2.5543536E-4,-2.2160946E-3,-2.2136916E-4,1.4852198E-3,-2.545888E-4,-6.8808213E-4,2.089504E-5,6.6644547E-4,-6.2962994E-5,1.051038E-3,-4.747386E-5,1.5598397E-4,-4.3518379E-4,2.18022E-3,4.2684935E-4,-1.487419E-3,-1.3967176E-4,-5.9966965E-6,6.6835224E-4],"categories":[],"categories_nodes":[],"categories_segments":[],"categories_sizes":[],"default_left":[1,0,1,1,1,1,1,1,1,1,1,1,0,1,1,1,1,1,0,0,0,0,0,1,1,0,0,1,0,1,1,0,0,0,0,0,0,0,0,0,0,0,0],"id":87,"left_children":[1,-1,3,5,7,9,11,13,15,17,19,21,-1,23,25,27,29,31,-1,-1,-1,-1,-1,33,35,-1,-1,37,-1,39,41,-1,-1,-1,-1,-1,-1,-1,-1,-1,-1,-1,-1],"loss_changes":[5.071181E-6,0E0,4.2276624E-6,8.278266E-6,8.125827E-6,3.2432627E-6,9.742325E-6,1.53209E-5,1.5150564E-5,2.0350078E-6,2.760277E-6,1.6142494E-6,5.5559497E-7,1.0574715E-5,4.997366E-6,1.1239988E-5,7.267842E-6,2.8316103E-6,3.8976924E-7,7.668802E-7,6.827386E-7,0E0,0E0,5.4188035E-6,1.0347207E-5,0E0,0E0,7.8961875E-6,6.1774927E-7,6.367719E-6,6.9859184E-6,0E0,0E0,0E0,0E0,0E0,0E0,0E0,0E0,0E0,0E0,0E0,0E0],"parents":[2147483647,0,0,2,2,3,3,4,4,5,5,6,6,7,7,8,8,9,9,10,10,11,11,13,13,14,14,15,15,16,16,17,17,23,23,24,24,27,27,29,29,30,30],"right_children":[2,-1,4,6,8,10,12,14,16,18,20,22,-1,24,26,28,30,32,-1,-1,-1,-1,-1,34,36,-1,-1,38,-1,40,42,-1,-1,-1,-1,-1,-1,-1,-1,-1,-1,-1,-1],"split_conditions":[-1.7665689E0,3.8701147E-4,-4.247879E-1,2.4065408E-1,-1.19863525E-1,1.3347347E-1,1.2702054E-1,6.246369E-1,-9.5716625E-2,8.340095E-2,7.477723E-2,1.0535523E-1,-5.34381E-5,-3.0137908E-1,2.9312205E-1,1.481797E-1,-7.377485E-1,1.3682818E-1,-4.1528605E-5,3.04937E-5,-2.0156479E-4,5.824786E-4,7.7126926E-5,8.7588705E-2,-1.3114718E-1,-6.648284E-4,-6.641075E-5,1.291746E-1,-7.6376644E-5,-8.2616545E-2,6.008545E-1,1.9993365E-4,-1.8888899E-5,3.1531142E-4,-1.4242159E-5,4.6795194E-5,-1.3055514E-4,6.5406604E-4,1.2805482E-4,-4.4622572E-4,-4.1901527E-5,-1.799009E-6,2.0050567E-4],"split_indices":[33,0,35,8,35,51,22,44,35,40,46,1,0,28,0,48,42,34,0,0,0,0,0,42,25,0,0,52,0,21,44,0,0,0,0,0,0,0,0,0,0,0,0],"split_type":[0,0,0,0,0,0,0,0,0,0,0,0,0,0,0,0,0,0,0,0,0,0,0,0,0,0,0,0,0,0,0,0,0,0,0,0,0,0,0,0,0,0,0],"sum_hessian":[6.51E2,2E0,6.49E2,5.8E1,5.91E2,4.8E1,1E1,1.61E2,4.3E2,3.1E1,1.7E1,6E0,4E0,1.55E2,6E0,1.6E1,4.14E2,2.2E1,9E0,9E0,8E0,5E0,1E0,1.7E1,1.38E2,4E0,2E0,1.1E1,5E0,1.4E1,4E2,1.4E1,8E0,9E0,8E0,4.2E1,9.6E1,6E0,5E0,5E0,9E0,3.85E2,1.5E1],"tree_param":{"num_deleted":"0","num_feature":"60","num_nodes":"43","size_leaf_vector":"0"}},{"base_weights":[-3.6746646E-6,4.7426E-4,-1.876948E-5,1.3438675E-4,8.747288E-4,-4.6762038E-4,1.3919789E-5,-1.9966066E-4,4.01515E-4,1.0904297E-3,7.985035E-5,-6.8502204E-4,4.297884E-4,3.1650343E-4,-1.585916E-5,-1.0341571E-3,-1.4627496E-5,1.2415448E-3,2.0494419E-5,5.462014E-4,-2.0204528E-4,-6.997297E-5,1.8876434E-4,-1.5037693E-4,-1.3372339E-3,-7.702783E-4,2.8909557E-4,1.9434902E-4,9.487131E-4,-6.456394E-4,1.7303452E-4,-4.8719554E-5,-1.338218E-3,3.6382253E-4,-3.8230326E-4,-7.8193744E-4,-2.2249545E-3,7.8116637E-4,-3.3387118E-5,-1.6037798E-4,5.3140795E-4,1.4078289E-3,2.562292E-4,1.8662738E-4,-1.431656E-4,2.442797E-5,-1.8881619E-3,6.070291E-4,-5.254673E-5,-6.370284E-4,4.3648694E-4],"categories":[],"categories_nodes":[],"categories_segments":[],"categories_sizes":[],"default_left":[1,1,1,1,1,1,1,0,0,0,0,1,1,1,1,1,1,0,0,1,1,1,1,0,1,0,1,1,1,0,0,1,1,1,1,0,0,0,0,0,0,0,0,0,0,0,0,0,0,0,0],"id":88,"left_children":[1,3,5,7,9,11,13,-1,-1,-1,-1,15,17,19,21,23,25,-1,-1,27,29,31,33,-1,35,-1,37,39,41,-1,-1,43,45,47,49,-1,-1,-1,-1,-1,-1,-1,-1,-1,-1,-1,-1,-1,-1,-1,-1],"loss_changes":[4.7126487E-6,2.604621E-6,9.29427E-6,1.1509687E-6,1.4560333E-6,8.683638E-6,5.3302974E-6,1.1660751E-7,0E0,0E0,1.4824387E-7,8.176912E-6,2.9647786E-6,6.4231654E-6,5.981532E-6,5.959535E-6,3.2062953E-6,0E0,3.631769E-7,5.0557346E-6,2.9402322E-6,1.144439E-5,1.1435706E-5,2.0277156E-7,6.6403427E-6,6.820262E-7,1.612924E-6,2.5960678E-6,5.0440885E-6,8.348991E-7,3.7281998E-7,9.384533E-6,5.291775E-6,8.841845E-6,5.9093486E-6,0E0,0E0,0E0,0E0,0E0,0E0,0E0,0E0,0E0,0E0,0E0,0E0,0E0,0E0,0E0,0E0],"parents":[2147483647,0,0,1,1,2,2,3,3,4,4,5,5,6,6,11,11,12,12,13,13,14,14,15,15,16,16,19,19,20,20,21,21,22,22,24,24,26,26,27,27,28,28,31,31,32,32,33,33,34,34],"right_children":[2,4,6,8,10,12,14,-1,-1,-1,-1,16,18,20,22,24,26,-1,-1,28,30,32,34,-1,36,-1,38,40,42,-1,-1,44,46,48,50,-1,-1,-1,-1,-1,-1,-1,-1,-1,-1,-1,-1,-1,-1,-1,-1],"split_conditions":[-7.9506123E-1,5.756412E-2,-4.1133046E-1,-5.421872E-2,1.4947456E-1,2.2061864E-1,-4.2706692E-1,-5.98982E-5,1.20454504E-4,3.2712892E-4,2.3955106E-5,1.17160514E-1,-1.6681644E-1,5.7725303E-2,2.1909054E-1,-2.732417E-1,-1.6433904E-1,3.7246346E-4,6.148326E-6,-4.6362326E-2,-1.0938617E-1,2.0637831E-1,2.3398668E-1,-4.511308E-5,5.9750527E-2,-2.310835E-4,3.6702685E-2,-5.4281868E-2,7.082106E-2,-1.9369183E-4,5.191036E-5,-1.7184609E-1,-5.888914E-2,1.2555167E-1,1.9363785E-1,-2.3458124E-4,-6.674864E-4,2.3434992E-4,-1.0016136E-5,-4.8113397E-5,1.5942239E-4,4.2234868E-4,7.686876E-5,5.5988217E-5,-4.294968E-5,7.3283913E-6,-5.664486E-4,1.8210875E-4,-1.5764019E-5,-1.9110854E-4,1.309461E-4],"split_indices":[4,27,4,38,0,58,54,0,0,0,0,14,2,46,52,43,0,0,0,6,19,52,20,0,34,0,0,44,38,0,0,12,2,27,59,0,0,0,0,0,0,0,0,0,0,0,0,0,0,0,0],"split_type":[0,0,0,0,0,0,0,0,0,0,0,0,0,0,0,0,0,0,0,0,0,0,0,0,0,0,0,0,0,0,0,0,0,0,0,0,0,0,0,0,0,0,0,0,0,0,0,0,0,0,0],"sum_hessian":[6.51E2,1.9E1,6.32E2,1.1E1,8E0,4.2E1,5.9E2,5E0,6E0,6E0,2E0,3.4E1,8E0,5.2E1,5.38E2,2.2E1,1.2E1,2E0,6E0,3.6E1,1.6E1,4.26E2,1.12E2,6E0,1.6E1,3E0,9E0,2E1,1.6E1,7E0,9E0,4.2E2,6E0,8.6E1,2.6E1,1.1E1,5E0,3E0,6E0,1E1,1E1,9E0,7E0,1.2E2,3E2,2E0,4E0,5.4E1,3.2E1,2E1,6E0],"tree_param":{"num_deleted":"0","num_feature":"60","num_nodes":"51","size_leaf_vector":"0"}},{"base_weights":[-2.7798503E-6,1.3958979E-3,-7.0725932E-6,9.7280834E-4,-1.3110327E-5,-4.1497377E-5,1.8895644E-4,-1.6026333E-5,-3.527007E-4,6.5613445E-4,2.229487E-5,1.1026564E-4,-8.020903E-5,-1.658082E-3,-2.1334505E-4,-1.0111071E-4,1.2324943E-3,5.858078E-4,-8.863501E-5,2.5346465E-4,-1.6174321E-4,2.9642463E-6,-3.8521725E-4,7.357068E-5,-6.058528E-4,3.6467332E-4,-3.5282862E-4,-3.6738813E-5,1.6596541E-3,1.146879E-3,3.0218007E-4,1.4123578E-4,-3.746184E-4],"categories":[],"categories_nodes":[],"categories_segments":[],"categories_sizes":[],"default_left":[1,0,1,0,1,1,1,1,1,1,1,1,1,0,1,1,1,1,1,0,0,0,0,0,0,0,0,0,0,0,0,0,0],"id":89,"left_children":[1,-1,3,-1,5,7,9,11,13,15,17,19,21,-1,23,25,27,29,31,-1,-1,-1,-1,-1,-1,-1,-1,-1,-1,-1,-1,-1,-1],"loss_changes":[3.9245874E-6,0E0,3.864239E-6,7.2100465E-7,3.7248208E-6,4.5046245E-6,6.2142212E-6,4.2805796E-6,7.4684845E-6,9.289979E-6,3.8025482E-6,6.974344E-6,8.880128E-6,0E0,4.5492397E-6,1.301129E-6,6.5669574E-6,1.2447897E-6,3.40561E-6,0E0,0E0,0E0,0E0,0E0,0E0,0E0,0E0,0E0,0E0,0E0,0E0,0E0,0E0],"parents":[2147483647,0,0,2,2,4,4,5,5,6,6,7,7,8,8,9,9,10,10,11,11,12,12,14,14,15,15,16,16,17,17,18,18],"right_children":[2,-1,4,-1,6,8,10,12,14,16,18,20,22,-1,24,26,28,30,32,-1,-1,-1,-1,-1,-1,-1,-1,-1,-1,-1,-1,-1,-1],"split_conditions":[-1.6304375E0,4.187694E-4,-1.6294332E0,2.918425E-4,3.1020364E-1,4.3392155E-1,3.806977E-1,-1.0250463E-1,4.4982845E-1,-2.2990983E-2,-3.2708937E-1,1.1686109E-1,2.2001544E-1,-4.974246E-4,1.4225696E-1,7.302666E-2,-1.8888512E-1,-1.7827299E-1,1.0626385E-1,7.6039396E-5,-4.8522965E-5,8.892739E-7,-1.1556518E-4,2.2071205E-5,-1.8175585E-4,1.09402004E-4,-1.0584859E-4,-1.1021644E-5,4.978962E-4,3.4406374E-4,9.065402E-5,4.2370735E-5,-1.12385525E-4],"split_indices":[44,0,52,0,9,16,9,18,16,34,34,7,50,0,17,46,51,22,20,0,0,0,0,0,0,0,0,0,0,0,0,0,0],"split_type":[0,0,0,0,0,0,0,0,0,0,0,0,0,0,0,0,0,0,0,0,0,0,0,0,0,0,0,0,0,0,0,0,0],"sum_hessian":[6.51E2,1E0,6.5E2,3E0,6.47E2,5.68E2,7.9E1,5.26E2,4.2E1,2E1,5.9E1,1.77E2,3.49E2,3E0,3.9E1,9E0,1.1E1,9E0,5E1,1.16E2,6.1E1,2.75E2,7.4E1,2.3E1,1.6E1,3E0,6E0,3E0,8E0,2E0,7E0,2.8E1,2.2E1],"tree_param":{"num_deleted":"0","num_feature":"60","num_nodes":"33","size_leaf_vector":"0"}},{"base_weights":[-6.8709E-7,-1.3369694E-3,3.4192876E-6,1.6113283E-5,-3.9788196E-4,5.678825E-5,-1.1967316E-4,-2.01514E-3,-2.0670313E-4,-4.9958704E-5,1.5986277E-4,-2.4440096E-4,3.1483115E-4,-6.1519723E-4,8.285154E-5,-3.1466174E-4,7.943327E-5,-9.843358E-5,2.6817172E-4,-4.7033335E-4,7.6054705E-5,-5.3103686E-5,6.642465E-4,3.7476886E-4,-5.2424404E-4,1.43227E-4,-6.6275836E-4,-3.3410286E-6,-1.1755923E-3,4.90351E-4,5.2887375E-5,7.251471E-5,-7.7500474E-4,-1.5590712E-4,5.9676456E-4,-6.010279E-4,1.617213E-4,1.0027438E-4,8.3006296E-4],"categories":[],"categories_nodes":[],"categories_segments":[],"categories_sizes":[],"default_left":[1,0,1,1,1,1,1,0,1,1,1,1,1,0,0,1,1,1,1,1,1,1,1,0,0,0,0,0,0,0,0,0,0,0,0,0,0,0,0],"id":90,"left_children":[1,-1,3,5,7,9,11,-1,13,15,17,19,21,-1,-1,23,25,27,29,31,33,35,37,-1,-1,-1,-1,-1,-1,-1,-1,-1,-1,-1,-1,-1,-1,-1,-1],"loss_changes":[3.5822777E-6,0E0,3.3226813E-6,3.4974007E-6,5.767174E-6,5.3663944E-6,7.989381E-6,0E0,2.298316E-6,8.2451015E-6,6.9643966E-6,8.28952E-6,4.2778224E-6,2.6946896E-7,9.730256E-7,1.1611375E-5,7.765166E-6,7.575876E-6,8.344618E-6,1.11373465E-5,5.8907103E-6,2.098232E-6,1.5065357E-6,0E0,0E0,0E0,0E0,0E0,0E0,0E0,0E0,0E0,0E0,0E0,0E0,0E0,0E0,0E0,0E0],"parents":[2147483647,0,0,2,2,3,3,4,4,5,5,6,6,8,8,9,9,10,10,11,11,12,12,15,15,16,16,17,17,18,18,19,19,20,20,21,21,22,22],"right_children":[2,-1,4,6,8,10,12,-1,14,16,18,20,22,-1,-1,24,26,28,30,32,34,36,38,-1,-1,-1,-1,-1,-1,-1,-1,-1,-1,-1,-1,-1,-1,-1,-1],"split_conditions":[-1.7665689E0,-4.0109086E-4,6.0250133E-1,1.969218E-1,6.1665905E-1,1.398648E-2,2.1525435E-1,-6.04542E-4,2.2403605E-2,-8.159234E-2,-9.21375E-2,1.2071032E-1,-1.0582106E-2,-1.8455918E-4,2.4855462E-5,-1.502397E-1,3.9161777E-1,3.8933796E-1,1.107816E-1,-6.1480954E-2,7.944508E-2,-2.2527145E-1,-1.19774215E-1,1.12430665E-4,-1.5727321E-4,4.29681E-5,-1.9882752E-4,-1.0023086E-6,-3.526777E-4,1.4710531E-4,1.5866213E-5,2.1754415E-5,-2.3250144E-4,-4.677214E-5,1.7902938E-4,-1.8030839E-4,4.851639E-5,3.0082316E-5,2.490189E-4],"split_indices":[30,0,6,28,6,20,25,0,32,43,36,31,7,0,0,40,59,47,36,34,50,12,56,0,0,0,0,0,0,0,0,0,0,0,0,0,0,0,0],"split_type":[0,0,0,0,0,0,0,0,0,0,0,0,0,0,0,0,0,0,0,0,0,0,0,0,0,0,0,0,0,0,0,0,0,0,0,0,0,0,0],"sum_hessian":[6.51E2,1E0,6.5E2,6.31E2,1.9E1,4.86E2,1.45E2,1E0,1.8E1,2.39E2,2.47E2,1.13E2,3.2E1,7E0,1.1E1,7.8E1,1.61E2,7.3E1,1.74E2,6.6E1,4.7E1,1.6E1,1.6E1,1.8E1,6E1,1.49E2,1.2E1,6.8E1,5E0,8.5E1,8.9E1,2.4E1,4.2E1,3.3E1,1.4E1,4E0,1.2E1,4E0,1.2E1],"tree_param":{"num_deleted":"0","num_feature":"60","num_nodes":"39","size_leaf_vector":"0"}},{"base_weights":[-2.763226E-6,9.159371E-4,-8.42122E-6,1.6345983E-4,-3.674494E-5,2.7918865E-4,-5.012571E-4,-1.4507144E-3,-2.3917155E-5,3.7270536E-5,5.822494E-4,-6.335527E-5,-1.2768094E-3,-5.4446184E-5,1.9146003E-4,-8.0257654E-4,1.1636858E-4,3.1952437E-5,8.331375E-4,2.1154806E-4,-5.285973E-4,6.845414E-6,-1.9722694E-4,3.9868534E-4,3.1254545E-5,3.389304E-4,-1.4539594E-4,-3.2686145E-4,2.5221705E-4,2.4559614E-4,1.3113959E-3,1.8290292E-4,-9.5886484E-5,-5.46597E-4,1.1435978E-4,1.254173E-4,1.0223755E-3,3.8227215E-4,-1.7245772E-4],"categories":[],"categories_nodes":[],"categories_segments":[],"categories_sizes":[],"default_left":[1,0,1,1,1,1,1,0,1,1,1,1,0,1,1,0,1,1,1,0,0,1,1,1,1,0,0,0,0,0,0,0,0,0,0,0,0,0,0],"id":91,"left_children":[1,-1,3,5,7,9,11,-1,13,15,17,19,-1,21,23,-1,25,27,29,-1,-1,31,33,35,37,-1,-1,-1,-1,-1,-1,-1,-1,-1,-1,-1,-1,-1,-1],"loss_changes":[3.3968101E-6,0E0,3.1655397E-6,7.2172206E-6,1.0086361E-5,5.770255E-6,4.6737277E-6,0E0,3.6531164E-6,3.0827564E-6,4.8055817E-6,1.3907895E-6,7.136596E-7,4.2544625E-6,2.278245E-6,0E0,2.496148E-6,1.030848E-6,6.421844E-6,1.1400954E-7,2.6161138E-7,6.185109E-6,1.5955933E-5,4.9848145E-6,2.9261894E-6,0E0,0E0,0E0,0E0,0E0,0E0,0E0,0E0,0E0,0E0,0E0,0E0,0E0,0E0],"parents":[2147483647,0,0,2,2,3,3,4,4,5,5,6,6,8,8,9,9,10,10,11,11,13,13,14,14,16,16,17,17,18,18,21,21,22,22,23,23,24,24],"right_children":[2,-1,4,6,8,10,12,-1,14,16,18,20,-1,22,24,-1,26,28,30,-1,-1,32,34,36,38,-1,-1,-1,-1,-1,-1,-1,-1,-1,-1,-1,-1,-1,-1],"split_conditions":[-1.5454783E0,2.7478114E-4,-3.3887178E-1,2.3074639E-1,-3.3025467E-1,4.0524736E-2,-4.5223955E-2,-4.3521434E-4,3.3269158E-1,-6.7637694E-1,-1.12030074E-1,-5.77309E-2,-3.8304282E-4,1.3657388E-1,-7.048419E-2,-2.4077298E-4,5.6595556E-2,1.12006284E-1,5.2783784E-2,6.3464424E-5,-1.5857919E-4,-7.156642E-2,1.7734548E-2,-2.0100021E-1,-2.1676776E-1,1.0167913E-4,-4.3618784E-5,-9.805844E-5,7.566512E-5,7.367884E-5,3.934188E-4,5.4870878E-5,-2.8765946E-5,-1.639791E-4,3.4307934E-5,3.7625192E-5,3.0671267E-4,1.1468165E-4,-5.1737316E-5],"split_indices":[33,0,20,55,20,24,0,0,45,49,3,50,0,38,46,0,13,40,16,0,0,40,59,46,17,0,0,0,0,0,0,0,0,0,0,0,0,0,0],"split_type":[0,0,0,0,0,0,0,0,0,0,0,0,0,0,0,0,0,0,0,0,0,0,0,0,0,0,0,0,0,0,0,0,0,0,0,0,0,0,0],"sum_hessian":[6.51E2,3E0,6.48E2,9.1E1,5.57E2,7.8E1,1.3E1,4E0,5.53E2,4.4E1,3.4E1,9E0,4E0,4.85E2,6.8E1,3E0,4.1E1,1.1E1,2.3E1,6E0,3E0,3.4E2,1.45E2,2.9E1,3.9E1,2.2E1,1.9E1,4E0,7E0,1.1E1,1.2E1,1.25E2,2.15E2,6.8E1,7.7E1,2.1E1,8E0,1.4E1,2.5E1],"tree_param":{"num_deleted":"0","num_feature":"60","num_nodes":"39","size_leaf_vector":"0"}},{"base_weights":[-2.0453965E-6,3.7497323E-4,-1.3954286E-5,-1.4225331E-5,8.5224095E-4,-2.5808334E-4,4.7210306E-6,1.4017274E-3,4.9499806E-4,1.05710504E-4,-7.181112E-4,-1.0070262E-4,6.0843442E-5,-1.5577553E-4,8.3771197E-4,-6.998413E-5,-1.1443639E-3,1.5497357E-5,-3.350393E-4,3.057405E-4,4.4949293E-6,3.864849E-5,-7.467773E-4,-1.464997E-3,-1.3684854E-4,-3.4238672E-4,1.3123603E-4,2.842875E-4,-5.4705585E-4,-3.8976097E-4,5.807365E-4,-5.731681E-5,3.752655E-4,6.553826E-5,-5.678703E-4,-1.0532811E-3,1.7640105E-4,-3.685177E-4,5.6371395E-4,-1.5788108E-4,-1.0139694E-3,-2.2179335E-3,-1.8745568E-4,4.3210264E-5,8.405861E-4,-1.4883056E-4,1.8708217E-4,5.406443E-5,6.3006376E-4],"categories":[],"categories_nodes":[],"categories_segments":[],"categories_sizes":[],"default_left":[1,1,1,0,1,1,1,0,0,1,1,1,1,1,0,0,1,1,1,1,1,0,0,0,0,1,1,1,1,1,1,1,1,0,0,0,0,0,0,0,0,0,0,0,0,0,0,0,0],"id":92,"left_children":[1,3,5,-1,7,9,11,-1,-1,13,15,17,19,21,-1,-1,23,25,27,29,31,-1,-1,-1,-1,33,35,37,39,41,43,45,47,-1,-1,-1,-1,-1,-1,-1,-1,-1,-1,-1,-1,-1,-1,-1,-1],"loss_changes":[2.9326297E-6,3.727162E-6,2.887184E-6,4.3446508E-7,1.072849E-6,7.606901E-6,3.4910222E-6,0E0,8.1081566E-8,5.107107E-6,5.4452303E-6,5.5873256E-6,5.3114663E-6,2.3269606E-6,4.473436E-7,3.3110476E-7,3.6760284E-6,5.7610355E-6,9.084432E-6,1.3997076E-5,7.217752E-6,9.54666E-7,0E0,3.9474617E-7,2.3663883E-7,3.1645495E-6,5.8031687E-6,3.491137E-6,9.107174E-6,7.3510646E-6,7.2268285E-6,6.066627E-6,3.6488018E-6,0E0,0E0,0E0,0E0,0E0,0E0,0E0,0E0,0E0,0E0,0E0,0E0,0E0,0E0,0E0,0E0],"parents":[2147483647,0,0,1,1,2,2,4,4,5,5,6,6,9,9,10,10,11,11,12,12,13,13,16,16,17,17,18,18,19,19,20,20,25,25,26,26,27,27,28,28,29,29,30,30,31,31,32,32],"right_children":[2,4,6,-1,8,10,12,-1,-1,14,16,18,20,22,-1,-1,24,26,28,30,32,-1,-1,-1,-1,34,36,38,40,42,44,46,48,-1,-1,-1,-1,-1,-1,-1,-1,-1,-1,-1,-1,-1,-1,-1,-1],"split_conditions":[-7.4188685E-1,2.3746159E-2,-4.0826708E-1,-4.2675997E-6,4.657596E-2,4.316292E-2,-1.0824713E-1,4.2051825E-4,1.4849943E-4,-7.452907E-2,-6.744172E-2,-1.950393E-1,-2.3994962E-2,2.5763115E-1,2.513136E-4,-2.0995241E-5,2.5474524E-1,-1.9992748E-1,-1.3631678E-1,-2.2394234E-1,2.9229563E-1,1.1594548E-5,-2.240332E-4,-4.394991E-4,-4.105456E-5,-6.469956E-2,-7.9001695E-1,-2.310713E-1,4.2054214E-2,-5.410664E-1,-6.811235E-2,1.4019373E-1,-7.358701E-2,1.9661478E-5,-1.7036109E-4,-3.1598436E-4,5.2920317E-5,-1.1055532E-4,1.691142E-4,-4.7364327E-5,-3.0419085E-4,-6.653801E-4,-5.6236706E-5,1.296308E-5,2.5217584E-4,-4.464917E-5,5.6124652E-5,1.621933E-5,1.8901913E-4],"split_indices":[45,49,45,0,9,9,59,0,0,9,3,59,59,8,0,0,15,19,57,30,38,0,0,0,0,31,57,9,14,5,54,39,23,0,0,0,0,0,0,0,0,0,0,0,0,0,0,0,0],"split_type":[0,0,0,0,0,0,0,0,0,0,0,0,0,0,0,0,0,0,0,0,0,0,0,0,0,0,0,0,0,0,0,0,0,0,0,0,0,0,0,0,0,0,0,0,0,0,0,0,0],"sum_hessian":[6.51E2,1.9E1,6.32E2,1.1E1,8E0,4.4E1,5.88E2,2E0,6E0,2.5E1,1.9E1,2.04E2,3.84E2,1.9E1,6E0,8E0,1.1E1,1.37E2,6.7E1,7.1E1,3.13E2,1.5E1,4E0,8E0,3E0,3.3E1,1.04E2,1.7E1,5E1,2E1,5.1E1,2.69E2,4.4E1,1.2E1,2.1E1,3E0,1.01E2,5E0,1.2E1,2.8E1,2.2E1,1E0,1.9E1,1.7E1,3.4E1,1.96E2,7.3E1,2E1,2.4E1],"tree_param":{"num_deleted":"0","num_feature":"60","num_nodes":"49","size_leaf_vector":"0"}},{"base_weights":[-2.7275187E-6,1.7553386E-4,-2.5159161E-5,4.3756617E-4,-1.0593173E-4,-5.6011905E-4,6.0682964E-6,6.629753E-4,-1.0606833E-4,-8.04693E-4,9.0482805E-5,-8.930903E-4,-6.822091E-5,9.956354E-5,-6.422134E-5,-1.0206341E-4,9.3584205E-4,-1.6099699E-4,-1.4081397E-3,3.413007E-4,-1.3463804E-4,-1.2659803E-3,-7.2996E-5,6.606288E-5,7.787987E-4,-1.2140934E-3,-3.01917E-5,1.2877514E-3,2.470091E-4,2.8490127E-4,-2.9822625E-4,-1.6585039E-3,-5.316188E-4,-1.03331295E-4,2.0623657E-4,-2.032686E-4,1.1724825E-3,2.53639E-4,-2.4390072E-3,-2.3281548E-4,8.798706E-5,1.5668616E-3,5.278027E-4,-2.1698217E-4,3.5078079E-4,-4.7589614E-4,2.7685033E-4,-3.063451E-4,6.5089844E-4,3.4499605E-4,-6.991916E-5],"categories":[],"categories_nodes":[],"categories_segments":[],"categories_sizes":[],"default_left":[1,1,1,1,1,1,1,1,0,1,1,1,0,1,1,0,1,0,0,0,1,1,0,1,1,1,1,1,0,0,0,0,0,1,1,0,0,0,0,1,1,0,0,0,0,0,0,0,0,0,0],"id":93,"left_children":[1,3,5,7,9,11,13,15,-1,17,19,21,-1,23,25,-1,27,-1,-1,-1,29,31,-1,33,35,37,39,41,-1,-1,-1,-1,-1,43,45,-1,-1,-1,-1,47,49,-1,-1,-1,-1,-1,-1,-1,-1,-1,-1],"loss_changes":[2.6115656E-6,5.4303264E-6,9.692552E-6,4.726849E-6,5.0136973E-6,5.1802863E-6,3.614283E-6,5.731863E-6,6.60194E-7,2.880784E-6,1.6834181E-6,5.7178822E-6,8.3025037E-7,5.3186895E-6,1.22500805E-5,4.2978888E-7,4.5300476E-6,5.402579E-8,0E0,6.860346E-7,1.183072E-6,2.8656123E-6,1.9278994E-7,5.387592E-6,4.491193E-6,1.6799237E-5,7.3479077E-6,1.9304298E-6,4.7562685E-7,1.7941005E-8,5.7638283E-7,4.808044E-7,2.1158792E-7,5.391967E-6,6.104579E-6,3.0871809E-7,0E0,9.811969E-7,0E0,7.5420435E-6,7.897285E-6,0E0,0E0,0E0,0E0,0E0,0E0,0E0,0E0,0E0,0E0],"parents":[2147483647,0,0,1,1,2,2,3,3,4,4,5,5,6,6,7,7,9,9,10,10,11,11,13,13,14,14,16,16,20,20,21,21,23,23,24,24,25,25,26,26,27,27,33,33,34,34,39,39,40,40],"right_children":[2,4,6,8,10,12,14,16,-1,18,20,22,-1,24,26,-1,28,-1,-1,-1,30,32,-1,34,36,38,40,42,-1,-1,-1,-1,-1,44,46,-1,-1,-1,-1,48,50,-1,-1,-1,-1,-1,-1,-1,-1,-1,-1],"split_conditions":[-3.5735345E-1,4.315623E-2,-2.8423685E-1,2.1667174E-1,1.2726273E-1,9.208209E-2,2.2721324E-2,-1.952042E-1,-3.18205E-5,-4.4836592E-2,4.075976E-2,2.4708883E-1,-2.0466272E-5,1.45326285E-2,3.1180888E-2,-3.0619023E-5,1.7571267E-1,-4.8299098E-5,-4.2244192E-4,1.02390215E-4,-4.52976E-1,1.0231806E-1,-2.18988E-5,-7.589355E-2,-1.9747868E-1,-7.0419304E-2,-9.237949E-2,1.8875185E-1,7.410273E-5,8.547038E-5,-8.946788E-5,-4.9755117E-4,-1.5948564E-4,1.8996686E-1,-4.263466E-1,-6.0980583E-5,3.5174476E-4,7.60917E-5,-7.317022E-4,5.034497E-1,7.533326E-2,4.700585E-4,1.5834082E-4,-6.509465E-5,1.0523424E-4,-1.4276885E-4,8.30551E-5,-9.190353E-5,1.9526955E-4,1.03498816E-4,-2.0975749E-5],"split_indices":[53,18,53,47,18,10,53,50,0,33,37,20,0,53,53,0,14,0,0,0,16,48,0,27,33,18,45,50,0,0,0,0,0,52,23,0,0,0,0,47,45,0,0,0,0,0,0,0,0,0,0],"split_type":[0,0,0,0,0,0,0,0,0,0,0,0,0,0,0,0,0,0,0,0,0,0,0,0,0,0,0,0,0,0,0,0,0,0,0,0,0,0,0,0,0,0,0,0,0,0,0,0,0,0,0],"sum_hessian":[6.51E2,7.2E1,5.79E2,3.7E1,3.5E1,3.1E1,5.48E2,2.6E1,1.1E1,7E0,2.8E1,1.8E1,1.3E1,2.35E2,3.13E2,7E0,1.9E1,4E0,3E0,1.3E1,1.5E1,1.2E1,6E0,2.25E2,1E1,8E0,3.05E2,1.2E1,7E0,4E0,1.1E1,7E0,5E0,1.02E2,1.23E2,3E0,7E0,4E0,4E0,1.12E2,1.93E2,8E0,4E0,8.2E1,2E1,1.1E1,1.12E2,1.04E2,8E0,7.3E1,1.2E2],"tree_param":{"num_deleted":"0","num_feature":"60","num_nodes":"51","size_leaf_vector":"0"}},{"base_weights":[-2.8747493E-6,-3.2139375E-5,1.1375891E-4,2.3441098E-5,-1.9487806E-4,-3.063033E-4,1.7908664E-4,-1.8627071E-6,5.464899E-4,-1.0070937E-3,-1.2780521E-4,1.15129355E-4,-4.3493617E-4,2.975579E-4,-6.5686385E-5,3.141035E-4,-3.7591435E-5,-1.9243147E-4,9.3198655E-4,-4.7348533E-4,-1.446005E-3,-3.20554E-4,1.11971116E-4,-1.3715494E-4,-7.131238E-4,-3.455047E-4,3.567675E-4,-2.3080215E-4,3.605798E-4,1.3845877E-4,7.9206284E-4,-9.1145805E-5,2.053364E-4,1.5820606E-3,4.0919194E-4,-6.1596336E-4,1.0814723E-4,-4.2862148E-4,2.2460845E-4,4.9190363E-4,5.335717E-5,3.9702423E-5,-4.36162E-4,-1.7553434E-4,5.835644E-4,3.1552557E-4,-2.2952072E-4,1.3391345E-3,2.0415925E-4,3.3866748E-4,-1.3155835E-4,-7.671942E-5,4.469813E-4,-2.7797194E-4,-1.1832837E-3,-5.7671055E-5,6.375291E-4,-9.868499E-4,-4.8402166E-5,-2.8248085E-4,3.2041108E-4,9.057759E-4,2.6379054E-4],"categories":[],"categories_nodes":[],"categories_segments":[],"categories_sizes":[],"default_left":[1,1,1,1,1,1,1,1,1,1,1,0,1,1,1,1,1,0,1,0,0,1,1,0,0,0,1,1,1,1,1,1,1,0,0,1,1,1,1,1,0,0,0,0,0,0,0,0,0,0,0,0,0,0,0,0,0,0,0,0,0,0,0],"id":94,"left_children":[1,3,5,7,9,11,13,15,17,19,21,-1,23,25,27,29,31,-1,33,-1,-1,35,37,-1,-1,-1,39,41,43,45,47,49,51,-1,-1,53,55,57,59,61,-1,-1,-1,-1,-1,-1,-1,-1,-1,-1,-1,-1,-1,-1,-1,-1,-1,-1,-1,-1,-1,-1,-1],"loss_changes":[2.2290888E-6,4.726107E-6,3.649719E-6,5.1627167E-6,7.116812E-6,1.0258553E-6,3.3253825E-6,4.222631E-6,5.3066738E-6,1.6574049E-6,5.766751E-6,1.0546863E-8,1.0619383E-6,3.0550768E-6,2.757787E-6,3.0804713E-6,4.390024E-6,3.194489E-7,3.430896E-6,1.8433354E-7,0E0,8.804937E-6,3.506163E-6,5.7447835E-8,6.661028E-7,3.9643965E-8,2.8848735E-6,1.5727384E-6,1.4174328E-6,1.961971E-6,2.9428575E-6,4.838633E-6,4.191891E-6,0E0,4.998561E-7,7.532806E-6,2.582422E-6,2.0747268E-6,2.3737934E-6,4.3871387E-6,6.4444635E-7,5.477447E-7,5.5133364E-7,9.620098E-8,4.5868205E-7,0E0,0E0,0E0,0E0,0E0,0E0,0E0,0E0,0E0,0E0,0E0,0E0,0E0,0E0,0E0,0E0,0E0,0E0],"parents":[2147483647,0,0,1,1,2,2,3,3,4,4,5,5,6,6,7,7,8,8,9,9,10,10,12,12,13,13,14,14,15,15,16,16,18,18,21,21,22,22,26,26,27,27,28,28,29,29,30,30,31,31,32,32,35,35,36,36,37,37,38,38,39,39],"right_children":[2,4,6,8,10,12,14,16,18,20,22,-1,24,26,28,30,32,-1,34,-1,-1,36,38,-1,-1,-1,40,42,44,46,48,50,52,-1,-1,54,56,58,60,62,-1,-1,-1,-1,-1,-1,-1,-1,-1,-1,-1,-1,-1,-1,-1,-1,-1,-1,-1,-1,-1,-1,-1],"split_conditions":[2.3161778E-1,7.6502785E-2,-3.5217527E-1,6.518906E-2,8.418091E-2,-2.8343737E-1,1.280554E-1,-3.6654377E-1,-6.190525E-3,-1.0673336E-1,1.5337493E-2,3.4538807E-5,1.09850295E-1,-6.261504E-1,1.263829E-1,2.1090272E-1,2.3575178E-1,-5.7729445E-5,-5.8904275E-2,-1.4204561E-4,-4.338015E-4,9.177594E-2,-2.0631772E-1,-4.1146486E-5,-2.1393715E-4,-1.03651415E-4,1.1406131E-1,-2.2946486E-1,-3.2970583E-1,1.960996E-1,3.2944798E-1,-4.723241E-1,4.6175957E-2,4.746182E-4,1.2275758E-4,-9.304097E-2,1.9219601E-1,-2.7503785E-2,-2.781185E-1,-9.4733775E-2,1.6007152E-5,1.1910727E-5,-1.3084861E-4,-5.2660303E-5,1.7506932E-4,9.465768E-5,-6.885622E-5,4.0174037E-4,6.124778E-5,1.0160025E-4,-3.9467508E-5,-2.3015828E-5,1.340944E-4,-8.3391584E-5,-3.5498512E-4,-1.7301318E-5,1.9125875E-4,-2.96055E-4,-1.452065E-5,-8.474426E-5,9.612333E-5,2.7173277E-4,7.9137164E-5],"split_indices":[18,18,39,18,18,7,20,53,6,33,20,0,4,10,24,27,7,0,46,0,0,45,8,0,0,0,13,24,33,38,27,30,38,0,0,20,27,14,42,44,0,0,0,0,0,0,0,0,0,0,0,0,0,0,0,0,0,0,0,0,0,0,0],"split_type":[0,0,0,0,0,0,0,0,0,0,0,0,0,0,0,0,0,0,0,0,0,0,0,0,0,0,0,0,0,0,0,0,0,0,0,0,0,0,0,0,0,0,0,0,0,0,0,0,0,0,0,0,0,0,0,0,0,0,0,0,0,0,0],"sum_hessian":[6.51E2,5.21E2,1.3E2,3.89E2,1.32E2,1.7E1,1.13E2,3.72E2,1.7E1,9E0,1.23E2,4E0,1.3E1,7.6E1,3.7E1,3.7E1,3.35E2,6E0,1.1E1,5E0,4E0,6.8E1,5.5E1,7E0,6E0,6E0,7E1,2.7E1,1E1,2.8E1,9E0,2.75E2,6E1,4E0,7E0,4E1,2.8E1,9E0,4.6E1,4.8E1,2.2E1,1.2E1,1.5E1,3E0,7E0,1.9E1,9E0,4E0,5E0,2.3E1,2.52E2,2.8E1,3.2E1,2.6E1,1.4E1,2.2E1,6E0,3E0,6E0,7E0,3.9E1,1.6E1,3.2E1],"tree_param":{"num_deleted":"0","num_feature":"60","num_nodes":"63","size_leaf_vector":"0"}},{"base_weights":[-1.8468475E-6,-1.0369569E-3,1.3360511E-6,7.881969E-4,-2.303269E-6,-1.9612163E-4,1.378417E-3,-3.5412092E-4,5.444766E-6,-4.6369056E-5,7.363079E-5,1.08125496E-4,-1.2342472E-4,7.0990657E-4,5.4362747E-5,1.3454429E-4,-1.5310645E-3,2.2197195E-5,-2.4494447E-4,-1.0209953E-4,1.3947513E-4],"categories":[],"categories_nodes":[],"categories_segments":[],"categories_sizes":[],"default_left":[1,0,1,1,1,0,0,0,1,1,1,1,1,0,1,0,0,0,0,0,0],"id":95,"left_children":[1,-1,3,5,7,-1,-1,-1,9,11,13,15,17,-1,19,-1,-1,-1,-1,-1,-1],"loss_changes":[2.1494975E-6,0E0,1.866044E-6,2.0132313E-6,1.7710341E-6,0E0,0E0,8.2563747E-7,2.2503887E-6,4.3228397E-6,3.3328502E-6,5.445951E-6,4.2878546E-6,4.880544E-7,3.5831636E-6,0E0,0E0,0E0,0E0,0E0,0E0],"parents":[2147483647,0,0,2,2,3,3,4,4,8,8,9,9,10,10,11,11,12,12,14,14],"right_children":[2,-1,4,6,8,-1,-1,-1,10,12,14,16,18,-1,20,-1,-1,-1,-1,-1,-1],"split_conditions":[-1.7665689E0,-3.110871E-4,-1.862627E0,7.99021E-2,-9.0589684E-1,-5.8836493E-5,4.1352512E-4,-1.0623628E-4,3.7625372E-2,-1.1223141E-1,-5.9682083E-1,7.018883E-1,-6.914129E-2,2.1297198E-4,-1.21294804E-1,4.0363288E-5,-4.5931936E-4,6.6591588E-6,-7.3483345E-5,-3.062986E-5,4.184254E-5],"split_indices":[30,0,42,0,40,0,0,0,4,51,56,11,44,0,24,0,0,0,0,0,0],"split_type":[0,0,0,0,0,0,0,0,0,0,0,0,0,0,0,0,0,0,0,0,0],"sum_hessian":[6.51E2,1E0,6.5E2,2E0,6.48E2,1E0,1E0,1.3E1,6.35E2,3.61E2,2.74E2,1.2E2,2.41E2,7E0,2.67E2,1.19E2,1E0,1.1E2,1.31E2,9.4E1,1.73E2],"tree_param":{"num_deleted":"0","num_feature":"60","num_nodes":"21","size_leaf_vector":"0"}},{"base_weights":[-1.788601E-6,-1.1675948E-4,2.0494217E-5,-3.041309E-4,7.635026E-5,5.2665465E-4,3.2651956E-6,-5.283625E-4,-7.704574E-5,1.4084572E-4,-7.489305E-4,1.1320207E-3,3.8510698E-5,-6.06265E-5,8.4344545E-5,-2.6108333E-4,-9.566288E-4,-2.852088E-4,9.6902106E-5,-3.3416785E-5,3.3102246E-4,2.0770729E-4,1.4055073E-3,3.266558E-4,-5.474072E-4,-1.3435037E-4,1.3431231E-4,-2.317222E-5,2.2864873E-4,-4.3112287E-4,6.771068E-5,-3.2444595E-4,-1.3240097E-3,7.863774E-4,1.3554987E-4,-2.1894788E-4,1.5844009E-4,5.8611884E-4,4.8486632E-5,5.766837E-4,-7.5774165E-5,-1.09406465E-4,3.4890336E-4,3.556081E-4,-1.8397393E-4,-3.209029E-4,8.330034E-6,-1.3916579E-4,6.78715E-4,1.1800379E-3,3.708574E-4,-2.5838867E-4,1.4419762E-4,9.938851E-4,-1.227349E-4,-1.8404676E-4,1.2772872E-4,8.645923E-5,-4.5102407E-4,4.5938184E-4,-2.0328702E-5],"categories":[],"categories_nodes":[],"categories_segments":[],"categories_sizes":[],"default_left":[1,1,1,1,1,1,1,1,1,1,0,1,1,1,1,1,1,0,0,0,1,0,0,0,0,1,1,1,1,0,0,0,0,0,1,1,1,1,1,1,1,1,1,0,0,0,0,0,0,0,0,0,0,0,0,0,0,0,0,0,0],"id":96,"left_children":[1,3,5,7,9,11,13,15,17,19,-1,21,23,25,27,29,31,-1,-1,-1,33,-1,-1,-1,-1,35,37,39,41,-1,-1,-1,-1,-1,43,45,47,49,51,53,55,57,59,-1,-1,-1,-1,-1,-1,-1,-1,-1,-1,-1,-1,-1,-1,-1,-1,-1,-1],"loss_changes":[1.6727356E-6,3.858645E-6,4.7684757E-6,2.7089545E-6,2.926507E-6,5.2755086E-6,2.7506708E-6,2.8408408E-6,1.0415038E-6,1.6680956E-6,2.5415147E-8,1.7303646E-6,2.0359369E-6,4.2864226E-6,3.6358363E-6,1.0355353E-6,1.8929495E-6,9.318011E-7,1.8656385E-7,7.769062E-7,2.0296327E-6,0E0,0E0,1.5634618E-7,2.0534708E-7,5.384869E-6,3.1512623E-6,4.3034324E-6,4.1034414E-6,3.2086245E-7,1.2442845E-7,2.5300545E-7,0E0,0E0,1.3310716E-6,3.8955895E-6,7.68146E-6,1.2243963E-6,2.0932525E-6,3.331767E-6,2.7777314E-6,1.8455967E-6,3.0279616E-6,0E0,0E0,0E0,0E0,0E0,0E0,0E0,0E0,0E0,0E0,0E0,0E0,0E0,0E0,0E0,0E0,0E0,0E0],"parents":[2147483647,0,0,1,1,2,2,3,3,4,4,5,5,6,6,7,7,8,8,9,9,11,11,12,12,13,13,14,14,15,15,16,16,20,20,25,25,26,26,27,27,28,28,34,34,35,35,36,36,37,37,38,38,39,39,40,40,41,41,42,42],"right_children":[2,4,6,8,10,12,14,16,18,20,-1,22,24,26,28,30,32,-1,-1,-1,34,-1,-1,-1,-1,36,38,40,42,-1,-1,-1,-1,-1,44,46,48,50,52,54,56,58,60,-1,-1,-1,-1,-1,-1,-1,-1,-1,-1,-1,-1,-1,-1,-1,-1,-1,-1],"split_conditions":[-2.8423685E-1,4.8136543E-3,-2.5042287E-1,5.1567033E-2,-3.049242E-1,5.115099E-2,3.7625372E-2,1.5971102E-1,-4.2839162E-4,3.4104556E-2,-2.2467916E-4,-5.625937E-2,6.0924556E-2,1.297982E-1,1.7013256E-2,-6.882388E-3,4.7229663E-2,-8.556264E-5,2.9070632E-5,-1.0025036E-5,1.4292954E-1,6.231219E-5,4.2165222E-4,9.7996744E-5,-1.6422216E-4,1.8544257E-1,1.627703E-1,-4.2800397E-1,-2.2907776E-1,-1.2933687E-4,2.0313204E-5,-9.733379E-5,-3.9720294E-4,2.3591323E-4,1.558857E-1,1.4365491E-1,6.8323284E-2,-2.6264182E-1,2.1909054E-1,2.4471314E-1,1.1533553E-1,1.740317E-1,2.2371E-1,1.0668243E-4,-5.519218E-5,-9.627088E-5,2.4990102E-6,-4.1749736E-5,2.0361452E-4,3.5401137E-4,1.1125722E-4,-7.7516605E-5,4.3259286E-5,2.9816554E-4,-3.682047E-5,-5.521403E-5,3.831862E-5,2.593777E-5,-1.3530723E-4,1.3781455E-4,-6.098611E-6],"split_indices":[51,44,51,28,51,4,4,9,20,48,0,11,17,52,6,12,26,0,0,0,48,0,0,0,0,36,52,7,41,0,0,0,0,0,20,33,29,0,52,16,57,18,40,0,0,0,0,0,0,0,0,0,0,0,0,0,0,0,0,0,0],"split_type":[0,0,0,0,0,0,0,0,0,0,0,0,0,0,0,0,0,0,0,0,0,0,0,0,0,0,0,0,0,0,0,0,0,0,0,0,0,0,0,0,0,0,0,0,0,0,0,0,0,0,0,0,0,0,0,0,0,0,0,0,0],"sum_hessian":[6.51E2,1.05E2,5.46E2,5.3E1,5.2E1,1.7E1,5.29E2,2.6E1,2.7E1,4.9E1,3E0,7E0,1E1,2.96E2,2.33E2,1.7E1,9E0,1.2E1,1.5E1,2.6E1,2.3E1,2E0,5E0,7E0,3E0,2.15E2,8.1E1,1.34E2,9.9E1,1.1E1,6E0,4E0,5E0,6E0,1.7E1,1.67E2,4.8E1,1.2E1,6.9E1,1E1,1.24E2,2.6E1,7.3E1,1E1,7E0,1.15E2,5.2E1,3.1E1,1.7E1,2E0,1E1,1.6E1,5.3E1,6E0,4E0,8.1E1,4.3E1,1.7E1,9E0,5.6E1,1.7E1],"tree_param":{"num_deleted":"0","num_feature":"60","num_nodes":"61","size_leaf_vector":"0"}},{"base_weights":[-3.68242E-7,-1.596218E-5,1.4315046E-4,-2.221583E-4,-5.3412197E-7,-6.669132E-5,2.980807E-4,-4.1359526E-5,-7.114859E-4,9.608306E-4,-4.0417776E-6,4.2473097E-4,-3.9886345E-5,-8.710319E-5,-1.2172876E-3,9.8291006E-5,-3.482903E-5,1.4854722E-4,-3.5384396E-4,3.776545E-5,-1.3169664E-4,2.2640863E-5,3.238198E-4,-3.151875E-5,-7.2463695E-4,-3.7104692E-4,8.447437E-5,1.1485939E-4,-2.4889264E-4],"categories":[],"categories_nodes":[],"categories_segments":[],"categories_sizes":[],"default_left":[1,1,1,1,1,0,1,0,1,0,1,0,0,0,0,1,1,1,1,1,1,0,0,0,0,0,0,0,0],"id":97,"left_children":[1,3,5,7,9,-1,11,-1,13,-1,15,-1,-1,-1,-1,17,19,21,23,25,27,-1,-1,-1,-1,-1,-1,-1,-1],"loss_changes":[1.461475E-6,1.8736115E-6,2.100573E-6,3.5978367E-6,1.8551864E-6,6.6025297E-7,1.6006748E-6,8.4645063E-7,3.367923E-6,0E0,1.7299222E-6,8.18382E-7,2.5588676E-7,4.430905E-8,0E0,2.9383314E-6,2.9725002E-6,2.5304805E-6,1.5308673E-6,4.6523787E-6,5.258652E-6,0E0,0E0,0E0,0E0,0E0,0E0,0E0,0E0],"parents":[2147483647,0,0,1,1,2,2,3,3,4,4,6,6,8,8,10,10,15,15,16,16,17,17,18,18,19,19,20,20],"right_children":[2,4,6,8,10,-1,12,-1,14,-1,16,-1,-1,-1,-1,18,20,22,24,26,28,-1,-1,-1,-1,-1,-1,-1,-1],"split_conditions":[3.8098484E-1,-4.303087E-1,-5.5622555E-2,9.622325E-2,-1.862627E0,-2.0007396E-5,2.2664362E-1,-1.2407859E-5,8.629733E-2,2.882492E-4,-1.841504E-1,1.2741929E-4,-1.1965904E-5,-2.6130958E-5,-3.651863E-4,4.637305E-1,3.0893013E-2,3.66175E-3,-3.4367013E-1,-1.3255472E-1,-1.1216053E-1,6.7922592E-6,9.7145945E-5,-9.455625E-6,-2.1739109E-4,-1.1131408E-4,2.5342311E-5,3.445782E-5,-7.46678E-5],"split_indices":[43,25,32,5,42,0,31,0,32,0,29,0,0,0,0,40,23,43,29,29,21,0,0,0,0,0,0,0,0],"split_type":[0,0,0,0,0,0,0,0,0,0,0,0,0,0,0,0,0,0,0,0,0,0,0,0,0,0,0,0,0],"sum_hessian":[6.51E2,5.88E2,6.3E1,4E1,5.48E2,2.7E1,3.6E1,3E1,1E1,1E0,5.47E2,2.6E1,1E1,5E0,5E0,1.26E2,4.21E2,1.14E2,1.2E1,2.41E2,1.8E2,6.7E1,4.7E1,7E0,5E0,2.4E1,2.17E2,5.8E1,1.22E2],"tree_param":{"num_deleted":"0","num_feature":"60","num_nodes":"29","size_leaf_vector":"0"}},{"base_weights":[-6.6978816E-7,-1.0345822E-5,2.1533704E-4,-4.7143694E-5,5.8088335E-5,3.502242E-4,-1.6565889E-4,-8.942407E-6,-2.51739E-4,5.963794E-4,2.1223465E-5,1.9118935E-4,7.159465E-4,-1.0097504E-4,8.1554856E-5,-2.730226E-5,-4.2554253E-4,8.1564026E-4,3.8581715E-5,-1.4175102E-3,3.515636E-5,5.3394786E-5,-2.2503296E-4,-1.9044972E-4,1.6683784E-4,-1.6884504E-4,3.0599782E-4,1.7688889E-4,-5.770566E-4,2.2918172E-4,1.0342394E-3,1.652646E-4,-6.6092754E-5,-3.9622549E-4,1.5959969E-4,-4.1927477E-5,-4.6517365E-4,-4.4610302E-4,-1.5966809E-5,-4.2434218E-5,3.0170922E-4,6.852336E-4,2.1743278E-6,2.273385E-5,-7.345121E-4,5.5624545E-4,9.7982345E-5,-3.218513E-5,-1.00746E-3],"categories":[],"categories_nodes":[],"categories_segments":[],"categories_sizes":[],"default_left":[1,1,1,1,1,1,0,1,1,1,1,0,0,1,1,1,1,1,0,0,1,1,1,1,1,0,1,0,1,0,0,1,1,0,0,0,0,0,0,0,0,0,0,0,0,0,0,0,0],"id":98,"left_children":[1,3,5,7,9,11,-1,13,15,17,19,-1,-1,21,23,25,27,29,-1,-1,31,33,35,37,39,-1,41,-1,43,-1,-1,45,47,-1,-1,-1,-1,-1,-1,-1,-1,-1,-1,-1,-1,-1,-1,-1,-1],"loss_changes":[1.3649662E-6,1.576633E-6,1.4969787E-6,3.1787813E-6,4.333185E-6,1.0845331E-6,2.0215585E-7,2.8733084E-6,2.4848869E-6,1.6807762E-6,4.1792546E-6,2.940606E-7,6.88359E-7,3.2868024E-6,4.0681152E-6,1.4197767E-6,3.3880415E-6,1.0449644E-6,1.0659479E-8,0E0,2.7114584E-6,3.7401321E-6,4.1577487E-6,1.8663766E-6,3.7667025E-6,2.4719844E-7,1.0354968E-6,2.1304746E-7,2.755468E-6,9.32144E-9,0E0,2.3130442E-6,3.6702404E-6,0E0,0E0,0E0,0E0,0E0,0E0,0E0,0E0,0E0,0E0,0E0,0E0,0E0,0E0,0E0,0E0],"parents":[2147483647,0,0,1,1,2,2,3,3,4,4,5,5,7,7,8,8,9,9,10,10,13,13,14,14,15,15,16,16,17,17,20,20,21,21,22,22,23,23,24,24,26,26,28,28,31,31,32,32],"right_children":[2,4,6,8,10,12,-1,14,16,18,20,-1,-1,22,24,26,28,30,-1,-1,32,34,36,38,40,-1,42,-1,44,-1,-1,46,48,-1,-1,-1,-1,-1,-1,-1,-1,-1,-1,-1,-1,-1,-1,-1,-1],"split_conditions":[5.6249565E-1,1.030734E-1,2.0574388E-1,3.864891E-2,1.146717E-1,1.4273356E-1,-4.9697668E-5,-6.919696E-3,-3.3391677E-2,1.6173837E-1,1.1799222E-1,5.7356807E-5,2.1478396E-4,-2.2174802E-1,-1.8266502E-1,1.7859949E-1,-2.9863626E-1,-8.287894E-3,1.1574515E-5,-4.252531E-4,-5.8714498E-2,-2.4984303E-1,1.0722625E-1,-5.847419E-2,-7.955297E-2,-5.0653514E-5,-4.257423E-2,5.306667E-5,-1.9074014E-1,6.875452E-5,3.1027183E-4,-3.0660665E-1,6.223148E-1,-1.1886765E-4,4.787991E-5,-1.25782435E-5,-1.395521E-4,-1.3383091E-4,-4.790043E-6,-1.2730266E-5,9.051277E-5,2.0557009E-4,6.5229835E-7,6.8201552E-6,-2.2035364E-4,1.6687364E-4,2.9394705E-5,-9.6555395E-6,-3.0223804E-4],"split_indices":[57,51,40,51,51,10,0,26,26,13,51,0,0,26,44,24,18,6,0,0,37,45,5,37,29,0,3,0,54,0,0,10,44,0,0,0,0,0,0,0,0,0,0,0,0,0,0,0,0],"split_type":[0,0,0,0,0,0,0,0,0,0,0,0,0,0,0,0,0,0,0,0,0,0,0,0,0,0,0,0,0,0,0,0,0,0,0,0,0,0,0,0,0,0,0,0,0,0,0,0,0],"sum_hessian":[6.51E2,6.24E2,2.7E1,4.06E2,2.18E2,2E1,7E0,3.43E2,6.3E1,1.3E1,2.05E2,1.5E1,5E0,1.7E2,1.73E2,2.8E1,3.5E1,9E0,4E0,1E0,2.04E2,7.6E1,9.4E1,4.1E1,1.32E2,2E1,8E0,7E0,2.8E1,3E0,6E0,8.9E1,1.15E2,1.4E1,6.2E1,5.4E1,4E1,1.6E1,2.5E1,5.2E1,8E1,3E0,5E0,6E0,2.2E1,1.2E1,7.7E1,1.12E2,3E0],"tree_param":{"num_deleted":"0","num_feature":"60","num_nodes":"49","size_leaf_vector":"0"}},{"base_weights":[-8.0076705E-7,7.711239E-4,-3.1710415E-6,1.322115E-4,-1.6886888E-5,2.3569341E-4,-1.223404E-4,5.421338E-5,-5.221483E-5,1.6615962E-4,7.309184E-4,1.3502898E-5,4.583063E-4,1.3273265E-4,-8.498823E-5,3.794937E-4,1.7013575E-5,-2.5880453E-4,7.868959E-5,7.864453E-4,4.2784544E-5,-9.323188E-6,4.6471425E-4,-5.244933E-4,-6.431465E-5,-4.4536238E-4,-3.507492E-5,3.0810892E-4,-2.0133784E-6,1.9880058E-4,-1.823712E-4,1.9703805E-4,9.672269E-4,-2.835185E-4,-1.1162944E-3,1.5807732E-6,-1.7880739E-4],"categories":[],"categories_nodes":[],"categories_segments":[],"categories_sizes":[],"default_left":[1,0,1,1,1,1,0,1,1,1,0,1,1,1,1,0,0,1,1,0,0,1,1,1,1,0,0,0,0,0,0,0,0,0,0,0,0],"id":99,"left_children":[1,-1,3,5,7,9,-1,11,13,15,-1,17,19,21,23,-1,-1,25,27,-1,-1,29,31,33,35,-1,-1,-1,-1,-1,-1,-1,-1,-1,-1,-1,-1],"loss_changes":[1.1953922E-6,0E0,1.2110654E-6,1.6093259E-6,1.4898319E-6,1.3592505E-6,2.8895118E-7,3.2346225E-6,2.411578E-6,1.2344428E-6,2.4710016E-7,3.215513E-6,2.4206322E-6,2.8339277E-6,3.028297E-6,8.79093E-7,7.239565E-7,1.4452269E-6,2.703784E-6,7.68252E-7,4.5488366E-7,1.5849179E-6,2.2306117E-6,1.8226474E-6,2.4371716E-6,0E0,0E0,0E0,0E0,0E0,0E0,0E0,0E0,0E0,0E0,0E0,0E0],"parents":[2147483647,0,0,2,2,3,3,4,4,5,5,7,7,8,8,9,9,11,11,12,12,13,13,14,14,17,17,18,18,21,21,22,22,23,23,24,24],"right_children":[2,-1,4,6,8,10,-1,12,14,16,-1,18,20,22,24,-1,-1,26,28,-1,-1,30,32,34,36,-1,-1,-1,-1,-1,-1,-1,-1,-1,-1,-1,-1],"split_conditions":[-1.6304375E0,2.3133718E-4,-4.2357868E-1,9.359841E-2,-1.3114826E-1,5.093229E-1,-3.670212E-5,-1.535865E-1,-3.4487492E-1,6.246659E-3,2.1927552E-4,-1.9719619E-1,1.6475613E-1,-4.2737266E-1,-5.6123316E-1,1.1384811E-4,5.104073E-6,-5.359487E-2,-1.6991994E-1,2.3593359E-4,1.2835364E-5,3.4659933E-3,1.265573E-1,-8.385937E-2,8.09955E-2,-1.3360872E-4,-1.0522477E-5,9.243268E-5,-6.0401356E-7,5.9640177E-5,-5.471136E-5,5.911142E-5,2.901681E-4,-8.505555E-5,-3.3488835E-4,4.7423197E-7,-5.364222E-5],"split_indices":[44,0,35,34,33,8,0,33,20,54,0,36,19,20,5,0,0,12,49,0,0,23,15,42,36,0,0,0,0,0,0,0,0,0,0,0,0],"split_type":[0,0,0,0,0,0,0,0,0,0,0,0,0,0,0,0,0,0,0,0,0,0,0,0,0,0,0,0,0,0,0,0,0,0,0,0,0],"sum_hessian":[6.51E2,1E0,6.5E2,5.9E1,5.91E2,4.2E1,1.7E1,1.96E2,3.95E2,3.8E1,4E0,1.79E2,1.7E1,5.9E1,3.36E2,1.5E1,2.3E1,3.4E1,1.45E2,9E0,8E0,4.2E1,1.7E1,1.4E1,3.22E2,1.8E1,1.6E1,3.7E1,1.08E2,1.9E1,2.3E1,1.2E1,5E0,1.1E1,3E0,2.05E2,1.17E2],"tree_param":{"num_deleted":"0","num_feature":"60","num_nodes":"37","size_leaf_vector":"0"}}]},"name":"gbtree"},"learner_model_param":{"base_score":"5E-1","num_class":"0","num_feature":"60","num_target":"1"},"objective":{"name":"reg:squarederror","reg_loss_param":{"scale_pos_weight":"1"}}},"version":[1,6,1]}