{"learner":{"attributes":{"best_iteration":"99","best_ntree_limit":"100","scikit_learn":"{\"n_estimators\": 100, \"objective\": \"reg:squarederror\", \"max_depth\": null, \"max_leaves\": null, \"max_bin\": null, \"grow_policy\": null, \"learning_rate\": null, \"verbosity\": null, \"booster\": null, \"tree_method\": null, \"gamma\": null, \"min_child_weight\": null, \"max_delta_step\": null, \"subsample\": null, \"sampling_method\": null, \"colsample_bytree\": null, \"colsample_bylevel\": null, \"colsample_bynode\": null, \"reg_alpha\": null, \"reg_lambda\": null, \"scale_pos_weight\": null, \"base_score\": null, \"missing\": NaN, \"num_parallel_tree\": null, \"random_state\": null, \"n_jobs\": null, \"monotone_constraints\": null, \"interaction_constraints\": null, \"importance_type\": null, \"gpu_id\": null, \"validate_parameters\": null, \"predictor\": null, \"enable_categorical\": false, \"max_cat_to_onehot\": null, \"eval_metric\": null, \"early_stopping_rounds\": null, \"callbacks\": null, \"_estimator_type\": \"regressor\"}"},"feature_names":[],"feature_types":[],"gradient_booster":{"model":{"gbtree_model_param":{"num_parallel_tree":"1","num_trees":"100","size_leaf_vector":"0"},"tree_info":[0,0,0,0,0,0,0,0,0,0,0,0,0,0,0,0,0,0,0,0,0,0,0,0,0,0,0,0,0,0,0,0,0,0,0,0,0,0,0,0,0,0,0,0,0,0,0,0,0,0,0,0,0,0,0,0,0,0,0,0,0,0,0,0,0,0,0,0,0,0,0,0,0,0,0,0,0,0,0,0,0,0,0,0,0,0,0,0,0,0,0,0,0,0,0,0,0,0,0,0],"trees":[{"base_weights":[-6.02095E-1,1.6414466E0,-6.2874055E-1,9.357248E-2,2.5514565E0,2.4605646E0,-6.4205205E-1,3.7359813E-1,-3.732522E-1,7.535162E-1,2.8125625E0,2.999508E0,6.913389E-1,-6.1198294E-1,-1.962189E0,-6.334211E-1,1.150093E0,-3.27121E-1,-2.8342133E0,-4.94702E-1,-8.3762544E-1,6.526481E-2,2.936385E0,-6.3381684E-1,1.9084708E-1,-3.1598382E0,-1.14606604E-1,4.3161017E-1,-5.342774E-1,-2.7989786E0,-7.7043664E-1,2.4394655E-1,-1.9473244E-1,-1.8347788E-1,-7.227705E-1,2.875383E-1,-1.2676567E-3],"categories":[],"categories_nodes":[],"categories_segments":[],"categories_sizes":[],"default_left":[1,1,1,1,1,1,1,0,0,0,0,0,0,1,1,1,1,1,1,1,1,1,0,1,1,0,0,0,0,0,0,0,0,0,0,0,0],"id":0,"left_children":[1,3,5,7,9,11,13,-1,-1,-1,-1,-1,-1,15,17,19,21,23,25,27,29,31,-1,33,35,-1,-1,-1,-1,-1,-1,-1,-1,-1,-1,-1,-1],"loss_changes":[4.0367508E1,1.10299E1,2.8351135E1,6.623379E-1,2.2795486E-1,7.868595E-1,2.4561462E1,0E0,0E0,0E0,0E0,0E0,0E0,2.475386E1,1.903434E1,1.7403336E1,1.5310917E1,1.0741138E0,7.6080093E0,1.4051109E1,3.1184174E1,3.262449E-1,0E0,2.7624846E-2,5.609192E-2,0E0,0E0,0E0,0E0,0E0,0E0,0E0,0E0,0E0,0E0,0E0,0E0],"parents":[2147483647,0,0,1,1,2,2,3,3,4,4,5,5,6,6,13,13,14,14,15,15,16,16,17,17,18,18,19,19,20,20,21,21,23,23,24,24],"right_children":[2,4,6,8,10,12,14,-1,-1,-1,-1,-1,-1,16,18,20,22,24,26,28,30,32,-1,34,36,-1,-1,-1,-1,-1,-1,-1,-1,-1,-1,-1,-1],"split_conditions":[-4.44001E0,-1.14757314E-1,-6.0400743E0,-2.8597075E-1,-8.529124E-1,-3.536414E-1,3.5396128E0,1.1207944E-1,-1.1197567E-1,2.2605486E-1,8.437688E-1,8.998524E-1,2.0740168E-1,4.326862E0,-5.66527E-2,1.6437715E-1,1.9599463E-1,8.4241256E-2,1.9090208E0,-2.8265123E0,-2.5031962E0,-1.3953878E-1,8.809155E-1,-2.8494198E0,4.065934E-1,-9.479515E-1,-3.4381982E-2,1.2948306E-1,-1.6028322E-1,-8.396936E-1,-2.31131E-1,7.318397E-2,-5.8419734E-2,-5.5043366E-2,-2.1683116E-1,8.626149E-2,-3.8029702E-4],"split_indices":[56,7,33,0,4,0,17,0,0,0,0,0,0,11,14,13,2,0,0,21,25,4,0,0,0,0,0,0,0,0,0,0,0,0,0,0,0],"split_type":[0,0,0,0,0,0,0,0,0,0,0,0,0,0,0,0,0,0,0,0,0,0,0,0,0,0,0,0,0,0,0,0,0,0,0,0,0],"sum_hessian":[6.57E2,7E0,6.5E2,3E0,4E0,2E0,6.48E2,2E0,1E0,1E0,3E0,1E0,1E0,6.35E2,1.3E1,6.28E2,7E0,5E0,8E0,3.76E2,2.52E2,5E0,2E0,3E0,2E0,7E0,1E0,1.5E1,3.61E2,7E0,2.45E2,3E0,2E0,1E0,2E0,1E0,1E0],"tree_param":{"num_deleted":"0","num_feature":"60","num_nodes":"37","size_leaf_vector":"0"}},{"base_weights":[-4.2024627E-1,3.5518727E-1,-4.7234994E-1,-7.445303E-1,9.937167E-1,-6.605361E-1,-2.9901475E-1,3.448516E-1,-1.1363952E0,1.8275121E0,-2.0082024E-1,-4.5201403E-1,-1.022687E0,-1.8747329E0,-2.6327643E-1,-2.0776358E-1,5.349463E-1,-5.3380924E-1,-1.4905554E0,2.8157606E0,7.4601203E-1,-6.8971837E-1,4.030309E-1,-3.6001125E-1,-1.5763334E0,-1.4023459E0,-4.887404E-1,-2.2106543E-2,-2.1798196E0,-5.5393863E-2,-5.658077E-1,-1.9470647E-1,-6.5468407E-1,3.514277E0,4.8014134E-1,1.0041159E-2,1.112324E0,-1.9025318E-2,-7.983296E-1,7.6993674E-1,-2.2052048E-1,-2.214098E-1,-9.767988E-1,-5.575075E-1,-2.0804024E0,-1.7165214E0,-3.0349484E-1,4.840556E-1,-7.7240753E-1,-1.5684053E-1,8.096726E-1,-2.1907737E0,-4.6872988E-1,1.3257399E-1,5.87638E-1,-9.4235286E-2,1.6143525E-1,-3.066581E-1,4.850706E-1,-2.8024018E-1,-1.6558423E0,-4.619539E-3,-6.671612E-1,-4.4031632E-1,-2.2303736E0,-1.272272E0,-2.183713E0,-1.0396152E0,3.0276483E-1,1.298545E0,-1.6687334E-1,-9.859896E-1,2.5328803E-1,1.2477219E0,-2.2481391E-1,1.9888006E-1,1.534099E0,-2.8903615E0,-2.9453608E-1,3.185489E-1,-6.2469226E-1],"categories":[],"categories_nodes":[],"categories_segments":[],"categories_sizes":[],"default_left":[1,1,1,1,1,1,1,1,1,1,1,1,1,1,1,0,0,1,0,1,1,1,1,1,1,1,1,0,0,1,1,0,0,0,1,1,0,0,0,0,0,1,1,1,1,1,1,1,1,1,1,1,1,0,0,0,0,0,0,0,0,0,0,0,0,0,0,0,0,0,0,0,0,0,0,0,0,0,0,0,0],"id":1,"left_children":[1,3,5,7,9,11,13,15,17,19,21,23,25,27,29,-1,-1,31,-1,33,35,37,39,41,43,45,47,-1,-1,49,51,-1,-1,-1,53,55,-1,-1,-1,-1,-1,57,59,61,63,65,67,69,71,73,75,77,79,-1,-1,-1,-1,-1,-1,-1,-1,-1,-1,-1,-1,-1,-1,-1,-1,-1,-1,-1,-1,-1,-1,-1,-1,-1,-1,-1,-1],"loss_changes":[2.6752907E1,3.023234E1,1.9928574E1,7.2221384E0,2.7258986E1,2.1815094E1,1.769568E1,6.363884E-1,1.7652702E0,1.5000057E1,3.8206377E0,1.8982754E1,2.1005394E1,3.9082928E0,1.9905094E1,0E0,0E0,1.1846268E-1,0E0,1.1364395E1,2.4151855E0,4.9472523E-1,1.5424948E0,1.4829552E1,6.0299797E0,2.0883438E1,1.3067597E1,0E0,0E0,1.6713274E1,1.9322632E1,0E0,0E0,0E0,3.4181476E-2,7.8360245E-2,0E0,0E0,0E0,0E0,0E0,8.881556E0,1.4671762E1,3.6067522E-1,1.2316208E0,7.1840973E0,7.00896E0,6.0486155E0,8.136265E0,1.651089E1,8.544383E0,8.434776E0,1.5301653E1,0E0,0E0,0E0,0E0,0E0,0E0,0E0,0E0,0E0,0E0,0E0,0E0,0E0,0E0,0E0,0E0,0E0,0E0,0E0,0E0,0E0,0E0,0E0,0E0,0E0,0E0,0E0,0E0],"parents":[2147483647,0,0,1,1,2,2,3,3,4,4,5,5,6,6,7,7,8,8,9,9,10,10,11,11,12,12,13,13,14,14,17,17,19,19,20,20,21,21,22,22,23,23,24,24,25,25,26,26,29,29,30,30,34,34,35,35,41,41,42,42,43,43,44,44,45,45,46,46,47,47,48,48,49,49,50,50,51,51,52,52],"right_children":[2,4,6,8,10,12,14,16,18,20,22,24,26,28,30,-1,-1,32,-1,34,36,38,40,42,44,46,48,-1,-1,50,52,-1,-1,-1,54,56,-1,-1,-1,-1,-1,58,60,62,64,66,68,70,72,74,76,78,80,-1,-1,-1,-1,-1,-1,-1,-1,-1,-1,-1,-1,-1,-1,-1,-1,-1,-1,-1,-1,-1,-1,-1,-1,-1,-1,-1,-1],"split_conditions":[-2.2109385E0,-2.3977554E-1,-5.4977387E-2,-1.3507674E0,2.3937523E-1,2.4287039E-1,-3.0106475E0,2.6297748E-1,-1.0697446E0,2.4382816E-1,-3.4890667E-1,1.8895614E0,2.2426862E-1,-7.811482E-1,2.0191318E-1,-6.2329076E-2,1.604839E-1,-9.759106E-1,-4.4716665E-1,6.976503E-1,4.9940544E-1,4.0630525E-1,1.2200005E-1,6.968645E-1,-1.231386E-1,1.4783988E0,-1.043925E0,-6.6319634E-3,-6.539459E-1,1.3351173E0,-1.997159E0,-5.8411945E-2,-1.9640523E-1,1.0542831E0,-1.05014294E-1,1.0797875E-1,3.336972E-1,-5.7075955E-3,-2.3949888E-1,2.3098104E-1,-6.615615E-2,1.8155459E0,1.0960328E-1,-1.3918803E0,-5.1196938E0,-1.6215594E-2,-5.42013E-1,-3.1852365E-2,1.7915444E0,-2.3427987E0,-1.4628997E-1,5.7842135E-1,-1.1904482E0,3.9772198E-2,1.762914E-1,-2.8270587E-2,4.8430577E-2,-9.199743E-2,1.4552118E-1,-8.407205E-2,-4.967527E-1,-1.3858617E-3,-2.0014837E-1,-1.320949E-1,-6.691121E-1,-3.8168162E-1,-6.5511394E-1,-3.1188455E-1,9.0829454E-2,3.8956353E-1,-5.0062004E-2,-2.9579687E-1,7.5986415E-2,3.7431657E-1,-6.7444175E-2,5.9664022E-2,4.6022972E-1,-8.671085E-1,-8.836083E-2,9.556467E-2,-1.8740769E-1],"split_indices":[33,39,5,14,0,2,55,1,37,46,58,22,35,0,35,0,0,9,0,24,39,0,3,10,41,24,12,0,0,57,59,0,0,0,0,2,0,0,0,0,0,18,1,0,2,31,30,39,52,56,0,0,2,0,0,0,0,0,0,0,0,0,0,0,0,0,0,0,0,0,0,0,0,0,0,0,0,0,0,0,0],"split_type":[0,0,0,0,0,0,0,0,0,0,0,0,0,0,0,0,0,0,0,0,0,0,0,0,0,0,0,0,0,0,0,0,0,0,0,0,0,0,0,0,0,0,0,0,0,0,0,0,0,0,0,0,0,0,0,0,0,0,0,0,0,0,0,0,0,0,0,0,0,0,0,0,0,0,0,0,0,0,0,0,0],"sum_hessian":[6.57E2,4.1E1,6.16E2,1.5E1,2.6E1,2.94E2,3.22E2,4E0,1.1E1,1.5E1,1.1E1,1.88E2,1.06E2,6E0,3.16E2,1E0,3E0,5E0,6E0,7E0,8E0,6E0,5E0,1.75E2,1.3E1,6.1E1,4.5E1,1E0,5E0,1.88E2,1.28E2,2E0,3E0,5E0,2E0,3E0,5E0,1E0,5E0,3E0,2E0,1.44E2,3.1E1,5E0,8E0,4.7E1,1.4E1,1E1,3.5E1,1.69E2,1.9E1,6E0,1.22E2,1E0,1E0,2E0,1E0,1.29E2,1.5E1,1.6E1,1.5E1,1E0,4E0,1E0,7E0,2.6E1,2.1E1,6E0,8E0,4E0,6E0,2.9E1,6E0,7E0,1.62E2,1.1E1,8E0,4E0,2E0,2E1,1.02E2],"tree_param":{"num_deleted":"0","num_feature":"60","num_nodes":"81","size_leaf_vector":"0"}},{"base_weights":[-2.9813793E-1,-2.1223023E0,-2.8373587E-1,-1.3162812E0,-2.5909224E-1,-8.571531E-1,-2.364595E0,-2.2314116E-1,-9.826596E-1,-3.7030765E-1,-1.2822807E0,5.534228E-1,-2.5583443E-1,-2.2217746E-1,-1.6341953E0,-4.3048447E-1,-4.6233684E-3,-2.462582E-1,1.5935857E0,3.3515164E-1,-2.9391354E-1,-4.1473204E-1,6.862849E-1,-2.1973734E0,-3.293363E-1,5.3517437E-1,-4.8621422E-1,1.843491E0,3.1267494E-1,2.1188587E-2,1.2746866E0,-1.014445E0,-2.5636932E-1,-9.3023473E-1,-1.6705777E-1,-1.0234832E0,-2.509647E0,-6.6317165E-1,3.374301E-3],"categories":[],"categories_nodes":[],"categories_segments":[],"categories_sizes":[],"default_left":[1,0,1,1,1,1,0,1,1,1,0,1,1,1,1,0,0,1,1,1,1,1,0,1,1,0,0,0,0,0,0,0,0,0,0,0,0,0,0],"id":2,"left_children":[1,-1,3,5,7,9,-1,11,13,15,-1,17,19,21,23,-1,-1,25,27,29,31,33,-1,35,37,-1,-1,-1,-1,-1,-1,-1,-1,-1,-1,-1,-1,-1,-1],"loss_changes":[1.6684643E1,0E0,1.6300419E1,5.192833E0,1.642907E1,2.0088186E0,0E0,1.5653915E1,1.4501358E1,1.5204978E-1,0E0,2.1187397E1,1.3308483E1,2.9085531E0,1.1034218E1,0E0,0E0,3.0728512E0,2.9447556E0,1.0592244E1,1.467252E1,1.5043948E0,0E0,1.4637413E0,6.6866106E-1,0E0,0E0,0E0,0E0,0E0,0E0,0E0,0E0,0E0,0E0,0E0,0E0,0E0,0E0],"parents":[2147483647,0,0,2,2,3,3,4,4,5,5,7,7,8,8,9,9,11,11,12,12,13,13,14,14,17,17,18,18,19,19,20,20,21,21,23,23,24,24],"right_children":[2,-1,4,6,8,10,-1,12,14,16,-1,18,20,22,24,-1,-1,26,28,30,32,34,-1,36,38,-1,-1,-1,-1,-1,-1,-1,-1,-1,-1,-1,-1,-1,-1],"split_conditions":[-4.6069407E0,-6.3669074E-1,-3.123811E0,2.892313E-1,2.3604388E0,1.3117328E-1,-7.093785E-1,-2.2478194E0,-7.798427E-1,8.9080435E-1,-3.8468423E-1,3.3503562E-1,-2.2109385E0,3.0932531E0,4.0940517E-1,-1.2914535E-1,-1.3870106E-3,-8.2245755E-1,2.712407E0,3.9673054E-1,-2.7653127E0,-6.465075E-1,2.0588548E-1,-7.689844E-1,-1.4567523E-1,1.6055232E-1,-1.4586428E-1,5.530473E-1,9.380249E-2,6.3565765E-3,3.82406E-1,-3.043335E-1,-7.69108E-2,-2.7907044E-1,-5.0117332E-2,-3.0704495E-1,-7.528941E-1,-1.989515E-1,1.0122904E-3],"split_indices":[34,0,31,21,17,57,0,31,4,1,0,16,33,36,55,0,0,48,16,9,37,54,0,24,8,0,0,0,0,0,0,0,0,0,0,0,0,0,0],"split_type":[0,0,0,0,0,0,0,0,0,0,0,0,0,0,0,0,0,0,0,0,0,0,0,0,0,0,0,0,0,0,0,0,0,0,0,0,0,0,0],"sum_hessian":[6.57E2,4E0,6.53E2,1.4E1,6.39E2,1.1E1,3E0,6.1E2,2.9E1,6E0,5E0,2.4E1,5.86E2,1.4E1,1.5E1,5E0,1E0,1.4E1,1E1,3.5E1,5.51E2,1.2E1,2E0,1E1,5E0,3E0,1.1E1,8E0,2E0,2.7E1,8E0,2.6E1,5.25E2,3E0,9E0,3E0,7E0,2E0,3E0],"tree_param":{"num_deleted":"0","num_feature":"60","num_nodes":"39","size_leaf_vector":"0"}},{"base_weights":[-2.1260752E-1,-1.8907233E-1,-1.0889003E0,-4.42523E-1,-1.1157401E-1,-2.1700392E0,-1.1509919E-1,1.2091051E0,-4.9605465E-1,-1.6938378E-1,3.819547E-1,-3.099361E0,-9.92574E-1,-5.198545E-1,3.93627E-1,2.8690177E-1,1.3679305E0,-1.4067856E0,-4.0399826E-1,-1.140542E-1,-6.6727287E-1,1.3616612E0,1.9929677E-1,-4.7518317E-2,-6.0481805E-1,5.314828E-1,1.2456214E-1,9.328781E-2,-2.0838501E0,-3.2534486E-1,-1.1765288E0,-2.0390783E-1,2.0581387E-1,9.378523E-1,-8.9710563E-1,1.8643184E0,-9.754003E-2,7.968523E-1,-6.83618E-2,-2.8682128E-1,4.4230098E-1,-5.028666E-1,-2.2186148E0,-2.3786937E-1,-1.0472245E0,-1.4182644E0,2.1432469E-2,-6.3926846E-1,-1.0824985E-1,6.083746E-1,-1.4232789E-1,-8.823879E-3,1.1289523E0,-6.370484E-2,-1.2222378E0,1.0287498E-1,-2.4918503E-1,2.4655181E-1,9.9231726E-1,-3.2886878E-1,3.9322227E-1],"categories":[],"categories_nodes":[],"categories_segments":[],"categories_sizes":[],"default_left":[1,1,1,1,1,1,1,1,1,1,1,0,0,1,1,0,0,1,1,1,1,1,1,0,0,0,0,1,1,1,1,1,1,1,1,0,1,1,1,0,0,0,0,0,0,0,0,0,0,0,0,0,0,0,0,0,0,0,0,0,0],"id":3,"left_children":[1,3,5,7,9,11,13,15,17,19,21,-1,-1,23,25,-1,-1,27,29,31,33,35,37,-1,-1,-1,-1,39,41,43,45,47,49,51,53,-1,55,57,59,-1,-1,-1,-1,-1,-1,-1,-1,-1,-1,-1,-1,-1,-1,-1,-1,-1,-1,-1,-1,-1,-1],"loss_changes":[1.3364521E1,1.2560791E1,1.7648071E1,1.3861935E1,1.4130372E1,5.6776085E0,2.2637248E0,3.3988476E-1,1.16721E1,1.2100107E1,9.034086E0,0E0,0E0,2.1204829E-1,1.19258165E-1,0E0,0E0,1.3397802E1,7.75935E0,1.1509748E1,1.707341E1,6.0496683E0,7.251812E0,0E0,0E0,0E0,0E0,7.9017675E-1,8.018799E-1,7.517953E0,3.505474E0,1.2924266E1,1.241963E1,1.0954213E0,1.048979E1,0E0,1.16810694E-1,1.2612457E0,3.9771867E0,0E0,0E0,0E0,0E0,0E0,0E0,0E0,0E0,0E0,0E0,0E0,0E0,0E0,0E0,0E0,0E0,0E0,0E0,0E0,0E0,0E0,0E0],"parents":[2147483647,0,0,1,1,2,2,3,3,4,4,5,5,6,6,7,7,8,8,9,9,10,10,13,13,14,14,17,17,18,18,19,19,20,20,21,21,22,22,27,27,28,28,29,29,30,30,31,31,32,32,33,33,34,34,36,36,37,37,38,38],"right_children":[2,4,6,8,10,12,14,16,18,20,22,-1,-1,24,26,-1,-1,28,30,32,34,36,38,-1,-1,-1,-1,40,42,44,46,48,50,52,54,-1,56,58,60,-1,-1,-1,-1,-1,-1,-1,-1,-1,-1,-1,-1,-1,-1,-1,-1,-1,-1,-1,-1,-1,-1],"split_conditions":[3.1444821E0,-7.464597E-1,-3.7178002E-2,-3.3426857E0,1.4339473E0,3.5605404E0,2.5548202E-1,-8.639331E-1,-1.6119131E0,1.6662762E0,-2.1886935E0,-9.298083E-1,-2.977722E-1,-3.656152E-1,-9.773524E-1,8.607054E-2,4.1037917E-1,-1.2602539E0,1.8792266E0,6.790916E-1,-1.8555889E0,1.1331267E0,1.8080055E0,-1.4255496E-2,-1.8144542E-1,1.5944485E-1,3.7368644E-2,-9.095668E-1,-2.0561758E-1,2.1757214E0,1.1019932E0,-1.0453004E0,2.6351082E-1,-1.522769E-1,-4.484266E-1,5.5929554E-1,-1.0248169E-1,-2.026692E0,1.684019E-1,-8.604638E-2,1.326903E-1,-1.5086E-1,-6.6558444E-1,-7.136081E-2,-3.1416738E-1,-4.2547932E-1,6.4297407E-3,-1.9178055E-1,-3.2474957E-2,1.8251239E-1,-4.269837E-2,-2.6471638E-3,3.386857E-1,-1.9111453E-2,-3.6667135E-1,3.0862495E-2,-7.475551E-2,7.396555E-2,2.976952E-1,-9.866064E-2,1.1796669E-1],"split_indices":[1,46,32,50,9,1,40,0,50,17,52,0,0,6,2,0,0,5,38,50,32,4,9,0,0,0,0,1,0,23,4,48,46,2,14,0,0,3,7,0,0,0,0,0,0,0,0,0,0,0,0,0,0,0,0,0,0,0,0,0,0],"split_type":[0,0,0,0,0,0,0,0,0,0,0,0,0,0,0,0,0,0,0,0,0,0,0,0,0,0,0,0,0,0,0,0,0,0,0,0,0,0,0,0,0,0,0,0,0,0,0,0,0,0,0,0,0,0,0,0,0,0,0,0,0],"sum_hessian":[6.57E2,6.41E2,1.6E1,1.49E2,4.92E2,7E0,9E0,4E0,1.45E2,4.41E2,5.1E1,3E0,4E0,5E0,4E0,1E0,3E0,1.2E1,1.33E2,3.98E2,4.3E1,7E0,4.4E1,1E0,4E0,2E0,2E0,4E0,8E0,1.22E2,1.1E1,3.11E2,8.7E1,5E0,3.8E1,5E0,2E0,1.3E1,3.1E1,2E0,2E0,1E0,7E0,1.1E2,1.2E1,9E0,2E0,5.5E1,2.56E2,4E1,4.7E1,1E0,4E0,1.1E1,2.7E1,1E0,1E0,4E0,9E0,2E1,1.1E1],"tree_param":{"num_deleted":"0","num_feature":"60","num_nodes":"61","size_leaf_vector":"0"}},{"base_weights":[-1.5115385E-1,9.949499E-1,-1.6500589E-1,-3.1035382E-1,1.2257581E0,-1.4804921E0,-1.5458481E-1,5.670154E-1,1.5780613E0,-8.6161506E-1,-1.3644071E-1,-5.5896956E-1,-1.6298093E0,-1.1695803E-1,-8.343754E-1,-2.1060385E-1,-8.274825E-1,9.615351E-1,-1.3093337E-1,-1.672475E0,-8.045817E-2,-3.6722586E-2,-3.3183414E-1,1.2895249E0,3.1116417E-1,4.686421E-1,-1.5633245E-1,-5.599481E-1,-2.2280016E0,-3.9651492E-1,3.149016E-1],"categories":[],"categories_nodes":[],"categories_segments":[],"categories_sizes":[],"default_left":[1,1,1,0,1,0,1,0,0,1,1,1,0,1,1,1,0,1,1,1,1,0,0,0,0,0,0,0,0,0,0],"id":4,"left_children":[1,3,5,-1,7,-1,9,-1,-1,11,13,15,-1,17,19,21,-1,23,25,27,29,-1,-1,-1,-1,-1,-1,-1,-1,-1,-1],"loss_changes":[1.06104965E1,2.790618E0,8.695557E0,0E0,7.297554E-1,0E0,8.182432E0,0E0,0E0,2.808834E0,8.4961195E0,1.0417581E0,0E0,9.410445E0,1.0607017E1,1.3537192E-1,0E0,1.3052664E0,9.347515E0,3.6967392E0,1.3744243E0,0E0,0E0,0E0,0E0,0E0,0E0,0E0,0E0,0E0,0E0],"parents":[2147483647,0,0,1,1,2,2,4,4,6,6,9,9,10,10,11,11,13,13,14,14,15,15,17,17,18,18,19,19,20,20],"right_children":[2,4,6,-1,8,-1,10,-1,-1,12,14,16,-1,18,20,22,-1,24,26,28,30,-1,-1,-1,-1,-1,-1,-1,-1,-1,-1],"split_conditions":[-4.44001E0,-1.24891475E-1,-4.6069407E0,-9.310615E-2,2.5937334E-6,-4.4414765E-1,-3.0873344E0,1.7010462E-1,4.734184E-1,2.892313E-1,3.1444821E0,1.3117328E-1,-4.889428E-1,-3.8599749E0,-3.7178002E-2,3.4084457E-1,-2.4824476E-1,-9.0860367E-1,-2.2478194E0,-5.627912E-1,2.5548202E-1,-1.1016776E-2,-9.955025E-2,3.8685748E-1,9.3349256E-2,1.4059263E-1,-4.6899736E-2,-1.6798443E-1,-6.684005E-1,-1.1895448E-1,9.447048E-2],"split_indices":[56,1,34,0,4,0,31,0,0,21,1,57,0,35,32,18,0,37,31,13,40,0,0,0,0,0,0,0,0,0,0],"split_type":[0,0,0,0,0,0,0,0,0,0,0,0,0,0,0,0,0,0,0,0,0,0,0,0,0,0,0,0,0,0,0],"sum_hessian":[6.57E2,7E0,6.5E2,1E0,6E0,4E0,6.46E2,3E0,3E0,1.5E1,6.31E2,1.2E1,3E0,6.15E2,1.6E1,6E0,6E0,7E0,6.08E2,7E0,9E0,3E0,3E0,4E0,3E0,2.4E1,5.84E2,3E0,4E0,5E0,4E0],"tree_param":{"num_deleted":"0","num_feature":"60","num_nodes":"31","size_leaf_vector":"0"}},{"base_weights":[-1.073707E-1,-6.827954E-2,-4.5117053E-1,2.2351174E-1,-1.2380543E-1,-7.246944E-1,3.733724E-2,3.6600286E-1,-7.9255193E-1,-1.2241571E0,-1.0562495E-1,-1.1007984E0,-3.1564966E-1,1.6322647E0,-1.7232014E-1,8.2830536E-1,1.7811328E-1,-1.2275152E-1,-1.1121082E0,-1.8598958E0,-1.2344435E-1,-1.35965E-1,4.2081022E-1,-1.3342074E0,-4.0366083E-2,-9.806825E-1,-6.236455E-2,7.229434E-2,-8.7744355E-1,-5.4636127E-1,9.7810966E-1,3.896329E-2,6.4247656E-1,-2.2995956E-1,1.5304032E-1,-1.2961029E0,-3.734161E-1,5.0388806E-2,-1.9818501E-1,-7.7528054E-1,-1.11456476E-1,-6.665753E-1,8.3472395E-1,-5.7696533E-1,-1.4471915E0,-9.581203E-2,9.070885E-2,1.5325867E-1,-2.2862667E-1,-4.1004366E-1,2.8935075E-1,-1.1878552E0,-4.2527393E-1,3.767244E-2,1.1850028E0,-1.6149019E-1,3.820241E-1,9.342329E-1,2.1725841E-1,-1.0034563E-1,-1.3640732E0,4.857744E-1,-1.433648E-1,3.184442E-1,-8.5278445E-1,2.8866956E-1,1.3519114E0,-9.084597E-1,-1.7054061E0,-1.4563939E-1,-3.065645E-2,2.3246868E-1,-5.6247592E-2,-4.0425482E-1,-4.416541E-2,-1.8173864E-1,-5.777691E-1,6.391516E-1,6.2866904E-2],"categories":[],"categories_nodes":[],"categories_segments":[],"categories_sizes":[],"default_left":[1,1,1,1,1,1,1,1,1,1,1,1,1,0,1,1,1,1,1,0,1,1,1,1,1,0,1,1,1,0,1,1,1,0,0,0,0,0,0,1,1,1,1,0,1,1,0,1,1,1,1,0,0,0,0,0,0,0,0,0,0,0,0,0,0,0,0,0,0,0,0,0,0,0,0,0,0,0,0],"id":5,"left_children":[1,3,5,7,9,11,13,15,17,19,21,23,25,-1,27,29,31,33,35,-1,37,39,41,43,45,-1,47,49,51,-1,53,55,57,-1,-1,-1,-1,-1,-1,59,61,63,65,-1,67,69,-1,71,73,75,77,-1,-1,-1,-1,-1,-1,-1,-1,-1,-1,-1,-1,-1,-1,-1,-1,-1,-1,-1,-1,-1,-1,-1,-1,-1,-1,-1,-1],"loss_changes":[8.812406E0,9.619239E0,8.979497E0,1.404418E1,9.833151E0,6.2677994E0,8.640981E0,7.148861E0,2.431954E0,5.368531E0,7.8995028E0,5.391464E0,3.644584E0,0E0,4.030553E0,5.4767456E0,3.9165518E0,1.8302861E-1,6.033373E-1,0E0,6.1955925E-2,7.1995277E0,1.2708669E1,7.0503235E-1,4.5028865E-2,0E0,6.444885E-1,2.0031486E0,3.3698845E-1,0E0,4.235897E0,3.362544E0,1.5338717E0,0E0,0E0,0E0,0E0,0E0,0E0,6.618867E0,8.626072E0,1.7389214E0,5.2579937E0,0E0,5.3733444E-1,8.521337E-3,0E0,1.4583577E-1,3.0611187E-1,1.247524E-1,9.897336E-1,0E0,0E0,0E0,0E0,0E0,0E0,0E0,0E0,0E0,0E0,0E0,0E0,0E0,0E0,0E0,0E0,0E0,0E0,0E0,0E0,0E0,0E0,0E0,0E0,0E0,0E0,0E0,0E0],"parents":[2147483647,0,0,1,1,2,2,3,3,4,4,5,5,6,6,7,7,8,8,9,9,10,10,11,11,12,12,14,14,15,15,16,16,17,17,18,18,20,20,21,21,22,22,23,23,24,24,26,26,27,27,28,28,30,30,31,31,32,32,39,39,40,40,41,41,42,42,44,44,45,45,47,47,48,48,49,49,50,50],"right_children":[2,4,6,8,10,12,14,16,18,20,22,24,26,-1,28,30,32,34,36,-1,38,40,42,44,46,-1,48,50,52,-1,54,56,58,-1,-1,-1,-1,-1,-1,60,62,64,66,-1,68,70,-1,72,74,76,78,-1,-1,-1,-1,-1,-1,-1,-1,-1,-1,-1,-1,-1,-1,-1,-1,-1,-1,-1,-1,-1,-1,-1,-1,-1,-1,-1,-1],"split_conditions":[1.5199404E0,-1.1415538E0,3.5124728E-1,1.3735222E0,-3.027728E0,2.6715886E-2,-2.701986E0,-7.9181266E-1,-1.259491E0,2.7756318E-1,2.3433113E0,6.6637886E-1,-1.1852376E0,4.8967943E-1,6.9883573E-1,-1.6035563E0,6.9842166E-1,-1.438168E0,9.174588E-1,-5.579688E-1,-9.25892E-2,-2.701986E0,-8.6862457E-1,-1.5555754E0,-7.507642E-2,-2.9420477E-1,-6.220937E-1,-6.663202E-1,4.8089337E-1,-1.6390839E-1,-1.194291E0,3.5604006E-1,2.6708263E-1,-6.898787E-2,4.59121E-2,-3.8883087E-1,-1.12024836E-1,1.5116642E-2,-5.9455507E-2,-1.2011103E-1,-2.346728E0,-1.1618398E-1,4.4704676E-2,-1.7308961E-1,7.1400896E-2,-2.0057652E0,2.7212657E-2,2.4243939E-1,2.384152E-1,-2.682265E-1,-9.0956056E-1,-3.563566E-1,-1.2758218E-1,1.1301733E-2,3.5550085E-1,-4.8447058E-2,1.1460724E-1,2.802699E-1,6.517752E-2,-3.0103689E-2,-4.0922198E-1,1.4573233E-1,-4.300944E-2,9.553326E-2,-2.5583535E-1,8.660087E-2,4.0557346E-1,-2.7253792E-1,-5.1162183E-1,-4.3691818E-2,-9.196935E-3,6.974061E-2,-1.6874278E-2,-1.2127645E-1,-1.3249624E-2,-5.4521594E-2,-1.7333074E-1,1.9174547E-1,1.8860072E-2],"split_indices":[59,35,24,38,57,55,47,19,0,11,18,27,37,0,48,31,32,0,3,0,1,41,54,3,10,0,12,25,7,0,42,21,10,0,0,0,0,0,0,19,51,19,4,0,21,0,0,32,25,0,31,0,0,0,0,0,0,0,0,0,0,0,0,0,0,0,0,0,0,0,0,0,0,0,0,0,0,0,0],"split_type":[0,0,0,0,0,0,0,0,0,0,0,0,0,0,0,0,0,0,0,0,0,0,0,0,0,0,0,0,0,0,0,0,0,0,0,0,0,0,0,0,0,0,0,0,0,0,0,0,0,0,0,0,0,0,0,0,0,0,0,0,0,0,0,0,0,0,0,0,0,0,0,0,0,0,0,0,0,0,0],"sum_hessian":[6.57E2,5.91E2,6.6E1,9.4E1,4.97E2,4.2E1,2.4E1,8.3E1,1.1E1,7E0,4.9E2,2.1E1,2.1E1,2E0,2.2E1,2.3E1,6E1,4E0,7E0,4E0,3E0,4.64E2,2.6E1,1.7E1,4E0,5E0,1.6E1,1.7E1,5E0,2E0,2.1E1,4.7E1,1.3E1,3E0,1E0,5E0,2E0,1E0,2E0,1.6E1,4.48E2,7E0,1.9E1,3E0,1.4E1,3E0,1E0,7E0,9E0,5E0,1.2E1,2E0,3E0,4E0,1.7E1,3E1,1.7E1,7E0,6E0,8E0,8E0,2.2E1,4.26E2,1E0,6E0,1E1,9E0,6E0,8E0,1E0,2E0,5E0,2E0,4E0,5E0,3E0,2E0,4E0,8E0],"tree_param":{"num_deleted":"0","num_feature":"60","num_nodes":"79","size_leaf_vector":"0"}},{"base_weights":[-7.8026906E-2,-1.7707592E-2,-2.2761448E-1,1.6707192E-1,-1.1181732E-1,-6.850548E-1,-1.4380465E-1,-2.1111324E-2,4.7792616E-1,-7.340529E-1,-3.8083065E-2,-1.5805713E0,-1.305423E-1,1.2181284E0,-1.6859707E-1,-6.3806474E-1,9.526946E-2,2.466204E-1,1.0039384E0,-2.7719104E-1,-2.1270974E0,-2.7658802E-1,1.1787066E-1,-2.1918442E0,3.7117206E-2,-2.9697138E-1,3.9485338E-1,-6.460786E-2,-5.220989E-1,8.886011E-1,-9.196314E-1,-6.522142E-1,1.7071305E-1,-2.859424E-1,4.3862456E-1,1.627402E0,6.3896E-1,-1.0655488E-1,-1.1890513E0,-5.6808805E-1,-2.9488854E0,-6.7129815E-1,-8.598074E-2,2.018464E-1,-3.7726256E-1,1.9837908E-1,-8.276311E-2,-4.6458867E-1,3.1886034E-2,7.681334E-2,-3.0607888E-1,-9.439681E-1,4.9295514E-3,-1.1206652E0,1.910477E-1,1.360503E-1,-9.376441E-1,6.2102437E-1,3.5035722E-2,-5.0410837E-1,5.365916E-1,1.1407497E0,2.663514E-1,1.8752239E0,1.941463E-1,7.364295E-1,6.858501E-2,-5.3975314E-1,1.1670393E-1,-4.4653788E-1,-1.7206765E0,-2.7671808E-1,2.5088033E-1,9.848027E-2,6.339437E-1,-1.9537708E-1,-1.2833171E0,-1.15164354E-1,-8.980319E-3,-5.615203E-1,-1.7881124E-1,1.9283453E-1,-9.679685E-2,-2.555774E-1,2.747115E-1,-8.6429036E-1,-8.3642766E-2,-1.1945645E0,-1.6014922E-1,8.288328E-1,-1.6017973E-1],"categories":[],"categories_nodes":[],"categories_segments":[],"categories_sizes":[],"default_left":[1,1,1,1,1,1,1,1,1,1,1,1,1,0,1,1,1,1,1,1,1,1,1,0,1,1,0,1,1,0,1,1,1,1,1,1,1,1,0,0,0,1,1,1,1,0,1,1,1,1,1,1,1,0,0,0,0,0,0,0,0,0,0,0,0,0,0,0,0,0,0,0,0,0,0,0,0,0,0,0,0,0,0,0,0,0,0,0,0,0,0],"id":6,"left_children":[1,3,5,7,9,11,13,15,17,19,21,23,25,-1,27,29,31,33,35,37,39,41,43,-1,45,47,-1,49,51,-1,53,55,57,59,61,63,65,67,-1,-1,-1,69,71,73,75,-1,77,79,81,83,85,87,89,-1,-1,-1,-1,-1,-1,-1,-1,-1,-1,-1,-1,-1,-1,-1,-1,-1,-1,-1,-1,-1,-1,-1,-1,-1,-1,-1,-1,-1,-1,-1,-1,-1,-1,-1,-1,-1,-1],"loss_changes":[5.9331164E0,8.1917715E0,7.1473656E0,9.311201E0,1.428663E1,1.4194346E1,5.6416373E0,7.24094E0,7.0525885E0,2.0412542E1,1.0447407E1,1.0958694E1,1.7786416E0,0E0,5.811168E0,7.6949162E0,4.904734E0,4.5223556E0,3.0560684E0,3.9188051E0,8.574177E0,8.293324E0,7.1446104E0,0E0,9.3746975E-2,8.416468E-1,0E0,4.258002E0,8.008789E0,0E0,3.3400774E0,1.927521E0,4.7438107E0,2.4238875E0,3.5667934E0,1.7670851E0,6.722164E-1,2.2874439E0,0E0,0E0,0E0,7.722561E0,4.9525733E0,6.4585457E0,3.8692236E0,0E0,6.137749E-3,1.766026E-1,1.4293368E-1,5.2667913E0,5.6393623E0,3.737135E0,2.4453413E0,0E0,0E0,0E0,0E0,0E0,0E0,0E0,0E0,0E0,0E0,0E0,0E0,0E0,0E0,0E0,0E0,0E0,0E0,0E0,0E0,0E0,0E0,0E0,0E0,0E0,0E0,0E0,0E0,0E0,0E0,0E0,0E0,0E0,0E0,0E0,0E0,0E0,0E0],"parents":[2147483647,0,0,1,1,2,2,3,3,4,4,5,5,6,6,7,7,8,8,9,9,10,10,11,11,12,12,14,14,15,15,16,16,17,17,18,18,19,19,20,20,21,21,22,22,24,24,25,25,27,27,28,28,30,30,31,31,32,32,33,33,34,34,35,35,36,36,37,37,41,41,42,42,43,43,44,44,46,46,47,47,48,48,49,49,50,50,51,51,52,52],"right_children":[2,4,6,8,10,12,14,16,18,20,22,24,26,-1,28,30,32,34,36,38,40,42,44,-1,46,48,-1,50,52,-1,54,56,58,60,62,64,66,68,-1,-1,-1,70,72,74,76,-1,78,80,82,84,86,88,90,-1,-1,-1,-1,-1,-1,-1,-1,-1,-1,-1,-1,-1,-1,-1,-1,-1,-1,-1,-1,-1,-1,-1,-1,-1,-1,-1,-1,-1,-1,-1,-1,-1,-1,-1,-1,-1,-1],"split_conditions":[4.3161488E-1,-3.7788528E-1,-1.3480952E0,8.551527E-2,-2.1714634E-1,9.506227E-1,-2.8670025E0,-1.2424706E0,5.0707173E-1,6.928715E-1,-1.6779782E-1,3.6209044E-1,9.810146E-1,3.6543855E-1,5.347438E-1,-2.554861E0,-1.8915952E0,-7.640574E-1,-3.6614022E-1,-2.3451397E-1,9.577526E-2,-4.193625E-1,1.3612262E0,-6.575533E-1,-4.425522E-1,1.3281887E0,1.1845602E-1,3.381214E-1,-1.3556772E-1,2.6658034E-1,1.2365938E0,-1.9459229E0,-1.0633937E0,9.5999473E-1,-6.737312E-1,2.1727614E-2,1.4361551E0,-2.4189016E-1,-3.5671538E-1,-1.7042643E-1,-8.8466567E-1,9.3230534E-1,3.1423312E-1,4.3230918E-1,1.2048786E0,5.951373E-2,-1.8561387E0,1.9836387E-1,9.306689E-1,-2.507663E-1,-9.267936E-1,3.3441386E-1,-1.0203769E0,-3.3619958E-1,5.731431E-2,4.0815093E-2,-2.8129324E-1,1.8630731E-1,1.0510717E-2,-1.5123251E-1,1.6097748E-1,3.4222493E-1,7.990542E-2,5.625672E-1,5.8243893E-2,2.2092886E-1,2.0575503E-2,-1.6192594E-1,3.501118E-2,-1.3396136E-1,-5.16203E-1,-8.301543E-2,7.52641E-2,2.9544082E-2,1.9018312E-1,-5.8613125E-2,-3.8499513E-1,-3.4549307E-2,-2.6940957E-3,-1.6845609E-1,-5.3643372E-2,5.785036E-2,-2.9039055E-2,-7.667322E-2,8.241345E-2,-2.5928712E-1,-2.509283E-2,-3.5836935E-1,-4.8044767E-2,2.4864985E-1,-4.8053924E-2],"split_indices":[3,59,22,39,59,3,13,46,21,53,53,6,12,0,41,51,49,40,19,59,2,36,1,0,1,39,0,10,59,0,56,3,53,52,52,3,57,16,0,0,0,7,43,1,18,0,0,5,0,24,6,8,17,0,0,0,0,0,0,0,0,0,0,0,0,0,0,0,0,0,0,0,0,0,0,0,0,0,0,0,0,0,0,0,0,0,0,0,0,0,0],"split_type":[0,0,0,0,0,0,0,0,0,0,0,0,0,0,0,0,0,0,0,0,0,0,0,0,0,0,0,0,0,0,0,0,0,0,0,0,0,0,0,0,0,0,0,0,0,0,0,0,0,0,0,0,0,0,0,0,0,0,0,0,0,0,0,0,0,0,0,0,0,0,0,0,0,0,0,0,0,0,0,0,0,0,0,0,0,0,0,0,0,0,0],"sum_hessian":[6.57E2,4.69E2,1.88E2,1.58E2,3.11E2,2.8E1,1.6E2,9.9E1,5.9E1,3.2E1,2.79E2,1E1,1.8E1,2E0,1.58E2,1.5E1,8.4E1,4.2E1,1.7E1,2.5E1,7E0,1.1E2,1.69E2,7E0,3E0,1.4E1,4E0,1.23E2,3.5E1,2E0,1.3E1,7E0,7.7E1,1.1E1,3.1E1,5E0,1.2E1,2.2E1,3E0,3E0,4E0,3.5E1,7.5E1,1.45E2,2.4E1,1E0,2E0,9E0,5E0,7.8E1,4.5E1,1.9E1,1.6E1,1.1E1,2E0,2E0,5E0,1.7E1,6E1,9E0,2E0,5E0,2.6E1,4E0,1E0,1E1,2E0,7E0,1.5E1,3E1,5E0,4.8E1,2.7E1,1.18E2,2.7E1,2.1E1,3E0,1E0,1E0,6E0,3E0,2E0,3E0,2.9E1,4.9E1,1.2E1,3.3E1,1.4E1,5E0,2E0,1.4E1],"tree_param":{"num_deleted":"0","num_feature":"60","num_nodes":"91","size_leaf_vector":"0"}},{"base_weights":[-5.767571E-2,8.308091E-2,-1.088465E-1,-5.938572E-1,1.4071314E-1,-5.3125024E-1,-8.657142E-2,4.1609424E-1,-1.0394472E0,1.1159216E0,8.31803E-2,-9.1256016E-1,-1.3840644E-1,-6.621253E-2,-6.473924E-1,-1.1561659E-1,8.09107E-1,-4.6838707E-1,-1.51683E0,1.3778236E0,1.328429E-1,1.8936233E-1,-3.3087447E-1,-1.129058E0,-1.9730012E-1,1.3725631E-1,-4.8288903E-1,4.7381073E-1,-9.00866E-2,-1.8397853E-1,-1.2169276E0,-1.6369826E-1,-9.726629E-3,-5.1365167E-1,-1.21032074E-1,2.3696333E-1,-3.769899E-2,1.1870337E-1,9.830042E-1,1.7748982E-2,-6.3952744E-1,-6.680612E-1,-1.3642431E0,-2.9525556E-2,-2.4338312E-1,-1.6964638E-1,3.553272E-1,-1.1406086E-1,-5.338425E-1,1.175139E0,5.9725475E-2,1.7144404E-1,-1.4720276E-1,-3.3768976E-1,1.3101077E-1,-5.76397E-1,-1.5532262E0,3.0890372E-1,-1.7301338E-2,2.4908194E-1,1.6671101E0,-2.0323789E-1,5.445677E-1,-9.620633E-1,-4.1324366E-2,1.6237572E-3,-2.2727768E-1,3.9767274E-1,9.297251E-2,5.9791154E-1,1.7454718E0,-1.8625982E-1,9.417631E-1,2.271606E-1,-9.021733E-1,1.3276342E-1,-2.1009684E-1,-1.6014715E-1,-4.3080992E-1],"categories":[],"categories_nodes":[],"categories_segments":[],"categories_sizes":[],"default_left":[1,1,1,1,1,1,1,1,1,1,1,1,1,1,1,1,0,1,0,0,1,1,1,1,1,1,1,1,1,1,1,0,0,0,0,0,0,1,1,1,1,0,0,0,0,1,1,0,0,1,1,1,1,1,0,0,0,0,0,0,0,0,0,0,0,0,0,0,0,0,0,0,0,0,0,0,0,0,0],"id":7,"left_children":[1,3,5,7,9,11,13,15,17,19,21,23,25,27,29,31,-1,33,-1,-1,35,37,39,41,43,45,47,49,51,53,55,-1,-1,-1,-1,-1,-1,57,59,61,63,-1,-1,-1,-1,65,67,-1,-1,69,71,73,75,77,-1,-1,-1,-1,-1,-1,-1,-1,-1,-1,-1,-1,-1,-1,-1,-1,-1,-1,-1,-1,-1,-1,-1,-1,-1],"loss_changes":[4.7483716E0,6.9499316E0,4.498593E0,6.7328477E0,9.052538E0,3.468781E0,5.2092733E0,1.1383917E0,2.0156794E0,2.1341982E0,6.8772573E0,1.6354637E0,1.3007729E0,5.779871E0,3.9989996E0,1.3681866E-2,0E0,3.2168865E-2,0E0,0E0,6.2203966E-2,6.836976E0,3.4546688E0,6.4377785E-2,2.3740202E-2,5.9569234E-1,5.1867843E-2,5.447598E0,6.4036036E0,5.2841496E-1,6.1259174E-1,0E0,0E0,0E0,0E0,0E0,0E0,2.980181E0,4.6055574E0,1.9733971E0,3.2402568E0,0E0,0E0,0E0,0E0,3.9851137E-2,1.8575132E-2,0E0,0E0,1.2608452E0,2.9960003E0,4.8109446E0,6.208376E0,4.6736598E-2,0E0,0E0,0E0,0E0,0E0,0E0,0E0,0E0,0E0,0E0,0E0,0E0,0E0,0E0,0E0,0E0,0E0,0E0,0E0,0E0,0E0,0E0,0E0,0E0,0E0],"parents":[2147483647,0,0,1,1,2,2,3,3,4,4,5,5,6,6,7,7,8,8,9,9,10,10,11,11,12,12,13,13,14,14,15,15,17,17,20,20,21,21,22,22,23,23,24,24,25,25,26,26,27,27,28,28,29,29,30,30,37,37,38,38,39,39,40,40,45,45,46,46,49,49,50,50,51,51,52,52,53,53],"right_children":[2,4,6,8,10,12,14,16,18,20,22,24,26,28,30,32,-1,34,-1,-1,36,38,40,42,44,46,48,50,52,54,56,-1,-1,-1,-1,-1,-1,58,60,62,64,-1,-1,-1,-1,66,68,-1,-1,70,72,74,76,78,-1,-1,-1,-1,-1,-1,-1,-1,-1,-1,-1,-1,-1,-1,-1,-1,-1,-1,-1,-1,-1,-1,-1,-1,-1],"split_conditions":[-6.4602685E-1,-2.3945007E0,-2.3506236E0,1.02840155E-1,-2.3774211E0,5.0304364E-3,3.0010996E0,6.5054804E-2,-2.9146978E-1,8.7453806E-1,9.6128166E-1,1.0102344E0,7.509251E-1,-1.8505142E0,2.8361964E-1,-9.102949E-2,2.4273211E-1,3.5137248E0,-4.55049E-1,4.133471E-1,2.4836272E-2,1.759392E0,1.6545431E-1,8.584839E-2,-1.6258414E0,1.822423E-1,-1.6149861E0,-4.2805478E-2,-1.0423515E0,2.126994E-1,-3.215326E-1,-4.9109478E-2,-2.9179887E-3,-1.540955E-1,-3.6309622E-2,7.1089E-2,-1.1309698E-2,-1.0638471E-1,-5.5196285E-1,1.9674003E-1,1.3824584E0,-2.0041837E-1,-4.0927297E-1,-8.857667E-3,-7.301494E-2,1.3871922E-1,3.635662E0,-3.421826E-2,-1.6015276E-1,-7.7073216E-1,1.6972656E0,3.2368143E0,-8.788309E-1,-6.113451E-1,3.9303232E-2,-1.7291911E-1,-4.659679E-1,9.267112E-2,-5.1904013E-3,7.4724585E-2,5.0013304E-1,-6.0971368E-2,1.6337031E-1,-2.88619E-1,-1.2397311E-2,4.8712717E-4,-6.818331E-2,1.19301826E-1,2.7891753E-2,1.7937347E-1,5.236416E-1,-5.587795E-2,2.8252894E-1,6.814818E-2,-2.70652E-1,3.9829027E-2,-6.302905E-2,-4.8044145E-2,-1.2924299E-1],"split_indices":[33,37,57,47,52,0,12,0,10,6,48,12,13,57,20,0,0,0,0,0,0,18,59,7,1,5,1,11,2,24,11,0,0,0,0,0,0,54,50,41,43,0,0,0,0,0,0,0,0,11,36,18,28,0,0,0,0,0,0,0,0,0,0,0,0,0,0,0,0,0,0,0,0,0,0,0,0,0,0],"split_type":[0,0,0,0,0,0,0,0,0,0,0,0,0,0,0,0,0,0,0,0,0,0,0,0,0,0,0,0,0,0,0,0,0,0,0,0,0,0,0,0,0,0,0,0,0,0,0,0,0,0,0,0,0,0,0,0,0,0,0,0,0,0,0,0,0,0,0,0,0,0,0,0,0,0,0,0,0,0,0],"sum_hessian":[6.57E2,1.75E2,4.82E2,1.3E1,1.62E2,2.3E1,4.59E2,4E0,9E0,8E0,1.54E2,1.1E1,1.2E1,4.44E2,1.5E1,2E0,2E0,5E0,4E0,6E0,2E0,1.23E2,3.1E1,8E0,3E0,7E0,5E0,1.8E1,4.26E2,9E0,6E0,1E0,1E0,4E0,1E0,1E0,1E0,1.14E2,9E0,1.5E1,1.6E1,4E0,4E0,1E0,2E0,3E0,4E0,1E0,4E0,6E0,1.2E1,7.6E1,3.5E2,6E0,3E0,3E0,3E0,4.7E1,6.7E1,5E0,4E0,1.1E1,4E0,1E1,6E0,1E0,2E0,3E0,1E0,4E0,2E0,1E1,2E0,7.3E1,3E0,6.4E1,2.86E2,3E0,3E0],"tree_param":{"num_deleted":"0","num_feature":"60","num_nodes":"79","size_leaf_vector":"0"}},{"base_weights":[-4.0976718E-2,6.5312403E-1,-4.944343E-2,2.3272246E-1,1.0153451E0,-9.006851E-2,9.550489E-2,-1.3084738E-1,3.5632676E-1,-5.252649E-3,-2.1581861E-1,4.8357806E-1,-3.1875183E-3,-2.5393475E-2,8.557987E-1,-4.81919E-1,-9.9748865E-2,6.335341E-1,-3.6291778E-1,-3.2760423E-1,8.1477575E-2,-3.577971E-1,1.4391258E-2,1.1319464E0,1.10286355E-1,-2.030477E0,-3.687639E-1,-1.6532457E-1,4.3518957E-1,-2.0338852E-2,7.5904983E-1,-4.152825E-2,-5.633347E-1,1.8662545E-1,-5.5032384E-1,1.3903388E-1,-5.402428E-1,-9.9310344E-1,-2.5783077E-1,-1.2007382E0,2.8041624E-2,2.7137953E-1,-1.0595E-1,-1.0195335E0,-1.8091775E-1,-1.184308E-1,-9.656973E-1,7.021184E-1,-5.4112643E-1,-1.9402458E-1,1.6012649E-1,5.023794E-1,1.0454571E0,-1.8766211E-1,3.42665E-1,-1.3422129E-1,-7.125148E-1,-4.6421808E-1,1.9072665E-1,-1.0043229E0,1.74918E-1],"categories":[],"categories_nodes":[],"categories_segments":[],"categories_sizes":[],"default_left":[1,1,1,1,0,1,1,0,0,1,1,1,1,1,1,1,1,1,1,1,1,1,1,0,1,0,1,1,1,1,1,0,0,1,1,1,1,0,0,0,0,0,0,0,0,0,0,0,0,0,0,0,0,0,0,0,0,0,0,0,0],"id":8,"left_children":[1,3,5,7,-1,9,11,-1,-1,13,15,17,19,21,23,25,27,29,31,33,35,37,39,-1,41,-1,43,45,47,49,51,-1,-1,53,55,57,59,-1,-1,-1,-1,-1,-1,-1,-1,-1,-1,-1,-1,-1,-1,-1,-1,-1,-1,-1,-1,-1,-1,-1,-1],"loss_changes":[3.8991952E0,9.819324E-1,3.8420398E0,2.713184E-1,0E0,5.4276586E0,5.478423E0,0E0,0E0,5.311129E0,6.283601E0,3.911098E0,3.1853712E0,3.959301E0,1.3162622E0,1.0115321E1,5.1233187E0,2.0672226E0,2.9866523E-1,2.8514013E0,3.3672333E0,1.7762423E0,4.4789767E0,0E0,1.3325527E-1,0E0,7.027977E0,4.7273235E0,4.5496445E0,1.8778974E-1,1.0185404E0,0E0,0E0,5.315345E-1,1.0516624E0,2.7391596E0,2.8308089E0,0E0,0E0,0E0,0E0,0E0,0E0,0E0,0E0,0E0,0E0,0E0,0E0,0E0,0E0,0E0,0E0,0E0,0E0,0E0,0E0,0E0,0E0,0E0,0E0],"parents":[2147483647,0,0,1,1,2,2,3,3,5,5,6,6,9,9,10,10,11,11,12,12,13,13,14,14,15,15,16,16,17,17,18,18,19,19,20,20,21,21,22,22,24,24,26,26,27,27,28,28,29,29,30,30,33,33,34,34,35,35,36,36],"right_children":[2,4,6,8,-1,10,12,-1,-1,14,16,18,20,22,24,26,28,30,32,34,36,38,40,-1,42,-1,44,46,48,50,52,-1,-1,54,56,58,60,-1,-1,-1,-1,-1,-1,-1,-1,-1,-1,-1,-1,-1,-1,-1,-1,-1,-1,-1,-1,-1,-1,-1,-1],"split_conditions":[-4.44001E0,2.5937334E-6,7.1340775E-1,7.236178E-2,3.0460355E-1,1.7473418E-1,9.506227E-1,-3.9254215E-2,1.0689803E-1,1.3888872E-1,-4.193625E-1,2.0126019E0,-9.7554386E-1,-1.5291047E0,1.4729843E0,-1.905384E0,1.3739717E0,-9.773005E-1,-1.3408984E-1,-7.670992E-1,1.9440445E0,-1.5476985E0,-4.9288993E0,3.3958393E-1,-5.812775E-1,-6.0914314E-1,3.3884376E-1,8.266289E-1,9.9019295E-1,7.893527E-1,1.0965063E-1,-1.2458476E-2,-1.6900042E-1,-1.1055616E0,-6.2641275E-1,-2.2467122E0,-8.543823E-1,-2.9793105E-1,-7.734923E-2,-3.6022148E-1,8.412488E-3,8.1413865E-2,-3.1785E-2,-3.0586007E-1,-5.427533E-2,-3.552924E-2,-2.897092E-1,2.1063553E-1,-1.6233793E-1,-5.8207374E-2,4.803795E-2,1.5071383E-1,3.1363714E-1,-5.6298636E-2,1.027995E-1,-4.0266387E-2,-2.1375446E-1,-1.3926543E-1,5.7217997E-2,-3.012969E-1,5.24754E-2],"split_indices":[56,4,0,1,0,13,0,0,0,13,36,12,5,46,4,31,51,39,1,10,19,50,54,0,0,0,13,51,14,0,34,0,0,7,11,56,13,0,0,0,0,0,0,0,0,0,0,0,0,0,0,0,0,0,0,0,0,0,0,0,0],"split_type":[0,0,0,0,0,0,0,0,0,0,0,0,0,0,0,0,0,0,0,0,0,0,0,0,0,0,0,0,0,0,0,0,0,0,0,0,0,0,0,0,0,0,0,0,0,0,0,0,0,0,0,0,0,0,0,0,0,0,0,0,0],"sum_hessian":[6.57E2,7E0,6.5E2,4E0,3E0,5.08E2,1.42E2,1E0,3E0,3.04E2,2.04E2,2.8E1,1.14E2,2.98E2,6E0,6.1E1,1.43E2,2.4E1,4E0,2.3E1,9.1E1,3.1E1,2.67E2,4E0,2E0,3E0,5.8E1,1.28E2,1.5E1,4E0,2E1,2E0,2E0,7E0,1.6E1,8.4E1,7E0,3E0,2.8E1,2E0,2.65E2,1E0,1E0,1.2E1,4.6E1,1.22E2,6E0,1.2E1,3E0,2E0,2E0,1.2E1,8E0,2E0,5E0,5E0,1.1E1,6E0,7.8E1,4E0,3E0],"tree_param":{"num_deleted":"0","num_feature":"60","num_nodes":"61","size_leaf_vector":"0"}},{"base_weights":[-3.0929165E-2,-1.9031746E-2,-4.7841236E-1,-9.441867E-2,5.0769426E-2,-1.6308337E0,-2.1603392E-1,3.3034764E-2,-2.5467435E-1,-7.8238696E-2,1.4895579E-1,2.0653898E-2,-4.8948485E-1,4.0069395E-1,-4.3790307E-2,-8.501178E-1,-2.0109518E-1,-2.1993977E-1,1.7188278E-1,4.172545E-1,3.3717103E-2,-9.679748E-2,1.916675E-1,-6.7844754E-1,-2.7821025E-1,1.463781E-1,8.9468783E-1,-1.9196177E-1,1.9946827E-1,-9.0685797E-1,-1.413581E-1,-3.746634E-1,-5.4408703E-2,-7.993784E-1,-9.826081E-2,5.5847377E-1,4.5844023E-3,-4.4778153E-1,5.0904226E-1,2.3103225E-1,-1.5550779E-1,-1.9716153E-1,-3.729237E-2,7.3044735E-1,-3.4017455E-2,1.3531893E-1,1.2008004E0,7.822024E-2,-4.300006E-1,4.8652437E-1,7.859368E-3,-5.0926244E-1,1.8373804E-1,5.296737E-2,-4.5165214E-1,-1.319066E0,-1.1480759E-1,-3.919912E-1,2.9742452E-3,9.374905E-1,1.5951733E-1,7.507916E-1,-1.05286784E-1,-1.2519011E-1,-5.777797E-1,6.973483E-1,2.2056367E-1,3.7875953E-1,-1.5433306E-1,-9.1036063E-1,-5.5599228E-2,1.4337927E-2,-5.3784423E-2],"categories":[],"categories_nodes":[],"categories_segments":[],"categories_sizes":[],"default_left":[1,1,1,1,1,0,1,1,1,1,1,1,1,1,1,1,1,1,1,1,1,1,0,0,0,1,1,1,1,0,0,1,1,1,1,1,1,1,1,1,1,0,1,0,0,0,0,0,0,0,0,0,0,0,0,0,0,0,0,0,0,0,0,0,0,0,0,0,0,0,0,0,0],"id":9,"left_children":[1,3,5,7,9,-1,11,13,15,17,19,21,23,25,27,29,31,33,35,37,39,41,-1,-1,-1,43,45,47,49,-1,-1,51,53,55,57,59,61,63,65,67,69,-1,71,-1,-1,-1,-1,-1,-1,-1,-1,-1,-1,-1,-1,-1,-1,-1,-1,-1,-1,-1,-1,-1,-1,-1,-1,-1,-1,-1,-1,-1,-1],"loss_changes":[3.4940178E0,3.383059E0,4.787983E0,6.3197794E0,4.2423778E0,0E0,9.809473E-1,4.9040084E0,4.199806E0,5.1769633E0,5.860426E0,1.9932497E-1,9.0710044E-2,3.6379519E0,5.228623E0,3.141756E-1,3.2130494E0,6.478462E0,3.42527E0,4.753722E0,5.039077E0,2.8480425E-2,0E0,0E0,0E0,2.2374814E0,2.1620321E0,5.8218775E0,3.021314E0,0E0,0E0,4.4528675E0,3.0097337E0,5.5407686E0,2.3205593E0,2.2698326E0,3.194542E0,1.7928553E-1,2.670947E0,3.8157666E0,5.153106E0,0E0,5.028605E-3,0E0,0E0,0E0,0E0,0E0,0E0,0E0,0E0,0E0,0E0,0E0,0E0,0E0,0E0,0E0,0E0,0E0,0E0,0E0,0E0,0E0,0E0,0E0,0E0,0E0,0E0,0E0,0E0,0E0,0E0],"parents":[2147483647,0,0,1,1,2,2,3,3,4,4,6,6,7,7,8,8,9,9,10,10,11,11,12,12,13,13,14,14,15,15,16,16,17,17,18,18,19,19,20,20,21,21,25,25,26,26,27,27,28,28,31,31,32,32,33,33,34,34,35,35,36,36,37,37,38,38,39,39,40,40,42,42],"right_children":[2,4,6,8,10,-1,12,14,16,18,20,22,24,26,28,30,32,34,36,38,40,42,-1,-1,-1,44,46,48,50,-1,-1,52,54,56,58,60,62,64,66,68,70,-1,72,-1,-1,-1,-1,-1,-1,-1,-1,-1,-1,-1,-1,-1,-1,-1,-1,-1,-1,-1,-1,-1,-1,-1,-1,-1,-1,-1,-1,-1,-1],"split_conditions":[3.1444821E0,-6.459624E-2,-1.4985081E0,1.2000187E-1,-6.410439E-2,-4.8925015E-1,4.359107E-1,-9.4835174E-1,-2.0935812E0,3.4932518E-1,-3.727421E-1,3.6829525E-1,-9.3282485E-1,3.7465185E-1,2.1296057E-1,8.6525285E-1,-2.2857139E-1,-1.0703499E0,-6.257454E-1,-1.5397075E0,-5.5011464E-3,-6.974221E-1,5.750025E-2,-2.0353428E-1,-8.346308E-2,-1.4229727E0,-5.448915E-1,-5.5710515E-3,-1.8592206E-1,-2.720574E-1,-4.2407434E-2,6.407913E-1,6.8810344E-1,7.327382E-1,-8.3971345E-1,-3.266464E-1,4.1875988E-4,-9.006967E-2,2.709204E-1,4.625034E-1,-1.2225901E0,-5.914846E-2,3.7140813E0,2.1913421E-1,-1.0205237E-2,4.059568E-2,3.6024013E-1,2.3466073E-2,-1.2900019E-1,1.4595732E-1,2.3578105E-3,-1.5277874E-1,5.5121414E-2,1.589021E-2,-1.3549565E-1,-3.9571983E-1,-3.444228E-2,-1.17597364E-1,8.922736E-4,2.8124717E-1,4.7855202E-2,2.2523749E-1,-3.1586036E-2,-3.7557036E-2,-1.7333391E-1,2.092045E-1,6.6169105E-2,1.13627866E-1,-4.629992E-2,-2.731082E-1,-1.667977E-2,4.3013785E-3,-1.6135328E-2],"split_indices":[1,5,25,54,38,0,6,11,58,42,42,45,11,26,7,0,11,22,43,29,26,6,0,0,0,28,24,50,36,0,0,8,13,53,58,34,5,1,25,36,10,0,1,0,0,0,0,0,0,0,0,0,0,0,0,0,0,0,0,0,0,0,0,0,0,0,0,0,0,0,0,0,0],"split_type":[0,0,0,0,0,0,0,0,0,0,0,0,0,0,0,0,0,0,0,0,0,0,0,0,0,0,0,0,0,0,0,0,0,0,0,0,0,0,0,0,0,0,0,0,0,0,0,0,0,0,0,0,0,0,0,0,0,0,0,0,0,0,0,0,0,0,0,0,0,0,0,0,0],"sum_hessian":[6.57E2,6.41E2,1.6E1,3.08E2,3.33E2,2E0,1.4E1,1.72E2,1.36E2,1.44E2,1.89E2,8E0,6E0,2.9E1,1.43E2,1E1,1.26E2,9.2E1,5.2E1,5.6E1,1.33E2,5E0,3E0,2E0,4E0,2E1,9E0,8.9E1,5.4E1,9E0,1E0,5.7E1,6.9E1,1.5E1,7.7E1,1.5E1,3.7E1,5E0,5.1E1,6.5E1,6.8E1,1E0,4E0,4E0,1.6E1,3E0,6E0,4.2E1,4.7E1,2.1E1,3.3E1,4.6E1,1.1E1,5.5E1,1.4E1,8E0,7E0,1.9E1,5.8E1,7E0,8E0,4E0,3.3E1,2E0,3E0,3E1,2.1E1,4.7E1,1.8E1,7E0,6.1E1,1E0,3E0],"tree_param":{"num_deleted":"0","num_feature":"60","num_nodes":"73","size_leaf_vector":"0"}},{"base_weights":[-2.2943731E-2,-6.694341E-2,6.37716E-2,7.837736E-3,-1.5978892E-1,1.6230361E-1,-1.6176127E-1,-2.8324032E-1,5.4927334E-2,-1.4259516E-2,-3.402822E-1,5.033513E-1,1.02105126E-1,-1.722519E0,-8.836681E-2,-4.2272773E-1,4.6845015E-2,-9.621E-2,1.3616264E-1,-1.330913E-1,3.0310056E-1,-1.7810471E-1,-7.353582E-1,6.962835E-1,-1.5933749E-1,-2.423586E-1,1.8017381E-1,1.3760135E-1,-2.5849074E-1,-2.9986808E-1,-1.1827893E0,3.1708536E-1,-9.413078E-2,8.966568E-2,-3.298636E-1,5.0510275E-1,7.2476484E-2,2.30009E-2,-3.2450956E-1,7.5562674E-1,1.3418555E-3,-4.920673E-2,-5.872978E-1,-1.6413122E0,-5.372139E-1,6.1977874E-2,8.7308675E-1,1.767961E-1,-3.716033E-1,-3.8729873E-1,4.148617E-1,-6.942497E-1,2.1147119E-1,2.267215E-2,5.7438457E-1,4.104211E-1,-3.7227803E-1,2.7113312E-1,-3.7052485E-1,3.6607558E-1,8.505732E-2,-3.5471454E-2,-1.4392224E-1,-1.5328898E-1,3.1750122E-1,-6.308707E-1,-7.486516E-2,4.470351E-2,7.495713E-1,5.4777193E-1,2.3395685E-2,3.2225996E-1,-1.08643726E-1,-7.3359415E-2,-7.139341E-1,3.9665434E-1,1.374408E0,1.4511639E-1,-3.343557E-1,1.1490894E-1,-3.948771E-1,1.420471E-1,-7.8147125E-1,9.419781E-2,-6.8276083E-1,2.2430764E-1,-2.936706E-1,1.0771109E0,4.2153606E-1,-4.403079E-1,-8.274475E-2,-6.8160707E-1,-1.9145836E-1,7.4011195E-1,1.4852118E-1,-1.2006464E-1,2.5910592E-1,7.8060895E-2,-2.7378678E-1,-3.2267313E-2,8.8577735E-1,-1.0653158E-1,6.9553035E-1,-1.2457727E-1,-6.6121376E-1],"categories":[],"categories_nodes":[],"categories_segments":[],"categories_sizes":[],"default_left":[1,1,1,1,1,1,1,1,1,1,1,1,1,0,1,1,1,1,1,1,1,1,1,1,1,1,1,1,1,1,0,1,1,1,1,1,1,1,1,1,1,1,1,0,1,1,1,0,1,1,1,0,1,1,1,1,1,0,0,0,0,0,0,0,0,0,0,0,0,0,0,0,0,0,0,0,0,0,0,0,0,0,0,0,0,0,0,0,0,0,0,0,0,0,0,0,0,0,0,0,0,0,0,0,0],"id":10,"left_children":[1,3,5,7,9,11,13,15,17,19,21,23,25,-1,27,29,31,33,35,37,39,41,43,45,47,49,51,53,55,57,-1,59,61,63,65,67,69,71,73,75,77,79,81,-1,83,85,87,-1,89,91,93,-1,95,97,99,101,103,-1,-1,-1,-1,-1,-1,-1,-1,-1,-1,-1,-1,-1,-1,-1,-1,-1,-1,-1,-1,-1,-1,-1,-1,-1,-1,-1,-1,-1,-1,-1,-1,-1,-1,-1,-1,-1,-1,-1,-1,-1,-1,-1,-1,-1,-1,-1,-1],"loss_changes":[2.5148327E0,3.035384E0,4.959585E0,3.3462975E0,5.1172285E0,3.1308413E0,7.6372538E0,1.5852561E0,2.5914145E0,4.150998E0,5.443331E0,3.051587E0,3.6202807E0,0E0,2.5727794E0,1.8864608E0,4.4891828E-1,3.2434363E0,3.1823957E0,2.3977757E0,4.0955977E0,3.293983E0,3.6060038E0,1.9645386E0,4.9379602E-1,2.5421154E0,3.1298327E0,1.4427526E0,3.0451102E0,9.8805404E-1,0E0,1.4331043E-2,1.826074E-2,2.373525E0,2.485729E0,2.2175546E0,2.7398744E0,1.8078247E0,3.4685712E0,2.1203394E0,9.6555096E-1,2.8251414E0,2.2352972E0,0E0,2.0861154E0,3.545342E-1,8.3574104E-1,0E0,4.295045E-2,1.0798872E0,3.232143E-1,0E0,1.7051272E0,4.1546378E-1,1.1620235E0,9.5842385E-1,2.2794247E0,0E0,0E0,0E0,0E0,0E0,0E0,0E0,0E0,0E0,0E0,0E0,0E0,0E0,0E0,0E0,0E0,0E0,0E0,0E0,0E0,0E0,0E0,0E0,0E0,0E0,0E0,0E0,0E0,0E0,0E0,0E0,0E0,0E0,0E0,0E0,0E0,0E0,0E0,0E0,0E0,0E0,0E0,0E0,0E0,0E0,0E0,0E0,0E0],"parents":[2147483647,0,0,1,1,2,2,3,3,4,4,5,5,6,6,7,7,8,8,9,9,10,10,11,11,12,12,14,14,15,15,16,16,17,17,18,18,19,19,20,20,21,21,22,22,23,23,24,24,25,25,26,26,27,27,28,28,29,29,31,31,32,32,33,33,34,34,35,35,36,36,37,37,38,38,39,39,40,40,41,41,42,42,44,44,45,45,46,46,48,48,49,49,50,50,52,52,53,53,54,54,55,55,56,56],"right_children":[2,4,6,8,10,12,14,16,18,20,22,24,26,-1,28,30,32,34,36,38,40,42,44,46,48,50,52,54,56,58,-1,60,62,64,66,68,70,72,74,76,78,80,82,-1,84,86,88,-1,90,92,94,-1,96,98,100,102,104,-1,-1,-1,-1,-1,-1,-1,-1,-1,-1,-1,-1,-1,-1,-1,-1,-1,-1,-1,-1,-1,-1,-1,-1,-1,-1,-1,-1,-1,-1,-1,-1,-1,-1,-1,-1,-1,-1,-1,-1,-1,-1,-1,-1,-1,-1,-1,-1],"split_conditions":[3.5032517E-1,-2.501391E-1,4.7445244E-1,-1.6035563E0,5.5639084E-2,-1.5288692E0,4.8166317E-1,4.233896E-1,-4.6808952E-1,4.120303E-1,5.0952643E-1,5.804173E-1,-1.0603971E0,-5.1675576E-1,-2.9003328E-1,-1.685018E0,-1.1733514E-1,8.3147824E-2,-1.194291E0,2.1396351E-1,-7.459316E-2,5.161795E-1,-9.919596E-1,-4.2294806E-1,-6.8085927E-1,7.208965E-1,-2.8670025E0,7.5208557E-1,-1.0865388E0,-9.805279E-1,-3.5483682E-1,5.159427E-1,-4.1471213E-1,1.4903694E-1,-1.2299209E-1,-1.1468868E0,-2.2913651E0,-2.677288E-1,1.9224875E-1,-7.357466E-2,7.5188684E-1,4.991076E-1,-1.8000351E-1,-4.923937E-1,-6.625252E-1,2.2931168E0,1.2881498E0,5.303883E-2,-1.8202823E-1,-3.3145893E-1,-2.1262264E0,-2.0827492E-1,-1.834754E0,2.4383268E0,-1.2104603E0,-1.0312842E0,2.0245613E-1,8.133994E-2,-1.1115746E-1,1.09822676E-1,2.5517197E-2,-1.0641437E-2,-4.3176673E-2,-4.5986693E-2,9.525037E-2,-1.8926121E-1,-2.245955E-2,1.3411053E-2,2.2487141E-1,1.6433159E-1,7.018706E-3,9.6677996E-2,-3.259312E-2,-2.2007825E-2,-2.1418025E-1,1.1899631E-1,4.1232243E-1,4.353492E-2,-1.0030672E-1,3.4472685E-2,-1.18463136E-1,4.2614132E-2,-2.3444138E-1,2.8259344E-2,-2.0482826E-1,6.7292295E-2,-8.810118E-2,3.231333E-1,1.2646082E-1,-1.3209237E-1,-2.4823425E-2,-2.0448212E-1,-5.743751E-2,2.2203359E-1,4.4556357E-2,-3.6019392E-2,7.773178E-2,2.341827E-2,-8.2136035E-2,-9.680195E-3,2.657332E-1,-3.1959478E-2,2.0865911E-1,-3.737318E-2,-1.9836414E-1],"split_indices":[34,34,42,39,1,32,42,4,10,39,17,12,54,0,27,39,11,41,44,46,54,56,32,35,14,57,38,1,10,7,0,0,36,44,22,45,40,59,2,33,3,10,48,0,25,0,35,0,0,37,1,0,42,35,12,6,13,0,0,0,0,0,0,0,0,0,0,0,0,0,0,0,0,0,0,0,0,0,0,0,0,0,0,0,0,0,0,0,0,0,0,0,0,0,0,0,0,0,0,0,0,0,0,0,0],"split_type":[0,0,0,0,0,0,0,0,0,0,0,0,0,0,0,0,0,0,0,0,0,0,0,0,0,0,0,0,0,0,0,0,0,0,0,0,0,0,0,0,0,0,0,0,0,0,0,0,0,0,0,0,0,0,0,0,0,0,0,0,0,0,0,0,0,0,0,0,0,0,0,0,0,0,0,0,0,0,0,0,0,0,0,0,0,0,0,0,0,0,0,0,0,0,0,0,0,0,0,0,0,0,0,0,0],"sum_hessian":[6.57E2,4.36E2,2.21E2,2.42E2,1.94E2,1.54E2,6.7E1,3.3E1,2.09E2,1.08E2,8.6E1,2.2E1,1.32E2,2E0,6.5E1,2.3E1,1E1,7.3E1,1.36E2,7.9E1,2.9E1,6.2E1,2.4E1,1.7E1,5E0,2.4E1,1.08E2,2.8E1,3.7E1,2.1E1,2E0,3E0,7E0,4.1E1,3.2E1,1.9E1,1.17E2,4.4E1,3.5E1,1.1E1,1.8E1,4.8E1,1.4E1,3E0,2.1E1,4E0,1.3E1,2E0,3E0,2E1,4E0,3E0,1.05E2,2.3E1,5E0,5E0,3.2E1,2E0,1.9E1,2E0,1E0,4E0,3E0,2E1,2.1E1,1.4E1,1.8E1,7E0,1.2E1,1E1,1.07E2,1.3E1,3.1E1,2.2E1,1.3E1,8E0,3E0,1.3E1,5E0,3.3E1,1.5E1,3E0,1.1E1,4E0,1.7E1,3E0,1E0,8E0,5E0,2E0,1E0,7E0,1.3E1,1E0,3E0,1.3E1,9.2E1,2E1,3E0,2E0,3E0,2E0,3E0,1.8E1,1.4E1],"tree_param":{"num_deleted":"0","num_feature":"60","num_nodes":"105","size_leaf_vector":"0"}},{"base_weights":[-1.7449271E-2,-4.2346675E-2,1.0562484E-1,8.050373E-2,-8.230431E-2,2.902793E-1,-5.0489943E-2,1.6134721E-1,-1.7426538E-1,-1.6463684E-1,2.886772E-2,1.8345079E-1,5.8843565E-1,-2.8825015E-1,7.252114E-2,2.8253126E-1,-2.8797723E-2,5.576907E-1,-2.6605067E-1,-9.92306E-2,-5.0626886E-1,7.005952E-2,-3.3888543E-1,4.5742655E-1,7.320306E-2,7.2158194E-1,1.0846091E-1,3.193928E-2,-5.8223504E-1,-3.7227774E-1,1.9163232E-1,3.2885122E-1,-4.829012E-1,3.1013837E-1,-2.5812235E-1,-1.0789986E-1,-5.294112E-1,-1.9414154E-1,1.3248962E-1,-3.970442E-1,-1.6482083E0,1.9072123E-1,-2.8341629E-2,-5.820782E-1,3.7865326E-2,1.5149215E-1,5.5321544E-1,2.696042E-1,-1.4454728E-2,9.14331E-1,4.406941E-1,8.617308E-3,1.3886967E-1,2.6046488E-1,-1.3585605E-1,-6.559779E-1,7.75968E-2,-1.0608851E-1,-4.8769096E-1,7.6498556E-1,1.2996484E-1,-3.189735E-2,4.1048655E-1,6.942614E-1,3.75021E-2,4.757799E-1,-3.085258E-1,-2.453757E-2,-4.3521464E-1,-5.3914975E-2,-6.2908643E-1,-4.0347192E-1,-7.0090406E-2,-6.214975E-2,2.6773232E-1,-1.9810162E-1,-6.955182E-1,6.7223495E-1,1.3676189E-1,-4.9876937E-1,3.0816108E-2,2.3296481E-1,-6.86879E-1,3.1949878E-1,-1.9501452E-1,2.9863298E-1,1.86871E-2,-1.2737618E-1,9.97808E-2,6.721211E-2,2.9197502E-1,-2.2934745E-1,6.524833E-2,-1.8569438E-1,-6.8759894E-1,-1.2950055E-1,-1.7926201E-2,1.9222064E-1,-1.614711E-1],"categories":[],"categories_nodes":[],"categories_segments":[],"categories_sizes":[],"default_left":[1,1,1,1,1,1,1,1,1,1,1,1,1,1,1,1,1,0,1,1,1,1,1,1,1,1,1,1,1,1,1,1,0,1,1,1,1,1,1,1,0,1,1,1,1,0,0,1,1,0,0,0,0,1,1,1,0,1,0,0,1,0,0,0,0,0,0,0,0,0,0,0,0,0,0,0,0,0,0,0,0,0,0,0,0,0,0,0,0,0,0,0,0,0,0,0,0,0,0],"id":11,"left_children":[1,3,5,7,9,11,13,15,17,19,21,23,25,27,29,31,33,-1,35,37,39,41,43,45,47,49,51,53,55,57,59,61,-1,63,65,67,69,71,73,75,-1,77,79,81,83,-1,-1,85,87,-1,-1,-1,-1,89,91,93,-1,95,-1,-1,97,-1,-1,-1,-1,-1,-1,-1,-1,-1,-1,-1,-1,-1,-1,-1,-1,-1,-1,-1,-1,-1,-1,-1,-1,-1,-1,-1,-1,-1,-1,-1,-1,-1,-1,-1,-1,-1,-1],"loss_changes":[2.0207334E0,2.6966543E0,3.2144856E0,2.8086338E0,3.7941256E0,1.5164824E0,1.8049799E0,2.381517E0,2.3654065E0,5.26784E0,2.7050116E0,1.144518E0,7.525258E-1,1.9953443E0,2.2435417E0,2.3924556E0,3.2668364E0,0E0,1.1923971E0,4.4462705E0,4.085249E0,1.9051256E0,1.6712556E0,2.3854852E-1,5.031637E-1,1.3846827E-1,1.0947801E-2,4.5718652E-1,5.861385E-1,2.2475731E-1,1.0673681E0,1.7800837E0,0E0,1.7543033E0,1.0715699E0,5.3503513E-1,4.874301E-1,3.6850982E0,1.5697291E0,1.9998679E0,0E0,1.77878E0,2.4921904E0,1.0996072E0,5.8700097E-1,0E0,0E0,5.9973657E-2,2.8360218E-1,0E0,0E0,0E0,0E0,1.0822862E-2,1.4657524E-1,2.102518E-2,0E0,5.9347823E-3,0E0,0E0,5.93489E-1,0E0,0E0,0E0,0E0,0E0,0E0,0E0,0E0,0E0,0E0,0E0,0E0,0E0,0E0,0E0,0E0,0E0,0E0,0E0,0E0,0E0,0E0,0E0,0E0,0E0,0E0,0E0,0E0,0E0,0E0,0E0,0E0,0E0,0E0,0E0,0E0,0E0,0E0],"parents":[2147483647,0,0,1,1,2,2,3,3,4,4,5,5,6,6,7,7,8,8,9,9,10,10,11,11,12,12,13,13,14,14,15,15,16,16,18,18,19,19,20,20,21,21,22,22,23,23,24,24,25,25,26,26,27,27,28,28,29,29,30,30,31,31,33,33,34,34,35,35,36,36,37,37,38,38,39,39,41,41,42,42,43,43,44,44,47,47,48,48,53,53,54,54,55,55,57,57,60,60],"right_children":[2,4,6,8,10,12,14,16,18,20,22,24,26,28,30,32,34,-1,36,38,40,42,44,46,48,50,52,54,56,58,60,62,-1,64,66,68,70,72,74,76,-1,78,80,82,84,-1,-1,86,88,-1,-1,-1,-1,90,92,94,-1,96,-1,-1,98,-1,-1,-1,-1,-1,-1,-1,-1,-1,-1,-1,-1,-1,-1,-1,-1,-1,-1,-1,-1,-1,-1,-1,-1,-1,-1,-1,-1,-1,-1,-1,-1,-1,-1,-1,-1,-1,-1],"split_conditions":[9.64411E-1,-6.4086676E-1,-8.148208E-2,4.3383038E-1,1.267161E-1,5.3504884E-1,-1.3224532E-1,2.491859E-1,-1.2498125E0,-3.6910333E-2,1.1017501E0,-8.1202847E-1,1.3224738E0,5.230056E-2,-1.7244453E0,2.8563976E0,-9.091589E-1,1.6730721E-1,3.2051238E-1,5.1612645E-1,2.0945635E0,-9.313536E-2,-4.032799E-2,-1.1150547E0,-5.284343E-1,2.7371877E-1,-1.2504034E0,-4.3193936E-1,9.166119E-1,-1.6838181E0,-2.145656E0,-1.1526269E0,-1.4487036E-1,-1.4053717E-1,-2.4358706E0,7.0108515E-1,-7.430469E-1,-3.0645764E-1,3.393861E-2,5.432407E-1,-4.944625E-1,-2.2200923E0,-1.7126181E0,-2.346694E0,-1.314167E-1,4.5447648E-2,1.6596463E-1,2.5711226E0,-6.395809E-2,2.7429932E-1,1.3220823E-1,2.5851924E-3,4.1660905E-2,-2.0812793E0,2.883507E-1,-2.0425215E0,2.3279041E-2,-6.7199504E-1,-1.4630729E-1,2.2949567E-1,1.039861E0,-9.569205E-3,1.2314597E-1,2.0827842E-1,1.125063E-2,1.4273398E-1,-9.255774E-2,-7.3612714E-3,-1.3056439E-1,-1.6174493E-2,-1.8872593E-1,-1.2104158E-1,-2.1027122E-2,-1.8644925E-2,8.03197E-2,-5.943049E-2,-2.0865546E-1,2.016705E-1,4.1028567E-2,-1.4963081E-1,9.244833E-3,6.988945E-2,-2.060637E-1,9.584964E-2,-5.8504358E-2,8.9589894E-2,5.6061298E-3,-3.821286E-2,2.993424E-2,2.0163635E-2,8.759251E-2,-6.880424E-2,1.95745E-2,-5.5708315E-2,-2.062797E-1,-3.8850166E-2,-5.3778607E-3,5.7666194E-2,-4.844133E-2],"split_indices":[46,47,45,3,16,18,49,59,20,16,37,44,55,1,4,29,32,0,16,55,55,29,53,37,7,2,1,14,0,3,38,42,0,1,5,59,13,32,27,47,0,11,59,6,45,0,0,4,19,0,0,0,0,4,0,2,0,1,0,0,42,0,0,0,0,0,0,0,0,0,0,0,0,0,0,0,0,0,0,0,0,0,0,0,0,0,0,0,0,0,0,0,0,0,0,0,0,0,0],"split_type":[0,0,0,0,0,0,0,0,0,0,0,0,0,0,0,0,0,0,0,0,0,0,0,0,0,0,0,0,0,0,0,0,0,0,0,0,0,0,0,0,0,0,0,0,0,0,0,0,0,0,0,0,0,0,0,0,0,0,0,0,0,0,0,0,0,0,0,0,0,0,0,0,0,0,0,0,0,0,0,0,0,0,0,0,0,0,0,0,0,0,0,0,0,0,0,0,0,0,0],"sum_hessian":[6.57E2,5.47E2,1.1E2,1.34E2,4.13E2,5E1,6E1,1.02E2,3.2E1,2.37E2,1.76E2,3.8E1,1.2E1,2E1,4E1,6.2E1,4E1,3E0,2.9E1,2E2,3.7E1,1.59E2,1.7E1,1E1,2.8E1,9E0,3E0,1E1,1E1,8E0,3.2E1,5.9E1,3E0,1.6E1,2.4E1,1.9E1,1E1,1.42E2,5.8E1,3.5E1,2E0,7.1E1,8.8E1,1E1,7E0,3E0,7E0,8E0,2E1,4E0,5E0,1E0,2E0,4E0,6E0,9E0,1E0,3E0,5E0,2E0,3E1,1.1E1,4.8E1,6E0,1E1,1E0,2.3E1,1.6E1,3E0,2E0,8E0,5.2E1,9E1,2.4E1,3.4E1,2.2E1,1.3E1,6E0,6.5E1,9E0,7.9E1,1E0,9E0,3E0,4E0,7E0,1E0,1E1,1E1,1E0,3E0,4E0,2E0,1E0,8E0,2E0,1E0,2.5E1,5E0],"tree_param":{"num_deleted":"0","num_feature":"60","num_nodes":"99","size_leaf_vector":"0"}},{"base_weights":[-1.2456859E-2,5.270917E-3,-1.4434636E-1,-4.09812E-2,6.754082E-2,-5.96487E-2,-4.6882176E-1,-1.972198E-2,-3.9239866E-1,1.4315927E-1,-6.449495E-2,1.22879E-1,-1.5383825E-1,-6.197702E-1,1.3896629E-1,3.6306288E-2,-1.911455E-1,-1.7755525E-1,-8.283002E-1,2.1798997E-1,-1.3572369E-2,2.028726E-1,-1.9931297E-1,3.6549008E-1,-1.4705503E-2,-4.340371E-2,-3.9685345E-1,-7.265375E-1,-2.170009E-2,1.7481907E-1,1.5703972E-2,1.8148929E-1,-5.1045552E-2,1.156353E-1,-3.2963392E-1,-2.9099965E-1,1.7880565E-1,-9.419684E-1,-1.2997954E-1,3.086835E-1,4.5186326E-2,-1.3655682E-1,2.9889306E-1,1.7366547E-2,5.3857756E-1,-2.9053515E-1,1.2768537E-1,5.670959E-1,1.3110738E-1,-2.2963844E-1,5.816427E-2,-1.07785486E-1,4.0202418E-1,-1.22060224E-1,-4.670854E-1,-4.6526194E-1,-9.470159E-1,6.1478972E-2,-9.4029106E-2,1.03051856E-1,4.895139E-1,-3.1952727E-1,2.741106E-2,2.097203E-1,-3.0264872E-1,-4.4724596E-1,7.569996E-2,-4.0255335E-1,-7.662451E-2,2.8446212E-2,2.194434E-1,7.845797E-1,2.6000568E-1,3.0376267E-1,-7.141007E-2,2.1758808E-1,-2.0975862E-1,1.7376067E-1,5.99567E-1,-2.463776E-1,1.3928938E-1,1.5222837E-1,7.3760164E-1,-6.537554E-2,-4.3579918E-1,-8.824274E-2,2.5745016E-1,-1.5237272E-2,1.7150286E-1,-4.547085E-2,1.3868518E-1,-3.0128747E-1,-2.4995413E-2,5.5747014E-1,-3.215687E-2,-2.4339184E-1,-5.2818376E-1],"categories":[],"categories_nodes":[],"categories_segments":[],"categories_sizes":[],"default_left":[1,1,1,1,1,1,1,1,1,1,1,1,1,1,1,1,1,1,1,1,1,1,1,1,1,1,1,1,1,0,0,1,1,1,1,1,1,0,0,1,1,1,1,1,1,1,1,0,1,0,1,1,1,0,1,0,0,0,0,0,0,0,0,0,0,0,0,0,0,0,0,0,0,0,0,0,0,0,0,0,0,0,0,0,0,0,0,0,0,0,0,0,0,0,0,0,0],"id":12,"left_children":[1,3,5,7,9,11,13,15,17,19,21,23,25,27,29,31,33,35,37,39,41,43,45,47,49,51,53,55,57,-1,-1,59,61,63,65,67,69,-1,-1,71,73,75,77,79,81,83,85,-1,87,-1,89,91,93,-1,95,-1,-1,-1,-1,-1,-1,-1,-1,-1,-1,-1,-1,-1,-1,-1,-1,-1,-1,-1,-1,-1,-1,-1,-1,-1,-1,-1,-1,-1,-1,-1,-1,-1,-1,-1,-1,-1,-1,-1,-1,-1,-1],"loss_changes":[1.5392356E0,1.6761146E0,2.1156554E0,2.4875283E0,2.4853492E0,1.102012E0,1.5540426E0,3.0419815E0,1.6322916E0,1.856036E0,3.320618E0,7.397243E-1,1.1099403E0,8.143406E-1,1.4931835E-2,3.0402627E0,3.3519933E0,6.180124E-1,3.5382462E-1,1.6629748E0,2.039092E0,1.9211814E0,1.8566961E0,3.036728E-1,2.4828848E-1,9.036555E-1,1.9387794E-1,1.9305134E-1,2.382959E-2,0E0,0E0,2.1240141E0,3.1683836E0,1.0473278E0,2.6081529E0,2.3221236E-1,1.8198743E-2,0E0,0E0,1.4175973E0,1.1673564E0,1.0307546E0,4.601797E-1,7.096029E-1,7.335367E-1,1.5414739E0,4.1499633E-1,0E0,3.2171555E-2,0E0,1.0644367E-1,4.2501038E-1,2.8789324E-1,0E0,8.117437E-3,0E0,0E0,0E0,0E0,0E0,0E0,0E0,0E0,0E0,0E0,0E0,0E0,0E0,0E0,0E0,0E0,0E0,0E0,0E0,0E0,0E0,0E0,0E0,0E0,0E0,0E0,0E0,0E0,0E0,0E0,0E0,0E0,0E0,0E0,0E0,0E0,0E0,0E0,0E0,0E0,0E0,0E0],"parents":[2147483647,0,0,1,1,2,2,3,3,4,4,5,5,6,6,7,7,8,8,9,9,10,10,11,11,12,12,13,13,14,14,15,15,16,16,17,17,18,18,19,19,20,20,21,21,22,22,23,23,24,24,25,25,26,26,27,27,28,28,31,31,32,32,33,33,34,34,35,35,36,36,39,39,40,40,41,41,42,42,43,43,44,44,45,45,46,46,48,48,50,50,51,51,52,52,54,54],"right_children":[2,4,6,8,10,12,14,16,18,20,22,24,26,28,30,32,34,36,38,40,42,44,46,48,50,52,54,56,58,-1,-1,60,62,64,66,68,70,-1,-1,72,74,76,78,80,82,84,86,-1,88,-1,90,92,94,-1,96,-1,-1,-1,-1,-1,-1,-1,-1,-1,-1,-1,-1,-1,-1,-1,-1,-1,-1,-1,-1,-1,-1,-1,-1,-1,-1,-1,-1,-1,-1,-1,-1,-1,-1,-1,-1,-1,-1,-1,-1,-1,-1],"split_conditions":[1.3889518E0,1.2554294E-1,1.2881498E0,2.2424808E0,1.8408577E-1,-2.5489634E-1,5.9659326E-1,6.576152E-1,6.2011456E-1,5.2838546E-1,-3.0020034E-1,-2.554354E-1,5.35527E-1,1.8914428E0,1.0737455E0,-2.0435944E-1,-2.8024292E-1,1.0339907E0,2.2498673E-1,2.5747326E-1,5.664482E-1,-8.1943727E-1,4.5878562E-1,-1.0898058E0,-1.2482033E0,6.147549E-1,8.7854326E-2,1.090859E-1,-5.95628E-1,5.244572E-2,4.711192E-3,7.703965E-1,-4.1372198E-1,1.095077E0,7.6243585E-1,-7.57164E-2,-7.695559E-1,-2.8259054E-1,-3.899386E-2,-2.0713248E0,-3.687784E-1,-3.565008E-1,1.4897333E-1,-1.9640055E-1,-6.872573E-1,-5.3564185E-1,-3.322848E-1,1.7012876E-1,-5.8634347E-1,-6.889153E-2,2.7325886E-1,-7.2493917E-1,2.0383896E-1,-3.661807E-2,-5.376378E-1,-1.3957858E-1,-2.8410476E-1,1.8443692E-2,-2.8208733E-2,3.0915558E-2,1.4685418E-1,-9.585819E-2,8.2233185E-3,6.291609E-2,-9.079462E-2,-1.341738E-1,2.270999E-2,-1.2076601E-1,-2.2987355E-2,8.533864E-3,6.5833025E-2,2.3537391E-1,7.800171E-2,9.1128804E-2,-2.1423021E-2,6.527643E-2,-6.292759E-2,5.2128203E-2,1.798701E-1,-7.391328E-2,4.1786816E-2,4.5668513E-2,2.212805E-1,-1.9612662E-2,-1.3073976E-1,-2.6472824E-2,7.723505E-2,-4.5711817E-3,5.145086E-2,-1.3641255E-2,4.1605555E-2,-9.038624E-2,-7.4986243E-3,1.6724105E-1,-9.647061E-3,-7.301755E-2,-1.5845513E-1],"split_indices":[49,48,23,35,17,0,9,24,13,22,45,27,1,58,0,23,29,7,5,7,0,45,52,0,14,23,38,8,0,0,0,6,53,15,26,10,0,0,0,47,42,11,6,42,42,19,2,0,1,0,57,48,0,0,37,0,0,0,0,0,0,0,0,0,0,0,0,0,0,0,0,0,0,0,0,0,0,0,0,0,0,0,0,0,0,0,0,0,0,0,0,0,0,0,0,0,0],"split_type":[0,0,0,0,0,0,0,0,0,0,0,0,0,0,0,0,0,0,0,0,0,0,0,0,0,0,0,0,0,0,0,0,0,0,0,0,0,0,0,0,0,0,0,0,0,0,0,0,0,0,0,0,0,0,0,0,0,0,0,0,0,0,0,0,0,0,0,0,0,0,0,0,0,0,0,0,0,0,0,0,0,0,0,0,0,0,0,0,0,0,0,0,0,0,0,0,0],"sum_hessian":[6.57E2,5.8E2,7.7E1,3.33E2,2.47E2,6.2E1,1.5E1,3.15E2,1.8E1,1.57E2,9E1,2.1E1,4.1E1,1.2E1,3E0,2.38E2,7.7E1,1.3E1,5E0,1.06E2,5.1E1,3E1,6E1,7E0,1.4E1,2.9E1,1.2E1,1E1,2E0,2E0,1E0,8.9E1,1.49E2,2.4E1,5.3E1,1E1,3E0,4E0,1E0,6.9E1,3.7E1,3.7E1,1.4E1,2E1,1E1,4.7E1,1.3E1,3E0,4E0,3E0,1.1E1,2.6E1,3E0,3E0,9E0,6E0,4E0,1E0,1E0,7.2E1,1.7E1,3.3E1,1.16E2,2E1,4E0,4.1E1,1.2E1,6E0,4E0,1E0,2E0,5E0,6.4E1,1.1E1,2.6E1,6E0,3.1E1,1.1E1,3E0,6E0,1.4E1,4E0,6E0,1.9E1,2.8E1,5E0,8E0,1E0,3E0,5E0,6E0,7E0,1.9E1,2E0,1E0,3E0,6E0],"tree_param":{"num_deleted":"0","num_feature":"60","num_nodes":"97","size_leaf_vector":"0"}},{"base_weights":[-8.865862E-3,-4.924886E-4,-2.4002236E-1,4.51145E-1,-4.786201E-3,-4.1504133E-1,7.834503E-2,5.9524363E-1,1.0863177E-1,7.274872E-1,-7.103281E-3,-1.4022346E-1,-6.3797903E-1,-6.357078E-2,2.0459184E-1,1.5115994E-1,1.1787713E-2,-4.2358577E-2,4.422973E-2,-2.2734304E-1,3.7318617E-3,-3.134238E-1,-8.841782E-1,-1.05186194E-1,-7.65115E-4,3.0507948E-3,-1.486113E-1,-8.567693E-2,1.1355931E-1,-3.7945908E-2,6.438258E-2,-1.7866E-2,1.6718328E-2,-2.0652886E-2,2.6365262E-1,-5.143576E-1,-9.957818E-2,1.9842653E-2,-2.2417288E-1,5.5161333E-1,8.820903E-2],"categories":[],"categories_nodes":[],"categories_segments":[],"categories_sizes":[],"default_left":[1,1,1,1,1,1,1,0,1,0,1,1,1,1,0,0,0,1,1,0,1,0,0,0,1,1,1,1,1,0,0,0,0,0,0,0,0,0,0,0,0],"id":13,"left_children":[1,3,5,7,9,11,13,-1,15,-1,17,19,21,23,-1,-1,-1,25,27,-1,29,-1,-1,-1,31,33,35,37,39,-1,-1,-1,-1,-1,-1,-1,-1,-1,-1,-1,-1],"loss_changes":[1.27348E0,1.2354913E0,1.3140842E0,2.3147178E-1,1.0758082E0,8.295491E-1,1.7425385E-1,0E0,1.0573972E-2,0E0,1.1420227E0,1.0117902E-1,3.6211944E-1,1.2987938E-2,0E0,0E0,0E0,1.8049548E0,2.3243678E0,0E0,1.2554202E-2,0E0,0E0,0E0,1.1956366E-3,1.6300546E0,1.9573541E0,1.3197112E0,1.8169482E0,0E0,0E0,0E0,0E0,0E0,0E0,0E0,0E0,0E0,0E0,0E0,0E0],"parents":[2147483647,0,0,1,1,2,2,3,3,4,4,5,5,6,6,8,8,10,10,11,11,12,12,13,13,17,17,18,18,20,20,24,24,25,25,26,26,27,27,28,28],"right_children":[2,4,6,8,10,12,14,-1,16,-1,18,20,22,24,-1,-1,-1,26,28,-1,30,-1,-1,-1,32,34,36,38,40,-1,-1,-1,-1,-1,-1,-1,-1,-1,-1,-1,-1],"split_conditions":[2.7126198E0,-4.3437905E0,1.721467E-1,3.063321E-1,-6.1542244E0,-7.798427E-1,3.755093E-1,1.785731E-1,1.4805812E-1,2.1824618E-1,2.1614113E-1,-3.54172E-2,-2.830027E-1,-1.5038498E-1,6.1377555E-2,4.5347985E-2,3.536314E-3,-1.9013754E-1,-4.1080627E-1,-6.820291E-2,3.6579055E-1,-9.402715E-2,-2.6525348E-1,-3.155586E-2,-8.503059E-1,-2.4989708E-1,-1.4028664E-1,3.6126545E-1,-2.863947E0,-1.1383773E-2,1.9314775E-2,-5.3598005E-3,5.0154985E-3,-6.195866E-3,7.909579E-2,-1.5430729E-1,-2.9873455E-2,5.952796E-3,-6.725187E-2,1.6548401E-1,2.6462711E-2],"split_indices":[17,13,7,8,25,4,27,0,0,0,8,10,2,12,0,0,0,8,26,0,0,0,0,0,0,8,8,58,17,0,0,0,0,0,0,0,0,0,0,0,0],"split_type":[0,0,0,0,0,0,0,0,0,0,0,0,0,0,0,0,0,0,0,0,0,0,0,0,0,0,0,0,0,0,0,0,0,0,0,0,0,0,0,0,0],"sum_hessian":[6.57E2,6.35E2,2.2E1,5E0,6.3E2,1.4E1,8E0,3E0,2E0,1E0,6.29E2,7E0,7E0,4E0,4E0,1E0,1E0,3.73E2,2.56E2,4E0,3E0,4E0,3E0,2E0,2E0,2.62E2,1.11E2,8.9E1,1.67E2,2E0,1E0,1E0,1E0,2.41E2,2.1E1,1.2E1,9.9E1,5.1E1,3.8E1,8E0,1.59E2],"tree_param":{"num_deleted":"0","num_feature":"60","num_nodes":"41","size_leaf_vector":"0"}},{"base_weights":[-6.0921297E-3,2.6999738E-3,-1.9023016E-1,1.1775259E-1,-1.2150363E-2,3.5934174E-1,-2.8860053E-1,3.1201965E-3,2.8761715E-1,-2.8478917E-1,-3.5765439E-3,4.0607393E-2,4.2887348E-1,-1.20953195E-1,-4.7410965E-1,5.6700464E-2,-3.4567156E-1,1.3735218E-1,6.648937E-1,-9.909248E-2,-5.359141E-1,-3.769877E-2,6.641329E-2,1.5824087E-1,-1.760785E-1,-5.8191633E-1,-1.13017164E-1,1.0691076E-1,-1.8810527E-1,5.8342814E-3,-4.171396E-1,1.890358E-2,3.884701E-1,9.68094E-1,2.8935477E-1,3.5428185E-2,-2.1709774E-1,-1.2309209E-1,-5.842024E-1,4.8966713E-2,-8.700697E-2,3.9504862E-1,2.697276E-2,-2.4013479E-1,2.8081864E-2,-1.9862074E-1,-6.6305494E-1,1.3700277E-2,-1.5982307E-1,2.1520445E-1,1.5788857E-2,-1.4072258E-2,-3.1511196E-1,1.2428653E-1,-1.3434401E-1,1.959826E-1,4.8384008E-1,1.4770137E-1,-1.6566727E-2,-2.3842311E-1,-5.523544E-2,-4.856895E-3,3.5331294E-1,-4.3999568E-1,-5.36108E-2,9.9834494E-2,6.507579E-1,-7.9761155E-2,9.354377E-2,-3.4575194E-2,-2.5913307E-1,-3.049153E-2,5.7770174E-2],"categories":[],"categories_nodes":[],"categories_segments":[],"categories_sizes":[],"default_left":[1,1,1,1,1,1,1,1,1,1,1,0,0,1,1,1,1,1,1,1,1,1,1,0,1,1,1,1,1,0,0,1,1,0,0,1,1,0,0,1,1,1,1,1,1,0,0,0,0,0,0,0,0,0,0,0,0,0,0,0,0,0,0,0,0,0,0,0,0,0,0,0,0],"id":14,"left_children":[1,3,5,7,9,11,13,15,17,19,21,-1,-1,23,25,27,29,31,33,35,37,39,41,-1,43,45,47,49,51,-1,-1,53,55,-1,-1,57,59,-1,-1,61,63,65,67,69,71,-1,-1,-1,-1,-1,-1,-1,-1,-1,-1,-1,-1,-1,-1,-1,-1,-1,-1,-1,-1,-1,-1,-1,-1,-1,-1,-1,-1],"loss_changes":[1.0657896E0,1.0761214E0,1.725554E0,1.4010854E0,1.3033377E0,9.339535E-2,7.5125766E-1,8.418874E-1,1.5527275E0,7.3965704E-1,1.296913E0,0E0,0E0,2.5872266E-1,4.0137172E-1,4.9948943E-1,1.531623E-1,6.470369E-1,6.3078547E-1,1.8230698E-1,6.763053E-2,1.5640221E0,2.2965007E0,0E0,1.7675427E-1,1.4820409E-1,2.5914121E-2,3.2224378E-1,1.5028916E-1,0E0,0E0,2.7509212E-1,3.367853E-2,0E0,0E0,3.7472732E-2,7.5412393E-3,0E0,0E0,2.1803906E0,2.7231255E0,1.3693225E0,1.1443226E0,3.0093133E-2,8.717281E-3,0E0,0E0,0E0,0E0,0E0,0E0,0E0,0E0,0E0,0E0,0E0,0E0,0E0,0E0,0E0,0E0,0E0,0E0,0E0,0E0,0E0,0E0,0E0,0E0,0E0,0E0,0E0,0E0],"parents":[2147483647,0,0,1,1,2,2,3,3,4,4,5,5,6,6,7,7,8,8,9,9,10,10,13,13,14,14,15,15,16,16,17,17,18,18,19,19,20,20,21,21,22,22,24,24,25,25,26,26,27,27,28,28,31,31,32,32,35,35,36,36,39,39,40,40,41,41,42,42,43,43,44,44],"right_children":[2,4,6,8,10,12,14,16,18,20,22,-1,-1,24,26,28,30,32,34,36,38,40,42,-1,44,46,48,50,52,-1,-1,54,56,-1,-1,58,60,-1,-1,62,64,66,68,70,72,-1,-1,-1,-1,-1,-1,-1,-1,-1,-1,-1,-1,-1,-1,-1,-1,-1,-1,-1,-1,-1,-1,-1,-1,-1,-1,-1,-1],"split_conditions":[2.1351712E0,-1.6035563E0,-1.8165014E0,7.503462E-2,-2.9410024E0,-4.463709E-1,-1.5526963E-2,1.3009331E0,4.1007957E-1,3.0168152E-1,3.6817575E-1,1.2182218E-2,1.2866205E-1,-1.5076624E0,6.27301E-1,9.6679056E-1,-1.2288246E0,-3.1766165E-2,1.0181987E-1,-1.1672187E0,-2.6045308E0,-3.4584635E-1,-2.0211408E0,4.7472265E-2,5.2934134E-1,4.1868497E-2,-9.2847556E-1,-1.465722E-1,1.3364314E-1,1.7502845E-3,-1.2514189E-1,1.2571043E-1,-8.670342E-1,2.9042822E-1,8.680643E-2,-2.3629568E0,5.361763E-1,-3.692763E-2,-1.7526072E-1,-4.6356958E-1,-2.165663E-1,6.1826295E-1,-2.5647166E-1,-2.003859E0,5.4540396E-1,-5.9586223E-2,-1.989165E-1,4.110083E-3,-4.7946926E-2,6.456134E-2,4.7366573E-3,-4.221678E-3,-9.453359E-2,3.728596E-2,-4.0303204E-2,5.8794785E-2,1.4515203E-1,4.4310413E-2,-4.9700183E-3,-7.152694E-2,-1.6570633E-2,-1.4570686E-3,1.0599389E-1,-1.319987E-1,-1.608324E-2,2.9950349E-2,1.9522738E-1,-2.3928348E-2,2.8063131E-2,-1.0372559E-2,-7.7739924E-2,-9.14746E-3,1.7331053E-2],"split_indices":[54,30,32,1,25,1,3,31,7,29,31,0,0,44,3,54,3,2,34,1,1,59,36,0,44,21,0,37,15,0,0,42,5,0,0,1,0,0,0,59,59,23,5,1,0,0,0,0,0,0,0,0,0,0,0,0,0,0,0,0,0,0,0,0,0,0,0,0,0,0,0,0,0],"split_type":[0,0,0,0,0,0,0,0,0,0,0,0,0,0,0,0,0,0,0,0,0,0,0,0,0,0,0,0,0,0,0,0,0,0,0,0,0,0,0,0,0,0,0,0,0,0,0,0,0,0,0,0,0,0,0,0,0,0,0,0,0,0,0,0,0,0,0,0,0,0,0,0,0],"sum_hessian":[6.57E2,6.28E2,2.9E1,7.1E1,5.57E2,4E0,2.5E1,4.3E1,2.8E1,1.6E1,5.41E2,1E0,3E0,1.4E1,1.1E1,3.8E1,5E0,2.1E1,7E0,1E1,6E0,3.64E2,1.77E2,2E0,1.2E1,8E0,3E0,3.2E1,6E0,1E0,4E0,1.5E1,6E0,3E0,4E0,5E0,5E0,1E0,5E0,1.32E2,2.32E2,1.8E1,1.59E2,9E0,3E0,2E0,6E0,1E0,2E0,1.4E1,1.8E1,3E0,3E0,9E0,6E0,3E0,3E0,1E0,4E0,4E0,1E0,1.13E2,1.9E1,1.9E1,2.13E2,9E0,9E0,6.1E1,9.8E1,1E0,8E0,1E0,2E0],"tree_param":{"num_deleted":"0","num_feature":"60","num_nodes":"73","size_leaf_vector":"0"}},{"base_weights":[-4.027127E-3,-2.2861328E-2,7.049029E-2,-6.840263E-2,4.1292027E-2,-7.012316E-2,1.3615939E-1,-2.1289635E-2,-2.0705265E-1,1.2053792E-1,-7.581476E-2,-2.3187885E-1,1.10377036E-1,1.7024572E-1,-1.9332115E-1,-6.9431305E-2,7.044566E-2,-2.821277E-1,7.893012E-2,2.3784727E-1,-2.6650552E-2,-1.854739E-1,6.952963E-2,-1.24851735E-2,-5.1584214E-1,2.3734795E-1,-4.6301517E-3,-7.2996356E-2,2.2065711E-1,5.688697E-4,-3.4854695E-1,-1.086218E-1,1.16029195E-1,2.5258262E-2,3.8423157E-1,-6.359214E-1,-2.018612E-1,-1.4095244E-1,4.131841E-1,1.7680985E-1,7.1167505E-1,-1.5159558E-1,1.4933851E-1,-8.03404E-1,-1.4385627E-1,1.4465258E-1,-4.702369E-1,-2.6184756E-1,1.1344454E-1,-8.3661914E-1,-2.588492E-1,2.6249863E-2,2.8684124E-1,1.3150465E-1,-8.913564E-2,2.720635E-1,-1.8193328E-1,2.606436E-1,-1.16820246E-1,-4.615365E-2,4.7101766E-2,-1.4747797E-1,-4.3343362E-1,-2.6253862E-2,-2.2533283E-1,2.3099709E-1,-1.0251593E-1,3.2668534E-1,-3.5448123E-2,6.013236E-1,4.6874784E-2,-5.915133E-2,-8.4481627E-1,4.469906E-2,-2.851941E-1,2.8183885E-2,-2.865967E-1,1.8295231E-1,4.6868637E-1,4.29889E-1,7.294914E-2,8.511706E-1,1.9545896E-1,-8.554444E-1,-8.3015524E-2,-5.8590084E-2,3.16896E-1,1.2681386E-2,-2.2741319E-1,2.5978953E-1,7.4611194E-3,-8.060229E-2,-5.4749495E-1,-5.0727054E-2,-3.0194592E-1,1.1337494E-2,2.1328409E-1,3.3459526E-2,5.9152693E-3,9.021461E-3,-1.2335825E-1,-2.5917828E-2,3.800299E-1,-9.780243E-2,-2.80156E-1,3.0124205E-1,-1.1907639E-2,-2.2583033E-1,1.4014001E-1],"categories":[],"categories_nodes":[],"categories_segments":[],"categories_sizes":[],"default_left":[1,1,1,1,1,1,1,1,1,1,1,1,1,1,1,1,1,1,1,1,1,1,1,1,1,1,1,1,1,1,1,1,1,1,1,1,1,1,1,1,1,1,1,0,1,1,1,1,1,0,0,1,0,0,1,1,1,1,1,0,0,0,0,0,0,0,0,0,0,0,0,0,0,0,0,0,0,0,0,0,0,0,0,0,0,0,0,0,0,0,0,0,0,0,0,0,0,0,0,0,0,0,0,0,0,0,0,0,0],"id":15,"left_children":[1,3,5,7,9,11,13,15,17,19,21,23,25,27,29,31,33,35,37,39,41,43,45,47,49,51,53,55,57,59,61,63,65,67,69,71,73,75,77,79,81,83,85,-1,87,89,91,93,95,-1,-1,97,-1,-1,99,101,103,105,107,-1,-1,-1,-1,-1,-1,-1,-1,-1,-1,-1,-1,-1,-1,-1,-1,-1,-1,-1,-1,-1,-1,-1,-1,-1,-1,-1,-1,-1,-1,-1,-1,-1,-1,-1,-1,-1,-1,-1,-1,-1,-1,-1,-1,-1,-1,-1,-1,-1,-1],"loss_changes":[9.250987E-1,1.5396007E0,1.2376645E0,2.007515E0,2.0415094E0,1.2810622E0,1.0549134E0,1.0250541E0,1.6969423E0,2.2682612E0,1.4314084E0,1.4264537E0,3.0775285E-1,1.0338671E0,2.7106884E-1,1.1173831E0,1.1246283E0,1.6322947E0,1.307682E0,1.9854183E0,1.3199877E0,1.1959815E0,1.649426E0,4.6933508E-1,6.07816E-1,9.6949816E-2,1.4977142E-1,6.133438E-1,9.615712E-1,1.3044589E-2,2.1418512E-2,1.2053531E0,7.0207405E-1,1.3107773E0,7.04188E-1,1.2753553E0,1.0811698E0,2.7904844E-1,3.7013292E-3,1.7034485E0,4.0970945E-1,1.6184344E0,8.895667E-1,0E0,6.437944E-1,5.509149E-1,1.0638285E-1,2.7011096E-2,9.952511E-2,0E0,0E0,2.4189451E-4,0E0,0E0,2.7986407E-2,1.385374E-1,7.176277E-2,6.896267E-1,2.5573796E-1,0E0,0E0,0E0,0E0,0E0,0E0,0E0,0E0,0E0,0E0,0E0,0E0,0E0,0E0,0E0,0E0,0E0,0E0,0E0,0E0,0E0,0E0,0E0,0E0,0E0,0E0,0E0,0E0,0E0,0E0,0E0,0E0,0E0,0E0,0E0,0E0,0E0,0E0,0E0,0E0,0E0,0E0,0E0,0E0,0E0,0E0,0E0,0E0,0E0,0E0],"parents":[2147483647,0,0,1,1,2,2,3,3,4,4,5,5,6,6,7,7,8,8,9,9,10,10,11,11,12,12,13,13,14,14,15,15,16,16,17,17,18,18,19,19,20,20,21,21,22,22,23,23,24,24,25,25,26,26,27,27,28,28,29,29,30,30,31,31,32,32,33,33,34,34,35,35,36,36,37,37,38,38,39,39,40,40,41,41,42,42,44,44,45,45,46,46,47,47,48,48,51,51,54,54,55,55,56,56,57,57,58,58],"right_children":[2,4,6,8,10,12,14,16,18,20,22,24,26,28,30,32,34,36,38,40,42,44,46,48,50,52,54,56,58,60,62,64,66,68,70,72,74,76,78,80,82,84,86,-1,88,90,92,94,96,-1,-1,98,-1,-1,100,102,104,106,108,-1,-1,-1,-1,-1,-1,-1,-1,-1,-1,-1,-1,-1,-1,-1,-1,-1,-1,-1,-1,-1,-1,-1,-1,-1,-1,-1,-1,-1,-1,-1,-1,-1,-1,-1,-1,-1,-1,-1,-1,-1,-1,-1,-1,-1,-1,-1,-1,-1,-1],"split_conditions":[8.1781447E-1,2.1952063E-1,-7.263769E-1,-7.184452E-2,4.6056338E-2,1.1207326E-1,1.7765272E0,2.4873015E-1,6.980678E-1,1.324206E-1,2.0213458E-1,3.140016E-1,-6.5662444E-1,-1.3260465E0,2.1336658E-3,9.397088E-1,1.149008E0,-1.0176563E0,1.2104747E-1,5.696233E-2,1.9762928E-2,-2.6349578E0,1.2130908E0,1.1220265E-2,-3.3217913E-1,-5.341495E-2,1.4335874E0,-4.1439917E-2,1.7653391E0,-7.2204256E-1,1.8925193E-1,-4.222078E-2,4.3492854E-2,-1.4772663E0,-3.902666E-1,-7.005551E-1,-5.727999E-1,6.589403E-1,-1.8385503E-1,-1.4134201E0,4.434144E-1,-2.4378004E0,9.751928E-2,-2.410212E-1,-1.0283624E-1,3.5373276E-1,-3.8923311E0,-2.8419554E-2,4.652896E-3,-2.5098574E-1,-7.7654764E-2,2.4922971E-1,8.605237E-2,3.9451398E-2,-1.0374314E0,-4.757836E-1,4.309212E-1,1.4696283E0,-4.7780076E-1,-1.3846096E-2,1.413053E-2,-4.424339E-2,-1.300301E-1,-7.876159E-3,-6.759985E-2,6.929913E-2,-3.075478E-2,9.800561E-2,-1.0634437E-2,1.803971E-1,1.4062435E-2,-1.77454E-2,-2.5344488E-1,1.3409719E-2,-8.5558236E-2,8.455166E-3,-8.597901E-2,5.4885697E-2,1.4060591E-1,1.289667E-1,2.1884743E-2,2.553512E-1,5.863769E-2,-2.566333E-1,-2.4904659E-2,-1.7577026E-2,9.5068805E-2,3.8044162E-3,-6.822396E-2,7.793686E-2,2.238336E-3,-2.4180688E-2,-1.642485E-1,-1.5218117E-2,-9.058378E-2,3.4012483E-3,6.398523E-2,1.0037858E-2,1.7745808E-3,2.7064383E-3,-3.7007477E-2,-7.7753486E-3,1.1400897E-1,-2.9340731E-2,-8.4046796E-2,9.037262E-2,-3.572292E-3,-6.7749105E-2,4.2042006E-2],"split_indices":[30,27,1,27,54,31,8,6,40,29,44,47,16,47,53,46,11,32,33,29,39,36,43,13,3,4,30,1,45,2,5,46,30,20,27,29,10,23,4,54,0,37,46,0,45,12,0,3,2,0,0,0,0,0,24,1,54,49,4,0,0,0,0,0,0,0,0,0,0,0,0,0,0,0,0,0,0,0,0,0,0,0,0,0,0,0,0,0,0,0,0,0,0,0,0,0,0,0,0,0,0,0,0,0,0,0,0,0,0],"split_type":[0,0,0,0,0,0,0,0,0,0,0,0,0,0,0,0,0,0,0,0,0,0,0,0,0,0,0,0,0,0,0,0,0,0,0,0,0,0,0,0,0,0,0,0,0,0,0,0,0,0,0,0,0,0,0,0,0,0,0,0,0,0,0,0,0,0,0,0,0,0,0,0,0,0,0,0,0,0,0,0,0,0,0,0,0,0,0,0,0,0,0,0,0,0,0,0,0,0,0,0,0,0,0,0,0,0,0,0,0],"sum_hessian":[6.57E2,5.25E2,1.32E2,3.07E2,2.18E2,4.2E1,9E1,2.3E2,7.7E1,1.3E2,8.8E1,2.2E1,2E1,8.2E1,8E0,1.51E2,7.9E1,6.1E1,1.6E1,7.2E1,5.8E1,5E1,3.8E1,1.3E1,9E0,9E0,1.1E1,1.4E1,6.8E1,4E0,4E0,1.25E2,2.6E1,7E1,9E0,1E1,5.1E1,1E1,6E0,6.5E1,7E0,3.4E1,2.4E1,2E0,4.8E1,3.4E1,4E0,4E0,9E0,3E0,6E0,2E0,7E0,4E0,7E0,3E0,1.1E1,6.1E1,7E0,2E0,2E0,2E0,2E0,7.4E1,5.1E1,1.7E1,9E0,1.1E1,5.9E1,5E0,4E0,3E0,7E0,1.3E1,3.8E1,5E0,5E0,2E0,4E0,1.8E1,4.7E1,5E0,2E0,2E0,3.2E1,1.1E1,1.3E1,1.7E1,3.1E1,1.8E1,1.6E1,1E0,3E0,1E0,3E0,5E0,4E0,1E0,1E0,2E0,5E0,1E0,2E0,7E0,4E0,5.3E1,8E0,5E0,2E0],"tree_param":{"num_deleted":"0","num_feature":"60","num_nodes":"109","size_leaf_vector":"0"}},{"base_weights":[-3.605408E-3,2.5546197E-3,-1.737868E-1,-1.8829708E-1,7.46778E-3,-2.7579933E-1,1.5543741E-2,-3.2770202E-1,9.866151E-2,2.9887363E-1,3.177208E-3,-1.415296E-1,-5.1603293E-1,-5.244056E-2,8.0419295E-2,-3.997315E-1,-2.3795962E-3,1.9746462E-1,-1.06185675E-4,4.8181415E-2,4.1618952E-1,-1.52727915E-2,6.28315E-2,-1.7346449E-1,1.4516314E-3,-8.4924504E-2,-6.025789E-1,-1.1082502E-2,-1.089364E-1,6.835067E-2,-7.192007E-2,4.209344E-2,-2.8203875E-2,9.986398E-2,-5.3433146E-2,6.4021E-3,-9.955546E-2,7.782226E-2,-6.72672E-1,-4.9348913E-2,-1.8281034E-1,6.6701174E-3,-4.4926703E-3,-1.3093434E-2,-2.5248528E-3,1.888123E-2,-2.1542256E-1,-3.240365E-1,-4.7147688E-2,-6.975159E-2,1.3189425E-1],"categories":[],"categories_nodes":[],"categories_segments":[],"categories_sizes":[],"default_left":[1,1,1,1,1,1,1,1,1,1,1,1,1,1,0,0,1,0,1,1,0,1,1,1,1,0,0,1,0,0,0,0,0,0,0,1,1,1,0,0,0,0,0,0,0,0,0,0,0,0,0],"id":16,"left_children":[1,3,5,7,9,11,13,15,17,19,21,23,25,27,-1,-1,29,-1,31,33,-1,35,37,39,41,-1,-1,43,-1,-1,-1,-1,-1,-1,-1,45,47,49,-1,-1,-1,-1,-1,-1,-1,-1,-1,-1,-1,-1,-1],"loss_changes":[6.9023985E-1,5.9777385E-1,4.4851106E-1,6.723867E-1,7.7548534E-1,4.108075E-1,4.3911908E-2,2.568097E-1,5.8572296E-2,2.4463904E-1,6.7564064E-1,5.04788E-2,1.3537979E-1,1.0475504E-2,0E0,0E0,1.9671634E-2,0E0,5.930046E-3,2.6342852E-2,0E0,8.5741496E-1,1.651084E0,1.4181733E-3,1.230274E-4,0E0,0E0,3.5776407E-5,0E0,0E0,0E0,0E0,0E0,0E0,0E0,1.0393661E0,1.1141193E0,1.1502842E0,0E0,0E0,0E0,0E0,0E0,0E0,0E0,0E0,0E0,0E0,0E0,0E0,0E0],"parents":[2147483647,0,0,1,1,2,2,3,3,4,4,5,5,6,6,7,7,8,8,9,9,10,10,11,11,12,12,13,13,16,16,18,18,19,19,21,21,22,22,23,23,24,24,27,27,35,35,36,36,37,37],"right_children":[2,4,6,8,10,12,14,16,18,20,22,24,26,28,-1,-1,30,-1,32,34,-1,36,38,40,42,-1,-1,44,-1,-1,-1,-1,-1,-1,-1,46,48,50,-1,-1,-1,-1,-1,-1,-1,-1,-1,-1,-1,-1,-1],"split_conditions":[2.7126198E0,-3.258226E0,1.721467E-1,1.2725683E-1,-4.057338E0,-2.0797664E-1,1.0087516E-2,1.3397315E0,-5.9958285E-1,-6.1671853E-1,7.31977E-1,3.513773E-1,-7.8494E-1,-3.44749E-1,2.412579E-2,-1.1991945E-1,5.609404E-1,5.9239388E-2,7.806051E-2,7.915458E-2,1.2485686E-1,6.845623E-1,2.9370532E0,-2.4312215E0,3.6579055E-1,-2.5477352E-2,-1.8077368E-1,7.4406004E-1,-3.268092E-2,2.0505203E-2,-2.157602E-2,1.2628033E-2,-8.461162E-3,2.9959196E-2,-1.6029945E-2,5.8953035E-1,9.228045E-1,-6.325927E-1,-2.018016E-1,-1.4804674E-2,-5.48431E-2,2.0010353E-3,-1.3478012E-3,-3.9280304E-3,-7.574559E-4,5.664369E-3,-6.462677E-2,-9.721096E-2,-1.4144307E-2,-2.0925477E-2,3.9568275E-2],"split_indices":[17,58,7,51,52,2,13,11,5,8,20,5,4,1,0,0,0,0,0,1,0,54,35,2,0,0,0,0,0,0,0,0,0,0,0,20,54,5,0,0,0,0,0,0,0,0,0,0,0,0,0],"split_type":[0,0,0,0,0,0,0,0,0,0,0,0,0,0,0,0,0,0,0,0,0,0,0,0,0,0,0,0,0,0,0,0,0,0,0,0,0,0,0,0,0,0,0,0,0,0,0,0,0,0,0],"sum_hessian":[6.57E2,6.35E2,2.2E1,1.5E1,6.2E2,1.4E1,8E0,1E1,5E0,8E0,6.12E2,1E1,4E0,4E0,4E0,8E0,2E0,2E0,3E0,3E0,5E0,4.68E2,1.44E2,8E0,2E0,1E0,3E0,3E0,1E0,1E0,1E0,1E0,2E0,2E0,1E0,3.73E2,9.5E1,1.42E2,2E0,1E0,7E0,1E0,1E0,2E0,1E0,3.54E2,1.9E1,1.7E1,7.8E1,3.8E1,1.04E2],"tree_param":{"num_deleted":"0","num_feature":"60","num_nodes":"51","size_leaf_vector":"0"}},{"base_weights":[-3.3759999E-3,-1.5109156E-2,7.180687E-2,-6.638209E-2,1.6597947E-2,1.9164515E-1,-2.2343437E-3,-1.2888934E-1,2.9219517E-2,1.1437559E-2,6.1483073E-1,3.156788E-1,-3.2999907E-2,1.6306867E-1,-6.1217934E-2,-2.1159351E-1,3.5707477E-2,8.123613E-2,-1.6122079E-1,6.403852E-2,-4.824619E-2,1.2544937E-1,4.637492E-1,1.1355305E-1,-2.2290386E-1,2.624512E-1,-8.818665E-2,8.325195E-2,-1.3642617E-1,-1.3692194E-1,-5.96506E-1,-7.352078E-2,1.7591883E-1,1.3301274E-1,-2.3754716E-1,-2.427765E-2,-3.1068233E-1,5.291676E-2,7.2853446E-1,-1.2712486E-1,1.7293876E-2,1.5920755E-1,-1.7641634E-2,1.4525121E-1,6.0484177E-1,-1.0800421E-1,1.6063325E-1,-2.3481533E-2,-2.5809202E-1,3.2965928E-1,6.2422235E-2,-1.3630836E-1,-1.0669395E-2,-2.0396348E-2,1.7649376E-1,-1.8345301E-1,6.658113E-2,-8.593789E-2,-5.5317116E-1,-8.389174E-1,-3.0983275E-1,1.1469652E-1,-1.3572079E-1,2.5456664E-1,-5.002052E-2,5.2194323E-2,3.046633E-1,-3.0193081E-1,1.33249955E-2,-7.7168144E-2,5.462457E-2,-3.4337366E-1,-2.4575815E-2,-1.7758882E-1,7.7298805E-2,9.6620977E-1,1.2659192E-1,-2.3430381E-2,-2.5838962E-1,-7.492267E-1,3.4135513E-2,5.61199E-2,1.8064404E-1,-5.424261E-2,2.778016E-2,2.3912258E-1,8.1413E-2,3.6133805E-1,5.3953886E-2,4.5722723E-3,-2.0576365E-2,-9.152922E-2,4.058922E-2,4.433784E-2,2.131561E-1,-7.225E-2,-2.4977995E-1,1.5681878E-1,-7.592944E-2],"categories":[],"categories_nodes":[],"categories_segments":[],"categories_sizes":[],"default_left":[1,1,1,1,1,1,1,1,1,1,0,1,1,1,1,1,1,1,1,1,1,1,1,1,1,1,1,1,1,1,1,1,1,1,1,1,1,1,1,1,1,1,1,0,0,0,1,0,0,1,0,0,1,1,1,1,1,0,0,0,0,0,0,0,0,0,0,0,0,0,0,0,0,0,0,0,0,0,0,0,0,0,0,0,0,0,0,0,0,0,0,0,0,0,0,0,0,0,0],"id":17,"left_children":[1,3,5,7,9,11,13,15,17,19,-1,21,23,25,27,29,31,33,35,37,39,41,43,45,47,49,51,53,55,57,59,61,63,65,67,69,71,73,75,77,79,81,83,-1,-1,-1,85,-1,-1,87,-1,-1,89,91,93,95,97,-1,-1,-1,-1,-1,-1,-1,-1,-1,-1,-1,-1,-1,-1,-1,-1,-1,-1,-1,-1,-1,-1,-1,-1,-1,-1,-1,-1,-1,-1,-1,-1,-1,-1,-1,-1,-1,-1,-1,-1,-1,-1],"loss_changes":[5.8152807E-1,9.277599E-1,7.901226E-1,1.306489E0,1.0827188E0,9.5777786E-1,5.5599195E-1,1.804451E0,8.749241E-1,1.1050271E0,0E0,5.615046E-1,3.871142E-1,3.977005E-1,4.6770138E-1,2.4476225E0,7.021105E-1,1.1704776E0,3.8134426E-1,1.3434471E0,8.55201E-1,5.5944085E-2,4.5139837E-1,1.00796774E-1,3.6043435E-2,1.2730116E-1,1.7196987E-2,1.4856517E-1,2.7952474E-1,1.5441169E0,7.1297646E-1,3.1995177E-1,3.6812633E-1,8.1645E-1,1.6554391E-1,5.0120227E-2,7.57401E-2,1.0534639E0,3.0688632E-1,1.0148033E0,1.2003362E0,9.750828E-3,6.4943144E-3,0E0,0E0,0E0,2.4057925E-2,0E0,0E0,5.0376475E-2,0E0,0E0,5.4707704E-4,3.841973E-2,2.9310256E-2,1.5159571E-1,8.906607E-2,0E0,0E0,0E0,0E0,0E0,0E0,0E0,0E0,0E0,0E0,0E0,0E0,0E0,0E0,0E0,0E0,0E0,0E0,0E0,0E0,0E0,0E0,0E0,0E0,0E0,0E0,0E0,0E0,0E0,0E0,0E0,0E0,0E0,0E0,0E0,0E0,0E0,0E0,0E0,0E0,0E0,0E0],"parents":[2147483647,0,0,1,1,2,2,3,3,4,4,5,5,6,6,7,7,8,8,9,9,11,11,12,12,13,13,14,14,15,15,16,16,17,17,18,18,19,19,20,20,21,21,22,22,23,23,24,24,25,25,26,26,27,27,28,28,29,29,30,30,31,31,32,32,33,33,34,34,35,35,36,36,37,37,38,38,39,39,40,40,41,41,42,42,46,46,49,49,52,52,53,53,54,54,55,55,56,56],"right_children":[2,4,6,8,10,12,14,16,18,20,-1,22,24,26,28,30,32,34,36,38,40,42,44,46,48,50,52,54,56,58,60,62,64,66,68,70,72,74,76,78,80,82,84,-1,-1,-1,86,-1,-1,88,-1,-1,90,92,94,96,98,-1,-1,-1,-1,-1,-1,-1,-1,-1,-1,-1,-1,-1,-1,-1,-1,-1,-1,-1,-1,-1,-1,-1,-1,-1,-1,-1,-1,-1,-1,-1,-1,-1,-1,-1,-1,-1,-1,-1,-1,-1,-1],"split_conditions":[1.2021776E0,-2.7651134E-1,-4.0927732E-1,2.1285108E-1,3.596933E0,5.0005347E-1,-6.375369E-1,4.188163E-1,6.982963E-1,5.3921737E-2,1.8444923E-1,-3.0392796E-1,1.5455864E-1,5.715493E-1,-3.0784425E-1,1.3116446E-1,-5.6443356E-2,6.5368336E-1,-9.437306E-1,4.4069115E-2,-8.72072E-3,1.835584E0,-9.02686E-1,-3.898039E0,-6.387399E-1,1.8025463E0,9.420745E-2,7.8839734E-2,1.1920427E0,-3.796564E-1,-2.8390014E-1,-2.1619585E-1,2.304093E-1,-6.535914E-3,2.0238166E0,1.3779465E0,1.6816897E0,-1.8628585E0,2.2603145E-1,1.9405541E-1,-2.62176E0,-2.683557E0,-1.5781741E-1,4.3575365E-2,1.8145254E-1,-3.2401264E-2,-3.503299E0,-7.04446E-3,-7.742761E-2,2.4046189E-1,1.8726671E-2,-4.0892508E-2,-2.0149472E0,2.6186958E-1,-8.5615766E-1,3.0485672E-1,-2.2600026E-1,-2.5781367E-2,-1.6595136E-1,-2.5167522E-1,-9.294983E-2,3.4408957E-2,-4.071624E-2,7.636999E-2,-1.5006157E-2,1.5658299E-2,9.139899E-2,-9.057925E-2,3.9974987E-3,-2.3150444E-2,1.6387371E-2,-1.030121E-1,-7.372745E-3,-5.3276647E-2,2.3189642E-2,2.8986293E-1,3.7977576E-2,-7.0291148E-3,-7.751689E-2,-2.2476801E-1,1.0240654E-2,1.683597E-2,5.4193214E-2,-1.6272783E-2,8.334048E-3,7.1736775E-2,2.4423901E-2,1.0840142E-1,1.6186167E-2,1.3716817E-3,-6.17291E-3,-2.7458766E-2,1.2176767E-2,1.3301352E-2,6.3946836E-2,-2.1675002E-2,-7.493399E-2,4.7045637E-2,-2.2778833E-2],"split_indices":[39,5,5,28,50,54,0,12,59,28,0,56,58,44,56,12,24,39,25,28,56,19,2,5,0,43,5,37,57,5,43,42,46,39,10,44,0,14,0,35,36,5,0,0,0,0,6,0,0,11,0,0,0,0,7,59,4,0,0,0,0,0,0,0,0,0,0,0,0,0,0,0,0,0,0,0,0,0,0,0,0,0,0,0,0,0,0,0,0,0,0,0,0,0,0,0,0,0,0],"split_type":[0,0,0,0,0,0,0,0,0,0,0,0,0,0,0,0,0,0,0,0,0,0,0,0,0,0,0,0,0,0,0,0,0,0,0,0,0,0,0,0,0,0,0,0,0,0,0,0,0,0,0,0,0,0,0,0,0,0,0,0,0,0,0,0,0,0,0,0,0,0,0,0,0,0,0,0,0,0,0,0,0,0,0,0,0,0,0,0,0,0,0,0,0,0,0,0,0,0,0],"sum_hessian":[6.57E2,5.69E2,8.8E1,2.17E2,3.52E2,3.3E1,5.5E1,1.31E2,8.6E1,3.5E2,2E0,2.1E1,1.2E1,1.4E1,4.1E1,8.7E1,4.4E1,6.8E1,1.8E1,1.86E2,1.64E2,1E1,1.1E1,7E0,5E0,1E1,4E0,1.4E1,2.7E1,7.4E1,1.3E1,2.5E1,1.9E1,5.9E1,9E0,1E1,8E0,1.84E2,2E0,7.4E1,9E1,8E0,2E0,4E0,7E0,1E0,6E0,1E0,4E0,7E0,3E0,2E0,2E0,7E0,7E0,2.2E1,5E0,6.7E1,7E0,6E0,7E0,6E0,1.9E1,1.4E1,5E0,4.1E1,1.8E1,7E0,2E0,6E0,4E0,7E0,1E0,1.7E1,1.67E2,1E0,1E0,4.2E1,3.2E1,1E0,8.9E1,2E0,6E0,1E0,1E0,2E0,4E0,6E0,1E0,1E0,1E0,3E0,4E0,2E0,5E0,9E0,1.3E1,3E0,2E0],"tree_param":{"num_deleted":"0","num_feature":"60","num_nodes":"99","size_leaf_vector":"0"}},{"base_weights":[-2.4242841E-3,-1.4245891E-2,7.045914E-2,-3.1119958E-2,4.691838E-2,2.4989136E-2,2.3290172E-1,-6.0047153E-2,2.8532635E-2,2.3405287E-1,8.309229E-3,-1.10802904E-1,7.1444765E-2,4.5332983E-1,1.1339641E-2,-1.9310135E-1,-3.33031E-2,-7.701307E-2,1.2947609E-1,4.331571E-1,1.0356096E-1,1.2828743E-1,-5.2669708E-2,8.876622E-2,-1.5377E-1,-2.5205845E-1,9.495569E-2,6.01136E-1,1.8529646E-1,-1.37974E-1,1.1637229E-1,-2.3023652E-2,-3.9175674E-1,-7.559859E-2,4.1893356E-2,7.9866275E-2,-1.4317645E-1,5.950563E-1,8.7719545E-2,9.771138E-4,4.9475747E-1,1.867048E-1,-6.254991E-3,4.0536456E-2,3.7728623E-1,-3.5600904E-1,-2.3408681E-2,1.02105714E-1,2.437386E-2,-5.650337E-2,-2.2314368E-1,-5.76526E-2,1.3266368E-1,-7.223996E-2,-2.0045507E-1,1.331242E-1,7.930428E-3,1.04403615E-1,-1.1161798E-1,-1.8585925E-1,-6.9139075E-1,-5.3574707E-2,-4.4160482E-1,-1.1379346E-1,1.1654999E-1,-8.881992E-2,2.2783975E-1,-3.2534637E-4,-2.4316138E-1,4.8771728E-2,8.5600567E-1,1.806058E-1,-2.1898549E-2,4.840948E-2,2.2473499E-1,4.450596E-2,-8.877158E-2,1.0081438E-1,-1.4608824E-1,4.237775E-2,4.669204E-1,-4.735111E-1,-8.066992E-2,2.354213E-1,-4.9333617E-2,5.6916684E-2,-8.083719E-2,-8.9766584E-2,5.7906874E-2,3.476529E-2,2.2008197E-1],"categories":[],"categories_nodes":[],"categories_segments":[],"categories_sizes":[],"default_left":[1,1,1,1,1,1,1,1,1,1,1,1,1,1,1,1,1,1,1,1,1,1,1,1,1,0,1,0,0,1,1,1,1,1,1,1,1,1,1,0,0,1,1,1,1,1,1,0,0,1,0,1,1,0,0,0,0,0,0,0,0,0,0,0,0,0,0,0,0,0,0,0,0,0,0,0,0,0,0,0,0,0,0,0,0,0,0,0,0,0,0],"id":18,"left_children":[1,3,5,7,9,11,13,15,17,19,21,23,25,27,29,31,33,35,37,39,41,43,45,47,49,-1,51,-1,-1,53,55,57,59,61,63,65,67,69,71,-1,-1,73,75,77,79,81,83,-1,-1,85,-1,87,89,-1,-1,-1,-1,-1,-1,-1,-1,-1,-1,-1,-1,-1,-1,-1,-1,-1,-1,-1,-1,-1,-1,-1,-1,-1,-1,-1,-1,-1,-1,-1,-1,-1,-1,-1,-1,-1,-1],"loss_changes":[5.6793606E-1,5.866551E-1,6.737165E-1,7.695974E-1,8.8674283E-1,4.6842253E-1,9.7162974E-1,1.0610917E0,1.5654768E0,5.0075305E-1,7.603196E-1,1.7657281E-1,4.4225663E-1,2.8478146E-1,1.8856722E-1,1.6803231E0,8.0146533E-1,7.5877106E-1,1.4058782E0,2.1249628E-1,1.2899512E-1,7.4945223E-1,6.041116E-1,9.4713643E-4,9.535551E-2,0E0,3.0688506E-1,0E0,0E0,6.0548037E-3,1.1660524E-2,3.2775465E-1,1.2904582E0,1.2741426E0,1.0709605E0,5.693806E-1,7.2835183E-1,8.135669E-1,7.1669596E-1,0E0,0E0,3.1195879E-2,3.327121E-2,3.1846026E-1,2.5038624E-1,1.5591943E-1,4.410638E-1,0E0,0E0,2.668053E-2,0E0,4.601992E-2,3.5178936E-1,0E0,0E0,0E0,0E0,0E0,0E0,0E0,0E0,0E0,0E0,0E0,0E0,0E0,0E0,0E0,0E0,0E0,0E0,0E0,0E0,0E0,0E0,0E0,0E0,0E0,0E0,0E0,0E0,0E0,0E0,0E0,0E0,0E0,0E0,0E0,0E0,0E0,0E0],"parents":[2147483647,0,0,1,1,2,2,3,3,4,4,5,5,6,6,7,7,8,8,9,9,10,10,11,11,12,12,13,13,14,14,15,15,16,16,17,17,18,18,19,19,20,20,21,21,22,22,23,23,24,24,26,26,29,29,30,30,31,31,32,32,33,33,34,34,35,35,36,36,37,37,38,38,41,41,42,42,43,43,44,44,45,45,46,46,49,49,51,51,52,52],"right_children":[2,4,6,8,10,12,14,16,18,20,22,24,26,28,30,32,34,36,38,40,42,44,46,48,50,-1,52,-1,-1,54,56,58,60,62,64,66,68,70,72,-1,-1,74,76,78,80,82,84,-1,-1,86,-1,88,90,-1,-1,-1,-1,-1,-1,-1,-1,-1,-1,-1,-1,-1,-1,-1,-1,-1,-1,-1,-1,-1,-1,-1,-1,-1,-1,-1,-1,-1,-1,-1,-1,-1,-1,-1,-1,-1,-1],"split_conditions":[1.1359842E0,7.1340775E-1,8.5705537E-1,3.6337885E-1,9.2999065E-1,-1.0991871E0,9.587944E-2,-1.0696802E0,-2.221376E-2,-8.263766E-2,-3.9102185E-1,-6.6978866E-1,-3.2096128E0,-3.8942486E-1,-4.6903318E-1,1.06375895E-1,2.7319032E-1,-7.033044E-1,-1.8963611E0,-1.8663068E0,1.6571088E-1,8.732522E-1,-1.6272056E0,-6.3918465E-1,-5.609822E-1,-7.561754E-2,-1.2924596E0,1.8034081E-1,5.5588942E-2,6.8152183E-1,5.6747085E-1,-3.32866E-1,3.6757004E-1,2.1497461E-1,-3.2913506E-1,-4.0868616E-1,-1.914942E-1,-6.80799E-1,-7.609208E-2,2.9313416E-4,1.4842725E-1,-9.041244E-1,8.049185E-1,7.4880946E-1,-5.877726E-1,-3.031122E-1,-1.8486736E0,3.0631715E-2,7.312158E-3,-3.1526794E0,-6.694311E-2,5.9442914E-1,3.1034756E-2,-2.1671988E-2,-6.0136523E-2,3.993726E-2,2.3791285E-3,3.1321086E-2,-3.3485398E-2,-5.5757776E-2,-2.0741723E-1,-1.6072413E-2,-1.3248146E-1,-3.413804E-2,3.4964997E-2,-2.6645977E-2,6.835193E-2,-9.7603915E-5,-7.294842E-2,1.4631519E-2,2.5680172E-1,5.4181743E-2,-6.569565E-3,1.4522845E-2,6.74205E-2,1.3351789E-2,-2.6631476E-2,3.0244315E-2,-4.3826476E-2,1.2713326E-2,1.4007613E-1,-1.4205334E-1,-2.4200976E-2,7.062639E-2,-1.4800086E-2,1.7075006E-2,-2.4251157E-2,-2.6929976E-2,1.7372062E-2,1.0429587E-2,6.6024594E-2],"split_indices":[51,0,6,43,0,7,32,32,19,41,23,17,50,52,0,2,34,12,57,2,43,31,25,0,41,0,39,0,0,2,2,22,26,34,37,5,44,1,45,0,0,29,0,43,3,2,34,0,0,0,0,13,49,0,0,0,0,0,0,0,0,0,0,0,0,0,0,0,0,0,0,0,0,0,0,0,0,0,0,0,0,0,0,0,0,0,0,0,0,0,0],"split_type":[0,0,0,0,0,0,0,0,0,0,0,0,0,0,0,0,0,0,0,0,0,0,0,0,0,0,0,0,0,0,0,0,0,0,0,0,0,0,0,0,0,0,0,0,0,0,0,0,0,0,0,0,0,0,0,0,0,0,0,0,0,0,0,0,0,0,0,0,0,0,0,0,0,0,0,0,0,0,0,0,0,0,0,0,0,0,0,0,0,0,0],"sum_hessian":[6.57E2,5.66E2,9.1E1,4.44E2,1.22E2,7.2E1,1.9E1,2.99E2,1.45E2,2E1,1.02E2,1.8E1,5.4E1,9E0,1E1,4.9E1,2.5E2,7.1E1,7.4E1,7E0,1.3E1,3.4E1,6.8E1,3E0,1.5E1,3E0,5.1E1,5E0,4E0,4E0,6E0,2.7E1,2.2E1,1.6E2,9E1,2.1E1,5E1,5E0,6.9E1,1E0,6E0,7E0,6E0,2.6E1,8E0,5E0,6.3E1,2E0,1E0,7E0,8E0,1E1,4.1E1,3E0,1E0,5E0,1E0,1.1E1,1.6E1,1.4E1,8E0,1.52E2,8E0,2.9E1,6.1E1,1E1,1.1E1,2.1E1,2.9E1,2E0,3E0,3.7E1,3.2E1,2E0,5E0,4E0,2E0,2E1,6E0,2E0,6E0,3E0,2E0,5E0,5.8E1,1E0,6E0,8E0,2E0,2E1,2.1E1],"tree_param":{"num_deleted":"0","num_feature":"60","num_nodes":"91","size_leaf_vector":"0"}},{"base_weights":[-1.2831003E-3,3.6927756E-2,-1.9911231E-2,6.644316E-2,-9.460109E-2,-2.8244924E-2,1.905828E-1,7.5196974E-2,-4.663441E-1,-4.1562983E-1,-3.6864698E-2,-4.099993E-2,9.618477E-2,5.0183314E-1,5.6210894E-2,9.008722E-2,-1.795008E-1,-1.0031539E-1,-5.992007E-1,-3.0294396E-3,-4.9754402E-1,-1.04533225E-1,6.0328886E-2,9.895939E-3,-7.830716E-2,1.423343E-1,-1.4171074E-1,7.073588E-1,1.2902981E-1,1.6622463E-1,-3.332576E-2,1.062991E-1,-9.352023E-2,-4.445382E-2,-2.6212317E-1,-1.7920715E-1,1.49439145E-2,-5.3866063E-3,1.3620181E-1,2.981551E-2,-3.3868945E-1,1.4869018E-1,-9.299747E-2,-1.514326E-3,2.2086601E-1,-2.2380883E-1,-2.418498E-2,4.51931E-2,1.8139231E-1,3.938102E-2,-1.1587781E-1,1.2969004E-1,-5.5735104E-2,7.38166E-2,-1.9468698E-1,-8.325524E-2,5.5375934E-2,-2.8991154E-1,-6.1590612E-2,-1.9607323E-1,1.159291E-2,-4.5564212E-2,7.246326E-2,3.49826E-2,-6.459376E-2,3.6748175E-2,1.4665273E-1,1.03091925E-1,-3.6757343E-2,-4.6922958E-1,7.880068E-2,-5.562692E-2,2.359797E-1,1.4933147E-1,-1.0836068E-1,6.0213536E-2,-8.356575E-2,1.0120509E-1,3.3132648E-1,4.5997024E-2,-6.2911324E-2,-9.210646E-3,5.38316E-2,-1.3095847E-1,-3.5317898E-2],"categories":[],"categories_nodes":[],"categories_segments":[],"categories_sizes":[],"default_left":[1,1,1,1,1,1,1,1,1,1,1,1,1,1,1,1,1,0,0,0,0,1,1,1,1,1,1,0,0,1,1,1,1,1,1,1,1,1,1,1,1,1,1,1,1,0,1,0,0,1,1,0,0,0,0,0,0,0,0,0,0,0,0,0,0,0,0,0,0,0,0,0,0,0,0,0,0,0,0,0,0,0,0,0,0],"id":19,"left_children":[1,3,5,7,9,11,13,15,17,19,21,23,25,27,29,31,33,-1,-1,-1,-1,35,37,39,41,43,45,-1,-1,47,49,51,53,55,57,59,61,63,65,67,69,71,73,75,77,-1,79,-1,-1,81,83,-1,-1,-1,-1,-1,-1,-1,-1,-1,-1,-1,-1,-1,-1,-1,-1,-1,-1,-1,-1,-1,-1,-1,-1,-1,-1,-1,-1,-1,-1,-1,-1,-1,-1],"loss_changes":[4.6909758E-1,8.448249E-1,7.824904E-1,8.605821E-1,7.260796E-1,6.816359E-1,6.8278754E-1,6.7986053E-1,8.577895E-2,2.0127964E-1,2.3649949E-1,7.3750293E-1,4.593209E-1,2.9183292E-1,1.3359295E-1,5.0406027E-1,9.992665E-2,0E0,0E0,0E0,0E0,1.9003643E-1,7.552407E-2,1.1558039E0,7.60792E-1,3.844216E-1,6.2127665E-2,0E0,0E0,2.8169304E-3,5.2580137E-2,5.8711827E-1,2.513761E-1,2.3978017E-2,1.5579015E-2,4.4107705E-2,3.4625217E-2,2.377097E-2,1.8864423E-3,7.696699E-1,5.2746856E-1,2.6281318E-1,8.017243E-1,7.087496E-2,2.5725973E-1,0E0,1.37653025E-2,0E0,0E0,4.0067127E-3,2.3441017E-4,0E0,0E0,0E0,0E0,0E0,0E0,0E0,0E0,0E0,0E0,0E0,0E0,0E0,0E0,0E0,0E0,0E0,0E0,0E0,0E0,0E0,0E0,0E0,0E0,0E0,0E0,0E0,0E0,0E0,0E0,0E0,0E0,0E0,0E0],"parents":[2147483647,0,0,1,1,2,2,3,3,4,4,5,5,6,6,7,7,8,8,9,9,10,10,11,11,12,12,13,13,14,14,15,15,16,16,21,21,22,22,23,23,24,24,25,25,26,26,29,29,30,30,31,31,32,32,33,33,34,34,35,35,36,36,37,37,38,38,39,39,40,40,41,41,42,42,43,43,44,44,46,46,49,49,50,50],"right_children":[2,4,6,8,10,12,14,16,18,20,22,24,26,28,30,32,34,-1,-1,-1,-1,36,38,40,42,44,46,-1,-1,48,50,52,54,56,58,60,62,64,66,68,70,72,74,76,78,-1,80,-1,-1,82,84,-1,-1,-1,-1,-1,-1,-1,-1,-1,-1,-1,-1,-1,-1,-1,-1,-1,-1,-1,-1,-1,-1,-1,-1,-1,-1,-1,-1,-1,-1,-1,-1,-1,-1],"split_conditions":[-3.7300608E-1,1.0302678E0,2.4025831E0,2.8506622E0,-1.5494754E0,1.6259258E0,-8.047365E-1,3.0854397E0,-2.1516714E0,-1.8898191E0,4.402073E-1,-1.9013754E-1,1.5874463E0,-4.6014765E-1,-9.753985E-2,1.8638972E0,6.944935E-2,-3.0094618E-2,-1.7976022E-1,-9.088319E-4,-1.4926322E-1,5.6164347E-2,1.0259151E-2,2.742924E0,-1.9851551E0,6.3477606E-2,-2.760705E-1,2.1220765E-1,3.8708944E-2,-9.3043077E-1,-1.7609552E-1,1.1831232E0,2.4300799E-2,6.079508E-1,3.7373453E-1,1.782233E0,-6.5956736E-1,5.6152296E-1,2.560638E-3,-9.166993E-2,1.2246119E0,-7.5858295E-1,-2.3812408E0,1.7730886E-2,2.2741744E-1,-6.714265E-2,-2.0646195E0,1.35579305E-2,5.4417696E-2,-1.2630806E0,6.969694E-1,3.8907014E-2,-1.6720532E-2,2.214498E-2,-5.8406096E-2,-2.4976572E-2,1.6612781E-2,-8.6973466E-2,-1.8477185E-2,-5.8821972E-2,3.477873E-3,-1.36692645E-2,2.1738978E-2,1.049478E-2,-1.937813E-2,1.1024453E-2,4.399582E-2,3.0927578E-2,-1.1027203E-2,-1.4076889E-1,2.3640204E-2,-1.6688077E-2,7.079391E-2,4.479944E-2,-3.2508206E-2,1.8064061E-2,-2.5069727E-2,3.0361528E-2,9.939795E-2,1.3799108E-2,-1.8873397E-2,-2.763194E-3,1.614948E-2,-3.928754E-2,-1.059537E-2],"split_indices":[21,32,32,1,3,30,42,48,0,1,50,8,33,0,22,3,6,0,0,0,0,6,12,13,32,44,3,0,0,1,1,35,12,2,0,0,10,10,2,3,11,43,4,20,8,0,0,0,0,0,3,0,0,0,0,0,0,0,0,0,0,0,0,0,0,0,0,0,0,0,0,0,0,0,0,0,0,0,0,0,0,0,0,0,0],"split_type":[0,0,0,0,0,0,0,0,0,0,0,0,0,0,0,0,0,0,0,0,0,0,0,0,0,0,0,0,0,0,0,0,0,0,0,0,0,0,0,0,0,0,0,0,0,0,0,0,0,0,0,0,0,0,0,0,0,0,0,0,0,0,0,0,0,0,0,0,0,0,0,0,0,0,0,0,0,0,0,0,0,0,0,0,0],"sum_hessian":[6.57E2,2.15E2,4.42E2,1.76E2,3.9E1,4.26E2,1.6E1,1.74E2,2E0,5E0,3.4E1,3.87E2,3.9E1,4E0,1.2E1,1.65E2,9E0,1E0,1E0,1E0,4E0,2E1,1.4E1,1.64E2,2.23E2,3.3E1,6E0,2E0,2E0,5E0,7E0,1.52E2,1.3E1,4E0,5E0,1.2E1,8E0,8E0,6E0,1.56E2,8E0,1.3E1,2.1E2,1.2E1,2.1E1,3E0,3E0,1E0,4E0,4E0,3E0,1.33E2,1.9E1,5E0,8E0,3E0,1E0,4E0,1E0,1.1E1,1E0,4E0,4E0,5E0,3E0,1E0,5E0,7.4E1,8.2E1,6E0,2E0,4E0,9E0,1.2E1,1.98E2,7E0,5E0,1.1E1,1E1,1E0,2E0,1E0,3E0,2E0,1E0],"tree_param":{"num_deleted":"0","num_feature":"60","num_nodes":"85","size_leaf_vector":"0"}},{"base_weights":[-1.1822938E-3,4.2269793E-3,-1.1455731E-1,8.12333E-3,-1.4555964E-1,-1.8924212E-2,-2.5642994E-1,3.3300865E-2,-1.6998835E-2,-4.6870732E-1,-6.59166E-2,1.4680687E-1,-7.290629E-2,-7.790771E-2,-3.3595258E-1,-1.3704958E-2,7.4911565E-2,-5.561207E-2,3.8470514E-2,7.6008383E-3,-1.4051987E-1,-1.2017626E-1,4.56689E-2,1.4078289E-2,-1.0442378E-1,-1.5761861E-1,-4.1142926E-1,9.85645E-2,-8.140952E-2,-9.8413646E-2,1.1315667E-1,6.3129485E-2,-9.9833615E-2,-4.0470034E-2,1.0755819E-1,4.1358713E-2,-3.6496714E-2,-4.3676477E-2,-1.7052193E-1,1.2643039E-2,-1.347225E-1,6.393902E-2,-1.370579E-2,3.341639E-1,4.5204524E-2,-1.2375957E-1,3.534499E-2,-4.8633344E-2,-5.302253E-1,1.3411097E-1,-1.6008782E-1,1.478335E-1,-4.273321E-2,-1.3925262E-1,8.499652E-2,-7.868899E-2,1.3693155E-1,2.2144735E-1,-6.1500766E-3,4.8611198E-2,6.1743855E-3,-1.7470038E-1,-7.895385E-2],"categories":[],"categories_nodes":[],"categories_segments":[],"categories_sizes":[],"default_left":[1,1,1,1,1,1,1,1,1,0,1,0,1,1,1,1,1,1,1,1,1,1,1,0,0,0,0,1,1,1,1,1,1,1,1,1,0,0,0,0,1,0,0,0,0,0,0,0,0,0,0,0,0,0,0,0,0,0,0,0,0,0,0],"id":20,"left_children":[1,3,5,7,9,11,13,15,17,-1,19,-1,21,23,25,27,29,31,33,35,37,39,41,-1,-1,-1,-1,43,45,47,49,51,53,55,57,59,-1,-1,-1,-1,61,-1,-1,-1,-1,-1,-1,-1,-1,-1,-1,-1,-1,-1,-1,-1,-1,-1,-1,-1,-1,-1,-1],"loss_changes":[4.0402013E-1,3.682801E-1,4.0217888E-1,3.8892978E-1,3.8088787E-1,1.8068682E-1,1.4418542E-1,6.015018E-1,6.6182953E-1,0E0,7.7853054E-2,0E0,8.9563996E-2,1.3665644E-2,4.283154E-2,1.1101913E0,1.0916375E0,9.619726E-1,6.969879E-1,1.3418574E-2,1.2890711E-2,2.2955522E-2,6.300248E-3,0E0,0E0,0E0,0E0,6.76331E-1,4.5432913E-1,6.190848E-1,7.887064E-1,4.546672E-1,9.8084986E-1,4.1758114E-1,8.8197136E-1,9.7572524E-4,0E0,0E0,0E0,0E0,8.5018575E-3,0E0,0E0,0E0,0E0,0E0,0E0,0E0,0E0,0E0,0E0,0E0,0E0,0E0,0E0,0E0,0E0,0E0,0E0,0E0,0E0,0E0,0E0],"parents":[2147483647,0,0,1,1,2,2,3,3,4,4,5,5,6,6,7,7,8,8,10,10,12,12,13,13,14,14,15,15,16,16,17,17,18,18,19,19,20,20,21,21,22,22,27,27,28,28,29,29,30,30,31,31,32,32,33,33,34,34,35,35,40,40],"right_children":[2,4,6,8,10,12,14,16,18,-1,20,-1,22,24,26,28,30,32,34,36,38,40,42,-1,-1,-1,-1,44,46,48,50,52,54,56,58,60,-1,-1,-1,-1,62,-1,-1,-1,-1,-1,-1,-1,-1,-1,-1,-1,-1,-1,-1,-1,-1,-1,-1,-1,-1,-1,-1],"split_conditions":[2.1351712E0,3.1807528E0,-1.5526963E-2,-8.704762E-3,3.2925453E0,-1.2882681E0,-1.7659388E-2,-9.855756E-2,2.2820146E-1,-1.406122E-1,4.8942843E-1,4.4042062E-2,5.2934134E-1,-9.2847556E-1,-2.343317E-1,-3.7441742E-1,-9.8564076E-1,-4.7130188E-1,-1.7348427E-1,1.3305385E-2,-1.4933465E-1,-2.003859E0,1.5488837E0,4.223487E-3,-3.1327136E-2,-4.7285587E-2,-1.23428784E-1,-4.6364903E-1,6.9360685E-1,1.051595E0,1.8279283E0,2.8261682E-1,8.0334675E-1,1.2789426E0,-2.003477E-2,1.4461135E0,-1.0949015E-2,-1.3102944E-2,-5.115658E-2,3.792912E-3,-3.5920586E-2,1.9181706E-2,-4.111737E-3,1.0024918E-1,1.3561358E-2,-3.712787E-2,1.0603498E-2,-1.45900035E-2,-1.5906759E-1,4.023329E-2,-4.802635E-2,4.435005E-2,-1.28199635E-2,-4.1775785E-2,2.5498958E-2,-2.3606697E-2,4.107947E-2,6.6434205E-2,-1.845023E-3,1.45833595E-2,1.8523157E-3,-5.2410115E-2,-2.3686156E-2],"split_indices":[54,1,3,37,1,44,1,51,8,0,4,0,44,0,20,59,39,25,2,5,5,1,2,0,0,0,0,46,22,19,28,43,39,39,11,2,0,0,0,0,20,0,0,0,0,0,0,0,0,0,0,0,0,0,0,0,0,0,0,0,0,0,0],"split_type":[0,0,0,0,0,0,0,0,0,0,0,0,0,0,0,0,0,0,0,0,0,0,0,0,0,0,0,0,0,0,0,0,0,0,0,0,0,0,0,0,0,0,0,0,0,0,0,0,0,0,0,0,0,0,0,0,0,0,0,0,0,0,0],"sum_hessian":[6.57E2,6.28E2,2.9E1,6.13E2,1.5E1,1.8E1,1.1E1,3.06E2,3.07E2,2E0,1.3E1,4E0,1.4E1,4E0,7E0,1.44E2,1.62E2,1.81E2,1.26E2,7E0,6E0,1E1,4E0,1E0,3E0,3E0,4E0,5.4E1,9E1,2.9E1,1.33E2,4.9E1,1.32E2,5.9E1,6.7E1,4E0,3E0,2E0,4E0,1E0,9E0,3E0,1E0,9E0,4.5E1,6.6E1,2.4E1,2.7E1,2E0,1.24E2,9E0,2.7E1,2.2E1,1.09E2,2.3E1,4.9E1,1E1,3.3E1,3.4E1,3E0,1E0,4E0,5E0],"tree_param":{"num_deleted":"0","num_feature":"60","num_nodes":"63","size_leaf_vector":"0"}},{"base_weights":[-1.4465181E-3,1.257744E-3,-1.7680848E-1,-7.2152466E-2,7.906894E-3,-2.8157362E-1,-6.0036104E-2,3.020545E-2,-2.785464E-1,-1.070201E-2,3.9080992E-2,-7.946642E-2,1.8557727E-2,8.823762E-2,-1.9119087E-1,-6.1227806E-6,-4.17816E-1,-8.798818E-2,7.3835826E-3,3.3196682E-1,2.8052436E-2,1.4972329E-1,-3.1576116E-2,-4.042286E-1,-5.2806865E-2,-1.1632595E-1,6.9787E-2,-5.4823166E-1,-1.9602837E-1,2.1526641E-3,-1.6632505E-1,-2.9749243E-2,6.0795784E-2,7.7712126E-2,5.667935E-1,-9.077099E-2,5.3929187E-2,4.784393E-2,2.4681827E-1,5.6129348E-2,-7.148183E-2,2.7950266E-2,-1.00173E-1,2.660349E-2,1.21260524E-1,-2.345965E-1,-1.5938282E-3,-9.49179E-2,7.484795E-2,-2.962364E-1,-8.692169E-2,1.0458612E-1,-5.00951E-2,1.8781988E-1,2.5538748E-2,1.0351893E-2,9.1964215E-2,-1.3702782E-2,-3.8769746E-1,1.04977265E-1,-2.0934181E-2],"categories":[],"categories_nodes":[],"categories_segments":[],"categories_sizes":[],"default_left":[1,1,1,1,1,0,1,1,1,1,1,0,0,1,1,1,1,1,1,1,1,1,1,0,1,0,1,0,1,1,1,1,1,1,0,1,1,0,0,0,0,0,0,0,0,0,0,0,0,0,0,0,0,0,0,0,0,0,0,0,0],"id":21,"left_children":[1,3,5,7,9,-1,11,13,15,17,19,-1,-1,21,23,25,27,29,31,33,35,37,39,-1,41,-1,43,-1,45,47,49,51,53,55,-1,57,59,-1,-1,-1,-1,-1,-1,-1,-1,-1,-1,-1,-1,-1,-1,-1,-1,-1,-1,-1,-1,-1,-1,-1,-1],"loss_changes":[3.1226224E-1,3.1735748E-1,1.0543215E-1,1.1492205E0,3.4616727E-1,0E0,1.06373355E-2,4.922503E-1,6.9825685E-1,5.2341425E-1,7.110015E-1,0E0,0E0,2.2573254E-1,2.1450207E-1,6.494631E-2,2.3962617E-1,5.0171405E-1,6.047458E-1,4.3359953E-1,6.6904426E-1,1.8603069E-1,4.251167E-2,0E0,2.5750779E-2,0E0,7.888086E-3,0E0,4.4619948E-2,2.4702789E-1,3.662356E-1,4.972095E-1,5.5501497E-1,3.848115E-3,0E0,8.8714755E-1,6.824479E-1,0E0,0E0,0E0,0E0,0E0,0E0,0E0,0E0,0E0,0E0,0E0,0E0,0E0,0E0,0E0,0E0,0E0,0E0,0E0,0E0,0E0,0E0,0E0,0E0],"parents":[2147483647,0,0,1,1,2,2,3,3,4,4,6,6,7,7,8,8,9,9,10,10,13,13,14,14,15,15,16,16,17,17,18,18,19,19,20,20,21,21,22,22,24,24,26,26,28,28,29,29,30,30,31,31,32,32,33,33,35,35,36,36],"right_children":[2,4,6,8,10,-1,12,14,16,18,20,-1,-1,22,24,26,28,30,32,34,36,38,40,-1,42,-1,44,-1,46,48,50,52,54,56,-1,58,60,-1,-1,-1,-1,-1,-1,-1,-1,-1,-1,-1,-1,-1,-1,-1,-1,-1,-1,-1,-1,-1,-1,-1,-1],"split_conditions":[4.0669236E0,-1.962622E0,2.2134411E-1,5.263238E-1,2.650173E-1,-8.447209E-2,2.2469873E0,3.3651206E-1,-7.148588E-1,-1.0411325E0,-2.7913663E0,-2.3839926E-2,5.5673183E-3,1.9947097E-1,-1.0670162E-1,-5.4911214E-1,-4.765924E-3,-1.7035194E-2,2.2364502E-1,2.0921744E-1,-1.0816469E0,-3.9839345E-1,-9.655696E-1,-1.21268585E-1,-1.3279222E0,-3.4897786E-2,4.94923E-1,-1.6446951E-1,1.5488837E0,-1.2519343E-1,4.8418885E-1,-9.42413E-1,4.187547E-1,-4.0519047E0,1.7003806E-1,1.7557473E0,1.3077131E-1,1.4353179E-2,7.404549E-2,1.6838806E-2,-2.144455E-2,8.38508E-3,-3.00519E-2,7.981047E-3,3.637816E-2,-7.037895E-2,-4.781485E-4,-2.8475372E-2,2.2454387E-2,-8.887092E-2,-2.6076509E-2,3.1375837E-2,-1.5028531E-2,5.6345966E-2,7.661625E-3,3.105568E-3,2.7589265E-2,-4.1108346E-3,-1.1630924E-1,3.149318E-2,-6.2802546E-3],"split_indices":[27,23,32,53,27,0,1,33,21,54,51,0,0,58,1,31,25,12,8,4,24,5,16,0,2,0,0,0,1,5,12,23,8,3,0,18,54,0,0,0,0,0,0,0,0,0,0,0,0,0,0,0,0,0,0,0,0,0,0,0,0],"split_type":[0,0,0,0,0,0,0,0,0,0,0,0,0,0,0,0,0,0,0,0,0,0,0,0,0,0,0,0,0,0,0,0,0,0,0,0,0,0,0,0,0,0,0,0,0,0,0,0,0,0,0,0,0,0,0,0,0,0,0,0,0],"sum_hessian":[6.57E2,6.48E2,9E0,5.3E1,5.95E2,4E0,5E0,3.6E1,1.7E1,3.73E2,2.22E2,4E0,1E0,2.9E1,7E0,6E0,1.1E1,7E1,3.03E2,7E0,2.15E2,1.9E1,1E1,2E0,5E0,2E0,4E0,6E0,5E0,3.3E1,3.7E1,1.79E2,1.24E2,4E0,3E0,3.8E1,1.77E2,1E1,9E0,3E0,7E0,2E0,3E0,3E0,1E0,4E0,1E0,1.4E1,1.9E1,1.3E1,2.4E1,2.3E1,1.56E2,2.6E1,9.8E1,1E0,3E0,3.1E1,7E0,1.05E2,7.2E1],"tree_param":{"num_deleted":"0","num_feature":"60","num_nodes":"61","size_leaf_vector":"0"}},{"base_weights":[-1.5032026E-3,-3.0875329E-2,1.1762852E-2,3.1230244E-1,-3.925848E-2,-1.2083519E-3,7.8388065E-2,1.178341E-1,4.0266994E-1,-8.723984E-2,1.4129884E-2,-1.1314489E-2,1.13258176E-1,1.7789432E-1,2.513927E-3,-6.325996E-2,-3.1112072E-1,1.3996835E-1,-2.7435226E-2,-7.108385E-3,-3.7441686E-1,-1.610974E-1,1.7221491E-1,2.8921949E-2,2.6583165E-1,-8.5160404E-2,9.007399E-2,-9.25633E-2,6.1909705E-2,-4.110614E-2,-5.7291406E-1,2.4766661E-1,1.163119E-2,1.3407958E-2,-1.5297873E-1,-2.2992356E-2,8.1736214E-2,-4.4576075E-2,-2.0821404E-1,3.522144E-1,1.00604355E-1,-1.99419E-2,1.4385109E-1,4.2690164E-1,1.6630867E-1,3.0498099E-2,-1.6757768E-1,2.948057E-1,4.2231835E-2,-1.4796692E-1,-1.085015E-2,-1.3456666E-1,1.0715944E-1,1.0246584E-1,-1.3850859E-1,3.6134947E-2,3.376657E-1,8.459352E-2,-3.5424165E-2,-3.0520024E-2,1.00558236E-1,-2.4987009E-1,-6.307657E-4,-1.03098065E-1,-8.5965255E-3,3.0908436E-1,3.4450226E-2,1.22281685E-1,4.9409348E-1,2.2501177E-1,1.6307157E-2,5.724466E-3,-5.9872568E-2,4.972142E-1,1.6741349E-1,1.9826917E-1,-1.6969612E-2,-4.947994E-2,9.206345E-2,9.6101314E-5,-2.723858E-1,-5.7924557E-2,7.280184E-2],"categories":[],"categories_nodes":[],"categories_segments":[],"categories_sizes":[],"default_left":[1,1,1,1,1,1,1,0,0,1,1,1,1,1,1,1,1,1,1,1,0,1,1,1,1,1,1,1,1,1,0,1,1,1,1,1,1,0,0,1,1,1,0,1,1,1,1,0,1,0,0,0,0,0,0,0,0,0,0,0,0,0,0,0,0,0,0,0,0,0,0,0,0,0,0,0,0,0,0,0,0,0,0],"id":22,"left_children":[1,3,5,7,9,11,13,-1,-1,15,17,19,21,23,25,27,29,31,33,35,-1,37,39,41,43,45,47,49,51,53,-1,55,57,59,61,63,65,-1,-1,67,69,71,-1,73,75,77,79,-1,81,-1,-1,-1,-1,-1,-1,-1,-1,-1,-1,-1,-1,-1,-1,-1,-1,-1,-1,-1,-1,-1,-1,-1,-1,-1,-1,-1,-1,-1,-1,-1,-1,-1,-1],"loss_changes":[2.5675434E-1,6.020273E-1,3.924457E-1,4.0419817E-2,5.1612365E-1,4.4202775E-1,5.5824924E-1,0E0,0E0,5.49394E-1,5.05967E-1,5.3340185E-1,5.291718E-1,4.1151905E-1,3.3777183E-1,3.615158E-1,6.833298E-1,3.288399E-1,3.7636566E-1,4.9297863E-1,0E0,2.36592E-2,2.9970205E-1,7.58751E-2,2.496059E-1,2.148205E-1,2.0303556E-1,3.560437E-1,1.8333969E-1,9.8097965E-2,0E0,2.352879E-1,4.419588E-2,2.1745586E-1,2.6554403E-1,3.4045744E-1,5.591222E-1,0E0,0E0,1.6793996E-1,2.0607466E-1,1.059149E-2,0E0,4.447663E-2,8.537191E-2,5.379405E-2,2.2848263E-1,0E0,6.2390868E-2,0E0,0E0,0E0,0E0,0E0,0E0,0E0,0E0,0E0,0E0,0E0,0E0,0E0,0E0,0E0,0E0,0E0,0E0,0E0,0E0,0E0,0E0,0E0,0E0,0E0,0E0,0E0,0E0,0E0,0E0,0E0,0E0,0E0,0E0],"parents":[2147483647,0,0,1,1,2,2,3,3,4,4,5,5,6,6,9,9,10,10,11,11,12,12,13,13,14,14,15,15,16,16,17,17,18,18,19,19,21,21,22,22,23,23,24,24,25,25,26,26,27,27,28,28,29,29,31,31,32,32,33,33,34,34,35,35,36,36,39,39,40,40,41,41,43,43,44,44,45,45,46,46,48,48],"right_children":[2,4,6,8,10,12,14,-1,-1,16,18,20,22,24,26,28,30,32,34,36,-1,38,40,42,44,46,48,50,52,54,-1,56,58,60,62,64,66,-1,-1,68,70,72,-1,74,76,78,80,-1,82,-1,-1,-1,-1,-1,-1,-1,-1,-1,-1,-1,-1,-1,-1,-1,-1,-1,-1,-1,-1,-1,-1,-1,-1,-1,-1,-1,-1,-1,-1,-1,-1,-1,-1],"split_conditions":[-4.5328176E-1,-4.2938285E0,9.776667E-1,-3.2607102E-1,1.02444634E-1,1.8950202E0,-7.14525E-2,3.535023E-2,1.2080099E-1,-9.2291203E-4,-9.295066E-1,1.8392589E0,-2.631143E0,-7.6087844E-1,-3.3467907E-2,8.9049757E-1,-1.5155996E-1,2.695699E-1,6.9003713E-1,9.773356E-1,-1.12325065E-1,-1.1844543E0,-8.548595E-1,6.9116104E-1,-1.5630248E-1,-1.2461925E-1,-1.1746738E0,3.4084457E-1,-2.5709774E0,-2.5100365E-2,-1.7187423E-1,-9.711796E-1,-4.0941715E-1,2.3845202E-1,-3.36739E-2,-9.9268997E-1,1.1702485E0,-1.3372823E-2,-6.2464215E-2,-8.8839626E-1,-2.66662E-1,1.4548036E0,4.3155327E-2,7.686472E-2,1.1482565E0,-1.4995387E-1,-3.183005E-1,8.8441715E-2,-4.4473198E-1,-4.439008E-2,-3.2550453E-3,-4.0370002E-2,3.2147836E-2,3.0739753E-2,-4.1552577E-2,1.0840485E-2,1.0129972E-1,2.5378058E-2,-1.062725E-2,-9.156007E-3,3.0167472E-2,-7.496103E-2,-1.8922972E-4,-3.092942E-2,-2.5789577E-3,9.272531E-2,1.0335068E-2,3.6684506E-2,1.4822805E-1,6.7503534E-2,4.892147E-3,1.7173399E-3,-1.796177E-2,1.4916426E-1,5.0224047E-2,5.9480753E-2,-5.090884E-3,-1.4843983E-2,2.7619036E-2,2.8830395E-5,-8.171575E-2,-1.7377367E-2,2.1840554E-2],"split_indices":[58,48,26,15,42,18,30,0,0,42,21,18,5,7,52,35,18,0,15,2,0,8,5,8,7,53,37,52,8,22,0,0,28,12,3,44,2,0,0,0,33,24,0,1,9,32,45,0,33,0,0,0,0,0,0,0,0,0,0,0,0,0,0,0,0,0,0,0,0,0,0,0,0,0,0,0,0,0,0,0,0,0,0],"split_type":[0,0,0,0,0,0,0,0,0,0,0,0,0,0,0,0,0,0,0,0,0,0,0,0,0,0,0,0,0,0,0,0,0,0,0,0,0,0,0,0,0,0,0,0,0,0,0,0,0,0,0,0,0,0,0,0,0,0,0,0,0,0,0,0,0,0,0,0,0,0,0,0,0,0,0,0,0,0,0,0,0,0,0],"sum_hessian":[6.57E2,2.04E2,4.53E2,4E0,2E2,3.8E2,7.3E1,2E0,2E0,1.05E2,9.5E1,3.5E2,3E1,3.1E1,4.2E1,9.6E1,9E0,2.3E1,7.2E1,3.47E2,3E0,5E0,2.5E1,1.2E1,1.9E1,2.1E1,2.1E1,7.8E1,1.8E1,5E0,4E0,1.2E1,1.1E1,5.5E1,1.7E1,2.95E2,5.2E1,2E0,3E0,6E0,1.9E1,9E0,3E0,6E0,1.3E1,9E0,1.2E1,3E0,1.8E1,4.6E1,3.2E1,3E0,1.5E1,2E0,3E0,4E0,8E0,4E0,7E0,3.7E1,1.8E1,1E1,7E0,4.4E1,2.51E2,8E0,4.4E1,3E0,3E0,7E0,1.2E1,6E0,3E0,4E0,2E0,1.1E1,2E0,4E0,5E0,5E0,7E0,4E0,1.4E1],"tree_param":{"num_deleted":"0","num_feature":"60","num_nodes":"83","size_leaf_vector":"0"}},{"base_weights":[-3.9307814E-4,2.248321E-3,-1.4277574E-1,5.6285918E-2,-4.7221156E-3,-2.9105745E-2,-2.960926E-1,2.2772882E-2,1.9828658E-1,-1.8058556E-1,-1.6011302E-3,3.690505E-2,-7.6093234E-2,-3.679854E-1,-1.2550227E-1,5.558383E-2,-7.2981894E-2,6.487628E-2,4.2544985E-1,-3.0806178E-2,-3.9755312E-1,-4.4429116E-2,9.323082E-3,-8.35269E-2,-2.317928E-2,1.545338E-2,1.2313264E-1,8.282625E-2,-1.3182013E-1,6.5450463E-3,1.9880082E-1,1.0277203E-1,4.8042628E-1,-4.6810037E-3,-9.377861E-2,-8.569598E-2,5.6403585E-2,4.300947E-2,-1.5364366E-2,4.9212597E-2,-5.6986317E-2,5.617038E-2,1.7641348E-1,1.9031048E-2,9.401728E-2,-1.0253295E-2,-1.7120315E-1,3.8676884E-2,-3.5256013E-2,3.6117546E-3,-1.417768E-2,-1.32177165E-2,-1.6146772E-1,1.4928441E-1,-5.7417616E-2,3.7561107E-2,5.3909945E-1,3.4801397E-2,-5.830545E-2],"categories":[],"categories_nodes":[],"categories_segments":[],"categories_sizes":[],"default_left":[1,1,1,1,1,1,1,1,1,1,1,0,1,0,0,1,1,1,1,1,0,1,1,0,0,1,1,1,1,1,0,0,0,1,0,1,1,1,1,0,0,0,0,0,0,0,0,0,0,0,0,0,0,0,0,0,0,0,0],"id":23,"left_children":[1,3,5,7,9,11,13,15,17,19,21,-1,23,-1,-1,25,27,29,31,33,-1,35,37,-1,-1,39,41,43,45,47,-1,-1,-1,49,-1,51,53,55,57,-1,-1,-1,-1,-1,-1,-1,-1,-1,-1,-1,-1,-1,-1,-1,-1,-1,-1,-1,-1],"loss_changes":[2.4778786E-1,2.4396844E-1,2.0051235E-1,3.4764105E-1,3.1476066E-1,2.7621675E-2,1.513806E-2,1.9570671E-1,3.9668125E-1,3.1272557E-1,2.6475623E-1,0E0,3.0629337E-5,0E0,0E0,1.2279233E-1,1.5759778E-1,7.681868E-2,3.9323986E-2,1.1077182E-2,0E0,4.8335424E-1,3.757264E-1,0E0,0E0,7.616967E-2,5.074349E-2,1.7804205E-3,5.5696636E-2,1.21087525E-2,0E0,0E0,0E0,5.237282E-4,0E0,4.4819367E-1,3.68013E-1,4.960008E-1,5.642681E-1,0E0,0E0,0E0,0E0,0E0,0E0,0E0,0E0,0E0,0E0,0E0,0E0,0E0,0E0,0E0,0E0,0E0,0E0,0E0,0E0],"parents":[2147483647,0,0,1,1,2,2,3,3,4,4,5,5,6,6,7,7,8,8,9,9,10,10,12,12,15,15,16,16,17,17,18,18,19,19,21,21,22,22,25,25,26,26,27,27,28,28,29,29,33,33,35,35,36,36,37,37,38,38],"right_children":[2,4,6,8,10,12,14,16,18,20,22,-1,24,-1,-1,26,28,30,32,34,-1,36,38,-1,-1,40,42,44,46,48,-1,-1,-1,50,-1,52,54,56,58,-1,-1,-1,-1,-1,-1,-1,-1,-1,-1,-1,-1,-1,-1,-1,-1,-1,-1,-1,-1],"split_conditions":[3.1444821E0,-1.6097159E0,3.4154028E-1,4.6890944E-1,-1.4517248E0,-2.9058892E-1,1.8713506E-1,4.625035E-1,2.0458005E-1,5.357665E-1,-8.130498E-1,1.1071515E-2,4.9444732E-1,-1.10395625E-1,-3.7650682E-2,1.1960626E-2,-4.4504634E-1,7.6981586E-1,-1.5986665E0,1.0866727E0,-1.1926594E-1,8.438922E-1,8.162083E-2,-2.5058072E-2,-6.9537843E-3,-6.928271E-2,7.435344E-2,-8.5408235E-1,-1.7916577E-1,-8.1248745E-2,5.9640247E-2,3.0831609E-2,1.4412789E-1,1.6576118E0,-2.8133584E-2,-9.483865E-2,3.471883E-1,4.4501667E0,-3.5750855E-2,1.476378E-2,-1.7095895E-2,1.6851116E-2,5.2924044E-2,5.7093147E-3,2.8205186E-2,-3.0759887E-3,-5.1360946E-2,1.1603066E-2,-1.0576804E-2,1.0835264E-3,-4.253304E-3,-3.965315E-3,-4.844032E-2,4.4785324E-2,-1.7225286E-2,1.1268333E-2,1.6172984E-1,1.0440419E-2,-1.7491635E-2],"split_indices":[54,30,45,1,30,24,6,9,7,55,1,0,1,0,0,10,1,13,0,1,0,23,1,0,0,54,7,4,37,0,0,0,0,4,0,23,47,32,10,0,0,0,0,0,0,0,0,0,0,0,0,0,0,0,0,0,0,0,0],"split_type":[0,0,0,0,0,0,0,0,0,0,0,0,0,0,0,0,0,0,0,0,0,0,0,0,0,0,0,0,0,0,0,0,0,0,0,0,0,0,0,0,0,0,0,0,0,0,0,0,0,0,0,0,0,0,0,0,0,0,0],"sum_hessian":[6.57E2,6.46E2,1.1E1,7.3E1,5.73E2,7E0,4E0,6E1,1.3E1,9E0,5.64E2,3E0,4E0,2E0,2E0,4.5E1,1.5E1,9E0,4E0,6E0,3E0,1.14E2,4.5E2,3E0,1E0,2.9E1,1.6E1,4E0,1.1E1,7E0,2E0,1E0,3E0,5E0,1E0,8.1E1,3.3E1,1.9E2,2.6E2,2E1,9E0,8E0,8E0,1E0,3E0,3E0,8E0,4E0,3E0,3E0,2E0,4.2E1,3.9E1,1.8E1,1.5E1,1.89E2,1E0,1.2E2,1.4E2],"tree_param":{"num_deleted":"0","num_feature":"60","num_nodes":"59","size_leaf_vector":"0"}},{"base_weights":[-1.1696565E-4,-7.116496E-2,3.988724E-3,-1.1245973E-1,1.15979046E-1,1.0766587E-1,-7.06873E-4,-1.6299538E-1,-1.0353122E-2,1.9660787E-1,6.3554617E-3,3.4408126E-2,2.7735198E-1,-2.1445336E-2,1.8691583E-2,-1.982097E-1,-1.7710447E-2,5.832394E-2,-4.3397512E-2,2.3370897E-2,-2.2345424E-2,-8.227254E-3,1.1476344E-1,3.323891E-2,4.1717204E-1,-3.5476256E-2,6.191452E-2,-7.267132E-3,8.095825E-2,-1.7450333E-2,-2.0909698E-1,-4.1478444E-2,1.1961033E-2,-5.8630597E-2,-1.3506778E-2,-5.872971E-2,2.6355186E-2,1.221779E-2,1.2981808E-1,6.612826E-2,-3.2714576E-2,4.9820724E-3,-6.4249985E-2,-6.222477E-2,1.1970884E-1,-2.341651E-2,7.0271134E-2,-7.464192E-2,1.1265094E-1,-2.181878E-1,-4.0912747E-2,2.249153E-2,-4.54998E-3,-8.131455E-2,-9.040018E-3,-2.286307E-2,4.36837E-2,-3.08194E-2,1.9001427E-1,-1.7647777E-1,-1.8309427E-2,-5.449581E-3,-1.633302E-1,1.3222446E-2,1.9409792E-1,-2.3841491E-1,-1.3454203E-2,-6.9927886E-2,1.16192475E-1,1.5431999E-1,-1.6382255E-1,1.4918225E-1,-2.2909591E-2],"categories":[],"categories_nodes":[],"categories_segments":[],"categories_sizes":[],"default_left":[1,1,1,1,1,1,1,1,1,0,1,1,1,1,1,1,1,0,1,0,0,1,1,1,0,1,1,1,1,0,1,0,1,0,0,1,1,0,0,0,0,1,1,1,1,1,1,1,1,0,0,0,0,0,0,0,0,0,0,0,0,0,0,0,0,0,0,0,0,0,0,0,0],"id":24,"left_children":[1,3,5,7,9,11,13,15,17,-1,19,21,23,25,27,29,31,-1,33,-1,-1,35,37,39,-1,41,43,45,47,-1,49,-1,51,-1,-1,53,55,-1,-1,-1,-1,57,59,61,63,65,67,69,71,-1,-1,-1,-1,-1,-1,-1,-1,-1,-1,-1,-1,-1,-1,-1,-1,-1,-1,-1,-1,-1,-1,-1,-1],"loss_changes":[1.9222313E-1,2.9125345E-1,3.0336872E-1,1.5311316E-1,6.0622215E-2,3.2608902E-1,2.4057044E-1,9.8811865E-2,2.7494423E-2,0E0,2.4756652E-3,6.9463775E-2,2.591889E-1,3.4021538E-1,5.0004435E-1,2.7838826E-2,4.0222835E-3,0E0,2.850715E-3,0E0,0E0,2.5998807E-2,9.220429E-3,1.0840028E-2,0E0,2.8902608E-1,3.087798E-1,2.7587616E-1,4.5716476E-1,0E0,1.400733E-2,0E0,6.239435E-4,0E0,0E0,5.998317E-3,8.674656E-3,0E0,0E0,0E0,0E0,6.947963E-1,7.4436074E-1,7.947384E-2,2.2715494E-1,3.8661453E-1,2.5277394E-1,3.519846E-1,3.7978512E-1,0E0,0E0,0E0,0E0,0E0,0E0,0E0,0E0,0E0,0E0,0E0,0E0,0E0,0E0,0E0,0E0,0E0,0E0,0E0,0E0,0E0,0E0,0E0,0E0],"parents":[2147483647,0,0,1,1,2,2,3,3,4,4,5,5,6,6,7,7,8,8,10,10,11,11,12,12,13,13,14,14,15,15,16,16,18,18,21,21,22,22,23,23,25,25,26,26,27,27,28,28,30,30,32,32,35,35,36,36,41,41,42,42,43,43,44,44,45,45,46,46,47,47,48,48],"right_children":[2,4,6,8,10,12,14,16,18,-1,20,22,24,26,28,30,32,-1,34,-1,-1,36,38,40,-1,42,44,46,48,-1,50,-1,52,-1,-1,54,56,-1,-1,-1,-1,58,60,62,64,66,68,70,72,-1,-1,-1,-1,-1,-1,-1,-1,-1,-1,-1,-1,-1,-1,-1,-1,-1,-1,-1,-1,-1,-1,-1,-1],"split_conditions":[-2.3611584E0,1.0887139E0,-1.8912711E0,2.899829E-1,-4.755861E-2,6.833072E-1,-6.5182686E-2,1.068044E0,-2.8426522E-1,5.8982365E-2,3.2531533E0,3.3046734E-1,-6.823344E-1,1.2257638E0,5.1904166E-1,-1.7618549E0,-3.0641663E-1,1.7497182E-2,5.476699E-1,7.0112697E-3,-6.7036273E-3,4.455113E-2,-6.8381786E-1,-1.9143798E0,1.2515162E-1,-3.1833053E-2,-7.713665E-1,9.967331E-1,-1.9662814E0,-5.2351E-3,1.8795655E0,-1.2443534E-2,3.5512528E-1,-1.758918E-2,-4.0520336E-3,-2.2534068E-1,-1.2743587E0,3.665337E-3,3.8945425E-2,1.9838478E-2,-9.814373E-3,-1.03176236E-1,3.2302886E-1,4.875709E-2,-1.8582906E-1,-2.216085E0,-1.1079158E0,-1.6159984E0,8.931623E-1,-6.545634E-2,-1.2273825E-2,6.747459E-3,-1.3649941E-3,-2.4394365E-2,-2.7120053E-3,-6.858921E-3,1.310511E-2,-9.24582E-3,5.7004284E-2,-5.2943334E-2,-5.4928283E-3,-1.6348744E-3,-4.899906E-2,3.966734E-3,5.822938E-2,-7.152448E-2,-4.036261E-3,-2.0978367E-2,3.4857742E-2,4.6295997E-2,-4.9146768E-2,4.4754677E-2,-6.8728775E-3],"split_indices":[57,8,57,31,7,32,5,52,14,0,0,8,2,39,55,1,5,0,5,0,0,51,0,2,0,50,50,45,10,0,0,0,0,0,0,1,6,0,0,0,0,50,50,22,37,38,46,47,53,0,0,0,0,0,0,0,0,0,0,0,0,0,0,0,0,0,0,0,0,0,0,0,0],"split_type":[0,0,0,0,0,0,0,0,0,0,0,0,0,0,0,0,0,0,0,0,0,0,0,0,0,0,0,0,0,0,0,0,0,0,0,0,0,0,0,0,0,0,0,0,0,0,0,0,0,0,0,0,0,0,0,0,0,0,0,0,0,0,0,0,0,0,0,0,0,0,0,0,0],"sum_hessian":[6.57E2,3.5E1,6.22E2,2.9E1,6E0,2.6E1,5.96E2,1.9E1,1E1,3E0,3E0,1.9E1,7E0,2.88E2,3.08E2,1.5E1,4E0,3E0,7E0,2E0,1E0,1.3E1,6E0,3E0,4E0,2.47E2,4.1E1,2.18E2,9E1,1E0,1.4E1,2E0,2E0,4E0,3E0,5E0,8E0,1E0,5E0,2E0,1E0,1.03E2,1.44E2,1.3E1,2.8E1,1.81E2,3.7E1,1.5E1,7.5E1,1.3E1,1E0,1E0,1E0,3E0,2E0,2E0,6E0,8.7E1,1.6E1,4.1E1,1.03E2,9E0,4E0,1.2E1,1.6E1,7E0,1.74E2,9E0,2.8E1,4E0,1.1E1,5.9E1,1.6E1],"tree_param":{"num_deleted":"0","num_feature":"60","num_nodes":"73","size_leaf_vector":"0"}},{"base_weights":[6.444624E-5,-4.183191E-2,5.935624E-3,1.06166685E-2,-1.4148875E-1,1.8986564E-2,-2.1026295E-2,5.0589662E-2,-9.668575E-2,-1.1780728E-2,-2.3803347E-1,5.4596875E-2,-4.4820146E-3,-3.9331928E-2,9.524871E-2,-3.780947E-2,8.131635E-2,2.1785283E-2,-1.7808703E-1,5.907009E-2,-8.0948584E-2,-1.3184687E-1,-4.4527462E-1,-6.624819E-2,7.5084396E-2,-3.4958765E-2,5.5384636E-2,-1.3005047E-1,-1.6354322E-2,-1.163894E-2,2.2092086E-1,-1.0470405E-2,-8.303522E-2,3.4382764E-2,1.7174524E-1,-2.2309244E-2,6.0433492E-2,-2.0327766E-1,1.1719018E-2,9.333025E-2,1.0042414E-2,-1.0155206E-1,2.1336138E-2,-2.0580924E-1,-4.9615297E-2,-1.733192E-1,6.6312835E-2,-2.4548513E-3,1.07281044E-1,-8.524732E-2,1.9759927E-2,1.3066986E-1,-6.074316E-3,-5.0851386E-2,-3.071232E-1,-7.9245465E-3,-3.7619317E-1,5.367759E-2,-9.395463E-2,3.504983E-1,7.829439E-2,3.413923E-3,-1.9483788E-2,8.637734E-2,-1.1811274E-2,2.2020069E-1,4.4011913E-2,-3.4850806E-2,-6.5117874E-3,1.6377624E-2,6.965957E-2,-3.0961037E-3,1.5453954E-2,-2.9164433E-2,-1.101967E-1,-6.8649575E-3,-5.5596195E-2,-6.3543615E-4,-2.4999695E-1,-1.9766325E-2,1.735611E-1,4.692731E-2,-1.777631E-1,1.252145E-1,-7.600327E-2,6.6981986E-2,-1.12300664E-1,9.300655E-2,-2.7413663E-2,8.260631E-2,2.6568207E-1,2.0853655E-1,-3.811409E-2,-1.2657715E-1,8.942237E-2,-3.6176494E-1,-5.90376E-2,-4.2955715E-2,6.152173E-2,-1.7094254E-2,6.466085E-2,-1.3606419E-1,7.5461864E-3,1.1472122E-1,4.397065E-1,1.10596456E-1,-1.6405185E-3],"categories":[],"categories_nodes":[],"categories_segments":[],"categories_sizes":[],"default_left":[1,1,1,1,1,1,1,1,1,1,1,1,1,1,1,1,1,1,1,1,1,1,0,1,1,1,1,1,1,1,1,1,0,1,1,1,1,0,0,0,1,1,0,0,1,1,1,1,1,1,1,1,1,1,1,1,0,1,1,1,1,0,0,0,0,0,0,0,0,0,0,0,0,0,0,0,0,0,0,0,0,0,0,0,0,0,0,0,0,0,0,0,0,0,0,0,0,0,0,0,0,0,0,0,0,0,0],"id":25,"left_children":[1,3,5,7,9,11,13,15,17,19,21,23,25,27,29,31,33,35,37,39,41,43,-1,45,47,49,51,53,55,57,59,61,-1,63,65,67,69,-1,-1,-1,71,73,-1,-1,75,77,79,81,83,85,87,89,91,93,95,97,-1,99,101,103,105,-1,-1,-1,-1,-1,-1,-1,-1,-1,-1,-1,-1,-1,-1,-1,-1,-1,-1,-1,-1,-1,-1,-1,-1,-1,-1,-1,-1,-1,-1,-1,-1,-1,-1,-1,-1,-1,-1,-1,-1,-1,-1,-1,-1,-1,-1],"loss_changes":[1.6210377E-1,4.248778E-1,2.0378493E-1,2.3650803E-1,3.4782928E-1,3.2617682E-1,4.0603042E-1,1.1172304E-1,1.4853509E-1,6.848944E-2,2.9339164E-1,3.8872555E-1,4.3252787E-1,3.3973026E-1,3.5182416E-1,1.2731317E-2,1.21419504E-1,1.3277447E-2,4.541421E-2,1.082061E-2,1.6918674E-2,6.27732E-2,0E0,3.379425E-1,3.3229846E-1,4.3370515E-1,3.7094986E-1,4.471743E-1,3.9742246E-1,8.5691884E-2,1.94332E-1,1.067674E-3,0E0,5.1458847E-2,5.2202284E-2,5.65558E-4,4.8499368E-4,0E0,0E0,0E0,3.3224557E-4,5.4076314E-4,0E0,0E0,1.4081337E-3,1.7197418E-1,1.049809E-1,3.54626E-1,3.184874E-1,3.452236E-1,2.651529E-1,2.1166301E-1,3.1737193E-1,2.6625496E-1,1.1420047E-1,3.1890464E-1,0E0,8.10108E-3,3.0945852E-2,7.5755835E-2,1.825587E-2,0E0,0E0,0E0,0E0,0E0,0E0,0E0,0E0,0E0,0E0,0E0,0E0,0E0,0E0,0E0,0E0,0E0,0E0,0E0,0E0,0E0,0E0,0E0,0E0,0E0,0E0,0E0,0E0,0E0,0E0,0E0,0E0,0E0,0E0,0E0,0E0,0E0,0E0,0E0,0E0,0E0,0E0,0E0,0E0,0E0,0E0],"parents":[2147483647,0,0,1,1,2,2,3,3,4,4,5,5,6,6,7,7,8,8,9,9,10,10,11,11,12,12,13,13,14,14,15,15,16,16,17,17,18,18,19,19,20,20,21,21,23,23,24,24,25,25,26,26,27,27,28,28,29,29,30,30,31,31,33,33,34,34,35,35,36,36,40,40,41,41,44,44,45,45,46,46,47,47,48,48,49,49,50,50,51,51,52,52,53,53,54,54,55,55,57,57,58,58,59,59,60,60],"right_children":[2,4,6,8,10,12,14,16,18,20,22,24,26,28,30,32,34,36,38,40,42,44,-1,46,48,50,52,54,56,58,60,62,-1,64,66,68,70,-1,-1,-1,72,74,-1,-1,76,78,80,82,84,86,88,90,92,94,96,98,-1,100,102,104,106,-1,-1,-1,-1,-1,-1,-1,-1,-1,-1,-1,-1,-1,-1,-1,-1,-1,-1,-1,-1,-1,-1,-1,-1,-1,-1,-1,-1,-1,-1,-1,-1,-1,-1,-1,-1,-1,-1,-1,-1,-1,-1,-1,-1,-1,-1],"split_conditions":[-1.464585E0,3.299355E-1,3.0686203E-1,5.263238E-1,-2.4225563E-1,-1.7169595E-1,1.237058E0,-8.869362E-1,-2.3801774E-1,-4.6586427E-1,4.1052058E-1,-1.7231178E0,-9.404743E-2,-9.7059965E-1,-1.892353E-1,1.1976421E0,4.602486E-1,-5.3803146E-2,8.403487E-1,2.0893298E-1,7.255856E-1,8.637986E-1,-1.335824E-1,3.9357173E-1,-6.1206484E-1,7.7729076E-2,9.5975615E-2,-1.2272379E0,1.0988042E0,-8.458203E-1,1.270246E-1,-2.5984855E0,-2.4910567E-2,-1.8265119E-1,1.0470254E0,1.1098525E-1,-9.326194E-1,-6.09833E-2,3.5157057E-3,2.7999075E-2,-1.7828904E0,-1.2477852E0,6.4008418E-3,-6.174277E-2,-1.8561184E0,-4.6546113E-1,-9.257081E-2,5.0242776E-1,1.3929658E0,-1.102526E0,-4.6468705E-1,4.9952465E-1,-1.3179259E0,1.2528983E-1,3.1614646E-1,3.287393E-1,-1.1285795E-1,-1.8294489E0,8.6024743E-1,6.7843854E-2,1.4100346E-1,1.024177E-3,-5.8451365E-3,2.5913203E-2,-3.5433823E-3,6.606021E-2,1.3203574E-2,-1.0455242E-2,-1.9535364E-3,4.9132872E-3,2.089787E-2,-9.288311E-4,4.6361866E-3,-8.74933E-3,-3.3059012E-2,-2.0594874E-3,-1.6678859E-2,-1.9063086E-4,-7.499909E-2,-5.929898E-3,5.206833E-2,1.4078193E-2,-5.3328935E-2,3.7564352E-2,-2.2800982E-2,2.0094596E-2,-3.36902E-2,2.7901966E-2,-8.224099E-3,2.4781894E-2,7.970463E-2,6.256097E-2,-1.1434227E-2,-3.7973147E-2,2.6826711E-2,-1.08529486E-1,-1.771128E-2,-1.2886715E-2,1.845652E-2,-5.1282765E-3,1.9398255E-2,-4.0819257E-2,2.2638561E-3,3.441637E-2,1.3191196E-1,3.3178937E-2,-4.921556E-4],"split_indices":[23,33,19,53,10,36,55,13,16,47,2,24,19,54,48,48,19,10,1,1,0,33,0,40,40,49,31,54,55,26,16,23,0,38,19,1,0,0,0,0,0,0,0,0,1,28,48,29,49,30,20,8,26,38,23,47,0,1,19,0,14,0,0,0,0,0,0,0,0,0,0,0,0,0,0,0,0,0,0,0,0,0,0,0,0,0,0,0,0,0,0,0,0,0,0,0,0,0,0,0,0,0,0,0,0,0,0],"split_type":[0,0,0,0,0,0,0,0,0,0,0,0,0,0,0,0,0,0,0,0,0,0,0,0,0,0,0,0,0,0,0,0,0,0,0,0,0,0,0,0,0,0,0,0,0,0,0,0,0,0,0,0,0,0,0,0,0,0,0,0,0,0,0,0,0,0,0,0,0,0,0,0,0,0,0,0,0,0,0,0,0,0,0,0,0,0,0,0,0,0,0,0,0,0,0,0,0,0,0,0,0,0,0,0,0,0,0],"sum_hessian":[6.57E2,8E1,5.77E2,5.3E1,2.7E1,3.89E2,1.88E2,3.9E1,1.4E1,1.2E1,1.5E1,1.54E2,2.35E2,1.63E2,2.5E1,1E1,2.9E1,6E0,8E0,6E0,6E0,1.1E1,4E0,2.2E1,1.32E2,1.56E2,7.9E1,3.2E1,1.31E2,1.4E1,1.1E1,7E0,3E0,2E1,9E0,3E0,3E0,7E0,1E0,3E0,3E0,5E0,1E0,5E0,6E0,1.2E1,1E1,3.9E1,9.3E1,8.1E1,7.5E1,3.5E1,4.4E1,2.3E1,9E0,1.29E2,2E0,8E0,6E0,5E0,6E0,3E0,4E0,9E0,1.1E1,6E0,3E0,1E0,2E0,1E0,2E0,1E0,2E0,1E0,4E0,1E0,5E0,4E0,8E0,6E0,4E0,3.1E1,8E0,8.5E1,8E0,1.2E1,6.9E1,2.9E1,4.6E1,2.7E1,8E0,5E0,3.9E1,1.5E1,8E0,7E0,2E0,8.6E1,4.3E1,1E0,7E0,4E0,2E0,2E0,3E0,4E0,2E0],"tree_param":{"num_deleted":"0","num_feature":"60","num_nodes":"107","size_leaf_vector":"0"}},{"base_weights":[-1.8545851E-4,-8.459919E-3,2.3616876E-2,-9.952388E-3,2.3663747E-1,-3.338266E-2,4.7644872E-2,5.882213E-2,-1.4918556E-2,-6.1897088E-2,8.9716196E-2,3.9746303E-2,2.6676676E-1,1.5524666E-1,-4.1062534E-2,-7.283576E-3,-6.604006E-2,-8.195188E-3,-1.1520874E-1,-1.5329908E-2,1.17893964E-1,-9.388235E-2,5.0415218E-2,3.2214987E-1,5.0308704E-2,1.5608147E-3,2.3893341E-1,-8.961794E-3,-9.842026E-2,-1.0838692E-2,1.9233555E-1,-1.0938538E-1,1.1830947E-2,-7.968763E-2,5.802248E-2,-1.424164E-1,-5.3194236E-2,-3.2868832E-2,9.873971E-3,6.841143E-2,1.7756104E-1,-1.7534668E-3,-2.0860508E-1,-4.480633E-3,7.644002E-2,-4.3621257E-2,4.6352684E-2,3.5472742E-1,1.2209008E-1,1.895085E-2,-3.1606663E-2,-7.6122284E-3,-1.1505942E-1,-3.537705E-2,1.2295601E-2,2.2189224E-1,7.497683E-3,-1.1530952E-2,-1.5980844E-1,-2.3715407E-2,1.1057379E-1,6.4167054E-3,-1.2980677E-1,1.0586069E-1,-3.0123148E-2,-1.7956431E-1,-6.295847E-2,-6.1845522E-2,-1.8160252E-2,-2.5999943E-2,1.6869757E-2,-5.2620586E-2,9.618432E-2,1.0769673E-1,-1.970817E-2],"categories":[],"categories_nodes":[],"categories_segments":[],"categories_sizes":[],"default_left":[1,1,1,1,0,1,1,1,1,1,1,1,1,1,1,1,1,1,1,1,1,1,1,0,0,1,1,1,1,1,1,1,1,1,1,1,1,0,0,0,0,1,0,1,1,0,0,0,0,0,0,0,0,0,0,0,0,0,0,0,0,0,0,0,0,0,0,0,0,0,0,0,0,0,0],"id":26,"left_children":[1,3,5,7,-1,9,11,13,15,17,19,21,23,25,27,29,31,33,35,37,39,41,43,-1,-1,45,47,49,51,53,55,57,59,61,63,65,67,-1,-1,-1,-1,69,-1,71,73,-1,-1,-1,-1,-1,-1,-1,-1,-1,-1,-1,-1,-1,-1,-1,-1,-1,-1,-1,-1,-1,-1,-1,-1,-1,-1,-1,-1,-1,-1],"loss_changes":[1.2979387E-1,1.812314E-1,2.3441994E-1,1.6721036E-1,0E0,1.8456794E-1,1.9708687E-1,3.242088E-1,1.7711079E-1,1.192992E-1,3.1406946E-2,1.7153676E-1,3.1745523E-2,2.1827203E-1,3.0418811E-2,2.8382328E-1,2.0043942E-1,1.0877306E-1,2.7856916E-2,1.6506927E-3,1.147262E-2,9.475771E-2,1.5606576E-1,0E0,0E0,1.618849E-2,1.0551864E-1,8.1839105E-3,8.189958E-3,2.2239691E-1,3.6578715E-2,1.856538E-1,7.984117E-2,4.8303165E-2,5.3789612E-2,3.0018657E-2,1.3015829E-3,0E0,0E0,0E0,0E0,3.1478982E-3,0E0,1.7951751E-1,2.245129E-1,0E0,0E0,0E0,0E0,0E0,0E0,0E0,0E0,0E0,0E0,0E0,0E0,0E0,0E0,0E0,0E0,0E0,0E0,0E0,0E0,0E0,0E0,0E0,0E0,0E0,0E0,0E0,0E0,0E0,0E0],"parents":[2147483647,0,0,1,1,2,2,3,3,5,5,6,6,7,7,8,8,9,9,10,10,11,11,12,12,13,13,14,14,15,15,16,16,17,17,18,18,19,19,20,20,21,21,22,22,25,25,26,26,27,27,28,28,29,29,30,30,31,31,32,32,33,33,34,34,35,35,36,36,41,41,43,43,44,44],"right_children":[2,4,6,8,-1,10,12,14,16,18,20,22,24,26,28,30,32,34,36,38,40,42,44,-1,-1,46,48,50,52,54,56,58,60,62,64,66,68,-1,-1,-1,-1,70,-1,72,74,-1,-1,-1,-1,-1,-1,-1,-1,-1,-1,-1,-1,-1,-1,-1,-1,-1,-1,-1,-1,-1,-1,-1,-1,-1,-1,-1,-1,-1,-1],"split_conditions":[5.355636E-1,5.88713E0,-4.8119664E-1,-2.1470215E0,7.099125E-2,1.0196378E0,3.596933E0,-8.927249E-2,1.1040392E0,1.9963065E-1,-1.9241097E0,-2.0148492E0,9.0418625E-1,-2.2455841E-1,2.741502E-1,1.0306094E0,3.5200912E-1,-5.728596E-1,4.8278976E-2,-2.2202739E-1,2.1546447E-1,3.4571058E-1,-6.334776E-1,9.664497E-2,1.5092612E-2,-2.3641507E-1,-3.6924854E-3,1.129534E-1,-3.9763194E-1,3.3782036E-3,8.764261E-1,-4.6344543E-1,6.566864E-1,-1.6002697E-1,1.9613755E0,2.2940339E-1,3.830648E-1,-9.86065E-3,2.9621916E-3,2.052343E-2,5.3268317E-2,1.8557143E-1,-6.2581524E-2,5.256008E-1,5.0598764E-1,-1.3086378E-2,1.3905806E-2,1.0641823E-1,3.6627024E-2,5.685255E-3,-9.481999E-3,-2.2836686E-3,-3.451783E-2,-1.06131155E-2,3.6886805E-3,6.6567674E-2,2.2493051E-3,-3.4592857E-3,-4.7942534E-2,-7.1146223E-3,3.3172138E-2,1.9250117E-3,-3.894203E-2,3.1758208E-2,-9.036945E-3,-5.3869296E-2,-1.8887542E-2,-1.8553657E-2,-5.448076E-3,-7.799983E-3,5.0609275E-3,-1.5786177E-2,2.8855298E-2,3.2309018E-2,-5.912451E-3],"split_indices":[16,29,54,47,0,57,2,58,59,31,3,26,0,11,33,59,47,57,30,0,3,47,7,0,0,4,8,56,0,6,6,14,7,19,16,28,14,0,0,0,0,1,0,50,35,0,0,0,0,0,0,0,0,0,0,0,0,0,0,0,0,0,0,0,0,0,0,0,0,0,0,0,0,0,0],"split_type":[0,0,0,0,0,0,0,0,0,0,0,0,0,0,0,0,0,0,0,0,0,0,0,0,0,0,0,0,0,0,0,0,0,0,0,0,0,0,0,0,0,0,0,0,0,0,0,0,0,0,0,0,0,0,0,0,0,0,0,0,0,0,0,0,0,0,0,0,0,0,0,0,0,0,0],"sum_hessian":[6.57E2,4.88E2,1.69E2,4.86E2,2E0,5E1,1.19E2,3.2E1,4.54E2,4.1E1,9E0,1.16E2,3E0,1.6E1,1.6E1,3.96E2,5.8E1,2.1E1,2E1,2E0,7E0,8E0,1.08E2,2E0,1E0,6E0,1E1,1.1E1,5E0,3.9E2,6E0,3.7E1,2.1E1,1E1,1.1E1,1.3E1,7E0,1E0,1E0,5E0,2E0,5E0,3E0,3.5E1,7.3E1,3E0,3E0,4E0,6E0,5E0,6E0,1E0,4E0,1.89E2,2.01E2,5E0,1E0,1.3E1,2.4E1,1.6E1,5E0,4E0,6E0,7E0,4E0,8E0,5E0,5E0,2E0,2E0,3E0,2.4E1,1.1E1,5.5E1,1.8E1],"tree_param":{"num_deleted":"0","num_feature":"60","num_nodes":"75","size_leaf_vector":"0"}},{"base_weights":[2.5395988E-4,-3.3948447E-3,5.1248524E-2,-4.6204425E-2,2.366655E-3,2.7601806E-2,1.5420853E-1,8.6656824E-4,-8.29639E-2,-1.432304E-1,4.53533E-3,-2.8053764E-2,5.543863E-2,1.06052585E-1,2.4565005E-1,6.6597246E-2,-3.9865114E-2,-1.0943334E-1,2.3308905E-2,-4.9044196E-2,-2.2515553E-1,7.3599676E-3,-1.0966817E-1,-6.243603E-4,-7.181594E-2,7.8213714E-2,-1.4299248E-2,1.5709465E-2,1.2334807E-1,-8.812744E-2,3.4276597E-2,-2.8530847E-2,-1.3858299E-1,-2.6491305E-3,7.6108016E-2,-1.3515741E-2,-5.4547377E-2,4.3692682E-2,-2.0675934E-3,-1.2989117E-2,-2.2029555E-1,-3.0921265E-2,1.9677637E-2,9.845153E-2,1.8574953E-3,1.1266544E-3,-2.6150338E-2,4.9826685E-2,-1.4726204E-2,1.5650623E-2,1.4175744E-1,-3.8680628E-2,-1.3936862E-1,7.338398E-2,-3.295363E-2,4.918158E-3,-6.2963486E-2,-5.8127984E-2,-1.6829222E-1,-4.377508E-2,1.1501041E-2,-3.24304E-2,6.946742E-2,2.6047364E-2,-2.0212417E-2,-6.1540842E-2,2.8450087E-2,-2.3566455E-2,-2.5492808E-1,2.6201323E-2,-6.470397E-3,3.2493766E-2,1.2818104E-1,2.4053315E-2,-2.095749E-2,-4.476011E-3,4.486213E-3],"categories":[],"categories_nodes":[],"categories_segments":[],"categories_sizes":[],"default_left":[1,1,1,1,1,1,1,1,1,1,1,1,1,0,0,1,1,1,1,1,0,1,1,1,0,1,1,1,1,1,1,1,1,1,0,0,0,1,1,1,1,0,1,1,1,1,0,0,0,0,0,0,0,0,0,0,0,0,0,0,0,0,0,0,0,0,0,0,0,0,0,0,0,0,0,0,0],"id":27,"left_children":[1,3,5,7,9,11,13,15,17,19,21,23,25,-1,-1,27,29,31,33,35,-1,37,39,41,-1,43,45,47,49,51,53,55,57,59,-1,-1,-1,61,63,65,67,-1,69,71,73,75,-1,-1,-1,-1,-1,-1,-1,-1,-1,-1,-1,-1,-1,-1,-1,-1,-1,-1,-1,-1,-1,-1,-1,-1,-1,-1,-1,-1,-1,-1,-1],"loss_changes":[1.2260751E-1,1.5179749E-1,1.0286888E-1,1.2638417E-1,1.7210329E-1,5.8878407E-2,9.175792E-3,9.10065E-2,1.1788303E-1,5.0687164E-2,1.7371193E-1,1.5559976E-2,4.0825546E-2,0E0,0E0,3.5605278E-2,7.8164E-2,7.386932E-2,1.2536671E-2,2.4034828E-4,0E0,1.7957546E-1,1.361781E-1,6.144247E-3,0E0,2.9177517E-2,1.3091586E-3,9.040801E-3,9.677261E-3,2.7547404E-2,2.6081055E-2,1.18270395E-2,4.758367E-2,4.577034E-3,0E0,0E0,0E0,2.141545E-1,2.1325526E-1,1.78464E-2,3.4871638E-2,0E0,1.1930224E-3,2.524829E-2,3.0360837E-3,9.537027E-5,0E0,0E0,0E0,0E0,0E0,0E0,0E0,0E0,0E0,0E0,0E0,0E0,0E0,0E0,0E0,0E0,0E0,0E0,0E0,0E0,0E0,0E0,0E0,0E0,0E0,0E0,0E0,0E0,0E0,0E0,0E0],"parents":[2147483647,0,0,1,1,2,2,3,3,4,4,5,5,6,6,7,7,8,8,9,9,10,10,11,11,12,12,15,15,16,16,17,17,18,18,19,19,21,21,22,22,23,23,25,25,26,26,27,27,28,28,29,29,30,30,31,31,32,32,33,33,37,37,38,38,39,39,40,40,42,42,43,43,44,44,45,45],"right_children":[2,4,6,8,10,12,14,16,18,20,22,24,26,-1,-1,28,30,32,34,36,-1,38,40,42,-1,44,46,48,50,52,54,56,58,60,-1,-1,-1,62,64,66,68,-1,70,72,74,76,-1,-1,-1,-1,-1,-1,-1,-1,-1,-1,-1,-1,-1,-1,-1,-1,-1,-1,-1,-1,-1,-1,-1,-1,-1,-1,-1,-1,-1,-1,-1],"split_conditions":[1.8372796E0,-1.6348641E0,1.3530586E0,-1.30501315E-2,-3.9184499E0,-1.908825E-1,4.080243E0,-5.540198E-2,1.2569063E0,-3.0687773E-1,3.1444821E0,7.1093164E-2,8.218719E-1,3.181578E-2,7.369502E-2,-1.9064894E-1,7.6635875E-2,-1.3916693E0,1.6555473E-1,-6.1671853E-1,-6.7546666E-2,-9.053957E-1,-1.9621778E-1,-5.69756E-1,-2.1544782E-2,3.9159566E-1,-8.184844E-2,3.752977E-1,-1.5930418E0,-1.6371891E-1,-2.1417971E-1,4.2728233E-1,-8.008698E-1,-3.0636454E0,2.2832405E-2,-4.0547224E-3,-1.6364213E-2,-7.0283043E-1,-1.9202912E-1,-1.4310798E-1,-1.3690202E0,-9.27638E-3,1.4748478E0,-4.926442E-2,2.663166E-1,-2.5570836E0,-7.845102E-3,1.4948006E-2,-4.4178613E-3,4.695187E-3,4.2527236E-2,-1.1604189E-2,-4.1810587E-2,2.2015195E-2,-9.88609E-3,1.4754474E-3,-1.8889047E-2,-1.7438397E-2,-5.048767E-2,-1.3132525E-2,3.4503124E-3,-9.72912E-3,2.0840226E-2,7.81421E-3,-6.0637253E-3,-1.8462254E-2,8.535027E-3,-7.0699365E-3,-7.647843E-2,7.860397E-3,-1.9411192E-3,9.74813E-3,3.8454313E-2,7.215995E-3,-6.2872474E-3,-1.3428032E-3,1.3458639E-3],"split_indices":[33,5,46,45,45,40,2,33,21,38,42,15,9,0,0,56,3,21,7,1,0,0,54,52,0,3,16,35,0,30,4,53,10,0,0,0,0,38,41,2,3,0,1,56,2,0,0,0,0,0,0,0,0,0,0,0,0,0,0,0,0,0,0,0,0,0,0,0,0,0,0,0,0,0,0,0,0],"split_type":[0,0,0,0,0,0,0,0,0,0,0,0,0,0,0,0,0,0,0,0,0,0,0,0,0,0,0,0,0,0,0,0,0,0,0,0,0,0,0,0,0,0,0,0,0,0,0,0,0,0,0,0,0,0,0,0,0,0,0,0,0,0,0,0,0,0,0,0,0,0,0,0,0,0,0,0,0],"sum_hessian":[6.57E2,6.14E2,4.3E1,7.2E1,5.42E2,3.6E1,7E0,3.2E1,4E1,7E0,5.35E2,1.2E1,2.4E1,6E0,1E0,1.2E1,2E1,3.2E1,8E0,4E0,3E0,5.23E2,1.2E1,8E0,4E0,1.8E1,6E0,7E0,5E0,1.2E1,8E0,9E0,2.3E1,6E0,2E0,1E0,3E0,1.07E2,4.16E2,7E0,5E0,3E0,5E0,1.4E1,4E0,3E0,3E0,3E0,4E0,1E0,4E0,7E0,5E0,5E0,3E0,5E0,4E0,7E0,1.6E1,1E0,5E0,2.7E1,8E1,1.63E2,2.53E2,3E0,4E0,1E0,4E0,4E0,1E0,5E0,9E0,2E0,2E0,1E0,2E0],"tree_param":{"num_deleted":"0","num_feature":"60","num_nodes":"77","size_leaf_vector":"0"}},{"base_weights":[2.214205E-5,-2.6052643E-3,6.1522093E-2,-9.870226E-4,-1.14513874E-1,1.5821898E-2,1.2655674E-1,-5.530218E-3,3.563622E-2,-4.7126573E-2,-1.8696636E-1,7.036501E-2,-2.9394783E-2,1.0535431E-2,1.9134958E-1,-3.2846376E-3,-2.523363E-1,-2.4263749E-2,6.2347952E-2,-6.690503E-2,-5.046442E-3,9.9076584E-2,1.6884297E-2,-9.619431E-3,-7.2330795E-2,2.818028E-2,-1.062123E-2,-3.9748766E-2,4.2860536E-3,-4.0053296E-1,-2.0027513E-2,3.756298E-2,-8.950529E-2,1.0702722E-2,9.2978336E-2,4.334435E-3,1.9622771E-2,1.4787212E-2,-2.0219514E-2,-9.623766E-4,-1.4969468E-2,-1.0757815E-1,7.358165E-3,-1.4221067E-2,2.4548259E-2,-7.157919E-2,4.153792E-2,-1.9141987E-2,8.08011E-2,-1.1391022E-1,-3.743734E-2,-5.5358227E-2,4.5450717E-2,1.9125068E-1,6.0441468E-2],"categories":[],"categories_nodes":[],"categories_segments":[],"categories_sizes":[],"default_left":[1,1,1,1,1,1,1,1,1,1,0,1,1,1,0,1,1,1,1,0,0,0,1,1,0,0,1,1,1,0,1,1,1,1,1,0,0,0,0,0,0,0,0,0,0,0,0,0,0,0,0,0,0,0,0],"id":28,"left_children":[1,3,5,7,9,11,13,15,17,19,-1,21,23,25,-1,27,29,31,33,-1,-1,-1,35,37,-1,-1,39,41,43,-1,45,47,49,51,53,-1,-1,-1,-1,-1,-1,-1,-1,-1,-1,-1,-1,-1,-1,-1,-1,-1,-1,-1,-1],"loss_changes":[1.06483445E-1,1.1433912E-1,7.8244224E-2,1.04022294E-1,3.5130307E-2,4.399476E-2,8.06749E-2,3.073191E-1,1.11914985E-1,4.6560476E-3,0E0,1.0611288E-2,7.794966E-3,2.16584E-3,0E0,1.5255475E-1,1.6411528E-1,9.2102855E-2,7.493669E-2,0E0,0E0,0E0,5.2416348E-5,2.3686897E-3,0E0,0E0,1.1159072E-4,3.043388E-1,1.7209683E-1,0E0,1.2494653E-2,3.0968487E-2,9.713367E-3,4.6130296E-2,8.436477E-2,0E0,0E0,0E0,0E0,0E0,0E0,0E0,0E0,0E0,0E0,0E0,0E0,0E0,0E0,0E0,0E0,0E0,0E0,0E0,0E0],"parents":[2147483647,0,0,1,1,2,2,3,3,4,4,5,5,6,6,7,7,8,8,9,9,11,11,12,12,13,13,15,15,16,16,17,17,18,18,22,22,23,23,26,26,27,27,28,28,30,30,31,31,32,32,33,33,34,34],"right_children":[2,4,6,8,10,12,14,16,18,20,-1,22,24,26,-1,28,30,32,34,-1,-1,-1,36,38,-1,-1,40,42,44,-1,46,48,50,52,54,-1,-1,-1,-1,-1,-1,-1,-1,-1,-1,-1,-1,-1,-1,-1,-1,-1,-1,-1,-1],"split_conditions":[2.580359E0,4.0669236E0,1.9570222E-1,1.3282225E0,1.4059748E-1,-2.829555E-1,-8.447178E-1,1.2463943E0,-7.514281E-1,1.2248309E0,-5.608991E-2,5.584462E-1,1.0796825E0,4.173237E-2,5.7404876E-2,-1.0681415E0,-1.6960683E0,-6.683536E-1,-1.8582906E-1,-2.007151E-2,-1.5139327E-3,2.9722976E-2,-3.9175135E-1,-1.9661167E0,-2.1699239E-2,8.454084E-3,4.8854083E-1,-2.8546277E-1,5.0304867E-2,-1.20159894E-1,-9.4229066E-1,1.2416778E-1,4.595353E-1,-6.524302E-1,-5.410995E-1,1.3003305E-3,5.886832E-3,4.4361637E-3,-6.0658543E-3,-2.88713E-4,-4.4908407E-3,-3.2273445E-2,2.2074496E-3,-4.2663203E-3,7.364478E-3,-2.1473758E-2,1.2461376E-2,-5.7425965E-3,2.4240332E-2,-3.4173068E-2,-1.1231202E-2,-1.6607469E-2,1.3635215E-2,5.7375208E-2,1.813244E-2],"split_indices":[14,27,0,27,45,4,3,27,40,1,0,32,23,2,0,32,2,6,25,0,0,0,0,1,0,0,0,56,17,0,0,23,59,55,37,0,0,0,0,0,0,0,0,0,0,0,0,0,0,0,0,0,0,0,0],"split_type":[0,0,0,0,0,0,0,0,0,0,0,0,0,0,0,0,0,0,0,0,0,0,0,0,0,0,0,0,0,0,0,0,0,0,0,0,0,0,0,0,0,0,0,0,0,0,0,0,0,0,0,0,0,0,0],"sum_hessian":[6.57E2,6.31E2,2.6E1,6.23E2,8E0,1.6E1,1E1,5.55E2,6.8E1,5E0,3E0,7E0,9E0,4E0,6E0,5.51E2,4E0,2.1E1,4.7E1,3E0,2E0,4E0,3E0,7E0,2E0,2E0,2E0,9.4E1,4.57E2,2E0,2E0,1.1E1,1E1,1.8E1,2.9E1,1E0,2E0,2E0,5E0,1E0,1E0,3.8E1,5.6E1,2.39E2,2.18E2,1E0,1E0,5E0,6E0,6E0,4E0,6E0,1.2E1,6E0,2.3E1],"tree_param":{"num_deleted":"0","num_feature":"60","num_nodes":"55","size_leaf_vector":"0"}},{"base_weights":[-1.5703877E-4,-9.13425E-3,1.6588094E-2,-3.940655E-2,4.600961E-3,-6.9068454E-2,2.5525203E-2,-3.3499602E-2,-2.8617668E-1,-6.6535965E-2,1.5336384E-2,-1.1101832E-1,3.8611724E-3,2.8582439E-2,-1.9393246E-1,-4.950771E-2,3.0587781E-2,-3.9128327E-1,-3.798175E-2,-9.218089E-2,4.436075E-2,4.71419E-2,-1.4447388E-2,-1.5867648E-1,-2.1028036E-2,4.3326132E-2,-3.637602E-2,3.3428676E-2,-9.6146315E-2,-2.7831435E-2,-2.6306725E-1,1.36174075E-2,-7.5780995E-2,-4.4652995E-2,6.461827E-2,-3.7299316E-2,-1.6952325E-1,-8.855531E-3,9.9790916E-2,-1.951953E-2,6.933364E-2,1.589023E-1,-2.6714846E-2,-1.7898321E-2,-1.7403646E-1,-3.2224245E-2,1.74765E-2,1.6295062E-2,5.591516E-2,-5.3345997E-2,-7.280705E-3,1.14372745E-1,2.4299892E-2,-2.46023E-2,-1.6153976E-1,-5.0642613E-2,6.025019E-2,-1.5034032E-2,-1.1594488E-1,-8.9608625E-2,-7.240407E-3,-2.3049641E-2,8.9533016E-2,-7.421713E-2,7.0402087E-3,-2.450117E-1,-6.9817185E-2,-3.0695915E-2,1.5936697E-2,5.3111184E-3,-1.280042E-1,4.0454026E-2,1.3266884E-1,2.736791E-2,3.164783E-1,1.257338E-1,-4.2390227E-2,-3.5928316E-2,-8.703977E-3,4.668122E-2,2.1007487E-1,7.260931E-4,5.4052737E-2,-3.552538E-2,9.545013E-3],"categories":[],"categories_nodes":[],"categories_segments":[],"categories_sizes":[],"default_left":[1,1,1,1,1,1,1,1,1,1,1,1,1,1,1,1,1,0,0,1,1,1,1,1,1,1,1,1,1,0,0,1,1,1,1,1,1,1,0,1,1,1,1,0,0,1,0,0,0,0,0,1,1,1,0,0,0,0,0,0,0,0,0,0,0,0,0,0,0,0,0,0,0,0,0,0,0,0,0,0,0,0,0,0,0],"id":29,"left_children":[1,3,5,7,9,11,13,15,17,19,21,23,25,27,29,31,33,-1,-1,35,37,39,41,43,45,47,49,51,53,-1,-1,55,57,59,61,63,65,67,-1,69,71,73,75,-1,-1,77,-1,-1,-1,-1,-1,79,81,83,-1,-1,-1,-1,-1,-1,-1,-1,-1,-1,-1,-1,-1,-1,-1,-1,-1,-1,-1,-1,-1,-1,-1,-1,-1,-1,-1,-1,-1,-1,-1],"loss_changes":[9.9065095E-2,1.7855796E-1,1.7783302E-1,1.8573937E-1,2.2707117E-1,6.773521E-2,1.4576823E-1,1.3693549E-1,6.339915E-2,1.15002826E-1,2.4508142E-1,5.6706145E-2,1.5867665E-2,1.2833837E-1,2.7128547E-2,1.7683336E-1,7.2018355E-2,0E0,0E0,1.2950635E-1,2.4482E-2,1.8627003E-1,2.8920412E-1,1.6346186E-2,3.149795E-3,7.903334E-4,2.080338E-3,1.4500494E-1,3.345383E-2,0E0,0E0,9.8943174E-2,1.8124443E-1,1.4488356E-2,4.3563962E-2,3.326087E-2,8.074051E-2,3.1965505E-3,0E0,8.687967E-2,1.6656807E-1,1.7787862E-1,3.064309E-1,0E0,0E0,1.2288475E-4,0E0,0E0,0E0,0E0,0E0,1.1975792E-1,1.2691191E-1,2.2040596E-3,0E0,0E0,0E0,0E0,0E0,0E0,0E0,0E0,0E0,0E0,0E0,0E0,0E0,0E0,0E0,0E0,0E0,0E0,0E0,0E0,0E0,0E0,0E0,0E0,0E0,0E0,0E0,0E0,0E0,0E0,0E0],"parents":[2147483647,0,0,1,1,2,2,3,3,4,4,5,5,6,6,7,7,8,8,9,9,10,10,11,11,12,12,13,13,14,14,15,15,16,16,19,19,20,20,21,21,22,22,23,23,24,24,25,25,26,26,27,27,28,28,31,31,32,32,33,33,34,34,35,35,36,36,37,37,39,39,40,40,41,41,42,42,45,45,51,51,52,52,53,53],"right_children":[2,4,6,8,10,12,14,16,18,20,22,24,26,28,30,32,34,-1,-1,36,38,40,42,44,46,48,50,52,54,-1,-1,56,58,60,62,64,66,68,-1,70,72,74,76,-1,-1,78,-1,-1,-1,-1,-1,80,82,84,-1,-1,-1,-1,-1,-1,-1,-1,-1,-1,-1,-1,-1,-1,-1,-1,-1,-1,-1,-1,-1,-1,-1,-1,-1,-1,-1,-1,-1,-1,-1],"split_conditions":[3.4015614E-1,-4.5397177E-1,-2.0040073E0,-4.6416664E-1,-1.2893407E0,2.41241E-2,4.4484286E0,8.478413E-1,8.174245E-1,1.1699572E0,-5.56677E-2,2.7001882E-1,7.001125E-1,2.6710052E0,-6.446454E-2,-4.5761734E-1,-1.0298364E0,-1.17384985E-1,-1.1394525E-2,-9.181878E-2,-1.6380583E-1,-7.735858E-1,-2.2221117E0,-1.6177838E0,6.8810344E-1,5.294886E-1,-2.123682E0,-2.0447135E0,2.6528308E-1,-8.349431E-3,-7.892018E-2,-2.2195862E-1,-5.1309466E-1,-4.6123403E-1,-9.84925E-1,-2.6717913E-1,-6.0646057E-2,-1.993599E-1,2.9937277E-2,1.0799781E0,3.6873335E-1,3.637556E-1,-1.5484029E0,-5.3694965E-3,-5.221094E-2,4.5028013E-1,5.24295E-3,4.8885187E-3,1.6774548E-2,-1.60038E-2,-2.1842115E-3,5.190476E-1,1.2571755E-1,1.5513501E0,-4.8461933E-2,-1.5192784E-2,1.8075058E-2,-4.51021E-3,-3.4783464E-2,-2.6882589E-2,-2.1721222E-3,-6.9148927E-3,2.6859906E-2,-2.226514E-2,2.1120626E-3,-7.350352E-2,-2.0945156E-2,-9.208775E-3,4.781009E-3,1.5933356E-3,-3.840126E-2,1.2136209E-2,3.980065E-2,8.210373E-3,9.49435E-2,3.772014E-2,-1.2717069E-2,-1.0778495E-2,-2.611193E-3,1.4004367E-2,6.3022465E-2,2.1782792E-4,1.6215822E-2,-1.0657615E-2,2.863504E-3],"split_indices":[31,26,18,26,12,40,54,33,0,35,53,30,40,42,0,28,36,0,0,35,46,5,33,2,5,2,4,36,2,0,0,10,24,5,50,18,5,7,0,2,9,23,38,0,0,2,0,0,0,0,0,43,48,0,0,0,0,0,0,0,0,0,0,0,0,0,0,0,0,0,0,0,0,0,0,0,0,0,0,0,0,0,0,0,0],"split_type":[0,0,0,0,0,0,0,0,0,0,0,0,0,0,0,0,0,0,0,0,0,0,0,0,0,0,0,0,0,0,0,0,0,0,0,0,0,0,0,0,0,0,0,0,0,0,0,0,0,0,0,0,0,0,0,0,0,0,0,0,0,0,0,0,0,0,0,0,0,0,0,0,0,0,0,0,0,0,0,0,0,0,0,0,0],"sum_hessian":[6.57E2,4.28E2,2.29E2,1.33E2,2.95E2,2.1E1,2.08E2,1.31E2,2E0,3.8E1,2.57E2,1.3E1,8E0,2.06E2,2E0,1.05E2,2.6E1,1E0,1E0,3.1E1,7E0,1.24E2,1.33E2,8E0,5E0,4E0,4E0,1.99E2,7E0,1E0,1E0,3.1E1,7.4E1,8E0,1.8E1,1.9E1,1.2E1,4E0,3E0,3.1E1,9.3E1,8E0,1.25E2,1E0,7E0,4E0,1E0,2E0,2E0,2E0,2E0,1.9E1,1.8E2,4E0,3E0,1.3E1,1.8E1,3E1,4.4E1,3E0,5E0,4E0,1.4E1,1E1,9E0,6E0,6E0,2E0,2E0,2.6E1,5E0,6.5E1,2.8E1,5E0,3E0,1.1E1,1.14E2,3E0,1E0,1.2E1,7E0,1.01E2,7.9E1,3E0,1E0],"tree_param":{"num_deleted":"0","num_feature":"60","num_nodes":"85","size_leaf_vector":"0"}},{"base_weights":[-4.6315417E-4,5.617204E-4,-1.3442412E-1,3.1154938E-3,-5.2660618E-2,-3.5138372E-2,-2.6578355E-1,-1.9792944E-2,9.527233E-3,-3.4769278E-2,-2.0209293E-1,8.607424E-3,-6.1025754E-2,1.0275219E-1,6.3603E-3,-7.5586416E-2,-7.893847E-3,1.8251467E-2,-1.8401429E-1,1.908866E-2,-9.080148E-2,3.362844E-1,6.476441E-2,-3.238664E-2,1.3957027E-2,-9.703354E-2,-1.3795562E-2,-8.768678E-2,1.9579004E-3,-4.197329E-3,8.468528E-2,-8.30948E-2,-2.4338639E-1,-7.822776E-2,5.804645E-2,-3.1900927E-2,-1.4022009E-1,1.09345555E-1,-1.8062635E-3,2.774139E-3,-1.2795512E-1,-5.2452968E-3,3.490506E-2,8.971691E-4,-1.8992195E-2,2.1504734E-2,-1.7806478E-2],"categories":[],"categories_nodes":[],"categories_segments":[],"categories_sizes":[],"default_left":[1,1,1,1,1,0,0,1,1,1,0,1,1,1,1,1,1,1,1,1,1,0,1,1,1,0,1,0,1,0,0,0,0,0,0,0,0,0,0,0,0,0,0,0,0,0,0],"id":30,"left_children":[1,3,5,7,9,-1,-1,11,13,15,-1,17,19,21,23,25,27,29,31,33,35,-1,37,39,41,-1,43,-1,45,-1,-1,-1,-1,-1,-1,-1,-1,-1,-1,-1,-1,-1,-1,-1,-1,-1,-1],"loss_changes":[9.041443E-2,8.905431E-2,5.587139E-2,9.1990404E-2,7.317969E-2,0E0,0E0,1.6095595E-1,1.4371747E-1,3.0118719E-2,0E0,1.5568602E-1,1.3531929E-1,1.2016265E-1,1.3997388E-1,1.3238966E-2,1.4321478E-2,1.1817284E-1,3.7430525E-3,6.520056E-2,1.14869E-1,0E0,4.471446E-2,2.6245543E-1,1.598767E-1,0E0,3.2245013E-4,0E0,6.9505507E-3,0E0,0E0,0E0,0E0,0E0,0E0,0E0,0E0,0E0,0E0,0E0,0E0,0E0,0E0,0E0,0E0,0E0,0E0],"parents":[2147483647,0,0,1,1,2,2,3,3,4,4,7,7,8,8,9,9,11,11,12,12,13,13,14,14,15,15,16,16,17,17,18,18,19,19,20,20,22,22,23,23,24,24,26,26,28,28],"right_children":[2,4,6,8,10,-1,-1,12,14,16,-1,18,20,22,24,26,28,30,32,34,36,-1,38,40,42,-1,44,-1,46,-1,-1,-1,-1,-1,-1,-1,-1,-1,-1,-1,-1,-1,-1,-1,-1,-1,-1],"split_conditions":[4.453026E0,2.3604388E0,1.9094752E0,-6.9641525E-1,2.0863492E0,-1.0541512E-2,-7.973507E-2,2.6647806E-1,-6.273602E-1,-2.7736777E-1,-6.062788E-2,3.1807528E0,-9.0402627E-1,-8.677137E-1,-1.1387923E0,5.6003386E-1,-1.84811E0,8.4081304E-1,-3.2751995E-1,-1.8025182E0,-1.4939207E-1,1.00885324E-1,1.5108329E-1,-1.6069258E0,3.1855E-2,-2.9110063E-2,-6.6332155E-1,-2.6306035E-2,-5.1780254E-1,-1.2591986E-3,2.5405586E-2,-2.4928441E-2,-7.301592E-2,-2.3468329E-2,1.7413935E-2,-9.570278E-3,-4.206603E-2,3.280367E-2,-5.4187904E-4,8.322417E-4,-3.838654E-2,-1.573589E-3,1.0471519E-2,2.6915074E-4,-5.6976588E-3,6.4514205E-3,-5.3419434E-3],"split_indices":[35,17,0,1,54,0,0,47,1,7,0,4,30,0,54,49,41,23,0,21,33,0,12,54,47,0,0,0,1,0,0,0,0,0,0,0,0,0,0,0,0,0,0,0,0,0,0],"split_type":[0,0,0,0,0,0,0,0,0,0,0,0,0,0,0,0,0,0,0,0,0,0,0,0,0,0,0,0,0,0,0,0,0,0,0,0,0,0,0,0,0,0,0,0,0,0,0],"sum_hessian":[6.57E2,6.53E2,4E0,6.24E2,2.9E1,3E0,1E0,1.36E2,4.88E2,2.7E1,2E0,8.1E1,5.5E1,1.5E1,4.73E2,1E1,1.7E1,7.8E1,3E0,1.5E1,4E1,1E0,1.4E1,7.7E1,3.96E2,7E0,3E0,1E0,1.6E1,5.9E1,1.9E1,2E0,1E0,4E0,1.1E1,1.9E1,2.1E1,8E0,6E0,5.7E1,2E1,2.07E2,1.89E2,1E0,2E0,8E0,8E0],"tree_param":{"num_deleted":"0","num_feature":"60","num_nodes":"47","size_leaf_vector":"0"}},{"base_weights":[-6.8536215E-4,6.3464176E-3,-1.6254839E-2,-1.32040065E-2,1.9718574E-2,1.1484547E-2,-4.4931874E-2,3.2110922E-2,-4.1066233E-2,-1.8568909E-2,4.2710315E-2,1.1462506E-1,-3.0564344E-3,-1.2700618E-4,-8.7149404E-2,1.8537894E-2,2.075673E-1,-1.4719357E-1,-2.6097126E-2,-2.4412991E-2,2.858417E-1,1.9799741E-2,1.0005157E-1,1.734151E-1,-1.4122015E-2,1.0871099E-1,-1.4854674E-2,-3.9059576E-2,5.1198974E-2,-1.545053E-1,-1.9060414E-2,4.369907E-2,-1.593879E-2,-2.3997591E-1,-6.8983816E-2,5.8113737E-3,-6.8290405E-2,-6.637183E-2,-2.1298234E-3,4.579402E-2,-4.8826456E-2,-6.115787E-2,1.2021913E-1,1.8400013E-1,4.4367403E-2,-3.0325003E-2,2.5344968E-2,2.4870427E-1,3.3183724E-2,-6.496405E-2,9.592174E-3,-5.0034747E-4,-8.64786E-2,9.919743E-2,2.9338019E-3,1.1731181E-2,-2.1636775E-1,-3.453022E-2,5.5912755E-2,-5.0822604E-2,6.242491E-2,-4.2407315E-2,7.3306195E-2,-2.6555967E-1,-5.6028545E-2,-9.033584E-2,3.8321887E-3,-4.063924E-2,5.5265088E-2,-4.7474362E-2,-2.6458225E-1,-2.8984513E-2,-1.5694165E-1,-1.17117725E-1,1.1100424E-2,-2.9004589E-2,6.789514E-2,-1.0531676E-1,2.1307439E-2,-5.854469E-3,-1.1450978E-1,3.0937407E-2,1.6225384E-1,-3.7611485E-2,-4.2327773E-3,5.8743414E-3,6.763812E-2,1.932772E-2,-8.8831246E-2,-6.0726143E-2,2.7341697E-2,2.8867632E-2,-7.675702E-2,-1.1374425E-1,-2.010471E-2,1.200569E-1,3.2679155E-2,3.7427988E-2,-3.7798382E-2,6.910915E-2,-3.651743E-2,-8.9242905E-2,-3.8000906E-1,8.268515E-3,-5.3771444E-2,6.5071404E-2,9.639084E-3],"categories":[],"categories_nodes":[],"categories_segments":[],"categories_sizes":[],"default_left":[1,1,1,1,1,1,1,1,1,1,1,1,1,1,1,1,0,1,1,1,0,1,1,1,1,1,1,1,1,1,1,1,1,1,1,1,1,1,1,1,1,1,1,0,0,1,0,0,1,1,1,1,1,1,1,1,1,1,1,0,0,0,0,0,0,0,0,0,0,0,0,0,0,0,0,0,0,0,0,0,0,0,0,0,0,0,0,0,0,0,0,0,0,0,0,0,0,0,0,0,0,0,0,0,0,0,0],"id":31,"left_children":[1,3,5,7,9,11,13,15,17,19,21,23,25,27,29,31,-1,33,35,37,-1,39,41,43,45,47,49,51,53,55,57,59,61,63,65,67,69,71,73,75,77,79,81,-1,-1,83,-1,-1,85,87,89,91,93,95,97,99,101,103,105,-1,-1,-1,-1,-1,-1,-1,-1,-1,-1,-1,-1,-1,-1,-1,-1,-1,-1,-1,-1,-1,-1,-1,-1,-1,-1,-1,-1,-1,-1,-1,-1,-1,-1,-1,-1,-1,-1,-1,-1,-1,-1,-1,-1,-1,-1,-1,-1],"loss_changes":[7.2141744E-2,1.1895019E-1,1.635901E-1,2.34895E-1,2.38473E-1,1.5782557E-1,1.9103557E-1,1.6523683E-1,1.7885125E-1,1.8843631E-1,2.2003782E-1,1.0084656E-1,1.2425014E-1,1.01912424E-1,2.3553717E-1,5.8817267E-2,0E0,8.503634E-2,1.3772193E-1,9.4291195E-2,0E0,2.1987036E-1,1.6340995E-1,4.130155E-3,3.9660013E-3,8.690686E-2,1.0474953E-1,5.298152E-2,5.067536E-2,2.6991695E-1,3.3245824E-2,7.220251E-2,7.161204E-2,1.33574605E-2,1.4339108E-2,1.377781E-1,1.6722398E-1,1.1396682E-1,1.0322838E-1,1.4909807E-1,1.3694814E-1,1.703286E-2,1.5635633E-1,0E0,0E0,6.0128095E-4,0E0,0E0,6.1891684E-3,5.8047548E-2,7.405112E-2,4.0287368E-2,2.123966E-2,1.1339538E-2,1.8275002E-2,2.4670947E-2,3.6134142E-1,1.9385112E-2,1.4917906E-3,0E0,0E0,0E0,0E0,0E0,0E0,0E0,0E0,0E0,0E0,0E0,0E0,0E0,0E0,0E0,0E0,0E0,0E0,0E0,0E0,0E0,0E0,0E0,0E0,0E0,0E0,0E0,0E0,0E0,0E0,0E0,0E0,0E0,0E0,0E0,0E0,0E0,0E0,0E0,0E0,0E0,0E0,0E0,0E0,0E0,0E0,0E0,0E0],"parents":[2147483647,0,0,1,1,2,2,3,3,4,4,5,5,6,6,7,7,8,8,9,9,10,10,11,11,12,12,13,13,14,14,15,15,17,17,18,18,19,19,21,21,22,22,23,23,24,24,25,25,26,26,27,27,28,28,29,29,30,30,31,31,32,32,33,33,34,34,35,35,36,36,37,37,38,38,39,39,40,40,41,41,42,42,45,45,48,48,49,49,50,50,51,51,52,52,53,53,54,54,55,55,56,56,57,57,58,58],"right_children":[2,4,6,8,10,12,14,16,18,20,22,24,26,28,30,32,-1,34,36,38,-1,40,42,44,46,48,50,52,54,56,58,60,62,64,66,68,70,72,74,76,78,80,82,-1,-1,84,-1,-1,86,88,90,92,94,96,98,100,102,104,106,-1,-1,-1,-1,-1,-1,-1,-1,-1,-1,-1,-1,-1,-1,-1,-1,-1,-1,-1,-1,-1,-1,-1,-1,-1,-1,-1,-1,-1,-1,-1,-1,-1,-1,-1,-1,-1,-1,-1,-1,-1,-1,-1,-1,-1,-1,-1,-1],"split_conditions":[4.2567912E-1,-2.3498814E-1,7.60019E-2,-1.7046157E-1,-3.619636E-1,-1.590157E0,9.3835875E-2,1.8392453E0,-6.410439E-2,4.4419775E0,5.3521514E-1,5.637785E-1,-2.3919263E0,2.995928E-1,-9.519505E-2,4.5494437E-1,6.2270194E-2,-3.7801963E-1,1.5571782E-1,-4.1963476E-1,8.575252E-2,4.1531578E-1,-1.6962368E0,1.389281E0,1.7796719E0,-1.9933808E0,-3.4943408E-1,3.1084603E-1,2.7719742E-1,-3.7911057E-1,1.011329E0,-1.2498125E0,3.2542455E-1,1.5029653E0,1.6445687E-1,1.360029E-1,1.5861386E0,-3.0031785E-1,-2.63356E0,-7.351191E-1,1.09736145E-1,3.307052E-1,-4.429305E-1,5.5200044E-2,1.3310221E-2,-1.977242E0,7.6034907E-3,7.4611284E-2,3.850906E-1,-9.2273784E-1,-7.1632254E-1,6.7976356E-1,1.3664539E0,1.1634303E0,2.5759497E-1,9.937455E-2,1.02444634E-1,-4.4259614E-1,1.0638967E0,-1.52467815E-2,1.8727474E-2,-1.2722195E-2,2.199186E-2,-7.96679E-2,-1.6808564E-2,-2.7100753E-2,1.1496566E-3,-1.2191772E-2,1.6579527E-2,-1.4242309E-2,-7.937468E-2,-8.695355E-3,-4.70825E-2,-3.5135318E-2,3.3301276E-3,-8.701377E-3,2.0368543E-2,-3.159503E-2,6.3922317E-3,-1.7563407E-3,-3.4352936E-2,9.281223E-3,4.8676156E-2,-1.1283446E-2,-1.2698332E-3,1.7623025E-3,2.0291436E-2,5.7983166E-3,-2.6649375E-2,-1.8217843E-2,8.20251E-3,8.66029E-3,-2.3027107E-2,-3.4123275E-2,-6.031413E-3,3.601707E-2,9.803747E-3,1.1228397E-2,-1.1339515E-2,2.0732746E-2,-1.0955229E-2,-2.6772873E-2,-1.1400272E-1,2.4805544E-3,-1.6131435E-2,1.9521423E-2,2.8917254E-3],"split_indices":[21,47,47,9,1,0,51,55,9,32,42,1,55,13,48,53,0,22,18,0,0,33,26,2,1,39,11,57,14,11,30,55,18,5,13,53,23,21,59,38,16,19,37,0,0,0,0,0,0,25,19,20,17,53,41,27,1,5,1,0,0,0,0,0,0,0,0,0,0,0,0,0,0,0,0,0,0,0,0,0,0,0,0,0,0,0,0,0,0,0,0,0,0,0,0,0,0,0,0,0,0,0,0,0,0,0,0],"split_type":[0,0,0,0,0,0,0,0,0,0,0,0,0,0,0,0,0,0,0,0,0,0,0,0,0,0,0,0,0,0,0,0,0,0,0,0,0,0,0,0,0,0,0,0,0,0,0,0,0,0,0,0,0,0,0,0,0,0,0,0,0,0,0,0,0,0,0,0,0,0,0,0,0,0,0,0,0,0,0,0,0,0,0,0,0,0,0,0,0,0,0,0,0,0,0,0,0,0,0,0,0,0,0,0,0,0,0],"sum_hessian":[6.57E2,4.53E2,2.04E2,1.84E2,2.69E2,1.04E2,1E2,7E1,1.14E2,1.01E2,1.68E2,1.2E1,9.2E1,4.9E1,5.1E1,6.6E1,4E0,1.3E1,1.01E2,1E2,1E0,1.21E2,4.7E1,8E0,4E0,8E0,8.4E1,2.8E1,2.1E1,2.5E1,2.6E1,3.8E1,2.8E1,5E0,8E0,5.8E1,4.3E1,3.4E1,6.6E1,8.8E1,3.3E1,5E0,4.2E1,7E0,1E0,3E0,1E0,2E0,6E0,2.7E1,5.7E1,1.6E1,1.2E1,1E1,1.1E1,7E0,1.8E1,2.2E1,4E0,6E0,3.2E1,2.2E1,6E0,4E0,1E0,6E0,2E0,3E1,2.8E1,4E1,3E0,2.5E1,9E0,6E0,6E1,2E1,6.8E1,1.8E1,1.5E1,3E0,2E0,1.4E1,2.8E1,2E0,1E0,4E0,2E0,6E0,2.1E1,1.1E1,4.6E1,1.2E1,4E0,8E0,4E0,7E0,3E0,6E0,5E0,3E0,4E0,1.1E1,7E0,7E0,1.5E1,3E0,1E0],"tree_param":{"num_deleted":"0","num_feature":"60","num_nodes":"107","size_leaf_vector":"0"}},{"base_weights":[-6.8012567E-4,2.6473515E-2,-4.271449E-3,6.768766E-4,8.010345E-2,-1.0931459E-1,-3.1717431E-3,7.263103E-3,-1.7090344E-1,-3.0281313E-3,1.3572638E-1,1.0870745E-3,-1.6478719E-1,1.6640413E-1,-4.0509705E-3,7.9881586E-2,-7.755748E-3,-5.0569717E-2,4.5018144E-2,1.9707061E-1,1.0864905E-2,3.0427575E-3,-1.4121458E-3,-3.992393E-2,-7.078477E-4,9.1379985E-2,-6.052792E-3,2.292268E-2,-3.4276217E-2,8.573294E-2,1.9728597E-2,6.276782E-2,2.761445E-1,5.35613E-2,-2.3873618E-2,-6.52409E-2,2.1810602E-2,-7.587944E-2,1.7943537E-3,1.03153884E-1,3.7372183E-2,4.2322397E-2,-2.192281E-2,-6.3622266E-2,1.3170475E-2,-5.901508E-3,8.141053E-2,-2.9390782E-2,-3.6610626E-3,-1.7386226E-2,-1.002626E-1,1.08290255E-1,-8.833499E-3,-9.657302E-3,-1.9567715E-1,-7.4502956E-3,2.0546544E-2],"categories":[],"categories_nodes":[],"categories_segments":[],"categories_sizes":[],"default_left":[1,1,1,1,1,1,1,1,0,1,1,1,0,0,1,1,1,0,1,1,1,0,0,1,1,1,0,1,1,0,0,1,0,0,1,1,1,1,1,0,0,0,0,0,0,0,0,0,0,0,0,0,0,0,0,0,0],"id":32,"left_children":[1,3,5,7,9,11,13,15,-1,17,19,21,-1,-1,23,25,27,-1,29,31,33,-1,-1,35,37,39,-1,41,43,-1,-1,45,-1,-1,47,49,51,53,55,-1,-1,-1,-1,-1,-1,-1,-1,-1,-1,-1,-1,-1,-1,-1,-1,-1,-1],"loss_changes":[6.42796E-2,1.06473126E-1,6.6883914E-2,6.1134834E-2,1.16011515E-1,3.6924742E-2,8.670237E-2,5.733314E-2,0E0,2.7402714E-2,1.1275184E-1,1.8959865E-5,0E0,0E0,6.893018E-2,9.446066E-3,3.6584377E-2,0E0,4.486561E-3,8.886549E-2,1.017796E-2,0E0,0E0,7.800658E-2,9.926193E-2,1.2319833E-3,0E0,1.919761E-2,3.4254886E-2,0E0,0E0,6.8813544E-3,0E0,0E0,3.384624E-4,5.6915134E-2,4.070795E-2,1.3297571E-1,8.8738725E-2,0E0,0E0,0E0,0E0,0E0,0E0,0E0,0E0,0E0,0E0,0E0,0E0,0E0,0E0,0E0,0E0,0E0,0E0],"parents":[2147483647,0,0,1,1,2,2,3,3,4,4,5,5,6,6,7,7,9,9,10,10,11,11,14,14,15,15,16,16,18,18,19,19,20,20,23,23,24,24,25,25,27,27,28,28,31,31,34,34,35,35,36,36,37,37,38,38],"right_children":[2,4,6,8,10,12,14,16,-1,18,20,22,-1,-1,24,26,28,-1,30,32,34,-1,-1,36,38,40,-1,42,44,-1,-1,46,-1,-1,48,50,52,54,56,-1,-1,-1,-1,-1,-1,-1,-1,-1,-1,-1,-1,-1,-1,-1,-1,-1,-1],"split_conditions":[-1.7231178E0,2.2364052E-1,-4.2723866E0,3.3064814E0,-8.515287E-1,2.221972E-1,-3.9137597E0,-1.202857E0,-5.1271036E-2,3.041633E-1,8.050103E-1,4.583532E-1,-4.943616E-2,4.992124E-2,-1.8242545E0,7.556229E-1,-1.232494E-2,-1.5170916E-2,-1.118461E0,-6.965776E-2,-5.9734106E-1,9.1282726E-4,-4.2364377E-4,3.4267148E-1,-2.853921E0,3.0032225E0,-1.8158377E-3,3.360893E-1,2.6714653E-3,2.5719883E-2,5.9185796E-3,-1.4115553E0,8.2843356E-2,1.6068392E-2,6.252721E-1,-3.2756984E-1,-1.1082721E0,3.5911041E-1,3.95509E-1,3.0946167E-2,1.1211655E-2,1.269672E-2,-6.576843E-3,-1.9086681E-2,3.9511425E-3,-1.7704525E-3,2.442316E-2,-8.817235E-3,-1.0983188E-3,-5.215868E-3,-3.007878E-2,3.248708E-2,-2.6500497E-3,-2.8971906E-3,-5.8703147E-2,-2.2350887E-3,6.1639636E-3],"split_indices":[34,23,46,6,16,3,46,56,0,50,49,0,0,0,45,0,12,0,3,11,5,0,0,16,37,15,0,1,46,0,0,0,0,0,1,35,52,17,44,0,0,0,0,0,0,0,0,0,0,0,0,0,0,0,0,0,0],"split_type":[0,0,0,0,0,0,0,0,0,0,0,0,0,0,0,0,0,0,0,0,0,0,0,0,0,0,0,0,0,0,0,0,0,0,0,0,0,0,0,0,0,0,0,0,0,0,0,0,0,0,0,0,0,0,0,0,0],"sum_hessian":[6.57E2,7.6E1,5.81E2,5.2E1,2.4E1,5E0,5.76E2,5.1E1,1E0,1E1,1.4E1,2E0,3E0,2E0,5.74E2,8E0,4.3E1,5E0,5E0,9E0,5E0,1E0,1E0,4.8E1,5.26E2,7E0,1E0,2E1,2.3E1,1E0,4E0,4E0,5E0,2E0,3E0,3.4E1,1.4E1,1.6E1,5.1E2,5E0,2E0,1.4E1,6E0,1.4E1,9E0,1E0,3E0,2E0,1E0,1.5E1,1.9E1,3E0,1.1E1,1.1E1,5E0,3.42E2,1.68E2],"tree_param":{"num_deleted":"0","num_feature":"60","num_nodes":"57","size_leaf_vector":"0"}},{"base_weights":[-4.0615193E-4,1.0831234E-3,-6.0231023E-2,1.1757428E-2,-7.886387E-3,1.9668726E-2,-8.01824E-2,-2.0333176E-2,2.1135995E-2,5.188059E-3,-3.1461895E-2,-2.2041108E-2,-9.542068E-2,1.2770386E-2,-6.984847E-2,4.738216E-2,-2.4650132E-3,1.148016E-2,-6.815845E-2,-9.18097E-2,1.3035332E-3,-1.7911196E-3,-2.8194064E-2,-4.691563E-2,-1.09506324E-1,4.815979E-2,-3.0741543E-2,-2.769568E-2,-1.3873865E-1,3.2942453E-3,8.003942E-2,3.422011E-2,-1.7792914E-2,1.4907022E-2,-1.06946506E-1,2.0467056E-2,-1.1417678E-1,-1.5677908E-1,-1.31870825E-2,3.5852086E-2,-5.6690928E-2,1.152605E-1,1.1599448E-2,1.0215884E-2,-7.73849E-2,-4.8522573E-2,1.1964093E-2,-3.158605E-2,-2.3957403E-1,-2.5601316E-2,5.5792373E-2,-9.2723705E-3,1.08740464E-1,3.9210725E-3,1.02725096E-1,7.995281E-3,-4.6292037E-2,-9.994068E-2,1.7703678E-2,-2.8607758E-2,-1.3896394E-1,2.587659E-2,4.628817E-3,-1.2848233E-1,-2.8432706E-2,-4.5956247E-2,-2.6377222E-1,-1.2868468E-1,5.7434393E-3,-8.364033E-2,5.325632E-2,-2.2743548E-1,-2.2971902E-2],"categories":[],"categories_nodes":[],"categories_segments":[],"categories_sizes":[],"default_left":[1,1,1,1,1,0,1,1,1,1,1,1,1,1,1,1,1,1,1,1,1,0,0,0,0,1,1,1,1,1,1,1,1,1,1,1,1,1,1,1,1,0,0,0,0,0,0,0,0,0,0,0,0,0,0,0,0,0,0,0,0,0,0,0,0,0,0,0,0,0,0,0,0],"id":33,"left_children":[1,3,5,7,9,-1,11,13,15,17,19,21,23,25,27,29,31,33,35,37,39,-1,-1,-1,-1,41,43,45,47,49,51,53,55,57,59,61,63,65,67,69,71,-1,-1,-1,-1,-1,-1,-1,-1,-1,-1,-1,-1,-1,-1,-1,-1,-1,-1,-1,-1,-1,-1,-1,-1,-1,-1,-1,-1,-1,-1,-1,-1],"loss_changes":[5.869021E-2,6.165566E-2,2.708285E-2,8.891314E-2,1.0804607E-1,0E0,9.414472E-3,1.1071387E-1,1.4134821E-1,1.0508228E-1,2.4728486E-1,4.4789026E-4,1.6946867E-3,6.461482E-2,7.456319E-2,1.5523368E-1,6.864789E-2,8.641311E-2,7.574804E-2,2.2268727E-1,1.663297E-1,0E0,0E0,0E0,0E0,5.5087212E-2,3.7088E-2,1.5448348E-2,1.0048053E-1,7.272562E-2,1.5993547E-1,7.432008E-2,6.3575044E-2,6.729201E-2,1.1073783E-2,4.799643E-4,1.1066288E-2,2.7245283E-1,4.665412E-2,1.1259744E-1,1.7325291E-1,0E0,0E0,0E0,0E0,0E0,0E0,0E0,0E0,0E0,0E0,0E0,0E0,0E0,0E0,0E0,0E0,0E0,0E0,0E0,0E0,0E0,0E0,0E0,0E0,0E0,0E0,0E0,0E0,0E0,0E0,0E0,0E0],"parents":[2147483647,0,0,1,1,2,2,3,3,4,4,6,6,7,7,8,8,9,9,10,10,11,11,12,12,13,13,14,14,15,15,16,16,17,17,18,18,19,19,20,20,25,25,26,26,27,27,28,28,29,29,30,30,31,31,32,32,33,33,34,34,35,35,36,36,37,37,38,38,39,39,40,40],"right_children":[2,4,6,8,10,-1,12,14,16,18,20,22,24,26,28,30,32,34,36,38,40,-1,-1,-1,-1,42,44,46,48,50,52,54,56,58,60,62,64,66,68,70,72,-1,-1,-1,-1,-1,-1,-1,-1,-1,-1,-1,-1,-1,-1,-1,-1,-1,-1,-1,-1,-1,-1,-1,-1,-1,-1,-1,-1,-1,-1,-1,-1],"split_conditions":[3.2925453E0,-1.00431174E-1,-1.3931385E0,-7.898023E-1,2.5167102E-1,5.900618E-3,-1.2112564E0,3.619895E-1,-4.982718E-2,1.81304E0,6.576551E-1,-2.3528342E-1,-8.8831E-2,-9.3378484E-2,5.9718055E-1,-9.188332E-2,-4.378906E-1,2.8294158E0,-6.476461E-1,1.5105776E-1,3.5292214E-1,-5.373359E-4,-8.4582195E-3,-1.407469E-2,-3.2851897E-2,-4.591593E-1,2.4441561E-1,2.953317E-1,-7.24403E-2,1.5788084E-1,-9.542743E-1,2.7866173E-1,2.1181604E-1,-4.3832364E0,6.478474E-1,4.1569525E-1,1.975108E-1,7.0145994E-2,-4.8230916E-2,4.745304E-2,4.5732012E-1,3.4578152E-2,3.4798344E-3,3.0647654E-3,-2.3215469E-2,-1.4556772E-2,3.589228E-3,-9.475816E-3,-7.187221E-2,-7.680395E-3,1.6737713E-2,-2.7817113E-3,3.262214E-2,1.1763218E-3,3.081753E-2,2.3985845E-3,-1.3887611E-2,-2.9982205E-2,5.3111035E-3,-8.5823275E-3,-4.1689184E-2,7.762977E-3,1.3886451E-3,-3.85447E-2,-8.529812E-3,-1.3786875E-2,-7.913167E-2,-3.8605407E-2,1.7230319E-3,-2.50921E-2,1.5976897E-2,-6.823065E-2,-6.891571E-3],"split_indices":[48,54,19,14,9,0,58,1,16,17,9,0,2,30,6,27,31,4,57,48,39,0,0,0,0,7,58,35,12,22,43,34,14,37,7,14,4,40,54,54,39,0,0,0,0,0,0,0,0,0,0,0,0,0,0,0,0,0,0,0,0,0,0,0,0,0,0,0,0,0,0,0,0],"split_type":[0,0,0,0,0,0,0,0,0,0,0,0,0,0,0,0,0,0,0,0,0,0,0,0,0,0,0,0,0,0,0,0,0,0,0,0,0,0,0,0,0,0,0,0,0,0,0,0,0,0,0,0,0,0,0,0,0,0,0,0,0,0,0,0,0,0,0,0,0,0,0,0,0],"sum_hessian":[6.57E2,6.42E2,1.5E1,2.93E2,3.49E2,3E0,1.2E1,6.6E1,2.27E2,2.25E2,1.24E2,3E0,9E0,4E1,2.6E1,1.07E2,1.2E2,2.08E2,1.7E1,4.3E1,8.1E1,1E0,2E0,3E0,6E0,2.2E1,1.8E1,1.7E1,9E0,4.6E1,6.1E1,3.5E1,8.5E1,2.03E2,5E0,6E0,1.1E1,2.3E1,2E1,5.1E1,3E1,7E0,1.5E1,1E1,8E0,1.1E1,6E0,5E0,4E0,3E1,1.6E1,1.5E1,4.6E1,2.5E1,1E1,4.5E1,4E1,4E0,1.99E2,2E0,3E0,4E0,2E0,9E0,2E0,1.2E1,1.1E1,2E0,1.8E1,6E0,4.5E1,4E0,2.6E1],"tree_param":{"num_deleted":"0","num_feature":"60","num_nodes":"73","size_leaf_vector":"0"}},{"base_weights":[-8.7994675E-4,7.6368595E-3,-8.868127E-3,1.4581286E-2,-3.389379E-2,1.8917553E-2,-2.3722306E-2,1.2966039E-2,2.27772E-1,1.1342699E-2,-6.912735E-2,8.409172E-3,1.1191651E-1,-3.8409792E-2,1.2344539E-2,2.4333801E-2,-1.1617151E-2,3.7436645E-2,-6.013161E-2,-1.0784923E-2,-8.609083E-2,-1.09974025E-2,5.0970465E-2,1.6907513E-1,-1.9205778E-3,-6.2030237E-2,-5.402462E-3,-1.6114065E-2,6.163274E-2,5.128005E-5,4.0235173E-2,-3.237524E-2,4.1157916E-2,-3.462443E-3,7.876854E-2,-2.3175746E-2,4.302131E-3,-9.532822E-2,-2.5309214E-2,5.0045148E-2,-1.9033007E-2,2.0057496E-1,3.0022452E-2,5.9826788E-2,2.2265878E-1,9.816349E-3,-1.3017312E-2,-9.157503E-2,2.081487E-3,3.525463E-2,-3.044251E-2,-7.536168E-2,7.3403E-3,-3.053711E-2,1.0962624E-1,-1.6082563E-2,3.107593E-2,-1.1526121E-2,5.6619838E-2,-1.104818E-2,-1.13552526E-1,2.3380604E-2,1.2864366E-1,1.2543037E-2,-3.9654415E-2,4.3892268E-2,1.222649E-1,-2.6410738E-2,-6.7353845E-3,7.1256645E-3,9.857317E-4,-1.2777965E-1,-7.115848E-2,-2.7137597E-3,6.55068E-2,-3.9425764E-2,9.048046E-3,-1.746631E-2,8.184155E-2,7.096773E-2,1.3201982E-2,1.2488976E-2,2.2355467E-3,-1.22580856E-1,-7.2504026E-3,1.099875E-1,-2.9477827E-2,1.1414944E-1,-6.1513605E-3,1.8986512E-2,-4.44985E-2,1.0378182E-2,-1.0509476E-1,-2.5563346E-2,3.5941146E-2,-5.0272364E-2,6.367246E-2,1.5896821E-1,2.3476819E-2],"categories":[],"categories_nodes":[],"categories_segments":[],"categories_sizes":[],"default_left":[1,1,1,1,1,1,1,1,0,1,1,1,1,1,1,1,1,1,0,1,1,1,1,1,1,1,1,1,1,1,1,1,1,1,1,1,1,1,0,1,1,0,1,1,0,1,0,1,1,1,1,1,1,1,1,0,0,0,0,0,0,0,0,0,0,0,0,0,0,0,0,0,0,0,0,0,0,0,0,0,0,0,0,0,0,0,0,0,0,0,0,0,0,0,0,0,0,0,0],"id":34,"left_children":[1,3,5,7,9,11,13,15,-1,17,19,21,23,25,27,29,31,33,-1,35,37,39,41,43,45,47,49,51,53,55,57,59,61,63,65,67,69,71,-1,73,75,-1,77,79,-1,81,-1,83,85,87,89,91,93,95,97,-1,-1,-1,-1,-1,-1,-1,-1,-1,-1,-1,-1,-1,-1,-1,-1,-1,-1,-1,-1,-1,-1,-1,-1,-1,-1,-1,-1,-1,-1,-1,-1,-1,-1,-1,-1,-1,-1,-1,-1,-1,-1,-1,-1],"loss_changes":[4.483395E-2,9.249591E-2,1.4077814E-1,9.140022E-2,7.410084E-2,1.1535381E-1,1.1807449E-1,7.657413E-2,0E0,4.141711E-2,2.4803475E-2,8.976519E-2,7.840598E-2,1.2284927E-1,9.216694E-2,7.220339E-2,9.664182E-2,2.7319722E-2,0E0,1.4082922E-3,8.816585E-3,3.7741043E-2,1.0053143E-1,3.3510447E-2,7.789902E-4,1.7445403E-1,6.9282964E-2,5.8917012E-2,1.0951295E-1,3.804079E-2,9.6486926E-2,1.07815646E-1,3.587377E-2,5.710815E-3,6.769441E-3,3.4851255E-5,3.0431867E-5,4.241213E-3,0E0,7.5194277E-3,3.872429E-2,0E0,7.771504E-2,1.1408627E-3,0E0,3.28623E-5,0E0,1.638282E-1,1.0540538E-1,8.563684E-2,3.0025367E-2,3.1682417E-2,3.009201E-2,1.9934213E-2,6.4280435E-2,0E0,0E0,0E0,0E0,0E0,0E0,0E0,0E0,0E0,0E0,0E0,0E0,0E0,0E0,0E0,0E0,0E0,0E0,0E0,0E0,0E0,0E0,0E0,0E0,0E0,0E0,0E0,0E0,0E0,0E0,0E0,0E0,0E0,0E0,0E0,0E0,0E0,0E0,0E0,0E0,0E0,0E0,0E0,0E0],"parents":[2147483647,0,0,1,1,2,2,3,3,4,4,5,5,6,6,7,7,9,9,10,10,11,11,12,12,13,13,14,14,15,15,16,16,17,17,19,19,20,20,21,21,22,22,23,23,24,24,25,25,26,26,27,27,28,28,29,29,30,30,31,31,32,32,33,33,34,34,35,35,36,36,37,37,39,39,40,40,42,42,43,43,45,45,47,47,48,48,49,49,50,50,51,51,52,52,53,53,54,54],"right_children":[2,4,6,8,10,12,14,16,-1,18,20,22,24,26,28,30,32,34,-1,36,38,40,42,44,46,48,50,52,54,56,58,60,62,64,66,68,70,72,-1,74,76,-1,78,80,-1,82,-1,84,86,88,90,92,94,96,98,-1,-1,-1,-1,-1,-1,-1,-1,-1,-1,-1,-1,-1,-1,-1,-1,-1,-1,-1,-1,-1,-1,-1,-1,-1,-1,-1,-1,-1,-1,-1,-1,-1,-1,-1,-1,-1,-1,-1,-1,-1,-1,-1,-1],"split_conditions":[-1.0819228E-2,1.2464116E0,-2.7288106E-1,4.427082E0,-4.953227E-1,1.8063076E0,4.804113E-1,3.6126545E-1,6.83316E-2,2.3994732E-1,-7.263769E-1,6.2425125E-1,5.293999E-1,2.873317E-1,6.3999844E-1,-4.5650437E-1,5.273078E-1,-1.6754262E-1,-1.8039484E-2,-2.0781617E-1,1.3584374E0,-2.0267277E0,-8.063028E-1,3.3981543E-2,-2.5788718E-1,3.9255828E-1,-2.3498814E-1,-7.036295E-1,-5.5269516E-1,2.8895324E-1,-1.1904763E0,2.0989035E-1,9.928391E-1,2.6141357E-1,-5.593885E-1,-6.8178046E-1,3.0274016E-1,-5.5236524E-1,-7.5927647E-3,-1.5955102E0,7.4560225E-1,6.017249E-2,-3.4243278E-3,2.2424142E0,6.679764E-2,-1.1285536E0,-3.9051936E-3,3.6920273E-1,-9.9300706E-1,-4.4645227E-2,-8.2727456E-1,-1.0733399E0,-9.320222E-2,4.9045773E0,3.3685026E-1,-4.8247688E-3,9.322779E-3,-3.4578363E-3,1.6985953E-2,-3.314454E-3,-3.406576E-2,7.0141815E-3,3.85931E-2,3.762911E-3,-1.1896325E-2,1.3167681E-2,3.6679473E-2,-7.923222E-3,-2.0206154E-3,2.1376994E-3,2.9571954E-4,-3.8333897E-2,-2.1347545E-2,-8.141279E-4,1.965204E-2,-1.182773E-2,2.7144137E-3,-5.239893E-3,2.4552466E-2,2.1290319E-2,3.9605945E-3,3.746693E-3,6.70664E-4,-3.677426E-2,-2.1751209E-3,3.2996252E-2,-8.843348E-3,3.424483E-2,-1.8454082E-3,5.695954E-3,-1.3349551E-2,3.1134547E-3,-3.152843E-2,-7.669004E-3,1.0782344E-2,-1.508171E-2,1.9101739E-2,4.7690466E-2,7.043046E-3],"split_indices":[38,23,2,32,35,23,57,32,0,4,28,15,21,22,2,58,40,52,0,0,32,43,58,7,0,32,18,50,29,8,32,40,26,13,25,0,2,16,0,3,38,0,40,1,0,0,0,16,30,45,8,39,21,0,40,0,0,0,0,0,0,0,0,0,0,0,0,0,0,0,0,0,0,0,0,0,0,0,0,0,0,0,0,0,0,0,0,0,0,0,0,0,0,0,0,0,0,0,0],"split_type":[0,0,0,0,0,0,0,0,0,0,0,0,0,0,0,0,0,0,0,0,0,0,0,0,0,0,0,0,0,0,0,0,0,0,0,0,0,0,0,0,0,0,0,0,0,0,0,0,0,0,0,0,0,0,0,0,0,0,0,0,0,0,0,0,0,0,0,0,0,0,0,0,0,0,0,0,0,0,0,0,0,0,0,0,0,0,0,0,0,0,0,0,0,0,0,0,0,0,0],"sum_hessian":[6.57E2,3.18E2,3.39E2,2.73E2,4.5E1,1.18E2,2.21E2,2.72E2,1E0,2E1,2.5E1,1.07E2,1.1E1,1.57E2,6.4E1,1.86E2,8.6E1,1.5E1,5E0,6E0,1.9E1,7.4E1,3.3E1,7E0,4E0,9.1E1,6.6E1,4.1E1,2.3E1,7.4E1,1.12E2,6.2E1,2.4E1,8E0,7E0,3E0,3E0,1.6E1,3E0,8E0,6.6E1,3E0,3E1,3E0,4E0,2E0,2E0,6.2E1,2.9E1,2.5E1,4.1E1,1.1E1,3E1,8E0,1.5E1,4.9E1,2.5E1,2.7E1,8.5E1,5E1,1.2E1,2.1E1,3E0,6E0,2E0,5E0,2E0,2E0,1E0,1E0,2E0,5E0,1.1E1,2E0,6E0,3.8E1,2.8E1,1.6E1,1.4E1,2E0,1E0,1E0,1E0,4.5E1,1.7E1,6E0,2.3E1,8E0,1.7E1,9E0,3.2E1,3E0,8E0,1.4E1,1.6E1,7E0,1E0,9E0,6E0],"tree_param":{"num_deleted":"0","num_feature":"60","num_nodes":"99","size_leaf_vector":"0"}},{"base_weights":[-2.076884E-4,-1.6146777E-2,3.59771E-3,-2.9899282E-2,1.8113352E-2,6.556436E-3,-3.5038266E-2,-4.7806982E-2,8.106603E-3,-2.4314838E-2,4.8146885E-2,-5.095008E-2,8.336147E-3,-8.120003E-2,-1.4023295E-3,-2.0588111E-2,-6.564167E-2,-2.3891084E-2,5.809406E-2,1.3525009E-2,-3.8055204E-2,2.1308241E-2,1.0261423E-1,-1.8765658E-1,-1.1354083E-3,1.9577894E-2,-2.3931917E-3,-1.2318642E-2,-1.21297E-1,-2.022313E-2,3.6414564E-2,-5.4498105E-3,-6.0899235E-2,-9.048658E-2,-3.4389466E-2,1.0499912E-2,-5.589297E-2,9.583133E-2,4.3849E-3,1.7708272E-2,-1.6040206E-3,-4.2479973E-2,5.308628E-3,4.269762E-2,-1.2292049E-2,1.5484917E-1,5.0750416E-2,9.793997E-3,-2.567381E-1,3.371483E-2,-2.2774883E-2,9.414464E-3,8.375795E-2,-1.2735275E-2,3.4806017E-2,1.7294697E-3,-2.3287093E-2,-4.7702E-2,-1.4602314E-1,-7.3641636E-3,-3.216158E-2,4.8997983E-2,1.9064914E-2,-2.4297709E-2,1.5827859E-2,-6.5619804E-2,-1.6287923E-2,-5.160694E-2,-1.1760566E-1,-6.5000355E-2,-9.000687E-3,2.659281E-2,-3.591445E-2,-7.915501E-2,-1.6799927E-2,3.968056E-2,1.2802427E-1,8.400872E-3,-2.4313629E-3,-4.6268705E-2,-1.6953787E-2,6.5269936E-3,5.726689E-2,-3.618151E-2,4.5000375E-3,3.8599625E-2,7.0878267E-3,-2.7737895E-2,-5.257229E-3,-4.1271956E-3,3.5396032E-2,1.1894887E-1,3.0016143E-2,-1.7320499E-2,9.6036255E-2,1.1880556E-1,7.977442E-3,1.0615632E-2,-4.7711283E-3,2.1183193E-3,-1.5373814E-2,-4.002412E-2,-1.9439226E-2],"categories":[],"categories_nodes":[],"categories_segments":[],"categories_sizes":[],"default_left":[1,1,1,1,1,1,1,1,1,1,1,1,1,1,1,1,1,1,1,1,1,1,1,1,1,1,1,1,1,1,1,1,1,1,1,1,1,1,1,0,0,1,0,1,1,0,0,0,0,1,1,1,1,1,1,1,0,0,0,1,1,0,0,0,0,0,0,0,0,0,0,0,0,0,0,0,0,0,0,0,0,0,0,0,0,0,0,0,0,0,0,0,0,0,0,0,0,0,0,0,0,0,0],"id":35,"left_children":[1,3,5,7,9,11,13,15,17,19,21,23,25,27,29,31,33,35,37,39,41,43,45,47,49,51,53,55,57,59,61,63,65,67,69,71,73,75,77,-1,-1,79,-1,81,83,-1,-1,-1,-1,85,87,89,91,93,95,97,-1,-1,-1,99,101,-1,-1,-1,-1,-1,-1,-1,-1,-1,-1,-1,-1,-1,-1,-1,-1,-1,-1,-1,-1,-1,-1,-1,-1,-1,-1,-1,-1,-1,-1,-1,-1,-1,-1,-1,-1,-1,-1,-1,-1,-1,-1],"loss_changes":[3.9968804E-2,6.037923E-2,6.1044384E-2,6.232197E-2,4.8318613E-2,5.108551E-2,5.8888517E-2,2.874586E-2,4.937242E-2,8.833631E-3,2.9973723E-2,1.0193678E-1,5.80634E-2,4.2696744E-2,1.7106533E-2,1.55344E-2,2.5617167E-2,2.149783E-2,2.3901831E-2,3.4484797E-4,2.52801E-3,1.2023872E-2,1.1105061E-2,5.7075232E-2,9.817541E-3,1.524995E-1,9.546843E-2,1.1188765E-3,1.1231616E-2,2.2194143E-3,8.1240106E-4,8.405368E-3,4.0532462E-4,1.5018329E-2,1.34040695E-2,8.424481E-3,7.7640414E-3,7.57353E-3,1.846691E-4,0E0,0E0,2.7940236E-4,0E0,4.896015E-3,2.9708953E-3,0E0,0E0,0E0,0E0,3.7674978E-4,5.4969825E-4,7.192013E-2,5.694878E-2,9.841931E-2,1.20745994E-1,2.8171E-4,0E0,0E0,0E0,7.16129E-4,2.220273E-5,0E0,0E0,0E0,0E0,0E0,0E0,0E0,0E0,0E0,0E0,0E0,0E0,0E0,0E0,0E0,0E0,0E0,0E0,0E0,0E0,0E0,0E0,0E0,0E0,0E0,0E0,0E0,0E0,0E0,0E0,0E0,0E0,0E0,0E0,0E0,0E0,0E0,0E0,0E0,0E0,0E0,0E0],"parents":[2147483647,0,0,1,1,2,2,3,3,4,4,5,5,6,6,7,7,8,8,9,9,10,10,11,11,12,12,13,13,14,14,15,15,16,16,17,17,18,18,19,19,20,20,21,21,22,22,23,23,24,24,25,25,26,26,27,27,28,28,29,29,30,30,31,31,32,32,33,33,34,34,35,35,36,36,37,37,38,38,41,41,43,43,44,44,49,49,50,50,51,51,52,52,53,53,54,54,55,55,59,59,60,60],"right_children":[2,4,6,8,10,12,14,16,18,20,22,24,26,28,30,32,34,36,38,40,42,44,46,48,50,52,54,56,58,60,62,64,66,68,70,72,74,76,78,-1,-1,80,-1,82,84,-1,-1,-1,-1,86,88,90,92,94,96,98,-1,-1,-1,100,102,-1,-1,-1,-1,-1,-1,-1,-1,-1,-1,-1,-1,-1,-1,-1,-1,-1,-1,-1,-1,-1,-1,-1,-1,-1,-1,-1,-1,-1,-1,-1,-1,-1,-1,-1,-1,-1,-1,-1,-1,-1,-1],"split_conditions":[-1.0893862E0,6.6828847E-1,1.6793733E0,2.0672762E-1,-1.2826937E-1,-2.8224711E0,2.2014475E0,-9.1102207E-1,1.0462833E-1,-1.3192532E0,5.9843993E-1,-7.601767E-2,-2.2525193E-2,-1.835525E-1,3.5957652E-1,8.1922185E-1,2.7524257E-1,5.074298E-2,3.9416394E-1,-3.4262604E-1,1.074678E0,1.8185899E-2,1.24023415E-1,-7.300089E-1,-6.2731636E-1,-1.5043154E-1,9.928391E-1,-2.9969555E-1,-6.149192E-1,-1.310054E-2,2.9643625E-2,-3.7107277E-1,1.0565393E0,8.603365E-2,3.7365865E-2,9.491334E-1,2.542982E-1,-5.9998684E-2,1.2235922E0,5.312482E-3,-4.812062E-4,1.4160175E0,1.5925885E-3,-3.1171748E-1,-3.4550256E-1,4.6454754E-2,1.52251255E-2,2.938199E-3,-7.7021435E-2,7.1416426E-1,7.851424E-1,3.4674007E-1,4.762533E-1,2.442368E0,-4.300275E-1,-1.1055598E0,-6.986128E-3,-1.43106E-2,-4.3806944E-2,-8.946186E-1,-8.794202E-2,1.4699396E-2,5.7194745E-3,-7.289313E-3,4.748358E-3,-1.9685943E-2,-4.886377E-3,-1.5482082E-2,-3.52817E-2,-1.9500107E-2,-2.7002061E-3,7.977843E-3,-1.0774336E-2,-2.3746505E-2,-5.0399783E-3,1.1904168E-2,3.840728E-2,2.5202618E-3,-7.294089E-4,-1.3880612E-2,-5.086136E-3,1.9580983E-3,1.7180068E-2,-1.0854453E-2,1.3500113E-3,1.1579888E-2,2.1263482E-3,-8.321369E-3,-1.5771687E-3,-1.2381587E-3,1.061881E-2,3.5684664E-2,9.004843E-3,-5.19615E-3,2.8810877E-2,3.564167E-2,2.3932327E-3,3.1846897E-3,-1.4313385E-3,6.354958E-4,-4.6121445E-3,-1.20072365E-2,-5.831768E-3],"split_indices":[26,44,52,5,4,19,52,5,49,34,3,26,35,45,18,38,11,36,39,1,5,34,11,0,37,35,6,0,21,28,17,44,4,16,42,17,51,0,1,0,0,19,0,21,15,0,0,0,0,1,9,31,5,59,3,0,0,0,0,8,3,0,0,0,0,0,0,0,0,0,0,0,0,0,0,0,0,0,0,0,0,0,0,0,0,0,0,0,0,0,0,0,0,0,0,0,0,0,0,0,0,0,0],"split_type":[0,0,0,0,0,0,0,0,0,0,0,0,0,0,0,0,0,0,0,0,0,0,0,0,0,0,0,0,0,0,0,0,0,0,0,0,0,0,0,0,0,0,0,0,0,0,0,0,0,0,0,0,0,0,0,0,0,0,0,0,0,0,0,0,0,0,0,0,0,0,0,0,0,0,0,0,0,0,0,0,0,0,0,0,0,0,0,0,0,0,0,0,0,0,0,0,0,0,0,0,0,0,0],"sum_hessian":[6.57E2,1.26E2,5.31E2,9E1,3.6E1,4.94E2,3.7E1,6.1E1,2.9E1,1.5E1,2.1E1,1.4E1,4.8E2,1.5E1,2.2E1,2.5E1,3.6E1,1.8E1,1.1E1,4E0,1.1E1,1.5E1,6E0,3E0,1.1E1,2.34E2,2.46E2,6E0,9E0,1.5E1,7E0,1.9E1,6E0,1.9E1,1.7E1,9E0,9E0,6E0,5E0,3E0,1E0,1E1,1E0,9E0,6E0,2E0,4E0,1E0,2E0,4E0,7E0,2.03E2,3.1E1,1.93E2,5.3E1,3E0,3E0,3E0,6E0,8E0,7E0,3E0,4E0,1E1,9E0,5E0,1E0,9E0,1E1,7E0,1E1,7E0,2E0,5E0,4E0,3E0,3E0,3E0,2E0,8E0,2E0,3E0,6E0,2E0,4E0,3E0,1E0,5E0,2E0,1.34E2,6.9E1,1.8E1,1.3E1,1.86E2,7E0,1.2E1,4.1E1,1E0,2E0,4E0,4E0,3E0,4E0],"tree_param":{"num_deleted":"0","num_feature":"60","num_nodes":"103","size_leaf_vector":"0"}},{"base_weights":[-2.0631563E-4,4.8215193E-4,-9.021661E-2,-1.0205687E-3,3.8331427E-2,-2.8869953E-2,-1.6780162E-1,5.6191586E-4,-3.383557E-2,2.2845505E-2,1.13921136E-1,-1.6346702E-3,4.1074343E-2,1.1068135E-3,-5.8565892E-2,2.1960044E-3,3.987042E-2,1.4457338E-1,1.0982215E-2,2.0408924E-3,-2.6018608E-2,-1.1267843E-2,7.472561E-2,-1.3734423E-2,2.071066E-2,1.0006145E-2,-6.837591E-2,-5.6082075E-3,2.487664E-2,1.7130408E-2,5.9755366E-2,1.3615343E-2,-5.2660024E-3,-1.2980323E-1,-1.5112654E-2,1.4949654E-2,-5.620577E-2,1.6928896E-2,1.0702962E-1,-1.8683791E-3,-2.5133371E-2,2.5764078E-2,7.069215E-3,1.8066019E-2,-3.0568019E-3,-1.6329387E-2,-7.512696E-2,1.0552108E-3,-1.4201283E-2,-1.1215011E-3,2.4655472E-2],"categories":[],"categories_nodes":[],"categories_segments":[],"categories_sizes":[],"default_left":[1,1,1,1,1,0,0,1,1,1,1,1,1,1,1,1,1,0,0,1,1,1,1,1,1,1,1,1,0,1,0,0,0,0,0,0,0,0,0,0,0,0,0,0,0,0,0,0,0,0,0],"id":36,"left_children":[1,3,5,7,9,-1,-1,11,13,15,17,19,21,23,25,27,29,-1,-1,31,33,35,37,39,41,43,45,47,-1,49,-1,-1,-1,-1,-1,-1,-1,-1,-1,-1,-1,-1,-1,-1,-1,-1,-1,-1,-1,-1,-1],"loss_changes":[4.0819213E-2,3.72366E-2,1.895348E-2,3.273443E-2,2.6661824E-2,0E0,0E0,5.3638536E-2,2.5124777E-2,7.646676E-3,1.1033498E-2,5.1318422E-2,5.5444803E-2,4.066738E-3,1.2119956E-2,2.0865626E-3,4.402574E-3,0E0,0E0,4.2189196E-2,8.2928605E-2,1.6156336E-2,3.3662364E-2,1.0351246E-3,2.3148395E-4,3.7108138E-4,4.043758E-3,5.303187E-4,0E0,9.890785E-4,0E0,0E0,0E0,0E0,0E0,0E0,0E0,0E0,0E0,0E0,0E0,0E0,0E0,0E0,0E0,0E0,0E0,0E0,0E0,0E0,0E0],"parents":[2147483647,0,0,1,1,2,2,3,3,4,4,7,7,8,8,9,9,10,10,11,11,12,12,13,13,14,14,15,15,16,16,19,19,20,20,21,21,22,22,23,23,24,24,25,25,26,26,27,27,29,29],"right_children":[2,4,6,8,10,-1,-1,12,14,16,18,20,22,24,26,28,30,-1,-1,32,34,36,38,40,42,44,46,48,-1,50,-1,-1,-1,-1,-1,-1,-1,-1,-1,-1,-1,-1,-1,-1,-1,-1,-1,-1,-1,-1,-1],"split_conditions":[4.453026E0,2.4258516E0,1.9094752E0,2.1351712E0,1.281661E0,-8.660986E-3,-5.034049E-2,1.4337149E0,-8.295363E-1,9.461395E-3,1.4219321E0,6.645541E-1,-2.4289653E-1,-3.927601E-1,-1.3753796E0,7.938535E-1,2.0297056E-1,4.3372013E-2,3.2946647E-3,-1.8313517E-1,-1.7095792E0,3.3067992E-1,-1.5086144E-1,-8.925289E-3,-1.3365279E-1,-8.25539E-1,-1.4314342E0,6.4483154E-1,7.462992E-3,-7.332078E-1,1.7926611E-2,4.084603E-3,-1.5798007E-3,-3.894097E-2,-4.5337966E-3,4.4848965E-3,-1.6861731E-2,5.078669E-3,3.2108888E-2,-5.6051376E-4,-7.540012E-3,7.7292235E-3,2.1207647E-3,5.4198056E-3,-9.1704057E-4,-4.8988163E-3,-2.2538088E-2,3.1656327E-4,-4.2603854E-3,-3.3645035E-4,7.396642E-3],"split_indices":[35,33,0,54,42,0,0,54,10,4,0,54,13,36,8,11,19,0,0,49,7,32,45,9,5,0,9,0,0,14,0,0,0,0,0,0,0,0,0,0,0,0,0,0,0,0,0,0,0,0,0],"split_type":[0,0,0,0,0,0,0,0,0,0,0,0,0,0,0,0,0,0,0,0,0,0,0,0,0,0,0,0,0,0,0,0,0,0,0,0,0,0,0,0,0,0,0,0,0,0,0,0,0,0,0],"sum_hessian":[6.57E2,6.53E2,4E0,6.29E2,2.4E1,3E0,1E0,6.01E2,2.8E1,2.1E1,3E0,5.71E2,3E1,1.2E1,1.6E1,1E1,1.1E1,2E0,1E0,4.97E2,7.4E1,1.2E1,1.8E1,7E0,5E0,2E0,1.4E1,8E0,2E0,6E0,5E0,1.92E2,3.05E2,6E0,6.8E1,8E0,4E0,7E0,1.1E1,4E0,3E0,3E0,2E0,1E0,1E0,2E0,1.2E1,5E0,3E0,2E0,4E0],"tree_param":{"num_deleted":"0","num_feature":"60","num_nodes":"51","size_leaf_vector":"0"}},{"base_weights":[-1.7660153E-4,1.7193842E-3,-2.5438834E-2,2.7155894E-4,5.2462462E-2,-1.7632973E-1,-1.8167265E-2,6.0032057E-3,-9.866222E-3,-1.4825392E-2,7.430683E-2,1.7328255E-2,-2.7522486E-2,4.018002E-3,1.5488394E-1,-3.690199E-2,2.9185842E-4,-2.0928025E-2,4.792571E-3,8.8415936E-2,2.0457368E-2,6.2187966E-3,4.1177392E-2,1.0435917E-2,-3.546203E-2,-7.0689066E-4,2.8583542E-2,1.9430114E-1,-1.3924539E-3,2.32853E-3,-6.788145E-2,5.8159134E-3,-7.4058324E-2,2.0039156E-3,2.5940547E-2,-1.0044754E-2,9.977126E-3,-1.2417421E-2,2.2060737E-2,-4.5865893E-2,-1.1181653E-3,-2.9133251E-2,5.7464256E-3,5.909E-2,-9.094975E-4,3.285402E-2,-4.505891E-2,-4.995701E-2,-1.273212E-1,2.581753E-2,-1.5087358E-2,-1.9896603E-1,-2.4193717E-2,1.2114232E-2,3.089572E-3,-3.3356994E-3,-1.5290432E-2,8.32063E-3,2.8447265E-2,-8.654952E-3,-5.101479E-2,6.9831517E-3,-1.096527E-2],"categories":[],"categories_nodes":[],"categories_segments":[],"categories_sizes":[],"default_left":[1,1,1,1,1,0,1,1,1,1,1,1,1,1,1,1,1,0,0,0,1,1,0,1,1,1,1,0,0,1,1,1,1,0,0,0,1,1,1,1,1,0,0,0,0,0,0,0,0,0,0,0,0,0,0,0,0,0,0,0,0,0,0],"id":37,"left_children":[1,3,5,7,9,-1,11,13,15,17,19,21,23,25,27,29,31,-1,-1,-1,33,35,-1,37,39,41,43,-1,-1,45,47,49,51,-1,-1,-1,53,55,57,59,61,-1,-1,-1,-1,-1,-1,-1,-1,-1,-1,-1,-1,-1,-1,-1,-1,-1,-1,-1,-1,-1,-1],"loss_changes":[3.1559855E-2,4.5021094E-2,4.7268398E-2,3.4748614E-2,2.6089262E-2,0E0,1.5419995E-2,1.1228102E-1,5.933117E-2,6.989052E-4,8.068226E-3,2.3934362E-3,1.1219487E-2,4.3894492E-2,3.1070448E-2,7.186314E-2,6.5323606E-2,0E0,0E0,0E0,3.5275158E-4,5.892079E-4,0E0,2.1335988E-3,1.066798E-2,5.8502696E-2,5.4937165E-2,0E0,0E0,4.0536534E-2,2.8798401E-2,6.22682E-2,6.3699484E-2,0E0,0E0,0E0,6.56083E-5,2.7271366E-5,2.0205881E-4,3.965158E-3,7.1476825E-4,0E0,0E0,0E0,0E0,0E0,0E0,0E0,0E0,0E0,0E0,0E0,0E0,0E0,0E0,0E0,0E0,0E0,0E0,0E0,0E0,0E0,0E0],"parents":[2147483647,0,0,1,1,2,2,3,3,4,4,6,6,7,7,8,8,9,9,10,10,11,11,12,12,13,13,14,14,15,15,16,16,20,20,21,21,23,23,24,24,25,25,26,26,29,29,30,30,31,31,32,32,36,36,37,37,38,38,39,39,40,40],"right_children":[2,4,6,8,10,-1,12,14,16,18,20,22,24,26,28,30,32,-1,-1,-1,34,36,-1,38,40,42,44,-1,-1,46,48,50,52,-1,-1,-1,54,56,58,60,62,-1,-1,-1,-1,-1,-1,-1,-1,-1,-1,-1,-1,-1,-1,-1,-1,-1,-1,-1,-1,-1,-1],"split_conditions":[1.8392589E0,1.5319529E0,-4.0970783E0,2.914945E-1,-1.2340581E0,-5.289892E-2,-1.0477048E0,2.8507763E-1,-7.4003124E-1,7.7884746E-1,1.1697955E0,1.9586003E-1,-1.6942364E0,9.573139E-1,2.4861197E0,-2.2153112E-1,1.6928768E0,-6.2784078E-3,1.4377714E-3,2.6524782E-2,1.2343881E0,-4.820442E0,1.2353218E-2,-1.5285294E0,1.6704853E-1,-1.1387923E0,-4.217489E-3,5.8290344E-2,-4.1773618E-4,4.0601575E-1,4.5340034E-1,1.02259934E-1,-2.8295514E-1,6.011747E-4,7.7821645E-3,-3.0134262E-3,1.4474463E-1,3.58707E-1,-1.1961956E0,-2.4492512E0,1.0928077E-1,-8.739975E-3,1.7239278E-3,1.7727E-2,-2.7284925E-4,9.856206E-3,-1.3517673E-2,-1.4987104E-2,-3.8196363E-2,7.7452594E-3,-4.5262077E-3,-5.968981E-2,-7.2581153E-3,3.6342698E-3,9.2687167E-4,-1.0007098E-3,-4.5871297E-3,2.496189E-3,8.53418E-3,-2.5964857E-3,-1.5304437E-2,2.0949456E-3,-3.289581E-3],"split_indices":[45,45,7,38,33,0,27,38,41,0,39,10,9,41,1,16,6,0,0,0,0,3,0,3,56,54,34,0,0,17,36,11,13,0,0,0,1,0,1,20,0,0,0,0,0,0,0,0,0,0,0,0,0,0,0,0,0,0,0,0,0,0,0],"split_type":[0,0,0,0,0,0,0,0,0,0,0,0,0,0,0,0,0,0,0,0,0,0,0,0,0,0,0,0,0,0,0,0,0,0,0,0,0,0,0,0,0,0,0,0,0,0,0,0,0,0,0,0,0,0,0,0,0,0,0,0,0,0,0],"sum_hessian":[6.57E2,6.12E2,4.5E1,5.96E2,1.6E1,1E0,4.4E1,3.81E2,2.15E2,4E0,1.2E1,9E0,3.5E1,3.77E2,4E0,5.8E1,1.57E2,3E0,1E0,9E0,3E0,7E0,2E0,6E0,2.9E1,3.17E2,6E1,3E0,1E0,2.6E1,3.2E1,1.47E2,1E1,1E0,2E0,1E0,6E0,2E0,4E0,2.2E1,7E0,5.8E1,2.59E2,2.9E1,3.1E1,1.6E1,1E1,2.6E1,6E0,7.5E1,7.2E1,2E0,8E0,4E0,2E0,1E0,1E0,2E0,2E0,3E0,1.9E1,4E0,3E0],"tree_param":{"num_deleted":"0","num_feature":"60","num_nodes":"63","size_leaf_vector":"0"}},{"base_weights":[-2.3737305E-4,7.083263E-3,-5.414306E-3,1.2263743E-2,-3.375351E-2,-1.4723947E-2,1.1049234E-2,-1.9014154E-2,1.9468386E-2,-1.3157602E-2,-1.382207E-1,2.97007E-2,-1.9418E-2,8.7256536E-2,1.2063059E-3,5.600481E-2,-2.9528778E-2,-3.0383235E-2,2.5240384E-2,-2.582819E-2,2.6733818E-2,8.64166E-3,-1.7709671E-1,6.1606675E-2,-2.1128332E-2,1.08035905E-2,-2.8164454E-2,1.403781E-1,1.6587714E-2,-2.9748855E-2,1.4061752E-2,1.0257363E-2,6.310283E-2,-1.8873155E-2,-7.858849E-2,-4.093431E-2,4.6567995E-2,-4.1412722E-2,2.9454336E-2,-2.2114E-3,-4.7096964E-2,1.2661107E-3,4.551807E-2,2.1264164E-2,1.0467466E-1,-5.356302E-2,9.421964E-3,-6.718866E-2,2.2695638E-2,-4.1947756E-2,-1.9437844E-3,4.1962966E-2,1.8259184E-1,4.9412224E-2,-1.2989437E-2,1.4088484E-2,-4.6506703E-2,7.780049E-2,5.918637E-3,-3.6965612E-2,2.6780987E-4,-9.385332E-2,6.5002143E-3,-6.445452E-2,-7.639133E-3,-4.7512054E-3,-1.3759303E-1,4.4919074E-2,4.2576124E-3,1.6697567E-2,-1.5401891E-2,-5.968363E-2,-1.0149389E-2,7.0648044E-3,-8.064985E-3,6.084564E-3,3.219093E-2,1.1889442E-1,4.608351E-2,-2.1256765E-2,-6.801494E-2,3.695917E-2,-3.4773112E-3,-9.5399775E-2,-3.682426E-2,-9.089143E-3,4.4222128E-2,2.3793774E-3,-5.2573584E-2,8.239206E-3,-7.043599E-2,1.2300879E-2,5.768238E-2,3.3782572E-3,-1.7925926E-2,-1.8683255E-2,5.715122E-2,-7.4761085E-2,-2.240925E-2,7.4804723E-3,1.4662442E-1,-1.8533983E-3,6.050822E-2],"categories":[],"categories_nodes":[],"categories_segments":[],"categories_sizes":[],"default_left":[1,1,1,1,1,1,1,1,1,1,1,1,1,1,1,1,1,1,1,1,1,0,0,1,1,1,1,1,1,1,1,0,0,1,1,1,0,1,1,1,1,1,0,1,1,1,1,1,1,1,1,0,0,1,1,1,1,1,1,0,0,0,0,0,0,0,0,0,0,0,0,0,0,0,0,0,0,0,0,0,0,0,0,0,0,0,0,0,0,0,0,0,0,0,0,0,0,0,0,0,0,0,0],"id":38,"left_children":[1,3,5,7,9,11,13,15,17,19,21,23,25,27,29,31,33,35,37,39,41,-1,-1,43,45,47,49,51,53,55,57,-1,-1,59,61,63,-1,65,67,69,71,73,-1,75,77,79,81,83,85,87,89,-1,-1,91,93,95,97,99,101,-1,-1,-1,-1,-1,-1,-1,-1,-1,-1,-1,-1,-1,-1,-1,-1,-1,-1,-1,-1,-1,-1,-1,-1,-1,-1,-1,-1,-1,-1,-1,-1,-1,-1,-1,-1,-1,-1,-1,-1,-1,-1,-1,-1],"loss_changes":[2.4975525E-2,5.816821E-2,5.932477E-2,5.5129275E-2,6.488085E-2,5.2084032E-2,1.04909174E-1,3.7938386E-2,5.7740085E-2,1.4337575E-2,3.0077517E-2,4.0223643E-2,5.951459E-2,5.7736054E-2,5.0161116E-2,1.3010297E-3,1.9950021E-2,1.8956512E-2,5.121518E-2,1.0444152E-2,3.291112E-3,0E0,0E0,2.3836248E-2,1.0413563E-2,4.882676E-2,6.280336E-2,2.9728144E-2,8.408681E-3,2.783613E-2,4.5733366E-2,0E0,0E0,1.2130649E-2,9.7021125E-3,1.4386706E-2,0E0,3.8133543E-2,6.5271735E-2,3.0007784E-3,4.509762E-3,2.7341023E-4,0E0,1.2969077E-3,3.529936E-4,8.886596E-4,2.2597788E-3,2.4832673E-3,3.1191604E-2,5.3820506E-2,4.3125123E-2,0E0,0E0,5.181227E-4,4.6455296E-4,1.659142E-2,1.6707841E-2,4.7300182E-2,3.405392E-2,0E0,0E0,0E0,0E0,0E0,0E0,0E0,0E0,0E0,0E0,0E0,0E0,0E0,0E0,0E0,0E0,0E0,0E0,0E0,0E0,0E0,0E0,0E0,0E0,0E0,0E0,0E0,0E0,0E0,0E0,0E0,0E0,0E0,0E0,0E0,0E0,0E0,0E0,0E0,0E0,0E0,0E0,0E0,0E0],"parents":[2147483647,0,0,1,1,2,2,3,3,4,4,5,5,6,6,7,7,8,8,9,9,10,10,11,11,12,12,13,13,14,14,15,15,16,16,17,17,18,18,19,19,20,20,23,23,24,24,25,25,26,26,27,27,28,28,29,29,30,30,33,33,34,34,35,35,37,37,38,38,39,39,40,40,41,41,43,43,44,44,45,45,46,46,47,47,48,48,49,49,50,50,53,53,54,54,55,55,56,56,57,57,58,58],"right_children":[2,4,6,8,10,12,14,16,18,20,22,24,26,28,30,32,34,36,38,40,42,-1,-1,44,46,48,50,52,54,56,58,-1,-1,60,62,64,-1,66,68,70,72,74,-1,76,78,80,82,84,86,88,90,-1,-1,92,94,96,98,100,102,-1,-1,-1,-1,-1,-1,-1,-1,-1,-1,-1,-1,-1,-1,-1,-1,-1,-1,-1,-1,-1,-1,-1,-1,-1,-1,-1,-1,-1,-1,-1,-1,-1,-1,-1,-1,-1,-1,-1,-1,-1,-1,-1,-1],"split_conditions":[-1.6308877E-1,1.3718083E0,3.3877403E-1,-1.0069594E0,9.84144E-1,-1.9223218E0,4.1915953E-1,-2.411549E0,-1.593685E0,1.0354869E0,-3.4879556E0,6.027939E-1,-7.0050526E-1,-2.2334968E-1,-2.9395E-1,-5.728358E-1,6.00812E-1,-2.864128E-1,-2.2120457E0,-3.8287216E-1,-1.2990937E-1,2.5924982E-3,-5.3129014E-2,5.468449E-2,2.7588183E-1,-1.548037E0,4.0436345E-1,-9.922578E-1,2.779193E-1,-7.8515136E-1,-1.5332558E0,3.0772092E-3,1.8930849E-2,-9.38776E-2,6.276845E-1,1.0945674E-1,1.3970399E-2,5.078509E-1,3.3488822E-1,-3.9318523E-1,9.8147935E-1,-2.0503391E-1,1.3655421E-2,2.754671E-1,2.5782946E-1,-1.8174394E0,-7.3643637E-1,-2.2123693E-1,-5.5138445E-1,-1.1305995E0,1.1511358E0,1.258889E-2,5.4777555E-2,-1.7452796E-1,-1.351708E0,1.8986525E-2,-1.2223129E-1,-1.4301567E-1,1.0485668E0,-1.1089684E-2,8.0342965E-5,-2.8155996E-2,1.9500643E-3,-1.9336356E-2,-2.29174E-3,-1.4253617E-3,-4.127791E-2,1.3475723E-2,1.2772838E-3,5.0092703E-3,-4.6205674E-3,-1.790509E-2,-3.0448167E-3,2.1194415E-3,-2.4194957E-3,1.8253693E-3,9.65728E-3,3.566833E-2,1.3825053E-2,-6.3770297E-3,-2.0404484E-2,1.1087752E-2,-1.0431934E-3,-2.8619934E-2,-1.10472785E-2,-2.726743E-3,1.3266639E-2,7.1381324E-4,-1.5772076E-2,2.4717618E-3,-2.1130798E-2,3.6902637E-3,1.7304715E-2,1.0134772E-3,-5.377778E-3,-5.604977E-3,1.7145367E-2,-2.2428326E-2,-6.722775E-3,2.244142E-3,4.3987326E-2,-5.560195E-4,1.8152468E-2],"split_indices":[36,32,27,45,19,31,27,59,56,50,0,38,0,18,41,1,2,36,10,10,44,0,0,12,15,48,0,17,17,51,57,0,0,46,1,52,0,38,51,14,26,1,0,44,0,5,0,22,11,52,11,0,0,1,0,25,19,12,59,0,0,0,0,0,0,0,0,0,0,0,0,0,0,0,0,0,0,0,0,0,0,0,0,0,0,0,0,0,0,0,0,0,0,0,0,0,0,0,0,0,0,0,0],"split_type":[0,0,0,0,0,0,0,0,0,0,0,0,0,0,0,0,0,0,0,0,0,0,0,0,0,0,0,0,0,0,0,0,0,0,0,0,0,0,0,0,0,0,0,0,0,0,0,0,0,0,0,0,0,0,0,0,0,0,0,0,0,0,0,0,0,0,0,0,0,0,0,0,0,0,0,0,0,0,0,0,0,0,0,0,0,0,0,0,0,0,0,0,0,0,0,0,0,0,0,0,0,0,0],"sum_hessian":[6.57E2,2.72E2,3.85E2,2.42E2,3E1,2.46E2,1.39E2,4.5E1,1.97E2,2.6E1,4E0,2.3E1,2.23E2,1.5E1,1.24E2,5E0,4E1,2E1,1.77E2,2E1,6E0,1E0,3E0,1.4E1,9E0,5E1,1.73E2,8E0,7E0,3.6E1,8.8E1,1E0,4E0,3.4E1,6E0,1.8E1,2E0,1E1,1.67E2,1E1,1E1,3E0,3E0,8E0,6E0,4E0,5E0,6E0,4.4E1,1.13E2,6E1,3E0,5E0,3E0,4E0,1E1,2.6E1,9E0,7.9E1,1.7E1,1.7E1,5E0,1E0,1E1,8E0,8E0,2E0,1.03E2,6.4E1,4E0,6E0,7E0,3E0,2E0,1E0,4E0,4E0,4E0,2E0,2E0,2E0,1E0,4E0,2E0,4E0,1.8E1,2.6E1,2.2E1,9.1E1,5.3E1,7E0,1E0,2E0,1E0,3E0,6E0,4E0,1.1E1,1.5E1,5E0,4E0,7E1,9E0],"tree_param":{"num_deleted":"0","num_feature":"60","num_nodes":"103","size_leaf_vector":"0"}},{"base_weights":[-1.615243E-4,8.8364905E-4,-3.1907193E-2,-3.069347E-3,1.4588561E-2,-4.7080694E-3,-1.1800278E-1,-9.923618E-4,-3.648175E-2,4.2603545E-2,4.7647944E-3,3.983502E-2,-2.1477869E-2,-7.037247E-3,1.057793E-2,2.4362972E-3,-5.709316E-2,9.123368E-2,1.2075512E-3,1.2228567E-3,9.566398E-2,-2.8538108E-3,5.122068E-2,7.4421084E-3,-3.515809E-2,-1.1742829E-2,3.1229587E-2,-1.1116385E-2,2.0450292E-2,-1.4358188E-2,2.5461318E-2,-7.41263E-2,5.4249065E-3,4.8203938E-2,1.4581847E-1,-3.3699986E-2,1.4222406E-2,5.1515624E-2,-3.5048285E-3,7.614881E-3,1.22475386E-1,1.4144977E-2,-1.7414627E-3,1.1253336E-2,-1.7674511E-2,6.971567E-2,9.792082E-3,2.0455155E-3,-4.6047516E-2,2.945089E-2,-1.7299892E-2,-6.552562E-4,-2.4471574E-2,-9.89154E-4,3.2321222E-2,-4.6094544E-2,-1.0849152E-1,-2.5645522E-2,3.468703E-2,4.9460432E-3,5.7267245E-2,2.533177E-2,1.6167761E-1,-3.92822E-2,-2.8944612E-3,-2.2343507E-2,2.4379425E-2,9.521212E-2,-2.4839877E-3,-1.47022735E-2,1.3972911E-2,2.3943782E-3,-5.006572E-3],"categories":[],"categories_nodes":[],"categories_segments":[],"categories_sizes":[],"default_left":[1,1,1,1,1,1,0,1,1,1,1,1,1,1,1,1,1,1,1,1,1,0,0,1,0,1,1,1,1,1,1,1,1,1,1,1,1,1,1,0,0,0,1,0,0,0,0,0,0,0,0,0,0,0,0,0,0,0,0,0,0,0,0,0,0,0,0,0,0,0,0,0,0],"id":39,"left_children":[1,3,5,7,9,11,-1,13,15,17,19,21,23,25,27,29,31,33,35,37,39,-1,-1,41,-1,43,45,47,49,51,53,55,57,59,61,63,65,67,69,-1,-1,-1,71,-1,-1,-1,-1,-1,-1,-1,-1,-1,-1,-1,-1,-1,-1,-1,-1,-1,-1,-1,-1,-1,-1,-1,-1,-1,-1,-1,-1,-1,-1],"loss_changes":[2.1860454E-2,3.460872E-2,4.862065E-2,3.4384742E-2,3.9152406E-2,1.3554208E-2,0E0,3.2806866E-2,2.340161E-2,7.4374266E-2,3.4332655E-2,2.5763772E-3,5.404863E-3,5.582758E-2,3.470937E-2,4.619206E-3,2.0634834E-2,3.290005E-2,1.0019942E-2,2.4908464E-2,8.510247E-3,0E0,0E0,3.3241432E-4,0E0,3.7710536E-2,2.7368892E-2,2.3541957E-2,3.8224436E-2,9.5404603E-4,9.3920925E-4,9.448901E-3,5.435501E-3,4.029408E-3,9.28013E-3,9.180773E-4,6.4871325E-3,2.1472843E-2,1.8993212E-2,0E0,0E0,0E0,5.249955E-5,0E0,0E0,0E0,0E0,0E0,0E0,0E0,0E0,0E0,0E0,0E0,0E0,0E0,0E0,0E0,0E0,0E0,0E0,0E0,0E0,0E0,0E0,0E0,0E0,0E0,0E0,0E0,0E0,0E0,0E0],"parents":[2147483647,0,0,1,1,2,2,3,3,4,4,5,5,7,7,8,8,9,9,10,10,11,11,12,12,13,13,14,14,15,15,16,16,17,17,18,18,19,19,20,20,23,23,25,25,26,26,27,27,28,28,29,29,30,30,31,31,32,32,33,33,34,34,35,35,36,36,37,37,38,38,42,42],"right_children":[2,4,6,8,10,12,-1,14,16,18,20,22,24,26,28,30,32,34,36,38,40,-1,-1,42,-1,44,46,48,50,52,54,56,58,60,62,64,66,68,70,-1,-1,-1,72,-1,-1,-1,-1,-1,-1,-1,-1,-1,-1,-1,-1,-1,-1,-1,-1,-1,-1,-1,-1,-1,-1,-1,-1,-1,-1,-1,-1,-1,-1],"split_conditions":[3.0066242E0,7.747911E-1,9.8397946E-1,5.8953035E-1,-6.0793185E-1,-4.6536446E-1,-3.5400834E-2,3.5816333E-1,-1.1155508E0,-3.1142974E-1,3.394828E0,4.003136E0,-9.1387E-1,1.3914192E0,-6.1656857E-1,4.5878562E-1,9.984337E-1,4.127189E-1,-2.3527193E-1,-2.534925E0,-7.4015373E-1,-8.5614325E-4,1.5366205E-2,-1.9909485E-1,-1.0547427E-2,-9.4690454E-1,-4.744745E-1,5.9758496E-1,7.6341105E-1,-3.296979E-1,1.638766E-1,-2.05223E-1,1.1807593E-1,-6.771916E-1,-5.0003386E-1,2.16323E0,-1.1806272E0,2.4447462E-1,1.393901E-1,2.2844644E-3,3.6742616E-2,4.243493E-3,5.738935E0,3.376001E-3,-5.3023538E-3,2.0914702E-2,2.9376247E-3,6.136547E-4,-1.3814256E-2,8.835267E-3,-5.189968E-3,-1.9657688E-4,-7.3414724E-3,-2.967462E-4,9.696367E-3,-1.3828364E-2,-3.2547455E-2,-7.693657E-3,1.04061095E-2,1.483813E-3,1.7180175E-2,7.599531E-3,4.8503287E-2,-1.1784661E-2,-8.683384E-4,-6.703052E-3,7.3138275E-3,2.8563635E-2,-7.4519636E-4,-4.4106822E-3,4.1918736E-3,7.183135E-4,-1.5019717E-3],"split_indices":[0,20,20,20,43,7,0,50,47,39,55,0,17,44,2,33,55,3,30,36,0,0,0,1,0,0,39,3,24,50,0,2,0,4,5,0,33,49,46,0,0,0,0,0,0,0,0,0,0,0,0,0,0,0,0,0,0,0,0,0,0,0,0,0,0,0,0,0,0,0,0,0,0],"split_type":[0,0,0,0,0,0,0,0,0,0,0,0,0,0,0,0,0,0,0,0,0,0,0,0,0,0,0,0,0,0,0,0,0,0,0,0,0,0,0,0,0,0,0,0,0,0,0,0,0,0,0,0,0,0,0,0,0,0,0,0,0,0,0,0,0,0,0,0,0,0,0,0,0],"sum_hessian":[6.57E2,6.37E2,2E1,4.95E2,1.42E2,1.6E1,4E0,4.67E2,2.8E1,3.6E1,1.06E2,4E0,1.2E1,3.07E2,1.6E2,1E1,1.8E1,1.6E1,2E1,1.03E2,3E0,1E0,3E0,4E0,8E0,2.74E2,3.3E1,5E1,1.1E2,6E0,4E0,1.4E1,4E0,1E1,6E0,5E0,1.5E1,8E0,9.5E1,1E0,2E0,2E0,2E0,5.6E1,2.18E2,1.1E1,2.2E1,3.7E1,1.3E1,8.9E1,2.1E1,3E0,3E0,1E0,3E0,9E0,5E0,2E0,2E0,2E0,8E0,1E0,5E0,4E0,1E0,3E0,1.2E1,4E0,4E0,5.8E1,3.7E1,1E0,1E0],"tree_param":{"num_deleted":"0","num_feature":"60","num_nodes":"73","size_leaf_vector":"0"}},{"base_weights":[-3.7357925E-6,-2.3929946E-2,1.5423904E-3,6.719594E-3,-4.931228E-2,5.416225E-2,6.772413E-4,2.2028763E-2,-9.261534E-3,-7.723092E-2,-1.4372646E-2,-3.0491212E-2,7.913702E-2,3.0632028E-3,-1.6127583E-2,2.5284264E-2,-3.6353767E-3,-2.076161E-2,-1.3669857E-3,-1.2841994E-1,-3.5583917E-2,1.1719644E-2,-2.1473115E-2,1.1367351E-1,3.5680424E-2,2.4719285E-3,8.093688E-2,7.3455204E-3,-3.2461178E-2,1.6792016E-2,3.667142E-2,-4.8259436E-3,4.853606E-3,-1.58512E-1,-5.552124E-2,-4.9329173E-2,-1.7470928E-2,-1.0517208E-2,5.766881E-3,1.17420875E-1,-1.425755E-2,-2.576553E-2,1.9456102E-2,-6.157251E-2,-1.8710556E-2,-5.696982E-3,-6.70895E-4,-1.4890889E-3,-3.6258653E-2,1.3193882E-1,4.254704E-3,1.4119804E-1,3.493327E-2,-9.737055E-3,-5.4576796E-2,4.7140005E-3,5.4584917E-2,-1.250119E-2,-8.744533E-2,-2.7643884E-2,1.1544916E-2],"categories":[],"categories_nodes":[],"categories_segments":[],"categories_sizes":[],"default_left":[1,1,1,1,1,1,1,1,1,1,1,0,1,1,1,1,0,0,1,1,1,0,0,0,0,1,1,1,1,0,0,1,0,0,0,0,0,1,1,1,0,1,1,1,1,0,0,0,0,0,0,0,0,0,0,0,0,0,0,0,0],"id":40,"left_children":[1,3,5,7,9,11,13,15,17,19,21,-1,23,25,27,29,-1,-1,31,33,35,-1,-1,-1,-1,37,39,41,43,-1,-1,45,-1,-1,-1,-1,-1,47,49,51,-1,53,55,57,59,-1,-1,-1,-1,-1,-1,-1,-1,-1,-1,-1,-1,-1,-1,-1,-1],"loss_changes":[2.4378266E-2,3.144963E-2,2.8142693E-2,4.852518E-3,2.0350263E-2,2.355499E-2,2.4507757E-2,9.274143E-4,8.7949814E-4,2.1012746E-2,2.2896E-3,0E0,7.95079E-3,2.4433844E-2,2.9376853E-2,2.5453558E-4,0E0,0E0,1.7404059E-4,2.167575E-3,1.1299159E-3,0E0,8.1397593E-7,0E0,0E0,2.28295E-2,1.5566425E-2,1.33331055E-2,1.6861394E-2,0E0,0E0,1.4273959E-5,0E0,0E0,0E0,0E0,0E0,2.5044862E-2,8.052622E-2,9.5145404E-4,0E0,3.624788E-3,1.2171626E-2,1.6681418E-2,8.9681735E-3,0E0,0E0,0E0,0E0,0E0,0E0,0E0,0E0,0E0,0E0,0E0,0E0,0E0,0E0,0E0,0E0],"parents":[2147483647,0,0,1,1,2,2,3,3,4,4,5,5,6,6,7,7,8,8,9,9,10,10,12,12,13,13,14,14,15,15,18,18,19,19,20,20,25,25,26,26,27,27,28,28,31,31,37,37,38,38,39,39,41,41,42,42,43,43,44,44],"right_children":[2,4,6,8,10,12,14,16,18,20,22,-1,24,26,28,30,-1,-1,32,34,36,-1,-1,-1,-1,38,40,42,44,-1,-1,46,-1,-1,-1,-1,-1,48,50,52,-1,54,56,58,60,-1,-1,-1,-1,-1,-1,-1,-1,-1,-1,-1,-1,-1,-1,-1,-1],"split_conditions":[-2.3411155E0,-2.8024292E-1,-2.1730275E0,-5.0684595E-1,-2.516874E-1,-1.825372E0,1.2251258E0,4.4537532E-1,-1.4224467E0,-6.878923E-2,-1.8394673E-3,-9.147364E-3,-2.5965643E-1,4.437381E0,-3.018708E-1,9.970325E-2,-1.0906131E-3,-6.228483E-3,1.9058791E-1,-1.4034428E-1,-8.6623037E-1,3.5158934E-3,-6.441935E-3,3.4102052E-2,1.0704128E-2,-8.788309E-1,9.265342E-2,-9.094279E-1,-4.434207E-1,5.037605E-3,1.1001426E-2,8.888196E-1,1.4560819E-3,-4.7553603E-2,-1.6656373E-2,-1.4798752E-2,-5.2412786E-3,7.73629E-1,-8.548652E-1,-4.3666124E-2,-4.277265E-3,7.321042E-1,-4.1439917E-2,-1.6866313E-1,5.249373E-1,-1.7090947E-3,-2.012685E-4,-4.4672668E-4,-1.0877596E-2,3.9581645E-2,1.2764112E-3,4.235941E-2,1.0479981E-2,-2.9211165E-3,-1.637304E-2,1.4142002E-3,1.6375476E-2,-3.7503573E-3,-2.62336E-2,-8.293166E-3,3.4634748E-3],"split_indices":[19,25,19,17,22,12,48,5,24,50,22,0,13,32,14,3,0,0,8,4,12,0,0,0,0,5,1,19,18,0,0,1,0,0,0,0,0,10,5,0,0,12,23,15,10,0,0,0,0,0,0,0,0,0,0,0,0,0,0,0,0],"split_type":[0,0,0,0,0,0,0,0,0,0,0,0,0,0,0,0,0,0,0,0,0,0,0,0,0,0,0,0,0,0,0,0,0,0,0,0,0,0,0,0,0,0,0,0,0,0,0,0,0,0,0,0,0,0,0,0,0,0,0,0,0],"sum_hessian":[6.57E2,3.9E1,6.18E2,1.8E1,2.1E1,9E0,6.09E2,9E0,9E0,1.1E1,1E1,2E0,7E0,5.34E2,7.5E1,8E0,1E0,3E0,6E0,4E0,7E0,2E0,8E0,3E0,4E0,5.31E2,3E0,3.1E1,4.4E1,6E0,2E0,4E0,2E0,2E0,2E0,3E0,4E0,1.07E2,4.24E2,2E0,1E0,8E0,2.3E1,1.3E1,3.1E1,3E0,1E0,8E1,2.7E1,4E0,4.2E2,1E0,1E0,6E0,2E0,1.7E1,6E0,5E0,8E0,2.4E1,7E0],"tree_param":{"num_deleted":"0","num_feature":"60","num_nodes":"61","size_leaf_vector":"0"}},{"base_weights":[-4.85917E-6,-1.1573405E-2,2.2126285E-3,-2.518937E-2,5.4039983E-3,1.9289369E-2,-1.5996526E-3,-1.2757043E-2,-8.483207E-2,-2.5092696E-3,4.5283996E-2,-3.6967362E-3,3.639453E-2,-1.9897368E-2,1.7400341E-3,7.897115E-2,-1.6240703E-2,-1.5348887E-1,-1.347939E-2,-9.560058E-3,4.021367E-2,1.1825413E-3,7.150836E-2,-2.2272952E-2,1.9708369E-2,1.6635598E-3,6.456146E-2,-1.5663294E-3,-5.7288345E-2,-1.1856215E-2,7.89026E-3,9.941824E-3,-2.6997766E-2,-4.6828747E-2,-1.6844672E-1,5.1534176E-3,-2.4084149E-2,-4.140454E-2,-3.08822E-3,1.2299925E-2,5.109556E-2,-1.8182635E-2,1.3698478E-2,7.893856E-2,2.0893797E-2,2.7996257E-3,-3.6551252E-2,4.657719E-2,-1.1818167E-2,3.3050507E-2,-4.6994776E-2,1.0330542E-1,2.8688064E-2,1.3078539E-2,-3.806662E-2,-5.468657E-3,-9.672897E-2,-9.112707E-3,-1.1581544E-1,1.7192706E-2,-7.6307044E-3,4.255121E-2,-1.756457E-3,-1.9766122E-2,-6.6434406E-2,-2.9326677E-3,1.0662794E-2,-4.6207942E-2,-8.693767E-3,-6.6441232E-3,3.2314915E-2,1.8999828E-2,-2.6250634E-2,-4.99824E-2,-5.835613E-3,6.815452E-2,7.0534823E-3,1.2164092E-2,-2.983369E-2,7.040385E-2,-1.372166E-4,-1.02599844E-1,-5.6332775E-4,1.3248627E-1,1.8446464E-2,-2.544673E-3,5.392872E-2,-2.391948E-3,4.704978E-2,-3.6231563E-3,-5.148169E-2,-1.2652187E-2,1.7904818E-2,-1.4585564E-1,-5.868872E-2,-3.322923E-2,5.675891E-3,2.6653847E-2,-1.6513804E-2,6.679578E-2,-1.3091925E-2],"categories":[],"categories_nodes":[],"categories_segments":[],"categories_sizes":[],"default_left":[1,1,1,1,1,1,1,1,1,1,1,1,1,1,1,0,1,1,1,1,1,1,1,1,1,1,1,1,1,1,1,1,1,0,0,1,0,1,1,0,0,0,0,0,0,1,1,1,1,1,1,1,1,1,1,1,1,1,0,1,1,0,0,0,0,0,0,0,0,0,0,0,0,0,0,0,0,0,0,0,0,0,0,0,0,0,0,0,0,0,0,0,0,0,0,0,0,0,0,0,0],"id":41,"left_children":[1,3,5,7,9,11,13,15,17,19,21,23,25,27,29,-1,31,33,35,37,39,41,43,45,47,49,51,53,55,57,59,61,63,-1,-1,65,-1,67,69,-1,-1,-1,-1,-1,-1,71,73,75,77,79,81,83,85,87,89,91,93,95,-1,97,99,-1,-1,-1,-1,-1,-1,-1,-1,-1,-1,-1,-1,-1,-1,-1,-1,-1,-1,-1,-1,-1,-1,-1,-1,-1,-1,-1,-1,-1,-1,-1,-1,-1,-1,-1,-1,-1,-1,-1,-1],"loss_changes":[1.6905354E-2,2.4639478E-2,3.6031894E-2,4.266615E-2,1.5261524E-2,3.984582E-2,2.7716834E-2,1.726004E-2,4.6919532E-2,1.273489E-2,9.167699E-3,1.9569209E-2,5.6631938E-2,4.7889344E-2,3.220363E-2,0E0,1.4069114E-2,8.888543E-5,1.3096944E-3,7.2914576E-3,1.1940543E-3,1.2185677E-3,2.3105368E-4,9.052175E-3,1.7492075E-2,4.2788588E-2,4.1512445E-2,2.615587E-2,4.647845E-2,3.3170156E-2,3.8392678E-2,5.796845E-3,8.668561E-3,0E0,0E0,1.6491831E-4,0E0,5.4101646E-4,4.117298E-3,0E0,0E0,0E0,0E0,0E0,0E0,5.2049584E-3,6.3090622E-3,8.900249E-3,4.6834294E-3,2.1084094E-2,2.8342266E-2,3.4699947E-2,1.4327258E-2,1.8506847E-2,6.2823333E-3,2.0734796E-3,1.5734203E-2,4.2273257E-2,0E0,5.3377897E-2,4.1520424E-2,0E0,0E0,0E0,0E0,0E0,0E0,0E0,0E0,0E0,0E0,0E0,0E0,0E0,0E0,0E0,0E0,0E0,0E0,0E0,0E0,0E0,0E0,0E0,0E0,0E0,0E0,0E0,0E0,0E0,0E0,0E0,0E0,0E0,0E0,0E0,0E0,0E0,0E0,0E0,0E0],"parents":[2147483647,0,0,1,1,2,2,3,3,4,4,5,5,6,6,7,7,8,8,9,9,10,10,11,11,12,12,13,13,14,14,16,16,17,17,18,18,19,19,20,20,21,21,22,22,23,23,24,24,25,25,26,26,27,27,28,28,29,29,30,30,31,31,32,32,35,35,37,37,38,38,45,45,46,46,47,47,48,48,49,49,50,50,51,51,52,52,53,53,54,54,55,55,56,56,57,57,59,59,60,60],"right_children":[2,4,6,8,10,12,14,16,18,20,22,24,26,28,30,-1,32,34,36,38,40,42,44,46,48,50,52,54,56,58,60,62,64,-1,-1,66,-1,68,70,-1,-1,-1,-1,-1,-1,72,74,76,78,80,82,84,86,88,90,92,94,96,-1,98,100,-1,-1,-1,-1,-1,-1,-1,-1,-1,-1,-1,-1,-1,-1,-1,-1,-1,-1,-1,-1,-1,-1,-1,-1,-1,-1,-1,-1,-1,-1,-1,-1,-1,-1,-1,-1,-1,-1,-1,-1],"split_conditions":[-1.0703499E0,2.819379E-1,-3.5132983E-1,6.6811097E-1,1.110456E0,-2.231039E-1,-1.2878652E0,-5.4548936E0,-5.450059E-1,1.4950802E0,2.12222E-2,4.137168E-1,-2.5767416E-1,5.9854394E-1,-4.6610218E-1,2.3691345E-2,-1.1819856E0,-1.2117441E0,1.7392078E-1,-2.2010903E0,1.1837244E-2,-1.403425E0,3.721649E-1,-1.6885865E-1,-1.3979128E-1,7.44174E-2,9.650199E-2,5.601382E-1,-6.5852016E-2,2.7907023E0,5.245129E-1,-1.6960816E0,1.2411913E-1,-1.4048625E-2,-5.0534017E-2,-1.5348881E-1,-7.225245E-3,2.8812712E-1,7.55843E-1,3.6899776E-3,1.5328669E-2,-5.454791E-3,4.1095437E-3,2.3681568E-2,6.2681395E-3,2.901392E-1,3.1277752E-1,1.12388015E-1,-4.9502306E-2,1.8606746E-1,-1.707627E-2,7.601283E-1,4.9817525E-2,5.000051E-1,-1.0653971E0,1.2155089E0,-2.767724E-1,-3.082648E-1,-3.474463E-2,5.245129E-1,-1.9574289E0,1.2765363E-2,-5.2693713E-4,-5.929837E-3,-1.9930322E-2,-8.7980035E-4,3.1988383E-3,-1.3862384E-2,-2.6081302E-3,-1.993237E-3,9.694475E-3,5.6999484E-3,-7.875191E-3,-1.499472E-2,-1.7506839E-3,2.0446356E-2,2.1160448E-3,3.6492276E-3,-8.950107E-3,2.1121155E-2,-4.116498E-5,-3.0779954E-2,-1.6899833E-4,3.9745882E-2,5.533939E-3,-7.634019E-4,1.6178617E-2,-7.175844E-4,1.4114934E-2,-1.0869469E-3,-1.5444508E-2,-3.7956561E-3,5.371446E-3,-4.3756694E-2,-1.7606616E-2,-9.96877E-3,1.7027673E-3,7.996154E-3,-4.9541416E-3,2.0038735E-2,-3.9275778E-3],"split_indices":[42,20,42,19,15,53,16,16,43,18,28,10,14,15,10,0,20,0,14,57,0,0,1,36,44,58,23,6,46,13,10,25,20,0,0,0,0,0,15,0,0,0,0,0,0,7,15,52,15,52,29,14,2,2,56,31,22,45,0,43,4,0,0,0,0,0,0,0,0,0,0,0,0,0,0,0,0,0,0,0,0,0,0,0,0,0,0,0,0,0,0,0,0,0,0,0,0,0,0,0,0],"split_type":[0,0,0,0,0,0,0,0,0,0,0,0,0,0,0,0,0,0,0,0,0,0,0,0,0,0,0,0,0,0,0,0,0,0,0,0,0,0,0,0,0,0,0,0,0,0,0,0,0,0,0,0,0,0,0,0,0,0,0,0,0,0,0,0,0,0,0,0,0,0,0,0,0,0,0,0,0,0,0,0,0,0,0,0,0,0,0,0,0,0,0,0,0,0,0,0,0,0,0,0,0],"sum_hessian":[6.57E2,1.05E2,5.52E2,5.8E1,4.7E1,1E2,4.52E2,4.9E1,9E0,4E1,7E0,4.3E1,5.7E1,6.9E1,3.83E2,1E0,4.8E1,4E0,5E0,3.5E1,5E0,3E0,4E0,2.4E1,1.9E1,2.6E1,3.1E1,4.7E1,2.2E1,1.19E2,2.64E2,1.4E1,3.4E1,1E0,3E0,2E0,3E0,5E0,3E1,2E0,3E0,1E0,2E0,3E0,1E0,9E0,1.5E1,1E1,9E0,1.6E1,1E1,1.4E1,1.7E1,3.4E1,1.3E1,1E1,1.2E1,1.17E2,2E0,1.65E2,9.9E1,3E0,1.1E1,3E1,4E0,1E0,1E0,4E0,1E0,2.8E1,2E0,6E0,3E0,1E1,5E0,6E0,4E0,4E0,5E0,7E0,9E0,4E0,6E0,1E1,4E0,8E0,9E0,2.4E1,1E1,4E0,9E0,8E0,2E0,4E0,8E0,4.4E1,7.3E1,1.29E2,3.6E1,6E0,9.3E1],"tree_param":{"num_deleted":"0","num_feature":"60","num_nodes":"101","size_leaf_vector":"0"}},{"base_weights":[-9.181619E-5,-2.2308216E-3,1.2153836E-2,7.516437E-4,-1.6684968E-2,-3.9298795E-3,2.379177E-2,4.511559E-3,-1.5679615E-2,2.4945918E-2,-2.7968701E-2,2.4260452E-2,-8.395071E-3,3.5392698E-2,-2.2661103E-2,-1.2627784E-2,7.892902E-3,3.617031E-2,-2.2883115E-2,9.990327E-3,8.60096E-2,-6.866885E-2,-7.863462E-3,3.7943919E-3,3.3544883E-2,1.0948829E-2,-1.327361E-2,4.290963E-2,-2.187177E-2,-1.922792E-3,-4.3078948E-2,-3.0312857E-2,1.3705312E-2,3.4048345E-3,3.3067346E-2,-1.0148251E-2,6.408781E-2,-1.0823345E-1,-1.9163994E-2,-1.8193295E-2,1.934231E-2,2.5498226E-2,9.768065E-2,-2.4795013E-2,-9.626507E-2,-5.5662468E-2,4.842551E-3,6.477535E-3,-7.8594685E-4,6.059706E-3,1.7077466E-2,-4.0509496E-3,-2.5022399E-2,6.62146E-2,1.7561343E-2,-6.4819455E-3,-3.5100948E-2,4.7477046E-3,-1.2399356E-2,-2.0982787E-2,-5.818085E-2,-4.5717936E-3,-5.325122E-2,-9.016171E-3,4.0965058E-2,1.1155326E-2,-9.546031E-3,-1.0874801E-2,6.2232025E-2,-1.4994959E-2,-1.9187927E-3,-2.873079E-2,5.189231E-3,-3.406532E-3,-2.1038353E-2,2.7225621E-2,-7.1723703E-3,2.9218334E-3,-4.8379358E-2,-1.3127632E-1,-2.1868808E-2,-1.8968148E-2,-9.5902026E-2,1.0161555E-1,3.806111E-6,1.1710376E-3,6.8032322E-3,-9.167145E-3,7.7092997E-3,-3.3655405E-2,-9.341323E-3,3.206566E-2,1.0057186E-1,2.8752377E-2,-8.928211E-3,-2.9158592E-4,-8.448203E-3,1.1380948E-3,6.774746E-3,-1.4752269E-2,-3.8467646E-3],"categories":[],"categories_nodes":[],"categories_segments":[],"categories_sizes":[],"default_left":[1,1,1,1,1,1,1,1,1,1,1,1,1,1,1,1,1,1,1,1,1,1,1,1,0,1,1,1,1,1,1,1,1,1,1,1,0,0,1,1,1,0,0,1,1,1,1,0,0,1,0,1,1,1,1,1,0,1,1,0,0,0,0,0,0,0,0,0,0,0,0,0,0,0,0,0,0,0,0,0,0,0,0,0,0,0,0,0,0,0,0,0,0,0,0,0,0,0,0,0,0],"id":42,"left_children":[1,3,5,7,9,11,13,15,17,19,21,23,25,27,29,31,33,35,37,39,41,43,45,47,-1,49,51,53,55,57,59,61,63,65,67,69,-1,-1,71,73,75,-1,-1,77,79,81,83,-1,-1,85,-1,87,89,91,93,95,-1,97,99,-1,-1,-1,-1,-1,-1,-1,-1,-1,-1,-1,-1,-1,-1,-1,-1,-1,-1,-1,-1,-1,-1,-1,-1,-1,-1,-1,-1,-1,-1,-1,-1,-1,-1,-1,-1,-1,-1,-1,-1,-1,-1],"loss_changes":[1.7262448E-2,2.4196686E-2,1.8437259E-2,2.8860284E-2,4.5793876E-2,5.4904283E-3,3.1519137E-2,2.212219E-2,3.3322275E-2,1.8318849E-2,6.1649777E-2,1.0128121E-3,3.6370188E-3,2.0739347E-2,4.9983477E-3,2.9754717E-2,3.5816517E-2,1.4874462E-2,2.236779E-2,5.096211E-3,3.3424236E-4,2.7881898E-2,3.1850956E-2,4.1960106E-5,0E0,1.3622484E-4,3.1492892E-3,2.3057565E-2,9.940458E-4,5.480557E-4,7.8136753E-4,2.219395E-2,1.6473275E-2,2.7308267E-2,6.2191565E-2,1.7065671E-4,0E0,0E0,1.7622765E-2,1.3867812E-4,3.121601E-3,0E0,0E0,7.3318765E-3,3.619975E-2,1.4423113E-2,1.9666526E-2,0E0,0E0,1.3842291E-5,0E0,1.1536914E-3,1.4454862E-3,2.1413654E-2,6.4820633E-3,4.6224E-5,0E0,2.8873845E-5,3.6220008E-6,0E0,0E0,0E0,0E0,0E0,0E0,0E0,0E0,0E0,0E0,0E0,0E0,0E0,0E0,0E0,0E0,0E0,0E0,0E0,0E0,0E0,0E0,0E0,0E0,0E0,0E0,0E0,0E0,0E0,0E0,0E0,0E0,0E0,0E0,0E0,0E0,0E0,0E0,0E0,0E0,0E0,0E0],"parents":[2147483647,0,0,1,1,2,2,3,3,4,4,5,5,6,6,7,7,8,8,9,9,10,10,11,11,12,12,13,13,14,14,15,15,16,16,17,17,18,18,19,19,20,20,21,21,22,22,23,23,25,25,26,26,27,27,28,28,29,29,30,30,31,31,32,32,33,33,34,34,35,35,38,38,39,39,40,40,43,43,44,44,45,45,46,46,49,49,51,51,52,52,53,53,54,54,55,55,57,57,58,58],"right_children":[2,4,6,8,10,12,14,16,18,20,22,24,26,28,30,32,34,36,38,40,42,44,46,48,-1,50,52,54,56,58,60,62,64,66,68,70,-1,-1,72,74,76,-1,-1,78,80,82,84,-1,-1,86,-1,88,90,92,94,96,-1,98,100,-1,-1,-1,-1,-1,-1,-1,-1,-1,-1,-1,-1,-1,-1,-1,-1,-1,-1,-1,-1,-1,-1,-1,-1,-1,-1,-1,-1,-1,-1,-1,-1,-1,-1,-1,-1,-1,-1,-1,-1,-1,-1],"split_conditions":[1.0744493E0,4.56303E-1,-2.6342618E-1,8.7872213E-1,-8.548652E-1,-2.9486332E0,1.0398724E0,-1.2729454E0,-1.7505792E0,6.968645E-1,-2.4340582E-1,-1.8233317E0,-1.2941499E0,1.119847E0,-1.1434208E-1,7.185279E-2,2.2303888E-1,-8.965032E-1,-1.9686106E0,-4.938695E-1,-1.3477774E0,-3.8026307E-2,5.1872945E-1,-3.355715E-1,1.0063466E-2,-4.3513918E-1,4.325047E-2,-1.6779782E-1,5.595029E-2,-3.306315E-1,-2.570251E-1,-7.3325604E-2,-4.6576995E-1,2.4235661E-1,-1.5953699E-1,-2.4405417E-1,1.9226342E-2,-3.2470036E-2,6.22826E-1,-5.483344E-1,1.0306147E0,7.6494683E-3,2.9304197E-2,-9.608902E-2,4.1431934E-1,3.281338E-1,-2.6676483E0,1.9432605E-3,-2.3578406E-4,-2.8295813E0,5.12324E-3,3.7661266E-1,4.0078938E-1,-2.379007E-1,2.7002102E-1,-1.1812328E0,-1.0530285E-2,1.1249473E0,1.9475058E-1,-6.2948363E-3,-1.7454255E-2,-1.3715382E-3,-1.5975367E-2,-2.7048513E-3,1.2289518E-2,3.346598E-3,-2.8638095E-3,-3.2624404E-3,1.8669609E-2,-4.498488E-3,-5.7563785E-4,-8.619237E-3,1.5567694E-3,-1.0219597E-3,-6.3115065E-3,8.167687E-3,-2.1517111E-3,8.7655004E-4,-1.4513808E-2,-3.9382897E-2,-6.5606427E-3,-5.6904447E-3,-2.8770609E-2,3.0484665E-2,1.1418333E-6,3.513113E-4,2.0409697E-3,-2.7501436E-3,2.31279E-3,-1.0096622E-2,-2.802397E-3,9.619698E-3,3.017156E-2,8.625713E-3,-2.6784635E-3,-8.747578E-5,-2.534461E-3,3.4142844E-4,2.0324239E-3,-4.4256807E-3,-1.1540294E-3],"split_indices":[51,51,29,4,33,43,38,36,36,53,48,6,55,41,5,43,51,13,23,7,2,36,51,0,0,26,9,52,8,3,4,19,25,38,1,0,0,0,44,0,0,0,0,15,32,26,47,0,0,5,0,15,59,45,2,0,0,4,0,0,0,0,0,0,0,0,0,0,0,0,0,0,0,0,0,0,0,0,0,0,0,0,0,0,0,0,0,0,0,0,0,0,0,0,0,0,0,0,0,0,0],"split_type":[0,0,0,0,0,0,0,0,0,0,0,0,0,0,0,0,0,0,0,0,0,0,0,0,0,0,0,0,0,0,0,0,0,0,0,0,0,0,0,0,0,0,0,0,0,0,0,0,0,0,0,0,0,0,0,0,0,0,0,0,0,0,0,0,0,0,0,0,0,0,0,0,0,0,0,0,0,0,0,0,0,0,0,0,0,0,0,0,0,0,0,0,0,0,0,0,0,0,0,0,0],"sum_hessian":[6.57E2,5.6E2,9.7E1,4.65E2,9.5E1,4.1E1,5.6E1,3.79E2,8.6E1,2E1,7.5E1,5E0,3.6E1,4.5E1,1.1E1,6.2E1,3.17E2,1E1,7.6E1,1.7E1,3E0,2.4E1,5.1E1,2E0,3E0,7E0,2.9E1,4E1,5E0,6E0,5E0,3.7E1,2.5E1,2.7E2,4.7E1,4E0,6E0,2E0,7.4E1,4E0,1.3E1,1E0,2E0,1E1,1.4E1,1E1,4.1E1,1E0,1E0,5E0,2E0,1.7E1,1.2E1,2E1,2E1,3E0,2E0,4E0,2E0,3E0,2E0,1.8E1,1.9E1,1.4E1,1.1E1,1.69E2,1.01E2,1.9E1,2.8E1,2E0,2E0,5.3E1,2.1E1,1E0,3E0,1E1,3E0,5E0,5E0,9E0,5E0,6E0,4E0,1E0,4E1,1E0,4E0,1.2E1,5E0,7E0,5E0,1.1E1,9E0,1.4E1,6E0,1E0,2E0,2E0,2E0,1E0,1E0],"tree_param":{"num_deleted":"0","num_feature":"60","num_nodes":"101","size_leaf_vector":"0"}},{"base_weights":[-1.15318624E-4,6.611099E-4,-2.3698466E-2,3.5480852E-3,-5.542744E-3,-5.973657E-3,-9.753549E-2,-3.8353181E-3,8.754523E-3,1.073595E-2,-1.2128263E-2,2.6525922E-2,-1.715396E-2,-1.6488397E-2,7.539684E-3,-5.408763E-3,1.8324634E-2,-1.15307495E-2,3.7553176E-2,1.1732054E-2,-2.1017738E-2,6.5649203E-3,3.764495E-2,-6.0155586E-4,-2.6282901E-2,1.5572467E-3,-3.296459E-2,3.737383E-2,1.5534373E-3,-2.220785E-2,1.3900578E-2,3.691077E-2,4.4761525E-4,7.0472644E-3,-3.7247144E-2,8.940714E-3,6.7678854E-2,-6.68718E-3,2.4290176E-2,-5.459391E-2,-1.5737263E-2,1.2558699E-3,8.59151E-3,3.0252934E-3,-3.1713038E-3,-3.6993694E-2,1.1716106E-2,1.1895605E-2,-5.1560786E-2,2.4358552E-2,8.565384E-2,-1.2313303E-3,7.436784E-2,-1.6587084E-2,-9.1131054E-2,1.1577968E-3,6.3481644E-2,-3.3037693E-3,4.9668055E-2,-5.952747E-3,5.0889626E-2,1.6767988E-2,-1.8429091E-2,5.951583E-4,-5.2443583E-2,-8.818653E-3,2.5582492E-2,1.0831191E-1,1.737739E-2,-2.294665E-2,1.031531E-2,-7.163454E-4,3.4629118E-2,-3.1323686E-2,-1.2947683E-1,-6.275328E-2,-1.1773478E-2,3.817618E-3,7.2032213E-4],"categories":[],"categories_nodes":[],"categories_segments":[],"categories_sizes":[],"default_left":[1,1,1,1,1,1,0,1,1,1,1,1,1,1,1,1,1,1,1,1,1,1,0,1,0,1,1,1,1,1,1,1,1,1,1,1,1,1,1,1,1,0,0,1,0,0,0,0,0,0,0,0,0,0,0,0,0,0,0,0,0,0,0,0,0,0,0,0,0,0,0,0,0,0,0,0,0,0,0],"id":43,"left_children":[1,3,5,7,9,11,-1,13,15,17,19,21,23,25,27,29,31,33,35,37,39,41,-1,43,-1,45,47,49,51,53,55,57,59,61,63,65,67,69,71,73,75,-1,-1,77,-1,-1,-1,-1,-1,-1,-1,-1,-1,-1,-1,-1,-1,-1,-1,-1,-1,-1,-1,-1,-1,-1,-1,-1,-1,-1,-1,-1,-1,-1,-1,-1,-1,-1,-1],"loss_changes":[1.2064061E-2,1.1446484E-2,2.6901048E-2,1.6793951E-2,2.189255E-2,6.995417E-3,0E0,2.6175434E-2,3.4798436E-2,3.5663757E-2,3.1001907E-2,8.625989E-4,2.0996719E-3,2.5621155E-2,1.7087018E-2,3.4044154E-2,5.0819967E-2,1.6028553E-2,2.2668086E-2,9.414872E-3,1.7934445E-2,2.1487998E-5,0E0,6.551465E-5,0E0,1.688203E-2,3.8153652E-2,7.967638E-3,1.651604E-2,2.018287E-2,3.0884733E-2,3.864122E-2,2.5807858E-2,5.261991E-3,8.082166E-3,4.6588145E-3,2.468855E-2,4.936377E-3,6.22979E-3,2.0339895E-2,1.659279E-2,0E0,0E0,2.7289407E-6,0E0,0E0,0E0,0E0,0E0,0E0,0E0,0E0,0E0,0E0,0E0,0E0,0E0,0E0,0E0,0E0,0E0,0E0,0E0,0E0,0E0,0E0,0E0,0E0,0E0,0E0,0E0,0E0,0E0,0E0,0E0,0E0,0E0,0E0,0E0],"parents":[2147483647,0,0,1,1,2,2,3,3,4,4,5,5,7,7,8,8,9,9,10,10,11,11,12,12,13,13,14,14,15,15,16,16,17,17,18,18,19,19,20,20,21,21,23,23,25,25,26,26,27,27,28,28,29,29,30,30,31,31,32,32,33,33,34,34,35,35,36,36,37,37,38,38,39,39,40,40,43,43],"right_children":[2,4,6,8,10,12,-1,14,16,18,20,22,24,26,28,30,32,34,36,38,40,42,-1,44,-1,46,48,50,52,54,56,58,60,62,64,66,68,70,72,74,76,-1,-1,78,-1,-1,-1,-1,-1,-1,-1,-1,-1,-1,-1,-1,-1,-1,-1,-1,-1,-1,-1,-1,-1,-1,-1,-1,-1,-1,-1,-1,-1,-1,-1,-1,-1,-1,-1],"split_conditions":[3.0066242E0,4.0069377E-1,1.3106604E0,-2.1772161E-1,-3.2373184E-1,-4.6536446E-1,-2.9260648E-2,-9.404743E-2,-2.1231619E-1,5.592171E-2,-6.015012E-1,7.5635564E-1,-6.814869E-1,-5.4231048E-2,1.1466059E-1,1.302135E-1,-4.6750367E-2,4.4737732E-1,-6.5037966E-1,-1.8915558E-1,-1.5982449E0,4.2798257E0,1.1293485E-2,4.154358E0,-7.88487E-3,-9.333415E-1,-8.7898475E-1,9.093489E-2,2.2452593E0,7.702519E-2,1.0481384E0,-6.917784E-1,1.021697E0,3.9473206E-1,-3.464348E-1,5.4854635E-2,9.446949E-1,2.7308047E-1,-2.7137768E-1,4.9925902E-1,-1.992887E0,3.76761E-4,2.5774532E-3,3.7140813E0,-9.513912E-4,-1.1098108E-2,3.514832E-3,3.5686817E-3,-1.5468236E-2,7.307566E-3,2.5696153E-2,-3.6939912E-4,2.2310354E-2,-4.9761254E-3,-2.7339317E-2,3.4733905E-4,1.9044494E-2,-9.911308E-4,1.4900417E-2,-1.7858242E-3,1.5266889E-2,5.0303964E-3,-5.5287275E-3,1.785475E-4,-1.5733076E-2,-2.6455962E-3,7.674748E-3,3.2493573E-2,5.213217E-3,-6.883995E-3,3.0945933E-3,-2.1490363E-4,1.0388736E-2,-9.397106E-3,-3.884305E-2,-1.8825985E-2,-3.5320437E-3,1.1452854E-3,2.1609665E-4],"split_indices":[0,21,20,47,41,7,0,0,56,34,12,1,17,58,0,46,48,18,46,39,7,0,0,0,0,31,19,0,13,46,2,18,42,7,13,7,30,11,58,54,2,0,0,0,0,0,0,0,0,0,0,0,0,0,0,0,0,0,0,0,0,0,0,0,0,0,0,0,0,0,0,0,0,0,0,0,0,0,0],"split_type":[0,0,0,0,0,0,0,0,0,0,0,0,0,0,0,0,0,0,0,0,0,0,0,0,0,0,0,0,0,0,0,0,0,0,0,0,0,0,0,0,0,0,0,0,0,0,0,0,0,0,0,0,0,0,0,0,0,0,0,0,0,0,0,0,0,0,0,0,0,0,0,0,0,0,0,0,0,0,0],"sum_hessian":[6.57E2,6.37E2,2E1,4.35E2,2.02E2,1.7E1,3E0,1.8E2,2.55E2,5.8E1,1.44E2,4E0,1.3E1,8.5E1,9.5E1,1.03E2,1.52E2,3.2E1,2.6E1,3.9E1,1.05E2,2E0,2E0,5E0,8E0,4.1E1,4.4E1,1.5E1,8E1,5.5E1,4.8E1,7.4E1,7.8E1,1.9E1,1.3E1,1.4E1,1.2E1,1.6E1,2.3E1,1.3E1,9.2E1,1E0,1E0,2E0,3E0,8E0,3.3E1,1.3E1,3.1E1,1.3E1,2E0,7.8E1,2E0,5.2E1,3E0,3.9E1,9E0,1.8E1,5.6E1,7E1,8E0,1.4E1,5E0,4E0,9E0,7E0,7E0,6E0,6E0,8E0,8E0,7E0,1.6E1,1.1E1,2E0,6E0,8.6E1,1E0,1E0],"tree_param":{"num_deleted":"0","num_feature":"60","num_nodes":"79","size_leaf_vector":"0"}},{"base_weights":[-9.606172E-5,-1.6081722E-2,7.467863E-4,-1.3648078E-3,-4.9794145E-2,5.642139E-3,-2.6331518E-3,-1.8943246E-2,8.608364E-3,-2.6130423E-2,-6.823178E-2,-4.4570165E-3,1.3041908E-2,5.2098236E-3,-9.438185E-3,3.7537613E-3,-3.0917376E-2,-1.503284E-3,2.5711657E-2,6.9355974E-3,-1.6189042E-2,-4.172096E-2,1.6056525E-2,2.4929175E-3,4.9246103E-2,5.0469437E-3,-1.7165268E-2,1.6402092E-2,-5.9297127E-3,-1.0705068E-2,1.167987E-2,3.440273E-2,5.553007E-3,-4.576462E-3,2.9594684E-2,1.4324819E-2,-2.5248354E-2,-6.3758446E-3,-7.547212E-2,4.167503E-2,1.0176028E-2,-8.038411E-3,1.2375428E-2,8.8999175E-2,7.910858E-3,1.6614834E-2,-1.28982775E-2,6.6642445E-3,-2.534092E-2,-7.2169304E-4,-1.2248681E-2,1.3148196E-2,2.9032826E-3,8.3464384E-4,7.494867E-3,-1.3888206E-2,2.2885244E-2,5.1167873E-3,4.693163E-2,-5.0580986E-3,3.778124E-2,-4.3997306E-2,-1.320274E-2,4.784385E-3,-1.5410793E-2,7.6118656E-2,1.5390345E-2,-2.4092343E-2,1.4735068E-2,-1.9392157E-2,7.113323E-3,2.4860598E-2,-2.2361146E-2,2.7251005E-2,9.762347E-2,-1.7211476E-2,2.4774894E-2,3.5657972E-2,-5.03312E-3,8.248168E-3,-2.5104534E-2,-4.8589174E-2,1.5651006E-2,-3.26103E-2,1.0786188E-2],"categories":[],"categories_nodes":[],"categories_segments":[],"categories_sizes":[],"default_left":[1,1,1,1,1,1,1,1,1,0,0,1,1,1,1,1,0,1,1,1,1,1,1,1,1,1,1,0,0,1,1,0,1,1,1,1,1,1,0,1,1,1,1,1,1,1,1,1,1,0,0,0,0,0,0,0,0,0,0,0,0,0,0,0,0,0,0,0,0,0,0,0,0,0,0,0,0,0,0,0,0,0,0,0,0],"id":44,"left_children":[1,3,5,7,9,11,13,15,17,-1,-1,19,21,23,25,27,-1,29,31,33,35,37,39,41,43,45,47,-1,-1,49,51,-1,53,55,57,59,61,63,-1,65,67,69,71,73,75,77,79,81,83,-1,-1,-1,-1,-1,-1,-1,-1,-1,-1,-1,-1,-1,-1,-1,-1,-1,-1,-1,-1,-1,-1,-1,-1,-1,-1,-1,-1,-1,-1,-1,-1,-1,-1,-1,-1],"loss_changes":[8.8775605E-3,1.6304754E-2,1.0372645E-2,4.370577E-3,2.5801063E-3,1.9189369E-2,1.9850075E-2,2.5620488E-3,2.8057317E-3,0E0,0E0,1.4681051E-2,2.510308E-2,2.0575376E-2,2.2360263E-2,5.8717886E-4,0E0,1.4594275E-3,8.601635E-4,1.4743194E-2,1.5289146E-2,9.062311E-3,2.08175E-2,1.7167939E-2,1.5727969E-2,1.4745485E-2,2.5495708E-2,0E0,0E0,9.9033525E-5,2.626155E-5,0E0,2.1231652E-5,1.0035058E-2,7.822929E-3,6.101601E-3,8.9045055E-3,5.778917E-4,0E0,2.2367347E-2,1.8477786E-2,1.3900257E-2,3.7419736E-2,2.335757E-6,2.9683963E-3,1.7906005E-2,7.4343965E-3,1.7643146E-2,2.5826048E-2,0E0,0E0,0E0,0E0,0E0,0E0,0E0,0E0,0E0,0E0,0E0,0E0,0E0,0E0,0E0,0E0,0E0,0E0,0E0,0E0,0E0,0E0,0E0,0E0,0E0,0E0,0E0,0E0,0E0,0E0,0E0,0E0,0E0,0E0,0E0,0E0],"parents":[2147483647,0,0,1,1,2,2,3,3,4,4,5,5,6,6,7,7,8,8,11,11,12,12,13,13,14,14,15,15,17,17,18,18,19,19,20,20,21,21,22,22,23,23,24,24,25,25,26,26,29,29,30,30,32,32,33,33,34,34,35,35,36,36,37,37,39,39,40,40,41,41,42,42,43,43,44,44,45,45,46,46,47,47,48,48],"right_children":[2,4,6,8,10,12,14,16,18,-1,-1,20,22,24,26,28,-1,30,32,34,36,38,40,42,44,46,48,-1,-1,50,52,-1,54,56,58,60,62,64,-1,66,68,70,72,74,76,78,80,82,84,-1,-1,-1,-1,-1,-1,-1,-1,-1,-1,-1,-1,-1,-1,-1,-1,-1,-1,-1,-1,-1,-1,-1,-1,-1,-1,-1,-1,-1,-1,-1,-1,-1,-1,-1,-1],"split_conditions":[-2.439085E0,3.0262882E-1,-1.2242748E-1,-3.0174999E-2,-2.0715941E-1,-1.9381163E-1,-1.764789E-1,-2.6717138E-1,4.3280643E-1,-7.839127E-3,-2.0469533E-2,-2.458631E-2,-2.4006429E0,2.330745E0,-3.680362E-1,-1.3660661E0,-9.275213E-3,-1.2659502E0,6.6399163E-1,5.1487255E-1,-8.7688684E-1,-5.855288E-1,-8.995186E-1,-5.394257E-2,1.1658557E-2,1.5843529E-1,-3.36535E-1,4.920628E-3,-1.7789139E-3,-3.571529E-1,-2.546942E-1,1.032082E-2,1.7631114E0,7.3035824E-1,2.722259E-2,6.6377866E-1,-1.3797044E-2,-9.718406E-2,-2.2641636E-2,-4.0999442E-2,-1.8131678E0,6.462717E-2,7.0122075E-1,-2.6852638E-1,-2.4981683E-1,2.1219343E-1,-2.903495E-1,-6.917784E-1,7.163319E-1,-2.1650792E-4,-3.6746045E-3,3.944459E-3,8.709848E-4,2.5039318E-4,2.2484602E-3,-4.166462E-3,6.8655736E-3,1.5350363E-3,1.4079489E-2,-1.5174296E-3,1.1334372E-2,-1.31991925E-2,-3.9608222E-3,1.4353156E-3,-4.623238E-3,2.2835597E-2,4.617104E-3,-7.227703E-3,4.4205207E-3,-5.817647E-3,2.133997E-3,7.4581797E-3,-6.708344E-3,8.175302E-3,2.9287042E-2,-5.1634433E-3,7.4324687E-3,1.0697392E-2,-1.5099361E-3,2.4744505E-3,-7.5313603E-3,-1.4576753E-2,4.695302E-3,-9.783091E-3,3.2358565E-3],"split_indices":[57,33,57,0,38,17,54,20,14,0,0,15,19,13,9,0,0,25,0,19,37,2,49,24,49,1,2,0,0,5,1,0,0,11,9,18,29,0,0,48,25,43,59,0,6,36,20,28,32,0,0,0,0,0,0,0,0,0,0,0,0,0,0,0,0,0,0,0,0,0,0,0,0,0,0,0,0,0,0,0,0,0,0,0,0],"split_type":[0,0,0,0,0,0,0,0,0,0,0,0,0,0,0,0,0,0,0,0,0,0,0,0,0,0,0,0,0,0,0,0,0,0,0,0,0,0,0,0,0,0,0,0,0,0,0,0,0,0,0,0,0,0,0,0,0,0,0,0,0,0,0,0,0,0,0,0,0,0,0,0,0,0,0,0,0,0,0,0,0,0,0,0,0],"sum_hessian":[6.57E2,3.2E1,6.25E2,2.3E1,9E0,2.55E2,3.7E2,8E0,1.5E1,5E0,4E0,1.08E2,1.47E2,1.72E2,1.98E2,3E0,5E0,1E1,5E0,5.5E1,5.3E1,7E0,1.4E2,1.63E2,9E0,6.9E1,1.29E2,1E0,2E0,6E0,4E0,3E0,2E0,3.7E1,1.8E1,1.2E1,4.1E1,4E0,3E0,2.5E1,1.15E2,7.9E1,8.4E1,4E0,5E0,4.2E1,2.7E1,3.3E1,9.6E1,1E0,5E0,3E0,1E0,1E0,1E0,2.8E1,9E0,8E0,1E1,7E0,5E0,1.5E1,2.6E1,2E0,2E0,1E1,1.5E1,1.3E1,1.02E2,4.5E1,3.4E1,6.2E1,2.2E1,1E0,3E0,2E0,3E0,2.2E1,2E1,1E1,1.7E1,4E0,2.9E1,8E1,1.6E1],"tree_param":{"num_deleted":"0","num_feature":"60","num_nodes":"85","size_leaf_vector":"0"}},{"base_weights":[-4.6592253E-5,3.703466E-3,-3.4595535E-3,2.131722E-3,4.6804074E-2,-1.4395069E-2,3.3849683E-3,1.1483879E-2,-2.3731096E-3,9.151426E-2,8.181929E-3,-1.6361568E-2,7.6273754E-2,3.3599745E-2,1.4139381E-3,-3.849889E-3,2.7856214E-2,-9.938768E-3,6.926441E-3,-3.2688994E-3,1.7587274E-2,-1.2386108E-2,-5.1493745E-2,2.6709074E-3,6.923824E-2,-6.0206223E-3,1.1425509E-2,-3.430576E-2,9.424268E-3,4.7349658E-2,9.54062E-3,-1.305203E-2,3.2943454E-2,-8.0309E-3,1.6090887E-2,-8.200768E-3,1.1086464E-3,2.0416101E-2,4.5503974E-3,-1.716969E-2,1.9481305E-2,-1.02577984E-1,-1.7392084E-2,-3.702334E-3,1.4527087E-2,8.103052E-2,3.0435786E-2,4.11063E-3,-1.8568907E-2,1.6169727E-2,-1.4128312E-2,6.1761774E-3,-6.6477954E-2,5.769075E-3,7.050562E-2,6.5551107E-3,6.4787574E-2,-4.7371673E-4,5.1695578E-2,-1.752326E-2,1.5539732E-2,5.921986E-2,-8.137919E-3,-1.8884921E-2,1.2625057E-2,1.1129414E-2,8.028841E-2,-2.2104383E-4,1.8840134E-3,-1.818845E-3,-2.459983E-2,-2.5007682E-2,4.1976996E-2,-1.4149427E-2,-1.2114777E-1,2.5117607E-3,-3.381751E-2,6.004572E-4,-4.6829833E-3,1.8229969E-2,3.5606623E-3,-1.1619299E-2,1.7925408E-2,-2.2528557E-2,5.3614896E-2,-9.243093E-3,2.182989E-2,1.4494389E-2,-2.3252174E-2],"categories":[],"categories_nodes":[],"categories_segments":[],"categories_sizes":[],"default_left":[1,1,1,1,1,1,1,1,1,0,1,1,0,1,1,1,1,1,1,1,1,1,1,1,1,1,1,1,1,1,1,1,1,1,1,0,1,0,0,1,1,1,1,1,1,0,0,1,1,1,1,0,0,0,0,0,0,0,0,0,0,0,0,0,0,0,0,0,0,0,0,0,0,0,0,0,0,0,0,0,0,0,0,0,0,0,0,0,0],"id":45,"left_children":[1,3,5,7,9,11,13,15,17,-1,19,21,-1,23,25,27,29,31,33,35,37,39,41,43,45,47,49,51,53,55,57,59,61,63,65,-1,67,-1,-1,69,71,73,75,77,79,-1,-1,81,83,85,87,-1,-1,-1,-1,-1,-1,-1,-1,-1,-1,-1,-1,-1,-1,-1,-1,-1,-1,-1,-1,-1,-1,-1,-1,-1,-1,-1,-1,-1,-1,-1,-1,-1,-1,-1,-1,-1,-1],"loss_changes":[8.434424E-3,2.1171564E-2,2.5871418E-2,1.283474E-2,1.8246071E-2,2.496188E-2,1.2637544E-2,2.4961151E-2,1.4562429E-2,0E0,8.1138406E-4,1.7658517E-2,0E0,1.4144414E-2,1.5029546E-2,2.1345662E-2,1.6685884E-2,1.5649388E-2,1.2877267E-2,9.544968E-5,5.461485E-5,1.8474892E-2,2.0862699E-2,6.582824E-4,2.7918816E-4,1.4823392E-2,1.0654481E-2,2.124886E-2,7.854022E-3,1.593687E-2,1.1000492E-2,1.3951225E-2,9.117695E-3,8.309631E-3,1.7580263E-2,0E0,3.5094433E-6,0E0,0E0,1.18173845E-2,1.7062716E-2,6.496325E-3,3.0273043E-3,2.8129114E-5,5.6911376E-5,0E0,0E0,1.43331345E-2,1.607064E-2,1.0702148E-2,3.99312E-3,0E0,0E0,0E0,0E0,0E0,0E0,0E0,0E0,0E0,0E0,0E0,0E0,0E0,0E0,0E0,0E0,0E0,0E0,0E0,0E0,0E0,0E0,0E0,0E0,0E0,0E0,0E0,0E0,0E0,0E0,0E0,0E0,0E0,0E0,0E0,0E0,0E0,0E0],"parents":[2147483647,0,0,1,1,2,2,3,3,4,4,5,5,6,6,7,7,8,8,10,10,11,11,13,13,14,14,15,15,16,16,17,17,18,18,19,19,20,20,21,21,22,22,23,23,24,24,25,25,26,26,27,27,28,28,29,29,30,30,31,31,32,32,33,33,34,34,36,36,39,39,40,40,41,41,42,42,43,43,44,44,47,47,48,48,49,49,50,50],"right_children":[2,4,6,8,10,12,14,16,18,-1,20,22,-1,24,26,28,30,32,34,36,38,40,42,44,46,48,50,52,54,56,58,60,62,64,66,-1,68,-1,-1,70,72,74,76,78,80,-1,-1,82,84,86,88,-1,-1,-1,-1,-1,-1,-1,-1,-1,-1,-1,-1,-1,-1,-1,-1,-1,-1,-1,-1,-1,-1,-1,-1,-1,-1,-1,-1,-1,-1,-1,-1,-1,-1,-1,-1,-1,-1],"split_conditions":[-2.9699154E-2,-5.7607E-2,3.9717934E-1,-3.4584635E-1,-8.13409E-1,3.576005E0,-1.9510998E0,-9.9172485E-1,1.4604625E-1,2.745428E-2,6.827042E-1,3.5840273E-1,2.2882126E-2,-2.1895026E-1,1.1473763E-1,-9.3088216E-1,-9.500747E-2,2.0286126E0,-2.977051E-1,-4.4994116E-2,-2.939798E-1,1.2296267E0,-8.683949E-2,7.037451E-1,1.6162145E-1,9.662013E-2,1.3674877E0,-4.0619934E-1,2.749729E0,-1.005831E0,2.2901604E-1,1.1172965E0,4.1557792E-1,4.719024E-1,1.0418816E0,-2.4602306E-3,1.2679017E0,6.124831E-3,1.3651192E-3,-3.0748916E-1,-1.6702825E-1,-1.8254378E-1,7.2746806E-2,-1.4100597E0,4.6832308E-1,2.4309156E-2,9.130736E-3,-2.8100222E-1,2.442368E0,-1.03771E0,-4.3875647E-1,1.8528533E-3,-1.9943386E-2,1.7307225E-3,2.1151686E-2,1.9665333E-3,1.9436274E-2,-1.4211502E-4,1.5508674E-2,-5.2569783E-3,4.6619195E-3,1.7765958E-2,-2.4413757E-3,-5.6654764E-3,3.7875173E-3,3.3388243E-3,2.4086524E-2,-6.631315E-5,5.6520407E-4,-5.456535E-4,-7.379949E-3,-7.502305E-3,1.2593099E-2,-4.2448286E-3,-3.634433E-2,7.5352826E-4,-1.01452535E-2,1.8013717E-4,-1.404895E-3,5.4689907E-3,1.0681987E-3,-3.4857898E-3,5.3776223E-3,-6.7585674E-3,1.608447E-2,-2.7729282E-3,6.548967E-3,4.348317E-3,-6.9756526E-3],"split_indices":[28,28,28,34,37,32,49,28,38,0,7,28,0,29,13,48,30,20,43,0,0,15,50,6,3,41,49,11,18,6,19,9,17,20,56,0,0,0,0,3,50,2,0,1,0,0,0,47,50,57,11,0,0,0,0,0,0,0,0,0,0,0,0,0,0,0,0,0,0,0,0,0,0,0,0,0,0,0,0,0,0,0,0,0,0,0,0,0,0],"split_type":[0,0,0,0,0,0,0,0,0,0,0,0,0,0,0,0,0,0,0,0,0,0,0,0,0,0,0,0,0,0,0,0,0,0,0,0,0,0,0,0,0,0,0,0,0,0,0,0,0,0,0,0,0,0,0,0,0,0,0,0,0,0,0,0,0,0,0,0,0,0,0,0,0,0,0,0,0,0,0,0,0,0,0,0,0,0,0,0,0],"sum_hessian":[6.57E2,3.13E2,3.44E2,3.03E2,1E1,1.32E2,2.12E2,9.8E1,2.05E2,4E0,6E0,1.3E2,2E0,1.2E1,2E2,5.1E1,4.7E1,1.13E2,9.2E1,3E0,3E0,1.18E2,1.2E1,7E0,5E0,1.15E2,8.5E1,1.5E1,3.6E1,2.2E1,2.5E1,1.06E2,7E0,3.5E1,5.7E1,1E0,2E0,2E0,1E0,1.03E2,1.5E1,4E0,8E0,5E0,2E0,3E0,2E0,6.4E1,5.1E1,7.2E1,1.3E1,7E0,8E0,3.5E1,1E0,7E0,1.5E1,2.1E1,4E0,9.2E1,1.4E1,4E0,3E0,2.3E1,1.2E1,5.4E1,3E0,1E0,1E0,3.4E1,6.9E1,5E0,1E1,1E0,3E0,4E0,4E0,1E0,4E0,1E0,1E0,3E1,3.4E1,4.9E1,2E0,1.3E1,5.9E1,3E0,1E1],"tree_param":{"num_deleted":"0","num_feature":"60","num_nodes":"89","size_leaf_vector":"0"}},{"base_weights":[1.7408232E-4,-1.4258156E-3,6.683097E-3,7.998078E-3,-3.2988403E-3,1.1842115E-2,-1.3436198E-2,1.1232671E-2,-2.1642536E-2,1.6126618E-2,-4.8032585E-3,-6.2485677E-3,2.0718284E-2,1.3347161E-2,-2.7569387E-2,1.8627201E-3,2.3854878E-2,-8.335426E-3,-3.6192566E-2,1.0172876E-2,5.52596E-2,1.0320089E-2,-6.598432E-3,1.07578E-2,-2.2907792E-2,-1.5323997E-2,2.5616061E-2,1.6115452E-3,4.0193085E-2,-5.694714E-2,-1.1889703E-2,-6.851962E-3,1.5066039E-2,6.9747646E-3,6.3669674E-2,1.7763178E-4,-1.26363635E-2,-1.2316013E-2,1.4263738E-2,-7.41914E-3,2.1764016E-2,-7.899813E-3,1.9145086E-2,-1.3702457E-3,2.6089137E-2,-3.7970368E-2,6.667217E-4,-2.6465287E-2,5.218938E-3,-4.126525E-3,3.2836813E-2,7.7383914E-3,-3.6122408E-3,-1.4755869E-3,-1.8214077E-2,-1.3821288E-2,7.771887E-3,-8.685479E-3,2.1978809E-2,-1.3065178E-2,1.5493919E-2,8.7451935E-4,7.054975E-2,-8.972883E-4,1.163736E-3,-4.324933E-3,-1.6201755E-2,-2.056241E-3,2.0724632E-2,3.1415622E-3,-2.4463324E-2,4.236655E-3,3.7736803E-2,-4.443844E-3,-1.8177953E-2,3.3199016E-2,-2.572204E-3,6.874885E-3,-1.2639379E-2,-4.906118E-3,3.1217905E-2,-4.8217356E-2,-7.983796E-3,-8.464682E-3,1.1914296E-2,-5.4471195E-3,-2.9579496E-2,7.2842836E-3,-4.885495E-4,1.906008E-2,-2.6723627E-2,4.504853E-2,1.0541455E-2,-8.302331E-3,-3.6413549E-4,-7.5838766E-3,3.474527E-3,-5.2292496E-3,-1.9322017E-2],"categories":[],"categories_nodes":[],"categories_segments":[],"categories_sizes":[],"default_left":[1,1,1,1,1,1,1,1,1,1,1,1,1,1,1,1,1,1,0,1,0,1,1,1,1,1,1,1,0,0,1,1,1,1,1,1,0,1,1,1,1,1,1,1,1,1,1,1,1,1,1,0,1,1,1,0,0,0,0,0,0,0,0,0,0,0,0,0,0,0,0,0,0,0,0,0,0,0,0,0,0,0,0,0,0,0,0,0,0,0,0,0,0,0,0,0,0,0,0],"id":46,"left_children":[1,3,5,7,9,11,13,15,17,19,21,23,25,27,29,31,33,35,-1,37,-1,39,41,43,45,47,49,51,-1,-1,53,55,57,59,61,63,-1,65,67,69,71,73,75,77,79,81,83,85,87,89,91,-1,93,95,97,-1,-1,-1,-1,-1,-1,-1,-1,-1,-1,-1,-1,-1,-1,-1,-1,-1,-1,-1,-1,-1,-1,-1,-1,-1,-1,-1,-1,-1,-1,-1,-1,-1,-1,-1,-1,-1,-1,-1,-1,-1,-1,-1,-1],"loss_changes":[6.8617826E-3,9.363861E-3,1.3652568E-2,8.680132E-3,1.2994473E-2,1.6829357E-2,1.0588398E-2,9.417122E-3,1.4408887E-3,6.893459E-3,1.122635E-2,1.0162389E-2,1.2749437E-2,3.085761E-3,7.614324E-3,5.51118E-3,2.2406584E-2,2.219294E-4,0E0,2.843642E-3,0E0,9.093753E-3,1.248003E-2,3.3826535E-3,6.4169876E-3,2.197994E-3,1.3450857E-2,2.839956E-4,0E0,0E0,8.293394E-4,3.06305E-3,3.310483E-3,4.470515E-3,4.258655E-3,4.2241563E-6,0E0,8.5184874E-5,2.678656E-3,3.316827E-3,7.3990645E-3,1.2387069E-2,5.579233E-3,1.1089646E-3,1.4248984E-3,2.9950347E-3,9.224999E-4,2.3160689E-4,5.071047E-5,7.3207063E-3,1.3138354E-2,0E0,7.314635E-5,2.0777076E-4,1.4051562E-5,0E0,0E0,0E0,0E0,0E0,0E0,0E0,0E0,0E0,0E0,0E0,0E0,0E0,0E0,0E0,0E0,0E0,0E0,0E0,0E0,0E0,0E0,0E0,0E0,0E0,0E0,0E0,0E0,0E0,0E0,0E0,0E0,0E0,0E0,0E0,0E0,0E0,0E0,0E0,0E0,0E0,0E0,0E0,0E0],"parents":[2147483647,0,0,1,1,2,2,3,3,4,4,5,5,6,6,7,7,8,8,9,9,10,10,11,11,12,12,13,13,14,14,15,15,16,16,17,17,19,19,21,21,22,22,23,23,24,24,25,25,26,26,27,27,30,30,31,31,32,32,33,33,34,34,35,35,37,37,38,38,39,39,40,40,41,41,42,42,43,43,44,44,45,45,46,46,47,47,48,48,49,49,50,50,52,52,53,53,54,54],"right_children":[2,4,6,8,10,12,14,16,18,20,22,24,26,28,30,32,34,36,-1,38,-1,40,42,44,46,48,50,52,-1,-1,54,56,58,60,62,64,-1,66,68,70,72,74,76,78,80,82,84,86,88,90,92,-1,94,96,98,-1,-1,-1,-1,-1,-1,-1,-1,-1,-1,-1,-1,-1,-1,-1,-1,-1,-1,-1,-1,-1,-1,-1,-1,-1,-1,-1,-1,-1,-1,-1,-1,-1,-1,-1,-1,-1,-1,-1,-1,-1,-1,-1,-1],"split_conditions":[8.391915E-1,-1.1578624E0,1.0292686E0,1.7342161E0,-2.1742802E0,-6.602744E-1,-3.8508546E-1,1.0421989E-1,7.043773E-2,6.484494E-1,-1.6797705E0,-2.839724E-2,-1.3598006E0,-7.9370195E-1,-3.9631614E-1,1.2638228E-1,3.208984E-1,-6.156019E-1,-1.085777E-2,-1.7143381E0,1.657788E-2,-3.3262318E-1,2.3604388E0,8.819632E-1,6.790838E-1,-2.2291549E-2,-7.658238E-1,-7.5319505E-1,1.2057926E-2,-1.7084142E-2,1.4281714E0,6.6364443E-1,-1.7645981E0,2.5003023E-2,-8.515287E-1,-4.287665E-1,-3.7909092E-3,3.4524184E-1,-5.962157E-1,1.23714454E-1,-3.1835376E-3,5.527961E-1,2.353946E-1,1.24656305E-1,-2.5386002E0,2.7656493E-1,-4.9538895E-2,-9.413548E-1,-4.956829E-1,9.356771E-2,2.907405E-1,2.3215176E-3,-2.8748024E0,1.3724015E0,-5.2893353E0,-4.1463864E-3,2.331566E-3,-2.6056438E-3,6.5936428E-3,-3.9195535E-3,4.648176E-3,2.623558E-4,2.1164926E-2,-2.691865E-4,3.4912082E-4,-1.29748E-3,-4.860527E-3,-6.1687233E-4,6.21739E-3,9.424687E-4,-7.3389974E-3,1.2709965E-3,1.1321042E-2,-1.3331532E-3,-5.453386E-3,9.959705E-3,-7.7166123E-4,2.0624655E-3,-3.791814E-3,-1.4718354E-3,9.365371E-3,-1.4465207E-2,-2.395139E-3,-2.5394047E-3,3.574289E-3,-1.634136E-3,-8.873849E-3,2.185285E-3,-1.4656485E-4,5.7180244E-3,-8.017088E-3,1.351456E-2,3.1624367E-3,-2.4906993E-3,-1.0924065E-4,-2.275163E-3,1.0423581E-3,-1.5687749E-3,-5.7966053E-3],"split_indices":[6,35,1,17,43,5,8,14,25,19,34,33,50,2,57,34,17,3,0,52,0,36,58,48,27,26,33,25,0,0,6,53,38,30,5,0,0,0,1,14,47,53,36,34,2,31,23,0,1,35,19,0,0,1,0,0,0,0,0,0,0,0,0,0,0,0,0,0,0,0,0,0,0,0,0,0,0,0,0,0,0,0,0,0,0,0,0,0,0,0,0,0,0,0,0,0,0,0,0],"split_type":[0,0,0,0,0,0,0,0,0,0,0,0,0,0,0,0,0,0,0,0,0,0,0,0,0,0,0,0,0,0,0,0,0,0,0,0,0,0,0,0,0,0,0,0,0,0,0,0,0,0,0,0,0,0,0,0,0,0,0,0,0,0,0,0,0,0,0,0,0,0,0,0,0,0,0,0,0,0,0,0,0,0,0,0,0,0,0,0,0,0,0,0,0,0,0,0,0,0,0],"sum_hessian":[6.57E2,5.28E2,1.29E2,8.7E1,4.41E2,1.03E2,2.6E1,7.9E1,8E0,3.1E1,4.1E2,3.4E1,6.9E1,9E0,1.7E1,4.6E1,3.3E1,5E0,3E0,2.8E1,3E0,4.3E1,3.67E2,1.7E1,1.7E1,8E0,6.1E1,7E0,2E0,5E0,1.2E1,2.8E1,1.8E1,2.4E1,9E0,2E0,3E0,4E0,2.4E1,1.7E1,2.6E1,3.5E2,1.7E1,1E1,7E0,1E1,7E0,5E0,3E0,1.2E1,4.9E1,3E0,4E0,5E0,7E0,1.9E1,9E0,4E0,1.4E1,7E0,1.7E1,1E0,8E0,1E0,1E0,2E0,2E0,7E0,1.7E1,1.1E1,6E0,1.3E1,1.3E1,2.63E2,8.7E1,1E1,7E0,6E0,4E0,1E0,6E0,7E0,3E0,4E0,3E0,1E0,4E0,2E0,1E0,6E0,6E0,3.1E1,1.8E1,1E0,3E0,2E0,3E0,1E0,6E0],"tree_param":{"num_deleted":"0","num_feature":"60","num_nodes":"99","size_leaf_vector":"0"}},{"base_weights":[1.4727353E-4,4.953498E-4,-2.5007933E-2,1.0681851E-3,-1.386826E-2,-4.3556623E-2,-1.4576584E-3,3.6847934E-3,-2.3508004E-3,-4.842742E-2,-4.9794945E-3,-5.2903406E-3,6.9365352E-3,6.1050133E-4,1.4594644E-2,1.0307841E-2,-6.05926E-3,-1.2190454E-2,-6.852192E-2,1.6054964E-2,-1.2556198E-2,-6.54532E-3,-7.6270103E-4,1.4698858E-3,-5.8624804E-2,1.9572958E-2,-2.1215186E-2,1.089456E-3,4.4970255E-2,3.64181E-3,-1.3446253E-2,-3.0054674E-3,2.0468142E-2,-2.193746E-2,-6.2976736E-3,7.769857E-3,-3.604404E-3,5.6360066E-3,-8.1923746E-2,3.197027E-2,7.986896E-3,-7.234526E-2,-7.4957046E-3,-2.7540363E-3,4.597813E-2,7.122761E-2,2.4654071E-3,-1.3894247E-2,1.0035334E-2,1.3959804E-3,-2.2370206E-2,-6.7185174E-4,-1.0873883E-2],"categories":[],"categories_nodes":[],"categories_segments":[],"categories_sizes":[],"default_left":[1,1,1,1,1,0,1,1,1,1,1,1,0,1,1,1,1,0,0,1,1,0,0,1,1,1,1,1,1,1,1,0,0,0,1,0,0,0,0,0,0,0,0,0,0,0,0,0,0,0,0,0,0],"id":47,"left_children":[1,3,5,7,9,-1,11,13,15,17,19,21,-1,23,25,27,29,-1,-1,31,33,-1,-1,35,37,39,41,43,45,47,49,-1,-1,-1,51,-1,-1,-1,-1,-1,-1,-1,-1,-1,-1,-1,-1,-1,-1,-1,-1,-1,-1],"loss_changes":[5.77379E-3,5.363003E-3,3.8679498E-3,5.6089493E-3,7.4385623E-3,0E0,1.9755801E-4,1.18978135E-2,1.2831242E-2,2.805505E-3,3.548398E-3,1.773626E-5,0E0,1.4238011E-2,1.4320504E-2,1.9761957E-2,1.5169596E-2,0E0,0E0,5.6621875E-4,8.012508E-4,0E0,0E0,8.819173E-3,6.450558E-3,9.6555445E-3,6.472502E-3,8.753089E-3,1.4333239E-2,1.0454215E-2,1.5925394E-2,0E0,0E0,0E0,2.7588865E-4,0E0,0E0,0E0,0E0,0E0,0E0,0E0,0E0,0E0,0E0,0E0,0E0,0E0,0E0,0E0,0E0,0E0,0E0],"parents":[2147483647,0,0,1,1,2,2,3,3,4,4,6,6,7,7,8,8,9,9,10,10,11,11,13,13,14,14,15,15,16,16,19,19,20,20,23,23,24,24,25,25,26,26,27,27,28,28,29,29,30,30,34,34],"right_children":[2,4,6,8,10,-1,12,14,16,18,20,22,-1,24,26,28,30,-1,-1,32,34,-1,-1,36,38,40,42,44,46,48,50,-1,-1,-1,52,-1,-1,-1,-1,-1,-1,-1,-1,-1,-1,-1,-1,-1,-1,-1,-1,-1,-1],"split_conditions":[4.326862E0,2.8294158E0,4.726856E0,1.0847002E-1,-1.4985081E0,-1.30669875E-2,-7.5051063E-1,-9.7389325E-2,-6.90303E-1,-3.2751995E-1,-1.6324852E0,-2.5454004E0,2.0809607E-3,-1.0366307E-1,1.3757714E0,-8.8652253E-1,-9.792411E-2,-3.6571363E-3,-2.0556577E-2,-2.2427082E0,-4.833164E-1,-1.963596E-3,-2.2881031E-4,-8.88803E-2,-2.2750515E-1,-1.01012126E-1,-1.6514665E0,1.8853686E0,-7.637696E-2,-7.961795E-1,-2.859283E-1,-9.016402E-4,6.140443E-3,-6.581238E-3,-6.495841E-2,2.3309572E-3,-1.0813213E-3,1.690802E-3,-2.4577124E-2,9.591081E-3,2.3960688E-3,-2.1703579E-2,-2.2487114E-3,-8.2621095E-4,1.379344E-2,2.1368284E-2,7.3962216E-4,-4.1682743E-3,3.0106003E-3,4.1879414E-4,-6.711062E-3,-2.0155554E-4,-3.262165E-3],"split_indices":[27,4,27,19,28,0,0,19,45,0,56,0,0,19,23,45,17,0,0,6,20,0,0,30,0,48,8,15,16,29,23,0,0,0,5,0,0,0,0,0,0,0,0,0,0,0,0,0,0,0,0,0,0],"split_type":[0,0,0,0,0,0,0,0,0,0,0,0,0,0,0,0,0,0,0,0,0,0,0,0,0,0,0,0,0,0,0,0,0,0,0,0,0,0,0,0,0,0,0,0,0,0,0,0,0,0,0,0,0],"sum_hessian":[6.57E2,6.49E2,8E0,6.25E2,2.4E1,4E0,4E0,3.54E2,2.71E2,4E0,2E1,3E0,1E0,2.77E2,7.7E1,6.1E1,2.1E2,2E0,2E0,5E0,1.5E1,2E0,1E0,2.74E2,3E0,6.8E1,9E0,4.9E1,1.2E1,9.1E1,1.19E2,1E0,4E0,5E0,1E1,1.22E2,1.52E2,1E0,2E0,3.2E1,3.6E1,1E0,8E0,4.6E1,3E0,7E0,5E0,2.4E1,6.7E1,4.5E1,7.4E1,5E0,5E0],"tree_param":{"num_deleted":"0","num_feature":"60","num_nodes":"53","size_leaf_vector":"0"}},{"base_weights":[2.987749E-5,1.1899198E-2,-5.3627434E-4,3.453964E-3,3.9154403E-2,-2.30037E-3,4.0173377E-3,-2.214267E-3,2.0827701E-2,1.6950492E-2,6.310945E-2,-1.733254E-2,-1.2338628E-3,8.532501E-3,-9.722072E-3,1.6980608E-3,-1.0973987E-2,-6.582439E-3,2.7626216E-2,2.1036526E-2,3.0317903E-4,1.4556833E-3,-2.5453957E-2,-9.467097E-4,-6.1493397E-2,-2.3678762E-3,1.6490798E-2,-2.2538219E-2,1.8971431E-3,-3.2450955E-3,4.804825E-3,-3.2211344E-3,-1.40451295E-2,7.488072E-3,3.0788735E-2,-4.7508264E-3,1.1953155E-2,-3.758514E-2,-8.351142E-3,-3.4127103E-3,6.673799E-3,2.6175892E-2,-8.265164E-3,-6.7229844E-3,2.4753932E-2,-5.021091E-2,-1.0752318E-2,-3.422638E-3,2.9351708E-2,7.83205E-5,-4.9263835E-3,-2.736052E-4,6.2948912E-3,-6.780833E-3,2.1612644E-4,-1.6012754E-2,-5.6488734E-2,-3.0253615E-4,-2.0348415E-2,-3.863399E-3,7.0403814E-2,3.8266547E-2,2.905777E-3,6.3165784E-2,9.0326965E-3,2.1401204E-3,-2.4259552E-2,-2.603542E-2,9.930961E-3,3.4272306E-2,3.9133825E-3,-6.255628E-2,-1.7013451E-2,-1.8031362E-2,8.867848E-3,-1.0062898E-2,6.549142E-3],"categories":[],"categories_nodes":[],"categories_segments":[],"categories_sizes":[],"default_left":[1,1,1,1,1,1,1,1,1,1,0,1,1,1,1,1,1,0,1,0,0,1,1,1,0,1,1,1,1,1,1,0,0,0,0,1,0,1,1,1,1,1,1,1,1,1,1,1,0,0,0,0,0,0,0,0,0,0,0,0,0,0,0,0,0,0,0,0,0,0,0,0,0,0,0,0,0],"id":48,"left_children":[1,3,5,7,9,11,13,15,17,19,-1,21,23,25,27,29,31,-1,33,-1,-1,35,37,39,-1,41,43,45,47,49,51,-1,-1,-1,-1,53,-1,55,57,59,61,63,65,67,69,71,73,75,-1,-1,-1,-1,-1,-1,-1,-1,-1,-1,-1,-1,-1,-1,-1,-1,-1,-1,-1,-1,-1,-1,-1,-1,-1,-1,-1,-1,-1],"loss_changes":[4.4280346E-3,6.7700595E-3,5.062003E-3,2.4095983E-3,2.6535336E-3,7.2571044E-3,1.1001232E-2,6.697815E-4,1.2999375E-3,3.3372955E-4,0E0,4.6146624E-3,7.2958623E-3,1.157659E-2,6.594954E-3,2.305932E-4,9.761943E-5,0E0,8.788798E-5,0E0,0E0,7.0831395E-4,4.043145E-3,7.990659E-3,0E0,9.811205E-3,1.4936455E-2,6.309217E-3,3.6057148E-3,3.3911558E-5,6.9827074E-5,0E0,0E0,0E0,0E0,7.204614E-5,0E0,3.9890073E-3,9.594571E-4,1.095111E-2,1.2269191E-2,5.7706917E-3,8.040373E-3,7.0127496E-3,1.1172861E-2,1.3947114E-3,2.4449558E-3,1.4564227E-3,0E0,0E0,0E0,0E0,0E0,0E0,0E0,0E0,0E0,0E0,0E0,0E0,0E0,0E0,0E0,0E0,0E0,0E0,0E0,0E0,0E0,0E0,0E0,0E0,0E0,0E0,0E0,0E0,0E0],"parents":[2147483647,0,0,1,1,2,2,3,3,4,4,5,5,6,6,7,7,8,8,9,9,11,11,12,12,13,13,14,14,15,15,16,16,18,18,21,21,22,22,23,23,25,25,26,26,27,27,28,28,29,29,30,30,35,35,37,37,38,38,39,39,40,40,41,41,42,42,43,43,44,44,45,45,46,46,47,47],"right_children":[2,4,6,8,10,12,14,16,18,20,-1,22,24,26,28,30,32,-1,34,-1,-1,36,38,40,-1,42,44,46,48,50,52,-1,-1,-1,-1,54,-1,56,58,60,62,64,66,68,70,72,74,76,-1,-1,-1,-1,-1,-1,-1,-1,-1,-1,-1,-1,-1,-1,-1,-1,-1,-1,-1,-1,-1,-1,-1,-1,-1,-1,-1,-1,-1],"split_conditions":[-2.8029137E0,1.0682247E0,5.1487255E-1,2.027373E0,6.7260064E-2,-2.1739287E0,6.7129886E-1,2.5763762E-1,-2.920991E0,2.134746E0,1.8932836E-2,-1.1396528E0,5.029164E-1,-2.566138E-1,-3.6143895E-2,-6.3918465E-1,2.4852058E-1,-1.9747317E-3,-2.1902657E0,6.310958E-3,9.095371E-5,1.7129152E-1,8.974483E-1,5.6154275E-1,-1.844802E-2,-1.6020563E0,-4.5971674E-1,-6.900184E-1,2.7482042E0,-9.421113E-1,-3.0161643E0,-9.6634036E-4,-4.213539E-3,2.2464218E-3,9.236621E-3,8.436483E-1,3.5859465E-3,-5.406869E-1,-3.690324E-2,4.1820393E0,6.467796E-1,-1.6838181E0,-7.4252903E-1,1.3904706E-1,4.342312E-1,4.2815232E-1,7.63198E-1,4.1371265E-1,8.805512E-3,2.3496152E-5,-1.4779151E-3,-8.208156E-5,1.8884675E-3,-2.03425E-3,6.4837935E-5,-4.8038266E-3,-1.6946621E-2,-9.076085E-5,-6.1045247E-3,-1.1590198E-3,2.1121144E-2,1.14799645E-2,8.717331E-4,1.8949736E-2,2.709809E-3,6.4203615E-4,-7.277866E-3,-7.8106266E-3,2.9792883E-3,1.0281692E-2,1.1740148E-3,-1.8766886E-2,-5.1040356E-3,-5.409409E-3,2.6603544E-3,-3.0188693E-3,1.9647426E-3],"split_indices":[11,7,34,13,6,39,39,13,0,3,0,2,34,47,14,5,2,0,0,0,0,17,56,55,0,40,11,51,38,2,22,0,0,0,0,5,0,4,1,32,55,38,47,33,4,5,52,26,0,0,0,0,0,0,0,0,0,0,0,0,0,0,0,0,0,0,0,0,0,0,0,0,0,0,0,0,0],"split_type":[0,0,0,0,0,0,0,0,0,0,0,0,0,0,0,0,0,0,0,0,0,0,0,0,0,0,0,0,0,0,0,0,0,0,0,0,0,0,0,0,0,0,0,0,0,0,0,0,0,0,0,0,0,0,0,0,0,0,0,0,0,0,0,0,0,0,0,0,0,0,0,0,0,0,0,0,0],"sum_hessian":[6.57E2,2.9E1,6.28E2,2.3E1,6E0,4.53E2,1.75E2,1.8E1,5E0,4E0,2E0,2.9E1,4.24E2,1.32E2,4.3E1,1.3E1,5E0,1E0,4E0,3E0,1E0,9E0,2E1,4.23E2,1E0,5.6E1,7.6E1,2E1,2.3E1,5E0,8E0,2E0,3E0,1E0,3E0,6E0,3E0,1.1E1,9E0,3.2E2,1.03E2,9E0,4.7E1,2E1,5.6E1,5E0,1.5E1,2E1,3E0,2E0,3E0,2E0,6E0,4E0,2E0,6E0,5E0,6E0,3E0,3.19E2,1E0,1E1,9.3E1,2E0,7E0,2.9E1,1.8E1,9E0,1.1E1,3.8E1,1.8E1,3E0,2E0,1.1E1,4E0,1.2E1,8E0],"tree_param":{"num_deleted":"0","num_feature":"60","num_nodes":"77","size_leaf_vector":"0"}},{"base_weights":[5.181168E-5,4.340614E-3,-1.439289E-3,-7.4607916E-3,8.029207E-3,-1.4011453E-2,-4.39207E-4,6.307321E-3,-2.2232676E-2,-7.722713E-3,1.3467723E-2,-3.44019E-3,-2.7010519E-2,6.4932443E-3,-2.9211622E-3,-1.6155478E-5,1.9859936E-2,-1.09830545E-2,-4.1555822E-2,2.8938375E-2,-1.0918356E-2,1.8863855E-2,-3.7315097E-3,3.3603103E-3,-2.1001494E-2,-5.744046E-3,-3.3620674E-2,-6.7416243E-3,1.0979774E-2,2.6891036E-3,-7.825579E-3,7.928371E-3,-4.3480652E-3,2.2599867E-2,1.7101802E-3,-3.311399E-3,-2.0660028E-2,-6.275161E-3,-6.6447526E-2,-1.4923824E-2,5.5188644E-3,3.1971045E-2,6.9234683E-3,-1.0392386E-2,1.7983183E-2,-2.1557445E-3,9.145834E-3,-9.480317E-3,-2.4392001E-2,-7.638268E-3,9.164214E-4,-1.0585379E-2,-4.0122952E-2,-2.4514183E-2,4.258992E-3,1.8616432E-2,2.9294174E-3,-3.7686483E-3,1.3191947E-2,-1.1000396E-2,1.5331086E-2,9.945798E-3,-1.0793805E-3,-5.2303926E-4,-8.833488E-3,-6.925548E-3,2.9376745E-3,-6.213844E-3,-2.2306496E-2,-1.6543269E-4,-8.256593E-3,-8.282192E-3,-2.8832221E-2,-2.6004873E-3,1.22585E-2,9.511204E-3,4.481044E-2,1.0107701E-2,-3.5717964E-2,-1.681526E-2,6.326385E-3,4.863262E-3,1.9634515E-2,-3.1568296E-3,2.9264688E-3,1.1635746E-2,-4.1417778E-3,-4.2906642E-2,-8.926712E-3,-5.2799106E-2,-3.771834E-3,-3.2452596E-3,1.379144E-2,3.9324522E-4,2.5783347E-2,-7.462882E-4,4.0791973E-2,-1.0471999E-2,1.51972445E-2,2.9650727E-2,-3.1614518E-3,-1.4049147E-3,-1.9654084E-2,3.2497063E-2,-1.8771509E-2],"categories":[],"categories_nodes":[],"categories_segments":[],"categories_sizes":[],"default_left":[1,1,1,1,1,1,1,1,1,1,1,1,1,1,1,1,1,1,1,0,1,1,1,1,1,1,1,1,1,1,1,1,1,0,0,1,1,1,0,1,1,1,1,1,1,1,1,0,0,0,0,0,1,1,1,1,1,1,1,1,1,0,0,0,0,0,0,0,0,0,0,0,0,0,0,0,0,0,0,0,0,0,0,0,0,0,0,0,0,0,0,0,0,0,0,0,0,0,0,0,0,0,0,0,0],"id":49,"left_children":[1,3,5,7,9,11,13,15,17,19,21,23,25,27,29,31,33,35,37,-1,39,41,43,45,47,49,51,53,55,57,59,61,63,-1,-1,65,67,69,-1,71,73,75,77,79,81,83,85,-1,-1,-1,-1,-1,87,89,91,93,95,97,99,101,103,-1,-1,-1,-1,-1,-1,-1,-1,-1,-1,-1,-1,-1,-1,-1,-1,-1,-1,-1,-1,-1,-1,-1,-1,-1,-1,-1,-1,-1,-1,-1,-1,-1,-1,-1,-1,-1,-1,-1,-1,-1,-1,-1,-1],"loss_changes":[4.214181E-3,7.4601024E-3,6.142138E-3,8.478848E-3,1.1240726E-2,4.854074E-3,7.830507E-3,1.8857131E-3,3.8911533E-3,4.299254E-3,9.072896E-3,2.5785102E-3,2.0560762E-3,7.199458E-3,9.238595E-3,5.851126E-4,3.0945358E-4,9.7092404E-4,5.7304017E-3,0E0,2.1892027E-3,1.1360014E-2,3.658221E-3,5.3032825E-4,3.1320378E-6,7.008189E-5,1.3726661E-3,6.1651883E-3,5.4784697E-3,1.0698201E-2,1.33283995E-2,1.1977012E-4,1.841052E-4,0E0,0E0,2.2361075E-4,4.1020103E-6,4.705813E-5,0E0,2.1629422E-3,4.1492836E-4,9.666778E-3,5.792236E-3,2.1466482E-3,3.450422E-5,5.5027926E-5,3.1287264E-4,0E0,0E0,0E0,0E0,0E0,3.9855205E-4,6.8411995E-3,1.4754345E-3,5.9976447E-3,6.293165E-3,1.2618378E-2,1.624316E-2,1.3092119E-2,1.3488915E-2,0E0,0E0,0E0,0E0,0E0,0E0,0E0,0E0,0E0,0E0,0E0,0E0,0E0,0E0,0E0,0E0,0E0,0E0,0E0,0E0,0E0,0E0,0E0,0E0,0E0,0E0,0E0,0E0,0E0,0E0,0E0,0E0,0E0,0E0,0E0,0E0,0E0,0E0,0E0,0E0,0E0,0E0,0E0,0E0],"parents":[2147483647,0,0,1,1,2,2,3,3,4,4,5,5,6,6,7,7,8,8,9,9,10,10,11,11,12,12,13,13,14,14,15,15,16,16,17,17,18,18,20,20,21,21,22,22,23,23,24,24,25,25,26,26,27,27,28,28,29,29,30,30,31,31,32,32,35,35,36,36,37,37,39,39,40,40,41,41,42,42,43,43,44,44,45,45,46,46,52,52,53,53,54,54,55,55,56,56,57,57,58,58,59,59,60,60],"right_children":[2,4,6,8,10,12,14,16,18,20,22,24,26,28,30,32,34,36,38,-1,40,42,44,46,48,50,52,54,56,58,60,62,64,-1,-1,66,68,70,-1,72,74,76,78,80,82,84,86,-1,-1,-1,-1,-1,88,90,92,94,96,98,100,102,104,-1,-1,-1,-1,-1,-1,-1,-1,-1,-1,-1,-1,-1,-1,-1,-1,-1,-1,-1,-1,-1,-1,-1,-1,-1,-1,-1,-1,-1,-1,-1,-1,-1,-1,-1,-1,-1,-1,-1,-1,-1,-1,-1,-1],"split_conditions":[-6.231929E-1,-9.171431E-1,-1.9840956E0,-2.4587877E-1,-6.911021E-1,2.2303888E-1,-6.0424423E-1,3.27684E-1,3.6546063E-1,-2.1833622E0,8.457821E-1,5.951992E-1,-6.077295E-1,-1.0186737E0,-2.4593603E-2,-9.016839E-1,1.2030088E0,1.819895E-1,1.477688E-1,8.681513E-3,1.6689835E0,5.894462E-2,2.1573648E0,1.0388765E-1,-2.6737648E-1,1.6335053E-3,-6.507145E-1,-5.422902E-1,-7.369478E-2,1.2958986E-1,1.3739686E0,1.6912194E0,2.0195912E-1,6.7799604E-3,5.130541E-4,3.3121082E-1,-1.3341633E0,-9.284746E-1,-1.993426E-2,8.500307E-2,-6.7158544E-1,-1.6858146E-1,3.7808313E0,5.5421833E-2,-3.4985095E-1,3.1166E0,2.099281E0,-2.8440952E-3,-7.317601E-3,-2.2914805E-3,2.7492642E-4,-3.1756137E-3,2.0198472E0,-5.6999903E-2,1.5523611E-1,-1.3919243E-1,2.55382E0,6.0634017E-1,5.604547E-1,-1.7169595E-1,1.0762446E0,2.9837394E-3,-3.2381417E-4,-1.5691179E-4,-2.6500467E-3,-2.0776645E-3,8.813024E-4,-1.8641532E-3,-6.691949E-3,-4.962981E-5,-2.4769779E-3,-2.4846578E-3,-8.649667E-3,-7.801462E-4,3.67755E-3,2.8533614E-3,1.3443133E-2,3.0323104E-3,-1.071539E-2,-5.044578E-3,1.8979155E-3,1.4589787E-3,5.890355E-3,-9.4704895E-4,8.779407E-4,3.490724E-3,-1.2425333E-3,-1.2871993E-2,-2.6780136E-3,-1.5839733E-2,-1.1315503E-3,-9.735779E-4,4.137432E-3,1.1797357E-4,7.735004E-3,-2.2388647E-4,1.2237593E-2,-3.1415997E-3,4.5591737E-3,8.895218E-3,-9.4843557E-4,-4.2147443E-4,-5.8962256E-3,9.749119E-3,-5.631453E-3],"split_indices":[55,23,50,44,1,4,12,14,24,46,13,25,37,36,35,29,6,27,2,0,11,5,13,44,6,0,9,40,0,46,46,0,52,0,0,42,3,1,0,16,4,10,19,44,1,9,0,0,0,0,0,0,11,5,2,44,59,40,46,46,45,0,0,0,0,0,0,0,0,0,0,0,0,0,0,0,0,0,0,0,0,0,0,0,0,0,0,0,0,0,0,0,0,0,0,0,0,0,0,0,0,0,0,0,0],"split_type":[0,0,0,0,0,0,0,0,0,0,0,0,0,0,0,0,0,0,0,0,0,0,0,0,0,0,0,0,0,0,0,0,0,0,0,0,0,0,0,0,0,0,0,0,0,0,0,0,0,0,0,0,0,0,0,0,0,0,0,0,0,0,0,0,0,0,0,0,0,0,0,0,0,0,0,0,0,0,0,0,0,0,0,0,0,0,0,0,0,0,0,0,0,0,0,0,0,0,0,0,0,0,0,0,0],"sum_hessian":[6.57E2,1.69E2,4.88E2,4E1,1.29E2,3.5E1,4.53E2,2.1E1,1.9E1,3.3E1,9.6E1,2E1,1.5E1,1.19E2,3.34E2,1.5E1,6E0,1.3E1,6E0,2E0,3.1E1,7.3E1,2.3E1,1.5E1,5E0,4E0,1.1E1,3E1,8.9E1,1.56E2,1.78E2,5E0,1E1,5E0,1E0,8E0,5E0,3E0,3E0,2.5E1,6E0,3.4E1,3.9E1,1.8E1,5E0,8E0,7E0,2E0,3E0,3E0,1E0,3E0,8E0,1.1E1,1.9E1,4.5E1,4.4E1,9.7E1,5.9E1,1.57E2,2.1E1,4E0,1E0,6E0,4E0,5E0,3E0,1E0,4E0,1E0,2E0,1.8E1,7E0,3E0,3E0,1.3E1,2.1E1,3.7E1,2E0,1.3E1,5E0,1E0,4E0,7E0,1E0,6E0,1E0,7E0,1E0,4E0,7E0,1.1E1,8E0,1.3E1,3.2E1,4.1E1,3E0,7.2E1,2.5E1,2.9E1,3E1,7.5E1,8.2E1,1.4E1,7E0],"tree_param":{"num_deleted":"0","num_feature":"60","num_nodes":"105","size_leaf_vector":"0"}},{"base_weights":[-5.233446E-6,-5.540409E-3,1.0557681E-3,1.149323E-2,-8.696314E-3,8.12403E-3,-5.2248844E-4,4.187044E-3,1.918931E-2,-7.0675337E-3,-5.35751E-2,2.1512741E-2,2.4325664E-3,-1.3063135E-2,4.2969914E-4,-1.4935009E-3,8.222991E-3,2.609632E-2,9.825838E-3,3.4439683E-2,-7.940487E-3,-6.1658323E-3,-7.4196815E-2,2.9931461E-2,-5.3801723E-3,-2.3743955E-3,2.0857314E-2,4.499815E-3,-3.0907322E-2,-1.323146E-2,1.5089498E-3,1.170516E-3,-2.4521342E-3,-2.2007357E-3,-1.376254E-2,1.0869545E-2,4.973814E-2,9.549439E-3,-1.1948283E-2,8.7750545E-3,-1.1086859E-2,-5.600968E-3,3.0987687E-2,-2.423667E-2,1.8493071E-2,-4.3721788E-2,-2.2629176E-3,-3.322516E-2,3.0542756E-3,4.0632067E-3,-5.6034457E-3,3.572208E-3,-6.9619794E-3,-2.0608233E-2,3.6204623E-3,-5.0149858E-5,2.8351087E-2,2.2674615E-2,6.851198E-2,-3.5184175E-3,-1.2930572E-2,2.0679532E-2,-6.8367966E-3,-1.8495865E-2,5.412596E-3,2.301057E-3,-1.1636004E-2,4.1636486E-2,9.88183E-3,3.888801E-2,7.3738685E-3,-5.429277E-2,-2.0178057E-2,1.8466242E-2,-1.0101998E-2,-6.2425137E-3,-5.9316017E-2,1.2166318E-2,-3.8503255E-3,5.01184E-3,-2.2904852E-2,-8.208222E-3,1.9702269E-2],"categories":[],"categories_nodes":[],"categories_segments":[],"categories_sizes":[],"default_left":[1,1,1,1,1,1,1,1,1,1,1,1,1,1,1,1,0,0,0,0,1,0,0,1,1,1,1,1,1,1,1,0,0,1,1,1,1,0,1,1,1,1,1,0,1,1,1,1,1,1,1,0,0,0,0,0,0,0,0,0,0,0,0,0,0,0,0,0,0,0,0,0,0,0,0,0,0,0,0,0,0,0,0],"id":50,"left_children":[1,3,5,7,9,11,13,15,17,19,21,23,25,27,29,31,-1,-1,-1,-1,33,-1,-1,35,37,39,41,43,45,47,49,-1,-1,51,53,55,57,-1,59,61,63,65,67,-1,69,71,73,75,77,79,81,-1,-1,-1,-1,-1,-1,-1,-1,-1,-1,-1,-1,-1,-1,-1,-1,-1,-1,-1,-1,-1,-1,-1,-1,-1,-1,-1,-1,-1,-1,-1,-1],"loss_changes":[3.8701715E-3,5.798143E-3,6.173253E-3,8.7554613E-4,6.2001473E-3,7.644007E-3,5.414908E-3,2.4154483E-4,2.609708E-4,3.4620464E-3,2.4754964E-3,6.953153E-3,6.426352E-3,1.0167768E-2,6.2418557E-3,1.5639336E-5,0E0,0E0,0E0,0E0,2.8770026E-3,0E0,0E0,8.143095E-3,8.985741E-4,5.7313596E-3,4.194045E-3,7.2842E-3,5.774064E-3,1.0195454E-2,7.1441866E-3,0E0,0E0,1.2617573E-3,5.1915552E-3,2.4830322E-3,4.0354636E-3,0E0,4.188216E-6,4.9735056E-3,4.134181E-3,2.6522012E-4,2.0608269E-3,0E0,2.4345508E-3,1.642162E-3,1.1615311E-3,9.485724E-3,1.1793146E-3,7.508226E-3,7.0169545E-3,0E0,0E0,0E0,0E0,0E0,0E0,0E0,0E0,0E0,0E0,0E0,0E0,0E0,0E0,0E0,0E0,0E0,0E0,0E0,0E0,0E0,0E0,0E0,0E0,0E0,0E0,0E0,0E0,0E0,0E0,0E0,0E0],"parents":[2147483647,0,0,1,1,2,2,3,3,4,4,5,5,6,6,7,7,8,8,9,9,10,10,11,11,12,12,13,13,14,14,15,15,20,20,23,23,24,24,25,25,26,26,27,27,28,28,29,29,30,30,33,33,34,34,35,35,36,36,38,38,39,39,40,40,41,41,42,42,44,44,45,45,46,46,47,47,48,48,49,49,50,50],"right_children":[2,4,6,8,10,12,14,16,18,20,22,24,26,28,30,32,-1,-1,-1,-1,34,-1,-1,36,38,40,42,44,46,48,50,-1,-1,52,54,56,58,-1,60,62,64,66,68,-1,70,72,74,76,78,80,82,-1,-1,-1,-1,-1,-1,-1,-1,-1,-1,-1,-1,-1,-1,-1,-1,-1,-1,-1,-1,-1,-1,-1,-1,-1,-1,-1,-1,-1,-1,-1,-1],"split_conditions":[-1.0703499E0,-1.656218E0,-3.5132983E-1,3.9193273E-1,2.229723E0,-3.7501755E-1,-2.4831791E-1,-5.4554725E-1,-3.4592807E-1,-6.1542244E0,-1.7098666E0,9.9524426E-1,-4.36208E-1,5.1610902E-2,-2.029457E0,-1.1584505E0,2.4668972E-3,7.828896E-3,2.9477514E-3,1.0331905E-2,-2.1462744E-1,-1.8497497E-3,-2.2259045E-2,-3.9966246E-1,-1.7819446E-1,-5.644802E-2,-3.4047192E-1,-2.4402325E-1,1.0429938E-1,8.212641E-3,5.8953035E-1,3.5115483E-4,-7.356403E-4,-5.2552573E-2,6.092774E-1,-4.205746E-2,7.192785E-2,2.8648318E-3,-7.4997014E-1,4.1892582E-1,3.53589E-1,3.7944797E-1,4.7487015E-1,-7.271001E-3,-9.413743E-1,9.309469E-1,8.038421E-3,-2.2062597E-1,5.2892834E-1,3.0066242E0,1.7924709E0,1.0716625E-3,-2.088594E-3,-6.1824704E-3,1.0861388E-3,-1.5044958E-5,8.505327E-3,6.8023847E-3,2.0553594E-2,-1.0555253E-3,-3.8791718E-3,6.2038596E-3,-2.0510391E-3,-5.54876E-3,1.6237788E-3,6.9031713E-4,-3.4908012E-3,1.2490946E-2,2.964549E-3,1.1666404E-2,2.2121607E-3,-1.6287832E-2,-6.0534175E-3,5.5398727E-3,-3.0305996E-3,-1.8727542E-3,-1.7794807E-2,3.6498953E-3,-1.1550977E-3,1.503552E-3,-6.871456E-3,-2.4624667E-3,5.910681E-3],"split_indices":[42,27,42,55,22,23,42,48,14,16,0,51,42,32,23,0,0,0,0,0,8,0,0,25,2,40,13,18,16,28,4,0,0,22,21,0,17,0,3,59,33,5,13,0,59,8,0,35,39,0,42,0,0,0,0,0,0,0,0,0,0,0,0,0,0,0,0,0,0,0,0,0,0,0,0,0,0,0,0,0,0,0,0],"split_type":[0,0,0,0,0,0,0,0,0,0,0,0,0,0,0,0,0,0,0,0,0,0,0,0,0,0,0,0,0,0,0,0,0,0,0,0,0,0,0,0,0,0,0,0,0,0,0,0,0,0,0,0,0,0,0,0,0,0,0,0,0,0,0,0,0,0,0,0,0,0,0,0,0,0,0,0,0,0,0,0,0,0,0],"sum_hessian":[6.57E2,1.05E2,5.52E2,1.6E1,8.9E1,1E2,4.52E2,9E0,7E0,8.7E1,2E0,2.9E1,7.1E1,3.1E1,4.21E2,4E0,5E0,3E0,4E0,1E0,8.6E1,1E0,1E0,2.2E1,7E0,5.7E1,1.4E1,1.6E1,1.5E1,3E1,3.91E2,1E0,3E0,4.4E1,4.2E1,1.2E1,1E1,2E0,5E0,2.5E1,3.2E1,4E0,1E1,5E0,1.1E1,1E1,5E0,1.3E1,1.7E1,2.88E2,1.03E2,2E1,2.4E1,3E1,1.2E1,8E0,4E0,5E0,5E0,1E0,4E0,1.4E1,1.1E1,2.2E1,1E1,2E0,2E0,6E0,4E0,3E0,8E0,6E0,4E0,1E0,4E0,7E0,6E0,7E0,1E1,2.79E2,9E0,9.4E1,9E0],"tree_param":{"num_deleted":"0","num_feature":"60","num_nodes":"83","size_leaf_vector":"0"}},{"base_weights":[7.448246E-6,4.0776968E-2,-1.1667122E-4,-1.9663705E-3,2.5418473E-3,-5.932047E-4,-1.672033E-2,1.1840391E-2,-4.0449828E-4,-4.6982984E-3,4.1872268E-3,-5.325141E-3,-5.166465E-2,2.1819746E-2,-5.2951556E-4,-7.6629394E-3,4.078481E-3,-1.2332227E-2,-1.0494287E-3,-2.7880133E-3,1.0472937E-2,-1.48743475E-2,1.8019866E-2,-6.9871336E-2,-2.6766371E-2,1.2407508E-2,5.321164E-2,1.7747791E-2,-9.20778E-3,8.071976E-3,-1.3877678E-2,1.4131749E-2,-1.9293631E-3,-1.7916769E-2,6.3604563E-3,-8.48853E-3,4.445823E-3,-1.158986E-3,-4.3670375E-2,-1.049829E-3,1.8248832E-2,-1.925795E-2,1.2513311E-3,4.0956587E-4,2.8504133E-2,4.184479E-3,3.34699E-2,6.7729115E-2,2.1761887E-2,2.801583E-2,9.344941E-3,1.6164147E-4,-2.7969714E-2,1.3279629E-2,-1.9984286E-2,-8.333177E-3,-3.630621E-2,4.597507E-2,7.5737415E-3,-3.2321636E-2,2.3185825E-3],"categories":[],"categories_nodes":[],"categories_segments":[],"categories_sizes":[],"default_left":[1,0,1,1,1,1,1,1,1,1,1,1,1,1,1,1,1,1,1,1,1,1,1,0,0,1,1,1,1,1,1,1,1,0,0,0,0,0,0,0,0,0,0,0,0,0,0,0,0,0,0,0,0,0,0,0,0,0,0,0,0],"id":51,"left_children":[1,-1,3,5,7,9,11,13,15,17,19,21,23,25,27,29,31,33,35,37,39,41,43,-1,-1,45,47,49,51,53,55,57,59,-1,-1,-1,-1,-1,-1,-1,-1,-1,-1,-1,-1,-1,-1,-1,-1,-1,-1,-1,-1,-1,-1,-1,-1,-1,-1,-1,-1],"loss_changes":[3.3344289E-3,0E0,3.235769E-3,7.850817E-3,7.4019046E-3,7.0058587E-3,1.2865384E-2,8.035393E-3,6.7343777E-3,5.335259E-3,7.2635137E-3,6.0641174E-3,1.7563179E-3,9.976624E-3,4.9218764E-3,7.837303E-3,7.7582686E-3,6.5861437E-3,5.392984E-3,5.210667E-3,7.814342E-3,1.3671806E-3,1.4653746E-3,0E0,0E0,4.882649E-3,2.178656E-3,6.0100155E-4,3.6960791E-3,3.6258516E-3,6.78569E-3,9.675577E-3,1.0532423E-2,0E0,0E0,0E0,0E0,0E0,0E0,0E0,0E0,0E0,0E0,0E0,0E0,0E0,0E0,0E0,0E0,0E0,0E0,0E0,0E0,0E0,0E0,0E0,0E0,0E0,0E0,0E0,0E0],"parents":[2147483647,0,0,2,2,3,3,4,4,5,5,6,6,7,7,8,8,9,9,10,10,11,11,12,12,13,13,14,14,15,15,16,16,17,17,18,18,19,19,20,20,21,21,22,22,25,25,26,26,27,27,28,28,29,29,30,30,31,31,32,32],"right_children":[2,-1,4,6,8,10,12,14,16,18,20,22,24,26,28,30,32,34,36,38,40,42,44,-1,-1,46,48,50,52,54,56,58,60,-1,-1,-1,-1,-1,-1,-1,-1,-1,-1,-1,-1,-1,-1,-1,-1,-1,-1,-1,-1,-1,-1,-1,-1,-1,-1,-1,-1],"split_conditions":[-6.1542244E0,1.2233091E-2,1.3888872E-1,5.4871913E-2,3.814655E-1,7.729843E-2,5.1305985E-1,1.5972003E-1,-2.199072E-1,-3.015181E-1,-6.90303E-1,1.1951831E-1,-4.759366E-1,5.413834E-1,-3.071165E-1,-4.6737903E-1,-3.9543545E-1,7.2163427E-1,-1.8438442E-1,2.5185442E0,-5.6443356E-2,9.9755955E-1,1.2291169E-1,-2.0961402E-2,-8.029912E-3,3.0418748E-1,3.910648E-1,-2.5463396E-1,5.830101E-1,1.508087E0,8.7838745E-1,-9.7913253E-1,4.5707086E-1,-5.375031E-3,1.908137E-3,-2.546559E-3,1.333747E-3,-3.476958E-4,-1.3101113E-2,-3.149487E-4,5.47465E-3,-5.777385E-3,3.7539934E-4,1.2286977E-4,8.55124E-3,1.2553437E-3,1.00409705E-2,2.0318735E-2,6.528566E-3,8.404749E-3,2.8034823E-3,4.8492442E-5,-8.390915E-3,3.983889E-3,-5.995286E-3,-2.4999534E-3,-1.0891863E-2,1.3792521E-2,2.2721225E-3,-9.696491E-3,6.955748E-4],"split_indices":[25,0,26,26,26,50,53,59,13,18,26,58,33,55,33,30,5,40,12,0,17,0,2,0,0,26,4,3,37,12,14,11,26,0,0,0,0,0,0,0,0,0,0,0,0,0,0,0,0,0,0,0,0,0,0,0,0,0,0,0,0],"split_type":[0,0,0,0,0,0,0,0,0,0,0,0,0,0,0,0,0,0,0,0,0,0,0,0,0,0,0,0,0,0,0,0,0,0,0,0,0,0,0,0,0,0,0,0,0,0,0,0,0,0,0,0,0,0,0,0,0,0,0,0,0],"sum_hessian":[6.57E2,1E0,6.56E2,3.87E2,2.69E2,3.55E2,3.2E1,6.4E1,2.05E2,1.91E2,1.64E2,2.5E1,7E0,3.5E1,2.9E1,7.8E1,1.27E2,6.1E1,1.3E2,7.8E1,8.6E1,1.8E1,7E0,3E0,4E0,2.8E1,7E0,9E0,2E1,2.2E1,5.6E1,4.7E1,8E1,4.7E1,1.4E1,5.5E1,7.5E1,7.6E1,2E0,3.5E1,5.1E1,1.4E1,4E0,3E0,4E0,2.1E1,7E0,4E0,3E0,3E0,6E0,1.4E1,6E0,1.9E1,3E0,4.6E1,1E1,7E0,4E1,9E0,7.1E1],"tree_param":{"num_deleted":"0","num_feature":"60","num_nodes":"61","size_leaf_vector":"0"}},{"base_weights":[1.4659302E-5,8.635243E-4,-5.9586307E-3,5.060691E-3,-7.0374086E-4,7.4029705E-3,-1.3809612E-2,8.38977E-3,-3.960352E-3,-2.548357E-3,6.9532497E-3,-1.32586695E-2,1.7873213E-2,-4.526983E-2,-8.721978E-3,-1.4075799E-3,1.5182168E-2,3.8593546E-3,-1.2336205E-2,-4.448643E-3,9.104396E-3,4.2121955E-3,3.571995E-2,4.935026E-3,-2.0698184E-2,5.2221394E-3,3.7778437E-2,-9.357959E-3,-6.986424E-2,7.990047E-3,-1.3003013E-2,-7.349739E-3,1.2155152E-2,2.4135035E-2,4.3559736E-3,-8.282973E-3,7.692389E-3,-1.994649E-2,2.7118458E-5,2.0995617E-3,-7.7503026E-3,-7.864739E-3,1.3776925E-2,-3.994276E-3,9.360747E-3,5.3182255E-2,1.8098574E-2,6.685853E-3,-1.5872717E-4,-1.1365721E-2,-2.7189218E-2,-7.864924E-3,1.1243457E-2,5.2343026E-2,1.8571079E-2,-8.29792E-3,1.6156022E-2,5.7162475E-3,-1.8364059E-2,1.0407008E-3,-1.8047009E-2,1.3243303E-3,2.8180663E-2,2.4065669E-3,3.884051E-2,-2.3157243E-4,2.077315E-2,-5.8921176E-4,-1.1982552E-2,1.7417863E-2,2.6119864E-3,-2.4812218E-2,-7.198879E-3,-1.4177024E-2,6.1107343E-3,2.8518623E-2,8.845448E-5,-3.7413246E-3,-1.6495578E-2,-9.93656E-5,-2.14293E-2,2.7580152E-3,2.2565661E-2,2.956223E-3,-1.4666376E-2,3.618358E-2,5.306039E-3,-8.716965E-3,-2.2283792E-3,4.812807E-3,1.4728423E-2,7.96856E-3,2.0304479E-2,-5.4261573E-3,1.219181E-2,-1.7496357E-3,-2.3570938E-2],"categories":[],"categories_nodes":[],"categories_segments":[],"categories_sizes":[],"default_left":[1,1,1,1,1,1,1,1,1,1,1,1,1,1,1,1,1,1,1,1,1,1,1,1,1,1,1,0,0,1,1,1,1,1,1,1,1,1,1,1,1,1,1,1,1,0,0,0,0,0,0,1,1,0,0,0,1,1,1,0,0,0,0,0,0,0,0,0,0,0,0,0,0,0,0,0,0,0,0,0,0,0,0,0,0,0,0,0,0,0,0,0,0,0,0,0,0],"id":52,"left_children":[1,3,5,7,9,11,13,15,17,19,21,23,25,27,29,31,33,35,37,39,41,43,45,47,49,51,53,-1,-1,55,57,59,61,63,65,67,69,71,73,75,77,79,81,83,85,-1,-1,-1,-1,-1,-1,87,89,-1,-1,-1,91,93,95,-1,-1,-1,-1,-1,-1,-1,-1,-1,-1,-1,-1,-1,-1,-1,-1,-1,-1,-1,-1,-1,-1,-1,-1,-1,-1,-1,-1,-1,-1,-1,-1,-1,-1,-1,-1,-1,-1],"loss_changes":[3.3415458E-3,3.7991095E-3,8.704171E-3,4.7482136E-3,5.9640114E-3,6.943278E-3,7.928176E-3,7.6743327E-3,2.8639685E-3,7.569315E-3,6.3153296E-3,1.591021E-3,5.0909864E-3,5.5288337E-3,3.3949534E-3,3.9577484E-3,6.485801E-3,1.1341809E-3,1.9763974E-3,6.3509154E-3,3.914213E-3,3.2484992E-3,1.1914466E-3,3.6734353E-5,1.7559365E-4,1.191648E-3,1.2659123E-3,0E0,0E0,1.4641327E-3,3.8181012E-3,3.0704448E-3,2.5662216E-3,1.1729043E-2,2.4148761E-3,1.637218E-4,8.4387267E-4,6.2772306E-4,8.6434494E-4,5.2575027E-3,6.77491E-3,1.1565434E-3,3.61777E-3,2.2686496E-3,4.919671E-3,0E0,0E0,0E0,0E0,0E0,0E0,4.5881607E-6,1.5322096E-4,0E0,0E0,0E0,7.595983E-5,7.1553467E-4,2.467529E-3,0E0,0E0,0E0,0E0,0E0,0E0,0E0,0E0,0E0,0E0,0E0,0E0,0E0,0E0,0E0,0E0,0E0,0E0,0E0,0E0,0E0,0E0,0E0,0E0,0E0,0E0,0E0,0E0,0E0,0E0,0E0,0E0,0E0,0E0,0E0,0E0,0E0,0E0],"parents":[2147483647,0,0,1,1,2,2,3,3,4,4,5,5,6,6,7,7,8,8,9,9,10,10,11,11,12,12,13,13,14,14,15,15,16,16,17,17,18,18,19,19,20,20,21,21,22,22,23,23,24,24,25,25,26,26,29,29,30,30,31,31,32,32,33,33,34,34,35,35,36,36,37,37,38,38,39,39,40,40,41,41,42,42,43,43,44,44,51,51,52,52,56,56,57,57,58,58],"right_children":[2,4,6,8,10,12,14,16,18,20,22,24,26,28,30,32,34,36,38,40,42,44,46,48,50,52,54,-1,-1,56,58,60,62,64,66,68,70,72,74,76,78,80,82,84,86,-1,-1,-1,-1,-1,-1,88,90,-1,-1,-1,92,94,96,-1,-1,-1,-1,-1,-1,-1,-1,-1,-1,-1,-1,-1,-1,-1,-1,-1,-1,-1,-1,-1,-1,-1,-1,-1,-1,-1,-1,-1,-1,-1,-1,-1,-1,-1,-1,-1,-1],"split_conditions":[1.3798411E0,-5.835844E-1,-4.953227E-1,6.096606E-1,7.1340775E-1,-3.307057E-1,-1.6514665E0,-2.5113195E-1,3.0411389E-2,1.1294111E0,1.2032273E0,-4.4537723E-1,3.3004877E-1,-8.46574E-1,-8.113495E-1,3.1702888E-1,3.365137E-1,-5.031903E-2,1.1514364E-1,-2.859283E-1,-7.0619017E-1,-3.6976343E-1,-3.2172748E-1,-4.7827265E-1,3.589834E-1,-6.59035E-1,-4.3571436E-1,-2.8073878E-3,-2.0959273E-2,-1.1900915E0,-5.1115316E-1,3.0049874E-2,4.7313166E-1,-2.4756204E-2,3.615465E-1,-1.3938284E0,-3.1742007E-1,5.847204E-1,-1.049998E0,-1.5904968E0,2.676134E-1,2.5616562E-1,2.962238E-1,-6.470517E-2,-1.8438442E-1,1.5954677E-2,5.4295724E-3,2.005756E-3,-4.7618152E-5,-3.4097165E-3,-8.156765E-3,-1.3953936E0,-9.1940343E-1,1.5702909E-2,5.571324E-3,-2.489376E-3,6.6991076E-2,-1.8895521E0,-6.4910996E-1,3.1221026E-4,-5.4141027E-3,3.9729913E-4,8.454199E-3,7.219701E-4,1.1652153E-2,-6.947173E-5,6.2319455E-3,-1.7676354E-4,-3.5947657E-3,5.225359E-3,7.8359595E-4,-7.4436655E-3,-2.1596637E-3,-4.2531076E-3,1.8332204E-3,8.555587E-3,2.6536345E-5,-1.1223975E-3,-4.948674E-3,-2.980968E-5,-6.4287903E-3,8.274046E-4,6.7696986E-3,8.8686694E-4,-4.399913E-3,1.0855075E-2,1.5918118E-3,-2.6150895E-3,-6.685138E-4,1.4438421E-3,4.4185272E-3,2.3905681E-3,6.0913437E-3,-1.6278472E-3,3.657543E-3,-5.248907E-4,-7.071282E-3],"split_indices":[23,8,35,18,37,20,8,29,27,51,26,41,14,7,34,38,51,35,44,29,15,11,9,0,3,32,5,0,0,45,40,12,2,0,18,1,21,39,4,0,46,3,8,51,11,0,0,0,0,0,0,0,40,0,0,0,12,2,49,0,0,0,0,0,0,0,0,0,0,0,0,0,0,0,0,0,0,0,0,0,0,0,0,0,0,0,0,0,0,0,0,0,0,0,0,0,0],"split_type":[0,0,0,0,0,0,0,0,0,0,0,0,0,0,0,0,0,0,0,0,0,0,0,0,0,0,0,0,0,0,0,0,0,0,0,0,0,0,0,0,0,0,0,0,0,0,0,0,0,0,0,0,0,0,0,0,0,0,0,0,0,0,0,0,0,0,0,0,0,0,0,0,0,0,0,0,0,0,0,0,0,0,0,0,0,0,0,0,0,0,0,0,0,0,0,0,0],"sum_hessian":[6.57E2,5.76E2,8.1E1,1.56E2,4.2E2,3E1,5.1E1,1.14E2,4.2E1,3.39E2,8.1E1,1E1,2E1,6E0,4.5E1,4.7E1,6.7E1,2.2E1,2E1,2.92E2,4.7E1,7.5E1,6E0,3E0,7E0,1.3E1,7E0,3E0,3E0,9E0,3.6E1,3.3E1,1.4E1,3.6E1,3.1E1,5E0,1.7E1,1.2E1,8E0,9.8E1,1.94E2,1E1,3.7E1,2.9E1,4.6E1,2E0,4E0,2E0,1E0,4E0,3E0,4E0,9E0,3E0,4E0,3E0,6E0,8E0,2.8E1,1.9E1,1.4E1,9E0,5E0,1.5E1,2.1E1,2.5E1,6E0,2E0,3E0,5E0,1.2E1,8E0,4E0,2E0,6E0,6E0,9.2E1,1.34E2,6E1,7E0,3E0,1.7E1,2E1,1.8E1,1.1E1,5E0,4.1E1,3E0,1E0,4E0,5E0,3E0,3E0,3E0,5E0,7E0,2.1E1],"tree_param":{"num_deleted":"0","num_feature":"60","num_nodes":"97","size_leaf_vector":"0"}},{"base_weights":[6.7058085E-5,3.5221696E-2,-4.0059622E-5,1.2415844E-4,-2.1478927E-2,-8.925773E-4,3.3151505E-3,-3.3592135E-3,-4.697889E-2,-2.6824884E-4,-2.4068145E-2,2.1342654E-3,2.8483639E-2,-6.5171323E-3,3.0572712E-3,-4.8015732E-4,3.3867795E-2,2.0102093E-3,-4.6708193E-2,-1.2916416E-3,9.583973E-3,3.4703493E-2,1.5142873E-2,1.3057153E-3,-3.95097E-3,-3.861323E-3,7.379189E-3,-5.1374674E-2,-9.354658E-3,-7.994211E-3,4.2775823E-3,1.8161528E-2,-8.706231E-3],"categories":[],"categories_nodes":[],"categories_segments":[],"categories_sizes":[],"default_left":[1,0,1,1,1,1,1,1,0,1,1,1,1,0,0,1,0,1,1,1,1,0,0,0,0,0,0,0,0,0,0,0,0],"id":53,"left_children":[1,-1,3,5,7,9,11,13,-1,15,17,19,21,-1,-1,23,-1,25,27,29,31,-1,-1,-1,-1,-1,-1,-1,-1,-1,-1,-1,-1],"loss_changes":[2.4792312E-3,0E0,2.3157336E-3,2.1215496E-3,2.152448E-3,7.1702506E-3,4.635141E-3,1.0097558E-4,0E0,3.517381E-3,7.769291E-3,3.8917237E-3,5.5333134E-5,0E0,0E0,2.9928014E-3,0E0,2.491624E-4,7.395735E-4,3.953648E-3,7.6886094E-3,0E0,0E0,0E0,0E0,0E0,0E0,0E0,0E0,0E0,0E0,0E0,0E0],"parents":[2147483647,0,0,2,2,3,3,4,4,5,5,6,6,7,7,9,9,10,10,11,11,12,12,15,15,17,17,18,18,19,19,20,20],"right_children":[2,-1,4,6,8,10,12,14,-1,16,18,20,22,-1,-1,24,-1,26,28,30,32,-1,-1,-1,-1,-1,-1,-1,-1,-1,-1,-1,-1],"split_conditions":[-6.1542244E0,1.0566509E-2,4.453026E0,6.5893805E-1,1.9094752E0,5.8316123E-1,2.5200508E0,-7.568365E-1,-1.4093668E-2,5.5503273E-1,-4.052785E-1,3.95509E-1,-2.6182693E-1,-1.9551397E-3,9.1718143E-4,2.9461607E-1,1.0160339E-2,-1.5720016E-1,3.4588292E-1,-2.1402225E-1,5.446528E-1,1.0411048E-2,4.542862E-3,3.917146E-4,-1.185291E-3,-1.158397E-3,2.2137568E-3,-1.5412402E-2,-2.8063976E-3,-2.3982634E-3,1.2832747E-3,5.4484587E-3,-2.6118692E-3],"split_indices":[25,0,35,9,0,9,13,2,0,9,28,44,6,0,0,53,0,5,6,40,39,0,0,0,0,0,0,0,0,0,0,0,0],"split_type":[0,0,0,0,0,0,0,0,0,0,0,0,0,0,0,0,0,0,0,0,0,0,0,0,0,0,0,0,0,0,0,0,0],"sum_hessian":[6.57E2,1E0,6.56E2,6.52E2,4E0,4.95E2,1.57E2,3E0,1E0,4.83E2,1.2E1,1.51E2,6E0,2E0,1E0,4.81E2,2E0,6E0,6E0,1.04E2,4.7E1,3E0,3E0,3.18E2,1.63E2,3E0,3E0,5E0,1E0,4.7E1,5.7E1,3.2E1,1.5E1],"tree_param":{"num_deleted":"0","num_feature":"60","num_nodes":"33","size_leaf_vector":"0"}},{"base_weights":[5.349425E-5,1.4643717E-2,-1.71399E-4,4.6414314E-3,2.0538336E-2,2.993846E-2,-2.6406616E-4,9.937286E-4,5.304925E-3,-2.0533951E-3,1.4138842E-3,-1.5900527E-3,-3.0369947E-2,1.3807963E-2,5.4100645E-4,-2.7539143E-3,8.607054E-3,-4.5553986E-2,-5.06259E-3,-2.2859974E-3,2.1470878E-2,5.180696E-3,-2.6797515E-3,9.49312E-3,-3.943804E-3,1.24038905E-2,-1.437664E-2,2.2621602E-3,-9.856045E-3,-8.186178E-3,5.6607276E-3,1.5397589E-2,4.0631503E-2,9.923687E-3,-4.5360704E-3,4.8421248E-4,-1.2319733E-2],"categories":[],"categories_nodes":[],"categories_segments":[],"categories_sizes":[],"default_left":[1,1,1,1,0,0,1,0,0,1,1,1,1,1,1,1,1,0,1,1,1,1,1,0,0,0,0,0,0,0,0,0,0,0,0,0,0],"id":54,"left_children":[1,3,5,7,-1,-1,9,-1,-1,11,13,15,17,19,21,23,25,-1,27,29,31,33,35,-1,-1,-1,-1,-1,-1,-1,-1,-1,-1,-1,-1,-1,-1],"loss_changes":[2.1615676E-3,4.942692E-4,1.8187424E-3,6.829483E-6,0E0,0E0,1.9484619E-3,0E0,0E0,4.0714713E-3,3.6167325E-3,3.7027895E-3,1.6907188E-3,2.7622683E-3,4.7060847E-3,4.1032014E-3,2.970817E-3,0E0,1.2762855E-4,4.214366E-4,1.119893E-3,5.9901774E-3,5.6790686E-3,0E0,0E0,0E0,0E0,0E0,0E0,0E0,0E0,0E0,0E0,0E0,0E0,0E0,0E0],"parents":[2147483647,0,0,1,1,2,2,3,3,6,6,9,9,10,10,11,11,12,12,13,13,14,14,15,15,16,16,18,18,19,19,20,20,21,21,22,22],"right_children":[2,4,6,8,-1,-1,10,-1,-1,12,14,16,18,20,22,24,26,-1,28,30,32,34,36,-1,-1,-1,-1,-1,-1,-1,-1,-1,-1,-1,-1,-1,-1],"split_conditions":[-3.6813467E0,-8.277492E-1,-6.1542244E0,2.0818694E-1,6.161501E-3,8.981538E-3,-4.3126434E-2,2.981186E-4,1.5914777E-3,-6.065119E-2,-1.6324748E-3,1.4312994E0,4.7710007E-1,-1.7890255E-1,-1.672398E-1,-1.962622E0,1.5123032E0,-1.3666197E-2,-4.8237824E-1,5.361631E-1,1.6476583E0,3.1719825E-1,4.908678E-1,2.847936E-3,-1.1831413E-3,3.7211673E-3,-4.312992E-3,6.7864807E-4,-2.9568137E-3,-2.4558536E-3,1.6982184E-3,4.6192766E-3,1.2189452E-2,2.9771063E-3,-1.3608212E-3,1.4526375E-4,-3.69592E-3],"split_indices":[49,35,25,2,0,0,59,0,0,59,59,25,1,49,49,16,22,0,0,4,24,29,6,0,0,0,0,0,0,0,0,0,0,0,0,0,0],"split_type":[0,0,0,0,0,0,0,0,0,0,0,0,0,0,0,0,0,0,0,0,0,0,0,0,0,0,0,0,0,0,0,0,0,0,0,0,0],"sum_hessian":[6.57E2,9E0,6.48E2,4E0,5E0,1E0,6.47E2,1E0,3E0,3.13E2,3.34E2,3.09E2,4E0,2.1E1,3.13E2,2.78E2,3.1E1,2E0,2E0,7E0,1.4E1,1.28E2,1.85E2,2.4E1,2.54E2,2.7E1,4E0,1E0,1E0,4E0,3E0,1.2E1,2E0,8.6E1,4.2E1,1.4E2,4.5E1],"tree_param":{"num_deleted":"0","num_feature":"60","num_nodes":"37","size_leaf_vector":"0"}},{"base_weights":[6.218005E-5,-2.018019E-4,1.1391659E-2,1.2056887E-4,-8.911055E-3,2.5804418E-3,1.877892E-2,2.6252962E-4,-2.1878E-2,-1.9349717E-4,-1.6886024E-2,-3.3105805E-3,5.095879E-3,9.993543E-3,3.0090034E-2,-3.8735727E-3,1.06693E-3,-2.9436697E-3,-3.9340496E-2,-5.817314E-3,4.65456E-3,-3.5436988E-2,-9.632133E-3,7.918477E-5,-5.0450554E-3,8.446574E-4,5.7771923E-3,-2.5238076E-2,-2.4979415E-3,6.154137E-3,-4.3555243E-5,-6.941557E-3,2.5260523E-3,-1.045078E-3,-6.5627457E-3,7.29215E-3,-1.292944E-3,-1.5793085E-2,-4.73557E-3,-7.3197484E-4,-4.9500186E-2,6.3171163E-3,-4.613174E-3,-5.3875092E-3,8.995966E-3,-5.892262E-3,1.0613214E-3,-1.6331673E-4,-1.7760992E-3,-5.8310903E-3,9.187758E-4],"categories":[],"categories_nodes":[],"categories_segments":[],"categories_sizes":[],"default_left":[1,1,1,1,1,1,1,1,1,1,1,1,1,0,0,1,1,1,0,1,1,0,1,0,0,0,0,1,1,1,1,0,0,0,0,0,1,0,1,0,0,0,0,0,0,0,0,0,0,0,0],"id":55,"left_children":[1,3,5,7,9,11,13,15,17,19,21,23,25,-1,-1,27,29,31,-1,33,35,-1,37,-1,-1,-1,-1,39,41,43,45,-1,-1,-1,-1,-1,47,-1,49,-1,-1,-1,-1,-1,-1,-1,-1,-1,-1,-1,-1],"loss_changes":[1.9702308E-3,1.8091743E-3,9.2790346E-4,1.9482081E-3,1.5957445E-3,1.3541829E-4,4.9427315E-4,2.0635969E-3,1.2067573E-3,3.5425203E-4,1.2734665E-3,1.8037881E-5,1.2498727E-5,0E0,0E0,2.9053143E-3,2.9322384E-3,8.3136736E-5,0E0,1.4485675E-5,1.19237884E-4,0E0,2.2688566E-4,0E0,0E0,0E0,0E0,3.5311854E-3,1.8191482E-3,3.0988082E-3,2.7655698E-3,0E0,0E0,0E0,0E0,0E0,1.3472895E-6,0E0,4.871862E-5,0E0,0E0,0E0,0E0,0E0,0E0,0E0,0E0,0E0,0E0,0E0,0E0],"parents":[2147483647,0,0,1,1,2,2,3,3,4,4,5,5,6,6,7,7,8,8,9,9,10,10,11,11,12,12,15,15,16,16,17,17,19,19,20,20,22,22,27,27,28,28,29,29,30,30,36,36,38,38],"right_children":[2,4,6,8,10,12,14,16,18,20,22,24,26,-1,-1,28,30,32,-1,34,36,-1,38,-1,-1,-1,-1,40,42,44,46,-1,-1,-1,-1,-1,48,-1,50,-1,-1,-1,-1,-1,-1,-1,-1,-1,-1,-1,-1],"split_conditions":[3.4532347E0,3.0010996E0,2.044231E-1,4.453026E0,-7.389935E-2,5.711363E-2,8.593596E-1,-1.079979E0,1.6577787E0,9.7491235E-2,-1.6536574E0,-3.34544E-1,-8.6275053E-1,2.998063E-3,9.027011E-3,-2.8332524E0,-3.5132983E-1,-8.1208736E-1,-1.1802149E-2,-2.0126133E0,3.1223541E-1,-1.0631097E-2,-5.9539473E-1,2.3755432E-5,-1.5135166E-3,2.5339724E-4,1.7331578E-3,6.4973235E-1,-1.2853138E0,-7.9113746E-1,-1.2485819E0,-2.082467E-3,7.578157E-4,-3.1352343E-4,-1.9688238E-3,2.187645E-3,5.8713925E-1,-4.7379257E-3,3.8903654E-1,-2.1959246E-4,-1.4850057E-2,1.8951349E-3,-1.3839523E-3,-1.6162528E-3,2.6987898E-3,-1.7676787E-3,3.1839643E-4,-4.899502E-5,-5.328298E-4,-1.7493272E-3,2.7563274E-4],"split_indices":[57,12,6,35,56,7,24,42,0,33,38,0,1,0,0,37,42,0,0,0,0,0,59,0,0,0,0,1,27,14,16,0,0,0,0,0,0,0,0,0,0,0,0,0,0,0,0,0,0,0,0],"split_type":[0,0,0,0,0,0,0,0,0,0,0,0,0,0,0,0,0,0,0,0,0,0,0,0,0,0,0,0,0,0,0,0,0,0,0,0,0,0,0,0,0,0,0,0,0,0,0,0,0,0,0],"sum_hessian":[6.57E2,6.43E2,1.4E1,6.21E2,2.2E1,7E0,7E0,6.18E2,3E0,1.1E1,1.1E1,2E0,5E0,5E0,2E0,1E2,5.18E2,2E0,1E0,5E0,6E0,2E0,9E0,1E0,1E0,1E0,4E0,5E0,9.5E1,9.2E1,4.26E2,1E0,1E0,1E0,4E0,4E0,2E0,3E0,6E0,3E0,2E0,1.8E1,7.7E1,1.8E1,7.4E1,6.7E1,3.59E2,1E0,1E0,5E0,1E0],"tree_param":{"num_deleted":"0","num_feature":"60","num_nodes":"51","size_leaf_vector":"0"}},{"base_weights":[-6.7044853E-6,2.5767703E-3,-1.0455769E-3,1.4150514E-3,1.8195806E-2,-5.291383E-3,5.589686E-4,-3.761833E-3,4.602443E-3,-2.6654124E-3,2.7763616E-2,-2.866303E-2,-3.2996507E-3,-2.2291166E-3,5.735502E-3,3.2774725E-3,-1.226931E-2,9.295573E-3,-1.6531752E-3,-6.658117E-3,2.2157629E-3,1.33365765E-2,4.2463273E-2,-6.8932325E-3,-4.9054183E-2,-9.468324E-4,-1.50164E-2,-5.4847933E-3,5.116666E-3,1.1042573E-2,5.92717E-4,2.769209E-4,1.923426E-2,-2.129821E-2,8.821199E-3,1.3512266E-3,1.6476762E-2,1.7597225E-2,-4.822214E-3,-1.9690394E-4,3.5205483E-3,-1.569728E-2,1.4331117E-3,-4.4320584E-3,5.7519386E-3,-1.974348E-2,3.113532E-3,-8.541867E-3,6.5327697E-3,-4.4751237E-3,1.1776306E-2,1.6816305E-2,1.9218673E-3,-4.283092E-3,1.1852868E-2,-4.730336E-3,5.2678883E-3,2.2315456E-2,1.9141436E-3,-9.326801E-3,-4.5618825E-2,3.3706546E-2,2.3109885E-3,4.833214E-3,-1.772175E-2,2.5176734E-2,5.6594955E-3,-4.753747E-3,2.7488362E-2,3.2350263E-3,-1.0430538E-2,-1.6953051E-3,5.409181E-3,9.50127E-3,-7.338628E-3,1.2146171E-2,-3.5834499E-3,-7.3894965E-3,-2.6416918E-2,8.069098E-3,-1.4263391E-4,-1.1898585E-2,-6.043559E-6,1.2029407E-2,-6.762773E-3,-1.6127542E-2,4.6987915E-3,-1.8396003E-2,1.5535367E-2,7.552319E-3,2.7924268E-2,-3.2692961E-3,1.804024E-2,9.594018E-3,-7.1677887E-3,3.172334E-2,2.4903181E-3],"categories":[],"categories_nodes":[],"categories_segments":[],"categories_sizes":[],"default_left":[1,1,1,1,1,1,1,1,1,1,1,1,1,1,1,1,1,1,1,0,1,0,0,1,0,1,1,1,1,1,1,1,1,1,1,1,1,1,1,0,0,0,1,1,1,1,1,1,1,1,1,1,1,1,1,0,0,0,0,0,0,0,0,0,0,0,0,0,0,0,0,0,0,0,0,0,0,0,0,0,0,0,0,0,0,0,0,0,0,0,0,0,0,0,0,0,0],"id":56,"left_children":[1,3,5,7,9,11,13,15,17,19,21,23,25,27,29,31,33,35,37,-1,39,-1,-1,41,-1,43,45,47,49,51,53,55,57,59,61,63,65,67,69,-1,-1,-1,71,73,75,77,79,81,83,85,87,89,91,93,95,-1,-1,-1,-1,-1,-1,-1,-1,-1,-1,-1,-1,-1,-1,-1,-1,-1,-1,-1,-1,-1,-1,-1,-1,-1,-1,-1,-1,-1,-1,-1,-1,-1,-1,-1,-1,-1,-1,-1,-1,-1,-1],"loss_changes":[1.7687009E-3,3.4036436E-3,3.2048742E-3,2.9379479E-3,2.6687514E-3,5.91038E-3,4.9487394E-3,4.11251E-3,3.244795E-3,1.1219828E-4,1.342338E-3,4.100971E-3,3.2938675E-3,5.361219E-3,3.2686298E-3,1.814082E-3,6.0910224E-3,3.5718763E-3,3.01311E-3,0E0,1.0137247E-5,0E0,0E0,4.6232916E-4,0E0,2.3835127E-3,1.7755041E-3,5.7502817E-3,4.4602733E-3,3.0746516E-3,3.4547122E-3,8.496237E-4,2.77485E-4,5.9798677E-3,1.542193E-3,2.1444205E-3,2.9631397E-3,1.6782084E-3,1.9316232E-3,0E0,0E0,0E0,5.8925423E-5,2.7831048E-3,2.1327678E-3,1.1238893E-3,8.183165E-5,3.5528187E-3,2.419937E-3,3.1758305E-3,4.93599E-3,3.4936508E-3,2.0671333E-3,1.8301434E-3,3.4557262E-3,0E0,0E0,0E0,0E0,0E0,0E0,0E0,0E0,0E0,0E0,0E0,0E0,0E0,0E0,0E0,0E0,0E0,0E0,0E0,0E0,0E0,0E0,0E0,0E0,0E0,0E0,0E0,0E0,0E0,0E0,0E0,0E0,0E0,0E0,0E0,0E0,0E0,0E0,0E0,0E0,0E0,0E0],"parents":[2147483647,0,0,1,1,2,2,3,3,4,4,5,5,6,6,7,7,8,8,9,9,10,10,11,11,12,12,13,13,14,14,15,15,16,16,17,17,18,18,20,20,23,23,25,25,26,26,27,27,28,28,29,29,30,30,31,31,32,32,33,33,34,34,35,35,36,36,37,37,38,38,42,42,43,43,44,44,45,45,46,46,47,47,48,48,49,49,50,50,51,51,52,52,53,53,54,54],"right_children":[2,4,6,8,10,12,14,16,18,20,22,24,26,28,30,32,34,36,38,-1,40,-1,-1,42,-1,44,46,48,50,52,54,56,58,60,62,64,66,68,70,-1,-1,-1,72,74,76,78,80,82,84,86,88,90,92,94,96,-1,-1,-1,-1,-1,-1,-1,-1,-1,-1,-1,-1,-1,-1,-1,-1,-1,-1,-1,-1,-1,-1,-1,-1,-1,-1,-1,-1,-1,-1,-1,-1,-1,-1,-1,-1,-1,-1,-1,-1,-1,-1],"split_conditions":[-5.528468E-1,2.372914E0,-2.9289484E-2,-2.8694955E-1,-2.6382414E-1,-1.2659502E0,2.9571587E-1,-2.3452562E-1,2.0386687E-1,9.1397524E-2,2.3220913E-1,-1.934758E-1,7.43521E-1,3.89912E-1,5.11135E-2,-3.8353187E-1,6.384761E-1,-3.2400534E-2,-2.1113272E0,-1.9974352E-3,6.588691E-1,4.000973E-3,1.2738982E-2,-2.6712865E-2,-1.47162555E-2,3.4592456E-1,4.5452935E-1,6.326111E-1,-1.989519E-1,2.8897333E-1,3.0503955E-1,-2.4903727E-1,8.8110375E-1,5.516389E-1,-2.1984215E0,1.587605E0,3.0090228E-1,-1.920768E0,-3.3011E-1,-5.9071186E-5,1.0561645E-3,-4.709184E-3,3.842863E-1,-6.106778E-1,4.1347432E-1,-3.3711073E-1,-9.175247E-1,6.0747683E-1,5.992857E-1,-2.2525193E-2,-1.4743826E0,1.1464805E-1,8.549908E-3,-6.0769016E-1,-3.419789E-1,-1.4191008E-3,1.5803665E-3,6.694637E-3,5.742431E-4,-2.7980404E-3,-1.3685648E-2,1.0111964E-2,6.9329655E-4,1.4499642E-3,-5.316525E-3,7.5530205E-3,1.6978487E-3,-1.4261241E-3,8.246509E-3,9.705079E-4,-3.1291617E-3,-5.0859153E-4,1.6227544E-3,2.8503812E-3,-2.2015886E-3,3.6438515E-3,-1.075035E-3,-2.216849E-3,-7.9250755E-3,2.4207295E-3,-4.2790176E-5,-3.5695755E-3,-1.8130678E-6,3.6088221E-3,-2.028832E-3,-4.8382627E-3,1.4096375E-3,-5.518801E-3,4.66061E-3,2.265696E-3,8.377281E-3,-9.807888E-4,5.412072E-3,2.8782054E-3,-2.1503367E-3,9.517002E-3,7.470955E-4],"split_indices":[25,2,25,7,57,31,8,27,33,3,33,40,12,56,28,27,49,41,41,0,0,0,0,0,0,20,39,17,16,1,0,32,0,24,6,17,34,6,45,0,0,0,1,30,11,34,0,53,42,40,15,26,40,52,32,0,0,0,0,0,0,0,0,0,0,0,0,0,0,0,0,0,0,0,0,0,0,0,0,0,0,0,0,0,0,0,0,0,0,0,0,0,0,0,0,0,0],"split_type":[0,0,0,0,0,0,0,0,0,0,0,0,0,0,0,0,0,0,0,0,0,0,0,0,0,0,0,0,0,0,0,0,0,0,0,0,0,0,0,0,0,0,0,0,0,0,0,0,0,0,0,0,0,0,0,0,0,0,0,0,0,0,0,0,0,0,0,0,0,0,0,0,0,0,0,0,0,0,0,0,0,0,0,0,0,0,0,0,0,0,0,0,0,0,0,0,0],"sum_hessian":[6.57E2,1.88E2,4.69E2,1.76E2,1.2E1,1.28E2,3.41E2,6.7E1,1.09E2,4E0,8E0,9E0,1.19E2,2.22E2,1.19E2,3.7E1,3E1,6.2E1,4.7E1,2E0,2E0,5E0,3E0,5E0,4E0,1E2,1.9E1,1.54E2,6.8E1,5.8E1,6.1E1,3.2E1,5E0,2.1E1,9E0,3E1,3.2E1,6E0,4.1E1,1E0,1E0,2E0,3E0,6.6E1,3.4E1,1.5E1,4E0,1.23E2,3.1E1,2.8E1,4E1,3.5E1,2.3E1,4.3E1,1.8E1,1.6E1,1.6E1,4E0,1E0,1.5E1,6E0,1E0,8E0,2.6E1,4E0,1.7E1,1.5E1,2E0,4E0,1.7E1,2.4E1,2E0,1E0,1.1E1,5.5E1,2E1,1.4E1,6E0,9E0,1E0,3E0,8.8E1,3.5E1,2.2E1,9E0,1.2E1,1.6E1,4E0,3.6E1,2E1,1.5E1,1.8E1,5E0,7E0,3.6E1,5E0,1.3E1],"tree_param":{"num_deleted":"0","num_feature":"60","num_nodes":"97","size_leaf_vector":"0"}},{"base_weights":[3.249473E-5,-1.0185153E-3,2.6851378E-3,-2.3742137E-4,-1.3395955E-2,4.210972E-3,-6.925258E-3,-1.444135E-3,3.5879367E-3,-2.2898195E-2,-5.9004943E-3,6.057399E-3,-6.149742E-3,8.6104026E-4,-1.6081026E-2,-7.213375E-3,-1.5227516E-4,9.355599E-3,-4.3339253E-4,-5.16361E-3,-3.1120036E-2,1.28059685E-2,-9.248421E-3,-3.5800629E-3,8.654338E-3,2.7710986E-3,-1.6044911E-2,1.1031026E-2,-7.14462E-3,-2.6175018E-2,-5.131743E-3,-3.0441284E-3,-2.2694064E-2,4.4965814E-3,-2.1883603E-3,-6.3273427E-4,1.6294936E-2,5.918413E-3,-4.3924362E-3,-7.4018985E-3,1.894772E-3,-2.4451998E-3,-1.2405511E-2,2.7965936E-3,-1.3378097E-2,1.6183887E-3,1.4373391E-2,1.0374701E-2,-6.314603E-3,-1.4005005E-3,-2.077077E-2,-2.1606684E-5,1.2876733E-2,1.7214715E-3,-1.1864577E-2,-9.445806E-3,-3.217817E-2,-2.3118655E-4,-7.045728E-3,-6.8558916E-3,7.2472547E-3,-5.728568E-2,-6.5880106E-3,6.0740663E-3,-2.8966006E-2,9.0993345E-3,-3.2541046E-3,-5.530888E-3,6.7935884E-3,3.2110497E-2,7.4818796E-3,2.7438601E-2,2.8541097E-3,1.9813208E-3,-9.189619E-3,-2.2382736E-3,-8.377016E-3,-4.047049E-3,5.0566596E-4,-1.4127197E-2,-3.679176E-3,7.0891534E-3,-5.574817E-3,3.4604445E-3,-1.9375438E-2,5.5857273E-3,-7.1613137E-3,1.8804614E-2,-1.529526E-3,3.8764551E-3,1.3498357E-2,-1.7398646E-3,-7.796526E-3,8.537372E-5,-2.9290617E-3,-4.841447E-3,-2.2156755E-2,-6.515185E-4,4.420221E-3,-7.2944164E-4,3.8266182E-4],"categories":[],"categories_nodes":[],"categories_segments":[],"categories_sizes":[],"default_left":[1,1,1,1,1,1,1,1,1,1,1,1,1,1,1,1,1,1,1,1,0,0,1,1,1,1,1,1,1,1,1,1,1,1,1,1,1,1,1,1,0,1,1,1,1,1,1,1,1,1,1,0,0,1,0,0,0,1,0,0,0,0,0,0,0,0,0,0,0,0,0,0,0,0,0,0,0,0,0,0,0,0,0,0,0,0,0,0,0,0,0,0,0,0,0,0,0,0,0,0,0],"id":57,"left_children":[1,3,5,7,9,11,13,15,17,19,21,23,25,27,29,31,33,35,37,39,-1,-1,41,43,45,47,49,51,53,55,57,59,61,63,65,67,69,71,73,75,-1,77,79,81,83,85,87,89,91,93,95,-1,-1,97,-1,-1,-1,99,-1,-1,-1,-1,-1,-1,-1,-1,-1,-1,-1,-1,-1,-1,-1,-1,-1,-1,-1,-1,-1,-1,-1,-1,-1,-1,-1,-1,-1,-1,-1,-1,-1,-1,-1,-1,-1,-1,-1,-1,-1,-1,-1],"loss_changes":[1.837209E-3,4.5600887E-3,2.7713059E-3,2.059351E-3,1.8591518E-3,3.1363603E-3,1.8673744E-3,2.5254851E-3,2.4857773E-3,1.5890393E-3,1.1831085E-3,3.4848345E-3,2.2512928E-3,1.3000743E-3,1.1919404E-3,3.93257E-3,2.6412404E-3,3.0600557E-3,1.6354092E-3,9.301839E-5,0E0,0E0,2.918417E-4,1.9117742E-3,4.3627853E-3,1.032689E-3,8.013996E-4,1.4307763E-4,3.9705273E-4,2.9861927E-4,6.402825E-5,2.011102E-3,6.8653487E-3,4.6628136E-3,2.3633908E-3,7.2870473E-4,3.383723E-3,1.5702968E-3,1.2412505E-3,1.3904937E-6,0E0,3.0407515E-5,9.826373E-5,7.222816E-4,1.2788852E-3,1.7816038E-3,4.2569255E-3,1.100605E-4,3.3890974E-5,9.335063E-6,9.1429334E-5,0E0,0E0,2.8496279E-5,0E0,0E0,0E0,1.1966887E-6,0E0,0E0,0E0,0E0,0E0,0E0,0E0,0E0,0E0,0E0,0E0,0E0,0E0,0E0,0E0,0E0,0E0,0E0,0E0,0E0,0E0,0E0,0E0,0E0,0E0,0E0,0E0,0E0,0E0,0E0,0E0,0E0,0E0,0E0,0E0,0E0,0E0,0E0,0E0,0E0,0E0,0E0,0E0],"parents":[2147483647,0,0,1,1,2,2,3,3,4,4,5,5,6,6,7,7,8,8,9,9,10,10,11,11,12,12,13,13,14,14,15,15,16,16,17,17,18,18,19,19,22,22,23,23,24,24,25,25,26,26,27,27,28,28,29,29,30,30,31,31,32,32,33,33,34,34,35,35,36,36,37,37,38,38,39,39,41,41,42,42,43,43,44,44,45,45,46,46,47,47,48,48,49,49,50,50,53,53,57,57],"right_children":[2,4,6,8,10,12,14,16,18,20,22,24,26,28,30,32,34,36,38,40,-1,-1,42,44,46,48,50,52,54,56,58,60,62,64,66,68,70,72,74,76,-1,78,80,82,84,86,88,90,92,94,96,-1,-1,98,-1,-1,-1,100,-1,-1,-1,-1,-1,-1,-1,-1,-1,-1,-1,-1,-1,-1,-1,-1,-1,-1,-1,-1,-1,-1,-1,-1,-1,-1,-1,-1,-1,-1,-1,-1,-1,-1,-1,-1,-1,-1,-1,-1,-1,-1,-1],"split_conditions":[5.1872945E-1,3.7219927E-1,1.3324726E0,6.1044264E-1,-6.9940224E-2,1.1357169E0,5.119438E-1,-9.2448807E-1,-2.3994818E-1,-1.4762398E0,-1.2144005E0,-1.2729454E0,1.5605712E-1,-7.7989645E-2,1.0382855E0,7.04206E-1,-6.445373E-1,-1.6442575E-1,-4.3995684E-1,1.4121394E0,-9.3360115E-3,3.8417906E-3,-3.253748E-1,-1.7560399E0,-2.7347708E-1,-2.2966899E-2,-1.7365267E0,-2.1881266E0,-9.18248E-1,-1.5249586E0,-9.18248E-1,6.106669E-1,-5.746231E-1,2.453612E0,-1.7616317E0,1.197731E-1,-3.2277086E-1,-2.1730275E0,-3.3335365E-2,-1.6349366E0,5.684316E-4,6.6219556E-1,1.2397786E0,1.8557143E-1,-1.4838588E0,2.2345348E-1,6.220203E-1,-1.1801155E0,2.0701258E-1,2.8255177E-1,-4.6961144E-1,-6.4820056E-6,3.86302E-3,-1.2667996E0,-3.5593733E-3,-2.833742E-3,-9.653452E-3,-6.070925E-1,-2.1137185E-3,-2.0567675E-3,2.1741765E-3,-1.7185705E-2,-1.9764032E-3,1.8222199E-3,-8.689802E-3,2.7298005E-3,-9.762314E-4,-1.6592665E-3,2.0380765E-3,9.63315E-3,2.244564E-3,8.231581E-3,8.5623295E-4,5.9439626E-4,-2.7568857E-3,-6.714821E-4,-2.5131048E-3,-1.2141148E-3,1.5169979E-4,-4.2381594E-3,-1.1037529E-3,2.126746E-3,-1.6724451E-3,1.0381334E-3,-5.8126315E-3,1.6757182E-3,-2.1483942E-3,5.641384E-3,-4.588578E-4,1.1629366E-3,4.049507E-3,-5.219594E-4,-2.338958E-3,2.5612118E-5,-8.787185E-4,-1.4524341E-3,-6.6470266E-3,-1.9545556E-4,1.3260663E-3,-2.188325E-4,1.1479855E-4],"split_indices":[55,55,23,16,17,38,45,48,28,54,16,30,17,51,45,24,33,1,24,0,0,0,5,30,38,14,11,2,6,0,12,11,45,37,36,48,25,15,48,0,0,0,4,5,54,2,58,18,11,0,2,0,0,1,0,0,0,0,0,0,0,0,0,0,0,0,0,0,0,0,0,0,0,0,0,0,0,0,0,0,0,0,0,0,0,0,0,0,0,0,0,0,0,0,0,0,0,0,0,0,0],"split_type":[0,0,0,0,0,0,0,0,0,0,0,0,0,0,0,0,0,0,0,0,0,0,0,0,0,0,0,0,0,0,0,0,0,0,0,0,0,0,0,0,0,0,0,0,0,0,0,0,0,0,0,0,0,0,0,0,0,0,0,0,0,0,0,0,0,0,0,0,0,0,0,0,0,0,0,0,0,0,0,0,0,0,0,0,0,0,0,0,0,0,0,0,0,0,0,0,0,0,0,0,0],"sum_hessian":[6.57E2,4.71E2,1.86E2,4.44E2,2.7E1,1.61E2,2.5E1,3.38E2,1.06E2,1.1E1,1.6E1,1.37E2,2.4E1,1.4E1,1.1E1,6.1E1,2.77E2,4.3E1,6.3E1,4E0,7E0,2E0,1.4E1,2.9E1,1.08E2,1.3E1,1.1E1,6E0,8E0,5E0,6E0,4.9E1,1.2E1,8.4E1,1.93E2,1.8E1,2.5E1,2.4E1,3.9E1,3E0,1E0,5E0,9E0,1.8E1,1.1E1,4.9E1,5.9E1,7E0,6E0,3E0,8E0,1E0,5E0,3E0,5E0,2E0,3E0,2E0,4E0,3.6E1,1.3E1,3E0,9E0,8.1E1,3E0,1.6E1,1.77E2,1.1E1,7E0,8E0,1.7E1,2E0,2.2E1,1.7E1,2.2E1,1E0,2E0,3E0,2E0,7E0,2E0,1.2E1,6E0,3E0,8E0,3.4E1,1.5E1,4.6E1,1.3E1,3E0,4E0,2E0,4E0,2E0,1E0,1E0,7E0,2E0,1E0,1E0,1E0],"tree_param":{"num_deleted":"0","num_feature":"60","num_nodes":"101","size_leaf_vector":"0"}},{"base_weights":[-3.6493442E-5,3.4818222E-4,-5.1619215E-3,4.806028E-4,-1.585028E-2,-5.470023E-4,-1.3002254E-2,7.771456E-4,-6.477723E-3,-4.2296015E-3,-3.1166494E-2,-6.960581E-3,3.0078162E-3,-7.060299E-4,-1.8066846E-2,-2.7162198E-3,1.5381149E-3,-3.6146283E-2,-3.735438E-3,-5.309383E-3,-4.9512833E-4,-2.2972652E-3,-1.2097107E-2,5.4007834E-3,-5.2512423E-3,3.840645E-3,-3.939529E-3,-2.3697112E-2,-8.487059E-3,-3.2599014E-4,-1.1719087E-2,5.043948E-3,1.1289944E-4,-1.8191182E-3,-2.3905396E-2,-2.769685E-3,-7.4414414E-4,8.471426E-3,2.4261113E-4,-7.2855554E-3,-1.4665151E-3,-8.9553E-4,-4.655685E-3,7.585292E-4,-2.2206008E-2,8.095564E-4,-2.2227086E-2,-6.4787446E-3,6.386319E-3,5.0858315E-3,-1.024174E-3,-3.5329075E-3,7.204607E-3,9.349084E-3,3.3071935E-3,-2.999222E-3,3.4237914E-3],"categories":[],"categories_nodes":[],"categories_segments":[],"categories_sizes":[],"default_left":[1,1,1,1,1,1,1,1,1,1,0,1,1,1,1,1,1,0,1,0,0,1,0,1,1,0,1,0,0,1,1,1,1,1,0,0,0,1,1,0,0,0,0,0,0,0,0,0,0,0,0,0,0,0,0,0,0],"id":58,"left_children":[1,3,5,7,9,11,13,15,17,19,-1,21,23,25,27,29,31,-1,33,-1,-1,35,-1,37,39,-1,41,-1,-1,43,45,47,49,51,-1,-1,-1,53,55,-1,-1,-1,-1,-1,-1,-1,-1,-1,-1,-1,-1,-1,-1,-1,-1,-1,-1],"loss_changes":[1.2991282E-3,1.3225084E-3,1.6572827E-3,1.26167E-3,7.5810216E-4,7.049094E-4,1.0459251E-3,1.5593091E-3,1.8989693E-3,1.3500838E-5,0E0,2.3569545E-4,4.236339E-4,1.0334034E-4,4.461226E-4,2.2556663E-3,2.4027792E-3,0E0,8.841634E-4,0E0,0E0,3.0750307E-6,0E0,2.5136716E-4,2.7812217E-5,0E0,4.5506094E-6,0E0,0E0,2.0101054E-3,2.9143156E-3,2.1913906E-3,1.9447329E-3,3.8114272E-4,0E0,0E0,0E0,1.4405057E-5,8.245869E-5,0E0,0E0,0E0,0E0,0E0,0E0,0E0,0E0,0E0,0E0,0E0,0E0,0E0,0E0,0E0,0E0,0E0,0E0],"parents":[2147483647,0,0,1,1,2,2,3,3,4,4,5,5,6,6,7,7,8,8,9,9,11,11,12,12,13,13,14,14,15,15,16,16,18,18,21,21,23,23,24,24,26,26,29,29,30,30,31,31,32,32,33,33,37,37,38,38],"right_children":[2,4,6,8,10,12,14,16,18,20,-1,22,24,26,28,30,32,-1,34,-1,-1,36,-1,38,40,-1,42,-1,-1,44,46,48,50,52,-1,-1,-1,54,56,-1,-1,-1,-1,-1,-1,-1,-1,-1,-1,-1,-1,-1,-1,-1,-1,-1,-1],"split_conditions":[1.8392589E0,4.4419775E0,1.0760368E-1,2.6326363E0,1.9094752E0,-7.0611805E-1,-4.9471366E-1,-9.9628174E-1,-2.5684733E0,-7.568365E-1,-9.349949E-3,-1.3535535E-1,8.233409E-1,-5.9332818E-2,-1.5774572E-1,6.823745E-1,-1.4028664E-1,-1.0843885E-2,3.5007656E0,-1.5928149E-3,-1.485385E-4,-4.2325547E-1,-3.6291324E-3,-2.974183E-1,-1.3192523E-2,1.1521935E-3,-2.6621153E0,-7.109134E-3,-2.5461176E-3,2.816893E0,4.113181E-2,-1.6166098E0,-7.75632E-1,1.1904935E0,-7.171619E-3,-8.309055E-4,-2.2324325E-4,3.548432E-1,6.4390115E-2,-2.1856667E-3,-4.3995454E-4,-2.68659E-4,-1.3967055E-3,2.2755876E-4,-6.661803E-3,2.4286692E-4,-6.668126E-3,-1.9436234E-3,1.9158958E-3,1.5257496E-3,-3.0725222E-4,-1.0598723E-3,2.1613822E-3,2.8047254E-3,9.921581E-4,-8.9976663E-4,1.0271375E-3],"split_indices":[45,35,18,37,0,4,38,28,8,2,0,2,52,5,5,8,28,0,6,0,0,2,0,39,1,0,0,0,0,4,1,5,8,15,0,0,0,16,7,0,0,0,0,0,0,0,0,0,0,0,0,0,0,0,0,0,0],"split_type":[0,0,0,0,0,0,0,0,0,0,0,0,0,0,0,0,0,0,0,0,0,0,0,0,0,0,0,0,0,0,0,0,0,0,0,0,0,0,0,0,0,0,0,0,0,0,0,0,0,0,0,0,0,0,0,0,0],"sum_hessian":[6.57E2,6.12E2,4.5E1,6.08E2,4E0,2.9E1,1.6E1,5.84E2,2.4E1,3E0,1E0,1E1,1.9E1,5E0,1.1E1,1.04E2,4.8E2,1E0,2.3E1,2E0,1E0,6E0,4E0,1.5E1,4E0,2E0,3E0,6E0,5E0,8.3E1,2.1E1,1.38E2,3.42E2,2.2E1,1E0,4E0,2E0,9E0,6E0,2E0,2E0,1E0,2E0,8E1,3E0,1E1,1.1E1,1.4E1,1.24E2,6.3E1,2.79E2,1.9E1,3E0,7E0,2E0,3E0,3E0],"tree_param":{"num_deleted":"0","num_feature":"60","num_nodes":"57","size_leaf_vector":"0"}},{"base_weights":[-1.0643898E-4,-2.9649114E-4,8.060229E-3,2.4287326E-4,-3.9960723E-3,2.390612E-2,2.1065802E-3,-4.603707E-4,5.0450005E-3,4.259641E-3,-8.59372E-3,-3.24893E-3,1.025408E-2,-2.1603596E-3,1.8711544E-3,-7.900218E-3,7.0197177E-3,1.1389731E-2,-4.702586E-3,-1.2093336E-2,3.104586E-3,-9.858632E-3,5.82543E-3,-4.82968E-3,6.0000806E-4,-2.2494392E-3,4.794273E-3,-2.1422561E-2,9.5543795E-4,1.7145166E-2,3.7768306E-3,-1.3649602E-3,1.8470922E-2,2.700746E-3,-1.502382E-2,-3.5308516E-3,-1.8640896E-2,-2.207581E-3,9.670044E-3,-2.981335E-3,-1.0832623E-2,3.3237126E-3,-6.896681E-3,-3.13067E-3,6.318549E-3,-9.553854E-3,1.3789923E-3,3.2018556E-3,2.0572139E-2,-2.4209742E-2,-6.5305084E-3,1.1580795E-2,-2.7455874E-3,2.9844232E-2,2.3029563E-3,1.472643E-2,1.9065044E-3,5.8122876E-4,-4.153622E-3,8.899185E-3,2.4964174E-2,-8.587718E-4,5.720115E-3,-6.4161904E-3,-2.149272E-2,6.643577E-3,-6.6869375E-3,-8.985781E-3,-2.8356858E-2,-6.108664E-3,1.3548017E-3,3.6424398E-4,1.1458355E-2],"categories":[],"categories_nodes":[],"categories_segments":[],"categories_sizes":[],"default_left":[1,1,1,1,1,0,1,1,1,1,1,1,0,1,1,1,1,1,1,1,1,1,0,1,1,1,1,1,1,1,1,1,1,1,1,1,1,1,1,0,0,0,0,0,0,0,0,0,0,0,0,0,0,0,0,0,0,0,0,0,0,0,0,0,0,0,0,0,0,0,0,0,0],"id":59,"left_children":[1,3,5,7,9,-1,11,13,15,17,19,21,-1,23,25,27,29,31,33,35,37,39,-1,41,43,45,47,49,51,53,55,57,59,61,63,65,67,69,71,-1,-1,-1,-1,-1,-1,-1,-1,-1,-1,-1,-1,-1,-1,-1,-1,-1,-1,-1,-1,-1,-1,-1,-1,-1,-1,-1,-1,-1,-1,-1,-1,-1,-1],"loss_changes":[1.0236669E-3,1.2860226E-3,1.3647529E-3,1.9036112E-3,3.149069E-3,0E0,5.5692304E-4,1.9541173E-3,1.8960038E-3,1.970606E-3,2.207342E-3,5.372613E-4,0E0,2.1028651E-3,2.5161414E-3,1.2179599E-3,2.003894E-3,1.5606249E-3,1.1103367E-3,2.2327802E-3,4.7474593E-4,1.1964294E-6,0E0,2.466618E-3,3.0278806E-3,2.318985E-3,2.999375E-3,7.925555E-6,3.070691E-4,2.758503E-3,9.754108E-4,4.040504E-5,4.615083E-4,1.01639744E-4,1.9618997E-4,6.545412E-4,1.9027926E-3,1.1945323E-4,9.567634E-5,0E0,0E0,0E0,0E0,0E0,0E0,0E0,0E0,0E0,0E0,0E0,0E0,0E0,0E0,0E0,0E0,0E0,0E0,0E0,0E0,0E0,0E0,0E0,0E0,0E0,0E0,0E0,0E0,0E0,0E0,0E0,0E0,0E0,0E0],"parents":[2147483647,0,0,1,1,2,2,3,3,4,4,6,6,7,7,8,8,9,9,10,10,11,11,13,13,14,14,15,15,16,16,17,17,18,18,19,19,20,20,21,21,23,23,24,24,25,25,26,26,27,27,28,28,29,29,30,30,31,31,32,32,33,33,34,34,35,35,36,36,37,37,38,38],"right_children":[2,4,6,8,10,-1,12,14,16,18,20,22,-1,24,26,28,30,32,34,36,38,40,-1,42,44,46,48,50,52,54,56,58,60,62,64,66,68,70,72,-1,-1,-1,-1,-1,-1,-1,-1,-1,-1,-1,-1,-1,-1,-1,-1,-1,-1,-1,-1,-1,-1,-1,-1,-1,-1,-1,-1,-1,-1,-1,-1,-1,-1],"split_conditions":[3.5605404E0,1.3596432E0,3.7375746E0,6.781961E-1,-5.790452E-1,7.171836E-3,5.3508444E0,1.5972003E-1,-1.9855833E0,1.3626426E-1,1.086435E0,5.3909904E-1,3.0762244E-3,3.1034756E-2,-1.619246E-1,-3.1705526E-1,-8.527107E-1,-5.071138E-1,5.2404955E-2,-6.163069E-1,2.5381076E-1,-2.2803816E-1,1.7476291E-3,-1.7383659E0,2.2316796E-1,-4.5322877E-1,1.2773473E0,6.4345725E-2,-1.1704757E0,-1.7072552E-1,-1.5378934E0,-6.356267E-2,-1.8718502E-1,-3.2437205E-1,8.309528E-2,-5.03023E-1,-7.696973E-2,1.5574601E-1,-7.2075564E-1,-8.944005E-4,-3.249787E-3,9.971139E-4,-2.0690043E-3,-9.3920104E-4,1.8955648E-3,-2.8661564E-3,4.136977E-4,9.6055673E-4,6.171642E-3,-7.262923E-3,-1.9591525E-3,3.4742386E-3,-8.2367624E-4,8.95327E-3,6.908869E-4,4.4179293E-3,5.719513E-4,1.7436863E-4,-1.2460866E-3,2.6697556E-3,7.4892524E-3,-2.5763156E-4,1.7160345E-3,-1.9248571E-3,-6.4478163E-3,1.9930732E-3,-2.0060814E-3,-2.6957344E-3,-8.507058E-3,-1.8325993E-3,4.0644052E-4,1.092732E-4,3.4375067E-3],"split_indices":[28,23,28,23,35,0,28,27,20,21,15,8,0,29,35,45,56,11,6,2,42,0,0,29,45,49,19,1,0,9,46,3,51,2,1,34,12,39,1,0,0,0,0,0,0,0,0,0,0,0,0,0,0,0,0,0,0,0,0,0,0,0,0,0,0,0,0,0,0,0,0,0,0],"split_type":[0,0,0,0,0,0,0,0,0,0,0,0,0,0,0,0,0,0,0,0,0,0,0,0,0,0,0,0,0,0,0,0,0,0,0,0,0,0,0,0,0,0,0,0,0,0,0,0,0,0,0,0,0,0,0,0,0,0,0,0,0,0,0,0,0,0,0,0,0,0,0,0,0],"sum_hessian":[6.57E2,6.43E2,1.4E1,5.62E2,8.1E1,3E0,1.1E1,4.91E2,7.1E1,2.9E1,5.2E1,7E0,4E0,2.84E2,2.07E2,9E0,6.2E1,1.6E1,1.3E1,4E1,1.2E1,4E0,3E0,1.44E2,1.4E2,8.6E1,1.21E2,3E0,6E0,1.4E1,4.8E1,6E0,1E1,8E0,5E0,1.8E1,2.2E1,7E0,5E0,1E0,3E0,2.9E1,1.15E2,8.5E1,5.5E1,2.8E1,5.8E1,1.11E2,1E1,2E0,1E0,1E0,5E0,7E0,7E0,6E0,4.2E1,4E0,2E0,5E0,5E0,4E0,4E0,3E0,2E0,4E0,1.4E1,1.2E1,1E1,3E0,4E0,1E0,4E0],"tree_param":{"num_deleted":"0","num_feature":"60","num_nodes":"73","size_leaf_vector":"0"}},{"base_weights":[-5.3905616E-5,4.700128E-3,-3.285305E-4,3.9330602E-4,2.6168685E-2,-4.0882914E-3,1.3188724E-4,-5.757282E-3,5.79716E-3,9.854013E-4,3.8513977E-2,-2.4258208E-3,-2.0862848E-2,1.2715615E-3,-1.6954031E-3,-1.9991323E-3,-1.5592411E-2,1.8161327E-2,1.8504581E-3,5.111184E-3,-3.633082E-3,1.4439821E-3,-6.4670364E-3,-2.2914678E-2,-5.301848E-3,7.498953E-4,1.5598362E-2,2.6603264E-3,-3.2937275E-3,2.0180468E-3,-5.1568383E-3,-4.1855574E-3,-1.799951E-2,-9.034631E-4,6.9882087E-3,1.0551071E-2,-9.7059575E-4,-1.1034381E-2,5.923626E-3,-3.5400125E-3,1.9514852E-3,3.0995063E-2,4.025629E-3,-2.5376654E-3,6.675098E-3,-1.0865683E-2,-1.9792926E-3,2.3528934E-5,4.004722E-3,-2.325058E-3,-8.157526E-3,3.2023937E-3,-2.3302264E-3,7.851243E-3,1.7680358E-3,1.3884797E-2,1.4778376E-3,-8.086455E-3,6.1853E-4,-3.134061E-3,-2.099139E-2,-2.8336048E-5,1.0690862E-2,2.1849442E-3,-8.061563E-3,2.9799104E-2,1.5104659E-3,-8.1259115E-3,9.430461E-3,7.5290375E-4,-8.83684E-3,1.2196272E-2,4.6584173E-5,-2.1732688E-2,-2.3274156E-3,-4.894292E-3,5.066188E-3],"categories":[],"categories_nodes":[],"categories_segments":[],"categories_sizes":[],"default_left":[1,1,1,1,1,1,1,1,1,1,0,1,1,1,1,1,1,0,1,0,0,1,1,0,0,1,1,1,1,1,1,0,0,1,1,1,1,1,1,1,1,0,1,1,1,1,1,0,0,0,0,0,0,0,0,0,0,0,0,0,0,0,0,0,0,0,0,0,0,0,0,0,0,0,0,0,0],"id":60,"left_children":[1,3,5,7,9,11,13,15,17,19,-1,21,23,25,27,29,31,-1,33,-1,-1,35,37,-1,-1,39,41,43,45,47,49,-1,-1,51,53,55,57,59,61,63,65,-1,67,69,71,73,75,-1,-1,-1,-1,-1,-1,-1,-1,-1,-1,-1,-1,-1,-1,-1,-1,-1,-1,-1,-1,-1,-1,-1,-1,-1,-1,-1,-1,-1,-1],"loss_changes":[8.606131E-4,3.3183126E-3,1.0789898E-3,1.0637192E-3,1.8274183E-3,1.8457202E-3,1.1600346E-3,5.2325707E-4,7.959539E-4,7.573393E-5,0E0,9.945768E-4,7.008109E-5,2.551819E-3,1.4986023E-3,1.626276E-4,3.4491706E-5,0E0,2.0439905E-4,0E0,0E0,7.3590345E-4,1.8197285E-3,0E0,0E0,1.718272E-3,2.0134086E-3,1.2273267E-3,1.5410898E-3,2.3680526E-5,4.0514307E-5,0E0,0E0,6.604316E-5,8.644653E-6,1.9121426E-4,3.1031755E-4,1.7434738E-3,2.5567267E-4,1.9072685E-3,3.1481371E-3,0E0,6.0204725E-4,5.4557796E-4,1.2071386E-3,2.0834834E-3,2.7973677E-3,0E0,0E0,0E0,0E0,0E0,0E0,0E0,0E0,0E0,0E0,0E0,0E0,0E0,0E0,0E0,0E0,0E0,0E0,0E0,0E0,0E0,0E0,0E0,0E0,0E0,0E0,0E0,0E0,0E0,0E0],"parents":[2147483647,0,0,1,1,2,2,3,3,4,4,5,5,6,6,7,7,8,8,9,9,11,11,12,12,13,13,14,14,15,15,16,16,18,18,21,21,22,22,25,25,26,26,27,27,28,28,29,29,30,30,33,33,34,34,35,35,36,36,37,37,38,38,39,39,40,40,42,42,43,43,44,44,45,45,46,46],"right_children":[2,4,6,8,10,12,14,16,18,20,-1,22,24,26,28,30,32,-1,34,-1,-1,36,38,-1,-1,40,42,44,46,48,50,-1,-1,52,54,56,58,60,62,64,66,-1,68,70,72,74,76,-1,-1,-1,-1,-1,-1,-1,-1,-1,-1,-1,-1,-1,-1,-1,-1,-1,-1,-1,-1,-1,-1,-1,-1,-1,-1,-1,-1,-1,-1],"split_conditions":[-2.6043622E0,9.938867E-1,-1.7263461E0,-8.199482E-2,-2.3585807E-1,1.4519179E0,2.8746173E-1,6.8756664E-1,-7.03001E-1,-7.7458996E-1,1.1554194E-2,-1.1760069E-1,4.0113E-1,2.6351082E-1,-6.642212E-1,2.3978442E-1,-2.9080915E-1,5.448398E-3,3.78941E-1,1.5333552E-3,-1.0899246E-3,-1.7231178E0,6.44454E-1,-6.8744035E-3,-1.5905545E-3,-8.788309E-1,-1.00290656E-1,-2.7529538E-1,3.9215887E-1,1.9129834E-1,1.0728692E0,-1.2556673E-3,-5.399853E-3,-2.3533196E0,7.181102E-1,1.3534501E0,-7.721882E-1,-1.2608755E-2,7.750058E-2,-1.6390684E-1,-8.2677513E-1,9.298519E-3,2.84828E-1,4.1528553E-1,4.1013807E-1,3.9023314E-2,8.0324285E-2,7.0586802E-6,1.2014166E-3,-6.975174E-4,-2.447258E-3,9.6071814E-4,-6.9906795E-4,2.355373E-3,5.304108E-4,4.1654394E-3,4.4335128E-4,-2.4259365E-3,1.85559E-4,-9.402183E-4,-6.2974175E-3,-8.500815E-6,3.2072589E-3,6.554833E-4,-2.418469E-3,8.939732E-3,4.5313977E-4,-2.4377736E-3,2.8291382E-3,2.2587113E-4,-2.651052E-3,3.6588816E-3,1.3975253E-5,-6.5198066E-3,-6.982247E-4,-1.4682877E-3,1.5198565E-3],"split_indices":[51,12,59,35,1,29,11,5,59,0,0,33,1,11,24,28,0,0,18,0,0,9,34,0,0,5,51,23,11,0,2,0,0,18,2,4,55,37,56,22,5,0,14,4,43,42,10,0,0,0,0,0,0,0,0,0,0,0,0,0,0,0,0,0,0,0,0,0,0,0,0,0,0,0,0,0,0],"split_type":[0,0,0,0,0,0,0,0,0,0,0,0,0,0,0,0,0,0,0,0,0,0,0,0,0,0,0,0,0,0,0,0,0,0,0,0,0,0,0,0,0,0,0,0,0,0,0,0,0,0,0,0,0,0,0,0,0,0,0,0,0,0,0,0,0,0,0,0,0,0,0,0,0,0,0,0,0],"sum_hessian":[6.57E2,3.5E1,6.22E2,3E1,5E0,6.7E1,5.55E2,1.4E1,1.6E1,2E0,3E0,6.2E1,5E0,3.42E2,2.13E2,1.1E1,3E0,3E0,1.3E1,1E0,1E0,3.2E1,3E1,4E0,1E0,3.31E2,1.1E1,5.7E1,1.56E2,5E0,6E0,1E0,2E0,9E0,4E0,6E0,2.6E1,2.2E1,8E0,7.2E1,2.59E2,4E0,7E0,2.5E1,3.2E1,2.2E1,1.34E2,3E0,2E0,4E0,2E0,2E0,7E0,3E0,1E0,4E0,2E0,4E0,2.2E1,1.3E1,9E0,4E0,4E0,3.2E1,4E1,3E0,2.56E2,2E0,5E0,1.7E1,8E0,1.7E1,1.5E1,9E0,1.3E1,9.5E1,3.9E1],"tree_param":{"num_deleted":"0","num_feature":"60","num_nodes":"77","size_leaf_vector":"0"}},{"base_weights":[-1.75671E-5,-7.2830205E-4,1.7764674E-3,-2.5515628E-4,-8.221929E-3,7.7452827E-3,4.9422635E-4,1.3519373E-2,-5.061633E-4,-1.0952163E-2,3.6142867E-3,1.9939313E-2,1.5766041E-3,4.081611E-3,-2.2119423E-3,4.924491E-3,1.7691404E-2,-5.7877093E-3,3.9187315E-5,-1.626356E-2,-4.7280863E-3,8.574347E-3,-1.0093302E-3,3.5891726E-3,2.876951E-2,-3.4934764E-3,1.3664427E-2,-2.0890157E-3,7.3546437E-3,1.1863781E-3,-7.020024E-3,-2.705032E-3,-1.8165624E-2,2.6976871E-3,-1.4459871E-3,-2.3347188E-2,-9.803345E-3,-1.2057461E-3,-9.418214E-3,6.5916777E-4,-1.7852187E-3,1.0481477E-4,4.4340584E-3,3.5685986E-2,1.4660656E-2,1.617223E-3,-1.1025508E-2,1.5960697E-2,-5.659461E-5,3.05973E-3,-1.1010228E-2,1.238609E-2,1.7601928E-3,7.938393E-3,-1.4409708E-3,1.4659852E-3,-1.4306432E-2,-4.741621E-4,-8.011703E-3,-3.1364758E-2,-8.538453E-3,5.2791396E-3,-4.0815305E-3,-3.651324E-3,1.9194362E-3,-2.094686E-3,-1.0605342E-2,-2.2857934E-3,1.356264E-3,-1.4176257E-3,7.2826147E-3,-1.3212415E-2,1.0479689E-3,-3.833387E-3,8.846975E-3,1.6133487E-3,-1.2789844E-2,5.8631864E-3,2.6457986E-2,-1.4384976E-3,8.820029E-3,3.7216544E-3,1.860401E-2,-4.0648864E-3,4.80158E-3,-3.7833324E-4,6.33688E-3,-3.04299E-2,-9.671119E-3],"categories":[],"categories_nodes":[],"categories_segments":[],"categories_sizes":[],"default_left":[1,1,1,1,1,1,1,1,1,1,1,1,1,1,1,0,0,1,1,1,1,0,1,1,1,1,1,1,1,1,1,1,1,1,1,0,1,1,0,0,0,0,0,0,0,1,1,0,0,1,1,1,1,1,1,1,1,0,0,0,0,0,0,0,0,0,0,0,0,0,0,0,0,0,0,0,0,0,0,0,0,0,0,0,0,0,0,0,0],"id":61,"left_children":[1,3,5,7,9,11,13,15,17,19,21,23,25,27,29,-1,-1,31,33,35,37,-1,39,41,43,45,47,49,51,53,55,57,59,61,63,-1,65,67,-1,-1,-1,-1,-1,-1,-1,69,71,-1,-1,73,75,77,79,81,83,85,87,-1,-1,-1,-1,-1,-1,-1,-1,-1,-1,-1,-1,-1,-1,-1,-1,-1,-1,-1,-1,-1,-1,-1,-1,-1,-1,-1,-1,-1,-1,-1,-1],"loss_changes":[8.402984E-4,1.6714148E-3,1.4273692E-3,1.5454321E-3,9.44422E-4,2.4508585E-3,1.5137789E-3,1.9974378E-4,1.2617956E-3,6.8345084E-4,1.4625484E-4,1.4848658E-3,1.45732E-3,1.3685401E-3,1.4625351E-3,0E0,0E0,1.5153033E-3,1.5753387E-3,3.202604E-4,1.868867E-4,0E0,6.355032E-6,1.42546705E-5,1.5990483E-4,6.722278E-4,2.2145337E-4,1.1360815E-3,1.2167182E-3,9.516535E-4,2.3087764E-3,3.987099E-4,7.487561E-4,2.5240793E-3,1.9070127E-3,0E0,2.7243688E-5,2.5236877E-5,0E0,0E0,0E0,0E0,0E0,0E0,0E0,1.994537E-4,1.986713E-4,0E0,0E0,6.721885E-4,2.2282044E-4,1.9560333E-3,5.0949666E-4,6.053741E-4,6.58335E-4,1.641001E-4,1.2004548E-3,0E0,0E0,0E0,0E0,0E0,0E0,0E0,0E0,0E0,0E0,0E0,0E0,0E0,0E0,0E0,0E0,0E0,0E0,0E0,0E0,0E0,0E0,0E0,0E0,0E0,0E0,0E0,0E0,0E0,0E0,0E0,0E0],"parents":[2147483647,0,0,1,1,2,2,3,3,4,4,5,5,6,6,7,7,8,8,9,9,10,10,11,11,12,12,13,13,14,14,17,17,18,18,19,19,20,20,22,22,23,23,24,24,25,25,26,26,27,27,28,28,29,29,30,30,31,31,32,32,33,33,34,34,36,36,37,37,45,45,46,46,49,49,50,50,51,51,52,52,53,53,54,54,55,55,56,56],"right_children":[2,4,6,8,10,12,14,16,18,20,22,24,26,28,30,-1,-1,32,34,36,38,-1,40,42,44,46,48,50,52,54,56,58,60,62,64,-1,66,68,-1,-1,-1,-1,-1,-1,-1,70,72,-1,-1,74,76,78,80,82,84,86,88,-1,-1,-1,-1,-1,-1,-1,-1,-1,-1,-1,-1,-1,-1,-1,-1,-1,-1,-1,-1,-1,-1,-1,-1,-1,-1,-1,-1,-1,-1,-1,-1],"split_conditions":[5.1872945E-1,3.7219927E-1,6.60059E-1,-4.0970783E0,1.1732769E0,-6.968112E-1,-2.4682897E-1,-2.3999237E-1,-2.0148492E0,4.628664E-1,-4.871419E-1,-1.1232893E0,2.3005079E-1,-6.0606515E-1,3.1769967E-1,1.4773473E-3,5.307421E-3,-2.1777463E0,-2.7336016E-1,9.409737E-3,9.522891E-1,2.572304E-3,-2.7648118E-1,-1.7798464E0,5.3186733E-2,-1.8889537E-2,5.2838044E0,1.1562491E-1,2.1770813E-1,-6.875896E-1,-5.3632724E-1,9.9290496E-1,-1.6234893E-1,5.292052E-1,2.688232E-1,-7.0041567E-3,-1.3965672E0,4.7967306E-1,-2.8254641E-3,1.9775034E-4,-5.3556566E-4,3.1444433E-5,1.3302176E-3,1.0705796E-2,4.398197E-3,6.8511105E-1,6.65493E-1,4.788209E-3,-1.6978383E-5,-1.482549E-1,-1.9620064E0,-2.2531085E-1,8.6384356E-1,7.6568806E-1,9.4078505E-1,6.4988256E-1,-1.18854E0,-1.4224864E-4,-2.4035112E-3,-9.409428E-3,-2.561536E-3,1.583742E-3,-1.2244591E-3,-1.0953973E-3,5.7583087E-4,-6.2840583E-4,-3.1816026E-3,-6.8573805E-4,4.068792E-4,-4.2528773E-4,2.1847845E-3,-3.9637247E-3,3.1439067E-4,-1.1500162E-3,2.6540926E-3,4.8400465E-4,-3.8369533E-3,1.758956E-3,7.937396E-3,-4.315493E-4,2.6460087E-3,1.1164964E-3,5.5812034E-3,-1.219466E-3,1.4404741E-3,-1.1349998E-4,1.9010641E-3,-9.12897E-3,-2.9013357E-3],"split_indices":[55,55,55,23,22,36,14,5,2,47,2,36,24,19,40,0,0,2,39,17,7,0,2,0,10,49,1,28,57,54,21,18,9,53,41,0,0,16,0,0,0,0,0,0,0,3,0,0,0,26,8,57,5,27,50,35,32,0,0,0,0,0,0,0,0,0,0,0,0,0,0,0,0,0,0,0,0,0,0,0,0,0,0,0,0,0,0,0,0],"split_type":[0,0,0,0,0,0,0,0,0,0,0,0,0,0,0,0,0,0,0,0,0,0,0,0,0,0,0,0,0,0,0,0,0,0,0,0,0,0,0,0,0,0,0,0,0,0,0,0,0,0,0,0,0,0,0,0,0,0,0,0,0,0,0,0,0,0,0,0,0,0,0,0,0,0,0,0,0,0,0,0,0,0,0,0,0,0,0,0,0],"sum_hessian":[6.57E2,4.71E2,1.86E2,4.44E2,2.7E1,3.2E1,1.54E2,7E0,4.37E2,2.2E1,5E0,1E1,2.2E1,6.6E1,8.8E1,3E0,4E0,4E1,3.97E2,1.1E1,1.1E1,2E0,3E0,4E0,6E0,1.6E1,6E0,2.3E1,4.3E1,5.2E1,3.6E1,3.3E1,7E0,1.42E2,2.55E2,4E0,7E0,7E0,4E0,1E0,2E0,1E0,3E0,3E0,3E0,1E1,6E0,5E0,1E0,1.5E1,8E0,2.2E1,2.1E1,1.4E1,3.8E1,1.7E1,1.9E1,2.4E1,9E0,2E0,5E0,1.03E2,3.9E1,1.54E2,1.01E2,1E0,6E0,5E0,2E0,7E0,3E0,5E0,1E0,7E0,8E0,1E0,7E0,1.6E1,6E0,1.5E1,6E0,1.1E1,3E0,2.7E1,1.1E1,1.3E1,4E0,3E0,1.6E1],"tree_param":{"num_deleted":"0","num_feature":"60","num_nodes":"89","size_leaf_vector":"0"}},{"base_weights":[-2.4054675E-6,1.2758324E-3,-7.9893693E-4,3.456039E-4,9.384151E-3,1.4536098E-2,-1.0263964E-3,1.5904761E-3,-4.8963726E-3,1.3903541E-2,-4.8689875E-3,-1.9367436E-3,2.3256704E-2,-2.6697159E-2,-8.9547667E-4,-7.6071173E-4,4.489053E-3,-2.5248488E-2,-3.3260698E-3,-1.7344833E-3,1.7921451E-2,-7.5954543E-3,1.2981197E-3,2.33531E-3,-5.2404255E-3,1.9857902E-3,-1.9145225E-3,-3.93743E-3,4.3410556E-3,-2.9788455E-3,8.345053E-3,-8.0829635E-3,-3.8398223E-4,-7.1971416E-3,1.4304668E-3,3.9537875E-3,2.2247858E-2,-2.0917058E-3,-8.448465E-3,-1.4587011E-3,6.4354357E-3,-2.7369026E-3,4.722534E-3,-2.3672767E-3,-1.8721035E-2,2.297633E-4,8.44086E-3,8.873064E-4,-1.0413265E-2,1.2760621E-2,-1.440316E-3,-1.1804764E-3,-1.2106407E-2,-5.6504123E-3,3.5898392E-3,4.662093E-3,5.6028366E-4,2.4455298E-2,7.473772E-3,1.7317289E-3,-6.666424E-3,1.0432112E-2,-2.5198364E-3,6.5063615E-4,-4.492817E-3,-2.689464E-3,1.0325558E-2],"categories":[],"categories_nodes":[],"categories_segments":[],"categories_sizes":[],"default_left":[1,1,1,1,1,1,1,1,1,1,1,1,0,0,1,1,1,0,1,1,1,1,0,0,0,1,1,1,1,1,1,1,1,0,0,1,1,0,0,1,1,1,1,0,0,0,0,0,0,0,0,0,0,0,0,0,0,0,0,0,0,0,0,0,0,0,0],"id":62,"left_children":[1,3,5,7,9,11,13,15,17,19,21,23,-1,-1,25,27,29,-1,31,33,35,37,-1,-1,-1,39,41,43,45,47,49,51,53,-1,-1,55,57,-1,-1,59,61,63,65,-1,-1,-1,-1,-1,-1,-1,-1,-1,-1,-1,-1,-1,-1,-1,-1,-1,-1,-1,-1,-1,-1,-1,-1],"loss_changes":[6.709664E-4,1.9050315E-3,1.4310884E-3,1.4956222E-3,1.7424992E-3,9.069614E-4,1.3237786E-3,1.2642081E-3,1.3222172E-3,1.2877283E-3,1.2756068E-4,5.457854E-5,0E0,0E0,1.178259E-3,1.6864011E-3,2.4149443E-3,0E0,5.8469456E-4,9.674048E-5,8.789133E-4,5.8020814E-6,0E0,0E0,0E0,1.6186979E-3,1.6285474E-3,1.4412841E-3,6.7228026E-4,8.4277487E-4,2.3948173E-3,4.3005694E-4,5.853361E-4,0E0,6.128521E-7,9.406089E-6,2.085818E-4,0E0,0E0,1.008437E-3,1.672688E-3,1.5732555E-3,1.3982467E-3,0E0,0E0,0E0,0E0,0E0,0E0,0E0,0E0,0E0,0E0,0E0,0E0,0E0,0E0,0E0,0E0,0E0,0E0,0E0,0E0,0E0,0E0,0E0,0E0],"parents":[2147483647,0,0,1,1,2,2,3,3,4,4,5,5,6,6,7,7,8,8,9,9,10,10,11,11,14,14,15,15,16,16,18,18,19,19,20,20,21,21,25,25,26,26,27,27,28,28,29,29,30,30,31,31,32,32,35,35,36,36,39,39,40,40,41,41,42,42],"right_children":[2,4,6,8,10,12,14,16,18,20,22,24,-1,-1,26,28,30,-1,32,34,36,38,-1,-1,-1,40,42,44,46,48,50,52,54,-1,-1,56,58,-1,-1,60,62,64,66,-1,-1,-1,-1,-1,-1,-1,-1,-1,-1,-1,-1,-1,-1,-1,-1,-1,-1,-1,-1,-1,-1,-1,-1],"split_conditions":[-2.3967548E-1,-3.0424297E-1,-4.0989294E0,9.4818854E-1,8.0653787E-1,-5.8641005E-1,-4.6069407E0,3.075062E-2,9.64309E-1,-8.043973E-1,7.1874994E-1,9.282154E-2,6.9770114E-3,-8.009148E-3,-5.4256153E-1,1.4728907E-1,-5.594466E-1,-7.5745466E-3,-6.602744E-1,-7.667974E-1,-8.365803E-1,-7.7815485E-1,3.894359E-4,7.00593E-4,-1.5721277E-3,1.4592883E-1,1.4337149E0,1.9448551E0,1.4014468E-1,5.678064E-1,6.2773687E-1,-6.223227E-1,2.3537204E-1,-2.1591426E-3,4.2914005E-4,2.7900708E-1,3.2795498E-1,-6.2751176E-4,-2.5345394E-3,8.462717E-2,2.8984088E-1,-2.4444908E-1,-1.4613974E-1,-7.1018306E-4,-5.6163105E-3,6.8928995E-5,2.532258E-3,2.6619193E-4,-3.1239795E-3,3.8281863E-3,-4.3209482E-4,-3.5414292E-4,-3.6319224E-3,-1.6951237E-3,1.0769519E-3,1.3986279E-3,1.680851E-4,7.3365895E-3,2.2421316E-3,5.195187E-4,-1.9999275E-3,3.1296338E-3,-7.55951E-4,1.9519085E-4,-1.3478452E-3,-8.0683926E-4,3.0976674E-3],"split_indices":[20,20,4,17,59,1,43,8,17,22,0,0,0,0,25,58,21,0,30,2,35,0,0,0,0,35,44,10,9,14,54,0,14,0,0,1,4,0,0,21,11,2,46,0,0,0,0,0,0,0,0,0,0,0,0,0,0,0,0,0,0,0,0,0,0,0,0],"split_type":[0,0,0,0,0,0,0,0,0,0,0,0,0,0,0,0,0,0,0,0,0,0,0,0,0,0,0,0,0,0,0,0,0,0,0,0,0,0,0,0,0,0,0,0,0,0,0,0,0,0,0,0,0,0,0,0,0,0,0,0,0,0,0,0,0,0,0],"sum_hessian":[6.57E2,2.52E2,4.05E2,2.27E2,2.5E1,5E0,4E2,1.84E2,4.3E1,1.9E1,6E0,2E0,3E0,1E0,3.99E2,1.02E2,8.2E1,2E0,4.1E1,4E0,1.5E1,4E0,2E0,1E0,1E0,1.04E2,2.95E2,6.3E1,3.9E1,2.8E1,5.4E1,1.5E1,2.6E1,1E0,3E0,4E0,1.1E1,1E0,3E0,5.9E1,4.5E1,2.63E2,3.2E1,5.8E1,5E0,2E1,1.9E1,1.9E1,9E0,3.7E1,1.7E1,6E0,9E0,1.1E1,1.5E1,3E0,1E0,9E0,2E0,3.7E1,2.2E1,3.1E1,1.4E1,9E1,1.73E2,1.4E1,1.8E1],"tree_param":{"num_deleted":"0","num_feature":"60","num_nodes":"67","size_leaf_vector":"0"}},{"base_weights":[-1.4745052E-5,-3.1624842E-4,2.8886783E-3,4.5756553E-4,-1.9891248E-3,-1.1442231E-3,6.7052804E-3,1.28379E-3,-2.7069112E-3,-3.1214207E-3,4.1160905E-3,-4.4394243E-3,6.219642E-3,-2.336899E-3,1.0921584E-2,8.523799E-4,1.2465373E-2,-1.9536098E-3,-2.264595E-2,-6.633708E-3,-9.477115E-4,-2.7603842E-3,1.1176591E-2,2.3691764E-3,-7.140723E-3,1.9441545E-4,1.0204057E-2,4.9049705E-3,-9.189285E-3,1.2546895E-3,1.4468253E-2,-1.5325393E-4,4.1744485E-3,1.2488067E-3,2.0298805E-2,1.7051783E-3,-5.565883E-3,3.5208715E-3,-9.192398E-3,-4.1313437E-3,3.035202E-3,-1.04121E-2,6.1928444E-3,2.1461837E-2,6.816793E-3,3.4254044E-3,7.2065415E-4,-2.6507035E-3,-1.2534933E-2,1.9641172E-3,-1.6400913E-3,4.3409667E-3,1.205036E-2,1.3246933E-3,6.363936E-3,3.83248E-3,-1.6367733E-3,7.790034E-3,2.0172717E-2,4.0148324E-4,-1.4559392E-2,-4.980753E-3,7.0426483E-3,2.401486E-3,-7.0436794E-4,7.567988E-3,2.7954921E-2,-1.6384736E-2,3.5168317E-3,-1.3597933E-2,-1.064218E-3,2.9690427E-4,1.4168461E-2,-1.0975219E-2,8.691471E-3,-8.8933455E-3,2.9216992E-4,1.0428942E-2,8.9707394E-4,-1.1312759E-2,-1.6034164E-3,2.272715E-3,1.1968821E-2,8.9417E-3,3.315527E-4,5.2191317E-4,-4.0849554E-3,-2.6237965E-4,-2.8799772E-3,3.1605214E-3,9.578037E-3,8.871973E-3,2.246097E-2],"categories":[],"categories_nodes":[],"categories_segments":[],"categories_sizes":[],"default_left":[1,1,1,1,1,1,1,1,1,1,1,1,1,1,1,1,1,1,0,1,1,1,1,1,1,1,1,1,0,1,1,1,1,1,1,1,1,1,1,1,1,1,1,0,1,0,0,1,0,0,0,0,0,0,0,0,1,1,1,0,0,0,0,0,0,0,0,0,0,0,0,0,0,0,0,0,0,0,0,0,0,0,0,0,0,0,0,0,0,0,0,0,0],"id":63,"left_children":[1,3,5,7,9,11,13,15,17,19,21,23,25,27,29,31,33,35,-1,37,39,41,43,45,47,49,51,53,-1,55,57,59,61,63,65,67,69,71,73,75,77,79,81,-1,83,-1,-1,85,-1,-1,-1,-1,-1,-1,-1,-1,87,89,91,-1,-1,-1,-1,-1,-1,-1,-1,-1,-1,-1,-1,-1,-1,-1,-1,-1,-1,-1,-1,-1,-1,-1,-1,-1,-1,-1,-1,-1,-1,-1,-1,-1,-1],"loss_changes":[5.769214E-4,7.737238E-4,9.619752E-4,1.0728334E-3,1.3193879E-3,7.798395E-4,1.2455093E-3,1.5571256E-3,1.2324678E-3,1.2152636E-3,1.4873922E-3,4.2154305E-4,2.3808621E-4,5.9093814E-4,7.361225E-4,1.0496461E-3,1.0290211E-3,1.1064638E-3,0E0,1.6172933E-3,1.2805526E-3,1.1606015E-3,5.263231E-4,9.719977E-6,3.5429536E-4,1.945398E-5,1.2640085E-5,2.2910739E-5,0E0,5.8448E-5,4.5238435E-4,1.9398176E-3,1.9519808E-3,1.5199834E-5,4.7071767E-4,1.4340737E-3,1.5041479E-3,4.420506E-4,1.6576941E-3,1.182226E-3,7.020387E-4,5.3263444E-5,1.5393889E-4,0E0,1.6240176E-4,0E0,3.1548393E-7,4.76353E-5,0E0,0E0,0E0,0E0,0E0,0E0,0E0,0E0,6.07896E-6,4.4226646E-5,7.598428E-6,0E0,0E0,0E0,0E0,0E0,0E0,0E0,0E0,0E0,0E0,0E0,0E0,0E0,0E0,0E0,0E0,0E0,0E0,0E0,0E0,0E0,0E0,0E0,0E0,0E0,0E0,0E0,0E0,0E0,0E0,0E0,0E0,0E0,0E0],"parents":[2147483647,0,0,1,1,2,2,3,3,4,4,5,5,6,6,7,7,8,8,9,9,10,10,11,11,12,12,13,13,14,14,15,15,16,16,17,17,19,19,20,20,21,21,22,22,23,23,24,24,25,25,26,26,27,27,29,29,30,30,31,31,32,32,33,33,34,34,35,35,36,36,37,37,38,38,39,39,40,40,41,41,42,42,44,44,47,47,56,56,57,57,58,58],"right_children":[2,4,6,8,10,12,14,16,18,20,22,24,26,28,30,32,34,36,-1,38,40,42,44,46,48,50,52,54,-1,56,58,60,62,64,66,68,70,72,74,76,78,80,82,-1,84,-1,-1,86,-1,-1,-1,-1,-1,-1,-1,-1,88,90,92,-1,-1,-1,-1,-1,-1,-1,-1,-1,-1,-1,-1,-1,-1,-1,-1,-1,-1,-1,-1,-1,-1,-1,-1,-1,-1,-1,-1,-1,-1,-1,-1,-1,-1],"split_conditions":[1.4339473E0,3.0559504E-1,-8.834137E-2,7.109565E-1,1.1206689E0,8.3187854E-1,-1.9628552E-1,6.301162E-1,3.3828573E0,-2.3426604E-1,-3.2315683E-2,-4.338744E-1,-8.932868E-1,3.2209116E-1,-5.0955427E-1,5.591678E-1,-1.3556772E-1,-1.9775862E-1,-6.7937854E-3,-1.1767128E0,1.2077772E-1,3.2183832E-1,-3.0165583E-1,-4.1429812E-1,4.8195723E-2,1.4059808E0,-7.2805893E-1,-9.632861E-1,-2.7567856E-3,-6.775636E-1,-1.8698438E-1,5.047599E-1,-4.7742265E-1,-2.7603754E-1,-8.6460984E-1,8.356825E-1,-3.47795E-1,1.1410792E0,2.05586E0,-1.7220923E-1,-1.0898755E0,2.1951132E0,-1.1000305E0,6.4385515E-3,5.0924474E-1,1.0276213E-3,2.1619625E-4,-5.811542E-1,-3.76048E-3,5.8923516E-4,-4.9202744E-4,1.30229E-3,3.6151083E-3,3.97408E-4,1.9091808E-3,1.149744E-3,1.825132E-1,2.4131867E-1,-2.0534992E0,1.2044497E-4,-4.3678177E-3,-1.494226E-3,2.1127947E-3,7.204458E-4,-2.1131038E-4,2.2703963E-3,8.386477E-3,-4.915421E-3,1.0550496E-3,-4.07938E-3,-3.192654E-4,8.907128E-5,4.2505385E-3,-3.292566E-3,2.6074415E-3,-2.6680038E-3,8.765098E-5,3.1286827E-3,2.691222E-4,-3.3938277E-3,-4.8102494E-4,6.8181456E-4,3.5906464E-3,2.68251E-3,9.946581E-5,1.5657395E-4,-1.2254866E-3,-7.87139E-5,-8.639932E-4,9.4815646E-4,2.8734112E-3,2.6615919E-3,6.738291E-3],"split_indices":[56,19,12,24,2,27,30,24,50,43,14,55,20,23,4,46,42,25,0,34,51,55,57,24,5,0,2,3,0,9,57,46,13,11,5,24,1,17,20,46,41,0,24,0,22,0,0,20,0,0,0,0,0,0,0,0,0,32,13,0,0,0,0,0,0,0,0,0,0,0,0,0,0,0,0,0,0,0,0,0,0,0,0,0,0,0,0,0,0,0,0,0,0],"split_type":[0,0,0,0,0,0,0,0,0,0,0,0,0,0,0,0,0,0,0,0,0,0,0,0,0,0,0,0,0,0,0,0,0,0,0,0,0,0,0,0,0,0,0,0,0,0,0,0,0,0,0,0,0,0,0,0,0,0,0,0,0,0,0,0,0,0,0,0,0,0,0,0,0,0,0,0,0,0,0,0,0,0,0,0,0,0,0,0,0,0,0,0,0],"sum_hessian":[6.57E2,5.96E2,6.1E1,4.08E2,1.88E2,3E1,3.1E1,3.24E2,8.4E1,1.59E2,2.9E1,2.1E1,9E0,1E1,2.1E1,3.13E2,1.1E1,8.2E1,2E0,6E1,9.9E1,1.5E1,1.4E1,6E0,1.5E1,4E0,5E0,5E0,5E0,6E0,1.5E1,2.41E2,7.2E1,5E0,6E0,4.1E1,4.1E1,1.2E1,4.8E1,5.5E1,4.4E1,8E0,7E0,3E0,1.1E1,3E0,3E0,9E0,6E0,2E0,2E0,2E0,3E0,2E0,3E0,3E0,3E0,8E0,7E0,2.33E2,8E0,1.7E1,5.5E1,3E0,2E0,3E0,3E0,3E0,3.8E1,1.4E1,2.7E1,1E1,2E0,4.4E1,4E0,2.6E1,2.9E1,9E0,3.5E1,7E0,1E0,5E0,2E0,8E0,3E0,3E0,6E0,2E0,1E0,3E0,5E0,2E0,5E0],"tree_param":{"num_deleted":"0","num_feature":"60","num_nodes":"93","size_leaf_vector":"0"}},{"base_weights":[2.1566757E-5,1.9251344E-4,-4.706418E-3,2.7153463E-4,-1.2360718E-2,-8.206482E-3,1.6499576E-3,8.690153E-4,-1.0169264E-3,-1.8928399E-3,-2.1882176E-2,-1.458924E-2,-3.5561796E-3,-5.089678E-4,2.8142482E-3,-5.1385937E-3,1.1419684E-3,2.05664E-3,-3.0660336E-3,-3.2756925E-3,4.3643266E-4,-1.8608073E-2,-7.927805E-3,1.1686161E-3,-5.7480372E-3,-9.5596415E-4,4.1601062E-4,3.4719333E-3,9.99252E-4,-7.607972E-3,3.2972589E-3,7.0863706E-4,5.826462E-3,-4.7858288E-3,5.7618283E-3,-3.5428768E-3,1.6870761E-2,-6.7991656E-3,2.7936697E-4,-2.4706721E-3,-8.6864075E-3,3.71054E-3,8.2206726E-4,3.7463359E-3,-1.1300322E-5,1.1371628E-3,1.2779186E-2,-1.4981615E-2,5.513559E-4,6.663592E-3,-6.950679E-3,1.1814994E-2,-4.1798027E-3,4.213369E-3,2.1092772E-2],"categories":[],"categories_nodes":[],"categories_segments":[],"categories_sizes":[],"default_left":[1,1,1,1,1,1,1,1,1,1,0,1,1,1,1,1,1,1,1,0,0,0,0,0,1,0,0,0,0,1,1,1,1,1,1,1,1,0,0,0,0,0,0,0,0,0,0,0,0,0,0,0,0,0,0],"id":64,"left_children":[1,3,5,7,9,11,13,15,17,19,-1,21,23,25,27,29,31,33,35,-1,-1,-1,-1,-1,37,-1,-1,-1,-1,39,41,43,45,47,49,51,53,-1,-1,-1,-1,-1,-1,-1,-1,-1,-1,-1,-1,-1,-1,-1,-1,-1,-1],"loss_changes":[5.327236E-4,6.342501E-4,5.25238E-4,4.8818646E-4,3.5725837E-4,3.9334444E-4,2.4054914E-5,7.1589975E-4,1.2722173E-3,1.1092741E-5,0E0,1.31059205E-5,1.1027805E-4,2.051539E-6,3.6928395E-6,4.2088027E-4,8.382955E-4,2.0811385E-3,1.2100849E-3,0E0,0E0,0E0,0E0,0E0,4.624849E-5,0E0,0E0,0E0,0E0,6.164244E-5,2.0644366E-6,8.332714E-4,1.126587E-3,1.5863474E-3,6.538916E-4,1.2134216E-3,7.144734E-5,0E0,0E0,0E0,0E0,0E0,0E0,0E0,0E0,0E0,0E0,0E0,0E0,0E0,0E0,0E0,0E0,0E0,0E0],"parents":[2147483647,0,0,1,1,2,2,3,3,4,4,5,5,6,6,7,7,8,8,9,9,11,11,12,12,13,13,14,14,15,15,16,16,17,17,18,18,24,24,29,29,30,30,31,31,32,32,33,33,34,34,35,35,36,36],"right_children":[2,4,6,8,10,12,14,16,18,20,-1,22,24,26,28,30,32,34,36,-1,-1,-1,-1,-1,38,-1,-1,-1,-1,40,42,44,46,48,50,52,54,-1,-1,-1,-1,-1,-1,-1,-1,-1,-1,-1,-1,-1,-1,-1,-1,-1,-1],"split_conditions":[3.0010996E0,4.453026E0,3.536862E-1,3.540786E-1,1.6577787E0,-1.8467943E-1,-3.533459E-1,-2.4151073E0,-1.5029517E-1,-8.1208736E-1,-6.564653E-3,-1.2898836E-1,-8.4184325E-1,3.6657736E-1,1.3877222E-1,5.943605E-1,1.9546558E-1,-6.720567E-2,3.1222453E0,-9.827078E-4,1.3092981E-4,-5.582422E-3,-2.3783417E-3,3.5058486E-4,2.8529826E-1,-2.8678926E-4,1.2480319E-4,1.04158E-3,2.997756E-4,-9.021665E-1,5.3970456E-1,-1.1387923E0,-1.4426383E-1,-3.847089E-1,2.5625834E0,-2.8206882E0,-9.83541E-1,-2.0397499E-3,8.38101E-5,-7.412017E-4,-2.6059223E-3,1.113162E-3,2.4662018E-4,1.1239008E-3,-3.3900967E-6,3.4114884E-4,3.8337559E-3,-4.494485E-3,1.6540677E-4,1.9990776E-3,-2.0852038E-3,3.5444982E-3,-1.2539409E-3,1.2640108E-3,6.327832E-3],"split_indices":[12,35,33,10,0,19,38,57,45,0,0,2,29,0,1,22,10,2,32,0,0,0,0,0,4,0,0,0,0,37,0,43,24,35,32,32,0,0,0,0,0,0,0,0,0,0,0,0,0,0,0,0,0,0,0],"split_type":[0,0,0,0,0,0,0,0,0,0,0,0,0,0,0,0,0,0,0,0,0,0,0,0,0,0,0,0,0,0,0,0,0,0,0,0,0,0,0,0,0,0,0,0,0,0,0,0,0,0,0,0,0,0,0],"sum_hessian":[6.57E2,6.35E2,2.2E1,6.32E2,3E0,1.4E1,8E0,4.32E2,2E2,2E0,1E0,5E0,9E0,3E0,5E0,1.8E1,4.14E2,8E1,1.2E2,1E0,1E0,2E0,3E0,3E0,6E0,2E0,1E0,3E0,2E0,1.4E1,4E0,3.8E2,3.4E1,2.8E1,5.2E1,1.18E2,2E0,5E0,1E0,3E0,1.1E1,3E0,1E0,7.2E1,3.08E2,2.1E1,1.3E1,9E0,1.9E1,4.9E1,3E0,4E0,1.14E2,1E0,1E0],"tree_param":{"num_deleted":"0","num_feature":"60","num_nodes":"55","size_leaf_vector":"0"}},{"base_weights":[4.410727E-6,-8.865528E-4,8.872857E-4,-3.6243582E-4,-8.160069E-3,6.1745285E-3,3.2035552E-4,5.1773074E-3,-9.151157E-4,1.478307E-3,-1.4946506E-2,2.999903E-4,1.0726947E-2,6.190551E-4,-7.583575E-3,-1.3523196E-3,8.880007E-3,1.0690287E-3,-3.0541527E-3,-4.203528E-3,3.4242067E-3,-3.0408006E-3,-2.2007473E-2,-1.3254633E-3,5.1013534E-3,1.4854957E-2,2.1179377E-3,-1.9698262E-2,7.575173E-4,-2.776459E-4,-2.0299539E-2,-4.166469E-3,2.8579533E-3,1.614659E-2,5.650513E-3,7.362346E-3,-1.6762684E-4,-6.955863E-3,-4.4748766E-4,9.444505E-4,5.6678504E-3,-3.834355E-3,4.6348572E-4,-2.6710948E-2,-5.2646995E-3,2.3238435E-3,-2.8001037E-3,1.5784014E-2,2.317667E-3,4.784532E-3,-1.0781409E-3,-2.8375664E-3,1.558285E-3,2.7015705E-3,-6.1435304E-3,-2.3868144E-2,-4.7968626E-3,-1.8496022E-3,-6.639091E-3,8.2639855E-4,3.936857E-3,4.3492317E-3,1.800862E-2,2.812147E-4,6.521961E-3,1.1794635E-2,-2.2322498E-5,-2.0144302E-3,4.016392E-3,-1.0102866E-2,1.1496991E-3,1.7879932E-3,-5.3311386E-3,1.3565322E-3,2.1755199E-4,2.7091205E-3,5.840063E-4,-9.08035E-4,-4.1321516E-3,6.1288476E-5,-2.2482146E-3,-4.149971E-3,1.42768845E-2,-5.171879E-3,1.9719636E-3,-2.7050576E-4,4.255235E-3],"categories":[],"categories_nodes":[],"categories_segments":[],"categories_sizes":[],"default_left":[1,1,1,1,1,1,1,1,1,1,1,1,1,1,1,1,1,1,1,0,1,1,1,1,0,1,1,0,1,1,1,1,1,1,1,1,1,1,1,1,0,0,0,0,0,1,1,0,0,0,1,1,1,1,0,0,0,0,0,0,0,0,0,0,0,0,0,0,0,0,0,0,0,0,0,0,0,0,0,0,0,0,0,0,0,0,0],"id":65,"left_children":[1,3,5,7,9,11,13,15,17,19,21,23,25,27,29,31,33,35,37,-1,39,41,43,45,-1,47,49,-1,51,53,55,57,59,61,63,65,67,69,71,73,-1,-1,-1,-1,-1,75,77,-1,-1,-1,79,81,83,85,-1,-1,-1,-1,-1,-1,-1,-1,-1,-1,-1,-1,-1,-1,-1,-1,-1,-1,-1,-1,-1,-1,-1,-1,-1,-1,-1,-1,-1,-1,-1,-1,-1],"loss_changes":[5.183756E-4,1.2474352E-3,9.901936E-4,9.4468123E-4,1.4611209E-3,8.525695E-4,7.1296486E-4,6.889715E-4,1.1916293E-3,1.2495657E-4,1.0259347E-3,1.2382756E-4,6.082235E-4,8.3074416E-4,1.016285E-3,1.4223928E-4,3.3117633E-4,1.1375034E-3,1.3698983E-3,0E0,3.9156504E-5,1.8462219E-5,4.893688E-4,7.108399E-5,0E0,1.03192404E-4,6.4816915E-5,0E0,8.3640264E-4,1.564031E-4,1.0679953E-4,2.7821457E-5,7.70585E-6,3.1511532E-5,6.3672895E-5,7.858069E-4,9.585192E-4,1.3890599E-3,9.0475136E-4,1.2025916E-6,0E0,0E0,0E0,0E0,0E0,1.0991334E-6,1.8930798E-5,0E0,0E0,0E0,5.4706543E-6,1.2496861E-3,6.7003636E-4,2.8856728E-5,0E0,0E0,0E0,0E0,0E0,0E0,0E0,0E0,0E0,0E0,0E0,0E0,0E0,0E0,0E0,0E0,0E0,0E0,0E0,0E0,0E0,0E0,0E0,0E0,0E0,0E0,0E0,0E0,0E0,0E0,0E0,0E0,0E0],"parents":[2147483647,0,0,1,1,2,2,3,3,4,4,5,5,6,6,7,7,8,8,9,9,10,10,11,11,12,12,13,13,14,14,15,15,16,16,17,17,18,18,20,20,21,21,22,22,23,23,25,25,26,26,28,28,29,29,30,30,31,31,32,32,33,33,34,34,35,35,36,36,37,37,38,38,39,39,45,45,46,46,50,50,51,51,52,52,53,53],"right_children":[2,4,6,8,10,12,14,16,18,20,22,24,26,28,30,32,34,36,38,-1,40,42,44,46,-1,48,50,-1,52,54,56,58,60,62,64,66,68,70,72,74,-1,-1,-1,-1,-1,76,78,-1,-1,-1,80,82,84,86,-1,-1,-1,-1,-1,-1,-1,-1,-1,-1,-1,-1,-1,-1,-1,-1,-1,-1,-1,-1,-1,-1,-1,-1,-1,-1,-1,-1,-1,-1,-1,-1,-1],"split_conditions":[-9.120928E-3,-7.794234E-2,9.458068E-2,-1.9435093E0,-1.4593112E-1,-3.0368587E-2,2.663605E0,5.3366065E-2,5.0304364E-3,-1.414359E0,-5.045557E-1,3.5124728E-1,1.6342784E-1,-4.6890974E0,4.105289E-1,-1.4680108E-1,-3.602364E-1,-1.4370416E0,4.8036182E-1,-1.2610585E-3,-1.6607195E-1,1.2496517E0,9.395048E-2,-2.8750914E-1,1.5304061E-3,1.1596501E0,-4.021074E-2,-5.9094788E-3,-1.2729454E0,1.3877486E-1,1.6822854E-1,9.8920774E-1,6.698179E-1,-1.8852808E0,-1.3413333E0,3.89912E-1,-3.013842E-1,5.1872945E-1,5.060402E-1,6.406742E-2,1.7003552E-3,-1.1503065E-3,1.3904572E-4,-8.013285E-3,-1.5794099E-3,5.1468974E-1,3.578109E-1,4.7352044E-3,6.953001E-4,1.4353596E-3,3.313557E-1,1.7690797E0,-2.492991E0,3.812112E-1,-1.8430592E-3,-7.1604433E-3,-1.4390588E-3,-5.548807E-4,-1.9917274E-3,2.4791958E-4,1.1810572E-3,1.3047695E-3,5.402586E-3,8.4364416E-5,1.9565884E-3,3.5383906E-3,-6.6967496E-6,-6.043291E-4,1.2049177E-3,-3.03086E-3,3.4490973E-4,5.36398E-4,-1.5993416E-3,4.0695968E-4,6.52656E-5,8.1273617E-4,1.752019E-4,-2.724105E-4,-1.2396455E-3,1.8386543E-5,-6.744644E-4,-1.2449913E-3,4.2830654E-3,-1.5515639E-3,5.915891E-4,-8.115173E-5,1.2765706E-3],"split_indices":[6,6,6,29,2,9,37,24,43,45,1,3,28,43,9,11,12,14,43,0,1,4,0,47,0,10,7,0,51,7,0,4,10,0,30,36,43,41,3,0,0,0,0,0,0,1,14,0,0,0,1,36,54,1,0,0,0,0,0,0,0,0,0,0,0,0,0,0,0,0,0,0,0,0,0,0,0,0,0,0,0,0,0,0,0,0,0],"split_type":[0,0,0,0,0,0,0,0,0,0,0,0,0,0,0,0,0,0,0,0,0,0,0,0,0,0,0,0,0,0,0,0,0,0,0,0,0,0,0,0,0,0,0,0,0,0,0,0,0,0,0,0,0,0,0,0,0,0,0,0,0,0,0,0,0,0,0,0,0,0,0,0,0,0,0,0,0,0,0,0,0,0,0,0,0,0,0],"sum_hessian":[6.57E2,3.27E2,3.3E2,3.06E2,2.1E1,3.1E1,2.99E2,2.7E1,2.79E2,9E0,1.2E1,1.4E1,1.7E1,2.89E2,1E1,1E1,1.7E1,1.45E2,1.34E2,2E0,7E0,5E0,7E0,1.1E1,3E0,1.1E1,6E0,1E0,2.88E2,7E0,3E0,6E0,4E0,4E0,1.3E1,2.3E1,1.22E2,5.3E1,8.1E1,4E0,3E0,4E0,1E0,5E0,2E0,3E0,8E0,1E1,1E0,3E0,3E0,5.2E1,2.36E2,5E0,2E0,2E0,1E0,4E0,2E0,2E0,2E0,1E0,3E0,2E0,1.1E1,1.4E1,9E0,8.5E1,3.7E1,3.8E1,1.5E1,5.6E1,2.5E1,2E0,2E0,2E0,1E0,4E0,4E0,2E0,1E0,4.9E1,3E0,1.3E1,2.23E2,2E0,3E0],"tree_param":{"num_deleted":"0","num_feature":"60","num_nodes":"87","size_leaf_vector":"0"}},{"base_weights":[-8.378782E-6,-1.5316266E-3,5.3386454E-4,-2.4486987E-3,2.748146E-3,-3.3531552E-3,8.3366944E-4,1.2313582E-3,-4.380126E-3,-7.365933E-4,1.0139758E-2,4.068176E-4,-1.4260501E-2,-1.6169846E-2,9.072246E-4,1.6888295E-4,1.3407603E-2,-1.849657E-3,-9.988085E-3,-9.076297E-3,5.51192E-4,2.8839111E-3,1.6818821E-2,-3.4158835E-3,4.786333E-3,-1.8845959E-2,1.1924008E-3,-1.3229877E-3,1.514051E-3,-5.6796416E-4,6.4719915E-3,1.5316308E-3,1.6855717E-2,-4.093674E-3,2.2479426E-3,-4.7187577E-3,-1.952793E-2,3.2504215E-3,-1.1522719E-3,5.772054E-3,-1.92825E-3,-4.9106E-3,1.9222363E-3,8.896709E-3,-1.4918913E-3,-2.0994226E-2,-2.9781759E-3,2.3293197E-3,-5.4071844E-4,-5.177596E-4,-1.6035633E-2,2.4300928E-3,-9.826672E-4,-2.6510379E-3,2.2028151E-3,-7.2332746E-3,-7.6799747E-4,4.871578E-3,-4.819683E-3,1.3095652E-3,-7.3958654E-3,-2.8677344E-2,-8.648765E-3,-1.3147295E-4,5.3058527E-3,-2.2531413E-3,5.075994E-4,-3.141135E-3,2.4875998E-4,-7.105928E-3,-3.389276E-3,1.4359335E-2,4.6826117E-3,5.903926E-4,-3.7709728E-3,-2.9132173E-3,3.026014E-3,-3.2325527E-3,-1.8428266E-2,3.6218595E-3,-6.724032E-4,-4.596665E-3,1.5707116E-3],"categories":[],"categories_nodes":[],"categories_segments":[],"categories_sizes":[],"default_left":[1,1,1,1,1,1,1,1,1,1,1,1,1,0,1,1,1,1,1,0,1,1,0,1,1,1,1,1,1,1,0,0,0,1,1,1,1,1,1,0,1,1,0,1,1,0,0,0,0,1,1,1,1,0,0,0,0,0,0,0,0,0,0,0,0,0,0,0,0,0,0,0,0,0,0,0,0,0,0,0,0,0,0],"id":66,"left_children":[1,3,5,7,9,11,13,15,17,19,21,23,25,-1,27,29,31,33,35,-1,37,39,-1,41,43,45,47,49,51,53,-1,-1,-1,55,57,59,61,63,65,-1,67,69,-1,71,73,-1,-1,-1,-1,75,77,79,81,-1,-1,-1,-1,-1,-1,-1,-1,-1,-1,-1,-1,-1,-1,-1,-1,-1,-1,-1,-1,-1,-1,-1,-1,-1,-1,-1,-1,-1,-1],"loss_changes":[5.443066E-4,6.857302E-4,5.691544E-4,1.0218034E-3,8.059619E-4,1.4411977E-3,5.7998416E-4,6.445836E-4,1.3154575E-3,2.4127722E-4,4.3611857E-4,4.6837216E-4,6.6019956E-4,0E0,6.123647E-4,2.2196396E-4,1.3798208E-4,6.160778E-4,1.3656411E-3,0E0,9.5706164E-5,9.451923E-5,0E0,1.2912396E-4,3.4874922E-4,1.7609331E-4,7.1707545E-6,1.1408599E-3,8.143079E-4,2.5402443E-4,0E0,0E0,0E0,4.434205E-4,4.685083E-4,3.3245477E-4,7.4735587E-4,5.630758E-5,2.4898616E-5,0E0,8.702776E-6,1.599369E-5,0E0,1.1692115E-4,3.070053E-5,0E0,0E0,0E0,0E0,7.982887E-4,9.359489E-5,9.6377253E-4,8.93099E-4,0E0,0E0,0E0,0E0,0E0,0E0,0E0,0E0,0E0,0E0,0E0,0E0,0E0,0E0,0E0,0E0,0E0,0E0,0E0,0E0,0E0,0E0,0E0,0E0,0E0,0E0,0E0,0E0,0E0,0E0],"parents":[2147483647,0,0,1,1,2,2,3,3,4,4,5,5,6,6,7,7,8,8,9,9,10,10,11,11,12,12,14,14,15,15,16,16,17,17,18,18,20,20,21,21,23,23,24,24,25,25,26,26,27,27,28,28,29,29,33,33,34,34,35,35,36,36,37,37,38,38,40,40,41,41,43,43,44,44,49,49,50,50,51,51,52,52],"right_children":[2,4,6,8,10,12,14,16,18,20,22,24,26,-1,28,30,32,34,36,-1,38,40,-1,42,44,46,48,50,52,54,-1,-1,-1,56,58,60,62,64,66,-1,68,70,-1,72,74,-1,-1,-1,-1,76,78,80,82,-1,-1,-1,-1,-1,-1,-1,-1,-1,-1,-1,-1,-1,-1,-1,-1,-1,-1,-1,-1,-1,-1,-1,-1,-1,-1,-1,-1,-1,-1],"split_conditions":[-6.494575E-1,6.382861E-1,-1.968914E0,-6.214595E-1,1.2411913E-1,3.1011721E-1,-5.235216E0,-6.8386126E-1,2.2186193E-1,-8.8222176E-1,3.5648298E-1,3.750698E-1,9.8276794E-1,-4.850954E-3,-7.487378E-1,2.254569E0,-3.1939273E0,1.2216064E-1,1.3495392E-1,-2.7228892E-3,-2.2432103E0,3.0387723E-1,5.045647E-3,7.6186395E-1,8.9519787E-1,8.411387E-1,-1.6397697E-1,-7.898023E-1,5.607685E-1,8.481832E-3,1.9415976E-3,4.5948924E-4,5.056715E-3,-2.8055286E-1,6.745552E-1,-4.9695036E-1,4.036138E-2,1.8018243E-1,4.3304473E-1,1.7316163E-3,-4.252848E-1,4.601455E-2,5.766709E-4,6.944935E-2,4.31007E-1,-6.2982677E-3,-8.934528E-4,6.9879595E-4,-1.6221554E-4,2.3441368E-1,-2.7513545E0,5.245129E-1,1.0544224E0,-7.953114E-4,6.6084455E-4,-2.1699825E-3,-2.3039925E-4,1.4614734E-3,-1.4459048E-3,3.9286955E-4,-2.2187596E-3,-8.603204E-3,-2.5946298E-3,-3.9441886E-5,1.5917559E-3,-6.759424E-4,1.5227983E-4,-9.423405E-4,7.4628E-5,-2.1317785E-3,-1.0167828E-3,4.307801E-3,1.4047836E-3,1.7711779E-4,-1.1312919E-3,-8.739652E-4,9.0780423E-4,-9.697658E-4,-5.52848E-3,1.0865579E-3,-2.0172096E-4,-1.3789996E-3,4.712135E-4],"split_indices":[34,13,23,13,16,33,46,13,50,17,17,20,5,0,44,8,0,26,58,0,34,4,0,49,48,0,0,44,8,29,0,0,0,3,16,14,12,9,2,0,0,14,0,24,0,0,0,0,0,53,1,10,8,0,0,0,0,0,0,0,0,0,0,0,0,0,0,0,0,0,0,0,0,0,0,0,0,0,0,0,0,0,0],"split_type":[0,0,0,0,0,0,0,0,0,0,0,0,0,0,0,0,0,0,0,0,0,0,0,0,0,0,0,0,0,0,0,0,0,0,0,0,0,0,0,0,0,0,0,0,0,0,0,0,0,0,0,0,0,0,0,0,0,0,0,0,0,0,0,0,0,0,0,0,0,0,0,0,0,0,0,0,0,0,0,0,0,0,0],"sum_hessian":[6.57E2,1.72E2,4.85E2,1.42E2,3E1,3.4E1,4.51E2,4.9E1,9.3E1,2.1E1,9E0,2.6E1,8E0,1E0,4.5E2,4.6E1,3E0,6.5E1,2.8E1,2E0,1.9E1,5E0,4E0,1.4E1,1.2E1,6E0,2E0,9.6E1,3.54E2,4.2E1,4E0,1E0,2E0,4.2E1,2.3E1,1.9E1,9E0,7E0,1.2E1,3E0,2E0,1.1E1,3E0,7E0,5E0,5E0,1E0,1E0,1E0,9.2E1,4E0,2.59E2,9.5E1,2.4E1,1.8E1,2.1E1,2.1E1,1.7E1,6E0,6E0,1.3E1,4E0,5E0,3E0,4E0,7E0,5E0,1E0,1E0,3E0,8E0,2E0,5E0,3E0,2E0,5.5E1,3.7E1,1E0,3E0,1.87E2,7.2E1,3.9E1,5.6E1],"tree_param":{"num_deleted":"0","num_feature":"60","num_nodes":"83","size_leaf_vector":"0"}},{"base_weights":[-3.5768222E-5,-1.8481903E-4,4.728194E-3,-2.833022E-3,1.7769687E-4,7.660848E-4,1.38454335E-2,5.7197956E-4,-4.385702E-3,5.6920453E-5,5.7186037E-3,-5.0862217E-3,5.2327584E-3,6.324649E-4,1.6361535E-2,-1.5906077E-3,1.5013529E-3,-3.5559684E-3,-1.7029265E-2,-3.9832565E-4,1.5377834E-3,1.4958262E-2,9.766883E-4,1.0151863E-3,-7.7298223E-3,7.826191E-3,1.592774E-3,-1.240174E-4,-2.0588015E-3,-9.1028586E-4,2.4989282E-3,-6.9077616E-3,-2.1010262E-3,-1.369663E-3,1.2729355E-3,-2.0033757E-3,2.863509E-3,4.3504797E-3,-1.4352873E-3,-1.6844273E-4,1.6912222E-3,-8.594133E-4,2.420674E-3,5.743901E-5,-1.408508E-3,4.454255E-4,3.7266891E-3,-2.8824261E-3,-9.271049E-3,1.3572752E-3,-3.4321481E-3,-7.8869873E-4,-9.394795E-3,-4.0482276E-4,3.5076416E-3,-5.3811995E-3,9.6794334E-4,6.699913E-3,4.0909456E-4,-3.1330187E-3,1.9683316E-4],"categories":[],"categories_nodes":[],"categories_segments":[],"categories_sizes":[],"default_left":[1,1,1,1,1,1,1,1,1,1,1,1,1,0,0,1,1,1,0,1,1,0,1,1,0,0,1,0,0,1,1,1,1,1,1,1,1,0,1,0,0,0,0,0,0,0,0,0,0,0,0,0,0,0,0,0,0,0,0,0,0],"id":67,"left_children":[1,3,5,7,9,11,13,15,17,19,21,23,25,-1,-1,27,29,31,-1,33,35,-1,37,39,-1,-1,41,-1,-1,43,45,47,49,51,53,55,57,-1,59,-1,-1,-1,-1,-1,-1,-1,-1,-1,-1,-1,-1,-1,-1,-1,-1,-1,-1,-1,-1,-1,-1],"loss_changes":[4.681015E-4,6.1395345E-4,7.118633E-4,4.09598E-4,3.7644024E-4,4.187201E-4,1.8912274E-4,5.2634332E-5,4.9545604E-4,3.7274722E-4,5.1115453E-4,1.2075501E-4,7.249514E-5,0E0,0E0,5.23786E-6,4.557898E-5,2.341966E-4,0E0,6.884241E-4,6.160354E-4,0E0,7.948171E-5,2.6854016E-6,0E0,0E0,1.223119E-5,3.869701E-7,0E0,2.9737557E-6,3.111578E-5,1.15972245E-4,1.7498493E-4,1.2420908E-3,5.863103E-4,3.66526E-4,8.91791E-4,0E0,1.7242095E-5,0E0,0E0,0E0,0E0,0E0,0E0,0E0,0E0,0E0,0E0,0E0,0E0,0E0,0E0,0E0,0E0,0E0,0E0,0E0,0E0,0E0,0E0],"parents":[2147483647,0,0,1,1,2,2,3,3,4,4,5,5,6,6,7,7,8,8,9,9,10,10,11,11,12,12,15,15,16,16,17,17,19,19,20,20,22,22,23,23,26,26,29,29,30,30,31,31,32,32,33,33,34,34,35,35,36,36,38,38],"right_children":[2,4,6,8,10,12,14,16,18,20,22,24,26,-1,-1,28,30,32,-1,34,36,-1,38,40,-1,-1,42,-1,-1,44,46,48,50,52,54,56,58,-1,60,-1,-1,-1,-1,-1,-1,-1,-1,-1,-1,-1,-1,-1,-1,-1,-1,-1,-1,-1,-1,-1,-1],"split_conditions":[3.0010996E0,-1.6923891E0,-3.0950136E-2,-6.2097526E-1,3.5605404E0,9.7491235E-2,-2.5040574E0,-2.0010092E0,3.7140813E0,6.0316455E-1,3.771239E0,-3.840533E-1,-1.0366607E-1,1.8973947E-4,4.9084607E-3,-1.8065791E0,-2.0259876E0,-3.6929995E-1,-5.1087798E-3,2.351524E-1,-5.648589E-1,4.487479E-3,-1.7560271E0,-9.186651E-1,-2.3189469E-3,2.3478575E-3,-2.0280912E0,-3.7205224E-5,-6.1764044E-4,-1.1152761E0,-3.5813987E-1,-4.6736938E-1,-4.3312106E-1,1.2211348E-1,1.00989595E-1,-1.4410611E-2,-1.7284429E-1,1.3051439E-3,3.170236E-1,-5.053282E-5,5.0736667E-4,-2.57824E-4,7.2620227E-4,1.7231703E-5,-4.2255243E-4,1.3362766E-4,1.1180068E-3,-8.647279E-4,-2.7813148E-3,4.0718258E-4,-1.0296445E-3,-2.3660963E-4,-2.8184385E-3,-1.2144683E-4,1.0522925E-3,-1.6143599E-3,2.90383E-4,2.009974E-3,1.2272838E-4,-9.3990564E-4,5.904995E-5],"split_indices":[25,22,47,18,28,46,0,11,48,16,28,6,32,0,0,18,38,25,0,55,54,0,11,0,0,0,0,0,0,2,17,33,56,55,50,46,44,0,8,0,0,0,0,0,0,0,0,0,0,0,0,0,0,0,0,0,0,0,0,0,0],"split_type":[0,0,0,0,0,0,0,0,0,0,0,0,0,0,0,0,0,0,0,0,0,0,0,0,0,0,0,0,0,0,0,0,0,0,0,0,0,0,0,0,0,0,0,0,0,0,0,0,0,0,0,0,0,0,0,0,0,0,0,0,0],"sum_hessian":[6.57E2,6.38E2,1.9E1,7.6E1,5.62E2,1.4E1,5E0,2.4E1,5.2E1,5.51E2,1.1E1,6E0,8E0,1E0,4E0,7E0,1.7E1,5E1,2E0,4.22E2,1.29E2,3E0,8E0,2E0,4E0,4E0,4E0,2E0,5E0,5E0,1.2E1,1.4E1,3.6E1,2.67E2,1.55E2,3.5E1,9.4E1,3E0,5E0,1E0,1E0,1E0,3E0,2E0,3E0,5E0,7E0,6E0,8E0,1E1,2.6E1,2.5E2,1.7E1,8.9E1,6.6E1,1.6E1,1.9E1,3.6E1,5.8E1,2E0,3E0],"tree_param":{"num_deleted":"0","num_feature":"60","num_nodes":"61","size_leaf_vector":"0"}},{"base_weights":[-2.4335845E-5,1.4023203E-3,-5.2815623E-4,-4.597758E-4,3.2268944E-3,-1.0969627E-2,-3.7510332E-4,-1.4858834E-3,4.1223126E-3,5.5600116E-3,-7.5941894E-4,-1.6516838E-3,-1.7545164E-2,-5.613209E-4,5.447478E-3,1.9360809E-3,-2.96183E-3,7.0595494E-3,-1.9496741E-3,8.528335E-3,-6.0971826E-5,-5.5027367E-3,1.2486059E-3,-4.7576553E-3,3.833115E-3,-2.3847693E-3,6.203632E-5,-2.6287045E-5,1.0240308E-2,-1.7369569E-3,2.8488091E-3,-6.7925284E-4,-7.3527587E-3,4.1342936E-3,1.3482134E-2,2.9802322E-4,-2.4588183E-3,2.1185507E-3,1.6408157E-2,3.7725691E-3,-2.9310465E-3,-9.208729E-3,4.5001136E-5,4.9124137E-3,-8.903238E-4,-7.923412E-3,-4.287837E-4,-1.3991526E-3,1.3500629E-3,2.3355067E-3,-2.9719574E-3,2.2985067E-3,1.2504491E-2,-1.9089878E-4,-2.0757467E-3,4.0919636E-4,4.36409E-3,-1.2318023E-3,8.77744E-3,7.4544764E-4,-1.183773E-2,-1.6277069E-3,5.0580073E-3,7.867634E-3,-1.3179651E-3,2.6268948E-2,5.8198804E-3,-2.4671927E-3,4.8609385E-3,-5.583731E-4,-5.210658E-3,-8.1396895E-4,1.7404407E-3,6.4405585E-3,-2.907291E-4,9.441005E-4,-3.3837408E-3,-2.042213E-3,-1.3309399E-2,-2.0537612E-3,3.004058E-3,-3.4262484E-3,1.9050209E-3,2.9922912E-3,-8.632932E-4,2.3858745E-4,3.6539237E-3],"categories":[],"categories_nodes":[],"categories_segments":[],"categories_sizes":[],"default_left":[1,1,1,1,1,1,1,1,1,1,1,1,0,1,1,1,1,1,1,1,1,1,1,0,0,1,1,1,1,1,1,1,1,1,0,0,0,1,1,1,1,0,1,1,1,1,1,1,1,1,0,0,0,0,0,0,0,0,0,0,0,0,0,0,0,0,0,0,0,0,0,0,0,0,0,0,0,0,0,0,0,0,0,0,0,0,0],"id":68,"left_children":[1,3,5,7,9,11,13,15,17,19,21,23,-1,25,27,29,31,33,35,37,39,41,43,-1,-1,45,47,49,51,53,55,57,59,61,-1,-1,-1,63,65,67,69,-1,71,73,75,77,79,81,83,85,-1,-1,-1,-1,-1,-1,-1,-1,-1,-1,-1,-1,-1,-1,-1,-1,-1,-1,-1,-1,-1,-1,-1,-1,-1,-1,-1,-1,-1,-1,-1,-1,-1,-1,-1,-1,-1],"loss_changes":[4.7369685E-4,5.858592E-4,7.7415875E-4,4.1047283E-4,8.1336906E-4,3.9991416E-4,5.2459026E-4,3.643295E-4,2.9912166E-4,9.181893E-4,3.2118586E-4,8.637915E-5,0E0,5.30968E-4,3.937916E-4,7.8702935E-5,4.961373E-4,1.509256E-4,7.5991957E-6,1.7835256E-3,2.3110856E-4,2.0601312E-4,1.9245269E-4,0E0,0E0,1.2857899E-3,6.5872446E-4,6.259755E-5,1.1511188E-4,2.2226868E-6,6.4754815E-5,1.8847195E-4,6.2626833E-4,5.61349E-5,0E0,0E0,5.4203156E-7,4.2526243E-4,1.5176586E-3,7.311336E-5,6.1995794E-5,0E0,8.698325E-6,7.343288E-5,7.637835E-5,9.547771E-4,5.026375E-4,1.1049788E-3,6.7866273E-4,1.2951286E-5,0E0,0E0,0E0,0E0,0E0,0E0,0E0,0E0,0E0,0E0,0E0,0E0,0E0,0E0,0E0,0E0,0E0,0E0,0E0,0E0,0E0,0E0,0E0,0E0,0E0,0E0,0E0,0E0,0E0,0E0,0E0,0E0,0E0,0E0,0E0,0E0,0E0],"parents":[2147483647,0,0,1,1,2,2,3,3,4,4,5,5,6,6,7,7,8,8,9,9,10,10,11,11,13,13,14,14,15,15,16,16,17,17,18,18,19,19,20,20,21,21,22,22,25,25,26,26,27,27,28,28,29,29,30,30,31,31,32,32,33,33,37,37,38,38,39,39,40,40,42,42,43,43,44,44,45,45,46,46,47,47,48,48,49,49],"right_children":[2,4,6,8,10,12,14,16,18,20,22,24,-1,26,28,30,32,34,36,38,40,42,44,-1,-1,46,48,50,52,54,56,58,60,62,-1,-1,-1,64,66,68,70,-1,72,74,76,78,80,82,84,86,-1,-1,-1,-1,-1,-1,-1,-1,-1,-1,-1,-1,-1,-1,-1,-1,-1,-1,-1,-1,-1,-1,-1,-1,-1,-1,-1,-1,-1,-1,-1,-1,-1,-1,-1,-1,-1],"split_conditions":[-6.125002E-1,-9.120928E-3,-5.648589E-1,8.992677E-1,2.6519775E-1,2.5074106E-1,3.0066242E0,-5.1500237E-1,9.46082E-1,5.8791876E-1,-6.4317155E-1,1.094261E0,-5.2635493E-3,-5.528468E-1,-2.945687E-1,-1.920119E0,4.274063E-1,2.7074564E-1,-5.1660544E-1,-1.2581964E-1,-2.3485404E-1,3.0461627E-1,-2.6790002E-1,-1.4272967E-3,1.1499346E-3,-7.3504865E-2,-3.0685078E-2,1.3329539E-1,-6.8086244E-2,-1.921002E0,-1.1547986E0,2.48819E0,-1.0305649E0,-1.4434738E0,4.0446403E-3,8.940697E-5,-7.376455E-4,-4.44213E-1,4.402296E-1,-1.6747075E0,-9.483865E-2,-2.7626187E-3,1.2502527E-1,1.749045E-1,3.4471992E-2,-1.9966117E-1,3.990234E-1,4.4114536E-1,1.1938358E-1,-6.1504334E-1,-8.915873E-4,6.8955205E-4,3.7513475E-3,-5.7269634E-5,-6.22724E-4,1.2275891E-4,1.3092271E-3,-3.695407E-4,2.633232E-3,2.236343E-4,-3.5513192E-3,-4.883121E-4,1.5174022E-3,2.3602904E-3,-3.9538954E-4,7.880685E-3,1.7459642E-3,-7.4015785E-4,1.4582817E-3,-1.6751194E-4,-1.5631975E-3,-2.4419068E-4,5.2213226E-4,1.9321676E-3,-8.721874E-5,2.8323015E-4,-1.0151223E-3,-6.126639E-4,-3.9928197E-3,-6.161284E-4,9.0121746E-4,-1.0278745E-3,5.715063E-4,8.976874E-4,-2.5898797E-4,7.1576236E-5,1.0961771E-3],"split_indices":[55,17,55,11,22,9,20,13,42,43,4,0,0,38,13,25,18,23,1,53,10,57,57,0,0,55,8,18,0,2,33,14,5,0,0,0,0,3,53,1,47,0,1,8,46,22,37,6,19,4,0,0,0,0,0,0,0,0,0,0,0,0,0,0,0,0,0,0,0,0,0,0,0,0,0,0,0,0,0,0,0,0,0,0,0,0,0],"split_type":[0,0,0,0,0,0,0,0,0,0,0,0,0,0,0,0,0,0,0,0,0,0,0,0,0,0,0,0,0,0,0,0,0,0,0,0,0,0,0,0,0,0,0,0,0,0,0,0,0,0,0,0,0,0,0,0,0,0,0,0,0,0,0,0,0,0,0,0,0,0,0,0,0,0,0,0,0,0,0,0,0,0,0,0,0,0,0],"sum_hessian":[6.57E2,1.71E2,4.86E2,8.5E1,8.6E1,6E0,4.8E2,7E1,1.5E1,5.4E1,3.2E1,3E0,3E0,4.66E2,1.4E1,2.1E1,4.9E1,1E1,5E0,3.5E1,1.9E1,9E0,2.3E1,2E0,1E0,1.18E2,3.48E2,7E0,7E0,4E0,1.7E1,3.3E1,1.6E1,8E0,2E0,1E0,4E0,2E1,1.5E1,8E0,1.1E1,5E0,4E0,8E0,1.5E1,3E1,8.8E1,1.63E2,1.85E2,4E0,3E0,2E0,5E0,1E0,3E0,7E0,1E1,3.2E1,1E0,6E0,1E1,1E0,7E0,7E0,1.3E1,7E0,8E0,1E0,7E0,6E0,5E0,3E0,1E0,6E0,2E0,9E0,6E0,1.5E1,1.5E1,6E1,2.8E1,1.01E2,6.2E1,1.06E2,7.9E1,2E0,2E0],"tree_param":{"num_deleted":"0","num_feature":"60","num_nodes":"87","size_leaf_vector":"0"}},{"base_weights":[-4.3332293E-6,1.2366265E-2,-4.198447E-5,1.0590724E-3,-4.3157255E-4,2.736189E-3,-2.658751E-4,-8.4702885E-3,-3.1344217E-4,1.138549E-3,5.764783E-3,7.2993888E-3,-9.3538885E-4,-1.2255162E-3,-1.3597488E-2,-4.815775E-4,3.791398E-3,-1.6504191E-3,3.4884305E-3,1.913612E-2,2.4638076E-3,3.5958225E-3,1.2273391E-2,1.5032828E-3,-2.3067815E-3,-3.8061242E-3,3.2581538E-3,-1.1923369E-3,6.8018126E-4,8.482218E-3,9.739257E-4,2.9265643E-3,-2.712144E-3,1.3196163E-3,1.1220813E-2,3.672868E-3,-6.517321E-4,4.383556E-3,-1.7142296E-4,-1.5554689E-3,3.5692449E-3,-3.9599575E-3,1.5869401E-3,2.407721E-3,-1.8541076E-3,-1.5332669E-3,2.0880308E-3,9.792586E-3,3.1000376E-4,2.6414436E-3,-2.222392E-3],"categories":[],"categories_nodes":[],"categories_segments":[],"categories_sizes":[],"default_left":[1,0,1,1,1,1,1,1,1,1,1,1,1,1,0,1,1,1,1,0,1,1,0,1,1,0,0,1,1,1,1,0,0,0,0,0,0,0,0,0,0,0,0,0,0,0,0,0,0,0,0],"id":69,"left_children":[1,-1,3,5,7,9,11,13,15,17,19,21,23,25,-1,27,29,31,33,-1,35,37,-1,39,41,-1,-1,43,45,47,49,-1,-1,-1,-1,-1,-1,-1,-1,-1,-1,-1,-1,-1,-1,-1,-1,-1,-1,-1,-1],"loss_changes":[3.0699474E-4,0E0,2.822829E-4,3.829272E-4,4.588587E-4,3.6117033E-4,4.9813744E-4,2.4335383E-4,3.331068E-4,3.3999834E-4,1.1004522E-3,1.03239436E-4,3.0446163E-4,5.8683312E-5,0E0,3.822987E-4,2.4284777E-4,1.2456518E-4,4.5475567E-4,0E0,8.5265E-5,1.8556966E-5,0E0,2.140876E-4,3.796306E-4,0E0,0E0,6.882166E-4,5.5165304E-4,7.192453E-5,7.515925E-5,0E0,0E0,0E0,0E0,0E0,0E0,0E0,0E0,0E0,0E0,0E0,0E0,0E0,0E0,0E0,0E0,0E0,0E0,0E0,0E0],"parents":[2147483647,0,0,2,2,3,3,4,4,5,5,6,6,7,7,8,8,9,9,10,10,11,11,12,12,13,13,15,15,16,16,17,17,18,18,20,20,21,21,23,23,24,24,27,27,28,28,29,29,30,30],"right_children":[2,-1,4,6,8,10,12,14,16,18,20,22,24,26,-1,28,30,32,34,-1,36,38,-1,40,42,-1,-1,44,46,48,50,-1,-1,-1,-1,-1,-1,-1,-1,-1,-1,-1,-1,-1,-1,-1,-1,-1,-1,-1,-1],"split_conditions":[-6.3752747E0,3.7098797E-3,-6.125002E-1,-2.4356109E-1,-5.648589E-1,2.8507763E-1,-1.9503434E0,2.5074106E-1,2.6710052E0,-9.99791E-2,4.1364545E-1,2.1471041E-1,-3.70251E-1,1.094261E0,-4.079247E-3,3.0263835E-1,-4.2750843E-2,-1.5077946E0,8.432995E-1,5.7408363E-3,8.124069E-1,-4.276788E-1,3.6820173E-3,-2.5418943E-1,3.6590034E-1,-1.1418373E-3,9.774462E-4,-1.054853E0,-1.6317117E-1,2.2943974E0,2.8671512E-1,8.779693E-4,-8.136433E-4,3.958849E-4,3.366244E-3,1.1018604E-3,-1.9551963E-4,1.3150668E-3,-5.142689E-5,-4.666407E-4,1.0707735E-3,-1.1879873E-3,4.7608206E-4,7.223163E-4,-5.562323E-4,-4.5998007E-4,6.2640925E-4,2.9377758E-3,9.300113E-5,7.924331E-4,-6.6671765E-4],"split_indices":[43,0,55,20,55,36,50,9,20,24,36,18,37,0,0,22,17,43,23,0,59,0,0,1,11,0,0,35,46,2,31,0,0,0,0,0,0,0,0,0,0,0,0,0,0,0,0,0,0,0,0],"split_type":[0,0,0,0,0,0,0,0,0,0,0,0,0,0,0,0,0,0,0,0,0,0,0,0,0,0,0,0,0,0,0,0,0,0,0,0,0,0,0,0,0,0,0,0,0,0,0,0,0,0,0],"sum_hessian":[6.57E2,1E0,6.56E2,1.71E2,4.85E2,7.5E1,9.6E1,6E0,4.79E2,5E1,2.5E1,7E0,8.9E1,3E0,3E0,4.61E2,1.8E1,2.3E1,2.7E1,4E0,2.1E1,5E0,2E0,3.2E1,5.7E1,2E0,1E0,2.86E2,1.75E2,6E0,1.2E1,4E0,1.9E1,2.2E1,5E0,1.5E1,6E0,4E0,1E0,1.3E1,1.9E1,4E1,1.7E1,4.4E1,2.42E2,6.8E1,1.07E2,5E0,1E0,8E0,4E0],"tree_param":{"num_deleted":"0","num_feature":"60","num_nodes":"51","size_leaf_vector":"0"}},{"base_weights":[2.4730174E-5,-3.0697972E-4,1.288437E-3,-3.5467377E-4,1.2270808E-2,3.5672756E-3,-9.4369816E-4,-2.513752E-3,-8.924982E-5,-1.7978108E-3,4.8680743E-3,-2.4589823E-4,-8.345914E-3,-5.690256E-3,1.492474E-3,7.6036826E-3,-2.2342932E-4,3.4369044E-3,-3.537906E-3,9.458618E-4,8.105056E-3,-8.075727E-4,5.4118293E-3,-1.0120502E-2,2.6351213E-4,-1.0333708E-2,-4.0094834E-4,3.6765274E-3,-3.0414634E-3,1.1925101E-3,1.37167275E-2,7.08329E-5,-3.0650492E-3,1.2481213E-4,4.499331E-3,-4.51448E-3,-7.0028193E-4,-1.5422732E-3,3.977209E-3,1.0922025E-2,3.1857152E-4,1.1821575E-3,-2.5855291E-3,2.1988805E-3,7.891818E-3,-9.50594E-4,-1.5365351E-2,-2.6046545E-3,5.506749E-4,2.7030706E-5,5.9964773E-3,3.2879678E-5,-9.201109E-3,-1.045227E-3,2.0132512E-3,-6.280449E-4,1.4237945E-3,6.261808E-3,-4.7467505E-3,2.0143017E-3,-2.5992754E-3,1.047927E-3,7.868618E-3,1.3696303E-3,1.3650986E-2,2.299089E-3,-1.0548687E-3,2.9784804E-3,-9.552227E-4,-6.717767E-4,-4.7096633E-3],"categories":[],"categories_nodes":[],"categories_segments":[],"categories_sizes":[],"default_left":[1,1,1,1,0,1,1,1,1,1,1,1,1,1,1,1,1,1,1,1,1,1,1,0,0,1,1,1,1,1,0,1,1,0,0,0,0,1,1,1,1,1,1,0,0,0,0,0,0,0,0,0,0,0,0,0,0,0,0,0,0,0,0,0,0,0,0,0,0,0,0],"id":70,"left_children":[1,3,5,7,-1,9,11,13,15,17,19,21,23,25,27,29,31,33,35,37,39,41,43,-1,-1,45,47,49,51,53,-1,55,57,-1,-1,-1,-1,59,61,63,65,67,69,-1,-1,-1,-1,-1,-1,-1,-1,-1,-1,-1,-1,-1,-1,-1,-1,-1,-1,-1,-1,-1,-1,-1,-1,-1,-1,-1,-1],"loss_changes":[2.7621866E-4,3.174924E-4,7.00241E-4,2.983457E-4,0E0,4.833169E-4,3.5951636E-4,7.3386275E-4,4.816876E-4,1.396841E-4,6.90621E-4,2.1092751E-4,9.433599E-5,7.8179734E-4,2.6864343E-4,2.9717694E-4,3.831882E-4,1.3513851E-5,2.732125E-5,2.0223635E-4,6.545491E-4,2.1531573E-4,3.0455281E-5,0E0,0E0,7.880059E-4,3.4987883E-5,1.5223758E-4,1.707343E-4,1.1287319E-5,0E0,3.9424503E-4,7.041778E-4,0E0,0E0,4.5819615E-7,5.751358E-7,6.162534E-5,1.2854266E-4,5.5480166E-4,2.6906337E-5,1.1418844E-4,1.2691828E-4,0E0,0E0,0E0,0E0,0E0,0E0,0E0,0E0,0E0,0E0,0E0,0E0,0E0,0E0,0E0,0E0,0E0,0E0,0E0,0E0,0E0,0E0,0E0,0E0,0E0,0E0,0E0,0E0],"parents":[2147483647,0,0,1,1,2,2,3,3,5,5,6,6,7,7,8,8,9,9,10,10,11,11,12,12,13,13,14,14,15,15,16,16,17,17,18,18,19,19,20,20,21,21,22,22,25,25,26,26,27,27,28,28,29,29,31,31,32,32,37,37,38,38,39,39,40,40,41,41,42,42],"right_children":[2,4,6,8,-1,10,12,14,16,18,20,22,24,26,28,30,32,34,36,38,40,42,44,-1,-1,46,48,50,52,54,-1,56,58,-1,-1,-1,-1,60,62,64,66,68,70,-1,-1,-1,-1,-1,-1,-1,-1,-1,-1,-1,-1,-1,-1,-1,-1,-1,-1,-1,-1,-1,-1,-1,-1,-1,-1,-1,-1],"split_conditions":[8.0769134E-1,5.7102404E0,6.393675E-2,-1.6797705E0,3.6812427E-3,-1.0925226E0,2.7532077E0,8.216568E-3,-1.5883057E0,-1.3460847E0,-4.7242492E-2,1.2790926E0,2.869005E0,3.5032517E-1,3.7233233E-1,-1.7233822E-1,4.7851187E-1,5.417666E-1,5.4342914E-1,4.2988753E-1,7.862334E-1,-3.0656686E-1,1.6102664E-1,-3.0361507E-3,7.905364E-5,-4.24852E-1,-5.244524E-1,-7.986371E-1,8.359257E-1,-7.0775765E-1,4.1150185E-3,2.9489794E-1,-1.0401175E0,3.744364E-5,1.3497993E-3,-1.3543441E-3,-2.1008459E-4,-6.142859E-1,8.3783485E-2,-9.033544E-1,-1.441305E-1,7.566194E-2,-8.5340664E-2,6.5966416E-4,2.3675454E-3,-2.8517822E-4,-4.6096053E-3,-7.813964E-4,1.6520248E-4,8.109212E-6,1.7989433E-3,9.863904E-6,-2.760333E-3,-3.1356813E-4,6.039754E-4,-1.8841347E-4,4.2713838E-4,1.8785425E-3,-1.4240252E-3,6.042905E-4,-7.7978265E-4,3.143781E-4,2.3605854E-3,4.1088913E-4,4.095296E-3,6.8972673E-4,-3.1646062E-4,8.935442E-4,-2.8656682E-4,-2.0153302E-4,-1.412899E-3],"split_indices":[25,2,32,32,0,36,23,3,32,10,38,56,2,40,2,25,25,4,16,13,50,13,0,0,0,46,57,55,55,0,0,37,31,0,0,0,0,51,44,33,57,36,7,0,0,0,0,0,0,0,0,0,0,0,0,0,0,0,0,0,0,0,0,0,0,0,0,0,0,0,0],"split_type":[0,0,0,0,0,0,0,0,0,0,0,0,0,0,0,0,0,0,0,0,0,0,0,0,0,0,0,0,0,0,0,0,0,0,0,0,0,0,0,0,0,0,0,0,0,0,0,0,0,0,0,0,0,0,0,0,0,0,0,0,0,0,0,0,0,0,0,0,0,0,0],"sum_hessian":[6.57E2,5.21E2,1.36E2,5.2E2,1E0,6.7E1,6.9E1,5.6E1,4.64E2,1.3E1,5.4E1,6.4E1,5E0,3.1E1,2.5E1,7E0,4.57E2,3E0,1E1,2.5E1,2.9E1,5.9E1,5E0,4E0,1E0,1.6E1,1.5E1,1.7E1,8E0,4E0,3E0,4.15E2,4.2E1,1E0,2E0,7E0,3E0,1.4E1,1.1E1,2.1E1,8E0,2.8E1,3.1E1,3E0,2E0,6E0,1E1,4E0,1.1E1,7E0,1E1,6E0,2E0,1E0,3E0,2.74E2,1.41E2,6E0,3.6E1,3E0,1.1E1,7E0,4E0,5E0,1.6E1,3E0,5E0,1.5E1,1.3E1,1.7E1,1.4E1],"tree_param":{"num_deleted":"0","num_feature":"60","num_nodes":"71","size_leaf_vector":"0"}},{"base_weights":[3.0364941E-5,-8.7416945E-3,7.043478E-5,-5.562268E-4,-1.25563145E-2,2.4974844E-4,-1.9743931E-3,-1.0383266E-4,1.6620087E-3,-3.8259884E-3,1.2720382E-3,9.444291E-4,-8.2051224E-4,5.7196035E-3,7.5271784E-4,-5.1943767E-3,3.4255534E-3,5.4710684E-3,-1.19661156E-4,-1.1857637E-3,2.710845E-3,-1.7878597E-3,5.1036914E-4,1.4569988E-2,2.259491E-3,2.99457E-3,-1.6070485E-4,-2.7487606E-3,-8.429936E-3,5.9586763E-3,6.693229E-4,1.4533997E-3,6.112136E-3,4.4908673E-3,-7.2642084E-4,-4.0524115E-5,-7.9659885E-3,4.5818775E-3,-5.8445724E-4,-8.0507976E-4,-4.788474E-3,-3.14194E-3,1.7890892E-3,5.7852217E-3,-1.8956377E-4,-1.2579312E-3,3.9329217E-3,1.76629E-3,-1.6607812E-3,-5.423435E-3,-9.594706E-4,-1.1512339E-2,-3.4288093E-3,-8.421585E-5,-3.267169E-3],"categories":[],"categories_nodes":[],"categories_segments":[],"categories_sizes":[],"default_left":[1,1,1,0,0,1,1,1,1,1,1,1,1,1,1,1,1,1,1,1,1,1,1,0,1,1,1,1,1,0,0,0,0,0,1,0,0,0,0,0,0,0,0,0,0,0,0,0,0,0,0,0,0,0,0],"id":71,"left_children":[1,3,5,-1,-1,7,9,11,13,15,17,19,21,23,25,27,29,31,33,35,37,39,41,-1,43,45,47,49,51,-1,-1,-1,-1,-1,53,-1,-1,-1,-1,-1,-1,-1,-1,-1,-1,-1,-1,-1,-1,-1,-1,-1,-1,-1,-1],"loss_changes":[2.3189941E-4,8.668919E-5,2.410257E-4,0E0,0E0,3.017791E-4,3.234538E-4,3.6438854E-4,4.4212837E-4,3.5517308E-4,1.17530435E-4,7.444873E-4,3.7169078E-4,6.407923E-4,2.0525712E-4,2.0630326E-4,3.790295E-5,3.9946026E-6,4.8021986E-5,6.9852563E-4,6.685647E-4,4.8861845E-4,5.753955E-4,0E0,1.4788669E-4,1.2066722E-4,2.1105947E-4,8.094021E-5,1.4551223E-4,0E0,4.940996E-7,0E0,0E0,0E0,2.4200073E-5,0E0,0E0,0E0,0E0,0E0,0E0,0E0,0E0,0E0,0E0,0E0,0E0,0E0,0E0,0E0,0E0,0E0,0E0,0E0,0E0],"parents":[2147483647,0,0,1,1,2,2,5,5,6,6,7,7,8,8,9,9,10,10,11,11,12,12,13,13,14,14,15,15,16,16,17,17,18,18,19,19,20,20,21,21,22,22,24,24,25,25,26,26,27,27,28,28,34,34],"right_children":[2,4,6,-1,-1,8,10,12,14,16,18,20,22,24,26,28,30,32,34,36,38,40,42,-1,44,46,48,50,52,-1,-1,-1,-1,-1,54,-1,-1,-1,-1,-1,-1,-1,-1,-1,-1,-1,-1,-1,-1,-1,-1,-1,-1,-1,-1],"split_conditions":[-5.4750185E0,-8.9499944E-1,1.8155459E0,-1.6686805E-4,-3.7668946E-3,6.22628E-1,1.4986601E-1,-2.0188151E-1,7.5815135E-1,1.1124356E0,3.167382E-1,-9.881331E-1,1.8106765E-1,-3.0690938E-1,-5.2848774E-1,-2.5381818E-1,-1.9320331E0,-1.2718885E-1,-7.1865386E-1,1.1228998E0,6.4796376E-1,6.2223864E-1,-6.751344E-1,4.3709963E-3,-9.2011213E-1,-2.0537038E0,-2.3223352E-1,-1.0829938E-1,-4.4103974E-1,1.787603E-3,2.0079689E-4,4.360199E-4,1.8336409E-3,1.3472602E-3,7.349504E-1,-1.2157235E-5,-2.3897965E-3,1.3745633E-3,-1.7533718E-4,-2.4152394E-4,-1.4365423E-3,-9.425821E-4,5.367268E-4,1.7355665E-3,-5.6869132E-5,-3.773794E-4,1.1798765E-3,5.2988704E-4,-4.982344E-4,-1.6270305E-3,-2.878412E-4,-3.453702E-3,-1.0286429E-3,-2.5264755E-5,-9.801508E-4],"split_indices":[46,0,49,0,0,49,39,36,49,29,39,36,30,6,13,39,7,1,0,24,50,18,4,0,24,12,43,24,6,0,0,0,0,0,30,0,0,0,0,0,0,0,0,0,0,0,0,0,0,0,0,0,0,0,0],"split_type":[0,0,0,0,0,0,0,0,0,0,0,0,0,0,0,0,0,0,0,0,0,0,0,0,0,0,0,0,0,0,0,0,0,0,0,0,0,0,0,0,0,0,0,0,0,0,0,0,0,0,0,0,0,0,0],"sum_hessian":[6.57E2,2E0,6.55E2,1E0,1E0,6.03E2,5.2E1,4.83E2,1.2E2,3.3E1,1.9E1,1.96E2,2.87E2,2.1E1,9.9E1,2.8E1,5E0,4E0,1.5E1,8.9E1,1.07E2,1.66E2,1.21E2,5E0,1.6E1,2.8E1,7.1E1,1.7E1,1.1E1,2E0,3E0,1E0,3E0,1E0,1.4E1,7.7E1,1.2E1,6.8E1,3.9E1,1.26E2,4E1,3.1E1,9E1,6E0,1E1,5E0,2.3E1,3.1E1,4E1,6E0,1.1E1,6E0,5E0,1.2E1,2E0],"tree_param":{"num_deleted":"0","num_feature":"60","num_nodes":"55","size_leaf_vector":"0"}},{"base_weights":[1.8012204E-5,1.3728168E-4,-2.7744442E-3,-4.467803E-4,7.227575E-4,-5.9419515E-4,-1.22487005E-2,2.6153896E-3,-1.0029124E-3,1.821153E-4,2.6918333E-3,3.437935E-3,-1.6240085E-3,2.71976E-4,-1.5446864E-2,-7.9986063E-4,5.4278104E-3,-2.1140258E-4,-3.2500417E-3,2.5772632E-3,-8.0674293E-4,-1.1898489E-3,4.1130357E-3,4.023131E-3,5.485751E-4,-2.9333674E-3,1.5676435E-4,-2.627833E-3,1.8392869E-3,5.342122E-4,7.844931E-3,-6.310885E-5,-1.4860928E-2,-1.5878356E-3,-8.338812E-3,4.837901E-4,5.100146E-3,-1.7143523E-3,2.9245396E-3,-3.728383E-3,2.0450093E-3,6.358303E-4,5.8850558E-3,-3.922834E-3,-9.614408E-4,9.671313E-4,-1.0979772E-3,-1.7084181E-5,-3.3383025E-3,4.4115796E-3,-6.1083835E-4,-1.7144186E-3,1.742828E-3,2.119777E-3,9.883854E-3,-5.918582E-4,3.8170156E-3,5.102943E-4,-5.180171E-3,4.893802E-3,-1.1523929E-2,4.9053768E-5,5.974099E-3,-1.2588829E-3,7.919675E-3,9.846853E-4,-2.923871E-3,1.4156619E-3,8.757813E-3,-5.542385E-3,-1.2929837E-3,5.502721E-3,2.709888E-4,-9.157881E-4,1.9687037E-3,8.072225E-3,2.3401664E-3],"categories":[],"categories_nodes":[],"categories_segments":[],"categories_sizes":[],"default_left":[1,1,1,1,1,1,1,1,1,1,1,1,1,0,0,1,1,1,1,1,1,1,1,0,0,1,1,1,1,1,1,1,0,1,1,1,1,1,1,1,1,1,1,0,0,0,0,0,0,0,0,0,0,0,0,0,0,0,0,0,0,0,0,0,0,0,0,0,0,0,0,0,0,0,0,0,0],"id":72,"left_children":[1,3,5,7,9,11,13,15,17,19,21,23,25,-1,-1,27,29,31,33,35,37,39,41,-1,-1,43,45,47,49,51,53,55,-1,57,59,61,63,65,67,69,71,73,75,-1,-1,-1,-1,-1,-1,-1,-1,-1,-1,-1,-1,-1,-1,-1,-1,-1,-1,-1,-1,-1,-1,-1,-1,-1,-1,-1,-1,-1,-1,-1,-1,-1,-1],"loss_changes":[2.1953095E-4,2.1643794E-4,5.5044034E-4,5.424648E-4,3.3591245E-4,1.0108709E-4,2.0441704E-4,4.7499244E-4,4.7776304E-4,5.918261E-4,3.8002653E-4,6.2472172E-6,4.476159E-5,0E0,0E0,1.1579198E-4,3.1517644E-4,4.335487E-4,5.788603E-4,3.8308845E-4,6.0443254E-4,1.6364874E-4,3.0434196E-4,0E0,0E0,1.7691142E-5,1.0213098E-5,2.5910958E-5,6.5719156E-5,3.0165247E-5,1.89165E-4,4.1053013E-4,0E0,4.0965143E-4,7.729019E-4,9.756726E-5,6.016423E-4,4.6970777E-4,2.956612E-4,4.1429797E-5,5.371529E-5,3.9028913E-5,2.369677E-4,0E0,5.896477E-7,6.0840966E-7,8.246275E-7,0E0,0E0,0E0,0E0,0E0,0E0,0E0,0E0,0E0,0E0,0E0,0E0,0E0,0E0,0E0,0E0,0E0,0E0,0E0,0E0,0E0,0E0,0E0,0E0,0E0,0E0,0E0,0E0,0E0,0E0],"parents":[2147483647,0,0,1,1,2,2,3,3,4,4,5,5,6,6,7,7,8,8,9,9,10,10,11,11,12,12,15,15,16,16,17,17,18,18,19,19,20,20,21,21,22,22,25,25,26,26,27,27,28,28,29,29,30,30,31,31,33,33,34,34,35,35,36,36,37,37,38,38,39,39,40,40,41,41,42,42],"right_children":[2,4,6,8,10,12,14,16,18,20,22,24,26,-1,-1,28,30,32,34,36,38,40,42,-1,-1,44,46,48,50,52,54,56,-1,58,60,62,64,66,68,70,72,74,76,-1,-1,-1,-1,-1,-1,-1,-1,-1,-1,-1,-1,-1,-1,-1,-1,-1,-1,-1,-1,-1,-1,-1,-1,-1,-1,-1,-1,-1,-1,-1,-1,-1,-1],"split_conditions":[2.7765129E0,-3.188337E-2,1.0988042E0,-1.1602163E0,8.44669E-1,-1.9434843E0,-1.5126598E0,-2.3760769E-1,-2.6643014E-1,-6.31486E-1,-7.783512E-1,5.9616375E-1,1.4362055E-1,8.15928E-5,-4.6340595E-3,5.4149485E-1,-6.059661E-1,4.4419775E0,1.0368419E0,1.2151782E-1,9.6932536E-1,2.134076E-1,-3.8943106E-1,1.2069393E-3,1.6457253E-4,5.759575E-1,1.0763611E-1,-6.5837204E-1,3.2289582E-1,-8.078465E-1,-7.1208906E-1,1.3545251E0,-4.4582784E-3,2.5672457E-1,-2.861782E0,2.580359E0,-9.655912E-1,-3.6171272E-1,7.707078E-1,3.4081343E-1,-2.4862766E-1,-3.379613E-2,7.503462E-2,-1.1768503E-3,-2.8843226E-4,2.901394E-4,-3.2939317E-4,-5.1252546E-6,-1.0014907E-3,1.3234739E-3,-1.8325151E-4,-5.143256E-4,5.2284845E-4,6.3593313E-4,2.9651562E-3,-1.7755746E-4,1.1451048E-3,1.5308829E-4,-1.5540514E-3,1.4681407E-3,-3.457179E-3,1.4716131E-5,1.7922298E-3,-3.776649E-4,2.3759026E-3,2.954056E-4,-8.7716134E-4,4.2469858E-4,2.6273439E-3,-1.6627156E-3,-3.8789512E-4,1.6508163E-3,8.129664E-5,-2.7473643E-4,5.9061113E-4,2.4216678E-3,7.0204993E-4],"split_indices":[4,4,59,33,6,56,2,2,4,35,34,3,23,0,0,35,20,35,19,14,57,35,16,0,0,25,57,31,59,12,21,35,0,11,6,16,26,34,2,12,9,28,54,0,0,0,0,0,0,0,0,0,0,0,0,0,0,0,0,0,0,0,0,0,0,0,0,0,0,0,0,0,0,0,0,0,0],"split_type":[0,0,0,0,0,0,0,0,0,0,0,0,0,0,0,0,0,0,0,0,0,0,0,0,0,0,0,0,0,0,0,0,0,0,0,0,0,0,0,0,0,0,0,0,0,0,0,0,0,0,0,0,0,0,0,0,0,0,0,0,0,0,0,0,0,0,0,0,0,0,0,0,0,0,0,0,0],"sum_hessian":[6.57E2,6.31E2,2.6E1,3.16E2,3.15E2,2.2E1,4E0,4.8E1,2.68E2,2.48E2,6.7E1,4E0,1.8E1,1E0,3E0,2.2E1,2.6E1,1.99E2,6.9E1,7.2E1,1.76E2,1.8E1,4.9E1,3E0,1E0,1E1,8E0,1.3E1,9E0,9E0,1.7E1,1.98E2,1E0,5.3E1,1.6E1,4E1,3.2E1,1.42E2,3.4E1,1E1,8E0,1.7E1,3.2E1,6E0,4E0,5E0,3E0,3E0,1E1,4E0,5E0,3E0,6E0,5E0,1.2E1,1.75E2,2.3E1,3.4E1,1.9E1,3E0,1.3E1,3.8E1,2E0,1E1,2.2E1,4.4E1,9.8E1,2.8E1,6E0,5E0,5E0,2E0,6E0,8E0,9E0,1.9E1,1.3E1],"tree_param":{"num_deleted":"0","num_feature":"60","num_nodes":"77","size_leaf_vector":"0"}},{"base_weights":[1.4999773E-5,-6.396912E-5,3.4043978E-3,8.322843E-4,-3.8459882E-4,9.562679E-3,1.0679377E-3,-2.5716668E-4,1.8993896E-3,-1.0682784E-3,7.62149E-4,2.5361925E-3,1.10594435E-2,-3.0158088E-4,3.04558E-3,-9.137272E-4,2.6313583E-3,5.958963E-4,4.7256933E-3,-1.7863227E-3,1.0526709E-3,8.741168E-3,5.284867E-4,7.6351565E-4,-7.8386563E-4,-4.225432E-3,-3.558456E-4,4.53526E-3,-1.2976875E-3,1.1266923E-3,-4.3690503E-3,1.2784938E-2,1.8142454E-3,2.459041E-3,-2.2632233E-3,-4.2512096E-3,2.3188891E-3,1.4689505E-2,3.5817078E-3,1.9162071E-3,-6.189966E-4,-1.0199875E-3,1.9837171E-4,-7.143862E-4,-9.313405E-3,-2.4515083E-3,3.2055407E-4,6.107617E-4,6.690579E-3,3.566742E-4,-1.6998947E-3,2.3772311E-3,-1.367867E-3,-6.158322E-3,-5.270044E-4,2.724193E-3,1.4007698E-2,-1.7903529E-3,2.767701E-3,4.6327347E-3,-1.4370088E-3,-3.9079743E-3,-4.235691E-4,-1.0813296E-2,-1.7095798E-3,3.6371795E-3,-2.9298349E-3,-1.5789176E-3,2.9734392E-3,1.2635607E-3,-2.1701953E-3],"categories":[],"categories_nodes":[],"categories_segments":[],"categories_sizes":[],"default_left":[1,1,1,1,1,1,1,1,1,1,1,0,0,1,0,1,1,1,1,1,1,1,1,0,1,1,1,1,1,1,1,1,1,1,1,1,1,0,0,1,1,0,0,0,0,0,0,0,0,0,0,0,0,0,0,0,0,0,0,0,0,0,0,0,0,0,0,0,0,0,0],"id":73,"left_children":[1,3,5,7,9,11,13,15,17,19,21,-1,-1,23,-1,25,27,29,31,33,35,37,39,-1,41,43,45,47,49,51,53,55,57,59,61,63,65,-1,-1,67,69,-1,-1,-1,-1,-1,-1,-1,-1,-1,-1,-1,-1,-1,-1,-1,-1,-1,-1,-1,-1,-1,-1,-1,-1,-1,-1,-1,-1,-1,-1],"loss_changes":[1.7633609E-4,1.8538347E-4,2.0561634E-4,1.9812348E-4,3.7321803E-4,1.4019082E-5,3.3419496E-5,1.6360612E-4,3.1401383E-4,4.5571517E-4,3.2724292E-4,0E0,0E0,4.7079325E-6,0E0,1.2782413E-4,1.2557363E-4,1.6304501E-4,6.1033503E-4,4.5705505E-4,5.202642E-4,1.00837555E-4,2.7826132E-4,0E0,1.5939027E-6,1.719877E-4,8.725368E-5,8.895765E-5,4.5986853E-6,1.7482662E-4,3.800133E-5,4.7953334E-5,7.7128476E-5,2.0144013E-4,6.06525E-4,2.3168969E-4,4.396556E-4,0E0,0E0,2.9661233E-4,2.8308335E-4,0E0,0E0,0E0,0E0,0E0,0E0,0E0,0E0,0E0,0E0,0E0,0E0,0E0,0E0,0E0,0E0,0E0,0E0,0E0,0E0,0E0,0E0,0E0,0E0,0E0,0E0,0E0,0E0,0E0,0E0],"parents":[2147483647,0,0,1,1,2,2,3,3,4,4,5,5,6,6,7,7,8,8,9,9,10,10,13,13,15,15,16,16,17,17,18,18,19,19,20,20,21,21,22,22,24,24,25,25,26,26,27,27,28,28,29,29,30,30,31,31,32,32,33,33,34,34,35,35,36,36,39,39,40,40],"right_children":[2,4,6,8,10,12,14,16,18,20,22,-1,-1,24,-1,26,28,30,32,34,36,38,40,-1,42,44,46,48,50,52,54,56,58,60,62,64,66,-1,-1,68,70,-1,-1,-1,-1,-1,-1,-1,-1,-1,-1,-1,-1,-1,-1,-1,-1,-1,-1,-1,-1,-1,-1,-1,-1,-1,-1,-1,-1,-1,-1],"split_conditions":[3.5605404E0,-6.125002E-1,3.7375746E0,-9.120928E-3,5.35527E-1,-7.3366064E-1,5.3508444E0,8.992677E-1,3.131475E-1,4.6919805E-1,5.48213E-1,7.608578E-4,3.3178332E-3,-2.2803816E-1,9.13674E-4,-1.5346942E0,9.46082E-1,1.3024006E0,4.7049943E-1,-1.5346942E0,-8.4949994E-1,1.19574286E-1,-1.7045328E-1,2.290547E-4,4.3108284E-2,-5.173752E-1,-5.6218666E-1,-5.653943E-1,-5.1660544E-1,3.9216298E-1,1.837001E-1,-1.2746985E0,-1.6863782E0,1.1102185E-1,9.751928E-2,-9.6410346E-1,2.0785174E0,4.4068517E-3,1.0745124E-3,-6.33324E-1,-2.0947449E-2,-3.0599628E-4,5.9511516E-5,-2.1431586E-4,-2.7940215E-3,-7.354525E-4,9.616622E-5,1.8322852E-4,2.0071738E-3,1.0700226E-4,-5.0996843E-4,7.1316934E-4,-4.103601E-4,-1.8474967E-3,-1.5810133E-4,8.1725797E-4,4.2023095E-3,-5.371059E-4,8.3031034E-4,1.3898205E-3,-4.3110267E-4,-1.1723924E-3,-1.2707073E-4,-3.2439888E-3,-5.12874E-4,1.091154E-3,-8.789505E-4,-4.736753E-4,8.9203176E-4,3.7906822E-4,-6.510586E-4],"split_indices":[28,55,28,17,55,0,28,11,36,40,55,0,0,0,0,23,42,32,36,33,57,3,14,0,1,24,46,10,1,33,4,3,45,4,0,58,40,0,0,9,28,0,0,0,0,0,0,0,0,0,0,0,0,0,0,0,0,0,0,0,0,0,0,0,0,0,0,0,0,0,0],"split_type":[0,0,0,0,0,0,0,0,0,0,0,0,0,0,0,0,0,0,0,0,0,0,0,0,0,0,0,0,0,0,0,0,0,0,0,0,0,0,0,0,0,0,0,0,0,0,0,0,0,0,0,0,0,0,0,0,0,0,0,0,0,0,0,0,0,0,0,0,0,0,0],"sum_hessian":[6.57E2,6.43E2,1.4E1,1.69E2,4.74E2,3E0,1.1E1,8.4E1,8.5E1,2.97E2,1.77E2,1E0,2E0,7E0,4E0,6.9E1,1.5E1,5.9E1,2.6E1,2.22E2,7.5E1,4E0,1.73E2,2E0,5E0,9E0,6E1,1E1,5E0,5.4E1,5E0,6E0,2E1,2.2E1,2E2,1.4E1,6.1E1,1E0,3E0,7.8E1,9.5E1,4E0,1E0,6E0,3E0,1.4E1,4.6E1,4E0,6E0,1E0,4E0,3.6E1,1.8E1,3E0,2E0,1E0,5E0,4E0,1.6E1,1.4E1,8E0,1.05E2,9.5E1,3E0,1.1E1,4.9E1,1.2E1,1.8E1,6E1,4.3E1,5.2E1],"tree_param":{"num_deleted":"0","num_feature":"60","num_nodes":"71","size_leaf_vector":"0"}},{"base_weights":[2.3366281E-5,-1.7878211E-4,1.0897171E-3,-1.086496E-3,2.2589981E-4,3.6540793E-3,-5.4456847E-4,-2.804109E-3,-1.0850968E-4,4.6371697E-3,-3.7177342E-6,5.219919E-3,-1.7220161E-3,-1.5476218E-3,4.5202044E-3,7.1082055E-4,-4.7550905E-3,-1.7126267E-3,1.4689E-3,6.962107E-3,-1.5605459E-3,8.551672E-4,-9.35782E-4,8.032398E-3,1.4969498E-3,4.2421743E-4,-6.8713003E-3,-2.4571393E-3,2.3138244E-3,7.3276153E-3,9.5942616E-4,1.5328864E-3,-1.8738471E-3,-3.238769E-3,-1.0415531E-2,-3.7136306E-3,5.000305E-4,6.1554722E-3,-3.9583308E-4,3.0575471E-3,1.3378805E-2,-3.5342376E-3,3.098594E-4,5.7099876E-4,1.1312035E-2,1.0215893E-3,-1.6990323E-3,9.619064E-3,3.2558898E-3,4.7484636E-3,2.8836602E-4,-1.1700913E-3,1.6148209E-3,-8.395087E-3,-1.9118637E-3,-1.444287E-3,-7.749153E-3,-1.6488554E-4,4.406897E-3,1.6133189E-3,-2.3223956E-4,6.483728E-4,2.8302115E-3,-4.772778E-3,2.6313824E-4,-1.3356791E-3,-1.5596306E-2,-5.323697E-4,-9.704789E-3,2.735734E-3,-9.7601465E-4,1.395914E-2,3.280846E-3,-1.3014459E-3,2.1923333E-3,1.7287976E-3,5.581697E-3,1.1223552E-3,-2.8863375E-3,-2.3923293E-3,3.0166788E-3,-2.4621568E-3,1.678634E-3,3.9280527E-3,1.0296697E-2,1.2530386E-3,3.9440556E-3,5.517026E-3,1.2213886E-3,9.586319E-4,-2.0419757E-3,-6.736599E-3,-6.4697716E-4,-1.0928899E-2,-2.6321188E-3,8.6534023E-4,-1.4835581E-3,5.8499984E-3,1.0137955E-3],"categories":[],"categories_nodes":[],"categories_segments":[],"categories_sizes":[],"default_left":[1,1,1,1,1,1,1,1,1,1,1,1,1,1,1,1,1,1,1,1,1,1,1,1,1,1,1,1,1,0,1,1,0,1,1,1,1,1,1,1,0,0,0,1,0,1,1,1,1,1,1,0,0,0,0,1,1,1,1,0,0,0,0,0,0,0,0,0,0,0,0,0,0,0,0,0,0,0,0,0,0,0,0,0,0,0,0,0,0,0,0,0,0,0,0,0,0,0,0],"id":74,"left_children":[1,3,5,7,9,11,13,15,17,19,21,23,25,27,29,31,33,35,37,39,41,43,45,47,49,51,53,55,57,-1,59,61,-1,63,65,67,69,71,73,75,-1,-1,-1,77,-1,79,81,83,85,87,89,-1,-1,-1,-1,91,93,95,97,-1,-1,-1,-1,-1,-1,-1,-1,-1,-1,-1,-1,-1,-1,-1,-1,-1,-1,-1,-1,-1,-1,-1,-1,-1,-1,-1,-1,-1,-1,-1,-1,-1,-1,-1,-1,-1,-1,-1,-1],"loss_changes":[1.4203403E-4,2.0374925E-4,4.420344E-4,2.8694182E-4,3.8897272E-4,3.541311E-4,3.37211E-4,4.2854893E-4,2.8085412E-4,2.846414E-4,2.9379642E-4,3.2304053E-4,1.1343059E-4,1.9884827E-4,1.02931954E-4,5.1742034E-5,3.0958845E-4,2.4537143E-4,4.918321E-4,3.0985498E-4,2.3244736E-5,5.610996E-4,2.646734E-4,1.05098356E-4,5.757661E-5,1.7075006E-5,6.621107E-6,2.3000923E-4,5.7795947E-5,0E0,5.0500053E-6,1.882E-5,2.2229142E-7,1.7853049E-4,3.5549368E-4,5.4755725E-4,9.17701E-5,3.131242E-4,9.895215E-5,2.389001E-5,0E0,0E0,2.936372E-7,3.5970347E-4,0E0,3.4777055E-4,3.3148573E-4,9.687617E-6,3.3277101E-6,4.1046733E-6,2.0700887E-5,0E0,6.766013E-7,0E0,0E0,1.6020647E-4,8.51299E-5,9.434965E-6,2.344884E-5,0E0,2.9124382E-7,0E0,0E0,0E0,0E0,0E0,0E0,0E0,0E0,0E0,0E0,0E0,0E0,0E0,0E0,0E0,0E0,0E0,0E0,0E0,0E0,0E0,0E0,0E0,0E0,0E0,0E0,0E0,0E0,0E0,0E0,0E0,0E0,0E0,0E0,0E0,0E0,0E0,0E0],"parents":[2147483647,0,0,1,1,2,2,3,3,4,4,5,5,6,6,7,7,8,8,9,9,10,10,11,11,12,12,13,13,14,14,15,15,16,16,17,17,18,18,19,19,20,20,21,21,22,22,23,23,24,24,25,25,26,26,27,27,28,28,30,30,31,31,33,33,34,34,35,35,36,36,37,37,38,38,39,39,43,43,45,45,46,46,47,47,48,48,49,49,50,50,55,55,56,56,57,57,58,58],"right_children":[2,4,6,8,10,12,14,16,18,20,22,24,26,28,30,32,34,36,38,40,42,44,46,48,50,52,54,56,58,-1,60,62,-1,64,66,68,70,72,74,76,-1,-1,-1,78,-1,80,82,84,86,88,90,-1,-1,-1,-1,92,94,96,98,-1,-1,-1,-1,-1,-1,-1,-1,-1,-1,-1,-1,-1,-1,-1,-1,-1,-1,-1,-1,-1,-1,-1,-1,-1,-1,-1,-1,-1,-1,-1,-1,-1,-1,-1,-1,-1,-1,-1,-1],"split_conditions":[1.0762446E0,-4.294114E-1,-1.9888937E-1,-3.3326584E-1,-3.3127165E-1,9.729892E-1,7.260021E-1,-7.356988E-1,7.257305E-2,6.035162E-1,9.751928E-2,5.27096E-1,9.3135583E-1,7.16565E-1,1.688885E0,7.284047E-1,6.576152E-1,-1.5543524E-2,5.783218E-1,3.1947613E-1,1.0355908E0,8.012581E-2,-6.0693914E-1,1.0513095E0,-7.381586E-1,-9.80584E-1,-6.277969E-1,7.6254517E-1,-4.5441437E-1,2.1982847E-3,-5.8590674E-1,4.844007E-1,-5.6215416E-4,3.4746602E-1,-2.4320567E-1,9.352347E-2,-1.5269056E-1,-7.381849E-1,1.0345316E0,1.1616925E0,4.0136417E-3,-1.0602713E-3,9.2957824E-5,1.1415365E0,3.3936107E-3,-6.1164474E-1,9.6853197E-1,-2.1822028E0,2.9093778E-1,-2.4493703E-1,-1.5317129E-1,-3.510274E-4,4.844463E-4,-2.5185263E-3,-5.7355914E-4,-1.0429991E-1,2.096692E0,-2.2874793E-1,-3.508313E-2,4.8399568E-4,-6.967187E-5,1.9451186E-4,8.490635E-4,-1.4318335E-3,7.894148E-5,-4.0070375E-4,-4.678892E-3,-1.5971092E-4,-2.9114368E-3,8.207202E-4,-2.928044E-4,4.1877422E-3,9.842538E-4,-3.904338E-4,6.577E-4,5.186393E-4,1.6745091E-3,3.3670658E-4,-8.659013E-4,-7.1769883E-4,9.050037E-4,-7.3864707E-4,5.035902E-4,1.1784158E-3,3.089009E-3,3.7591162E-4,1.1832167E-3,1.6551078E-3,3.6641659E-4,2.875896E-4,-6.1259273E-4,-2.0209798E-3,-1.9409315E-4,-3.27867E-3,-7.8963564E-4,2.596021E-4,-4.4506745E-4,1.7549996E-3,3.0413867E-4],"split_indices":[15,48,13,56,48,42,3,54,42,59,18,39,19,41,3,18,24,9,42,35,8,18,41,20,22,3,0,2,14,0,1,4,0,38,0,35,26,35,55,18,0,0,0,37,0,53,30,0,4,1,3,0,0,0,0,13,2,1,0,0,0,0,0,0,0,0,0,0,0,0,0,0,0,0,0,0,0,0,0,0,0,0,0,0,0,0,0,0,0,0,0,0,0,0,0,0,0,0,0],"split_type":[0,0,0,0,0,0,0,0,0,0,0,0,0,0,0,0,0,0,0,0,0,0,0,0,0,0,0,0,0,0,0,0,0,0,0,0,0,0,0,0,0,0,0,0,0,0,0,0,0,0,0,0,0,0,0,0,0,0,0,0,0,0,0,0,0,0,0,0,0,0,0,0,0,0,0,0,0,0,0,0,0,0,0,0,0,0,0,0,0,0,0,0,0,0,0,0,0,0,0],"sum_hessian":[6.57E2,5.53E2,1.04E2,1.7E2,3.83E2,4E1,6.4E1,6.1E1,1.09E2,1.8E1,3.65E2,3.1E1,9E0,5.4E1,1E1,2.2E1,3.9E1,5.4E1,5.5E1,1.3E1,5E0,1.9E2,1.75E2,1.7E1,1.4E1,7E0,2E0,4.4E1,1E1,5E0,5E0,1.7E1,5E0,3.2E1,7E0,2.8E1,2.6E1,1.5E1,4E1,9E0,4E0,2E0,3E0,1.86E2,4E0,4.9E1,1.26E2,1.2E1,5E0,3E0,1.1E1,3E0,4E0,1E0,1E0,3.8E1,6E0,5E0,5E0,3E0,2E0,1.1E1,6E0,2.2E1,1E1,3E0,4E0,1.9E1,9E0,1E1,1.6E1,3E0,1.2E1,3E1,1E1,7E0,2E0,1.61E2,2.5E1,1.8E1,3.1E1,1.03E2,2.3E1,2E0,1E1,2E0,3E0,2E0,1E0,9E0,2E0,4E0,3.4E1,3E0,3E0,3E0,2E0,3E0,2E0],"tree_param":{"num_deleted":"0","num_feature":"60","num_nodes":"99","size_leaf_vector":"0"}},{"base_weights":[2.8167708E-5,9.1025846E-5,-3.3632808E-3,-3.0491193E-4,7.376761E-4,-6.721343E-4,-8.5775405E-3,1.3022585E-4,-2.301102E-3,-1.0560158E-3,1.4570764E-3,3.9563328E-4,-2.9395472E-3,-1.0720353E-2,-1.0745525E-3,1.5974551E-3,-3.2085332E-4,-7.895804E-3,-1.0505649E-3,1.5472756E-4,-4.9110083E-3,-8.6874777E-4,2.2626552E-3,8.4894896E-4,-1.5659072E-4,1.2740977E-3,9.256691E-3,-1.2226852E-3,9.4984303E-4,6.3712E-4,-1.1759006E-2,-1.5058607E-3,8.10201E-3,-5.3856755E-3,9.43056E-4,-4.5928545E-4,-7.981285E-3,1.8346924E-4,-3.5538732E-3,-2.9835172E-3,2.7208803E-3,1.8165944E-3,-1.7706007E-3,8.392045E-4,-2.2414033E-3,-4.7439635E-3,1.338911E-3,1.5905872E-3,-1.5883744E-3,-1.4052714E-2,-2.4873514E-3,-1.0498042E-3,-9.516965E-3,7.778108E-4,-1.0202743E-2,5.104058E-4,7.4068904E-3,8.2149106E-4,-1.0231262E-3,-1.3874322E-3,-1.0609018E-2,-3.5622407E-4,2.7614087E-3,-7.453402E-3,-1.8499262E-4,-7.6789856E-3,-1.0868593E-3,3.518907E-3,-5.5383094E-5],"categories":[],"categories_nodes":[],"categories_segments":[],"categories_sizes":[],"default_left":[1,1,1,1,1,1,1,1,1,1,1,1,0,0,0,1,1,1,1,1,1,1,1,0,0,1,0,1,1,1,1,1,0,1,1,1,1,1,1,1,1,0,0,0,0,0,0,0,0,0,0,0,0,0,0,0,0,0,0,0,0,0,0,0,0,0,0,0,0],"id":75,"left_children":[1,3,5,7,9,11,13,15,17,19,21,23,-1,-1,-1,25,27,29,31,33,35,37,39,-1,-1,41,-1,43,45,47,49,51,-1,53,55,57,59,61,63,65,67,-1,-1,-1,-1,-1,-1,-1,-1,-1,-1,-1,-1,-1,-1,-1,-1,-1,-1,-1,-1,-1,-1,-1,-1,-1,-1,-1,-1],"loss_changes":[1.4057869E-4,1.6587845E-4,1.6262279E-4,3.4948398E-4,3.1897277E-4,2.295261E-5,5.279039E-5,2.1958044E-4,4.954446E-4,3.3214572E-4,3.317254E-4,1.8852602E-6,0E0,0E0,0E0,1.8138635E-4,2.922338E-4,4.3602916E-4,2.6222825E-4,2.4530015E-4,2.2869071E-4,1.3061742E-4,3.2303244E-4,9.550854E-8,2.78121E-7,1.2874861E-4,0E0,3.1485313E-4,2.4117122E-4,1.3136128E-5,1.5644426E-4,2.0191305E-4,0E0,2.1576532E-4,1.3325187E-4,6.6177204E-6,1.5854958E-4,4.828777E-5,1.6940277E-4,8.96167E-5,2.6827434E-4,0E0,0E0,0E0,0E0,0E0,0E0,0E0,0E0,0E0,0E0,0E0,0E0,0E0,0E0,0E0,0E0,0E0,0E0,0E0,0E0,0E0,0E0,0E0,0E0,0E0,0E0,0E0,0E0],"parents":[2147483647,0,0,1,1,2,2,3,3,4,4,5,5,6,6,7,7,8,8,9,9,10,10,11,11,15,15,16,16,17,17,18,18,19,19,20,20,21,21,22,22,25,25,27,27,28,28,29,29,30,30,31,31,33,33,34,34,35,35,36,36,37,37,38,38,39,39,40,40],"right_children":[2,4,6,8,10,12,14,16,18,20,22,24,-1,-1,-1,26,28,30,32,34,36,38,40,-1,-1,42,-1,44,46,48,50,52,-1,54,56,58,60,62,64,66,68,-1,-1,-1,-1,-1,-1,-1,-1,-1,-1,-1,-1,-1,-1,-1,-1,-1,-1,-1,-1,-1,-1,-1,-1,-1,-1,-1,-1],"split_conditions":[3.5605404E0,2.2654742E-1,4.2405957E-1,3.3782036E-3,-6.4317155E-1,2.8726146E-1,6.1256367E-1,-6.424265E-1,-6.9439304E-1,5.456724E-1,-6.8952584E-1,-8.3483887E-1,-8.8186417E-4,-3.216106E-3,-3.2236578E-4,2.7532077E0,2.8984088E-1,-7.3260736E-1,2.0425897E0,-1.964983E0,-5.8663523E-1,2.7003154E-1,-1.8623059E0,2.546847E-4,-4.6977217E-5,1.8931884E0,2.7770074E-3,-7.7764237E-1,-1.407595E0,1.5446479E0,9.3212867E-1,3.3585978E0,2.4306031E-3,-1.4944254E0,1.9910102E0,1.0848019E0,-9.3970346E-1,1.7228308E0,-1.1682577E-2,-1.3755801E0,9.251192E-1,5.4497836E-4,-5.3118024E-4,2.5176138E-4,-6.72421E-4,-1.4231891E-3,4.0167331E-4,4.771762E-4,-4.7651233E-4,-4.2158146E-3,-7.4620545E-4,-3.1494125E-4,-2.8550895E-3,2.3334325E-4,-3.060823E-3,1.5312174E-4,2.2220672E-3,2.4644734E-4,-3.0693787E-4,-4.1622968E-4,-3.1827055E-3,-1.0686723E-4,8.2842266E-4,-2.2360208E-3,-5.549779E-5,-2.3036958E-3,-3.2605778E-4,1.0556721E-3,-1.661493E-5],"split_indices":[48,41,7,41,38,18,0,16,40,23,42,18,0,0,0,35,23,10,24,5,7,32,2,0,0,39,0,23,50,3,17,40,0,2,33,23,11,43,29,44,42,0,0,0,0,0,0,0,0,0,0,0,0,0,0,0,0,0,0,0,0,0,0,0,0,0,0,0,0],"split_type":[0,0,0,0,0,0,0,0,0,0,0,0,0,0,0,0,0,0,0,0,0,0,0,0,0,0,0,0,0,0,0,0,0,0,0,0,0,0,0,0,0,0,0,0,0,0,0,0,0,0,0,0,0,0,0,0,0,0,0,0,0,0,0,0,0,0,0,0,0],"sum_hessian":[6.57E2,6.46E2,1.1E1,4.01E2,2.45E2,8E0,3E0,3.3E2,7.1E1,7E1,1.75E2,6E0,2E0,2E0,1E0,7.7E1,2.53E2,1.2E1,5.9E1,5.4E1,1.6E1,4.5E1,1.3E2,3E0,3E0,7.5E1,2E0,1.48E2,1.05E2,4E0,8E0,5.7E1,2E0,6E0,4.8E1,7E0,9E0,3.3E1,1.2E1,1E1,1.2E2,6.4E1,1.1E1,4.9E1,9.9E1,6E0,9.9E1,3E0,1E0,6E0,2E0,5.5E1,2E0,3E0,3E0,4.6E1,2E0,2E0,5E0,3E0,6E0,2.8E1,5E0,5E0,7E0,2E0,8E0,9.3E1,2.7E1],"tree_param":{"num_deleted":"0","num_feature":"60","num_nodes":"69","size_leaf_vector":"0"}},{"base_weights":[-4.3535247E-6,2.2953397E-3,-7.261887E-5,4.111095E-3,6.010546E-4,-3.621949E-3,-2.1959704E-5,2.0869926E-3,6.119475E-3,1.371365E-3,-1.08983E-3,-7.8751787E-4,-9.028305E-3,1.1306283E-5,-5.2475464E-3,-4.0638447E-4,1.6833842E-3,1.5652925E-4,-1.5346855E-3,-9.667331E-4,2.0243863E-4,-9.9442005E-3,-3.6726147E-4,-1.9438678E-3,9.872391E-4,7.657647E-4,-2.934474E-4,-1.5944764E-3,-1.2851238E-2,1.8870218E-3,-1.4509201E-3,1.9593267E-3,-5.951095E-5,-1.1494992E-3,1.2675015E-3],"categories":[],"categories_nodes":[],"categories_segments":[],"categories_sizes":[],"default_left":[1,1,1,1,1,1,1,0,0,1,0,1,0,1,1,0,0,0,0,1,1,0,0,1,1,1,1,0,0,0,0,0,0,0,0],"id":76,"left_children":[1,3,5,7,9,11,13,-1,-1,15,-1,17,-1,19,21,-1,-1,-1,-1,23,25,-1,-1,27,29,31,33,-1,-1,-1,-1,-1,-1,-1,-1],"loss_changes":[1.0346568E-4,5.5980745E-5,1.14996365E-4,2.3815199E-5,1.5822121E-5,1.3080557E-4,1.0992261E-4,0E0,0E0,5.1216366E-6,0E0,5.177753E-6,0E0,1.17777796E-4,8.803193E-5,0E0,3.873556E-7,3.0097408E-7,0E0,1.9857634E-4,1.474398E-4,0E0,1.8783908E-9,2.424639E-4,7.9521385E-5,2.4341594E-4,3.769441E-4,0E0,0E0,0E0,0E0,0E0,0E0,0E0,0E0],"parents":[2147483647,0,0,1,1,2,2,3,3,4,4,5,5,6,6,9,9,11,11,13,13,14,14,19,19,20,20,23,23,24,24,25,25,26,26],"right_children":[2,4,6,8,10,12,14,-1,-1,16,-1,18,-1,20,22,-1,-1,-1,-1,24,26,-1,-1,28,30,32,34,-1,-1,-1,-1,-1,-1,-1,-1],"split_conditions":[-2.887175E0,6.183188E-1,-2.695477E0,-3.5827003E-2,2.0929697E0,-6.746844E-2,4.4501667E0,6.260978E-4,1.8358425E-3,-2.4927626E0,-3.26949E-4,-7.958037E-1,-2.7084916E-3,-1.1752155E0,5.690477E-1,-1.2191534E-4,5.0501525E-4,4.6958776E-5,-4.6040566E-4,4.1049528E-1,-6.1603606E-2,-2.9832602E-3,-1.10178444E-4,3.4299892E-1,-1.7440057E0,-5.56677E-2,3.147603E-1,-4.7834293E-4,-3.8553716E-3,5.661066E-4,-4.3527604E-4,5.87798E-4,-1.7853285E-5,-3.4484977E-4,3.8025048E-4],"split_indices":[13,44,13,7,11,2,53,0,0,4,0,44,0,36,3,0,0,0,0,47,7,0,0,47,36,53,49,0,0,0,0,0,0,0,0],"split_type":[0,0,0,0,0,0,0,0,0,0,0,0,0,0,0,0,0,0,0,0,0,0,0,0,0,0,0,0,0,0,0,0,0,0,0],"sum_hessian":[6.57E2,1.8E1,6.39E2,8E0,1E1,8E0,6.31E2,5E0,3E0,7E0,3E0,6E0,2E0,6.28E2,3E0,1E0,6E0,3E0,3E0,1.02E2,5.26E2,1E0,2E0,6.8E1,3.4E1,2.46E2,2.8E2,6.7E1,1E0,2.5E1,9E0,1E2,1.46E2,1.81E2,9.9E1],"tree_param":{"num_deleted":"0","num_feature":"60","num_nodes":"35","size_leaf_vector":"0"}},{"base_weights":[-1.4133037E-5,6.9331825E-3,-3.5260127E-5,-3.86334E-4,4.215047E-4,-1.1780612E-3,1.2458455E-4,1.2653475E-3,-5.317221E-4,-1.7060352E-3,1.3243585E-3,2.918005E-4,-4.4894274E-3,4.5987773E-3,6.3536566E-4,-1.3673303E-3,1.1147227E-3,-2.4593598E-3,6.610283E-4,8.066288E-3,4.2643573E-4,-2.8491518E-4,1.5580177E-3,-7.342808E-4,-6.595659E-3,7.284684E-3,-1.6836226E-3,3.7295808E-4,5.9525617E-3,-1.1138683E-3,-8.346438E-3,-1.2461019E-5,4.702349E-3,-3.0525054E-3,1.3799483E-3,-8.7655813E-4,2.739146E-3,2.3770258E-3,-5.1657343E-4,-5.4703775E-4,5.2229143E-3,3.1300706E-3,2.6848802E-4,1.5221039E-3,9.558917E-3,-1.04410305E-4,-6.3690543E-3,-1.96445E-3,1.0751652E-3,6.5030335E-3,1.6001016E-3,-2.755279E-3,1.887093E-4,-1.2462202E-3,3.3199347E-3,1.0385245E-2,1.2731077E-3],"categories":[],"categories_nodes":[],"categories_segments":[],"categories_sizes":[],"default_left":[1,0,1,1,1,1,1,1,1,1,1,1,1,1,1,1,1,1,1,0,1,1,1,0,0,1,1,1,1,1,0,1,1,0,0,0,0,0,0,0,0,0,0,0,0,0,0,0,0,0,0,0,0,0,0,0,0],"id":77,"left_children":[1,-1,3,5,7,9,11,13,15,17,19,21,23,25,27,29,31,33,35,-1,37,39,41,-1,-1,43,45,47,49,51,-1,53,55,-1,-1,-1,-1,-1,-1,-1,-1,-1,-1,-1,-1,-1,-1,-1,-1,-1,-1,-1,-1,-1,-1,-1,-1],"loss_changes":[9.682344E-5,0E0,1.05518164E-4,1.5062379E-4,2.3072367E-4,1.9515642E-4,1.764488E-4,3.1627814E-4,1.8725487E-4,2.17389E-4,1.5395727E-4,1.610983E-4,5.8430596E-5,4.172392E-4,1.7777013E-4,1.4990763E-4,1.8607866E-4,2.1372101E-4,9.825958E-5,0E0,4.5374094E-5,2.2230353E-4,1.3903702E-4,2.8010436E-7,0E0,2.0824303E-4,5.852934E-5,2.0563885E-4,3.9699225E-6,1.8866966E-4,0E0,1.5214682E-4,2.0114671E-4,0E0,0E0,0E0,0E0,0E0,0E0,0E0,0E0,0E0,0E0,0E0,0E0,0E0,0E0,0E0,0E0,0E0,0E0,0E0,0E0,0E0,0E0,0E0,0E0],"parents":[2147483647,0,0,2,2,3,3,4,4,5,5,6,6,7,7,8,8,9,9,10,10,11,11,12,12,13,13,14,14,15,15,16,16,17,17,18,18,20,20,21,21,22,22,25,25,26,26,27,27,28,28,29,29,31,31,32,32],"right_children":[2,-1,4,6,8,10,12,14,16,18,20,22,24,26,28,30,32,34,36,-1,38,40,42,-1,-1,44,46,48,50,52,-1,54,56,-1,-1,-1,-1,-1,-1,-1,-1,-1,-1,-1,-1,-1,-1,-1,-1,-1,-1,-1,-1,-1,-1,-1,-1],"split_conditions":[-6.3752747E0,2.0799548E-3,1.2554294E-1,-1.7472695E-1,3.393861E-2,8.72257E-1,2.663605E0,2.873317E-1,3.2452965E-1,1.0000297E0,9.4818854E-1,3.9567745E-1,-2.6149592E-1,4.7783023E-1,2.625058E0,3.875651E0,3.8152397E-1,9.128172E-1,2.7106655E-1,2.4198866E-3,-1.3332715E0,2.2394834E0,-2.5596958E-2,-2.2028424E-4,-1.9786977E-3,-7.955919E-2,4.5738733E-1,-6.1282283E-1,-1.5146673E-2,4.52239E-2,-2.5039315E-3,5.43535E-1,-1.0114621E0,-9.157517E-4,4.1398453E-4,-2.6296746E-4,8.217438E-4,7.1310776E-4,-1.5497203E-4,-1.6411133E-4,1.5668743E-3,9.3902124E-4,8.054641E-5,4.5663118E-4,2.8676752E-3,-3.1323092E-5,-1.9107164E-3,-5.8933505E-4,3.2254957E-4,1.9509101E-3,4.800305E-4,-8.265837E-4,5.661279E-5,-3.738661E-4,9.959805E-4,3.1155737E-3,3.8193233E-4],"split_indices":[58,0,48,34,34,15,46,48,44,42,15,28,1,51,21,48,9,39,35,0,52,24,30,0,0,1,3,22,9,25,0,21,57,0,0,0,0,0,0,0,0,0,0,0,0,0,0,0,0,0,0,0,0,0,0,0,0],"split_type":[0,0,0,0,0,0,0,0,0,0,0,0,0,0,0,0,0,0,0,0,0,0,0,0,0,0,0,0,0,0,0,0,0,0,0,0,0,0,0,0,0,0,0,0,0,0,0,0,0,0,0,0,0,0,0,0,0],"sum_hessian":[6.57E2,1E0,6.56E2,3.71E2,2.85E2,1.45E2,2.26E2,1.51E2,1.34E2,1.2E2,2.5E1,2.19E2,7E0,2.3E1,1.28E2,8.9E1,4.5E1,9.1E1,2.9E1,2E0,2.3E1,1.51E2,6.8E1,3E0,4E0,1.6E1,7E0,1.23E2,5E0,8.7E1,2E0,3.5E1,1E1,7.9E1,1.2E1,1.7E1,1.2E1,7E0,1.6E1,1.45E2,6E0,3E1,3.8E1,5E0,1.1E1,6E0,1E0,2.8E1,9.5E1,4E0,1E0,3.8E1,4.9E1,2.6E1,9E0,3E0,7E0],"tree_param":{"num_deleted":"0","num_feature":"60","num_nodes":"57","size_leaf_vector":"0"}},{"base_weights":[4.892292E-6,3.6595044E-5,-4.142806E-3,2.3654317E-4,-5.2955403E-4,-7.8865513E-4,-8.779705E-3,3.660802E-4,-1.8861343E-3,-2.9577182E-3,-1.12998496E-4,-1.5648007E-3,-8.3396835E-6,-7.918364E-4,6.1017345E-4,-4.8025153E-4,-8.257145E-3,1.1879528E-3,-4.978502E-3,2.8998759E-3,-4.7733934E-4,-1.842989E-3,1.0215176E-3,-1.6599854E-3,7.825715E-4,-1.8656648E-3,1.6458936E-3,-1.0625631E-2,-3.1362772E-3,3.1494796E-3,-1.0111645E-3,-1.1269788E-3,-7.5618704E-3,5.182236E-4,5.887968E-3,-3.1259567E-3,1.4018637E-4,3.981294E-4,-3.5568764E-3,6.1525106E-3,2.2353645E-4,-3.2211454E-3,9.0362434E-4,1.4324236E-3,8.633965E-5,-3.726781E-3,-5.624287E-4,-1.450777E-4,2.434178E-3,4.2443573E-3,1.0047754E-3,-1.4621932E-3,3.964752E-4,5.721476E-4,-2.969142E-3,-8.922309E-3,-1.4134111E-3,1.6297655E-3,-1.5565306E-3,6.9764256E-3,2.1112163E-3,-5.389302E-3,8.079912E-4,1.064049E-3,-1.901869E-3],"categories":[],"categories_nodes":[],"categories_segments":[],"categories_sizes":[],"default_left":[1,1,1,1,1,1,0,1,1,1,1,0,0,1,1,1,1,1,1,1,1,1,1,1,1,1,1,0,0,1,1,1,1,1,1,1,1,0,0,0,0,0,0,0,0,0,0,0,0,0,0,0,0,0,0,0,0,0,0,0,0,0,0,0,0],"id":78,"left_children":[1,3,5,7,9,11,-1,13,15,17,19,-1,-1,21,23,25,27,29,31,33,35,37,39,41,43,45,47,-1,-1,49,51,53,55,57,59,61,63,-1,-1,-1,-1,-1,-1,-1,-1,-1,-1,-1,-1,-1,-1,-1,-1,-1,-1,-1,-1,-1,-1,-1,-1,-1,-1,-1,-1],"loss_changes":[8.667429E-5,7.415835E-5,7.084013E-5,1.3377372E-4,1.7262634E-4,2.4095038E-6,0E0,1.2964947E-4,2.4682752E-4,2.1535183E-4,1.6274807E-4,0E0,1.5385523E-7,1.5437158E-4,1.492373E-4,7.3764844E-5,2.7318572E-5,4.200729E-5,1.6062634E-4,1.10814275E-4,2.1633602E-4,1.9730833E-4,1.21457764E-4,1.1097025E-4,1.5913791E-4,3.4286062E-5,1.4471096E-5,0E0,0E0,7.4763157E-6,3.754153E-6,2.6739333E-5,7.103506E-5,2.5598541E-5,1.4047095E-5,2.2695155E-4,2.0577417E-4,0E0,0E0,0E0,0E0,0E0,0E0,0E0,0E0,0E0,0E0,0E0,0E0,0E0,0E0,0E0,0E0,0E0,0E0,0E0,0E0,0E0,0E0,0E0,0E0,0E0,0E0,0E0,0E0],"parents":[2147483647,0,0,1,1,2,2,3,3,4,4,5,5,7,7,8,8,9,9,10,10,13,13,14,14,15,15,16,16,17,17,18,18,19,19,20,20,21,21,22,22,23,23,24,24,25,25,26,26,29,29,30,30,31,31,32,32,33,33,34,34,35,35,36,36],"right_children":[2,4,6,8,10,12,-1,14,16,18,20,-1,-1,22,24,26,28,30,32,34,36,38,40,42,44,46,48,-1,-1,50,52,54,56,58,60,62,64,-1,-1,-1,-1,-1,-1,-1,-1,-1,-1,-1,-1,-1,-1,-1,-1,-1,-1,-1,-1,-1,-1,-1,-1,-1,-1,-1,-1],"split_conditions":[4.453026E0,5.2106094E-1,1.9094752E0,2.2014475E0,6.499274E-1,-8.1208736E-1,-2.6339116E-3,-1.0838554E0,1.108056E0,-6.136346E-2,-1.6592972E0,-4.6944025E-4,-2.501905E-6,5.990127E-2,-2.0447135E0,9.676351E-2,5.205297E-1,2.9643625E-2,8.969798E-2,3.775913E-1,-5.194051E-1,-3.000092E-1,-1.8439219E0,-3.0541953E-2,1.430305E-1,2.9657912E0,-1.4846274E-1,-3.1876892E-3,-9.408832E-4,7.314651E-1,-3.8427994E-1,-1.218533E-2,9.6296895E-1,-2.0191446E-1,2.9855826E-1,3.9049798E-1,5.615952E-1,1.19438824E-4,-1.067063E-3,1.8457533E-3,6.706094E-5,-9.663436E-4,2.710873E-4,4.297271E-4,2.5901896E-5,-1.1180344E-3,-1.6872861E-4,-4.3523312E-5,7.302534E-4,1.2733073E-3,3.0143262E-4,-4.3865797E-4,1.1894256E-4,1.716443E-4,-8.9074264E-4,-2.6766928E-3,-4.2402334E-4,4.889297E-4,-4.669592E-4,2.0929277E-3,6.333649E-4,-1.6167907E-3,2.4239736E-4,3.192147E-4,-5.705607E-4],"split_indices":[35,19,0,4,19,0,0,32,59,34,43,0,0,3,23,53,1,18,55,35,43,22,4,28,23,4,17,0,0,4,1,22,11,1,13,20,52,0,0,0,0,0,0,0,0,0,0,0,0,0,0,0,0,0,0,0,0,0,0,0,0,0,0,0,0],"split_type":[0,0,0,0,0,0,0,0,0,0,0,0,0,0,0,0,0,0,0,0,0,0,0,0,0,0,0,0,0,0,0,0,0,0,0,0,0,0,0,0,0,0,0,0,0,0,0,0,0,0,0,0,0,0,0,0,0,0,0,0,0,0,0,0,0],"sum_hessian":[6.57E2,6.53E2,4E0,4.83E2,1.7E2,3E0,1E0,4.56E2,2.7E1,2.4E1,1.46E2,1E0,2E0,7.9E1,3.77E2,2.3E1,4E0,8E0,1.6E1,1.5E1,1.31E2,5E1,2.9E1,2.6E1,3.51E2,1.4E1,9E0,2E0,2E0,4E0,4E0,7E0,9E0,9E0,6E0,2.4E1,1.07E2,2.2E1,2.8E1,3E0,2.6E1,1.6E1,1E1,1.81E2,1.7E2,5E0,9E0,3E0,6E0,2E0,2E0,3E0,1E0,4E0,3E0,7E0,2E0,6E0,3E0,4E0,2E0,1.5E1,9E0,7.4E1,3.3E1],"tree_param":{"num_deleted":"0","num_feature":"60","num_nodes":"65","size_leaf_vector":"0"}},{"base_weights":[-9.572504E-6,2.601593E-3,-4.979143E-5,9.845837E-4,3.5155017E-3,-6.400734E-3,-3.0112915E-5,5.678326E-3,-4.771224E-5,-8.954289E-5,2.3790002E-3,-6.5238004E-5,-5.2042305E-3,2.7892986E-4,7.886211E-3,-1.8666127E-4,1.0210018E-3,-8.170843E-3,3.644973E-4,1.5478283E-3,-6.1349076E-4],"categories":[],"categories_nodes":[],"categories_segments":[],"categories_sizes":[],"default_left":[1,1,1,0,0,0,1,0,1,1,1,1,1,1,0,0,0,0,0,0,0],"id":79,"left_children":[1,3,5,-1,-1,-1,7,-1,9,11,13,15,17,19,-1,-1,-1,-1,-1,-1,-1],"loss_changes":[6.923156E-5,1.1316675E-5,8.09174E-5,0E0,0E0,0E0,6.5372034E-5,0E0,6.589062E-5,7.884718E-5,1.2502114E-4,8.3943785E-5,5.2539035E-5,1.1141098E-5,0E0,0E0,0E0,0E0,0E0,0E0,0E0],"parents":[2147483647,0,0,1,1,2,2,6,6,8,8,9,9,10,10,11,11,12,12,13,13],"right_children":[2,4,6,-1,-1,-1,8,-1,10,12,14,16,18,20,-1,-1,-1,-1,-1,-1,-1],"split_conditions":[-3.6813467E0,-1.0404192E0,-5.4750185E0,2.9537512E-4,1.0546505E-3,-1.9202203E-3,-6.3752747E0,1.7034978E-3,3.6235359E0,4.4501667E0,1.3863311E0,1.6514953E0,9.4782984E-1,-6.115054E-1,2.3658634E-3,-5.5998386E-5,3.0630056E-4,-2.4512531E-3,1.09349196E-4,4.643485E-4,-1.8404724E-4],"split_indices":[49,1,46,0,0,0,58,0,55,53,20,18,0,10,0,0,0,0,0,0,0],"split_type":[0,0,0,0,0,0,0,0,0,0,0,0,0,0,0,0,0,0,0,0,0],"sum_hessian":[6.57E2,9E0,6.48E2,4E0,5E0,1E0,6.47E2,1E0,6.46E2,6.36E2,1E1,6.34E2,2E0,8E0,2E0,5.71E2,6.3E1,1E0,1E0,3E0,5E0],"tree_param":{"num_deleted":"0","num_feature":"60","num_nodes":"21","size_leaf_vector":"0"}},{"base_weights":[-4.1359804E-6,1.0957908E-4,-8.635909E-4,-4.476162E-5,1.153519E-3,1.502103E-4,-2.293943E-3,5.977262E-4,-4.2090786E-4,1.886986E-3,-1.6690771E-3,-1.2988151E-3,1.2179991E-3,-1.0429797E-3,-6.612672E-3,3.6318759E-3,2.9436417E-4,-7.54621E-4,1.1053192E-3,2.4128351E-3,-1.8326385E-3,-3.7975684E-3,4.0836824E-4,-1.7232493E-3,8.297339E-4,-1.2916316E-3,1.9965428E-3,1.6385027E-5,-3.4285984E-3,-1.610809E-3,-9.961367E-3,6.8714954E-3,6.769925E-4,2.5126647E-5,3.1107084E-3,5.9412727E-5,-1.4129456E-3,-9.147289E-4,2.7751937E-3,4.073508E-3,1.1028898E-3,-5.2960217E-4,-4.7986233E-3,1.657178E-3,-1.5669385E-3,-2.4549165E-3,-3.2730825E-4,-3.120154E-4,1.3143221E-3,-2.8169136E-3,5.5655837E-4,5.111322E-4,3.0680064E-3,-1.6946308E-3,1.1556968E-3,-4.0988843E-3,-9.451608E-4,1.5875697E-4,-2.2535834E-3,2.9153049E-3,1.009886E-2,-8.1593794E-4,2.3331107E-3,1.584993E-3,-3.8360918E-4,1.5000075E-3,5.2767587E-3,3.0388166E-3,-4.669469E-4,1.2214837E-3,-1.9412062E-3,-3.8320057E-3,1.0267283E-3,8.455861E-3,1.895957E-3,2.3970567E-4,5.735815E-3,4.5406507E-4,5.3689405E-3,3.665164E-4,-1.1609197E-3,6.8707764E-4,2.3982525E-3,4.8318008E-4,-7.4813963E-4,8.539359E-4,-1.6778708E-4,8.465387E-4,-5.536626E-4,3.8519485E-3,5.371347E-4,-2.5334596E-3,-2.2243708E-4,-1.5887928E-4,2.1173768E-3],"categories":[],"categories_nodes":[],"categories_segments":[],"categories_sizes":[],"default_left":[1,1,1,1,1,1,1,1,1,1,1,1,1,1,1,1,1,1,1,1,0,1,1,1,1,1,1,1,1,1,0,1,1,1,1,1,1,1,1,1,1,1,0,1,0,0,1,0,0,0,1,1,1,1,1,0,0,0,0,0,0,0,0,0,0,0,0,0,0,0,0,0,0,0,0,0,0,0,0,0,0,0,0,0,0,0,0,0,0,0,0,0,0,0,0],"id":80,"left_children":[1,3,5,7,9,11,13,15,17,19,21,23,25,27,29,31,33,35,37,39,-1,41,43,45,47,49,51,53,55,57,-1,59,61,63,65,67,69,71,73,75,77,79,-1,81,-1,-1,83,-1,-1,-1,85,87,89,91,93,-1,-1,-1,-1,-1,-1,-1,-1,-1,-1,-1,-1,-1,-1,-1,-1,-1,-1,-1,-1,-1,-1,-1,-1,-1,-1,-1,-1,-1,-1,-1,-1,-1,-1,-1,-1,-1,-1,-1,-1],"loss_changes":[6.440293E-5,9.382488E-5,1.1200171E-4,1.2301964E-4,1.5842059E-4,7.27556E-5,1.6598537E-4,1.7197471E-4,1.6432648E-4,1.2177955E-4,7.23E-5,1.9498417E-5,5.5332934E-5,6.576443E-5,1.0120214E-4,1.5808392E-4,1.3034351E-4,1.4156113E-4,1.981857E-4,1.10803085E-4,2.8493014E-7,2.3629946E-5,2.4797737E-5,1.6559676E-5,2.623202E-6,2.1300857E-5,3.1854674E-5,3.899671E-5,9.442796E-6,4.907499E-6,0E0,7.270329E-5,2.6628362E-5,1.0134459E-4,4.4417713E-5,1.8803927E-4,2.0555427E-4,1.5685617E-4,1.437969E-4,1.4520308E-4,8.336765E-5,2.1227022E-6,0E0,2.6657126E-6,0E0,8.3605846E-7,2.7490387E-6,0E0,0E0,0E0,1.0048956E-6,4.0400882E-6,2.1739674E-5,9.315812E-6,1.5506825E-5,0E0,0E0,0E0,0E0,0E0,0E0,0E0,0E0,0E0,0E0,0E0,0E0,0E0,0E0,0E0,0E0,0E0,0E0,0E0,0E0,0E0,0E0,0E0,0E0,0E0,0E0,0E0,0E0,0E0,0E0,0E0,0E0,0E0,0E0,0E0,0E0,0E0,0E0,0E0,0E0],"parents":[2147483647,0,0,1,1,2,2,3,3,4,4,5,5,6,6,7,7,8,8,9,9,10,10,11,11,12,12,13,13,14,14,15,15,16,16,17,17,18,18,19,19,21,21,22,22,23,23,24,24,25,25,26,26,27,27,28,28,29,29,31,31,32,32,33,33,34,34,35,35,36,36,37,37,38,38,39,39,40,40,41,41,43,43,46,46,50,50,51,51,52,52,53,53,54,54],"right_children":[2,4,6,8,10,12,14,16,18,20,22,24,26,28,30,32,34,36,38,40,-1,42,44,46,48,50,52,54,56,58,-1,60,62,64,66,68,70,72,74,76,78,80,-1,82,-1,-1,84,-1,-1,-1,86,88,90,92,94,-1,-1,-1,-1,-1,-1,-1,-1,-1,-1,-1,-1,-1,-1,-1,-1,-1,-1,-1,-1,-1,-1,-1,-1,-1,-1,-1,-1,-1,-1,-1,-1,-1,-1,-1,-1,-1,-1,-1,-1],"split_conditions":[1.3684747E0,7.059654E-1,1.1259732E-1,-2.9090923E-1,9.9023443E-1,-1.6077965E-1,9.8106503E-1,-1.9500403E0,8.6370814E-1,1.4477907E0,-5.411543E-2,3.4786594E-1,-5.1256514E-1,-1.9470159E-2,-5.412168E-1,6.718736E-2,1.6934705E0,-1.2242748E-1,-1.00332424E-1,9.727867E-1,-5.4979156E-4,-1.9158727E-2,5.498594E-2,7.831205E-1,2.8482735E-1,3.1703416E-1,-2.5564367E-1,-8.281103E-1,1.3506472E0,-1.8726125E0,-2.9884102E-3,1.1339426E-1,-1.0250896E0,-6.875896E-1,4.5139334E-1,-8.995186E-1,-1.1232893E0,-4.11298E-2,-9.977037E-1,-7.4003124E-1,5.36151E-1,-2.047972E0,-1.439587E-3,-6.4119196E-1,-4.7008155E-4,-7.36475E-4,1.9855544E-1,-9.360463E-5,3.9429666E-4,-8.4507413E-4,1.8261716E0,1.1114345E0,9.927646E-1,3.3171716E-1,-5.665382E-1,-1.2296654E-3,-2.8354826E-4,4.7627094E-5,-6.7607505E-4,8.7459147E-4,3.029658E-3,-2.447814E-4,6.999332E-4,4.7549792E-4,-1.1508276E-4,4.5000226E-4,1.5830277E-3,9.11645E-4,-1.4008407E-4,3.6644514E-4,-5.823619E-4,-1.1496018E-3,3.080185E-4,2.5367585E-3,5.6878716E-4,7.19117E-5,1.7207445E-3,1.3621953E-4,1.6106822E-3,1.09954926E-4,-3.482759E-4,2.061233E-4,7.194758E-4,1.4495403E-4,-2.244419E-4,2.561808E-4,-5.0336126E-5,2.5396163E-4,-1.6609879E-4,1.1555846E-3,1.6114042E-4,-7.600379E-4,-6.6731125E-5,-4.7663787E-5,6.3521304E-4],"split_indices":[32,32,1,54,17,28,19,16,6,11,52,8,4,5,5,21,24,57,35,32,0,7,16,50,2,7,25,58,1,2,0,56,26,47,31,49,9,4,20,18,17,0,0,2,0,0,4,0,0,0,0,7,25,34,8,0,0,0,0,0,0,0,0,0,0,0,0,0,0,0,0,0,0,0,0,0,0,0,0,0,0,0,0,0,0,0,0,0,0,0,0,0,0,0,0],"split_type":[0,0,0,0,0,0,0,0,0,0,0,0,0,0,0,0,0,0,0,0,0,0,0,0,0,0,0,0,0,0,0,0,0,0,0,0,0,0,0,0,0,0,0,0,0,0,0,0,0,0,0,0,0,0,0,0,0,0,0,0,0,0,0,0,0,0,0,0,0,0,0,0,0,0,0,0,0,0,0,0,0,0,0,0,0,0,0,0,0,0,0,0,0,0,0],"sum_hessian":[6.57E2,5.81E2,7.6E1,5.07E2,7.4E1,4.5E1,3.1E1,1.87E2,3.2E2,5.9E1,1.5E1,1.9E1,2.6E1,2.5E1,6E0,1.6E1,1.71E2,2.63E2,5.7E1,5.2E1,7E0,7E0,8E0,1.6E1,3E0,6E0,2E1,1.8E1,7E0,3E0,3E0,7E0,9E0,1.57E2,1.4E1,1.18E2,1.45E2,2.6E1,3.1E1,2.2E1,3E1,2E0,5E0,5E0,3E0,1E1,6E0,1E0,2E0,3E0,3E0,9E0,1.1E1,7E0,1.1E1,5E0,2E0,1E0,2E0,4E0,3E0,5E0,4E0,3.2E1,1.25E2,9E0,5E0,1.7E1,1.01E2,2.4E1,1.21E2,1E1,1.6E1,3E0,2.8E1,7E0,1.5E1,2.7E1,3E0,1E0,1E0,3E0,2E0,2E0,4E0,2E0,1E0,7E0,2E0,8E0,3E0,4E0,3E0,5E0,6E0],"tree_param":{"num_deleted":"0","num_feature":"60","num_nodes":"95","size_leaf_vector":"0"}},{"base_weights":[6.5574536E-6,3.2139767E-5,-3.340921E-3,-1.3354083E-4,5.5309624E-4,-4.9380586E-4,-7.3646903E-3,9.112376E-5,-1.1933524E-3,1.1703655E-3,-5.024975E-4,-8.4286433E-4,2.7668476E-4,9.209251E-4,-3.18094E-4,1.3387159E-3,-1.9205291E-3,-1.5304227E-3,1.556046E-3,-8.792292E-4,3.742051E-3,-9.559629E-4,1.7990127E-3,2.8311598E-4,-1.0053884E-3,-4.8667463E-4,3.2127737E-3,-3.1828026E-3,-3.6094902E-6,-2.0937146E-4,-3.6022305E-3,9.145743E-4,3.2285298E-3,-1.65895E-3,1.1250246E-3,5.3240457E-3,9.127061E-4,-1.8424626E-3,1.5615746E-3,7.4093887E-3,1.3960437E-3,4.1238818E-4,-6.1025023E-3,8.976801E-5,-2.3062483E-3,-1.248567E-3,3.5633022E-4,-1.07854605E-4,4.651308E-3,-4.893935E-3,-2.032877E-4,1.9239642E-3,-2.0686092E-3,-1.0305248E-3,1.0747015E-3,-7.637739E-4,-4.120901E-3,1.591072E-3,-6.87099E-4,5.832725E-3,1.5618869E-3,-5.1180436E-4,-3.0325833E-3,-1.6084101E-4,1.9126281E-3,1.3657808E-3,3.2782555E-6],"categories":[],"categories_nodes":[],"categories_segments":[],"categories_sizes":[],"default_left":[1,1,1,1,1,1,0,1,1,1,1,0,0,1,1,1,1,1,1,1,1,1,1,1,1,1,1,1,1,1,1,1,1,1,1,0,1,0,0,0,0,0,0,0,0,0,0,0,0,0,0,0,0,0,0,0,0,0,0,0,0,0,0,0,0,0,0],"id":81,"left_children":[1,3,5,7,9,11,-1,13,15,17,19,-1,-1,21,23,25,27,29,31,33,35,37,39,41,43,45,47,49,51,53,55,57,59,61,63,-1,65,-1,-1,-1,-1,-1,-1,-1,-1,-1,-1,-1,-1,-1,-1,-1,-1,-1,-1,-1,-1,-1,-1,-1,-1,-1,-1,-1,-1,-1,-1],"loss_changes":[5.6456025E-5,5.6522153E-5,5.3643944E-5,1.184455E-4,1.0353862E-4,1.3089928E-6,0E0,1.3985598E-4,1.6276073E-4,1.0654553E-4,9.763444E-5,0E0,0E0,2.2585758E-4,1.1433015E-4,6.9981324E-5,1.6452657E-4,3.4826327E-5,9.145816E-5,8.781807E-5,1.7520753E-5,1.0107617E-4,1.9991124E-4,1.2468806E-4,1.8398624E-4,7.5099715E-6,4.827005E-5,2.0803727E-4,1.1543224E-4,1.0597296E-5,4.2136817E-6,7.152256E-5,9.505628E-5,6.147821E-5,1.6511663E-5,0E0,1.2316391E-6,0E0,0E0,0E0,0E0,0E0,0E0,0E0,0E0,0E0,0E0,0E0,0E0,0E0,0E0,0E0,0E0,0E0,0E0,0E0,0E0,0E0,0E0,0E0,0E0,0E0,0E0,0E0,0E0,0E0,0E0],"parents":[2147483647,0,0,1,1,2,2,3,3,4,4,5,5,7,7,8,8,9,9,10,10,13,13,14,14,15,15,16,16,17,17,18,18,19,19,20,20,21,21,22,22,23,23,24,24,25,25,26,26,27,27,28,28,29,29,30,30,31,31,32,32,33,33,34,34,36,36],"right_children":[2,4,6,8,10,12,-1,14,16,18,20,-1,-1,22,24,26,28,30,32,34,36,38,40,42,44,46,48,50,52,54,56,58,60,62,64,-1,66,-1,-1,-1,-1,-1,-1,-1,-1,-1,-1,-1,-1,-1,-1,-1,-1,-1,-1,-1,-1,-1,-1,-1,-1,-1,-1,-1,-1,-1,-1],"split_conditions":[4.453026E0,6.5893805E-1,1.9094752E0,2.861073E-1,2.650173E-1,5.5715096E-1,-2.2094073E-3,-3.662055E-1,-5.424551E-1,-1.8771696E0,2.330745E0,-2.5285932E-4,8.3005434E-5,-4.33625E-1,-2.7556233E-2,6.053498E-2,3.9051843E-1,-2.5857437E-1,5.1915467E-1,5.5330265E-1,2.0251676E-1,7.9553175E-1,-3.4719703E-1,3.2310028E0,1.1044982E-1,-3.9399397E-1,-3.419789E-1,2.3713146E-1,5.9122935E-2,-7.669176E-2,-1.8002123E0,5.2809095E-1,-3.1288004E-1,7.706843E-2,-3.416217E-1,1.5972138E-3,5.744134E-1,-5.527388E-4,4.684724E-4,2.2228167E-3,4.188131E-4,1.2371645E-4,-1.8307507E-3,2.6930404E-5,-6.9187453E-4,-3.745701E-4,1.0689907E-4,-3.2356384E-5,1.3953925E-3,-1.4681806E-3,-6.098631E-5,5.771893E-4,-6.205828E-4,-3.0915748E-4,3.224105E-4,-2.2913219E-4,-1.2362704E-3,4.773216E-4,-2.0612971E-4,1.7498176E-3,4.6856608E-4,-1.5354132E-4,-9.0977503E-4,-4.8252306E-5,5.737884E-4,4.0973426E-4,9.834766E-7],"split_indices":[35,9,0,9,26,0,0,32,28,55,58,0,0,19,35,6,48,54,7,41,0,23,19,4,56,54,4,41,14,0,3,39,31,24,7,0,0,0,0,0,0,0,0,0,0,0,0,0,0,0,0,0,0,0,0,0,0,0,0,0,0,0,0,0,0,0,0],"split_type":[0,0,0,0,0,0,0,0,0,0,0,0,0,0,0,0,0,0,0,0,0,0,0,0,0,0,0,0,0,0,0,0,0,0,0,0,0,0,0,0,0,0,0,0,0,0,0,0,0,0,0,0,0,0,0,0,0,0,0,0,0,0,0,0,0,0,0],"sum_hessian":[6.57E2,6.53E2,4E0,4.96E2,1.57E2,3E0,1E0,4.1E2,8.6E1,9.9E1,5.8E1,2E0,1E0,1.35E2,2.75E2,1.9E1,6.7E1,1.2E1,8.7E1,5.4E1,4E0,4.3E1,9.2E1,1.47E2,1.28E2,1E1,9E0,4E1,2.7E1,8E0,4E0,6.4E1,2.3E1,3.9E1,1.5E1,2E0,2E0,3.2E1,1.1E1,5E0,8.7E1,1.45E2,2E0,7E1,5.8E1,5E0,5E0,3E0,6E0,2.5E1,1.5E1,1.4E1,1.3E1,5E0,3E0,1E0,3E0,4.5E1,1.9E1,8E0,1.5E1,2.2E1,1.7E1,6E0,9E0,1E0,1E0],"tree_param":{"num_deleted":"0","num_feature":"60","num_nodes":"67","size_leaf_vector":"0"}},{"base_weights":[4.338735E-6,4.800069E-4,-1.6234897E-4,1.7334659E-4,1.915532E-3,3.2878877E-4,-7.284976E-4,5.7570304E-4,-1.2859202E-3,3.6116797E-3,-2.1394093E-5,-5.85328E-4,8.2693034E-4,-9.3742757E-4,1.7494916E-3,-2.7489598E-4,1.4944001E-3,1.3215073E-3,-1.964563E-3,1.693345E-3,7.493347E-3,7.349302E-4,-2.2850186E-3,9.927184E-4,-1.599405E-3,-7.55525E-5,1.7518003E-3,9.4880676E-4,-1.2818563E-3,3.5836666E-3,-4.828688E-4,5.3593198E-5,-3.1854827E-3,-1.0804707E-3,1.9656923E-3,3.7688762E-4,1.93575E-3,-2.694317E-3,2.968495E-4,3.2925233E-4,2.620661E-3,1.951009E-3,8.391179E-3,1.5163999E-3,-6.6240726E-4,-9.882221E-4,2.1069038E-3,-3.6430587E-3,-7.8278914E-4,1.0718575E-3,-1.2745734E-3,-5.360186E-4,2.3402919E-3,-3.3967374E-4,3.2319538E-3,2.3648524E-4,-1.7672279E-3,1.2390742E-3,6.790787E-3,4.7212414E-4,-2.5502294E-3,8.214121E-4,-1.1920942E-3,-5.480051E-4,-3.6033771E-3,2.6599637E-5,-3.3034782E-3,9.173075E-5,2.7011398E-3,-3.5137162E-3,-1.1284286E-3,1.556774E-3,-5.184751E-4,1.034759E-3,-2.8219074E-4,3.3839047E-4,1.8526713E-3,-2.4406426E-4,-3.6354463E-3,-6.1410293E-4,3.2634418E-3,-8.09772E-3,-1.4833616E-3,-5.582154E-3,-2.7047508E-4,-1.814676E-4,2.6475873E-3,2.178833E-4,-4.075018E-3,9.909091E-4,-1.8566515E-3,2.760303E-3,-2.3898713E-3,1.4123028E-3,-1.441682E-3,4.8618186E-3,-2.222061E-5,1.2743213E-3,-1.1961581E-3,-3.926538E-3,-1.1654783E-3,-1.15950905E-4,1.8042743E-3,-5.288124E-4,7.270823E-4],"categories":[],"categories_nodes":[],"categories_segments":[],"categories_sizes":[],"default_left":[1,1,1,1,1,1,1,1,1,1,1,1,1,1,1,1,1,1,1,1,1,1,0,1,1,1,1,1,1,1,1,1,1,1,1,0,0,1,1,1,0,0,0,1,0,1,1,1,1,1,1,1,1,1,1,1,1,1,0,1,0,0,0,0,0,0,0,0,0,0,0,0,0,0,0,0,0,0,0,0,0,0,0,0,0,0,0,0,0,0,0,0,0,0,0,0,0,0,0,0,0,0,0,0,0],"id":82,"left_children":[1,3,5,7,9,11,13,15,17,19,21,23,25,27,29,31,33,35,37,39,41,43,-1,45,47,49,51,53,55,57,59,61,63,65,67,-1,-1,69,71,73,-1,-1,-1,75,-1,77,79,81,83,85,87,89,91,93,95,97,99,101,-1,103,-1,-1,-1,-1,-1,-1,-1,-1,-1,-1,-1,-1,-1,-1,-1,-1,-1,-1,-1,-1,-1,-1,-1,-1,-1,-1,-1,-1,-1,-1,-1,-1,-1,-1,-1,-1,-1,-1,-1,-1,-1,-1,-1,-1,-1],"loss_changes":[5.2249452E-5,7.494533E-5,1.359313E-4,8.411495E-5,9.863664E-5,1.1978823E-4,1.19163895E-4,8.793239E-5,5.7451056E-5,1.06452586E-4,2.7359845E-5,1.5041199E-4,1.4202781E-4,1.3764761E-4,7.543215E-5,5.6580404E-5,6.765377E-5,3.3320212E-6,4.205668E-5,1.4316476E-5,8.509174E-6,1.4108197E-5,0E0,8.374608E-5,9.227441E-5,1.2105802E-4,1.1434889E-4,9.81769E-5,1.3159678E-4,6.677961E-5,1.8972858E-5,5.262816E-5,4.638452E-6,2.22371E-5,6.314943E-5,2.393241E-7,0E0,2.0413674E-5,7.99788E-6,2.8802622E-6,4.1196836E-7,0E0,0E0,2.5421214E-6,2.0015659E-7,2.6692054E-5,7.753085E-5,1.4191966E-4,1.0175902E-4,8.935103E-5,1.8060821E-4,3.813697E-5,1.3970706E-4,4.4511333E-5,6.37544E-5,6.694565E-5,1.7083785E-4,5.5702294E-6,0E0,2.1708686E-6,0E0,0E0,0E0,0E0,0E0,0E0,0E0,0E0,0E0,0E0,0E0,0E0,0E0,0E0,0E0,0E0,0E0,0E0,0E0,0E0,0E0,0E0,0E0,0E0,0E0,0E0,0E0,0E0,0E0,0E0,0E0,0E0,0E0,0E0,0E0,0E0,0E0,0E0,0E0,0E0,0E0,0E0,0E0,0E0,0E0],"parents":[2147483647,0,0,1,1,2,2,3,3,4,4,5,5,6,6,7,7,8,8,9,9,10,10,11,11,12,12,13,13,14,14,15,15,16,16,17,17,18,18,19,19,20,20,21,21,23,23,24,24,25,25,26,26,27,27,28,28,29,29,30,30,31,31,32,32,33,33,34,34,37,37,38,38,39,39,43,43,45,45,46,46,47,47,48,48,49,49,50,50,51,51,52,52,53,53,54,54,55,55,56,56,57,57,59,59],"right_children":[2,4,6,8,10,12,14,16,18,20,22,24,26,28,30,32,34,36,38,40,42,44,-1,46,48,50,52,54,56,58,60,62,64,66,68,-1,-1,70,72,74,-1,-1,-1,76,-1,78,80,82,84,86,88,90,92,94,96,98,100,102,-1,104,-1,-1,-1,-1,-1,-1,-1,-1,-1,-1,-1,-1,-1,-1,-1,-1,-1,-1,-1,-1,-1,-1,-1,-1,-1,-1,-1,-1,-1,-1,-1,-1,-1,-1,-1,-1,-1,-1,-1,-1,-1,-1,-1,-1,-1],"split_conditions":[-6.495278E-1,8.44669E-1,-1.6324748E-3,3.1350273E-1,1.3549143E-1,-2.1190387E-1,1.6872926E0,-1.4740546E0,-3.1872904E-1,-6.852226E-1,7.747911E-1,-2.1037811E-1,-3.5314064E-2,-9.444028E-1,1.6566043E-1,1.7915479E0,-1.0506493E0,9.1660845E-1,6.897892E-1,-1.404952E0,-4.024637E0,-1.4628816E0,-6.8550557E-4,-1.9061114E0,-2.5923216E-1,1.2526795E-1,-6.9813275E-1,1.986675E-1,-5.977707E-1,-2.2211117E-1,1.6105177E0,2.8571078E-1,-2.778349E0,4.6034503E-1,-9.716686E-1,1.1306629E-4,5.80725E-4,7.5057733E-1,-8.1855184E-1,-3.4988764E-1,7.861983E-4,5.853027E-4,2.5173537E-3,-1.8117198E0,-1.9872219E-4,-2.1113272E0,-3.6417142E-1,-4.4406003E-1,-4.0103716E-1,-2.1833418E-2,2.7973646E-1,-2.0985025E-1,1.5156504E0,-7.238791E-1,5.289334E-1,1.3247567E-1,-6.702671E-1,-1.8778483E0,2.0372362E-3,-3.144145E-1,-7.6506886E-4,2.4642365E-4,-3.5762828E-4,-1.6440154E-4,-1.0810132E-3,7.979891E-6,-9.910435E-4,2.7519225E-5,8.1034197E-4,-1.0541149E-3,-3.385286E-4,4.6703222E-4,-1.5554253E-4,3.104277E-4,-8.465722E-5,1.01517144E-4,5.558014E-4,-7.321928E-5,-1.0906339E-3,-1.8423088E-4,9.790326E-4,-2.4293163E-3,-4.4500848E-4,-1.6746462E-3,-8.114253E-5,-5.4440283E-5,7.9427625E-4,6.536499E-5,-1.2225055E-3,2.9727272E-4,-5.5699545E-4,8.2809094E-4,-7.169614E-4,4.2369086E-4,-4.325046E-4,1.4585457E-3,-6.6661837E-6,3.8229642E-4,-3.5884744E-4,-1.1779615E-3,-3.496435E-4,-3.4785273E-5,5.412823E-4,-1.5864373E-4,2.181247E-4],"split_indices":[0,56,43,56,30,42,28,0,13,30,4,6,29,11,15,57,25,1,52,16,0,0,0,42,18,21,1,53,55,8,30,27,0,15,42,0,0,3,3,1,0,0,0,35,0,42,13,33,0,35,9,25,34,53,47,16,28,8,0,1,0,0,0,0,0,0,0,0,0,0,0,0,0,0,0,0,0,0,0,0,0,0,0,0,0,0,0,0,0,0,0,0,0,0,0,0,0,0,0,0,0,0,0,0,0],"split_type":[0,0,0,0,0,0,0,0,0,0,0,0,0,0,0,0,0,0,0,0,0,0,0,0,0,0,0,0,0,0,0,0,0,0,0,0,0,0,0,0,0,0,0,0,0,0,0,0,0,0,0,0,0,0,0,0,0,0,0,0,0,0,0,0,0,0,0,0,0,0,0,0,0,0,0,0,0,0,0,0,0,0,0,0,0,0,0,0,0,0,0,0,0,0,0,0,0,0,0,0,0,0,0,0,0],"sum_hessian":[6.57E2,1.7E2,4.87E2,1.41E2,2.9E1,2.61E2,2.26E2,1.11E2,3E1,1.5E1,1.4E1,9.2E1,1.69E2,2.09E2,1.7E1,5.8E1,5.3E1,6E0,2.4E1,1.1E1,4E0,1.1E1,3E0,3.6E1,5.6E1,8.6E1,8.3E1,3.2E1,1.77E2,9E0,8E0,5.3E1,5E0,8E0,4.5E1,3E0,3E0,1.8E1,6E0,5E0,6E0,1E0,3E0,7E0,4E0,1.3E1,2.3E1,1.5E1,4.1E1,4.4E1,4.2E1,1.7E1,6.6E1,2.1E1,1.1E1,4.3E1,1.34E2,6E0,3E0,6E0,2E0,3.3E1,2E1,1E0,4E0,6E0,2E0,1.3E1,3.2E1,1.1E1,7E0,2E0,4E0,2E0,3E0,2E0,5E0,1.1E1,2E0,7E0,1.6E1,4E0,1.1E1,3E0,3.8E1,2.5E1,1.9E1,2.8E1,1.4E1,8E0,9E0,6.1E1,5E0,8E0,1.3E1,7E0,4E0,2.5E1,1.8E1,2.8E1,1.06E2,2E0,4E0,1E0,5E0],"tree_param":{"num_deleted":"0","num_feature":"60","num_nodes":"105","size_leaf_vector":"0"}},{"base_weights":[3.1931697E-7,-1.3550231E-4,4.495051E-4,-6.684504E-4,1.2433605E-4,-3.5091426E-4,1.093969E-3,-1.0519606E-3,8.514118E-4,-1.491266E-3,2.7928388E-4,4.1578533E-4,-1.8058004E-3,2.3303542E-3,2.645254E-4,4.5604288E-4,-1.3881819E-3,1.4710972E-4,4.1136364E-3,-1.7078887E-4,-3.457749E-3,6.1841175E-4,-7.287568E-4,-4.5973578E-4,1.4799645E-3,-2.7992155E-3,5.309321E-4,3.1564056E-3,3.21907E-5,5.680913E-4,-4.8830807E-3,-8.414815E-5,4.445493E-3,-5.7348463E-4,-2.0688833E-3,5.635347E-4,-3.6497514E-3,4.93969E-3,1.6410189E-3,5.3037854E-4,-2.2401332E-3,-1.140424E-3,-4.950064E-3,1.0879011E-3,-7.612389E-4,-4.2419867E-3,-3.620834E-5,1.5349413E-3,-1.0077513E-3,-6.4812106E-4,2.1854988E-3,-3.289907E-3,-1.3512969E-3,1.5535653E-3,-8.800924E-4,1.9816542E-3,4.720367E-3,-1.4998585E-3,9.0304867E-4,-5.3409307E-4,1.7843782E-3,-2.108035E-3,5.951557E-4,5.4302216E-3,1.2380183E-3,-1.3358208E-3,4.1265585E-4,-2.839545E-3,-2.9698818E-4,1.3129347E-3,-3.4450652E-4,-7.4052564E-6,2.0111352E-3,7.5984E-4,-3.1800866E-3,-1.3557803E-3,-3.182143E-5,-5.360186E-3,-1.2446642E-3,2.0558941E-3,2.3190812E-4,4.9885333E-4,-2.2191606E-3,-9.114176E-4,-7.975747E-3,-1.1375456E-3,9.437639E-4,2.3039182E-4,2.129618E-3,-3.5517983E-4,-2.0237826E-3,5.6107838E-5,-1.0142624E-3,1.0624685E-3,3.1757206E-3,2.0906527E-3,4.9862266E-4,7.183552E-4,2.4905761E-3,6.935999E-3,2.0872795E-3,1.2308002E-3,5.5780012E-5,1.1034618E-3,-2.1334984E-3,3.069353E-3,-1.3260679E-5],"categories":[],"categories_nodes":[],"categories_segments":[],"categories_sizes":[],"default_left":[1,1,1,1,1,1,1,1,1,1,1,1,1,1,1,1,1,1,1,1,1,1,1,1,1,1,1,1,1,1,0,1,1,1,1,1,0,0,0,1,1,1,1,1,1,1,1,1,1,1,1,0,0,1,0,1,1,0,1,1,1,0,0,0,0,0,0,0,0,0,0,0,0,0,0,0,0,0,0,0,0,0,0,0,0,0,0,0,0,0,0,0,0,0,0,0,0,0,0,0,0,0,0,0,0,0,0],"id":83,"left_children":[1,3,5,7,9,11,13,15,17,19,21,23,25,27,29,31,33,35,37,39,41,43,45,47,49,51,53,55,57,59,-1,61,63,65,67,69,-1,-1,-1,71,73,75,77,79,81,83,85,87,89,91,93,-1,-1,95,-1,97,99,-1,101,103,105,-1,-1,-1,-1,-1,-1,-1,-1,-1,-1,-1,-1,-1,-1,-1,-1,-1,-1,-1,-1,-1,-1,-1,-1,-1,-1,-1,-1,-1,-1,-1,-1,-1,-1,-1,-1,-1,-1,-1,-1,-1,-1,-1,-1,-1,-1],"loss_changes":[4.0204934E-5,7.0154165E-5,7.9307625E-5,9.7654185E-5,8.578039E-5,7.7717596E-5,8.655206E-5,6.806714E-5,7.751295E-5,7.731034E-5,1.0710933E-4,4.353912E-5,5.7198493E-5,6.4444015E-5,8.4031184E-5,5.4250715E-5,5.926116E-5,4.7908885E-5,4.1489693E-6,2.8756298E-5,3.5852965E-5,1.5239726E-4,1.9205986E-4,2.9967805E-5,3.294665E-5,7.632538E-6,1.2910964E-5,3.657752E-5,1.4696418E-5,6.7981644E-5,0E0,3.2875792E-5,2.7527567E-6,3.889153E-5,7.9723046E-5,1.8825438E-5,0E0,0E0,0E0,1.1959797E-5,1.651553E-5,1.389325E-6,3.966037E-6,1.4452738E-4,1.1133397E-4,1.5439287E-4,7.338532E-5,4.164065E-6,1.3204888E-5,1.6039921E-6,1.4418678E-5,0E0,9.554942E-7,1.7905359E-6,8.429745E-7,8.497605E-6,4.386215E-5,0E0,1.8752007E-6,7.307032E-5,5.5478806E-5,0E0,0E0,0E0,0E0,0E0,0E0,0E0,0E0,0E0,0E0,0E0,0E0,0E0,0E0,0E0,0E0,0E0,0E0,0E0,0E0,0E0,0E0,0E0,0E0,0E0,0E0,0E0,0E0,0E0,0E0,0E0,0E0,0E0,0E0,0E0,0E0,0E0,0E0,0E0,0E0,0E0,0E0,0E0,0E0,0E0,0E0],"parents":[2147483647,0,0,1,1,2,2,3,3,4,4,5,5,6,6,7,7,8,8,9,9,10,10,11,11,12,12,13,13,14,14,15,15,16,16,17,17,18,18,19,19,20,20,21,21,22,22,23,23,24,24,25,25,26,26,27,27,28,28,29,29,31,31,32,32,33,33,34,34,35,35,39,39,40,40,41,41,42,42,43,43,44,44,45,45,46,46,47,47,48,48,49,49,50,50,53,53,55,55,56,56,58,58,59,59,60,60],"right_children":[2,4,6,8,10,12,14,16,18,20,22,24,26,28,30,32,34,36,38,40,42,44,46,48,50,52,54,56,58,60,-1,62,64,66,68,70,-1,-1,-1,72,74,76,78,80,82,84,86,88,90,92,94,-1,-1,96,-1,98,100,-1,102,104,106,-1,-1,-1,-1,-1,-1,-1,-1,-1,-1,-1,-1,-1,-1,-1,-1,-1,-1,-1,-1,-1,-1,-1,-1,-1,-1,-1,-1,-1,-1,-1,-1,-1,-1,-1,-1,-1,-1,-1,-1,-1,-1,-1,-1,-1,-1],"split_conditions":[5.843433E-1,-3.0964625E-1,-2.3476048E-1,9.445449E-1,-1.9737191E0,3.8463163E-1,-3.1477916E-1,-8.7516654E-1,1.1870975E0,9.327115E-2,4.6762618E-1,3.4197226E-2,8.242481E-1,2.6012075E-1,1.700006E0,-4.4139427E-1,-7.535513E-2,-4.9926287E-1,1.0598508E0,3.757598E-1,-4.8332793E-1,6.162633E-1,5.8053094E-1,-1.9273858E0,-1.0685565E0,1.9413152E-1,2.3994732E-1,6.5551944E-2,-3.179327E-2,-7.1793464E-3,-1.4649243E-3,-9.767555E-1,-1.57432E0,9.2932895E-2,1.8998444E-1,3.5551958E-2,-1.0949255E-3,1.4819071E-3,4.9230567E-4,3.0551687E-1,9.597558E-2,7.4018866E-1,-1.4907498E-2,4.9886256E-2,1.1001463E-1,1.0496655E-1,-3.7841648E-2,-1.9247055E0,6.279658E-1,3.6218688E-2,-1.516808E-1,-9.869721E-4,-4.053891E-4,8.991927E-3,-2.6402774E-4,-7.8776646E-1,-5.82399E-1,-4.4995756E-4,4.638976E-2,-2.0636017E-2,3.3224624E-2,-6.324105E-4,1.7854672E-4,1.6290665E-3,3.714055E-4,-4.0074624E-4,1.2379677E-4,-8.5186353E-4,-8.909646E-5,3.9388041E-4,-1.0335196E-4,-2.221577E-6,6.0334057E-4,2.2795201E-4,-9.54026E-4,-4.067341E-4,-9.546429E-6,-1.6080559E-3,-3.7339926E-4,6.1676826E-4,6.957244E-5,1.49656E-4,-6.657482E-4,-2.7342528E-4,-2.3927242E-3,-3.412637E-4,2.8312916E-4,6.9117545E-5,6.388854E-4,-1.06553955E-4,-6.071348E-4,1.6832351E-5,-3.0427874E-4,3.1874055E-4,9.527162E-4,6.271958E-4,1.495868E-4,2.1550656E-4,7.4717286E-4,2.0807998E-3,6.261839E-4,3.6924006E-4,1.6734004E-5,3.3103855E-4,-6.400496E-4,9.2080596E-4,-3.978204E-6],"split_indices":[56,53,17,6,59,23,53,0,47,58,54,44,24,7,47,53,47,53,2,10,21,11,54,3,38,11,4,13,9,49,0,57,0,41,9,59,0,0,0,47,1,1,2,57,0,43,6,1,58,1,25,0,0,0,0,11,51,0,2,29,30,0,0,0,0,0,0,0,0,0,0,0,0,0,0,0,0,0,0,0,0,0,0,0,0,0,0,0,0,0,0,0,0,0,0,0,0,0,0,0,0,0,0,0,0,0,0],"split_type":[0,0,0,0,0,0,0,0,0,0,0,0,0,0,0,0,0,0,0,0,0,0,0,0,0,0,0,0,0,0,0,0,0,0,0,0,0,0,0,0,0,0,0,0,0,0,0,0,0,0,0,0,0,0,0,0,0,0,0,0,0,0,0,0,0,0,0,0,0,0,0,0,0,0,0,0,0,0,0,0,0,0,0,0,0,0,0,0,0,0,0,0,0,0,0,0,0,0,0,0,0,0,0,0,0,0,0],"sum_hessian":[6.57E2,5.05E2,1.52E2,1.65E2,3.4E2,6.8E1,8.4E1,1.32E2,3.3E1,2.9E1,3.11E2,4.5E1,2.3E1,3.3E1,5.1E1,2.4E1,1.08E2,2.8E1,5E0,1.8E1,1.1E1,2.33E2,7.8E1,2.5E1,2E1,1.6E1,7E0,2.4E1,9E0,4.9E1,2E0,2.2E1,2E0,5E1,5.8E1,2.6E1,2E0,3E0,2E0,1.4E1,4E0,5E0,6E0,1.74E2,5.9E1,1.2E1,6.6E1,5E0,2E1,5E0,1.5E1,1.1E1,5E0,4E0,3E0,1.5E1,9E0,3E0,6E0,2.6E1,2.3E1,5E0,1.7E1,1E0,1E0,2.8E1,2.2E1,4E1,1.8E1,1.4E1,1.2E1,1.1E1,3E0,1E0,3E0,4E0,1E0,5E0,1E0,8.1E1,9.3E1,3.2E1,2.7E1,7E0,5E0,3.1E1,3.5E1,2E0,3E0,1.3E1,7E0,2E0,3E0,8E0,7E0,2E0,2E0,5E0,1E1,4E0,5E0,4E0,2E0,1.3E1,1.3E1,1.3E1,1E1],"tree_param":{"num_deleted":"0","num_feature":"60","num_nodes":"107","size_leaf_vector":"0"}},{"base_weights":[-8.900376E-7,1.9550575E-5,-2.6743442E-3,1.731937E-4,-2.9497276E-4,-4.667975E-4,-5.7522655E-3,-5.204354E-4,3.5055386E-4,-7.27655E-4,4.156906E-4,-8.205225E-4,2.9718876E-4,-8.2298846E-4,1.7272629E-3,-9.910389E-5,9.679838E-4,5.5254746E-4,-1.1514098E-3,-6.8646495E-4,9.39664E-4,3.313402E-4,-1.3537076E-3,3.5069783E-3,-3.403298E-4,-3.5591813E-7,-5.0364137E-3,1.4143295E-4,1.5622247E-3,-2.06544E-3,1.0751467E-3,2.7744158E-4,-1.9133376E-3,7.143064E-4,-2.0382032E-3,1.3668397E-3,-1.1620283E-3,-4.5115317E-4,1.8595114E-3,-1.8356119E-3,9.984225E-4,9.676814E-4,3.8213015E-3,-1.123244E-3,3.3193827E-4,-3.745424E-4,1.0251988E-3,-6.801029E-3,1.2871623E-4,1.5100889E-3,-5.788496E-4,2.6882086E-3,7.367807E-4,-3.3402045E-3,-5.930066E-4,3.1771683E-4,2.4824918E-3,-1.6169412E-4,2.119817E-3,1.3806434E-5,-2.8129783E-3,-9.4859797E-4,1.070507E-3,-7.773704E-4,-3.589752E-3,1.9138517E-3,-2.1102637E-4,-1.9103214E-3,-3.1670927E-5],"categories":[],"categories_nodes":[],"categories_segments":[],"categories_sizes":[],"default_left":[1,1,1,1,1,1,0,1,1,1,1,0,0,1,1,1,1,1,1,1,1,1,1,1,1,1,1,1,1,1,1,1,1,1,1,1,1,0,0,0,0,0,0,0,0,0,0,0,0,0,0,0,0,0,0,0,0,0,0,0,0,0,0,0,0,0,0,0,0],"id":84,"left_children":[1,3,5,7,9,11,-1,13,15,17,19,-1,-1,21,23,25,27,29,31,33,35,37,39,41,43,45,47,49,51,53,55,57,59,61,63,65,67,-1,-1,-1,-1,-1,-1,-1,-1,-1,-1,-1,-1,-1,-1,-1,-1,-1,-1,-1,-1,-1,-1,-1,-1,-1,-1,-1,-1,-1,-1,-1,-1],"loss_changes":[3.601004E-5,3.1655207E-5,3.128814E-5,5.4312197E-5,6.641314E-5,1.3248141E-6,0E0,6.262584E-5,9.754482E-5,7.333011E-5,4.8000067E-5,1.03517095E-7,0E0,4.945849E-5,4.1670522E-5,9.945827E-5,7.247226E-5,4.873803E-5,1.104877E-4,5.257976E-5,5.186466E-5,3.1929307E-5,6.417529E-5,1.0911608E-6,3.5308167E-6,7.751747E-5,3.7333266E-5,6.298071E-5,7.795094E-5,9.281273E-6,3.0124262E-5,2.9468663E-5,1.1446548E-4,9.308067E-6,2.4596837E-5,4.0970124E-5,8.397884E-6,0E0,0E0,0E0,0E0,0E0,0E0,0E0,0E0,0E0,0E0,0E0,0E0,0E0,0E0,0E0,0E0,0E0,0E0,0E0,0E0,0E0,0E0,0E0,0E0,0E0,0E0,0E0,0E0,0E0,0E0,0E0,0E0],"parents":[2147483647,0,0,1,1,2,2,3,3,4,4,5,5,7,7,8,8,9,9,10,10,13,13,14,14,15,15,16,16,17,17,18,18,19,19,20,20,21,21,22,22,23,23,24,24,25,25,26,26,27,27,28,28,29,29,30,30,31,31,32,32,33,33,34,34,35,35,36,36],"right_children":[2,4,6,8,10,12,-1,14,16,18,20,-1,-1,22,24,26,28,30,32,34,36,38,40,42,44,46,48,50,52,54,56,58,60,62,64,66,68,-1,-1,-1,-1,-1,-1,-1,-1,-1,-1,-1,-1,-1,-1,-1,-1,-1,-1,-1,-1,-1,-1,-1,-1,-1,-1,-1,-1,-1,-1,-1,-1],"split_conditions":[4.453026E0,3.0686203E-1,1.9094752E0,-8.1592166E-1,3.0217803E-1,5.5715096E-1,-1.7256797E-3,1.404524E0,1.5231106E-1,-1.1318562E0,-4.3407118E-1,-2.4615676E-4,8.915663E-5,-2.648414E-1,3.7649304E-1,1.3399838E-1,-5.4977387E-2,-1.3550885E0,-2.4891639E-1,-2.4828869E-1,9.1385984E-1,6.8121E-2,1.8248972E0,-5.1357913E-1,3.5852933E-1,5.2838546E-1,4.1372955E-1,-2.0193958E-1,2.9238212E-1,-1.5982158E-1,3.0582863E-1,5.0655466E-1,-3.2571393E-1,-2.6246343E0,3.956345E-1,7.6704895E-1,-4.3280405E-1,-1.3534595E-4,5.5785343E-4,-5.506836E-4,2.9952676E-4,2.9030442E-4,1.1463905E-3,-3.369732E-4,9.9581484E-5,-1.1236272E-4,3.0755968E-4,-2.040309E-3,3.861487E-5,4.530267E-4,-1.7365487E-4,8.064626E-4,2.2103422E-4,-1.0020614E-3,-1.77902E-4,9.531505E-5,7.447476E-4,-4.850824E-5,6.359451E-4,4.1419303E-6,-8.4389356E-4,-2.845794E-4,3.211521E-4,-2.3321113E-4,-1.0769257E-3,5.7415554E-4,-6.330792E-5,-5.7309645E-4,-9.501278E-6],"split_indices":[35,19,0,50,43,0,0,20,25,43,58,0,0,58,37,25,38,56,27,17,11,53,58,0,12,46,0,1,38,7,35,49,55,25,8,58,3,0,0,0,0,0,0,0,0,0,0,0,0,0,0,0,0,0,0,0,0,0,0,0,0,0,0,0,0,0,0,0,0],"split_type":[0,0,0,0,0,0,0,0,0,0,0,0,0,0,0,0,0,0,0,0,0,0,0,0,0,0,0,0,0,0,0,0,0,0,0,0,0,0,0,0,0,0,0,0,0,0,0,0,0,0,0,0,0,0,0,0,0,0,0,0,0,0,0,0,0,0,0,0,0],"sum_hessian":[6.57E2,6.53E2,4E0,4.39E2,2.14E2,3E0,1E0,8.9E1,3.5E2,1.33E2,8.1E1,2E0,1E0,7.9E1,1E1,2.03E2,1.47E2,3.3E1,1E2,2.6E1,5.5E1,2.5E1,5.4E1,5E0,5E0,2E2,3E0,6.2E1,8.5E1,5E0,2.8E1,3.5E1,6.5E1,1.3E1,1.3E1,4.6E1,9E0,1.7E1,8E0,4.5E1,9E0,1E0,4E0,2E0,3E0,1.47E2,5.3E1,2E0,1E0,2.1E1,4.1E1,3.5E1,5E1,2E0,3E0,1.9E1,9E0,2.9E1,6E0,2.1E1,4.4E1,2E0,1.1E1,8E0,5E0,3.4E1,1.2E1,5E0,4E0],"tree_param":{"num_deleted":"0","num_feature":"60","num_nodes":"69","size_leaf_vector":"0"}},{"base_weights":[-5.1031543E-6,-3.46242E-5,1.5869985E-3,-8.727132E-6,-2.1020616E-3,-3.9225817E-4,2.290335E-3,-3.875494E-3,3.3890824E-6,-2.0682191E-5,-5.564133E-3,-9.67741E-4,1.2214978E-4,3.6243598E-3,1.3914193E-3,-3.604282E-4,1.3183327E-4,3.516795E-4,-5.102704E-4,2.443189E-4,-9.328565E-4,1.166279E-3,-4.4731147E-5,7.7206925E-5,2.8024018E-3,-1.5909778E-3,4.1555357E-4,1.609231E-3,-2.9869005E-3,5.2009773E-4,-3.259384E-4],"categories":[],"categories_nodes":[],"categories_segments":[],"categories_sizes":[],"default_left":[1,1,1,1,1,1,1,0,1,1,0,0,0,0,0,1,1,0,0,1,1,1,1,0,0,0,0,0,0,0,0],"id":85,"left_children":[1,3,5,7,9,11,13,-1,15,17,-1,-1,-1,-1,-1,19,21,-1,-1,23,25,27,29,-1,-1,-1,-1,-1,-1,-1,-1],"loss_changes":[3.0981282E-5,3.4622404E-5,1.7603405E-5,2.9997504E-5,5.7532005E-5,1.3023413E-6,5.7495745E-6,0E0,2.9908122E-5,1.2732751E-6,0E0,0E0,1.2874447E-7,0E0,0E0,5.8039033E-5,8.644386E-5,0E0,0E0,3.4837507E-5,7.697902E-5,1.3174309E-4,6.449728E-5,0E0,0E0,0E0,0E0,0E0,0E0,0E0,0E0],"parents":[2147483647,0,0,1,1,2,2,3,3,4,4,5,5,6,6,8,8,9,9,15,15,16,16,19,19,20,20,21,21,22,22],"right_children":[2,4,6,8,10,12,14,-1,16,18,-1,-1,-1,-1,-1,20,22,-1,-1,24,26,28,30,-1,-1,-1,-1,-1,-1,-1,-1],"split_conditions":[3.5396128E0,3.771239E0,-3.629775E-1,-6.3752747E0,-5.503868E-1,-7.8494E-1,-6.825696E-2,-1.1626482E-3,-6.494575E-1,1.7402095E-1,-1.6692401E-3,-2.9032232E-4,3.6644935E-5,1.087308E-3,4.1742582E-4,-5.5807352E-2,-2.4225563E-1,1.0550386E-4,-1.5308113E-4,1.9232461E0,1.3793758E-1,1.2697845E0,-3.55859E-1,2.3162078E-5,8.4072055E-4,-4.7729336E-4,1.2466608E-4,4.827693E-4,-8.960702E-4,1.5602933E-4,-9.778152E-5],"split_indices":[13,50,39,51,35,0,18,0,34,1,0,0,0,0,0,50,34,0,0,4,5,56,40,0,0,0,0,0,0,0,0],"split_type":[0,0,0,0,0,0,0,0,0,0,0,0,0,0,0,0,0,0,0,0,0,0,0,0,0,0,0,0,0,0,0],"sum_hessian":[6.57E2,6.46E2,1.1E1,6.39E2,7E0,3E0,8E0,1E0,6.38E2,5E0,2E0,1E0,2E0,2E0,6E0,1.66E2,4.72E2,3E0,2E0,8.1E1,8.5E1,6.8E1,4.04E2,7.7E1,4E0,5.7E1,2.8E1,6.2E1,6E0,1.34E2,2.7E2],"tree_param":{"num_deleted":"0","num_feature":"60","num_nodes":"31","size_leaf_vector":"0"}},{"base_weights":[-5.8099354E-6,1.3717945E-3,-3.788797E-5,-2.7829557E-4,1.9971267E-3,3.7429035E-3,-4.9588896E-5,2.1539957E-3,2.142191E-4,-1.5001812E-4,3.893653E-4,-1.17525604E-4,-2.231095E-3,-3.762851E-4,7.9149124E-4,1.7154762E-4,-3.7853475E-4,-3.4734507E-3,9.973148E-4,7.674822E-4,-1.1847462E-3,1.1930265E-4,1.4778564E-3,-6.9389695E-5,1.279246E-3,-6.3563633E-4,6.958215E-4,-4.2155087E-3,-1.3262233E-3,2.1627694E-4,2.6426315E-3,6.1923265E-4,-2.0701028E-3,-3.2731946E-4,1.2259161E-3,2.8986193E-3,3.6347285E-4],"categories":[],"categories_nodes":[],"categories_segments":[],"categories_sizes":[],"default_left":[1,1,1,0,1,0,1,0,0,1,1,1,1,1,1,1,1,1,0,1,1,1,1,0,0,0,0,0,0,0,0,0,0,0,0,0,0],"id":86,"left_children":[1,3,5,-1,7,-1,9,-1,-1,11,13,15,17,19,21,23,25,27,-1,29,31,33,35,-1,-1,-1,-1,-1,-1,-1,-1,-1,-1,-1,-1,-1,-1],"loss_changes":[2.912955E-5,1.603361E-5,2.8675366E-5,5.3628304E-7,2.6150847E-6,0E0,2.8404316E-5,0E0,0E0,3.517037E-5,3.7244376E-5,3.9072977E-5,3.555079E-5,3.9746308E-5,3.627167E-5,6.574269E-5,7.557377E-5,3.9695005E-6,8.94775E-7,1.8033119E-5,4.1211E-5,2.0665026E-5,6.0694147E-5,0E0,0E0,0E0,0E0,0E0,0E0,0E0,0E0,0E0,0E0,0E0,0E0,0E0,0E0],"parents":[2147483647,0,0,1,1,2,2,4,4,6,6,9,9,10,10,11,11,12,12,13,13,14,14,15,15,16,16,17,17,19,19,20,20,21,21,22,22],"right_children":[2,4,6,-1,8,-1,10,-1,-1,12,14,16,18,20,22,24,26,28,-1,30,32,34,36,-1,-1,-1,-1,-1,-1,-1,-1,-1,-1,-1,-1,-1,-1],"split_conditions":[-3.5035424E0,-2.675335E-1,-6.3752747E0,-8.3488674E-5,6.5010595E-1,1.1228711E-3,7.9327357E-1,6.4619875E-4,6.426573E-5,3.1444821E0,-6.423563E-1,-2.3268024E-3,2.3461722E-1,-5.342199E-1,-3.161431E-2,7.322583E-1,7.4383533E-1,3.2519528E-1,2.9919445E-4,8.171798E-1,-5.45387E-1,6.3021123E-1,2.155982E-1,-2.081691E-5,3.837738E-4,-1.906909E-4,2.0874645E-4,-1.2646527E-3,-3.97867E-4,6.488308E-5,7.927895E-4,1.8576981E-4,-6.2103086E-4,-9.8195844E-5,3.6777483E-4,8.6958584E-4,1.0904186E-4],"split_indices":[53,0,58,0,2,0,56,0,0,54,14,38,9,25,55,46,57,1,0,1,34,17,14,0,0,0,0,0,0,0,0,0,0,0,0,0,0],"split_type":[0,0,0,0,0,0,0,0,0,0,0,0,0,0,0,0,0,0,0,0,0,0,0,0,0,0,0,0,0,0,0,0,0,0,0,0,0],"sum_hessian":[6.57E2,1.4E1,6.43E2,4E0,1E1,1E0,6.42E2,9E0,1E0,5.23E2,1.19E2,5.16E2,7E0,4.1E1,7.8E1,2.45E2,2.71E2,5E0,2E0,1.7E1,2.4E1,4E1,3.8E1,2.02E2,4.3E1,2.19E2,5.2E1,3E0,2E0,1.4E1,3E0,8E0,1.6E1,2.9E1,1.1E1,1.6E1,2.2E1],"tree_param":{"num_deleted":"0","num_feature":"60","num_nodes":"37","size_leaf_vector":"0"}},{"base_weights":[-3.5569056E-7,1.720591E-5,-2.2973418E-3,6.4264335E-5,-8.702955E-4,-4.990846E-4,-4.7451854E-3,1.3717875E-4,-4.94626E-4,-1.783396E-3,3.4431816E-4,-8.733471E-4,3.118515E-4,-2.578612E-4,3.1865962E-4,-1.5180904E-4,-2.1960603E-3,-4.965662E-4,-2.8918863E-3,-1.6188491E-3,9.700141E-4,-8.83246E-5,-2.0490608E-3,1.6598181E-3,1.8556383E-4,-1.1737979E-3,1.4943372E-4,-6.263334E-4,-6.6964626E-3,3.7077814E-5,-1.3063017E-3,-1.1052191E-3,-3.4997123E-3,-4.1739395E-4,-2.6116073E-3,2.2287002E-4,1.6800131E-3,6.568785E-5,-1.6991465E-3,-2.9430552E-3,3.2753946E-4,2.6098E-3,1.162868E-4,7.126518E-4,-1.209464E-4,-2.2667437E-3,-7.074559E-5,2.1967068E-3,-3.5866862E-5,-1.8805123E-3,5.232046E-4,-4.4022998E-4,3.1604694E-4,-8.762777E-5,6.660763E-4,1.9276399E-3,2.2093952E-4],"categories":[],"categories_nodes":[],"categories_segments":[],"categories_sizes":[],"default_left":[1,1,1,1,1,1,0,1,1,1,1,0,0,1,1,1,1,1,1,1,1,1,1,1,1,1,1,1,0,1,0,0,0,0,0,1,1,0,0,0,0,0,0,0,0,0,0,0,0,0,0,0,0,0,0,0,0],"id":87,"left_children":[1,3,5,7,9,11,-1,13,15,17,19,-1,-1,21,23,25,27,29,31,33,35,37,39,41,43,45,47,49,-1,51,-1,-1,-1,-1,-1,53,55,-1,-1,-1,-1,-1,-1,-1,-1,-1,-1,-1,-1,-1,-1,-1,-1,-1,-1,-1,-1],"loss_changes":[2.6582427E-5,2.736986E-5,1.9641011E-5,2.5415076E-5,3.721318E-5,1.4863667E-6,0E0,3.9584567E-5,4.1662817E-5,2.5666312E-5,1.9995492E-5,0E0,0E0,5.2658266E-5,6.7165965E-5,1.8955277E-5,8.05786E-5,4.36954E-6,6.9918824E-6,3.6809488E-6,5.9912345E-6,3.980547E-5,3.283398E-5,4.955163E-5,5.5823653E-5,1.6717704E-5,1.8288112E-5,1.5401156E-5,0E0,1.0712122E-6,0E0,0E0,0E0,0E0,0E0,1.0216688E-6,1.7419425E-6,0E0,0E0,0E0,0E0,0E0,0E0,0E0,0E0,0E0,0E0,0E0,0E0,0E0,0E0,0E0,0E0,0E0,0E0,0E0,0E0],"parents":[2147483647,0,0,1,1,2,2,3,3,4,4,5,5,7,7,8,8,9,9,10,10,13,13,14,14,15,15,16,16,17,17,18,18,19,19,20,20,21,21,22,22,23,23,24,24,25,25,26,26,27,27,29,29,35,35,36,36],"right_children":[2,4,6,8,10,12,-1,14,16,18,20,-1,-1,22,24,26,28,30,32,34,36,38,40,42,44,46,48,50,-1,52,-1,-1,-1,-1,-1,54,56,-1,-1,-1,-1,-1,-1,-1,-1,-1,-1,-1,-1,-1,-1,-1,-1,-1,-1,-1,-1],"split_conditions":[4.453026E0,2.4132853E0,1.9094752E0,1.3684747E0,1.7549224E-1,5.5715096E-1,-1.4235557E-3,-3.619636E-1,9.84144E-1,-4.1833556E-1,-7.0692044E-1,-2.6200415E-4,9.3555456E-5,-4.5397177E-1,-2.4989708E-1,-1.1866848E0,5.209877E-1,-6.5524E-2,7.951487E-2,3.0867508E-1,-5.107162E-1,1.8254223E0,8.0423117E-1,1.8049753E-1,-2.0262176E-1,-3.4112027E-1,-1.8983166E0,1.2536712E-1,-2.008939E-3,-2.073254E0,-3.9189053E-4,-3.3156574E-4,-1.0499137E-3,-1.252182E-4,-7.834822E-4,-5.400417E-2,2.8723177E-1,1.9706355E-5,-5.09744E-4,-8.829166E-4,9.8261844E-5,7.829401E-4,3.488604E-5,2.1379556E-4,-3.6283924E-5,-6.800231E-4,-2.1223677E-5,6.5901206E-4,-1.0760059E-5,-5.641537E-4,1.569614E-4,-1.32069E-4,9.481409E-5,-2.6288331E-5,1.998229E-4,5.78292E-4,6.628186E-5],"split_indices":[35,49,0,32,34,0,0,1,19,4,20,0,0,1,1,21,1,36,1,1,44,4,13,54,36,26,57,33,0,2,0,0,0,0,0,5,3,0,0,0,0,0,0,0,0,0,0,0,0,0,0,0,0,0,0,0,0],"split_type":[0,0,0,0,0,0,0,0,0,0,0,0,0,0,0,0,0,0,0,0,0,0,0,0,0,0,0,0,0,0,0,0,0,0,0,0,0,0,0,0,0,0,0,0,0,0,0,0,0,0,0,0,0,0,0,0,0],"sum_hessian":[6.57E2,6.53E2,4E0,6.21E2,3.2E1,3E0,1E0,5.5E2,7.1E1,1.8E1,1.4E1,2E0,1E0,1.73E2,3.77E2,6E1,1.1E1,9E0,9E0,3E0,1.1E1,1.59E2,1.4E1,3.3E1,3.44E2,1.3E1,4.7E1,9E0,2E0,6E0,3E0,3E0,6E0,2E0,1E0,6E0,5E0,1.46E2,1.3E1,1E1,4E0,2E1,1.3E1,1.26E2,2.18E2,6E0,7E0,3E0,4.4E1,4E0,5E0,2E0,4E0,4E0,2E0,4E0,1E0],"tree_param":{"num_deleted":"0","num_feature":"60","num_nodes":"57","size_leaf_vector":"0"}},{"base_weights":[-9.740146E-6,-1.5434409E-4,2.6002E-4,5.215854E-5,-1.1457034E-3,2.7641568E-3,9.7264514E-5,2.95321E-4,-4.2852195E-4,-2.539325E-4,-2.3082173E-3,5.6883334E-3,1.0256529E-3,6.3189387E-4,-2.8658225E-4,-1.9665762E-4,9.372801E-4,-1.5307651E-3,7.1652853E-6,-7.158759E-4,1.8565543E-3,-3.3763475E-3,-2.466383E-4,6.9204965E-3,2.5600593E-3,1.8123627E-3,1.9911925E-4,7.8738393E-4,-2.946861E-3,-6.137352E-4,8.9205615E-4,4.5608223E-4,-7.5728714E-4,-4.6928198E-4,1.5217479E-3,-6.206376E-4,-2.3052874E-3,4.16777E-4,-9.6987677E-4,7.7929226E-4,-1.3209133E-3,-1.6963482E-4,2.5602232E-3,-4.6596145E-3,-1.1475899E-3,2.2473633E-3,-9.701749E-4,9.573988E-4,-2.2263422E-3,-1.2182548E-3,1.8334104E-4,2.8990298E-3,4.3676762E-4,-4.4881797E-4,1.0632223E-3,-3.195178E-4,-2.955988E-3,-2.0035375E-3,6.1689956E-5,-2.659928E-4,2.1116629E-3,-2.2999226E-5,-2.05037E-3,-5.828614E-4,-2.9229235E-3,-5.061731E-4,1.0974125E-3,-7.926726E-5,-1.8543887E-3,-4.0624477E-4,1.2746493E-3,-1.8613855E-3,1.2782216E-4,-1.7941892E-3,-5.3398227E-3,-2.06318E-3,5.1269284E-4,-1.440377E-3,-2.118975E-4,6.0055393E-4,2.4364549E-3,-9.7349286E-5,-2.7342532E-3,8.8008086E-4,-1.6834344E-3,-3.755552E-4,1.1848817E-3,-3.138408E-4,3.7807077E-3,-5.8557093E-4,8.1007887E-4],"categories":[],"categories_nodes":[],"categories_segments":[],"categories_sizes":[],"default_left":[1,1,1,1,1,1,1,1,1,1,1,1,1,1,1,1,1,1,1,1,1,1,1,0,0,0,0,1,0,1,1,1,1,1,1,1,1,1,1,1,1,0,0,1,1,0,1,1,1,1,1,1,1,0,0,0,0,0,0,0,0,0,0,0,0,0,0,0,0,0,0,0,0,0,0,0,0,0,0,0,0,0,0,0,0,0,0,0,0,0,0],"id":88,"left_children":[1,3,5,7,9,11,13,15,17,19,21,23,25,27,29,31,33,35,37,39,41,43,45,-1,-1,-1,-1,47,-1,49,51,53,55,57,59,61,63,65,67,69,71,-1,-1,73,75,-1,77,79,81,83,85,87,89,-1,-1,-1,-1,-1,-1,-1,-1,-1,-1,-1,-1,-1,-1,-1,-1,-1,-1,-1,-1,-1,-1,-1,-1,-1,-1,-1,-1,-1,-1,-1,-1,-1,-1,-1,-1,-1,-1],"loss_changes":[2.5707644E-5,8.7883906E-5,9.34704E-5,4.1737057E-5,7.612938E-5,6.5337445E-5,4.4712906E-5,7.503608E-5,5.7638965E-5,4.3250853E-5,6.963237E-5,1.5558326E-6,6.141544E-6,5.295825E-5,4.9518054E-5,4.974799E-5,8.5389416E-5,2.2536326E-5,3.5222307E-5,3.3596152E-5,1.1840431E-5,5.4714576E-5,2.3834355E-5,0E0,0E0,0E0,5.7243875E-7,4.7220783E-5,9.893738E-7,4.8408176E-5,2.4318855E-5,3.508947E-5,6.931975E-5,2.5377643E-5,7.754857E-5,1.4478713E-5,1.744533E-5,3.9503422E-5,2.0334634E-5,6.977724E-6,2.0595955E-5,1.1458813E-7,0E0,1.5757483E-5,1.4739024E-5,4.45355E-7,3.260223E-6,4.2871434E-5,5.140517E-6,5.7119425E-5,2.507431E-5,1.5350124E-5,9.63397E-6,0E0,0E0,0E0,0E0,0E0,0E0,0E0,0E0,0E0,0E0,0E0,0E0,0E0,0E0,0E0,0E0,0E0,0E0,0E0,0E0,0E0,0E0,0E0,0E0,0E0,0E0,0E0,0E0,0E0,0E0,0E0,0E0,0E0,0E0,0E0,0E0,0E0,0E0],"parents":[2147483647,0,0,1,1,2,2,3,3,4,4,5,5,6,6,7,7,8,8,9,9,10,10,11,11,12,12,13,13,14,14,15,15,16,16,17,17,18,18,19,19,20,20,21,21,22,22,27,27,29,29,30,30,31,31,32,32,33,33,34,34,35,35,36,36,37,37,38,38,39,39,40,40,43,43,44,44,46,46,47,47,48,48,49,49,50,50,51,51,52,52],"right_children":[2,4,6,8,10,12,14,16,18,20,22,24,26,28,30,32,34,36,38,40,42,44,46,-1,-1,-1,-1,48,-1,50,52,54,56,58,60,62,64,66,68,70,72,-1,-1,74,76,-1,78,80,82,84,86,88,90,-1,-1,-1,-1,-1,-1,-1,-1,-1,-1,-1,-1,-1,-1,-1,-1,-1,-1,-1,-1,-1,-1,-1,-1,-1,-1,-1,-1,-1,-1,-1,-1,-1,-1,-1,-1,-1,-1],"split_conditions":[3.3422396E-1,8.162083E-2,3.6662436E-1,3.309055E-1,8.539879E-2,-2.8273886E-1,-2.7003568E-1,8.790515E-2,5.66165E-1,5.844558E-1,3.370197E-1,1.7823203E-1,2.1814767E-1,3.0444825E0,6.181551E-1,-6.4694345E-2,-4.6584976E-1,2.620017E-1,5.519832E-1,-4.0619934E-1,-3.7903124E-1,2.4354415E-1,-1.4976373E-1,2.076149E-3,7.6801784E-4,5.4370885E-4,5.973578E-5,4.0669236E0,-8.8405836E-4,5.3974116E-1,-9.625819E-1,-3.015181E-1,1.0814208E0,-1.3707309E0,-6.225532E-1,5.201026E-1,-7.397878E-1,-1.657941E-1,-5.590869E-1,-5.725652E-1,6.695978E-1,-5.089045E-5,7.68067E-4,-1.7837445E0,7.5092375E-1,6.7420903E-4,1.4564267E-1,-4.319944E-1,-2.538965E0,-8.2060647E-1,2.9725343E-1,-5.5289227E-1,9.247725E-1,-1.346454E-4,3.189667E-4,-9.585534E-5,-8.8679645E-4,-6.0106127E-4,1.8506988E-5,-7.979784E-5,6.334989E-4,-6.899768E-6,-6.15111E-4,-1.7485843E-4,-8.768771E-4,-1.5185194E-4,3.2922378E-4,-2.3780178E-5,-5.5631663E-4,-1.2187343E-4,3.823948E-4,-5.5841566E-4,3.834665E-5,-5.382568E-4,-1.6019469E-3,-6.189541E-4,1.5380786E-4,-4.321131E-4,-6.356925E-5,1.8016619E-4,7.309365E-4,-2.9204786E-5,-8.20276E-4,2.6402427E-4,-5.0503033E-4,-1.1266656E-4,3.5546452E-4,-9.4152245E-5,1.1342124E-3,-1.7567129E-4,2.4302366E-4],"split_indices":[36,36,36,51,20,55,39,55,51,43,56,1,41,21,30,27,27,15,33,34,0,46,7,0,0,0,0,27,0,39,40,11,24,59,4,16,49,4,32,30,49,0,0,59,16,0,58,39,1,27,4,0,36,0,0,0,0,0,0,0,0,0,0,0,0,0,0,0,0,0,0,0,0,0,0,0,0,0,0,0,0,0,0,0,0,0,0,0,0,0,0],"split_type":[0,0,0,0,0,0,0,0,0,0,0,0,0,0,0,0,0,0,0,0,0,0,0,0,0,0,0,0,0,0,0,0,0,0,0,0,0,0,0,0,0,0,0,0,0,0,0,0,0,0,0,0,0,0,0,0,0,0,0,0,0,0,0,0,0,0,0,0,0,0,0,0,0,0,0,0,0,0,0,0,0,0,0,0,0,0,0,0,0,0,0],"sum_hessian":[6.57E2,4.28E2,2.29E2,3.55E2,7.3E1,1.3E1,2.16E2,2.36E2,1.19E2,4.2E1,3.1E1,4E0,9E0,9E1,1.26E2,1.34E2,1.02E2,3.3E1,8.6E1,3.5E1,7E0,2E1,1.1E1,2E0,2E0,4E0,5E0,8.7E1,3E0,9.9E1,2.7E1,6.2E1,7.2E1,3E1,7.2E1,1.6E1,1.7E1,6.1E1,2.5E1,1E1,2.5E1,2E0,5E0,1.2E1,8E0,2E0,9E0,8.3E1,4E0,5.6E1,4.3E1,4E0,2.3E1,2.5E1,3.7E1,6.1E1,1.1E1,7E0,2.3E1,1.8E1,5.4E1,1.2E1,4E0,5E0,1.2E1,2.6E1,3.5E1,1.3E1,1.2E1,3E0,7E0,1.8E1,7E0,3E0,9E0,5E0,3E0,5E0,4E0,6.8E1,1.5E1,1E0,3E0,1E1,4.6E1,2.8E1,1.5E1,1E0,3E0,6E0,1.7E1],"tree_param":{"num_deleted":"0","num_feature":"60","num_nodes":"91","size_leaf_vector":"0"}},{"base_weights":[-8.548699E-6,-5.572846E-4,4.744033E-5,-4.3133408E-4,-2.8485507E-3,3.5567489E-4,-7.9891004E-5,-1.0844783E-3,-9.397855E-5,1.2414319E-4,1.8072225E-3,-2.1684715E-3,-1.3795287E-5,-3.5565122E-4,-1.6484596E-3,-9.0652856E-4,1.7116591E-4,-8.050053E-4,4.1943934E-4,6.738897E-4,4.4633322E-3,-3.5414016E-3,2.3514032E-5,1.0432491E-4,-7.8239955E-4,-8.899415E-4,-2.3806929E-3,-8.0418584E-5,-1.4438654E-3,-3.621628E-4,3.7241777E-4,2.397974E-4,-1.5282707E-3,7.1967504E-4,-5.498613E-4,-1.8200278E-4,1.0170793E-3,6.47825E-3,1.332581E-3,-6.1941147E-4,-3.8703415E-3,4.6119094E-4,-3.1062216E-4,3.5871615E-4,-2.9905926E-4,-6.0501444E-4,-5.1805973E-3,-6.145686E-4,3.47505E-4,-3.329143E-4,5.868386E-4,-4.029302E-4,7.844667E-4,-6.009511E-4,-2.80096E-3,8.522069E-4,-1.6773015E-3,-8.129659E-5,-1.9439416E-3,2.7540326E-4,1.3161128E-3,-1.6819475E-4,7.756149E-4,-5.992497E-4,8.116075E-4,-1.4112736E-3,3.870277E-5],"categories":[],"categories_nodes":[],"categories_segments":[],"categories_sizes":[],"default_left":[1,1,1,1,0,1,1,1,1,1,1,1,1,0,1,1,1,1,1,1,1,1,1,1,1,0,0,0,0,1,1,1,1,1,1,0,1,0,0,0,0,0,0,1,1,1,0,0,0,0,0,0,0,0,0,0,0,0,0,0,0,0,0,0,0,0,0],"id":89,"left_children":[1,3,5,7,-1,9,11,13,15,17,19,21,23,-1,25,27,29,31,33,35,37,39,41,43,45,-1,-1,-1,-1,47,49,51,53,55,57,-1,59,-1,-1,-1,-1,-1,-1,61,63,65,-1,-1,-1,-1,-1,-1,-1,-1,-1,-1,-1,-1,-1,-1,-1,-1,-1,-1,-1,-1,-1],"loss_changes":[2.0242298E-5,1.6375081E-5,2.349867E-5,1.289825E-5,0E0,5.8589518E-5,5.8501682E-5,7.6346205E-6,8.772891E-6,4.2042495E-5,6.923835E-5,3.9206032E-5,3.748615E-5,5.139749E-7,3.9908555E-6,4.32288E-6,3.4622108E-6,2.8326253E-5,3.4153887E-5,5.472313E-6,3.552466E-5,5.291942E-6,1.0207183E-6,3.6844307E-5,3.9775274E-5,3.4462118E-7,8.314273E-7,1.9121863E-7,1.4111538E-7,1.8256841E-6,3.6738381E-6,5.917269E-6,2.4280936E-5,2.9702554E-5,1.8132036E-5,7.3281126E-7,2.5207564E-6,0E0,0E0,0E0,0E0,0E0,0E0,4.8457525E-5,4.6830555E-5,2.8080778E-5,0E0,0E0,0E0,0E0,0E0,0E0,0E0,0E0,0E0,0E0,0E0,0E0,0E0,0E0,0E0,0E0,0E0,0E0,0E0,0E0,0E0],"parents":[2147483647,0,0,1,1,2,2,3,3,5,5,6,6,7,7,8,8,9,9,10,10,11,11,12,12,14,14,15,15,16,16,17,17,18,18,19,19,20,20,21,21,22,22,23,23,24,24,29,29,30,30,31,31,32,32,33,33,34,34,36,36,43,43,44,44,45,45],"right_children":[2,4,6,8,-1,10,12,14,16,18,20,22,24,-1,26,28,30,32,34,36,38,40,42,44,46,-1,-1,-1,-1,48,50,52,54,56,58,-1,60,-1,-1,-1,-1,-1,-1,62,64,66,-1,-1,-1,-1,-1,-1,-1,-1,-1,-1,-1,-1,-1,-1,-1,-1,-1,-1,-1,-1,-1],"split_conditions":[-2.0439734E0,3.0551105E0,-5.292059E-1,-6.9061255E-1,-8.5456524E-4,1.1572022E0,-4.3686163E-1,-2.4903522E0,-4.2453927E-1,-6.551084E-1,5.2084875E-1,2.7571207E-1,1.1256602E0,-1.0669537E-4,-1.7376079E-1,-4.271352E-1,-9.8235214E-1,-8.129758E-2,4.122907E-1,-3.869613E-1,2.9239202E-1,-1.484882E0,-5.2371275E-1,1.7351675E-1,3.1300697E0,-2.6698248E-4,-7.142079E-4,-2.4125577E-5,-4.331596E-4,-2.0770106E-1,-1.0518034E0,-6.213145E-1,-8.536096E-2,3.0066242E0,7.2910106E-1,-5.4600838E-5,1.357666E-1,1.9434751E-3,3.9977432E-4,-1.8582345E-4,-1.1611024E-3,1.3835728E-4,-9.318665E-5,-1.03176236E-1,5.492654E-1,-6.673294E-2,-1.5541792E-3,-1.8437058E-4,1.0425151E-4,-9.987429E-5,1.7605157E-4,-1.2087906E-4,2.3534002E-4,-1.8028534E-4,-8.4028806E-4,2.5566207E-4,-5.0319044E-4,-2.4388977E-5,-5.831825E-4,8.262098E-5,3.9483386E-4,-5.0458428E-5,2.3268448E-4,-1.7977491E-4,2.4348227E-4,-4.233821E-4,1.1610831E-5],"split_indices":[22,38,25,6,0,16,25,22,49,29,59,24,59,0,20,2,44,38,40,58,0,1,3,58,4,0,0,0,0,3,17,48,39,15,17,0,30,0,0,0,0,0,0,50,0,55,0,0,0,0,0,0,0,0,0,0,0,0,0,0,0,0,0,0,0,0,0],"split_type":[0,0,0,0,0,0,0,0,0,0,0,0,0,0,0,0,0,0,0,0,0,0,0,0,0,0,0,0,0,0,0,0,0,0,0,0,0,0,0,0,0,0,0,0,0,0,0,0,0,0,0,0,0,0,0,0,0,0,0,0,0,0,0,0,0,0,0],"sum_hessian":[6.57E2,6E1,5.97E2,5.8E1,2E0,1.74E2,4.23E2,1.9E1,3.9E1,1.51E2,2.3E1,1.2E1,4.11E2,9E0,1E1,9E0,3E1,3.6E1,1.15E2,1.7E1,6E0,7E0,5E0,3.57E2,5.4E1,6E0,4E0,4E0,5E0,8E0,2.2E1,1.5E1,2.1E1,8.8E1,2.7E1,5E0,1.2E1,3E0,3E0,1E0,6E0,2E0,3E0,2.19E2,1.38E2,5.3E1,1E0,6E0,2E0,5E0,1.7E1,7E0,8E0,1.3E1,8E0,8.4E1,4E0,2.1E1,6E0,4E0,8E0,9.7E1,1.22E2,1.09E2,2.9E1,2.3E1,3E1],"tree_param":{"num_deleted":"0","num_feature":"60","num_nodes":"67","size_leaf_vector":"0"}},{"base_weights":[-1.2700588E-5,2.0403454E-6,-1.9382745E-3,2.9931664E-3,-7.1239615E-6,-5.450286E-4,-3.755629E-3,-1.7532376E-4,1.491889E-4,-3.1059573E-4,6.224753E-4,1.275436E-3,2.3562789E-5,5.345508E-4,-4.5990187E-4,1.7339458E-3,1.7919314E-4,5.439467E-4,4.019188E-3,1.4821377E-4,-1.0121322E-3,-2.2218834E-5,2.0550333E-3,4.965628E-4,-6.8249303E-4,-1.7949566E-4,2.3259278E-3,5.092925E-4,-1.1668035E-3,5.884668E-5,2.312839E-3,3.1644106E-4,4.5835725E-3,-3.1342814E-4,4.4587316E-4,-1.7796411E-3,-8.542638E-5],"categories":[],"categories_nodes":[],"categories_segments":[],"categories_sizes":[],"default_left":[1,1,1,0,1,0,0,1,1,1,1,1,1,1,1,1,1,1,1,1,1,0,0,0,0,0,0,0,0,0,0,0,0,0,0,0,0],"id":90,"left_children":[1,3,5,-1,7,-1,-1,9,11,13,15,17,19,21,23,25,27,29,31,33,35,-1,-1,-1,-1,-1,-1,-1,-1,-1,-1,-1,-1,-1,-1,-1,-1],"loss_changes":[1.8681125E-5,1.7948509E-5,1.0613183E-5,0E0,1.7194696E-5,4.3324906E-7,0E0,3.4188088E-5,4.7933718E-5,3.4315948E-5,2.235326E-5,6.6052635E-5,3.9654737E-5,3.475456E-5,4.9306025E-5,1.5142894E-5,1.5700876E-5,2.389041E-5,1.3177974E-5,3.779065E-5,2.3319382E-5,0E0,0E0,0E0,0E0,0E0,0E0,0E0,0E0,0E0,0E0,0E0,0E0,0E0,0E0,0E0,0E0],"parents":[2147483647,0,0,1,1,2,2,4,4,7,7,8,8,9,9,10,10,11,11,12,12,13,13,14,14,15,15,16,16,17,17,18,18,19,19,20,20],"right_children":[2,4,6,-1,8,-1,-1,10,12,14,16,18,20,22,24,26,28,30,32,34,36,-1,-1,-1,-1,-1,-1,-1,-1,-1,-1,-1,-1,-1,-1,-1,-1],"split_conditions":[4.453026E0,-6.3752747E0,1.9094752E0,8.9794997E-4,-5.4977387E-2,-1.6350858E-4,-1.1266888E-3,1.1653507E0,2.5920222E-2,-1.5332558E0,-3.1269377E-1,4.7815382E-1,1.5395317E0,2.6053554E-1,-1.063523E0,-1.3112849E0,2.749729E0,6.9605815E-1,-3.588041E-1,-2.4186894E-1,3.1710126E-2,-6.6656503E-6,6.1651005E-4,1.4896884E-4,-2.0474792E-4,-5.38487E-5,6.9777836E-4,1.5278776E-4,-3.5004108E-4,1.7654005E-5,6.9385173E-4,9.493232E-5,1.3750718E-3,-9.4028444E-5,1.3376195E-4,-5.3389237E-4,-2.5627915E-5],"split_indices":[35,58,0,0,5,0,0,39,5,57,8,2,12,41,41,47,39,4,1,21,39,0,0,0,0,0,0,0,0,0,0,0,0,0,0,0,0],"split_type":[0,0,0,0,0,0,0,0,0,0,0,0,0,0,0,0,0,0,0,0,0,0,0,0,0,0,0,0,0,0,0,0,0,0,0,0,0],"sum_hessian":[6.57E2,6.53E2,4E0,1E0,6.52E2,3E0,1E0,3.14E2,3.38E2,2.69E2,4.5E1,3.3E1,3.05E2,4E1,2.29E2,1.2E1,3.3E1,2.7E1,6E0,2.73E2,3.2E1,3E1,1E1,4.3E1,1.86E2,3E0,9E0,2.7E1,6E0,2.2E1,5E0,1E0,5E0,1.07E2,1.66E2,1.7E1,1.5E1],"tree_param":{"num_deleted":"0","num_feature":"60","num_nodes":"37","size_leaf_vector":"0"}},{"base_weights":[-5.4355796E-6,-4.0933235E-5,6.902665E-4,-1.9794934E-4,1.6339516E-4,-3.3999805E-4,1.7417809E-3,-3.927722E-4,3.551298E-4,1.5470643E-3,-2.6747899E-5,7.198099E-5,-3.4658313E-3,3.1317133E-4,2.5676296E-3,-1.0357663E-3,-1.6768866E-4,-5.789383E-4,7.664044E-4,1.9356805E-3,-5.243222E-4,4.1136792E-4,-3.6802384E-4,5.386472E-4,-6.04968E-4,-1.0650605E-4,6.5455586E-4,8.364506E-4,3.1900704E-3,7.3018536E-4,-1.3528302E-3,-3.062438E-4,9.420766E-4,-2.4604404E-4,-3.3820074E-3,1.1637395E-3,-3.3573393E-4,-9.6172094E-5,2.4941936E-3,4.554987E-4,-1.1281073E-3,8.661762E-4,-5.3599104E-4,-8.135085E-4,3.0284462E-4,3.51727E-5,8.684347E-4,-1.0927866E-3,-1.9128322E-4,2.34887E-3,1.0949207E-4,-4.8479615E-5,-1.8485714E-3,2.186266E-4,-6.18382E-4,2.1545482E-3,-1.0486655E-3,2.3616944E-4,-1.0894239E-3,-4.2939038E-4,1.6489777E-3,2.9163559E-5,-1.620166E-3,3.272213E-3,1.0068086E-3,1.4843505E-3,-1.5825313E-4,-3.1517148E-3,-2.819558E-4,-9.609565E-4,1.6493812E-3,-5.167108E-4,9.080473E-4],"categories":[],"categories_nodes":[],"categories_segments":[],"categories_sizes":[],"default_left":[1,1,1,1,1,1,1,1,1,1,1,1,0,1,1,1,1,1,1,1,1,1,1,1,1,0,0,0,0,1,1,1,1,1,0,1,1,0,1,0,0,1,1,1,1,0,0,0,0,0,0,0,0,0,0,0,0,0,0,0,0,0,0,0,0,0,0,0,0,0,0,0,0],"id":91,"left_children":[1,3,5,7,9,11,13,15,17,19,21,23,-1,25,27,29,31,33,35,37,39,41,43,45,47,-1,-1,-1,-1,49,51,53,55,57,-1,59,61,-1,63,-1,-1,65,67,69,71,-1,-1,-1,-1,-1,-1,-1,-1,-1,-1,-1,-1,-1,-1,-1,-1,-1,-1,-1,-1,-1,-1,-1,-1,-1,-1,-1,-1],"loss_changes":[1.6278085E-5,2.014829E-5,3.525902E-5,3.839161E-5,7.186634E-5,2.2141696E-5,1.8072937E-5,3.7889622E-5,3.6170433E-5,2.7579074E-5,3.6185327E-5,5.3804115E-6,0E0,1.0726137E-6,8.1072285E-6,3.906234E-5,3.0426187E-5,2.622852E-5,2.8855393E-5,3.201473E-5,4.0634595E-6,4.613613E-5,4.0891544E-5,1.6298509E-6,1.2035903E-6,2.373329E-7,0E0,0E0,0E0,1.07945925E-5,3.741437E-5,2.880581E-5,5.5361204E-5,1.1237895E-5,0E0,3.7814338E-5,8.483598E-6,3.974912E-7,2.2164226E-5,7.281716E-8,0E0,4.5830773E-5,2.2368364E-5,3.1363128E-5,2.7749042E-5,7.982059E-8,0E0,0E0,1.3768835E-7,0E0,0E0,0E0,0E0,0E0,0E0,0E0,0E0,0E0,0E0,0E0,0E0,0E0,0E0,0E0,0E0,0E0,0E0,0E0,0E0,0E0,0E0,0E0,0E0],"parents":[2147483647,0,0,1,1,2,2,3,3,4,4,5,5,6,6,7,7,8,8,9,9,10,10,11,11,13,13,14,14,15,15,16,16,17,17,18,18,19,19,20,20,21,21,22,22,23,23,24,24,29,29,30,30,31,31,32,32,33,33,35,35,36,36,38,38,41,41,42,42,43,43,44,44],"right_children":[2,4,6,8,10,12,14,16,18,20,22,24,-1,26,28,30,32,34,36,38,40,42,44,46,48,-1,-1,-1,-1,50,52,54,56,58,-1,60,62,-1,64,-1,-1,66,68,70,72,-1,-1,-1,-1,-1,-1,-1,-1,-1,-1,-1,-1,-1,-1,-1,-1,-1,-1,-1,-1,-1,-1,-1,-1,-1,-1,-1,-1],"split_conditions":[2.254569E0,1.2841669E-1,-2.7247214E-1,6.921762E-1,2.351524E-1,1.7364389E0,-7.3576903E-1,-4.6096772E-1,-3.925977E-1,1.0403087E0,-1.8606275E-1,3.441708E-2,-1.0397495E-3,-1.5668282E-1,-2.6472235E-1,-1.3809719E0,1.0555905E0,-5.913434E-1,5.881473E-1,-7.7212274E-1,-1.9865015E0,4.268032E-1,1.84597E-1,-4.1798803E-1,-1.8216226E-1,-3.1951815E-5,1.9636676E-4,2.509352E-4,9.5702114E-4,-5.265668E-1,-3.3004594E-1,-2.4489477E-1,3.3119136E-1,5.5926967E-1,-1.0146023E-3,-1.0390581E0,-1.3904381E-1,-2.885163E-5,6.014503E-1,1.3664961E-4,-3.384322E-4,2.538196E-1,-1.6793889E0,2.132107E0,-1.941593E-1,1.055181E-5,2.6053042E-4,-3.2783597E-4,-5.738497E-5,7.04661E-4,3.2847624E-5,-1.4543885E-5,-5.5457145E-4,6.5587985E-5,-1.8551461E-4,6.4636447E-4,-3.1459966E-4,7.085083E-5,-3.2682717E-4,-1.2881712E-4,4.9469335E-4,8.749068E-6,-4.8604983E-4,9.816639E-4,3.0204258E-4,4.4530517E-4,-4.747594E-5,-9.455145E-4,-8.458675E-5,-2.8828697E-4,4.948144E-4,-1.5501324E-4,2.724142E-4],"split_indices":[53,46,22,40,46,20,16,49,54,35,40,34,0,0,36,17,38,54,12,37,8,4,48,21,4,0,0,0,0,2,42,55,51,23,0,33,46,0,7,0,0,0,28,31,3,0,0,0,0,0,0,0,0,0,0,0,0,0,0,0,0,0,0,0,0,0,0,0,0,0,0,0,0],"split_type":[0,0,0,0,0,0,0,0,0,0,0,0,0,0,0,0,0,0,0,0,0,0,0,0,0,0,0,0,0,0,0,0,0,0,0,0,0,0,0,0,0,0,0,0,0,0,0,0,0,0,0,0,0,0,0,0,0,0,0,0,0,0,0,0,0,0,0,0,0,0,0,0,0],"sum_hessian":[6.57E2,6.26E2,3.1E1,3.54E2,2.72E2,1.6E1,1.5E1,2.62E2,9.2E1,3.2E1,2.4E2,1.5E1,1E0,6E0,9E0,6.7E1,1.95E2,2.8E1,6.4E1,2.7E1,5E0,1.05E2,1.35E2,9E0,6E0,3E0,3E0,3E0,6E0,1E1,5.7E1,1.74E2,2.1E1,2.6E1,2E0,4.7E1,1.7E1,6E0,2.1E1,2E0,3E0,7.1E1,3.4E1,8.1E1,5.4E1,4E0,5E0,2E0,4E0,2E0,8E0,1.6E1,4.1E1,6.5E1,1.09E2,1.3E1,8E0,1.7E1,9E0,1.1E1,3.6E1,1.4E1,3E0,1.3E1,8E0,4.4E1,2.7E1,2E0,3.2E1,7.7E1,4E0,2.3E1,3.1E1],"tree_param":{"num_deleted":"0","num_feature":"60","num_nodes":"73","size_leaf_vector":"0"}},{"base_weights":[-3.8646904E-6,-2.6412606E-3,4.1697945E-6,-2.643751E-4,8.6913904E-5,-1.5606059E-4,-1.3441098E-3,-7.096747E-6,5.9924246E-4,-6.5537967E-4,1.2243217E-4,1.9934773E-4,-2.223736E-3,-2.9732814E-4,2.4152361E-4,8.239405E-4,-1.0110987E-3,-1.1260159E-3,2.7000986E-4,-4.784715E-4,4.8293557E-4,-2.6630792E-3,-4.5735636E-4,2.0164839E-4,-8.138158E-4,5.682907E-4,-2.0441055E-4,-2.4463126E-4,1.1252962E-3,-2.6439287E-4,-2.6652813E-3,-5.1114097E-4,-2.3651964E-3,8.113086E-4,-5.903152E-7,-7.5124117E-4,7.1992713E-4,1.3364926E-3,1.5410192E-4,-7.5048715E-4,6.5409514E-4,-3.1096116E-4,-1.779626E-3,1.1538462E-3,-8.104014E-5,-6.4022746E-4,4.713183E-4,-2.0259619E-3,9.188242E-6,-2.7858262E-4,1.450691E-3,-8.227E-4,2.3513139E-4],"categories":[],"categories_nodes":[],"categories_segments":[],"categories_sizes":[],"default_left":[1,0,1,1,1,1,1,1,1,1,1,0,1,1,1,1,1,1,1,1,1,0,0,1,1,1,1,1,1,1,0,0,0,0,0,0,0,0,0,0,0,0,0,0,0,0,0,0,0,0,0,0,0],"id":92,"left_children":[1,-1,3,5,7,9,11,13,15,17,19,-1,21,23,25,27,29,31,33,35,37,-1,-1,39,41,43,45,47,49,51,-1,-1,-1,-1,-1,-1,-1,-1,-1,-1,-1,-1,-1,-1,-1,-1,-1,-1,-1,-1,-1,-1,-1],"loss_changes":[1.3954111E-5,0E0,1.4621852E-5,1.7917631E-5,2.4230914E-5,1.9826299E-5,1.9450612E-5,3.081088E-5,2.9056651E-5,2.2515651E-5,2.016083E-5,8.8919785E-7,5.7664474E-6,5.0934003E-5,3.3630986E-5,2.2494674E-5,1.1647196E-5,2.4697049E-5,2.637039E-6,1.1981874E-5,1.6073385E-5,0E0,0E0,4.4000742E-5,4.655584E-5,5.0662664E-5,2.9162169E-5,7.2527973E-6,2.5072135E-5,2.4245462E-6,0E0,0E0,0E0,0E0,0E0,0E0,0E0,0E0,0E0,0E0,0E0,0E0,0E0,0E0,0E0,0E0,0E0,0E0,0E0,0E0,0E0,0E0,0E0],"parents":[2147483647,0,0,2,2,3,3,4,4,5,5,6,6,7,7,8,8,9,9,10,10,12,12,13,13,14,14,15,15,16,16,17,17,18,18,19,19,20,20,23,23,24,24,25,25,26,26,27,27,28,28,29,29],"right_children":[2,-1,4,6,8,10,12,14,16,18,20,-1,22,24,26,28,30,32,34,36,38,-1,-1,40,42,44,46,48,50,52,-1,-1,-1,-1,-1,-1,-1,-1,-1,-1,-1,-1,-1,-1,-1,-1,-1,-1,-1,-1,-1,-1,-1],"split_conditions":[-6.3752747E0,-7.923782E-4,-6.834136E-1,1.5772668E0,1.1040392E0,-2.1190387E-1,-5.7145846E-1,-3.0685078E-2,1.5629562E0,5.840039E-1,-2.7858287E-1,5.9804323E-5,9.3393005E-2,9.751928E-2,1.8416849E-1,-6.4086676E-1,7.645946E-3,-1.2340081E0,-1.4492217E0,5.540937E-1,-2.0467676E-2,-7.989238E-4,-1.3720691E-4,-2.9939178E-1,4.2567912E-1,-1.5762698E-2,1.1676237E-1,1.2239454E0,-1.3772309E0,-1.1908191E0,-7.9958444E-4,-1.5334229E-4,-7.0955895E-4,2.433926E-4,-1.7709456E-7,-2.2537237E-4,2.1597814E-4,4.0094779E-4,4.6230576E-5,-2.2514616E-4,1.9622855E-4,-9.328835E-5,-5.338878E-4,3.4615386E-4,-2.4312043E-5,-1.9206824E-4,1.4139549E-4,-6.0778856E-4,2.7564727E-6,-8.357479E-5,4.3520733E-4,-2.4681E-4,7.053942E-5],"split_indices":[51,0,42,2,2,34,22,8,0,43,58,0,24,31,58,23,25,42,5,17,58,0,0,56,21,32,37,2,51,25,0,0,0,0,0,0,0,0,0,0,0,0,0,0,0,0,0,0,0,0,0,0,0],"split_type":[0,0,0,0,0,0,0,0,0,0,0,0,0,0,0,0,0,0,0,0,0,0,0,0,0,0,0,0,0,0,0,0,0,0,0,0,0,0,0,0,0,0,0,0,0,0,0,0,0,0,0,0,0],"sum_hessian":[6.57E2,1E0,6.56E2,1.54E2,5.02E2,1.41E2,1.3E1,4.25E2,7.7E1,5E1,9.1E1,5E0,8E0,1.96E2,2.29E2,6.8E1,9E0,3.3E1,1.7E1,3.4E1,5.7E1,6E0,2E0,1E2,9.6E1,1.32E2,9.7E1,1.5E1,5.3E1,7E0,2E0,2.3E1,1E1,5E0,1.2E1,2.8E1,6E0,1.5E1,4.2E1,3.2E1,6.8E1,6.4E1,3.2E1,6.9E1,6.3E1,5.9E1,3.8E1,1E0,1.4E1,1E1,4.3E1,3E0,4E0],"tree_param":{"num_deleted":"0","num_feature":"60","num_nodes":"53","size_leaf_vector":"0"}},{"base_weights":[-7.972808E-6,2.1022634E-4,-9.7007134E-5,2.6306661E-6,8.286336E-4,-1.3953805E-3,-5.3895663E-5,4.0631057E-4,-3.2539215E-4,1.2953412E-3,-1.8574041E-4,-2.8778403E-3,-5.946823E-4,2.356904E-4,-2.2322166E-4,-2.0711901E-4,1.0074277E-3,8.962564E-4,-4.928723E-4,4.509943E-5,2.1057434E-3,-7.112282E-4,2.0067506E-4,4.4657663E-4,-1.0409765E-3,-1.9722526E-4,5.624316E-4,-4.2627225E-4,3.3608868E-4,1.5768554E-4,-9.510632E-4,3.6482315E-4,1.5226635E-3,2.2535175E-4,1.3059676E-3,-6.79276E-4,7.1211753E-4,2.020735E-4,-9.977818E-4,1.1009861E-3,4.2666793E-3,-6.32604E-5,-9.577632E-4,-2.3263693E-4,-1.2716502E-3,9.5087336E-4,-5.1054166E-4,1.3168894E-3,-2.3925948E-5,6.8679487E-4,-6.1455293E-4,8.4037473E-4,-4.8197198E-4,-6.6766737E-4,3.6658446E-4,-2.2561761E-4,-2.8103788E-3,-4.8914057E-4,5.217566E-4,2.168249E-3,4.4465065E-4,-1.1758223E-3,-1.4479987E-4,1.139159E-3,5.7244302E-5,4.6326593E-4,-1.7986198E-4,1.4538575E-3,1.0447204E-4,1.735886E-3,5.0981045E-3,2.462089E-3,5.591219E-4,-3.624701E-4,-2.4188906E-3,2.144218E-3,9.466169E-5,7.035706E-4,-4.274261E-4,-6.304085E-4,2.3312853E-3,-1.0971031E-3,-2.6277595E-4,1.5447894E-3,-2.2304527E-4,2.3990311E-4,-1.2198406E-3],"categories":[],"categories_nodes":[],"categories_segments":[],"categories_sizes":[],"default_left":[1,1,1,1,1,1,1,1,1,1,1,0,1,1,1,1,1,1,1,1,1,1,0,0,1,1,1,1,1,1,1,1,1,0,0,1,1,1,0,1,1,0,0,0,0,1,1,1,1,1,1,1,1,0,0,0,0,0,0,0,0,0,0,0,0,0,0,0,0,0,0,0,0,0,0,0,0,0,0,0,0,0,0,0,0,0,0],"id":93,"left_children":[1,3,5,7,9,11,13,15,17,19,21,-1,23,25,27,29,31,33,35,37,39,41,-1,-1,43,45,47,49,51,53,55,57,59,-1,-1,61,63,65,-1,67,69,-1,-1,-1,-1,71,73,75,77,79,81,83,85,-1,-1,-1,-1,-1,-1,-1,-1,-1,-1,-1,-1,-1,-1,-1,-1,-1,-1,-1,-1,-1,-1,-1,-1,-1,-1,-1,-1,-1,-1,-1,-1,-1,-1],"loss_changes":[1.2803501E-5,2.4518147E-5,2.6120995E-5,1.9200144E-5,2.2964567E-5,1.6093643E-5,2.231425E-5,2.4176956E-5,1.6809896E-5,3.3340595E-5,3.3916313E-6,0E0,5.576661E-6,2.3874756E-5,3.2737364E-5,9.105978E-6,1.0370561E-5,2.4544697E-6,1.6431355E-5,2.4934996E-6,3.8726765E-5,1.0576391E-6,8.4717647E-7,0E0,1.1958691E-6,2.6744885E-5,4.250018E-5,4.4641147E-5,3.2170352E-5,4.210309E-6,1.4203085E-5,2.3994594E-6,1.1562977E-5,6.802682E-8,0E0,1.6284053E-5,2.73137E-6,1.3801864E-6,0E0,5.1227307E-6,3.7752616E-6,0E0,0E0,4.396378E-8,0E0,8.095727E-6,1.5512414E-5,4.2266744E-5,1.6445698E-5,6.861964E-5,3.0436466E-5,3.630082E-5,1.6272112E-5,0E0,0E0,0E0,0E0,0E0,0E0,0E0,0E0,0E0,0E0,0E0,0E0,0E0,0E0,0E0,0E0,0E0,0E0,0E0,0E0,0E0,0E0,0E0,0E0,0E0,0E0,0E0,0E0,0E0,0E0,0E0,0E0,0E0,0E0],"parents":[2147483647,0,0,1,1,2,2,3,3,4,4,5,5,6,6,7,7,8,8,9,9,10,10,12,12,13,13,14,14,15,15,16,16,17,17,18,18,19,19,20,20,21,21,24,24,25,25,26,26,27,27,28,28,29,29,30,30,31,31,32,32,35,35,36,36,37,37,39,39,40,40,45,45,46,46,47,47,48,48,49,49,50,50,51,51,52,52],"right_children":[2,4,6,8,10,12,14,16,18,20,22,-1,24,26,28,30,32,34,36,38,40,42,-1,-1,44,46,48,50,52,54,56,58,60,-1,-1,62,64,66,-1,68,70,-1,-1,-1,-1,72,74,76,78,80,82,84,86,-1,-1,-1,-1,-1,-1,-1,-1,-1,-1,-1,-1,-1,-1,-1,-1,-1,-1,-1,-1,-1,-1,-1,-1,-1,-1,-1,-1,-1,-1,-1,-1,-1,-1],"split_conditions":[-5.292059E-1,5.906589E-1,-4.353076E-1,-1.3664715E-1,8.79166E-1,-6.023288E-1,-2.8600204E-1,8.349854E-3,-2.0259876E0,-2.4189588E-1,1.5818558E0,-8.6335215E-4,-4.9426496E-1,-1.0977018E-1,5.315429E-1,-1.9702677E-1,-4.4620252E-1,-4.4124514E-1,1.3884112E0,3.5313075E0,5.3020203E-1,-1.4969444E0,6.020252E-5,1.33973E-4,-2.3803012E-1,-1.1125593E0,-6.1603606E-2,-1.590157E0,2.1910603E-1,-1.9779677E0,-1.0231872E0,-1.9841273E0,2.8858355E-1,6.760553E-5,3.917903E-4,2.9272473E-1,-1.76025E-1,3.407765E-1,-2.9933453E-4,1.8889575E0,-9.932338E-1,-1.897812E-5,-2.8732896E-4,-6.979108E-5,-3.8149508E-4,-1.8184011E0,1.7915444E0,1.82161E-1,-3.0771035E-1,3.8888853E-2,-1.8694475E-1,3.2583416E-1,-1.6102955E-1,-2.0030022E-4,1.0997534E-4,-6.768529E-5,-8.431137E-4,-1.4674218E-4,1.5652698E-4,6.5047474E-4,1.333952E-4,-3.5274672E-4,-4.3439963E-5,3.417477E-4,1.7173292E-5,1.3897978E-4,-5.3958596E-5,4.3615728E-4,3.1341613E-5,5.2076584E-4,1.5294314E-3,7.3862675E-4,1.6773658E-4,-1.08741035E-4,-7.256672E-4,6.4326543E-4,2.8398508E-5,2.110712E-4,-1.2822784E-4,-1.8912257E-4,6.993856E-4,-3.2913094E-4,-7.883279E-5,4.6343685E-4,-6.6913584E-5,7.1970935E-5,-3.659522E-4],"split_indices":[25,16,25,3,40,46,29,29,53,47,16,0,39,24,55,16,48,23,54,19,59,14,0,0,21,12,16,4,14,31,25,6,8,0,0,20,4,20,0,16,6,0,0,0,0,46,39,7,13,53,16,46,22,0,0,0,0,0,0,0,0,0,0,0,0,0,0,0,0,0,0,0,0,0,0,0,0,0,0,0,0,0,0,0,0,0,0],"split_type":[0,0,0,0,0,0,0,0,0,0,0,0,0,0,0,0,0,0,0,0,0,0,0,0,0,0,0,0,0,0,0,0,0,0,0,0,0,0,0,0,0,0,0,0,0,0,0,0,0,0,0,0,0,0,0,0,0,0,0,0,0,0,0,0,0,0,0,0,0,0,0,0,0,0,0,0,0,0,0,0,0,0,0,0,0,0,0],"sum_hessian":[6.57E2,1.9E2,4.67E2,1.43E2,4.7E1,1.4E1,4.53E2,6.4E1,7.9E1,3.2E1,1.5E1,4E0,1E1,1.67E2,2.86E2,3.2E1,3.2E1,9E0,7E1,1.3E1,1.9E1,6E0,9E0,3E0,7E0,7.2E1,9.5E1,2.1E2,7.6E1,2.2E1,1E1,1.5E1,1.7E1,4E0,5E0,6.1E1,9E0,1.2E1,1E0,1.4E1,5E0,2E0,4E0,2E0,5E0,1.5E1,5.7E1,4.1E1,5.4E1,3E1,1.8E2,4.7E1,2.9E1,4E0,1.8E1,8E0,2E0,2E0,1.3E1,1E1,7E0,3.1E1,3E1,5E0,4E0,7E0,5E0,1E1,4E0,2E0,3E0,2E0,1.3E1,5.4E1,3E0,2.4E1,1.7E1,1.9E1,3.5E1,1.7E1,1.3E1,7.5E1,1.05E2,2.8E1,1.9E1,1.5E1,1.4E1],"tree_param":{"num_deleted":"0","num_feature":"60","num_nodes":"87","size_leaf_vector":"0"}},{"base_weights":[-2.357631E-6,-2.1633614E-5,8.253818E-4,3.0290996E-4,-7.286917E-5,2.208382E-3,2.9559992E-4,1.0889993E-3,8.001458E-6,-4.6922208E-4,-2.3178138E-5,-3.1157583E-4,5.326114E-4,6.186481E-4,3.2860935E-3,-5.737589E-4,2.7931182E-4,5.0871604E-5,-1.0256844E-3,4.2466636E-4,-1.10322915E-4,-4.6978742E-4,9.0238504E-4,4.183809E-3,2.964735E-4,-9.195274E-4,4.4391677E-4,-2.1282495E-4,6.152854E-4,-3.4321615E-4,1.1399074E-3,-3.2101027E-4,-1.9224882E-3,8.6574093E-4,-2.777835E-4,-2.8388205E-4,2.5304005E-4,6.37518E-4,1.9259254E-3,-3.0640885E-4,-1.3623519E-3,1.1394631E-4,-7.892823E-4,8.750631E-4,-2.5194563E-4,2.0169753E-4,-8.6172856E-4,-6.105006E-4,1.4350209E-3,4.7325194E-4,-1.167856E-3,-7.626489E-4,-3.148526E-3,-2.0868082E-4,1.2893683E-3,2.9411455E-4,-1.3963265E-3,5.6142936E-4,-3.755873E-4,-4.3662317E-4,5.584955E-4],"categories":[],"categories_nodes":[],"categories_segments":[],"categories_sizes":[],"default_left":[1,1,1,1,1,0,1,1,1,1,1,0,0,1,1,1,1,1,1,1,1,0,1,0,0,1,0,1,1,1,1,1,1,1,1,1,1,0,0,0,0,0,0,0,0,0,0,0,0,0,0,0,0,0,0,0,0,0,0,0,0],"id":94,"left_children":[1,3,5,7,9,-1,11,13,15,17,19,-1,-1,21,23,25,27,29,31,33,35,-1,37,-1,-1,39,-1,41,43,45,47,49,51,53,55,57,59,-1,-1,-1,-1,-1,-1,-1,-1,-1,-1,-1,-1,-1,-1,-1,-1,-1,-1,-1,-1,-1,-1,-1,-1],"loss_changes":[1.0516569E-5,1.0730615E-5,1.0337528E-5,2.0391837E-5,1.0959341E-5,0E0,1.8928403E-6,2.2768809E-5,1.0419702E-5,1.7995757E-5,1.9404395E-5,0E0,8.4623116E-7,6.9093467E-6,9.494925E-6,7.7976765E-6,7.5714715E-6,1.4554031E-5,1.8341492E-5,2.5336944E-5,2.6306854E-5,5.7132934E-7,3.3809238E-6,0E0,0E0,3.926628E-6,4.872202E-7,3.6689603E-6,6.303224E-6,7.2374214E-6,5.525204E-6,1.2659807E-5,1.6084872E-5,2.3026787E-5,2.0880841E-5,2.2071361E-5,2.8683146E-5,0E0,0E0,0E0,0E0,0E0,0E0,0E0,0E0,0E0,0E0,0E0,0E0,0E0,0E0,0E0,0E0,0E0,0E0,0E0,0E0,0E0,0E0,0E0,0E0],"parents":[2147483647,0,0,1,1,2,2,3,3,4,4,6,6,7,7,8,8,9,9,10,10,13,13,14,14,15,15,16,16,17,17,18,18,19,19,20,20,22,22,25,25,27,27,28,28,29,29,30,30,31,31,32,32,33,33,34,34,35,35,36,36],"right_children":[2,4,6,8,10,-1,12,14,16,18,20,-1,-1,22,24,26,28,30,32,34,36,-1,38,-1,-1,40,-1,42,44,46,48,50,52,54,56,58,60,-1,-1,-1,-1,-1,-1,-1,-1,-1,-1,-1,-1,-1,-1,-1,-1,-1,-1,-1,-1,-1,-1,-1,-1],"split_conditions":[3.5605404E0,-1.4156364E0,3.7375746E0,-9.1545415E-1,-1.5955102E0,6.625146E-4,-6.8686E-1,-1.232837E0,-3.9633846E-1,-6.7535385E-2,-6.352322E-1,-9.347275E-5,1.5978342E-4,-1.084264E0,2.2090771E0,1.4131882E0,-1.8313517E-1,1.23500854E-1,-1.3312018E-1,2.65039E-1,3.5140514E-1,-1.4093623E-4,9.6286047E-1,1.2551427E-3,8.8942055E-5,-2.4711217E-1,1.3317504E-4,1.0462833E-1,7.596942E-1,7.682346E-2,-1.5584674E0,2.0931989E-1,-4.2473625E-2,-7.597735E-1,6.5255725E-1,-2.1113272E0,-4.3141055E-1,1.9125541E-4,5.777776E-4,-9.192266E-5,-4.087056E-4,3.4183897E-5,-2.367847E-4,2.6251894E-4,-7.5583695E-5,6.050926E-5,-2.585186E-4,-1.8315019E-4,4.305063E-4,1.4197559E-4,-3.5035683E-4,-2.2879467E-4,-9.4455783E-4,-6.260425E-5,3.8681048E-4,8.823437E-5,-4.1889795E-4,1.6842881E-4,-1.1267619E-4,-1.3098695E-4,1.6754866E-4],"split_indices":[28,55,28,22,39,0,29,22,11,1,39,0,0,44,0,18,47,10,51,47,47,0,2,0,0,53,0,52,18,11,2,5,19,18,8,47,9,0,0,0,0,0,0,0,0,0,0,0,0,0,0,0,0,0,0,0,0,0,0,0,0],"split_type":[0,0,0,0,0,0,0,0,0,0,0,0,0,0,0,0,0,0,0,0,0,0,0,0,0,0,0,0,0,0,0,0,0,0,0,0,0,0,0,0,0,0,0,0,0,0,0,0,0,0,0,0,0,0,0,0,0,0,0,0,0],"sum_hessian":[6.57E2,6.43E2,1.4E1,8.7E1,5.56E2,3E0,1.1E1,2.3E1,6.4E1,6.1E1,4.95E2,3E0,8E0,2E1,3E0,2E1,4.4E1,3.2E1,2.9E1,8E1,4.15E2,4E0,1.6E1,2E0,1E0,1.5E1,5E0,1.8E1,2.6E1,2.4E1,8E0,1.7E1,1.2E1,4.9E1,3.1E1,2.81E2,1.34E2,1.4E1,2E0,7E0,8E0,1.2E1,6E0,2E1,6E0,1.2E1,1.2E1,1E0,7E0,9E0,8E0,7E0,5E0,1.4E1,3.5E1,2.1E1,1E1,2.7E1,2.54E2,4.1E1,9.3E1],"tree_param":{"num_deleted":"0","num_feature":"60","num_nodes":"61","size_leaf_vector":"0"}},{"base_weights":[-2.3438403E-8,1.4550221E-5,-9.4585156E-4,-4.52742E-6,7.6959236E-4,-2.97111E-4,-2.3605425E-3,3.4259883E-4,-4.75262E-5,7.857465E-5,1.4507882E-3,2.3496896E-4,-6.633528E-4,6.1463716E-4,-3.6822882E-4,-1.4641101E-3,-1.41390055E-5,4.9999356E-4,-2.1546707E-4,-6.1696395E-5,8.9815655E-4,3.2997428E-4,-9.694836E-4,-5.3472654E-4,-2.8441786E-3,-1.4255254E-4,1.6681805E-4,1.1995435E-4,-8.888344E-4,1.4015575E-3,3.168914E-4,-2.2464097E-4,7.3715794E-4,-1.8120296E-3,-4.2702514E-4,-1.219511E-3,1.0917584E-5,-1.02108046E-4,-1.7273463E-3,8.4023003E-4,3.7523918E-5],"categories":[],"categories_nodes":[],"categories_segments":[],"categories_sizes":[],"default_left":[1,1,1,1,1,1,0,1,1,1,0,0,0,1,1,1,1,0,0,1,1,1,1,1,0,1,1,0,0,0,0,0,0,0,0,0,0,0,0,0,0],"id":95,"left_children":[1,3,5,7,9,11,-1,13,15,17,-1,-1,-1,19,21,23,25,-1,-1,27,29,31,33,35,-1,37,39,-1,-1,-1,-1,-1,-1,-1,-1,-1,-1,-1,-1,-1,-1],"loss_changes":[9.083751E-6,9.351955E-6,8.476331E-6,9.479369E-6,7.4175005E-6,1.7148265E-6,0E0,1.3762392E-5,2.6701404E-5,1.2229648E-6,9.603409E-7,2.0157E-7,0E0,9.834852E-6,8.715864E-6,1.5153113E-5,1.2874027E-5,2.2323889E-8,2.2626102E-7,2.5106233E-6,1.0089796E-5,2.4238989E-6,4.2537267E-6,3.3761517E-6,0E0,2.0590784E-5,1.9994164E-5,0E0,0E0,0E0,0E0,0E0,0E0,0E0,0E0,0E0,0E0,0E0,0E0,0E0,0E0],"parents":[2147483647,0,0,1,1,2,2,3,3,4,4,5,5,7,7,8,8,9,9,13,13,14,14,15,15,16,16,19,19,20,20,21,21,22,22,23,23,25,25,26,26],"right_children":[2,4,6,8,10,12,-1,14,16,18,-1,-1,-1,20,22,24,26,-1,-1,28,30,32,34,36,-1,38,40,-1,-1,-1,-1,-1,-1,-1,-1,-1,-1,-1,-1,-1,-1],"split_conditions":[3.7279477E0,2.876484E0,4.2405957E-1,-1.7882438E0,1.2146321E-1,-8.3483887E-1,-7.081628E-4,6.208331E-1,-1.5965686E0,-1.4886004E0,4.352365E-4,7.049069E-5,-1.9900584E-4,-2.6123533E-1,2.3324752E-2,4.2908812E-1,1.2841669E-1,1.4999807E-4,-6.4640124E-5,1.0416563E0,1.9889262E-1,2.1098E-1,-1.6567948E0,-1.0420277E0,-8.532536E-4,9.942448E-2,-1.001389E0,3.5986304E-5,-2.6665034E-4,4.2046726E-4,9.506743E-5,-6.739229E-5,2.2114739E-4,-5.436089E-4,-1.2810755E-4,-3.658533E-4,3.2752755E-6,-3.0632415E-5,-5.1820395E-4,2.5206903E-4,1.1257176E-5],"split_indices":[48,48,7,16,2,18,0,41,16,37,0,0,0,29,55,53,46,0,0,45,59,18,38,11,0,46,40,0,0,0,0,0,0,0,0,0,0,0,0,0,0],"split_type":[0,0,0,0,0,0,0,0,0,0,0,0,0,0,0,0,0,0,0,0,0,0,0,0,0,0,0,0,0,0,0,0,0,0,0,0,0,0,0,0,0],"sum_hessian":[6.57E2,6.48E2,9E0,6.33E2,1.5E1,7E0,2E0,6.9E1,5.64E2,8E0,7E0,3E0,4E0,5E1,1.9E1,1.2E1,5.52E2,3E0,5E0,1.5E1,3.5E1,9E0,1E1,8E0,4E0,3.23E2,2.29E2,1.3E1,2E0,1.8E1,1.7E1,4E0,5E0,3E0,7E0,3E0,5E0,3.16E2,7E0,3.6E1,1.93E2],"tree_param":{"num_deleted":"0","num_feature":"60","num_nodes":"41","size_leaf_vector":"0"}},{"base_weights":[-3.136459E-6,1.2854725E-3,-1.2983414E-5,-2.4437904E-6,3.2185689E-3,-2.018094E-3,-6.822304E-6,8.8310626E-5,-1.2997047E-4,4.736166E-5,1.2060392E-3,1.15513445E-4,-3.252314E-4,9.043559E-5,-8.1943674E-4,7.402843E-4,2.5117944E-3,3.1682264E-4,-3.8272032E-4,-5.8738084E-4,9.437946E-5,1.2694692E-4,-1.0164448E-3,-4.672436E-4,-3.2272637E-3,2.0485913E-4,1.8688291E-3,5.706E-4,-7.569353E-4,-9.304248E-5,-1.0411232E-3,-3.3467615E-4,6.629581E-4],"categories":[],"categories_nodes":[],"categories_segments":[],"categories_sizes":[],"default_left":[1,1,1,0,0,0,1,1,1,1,1,1,1,1,1,0,0,1,1,1,1,0,0,0,0,0,0,0,0,0,0,0,0],"id":96,"left_children":[1,3,5,-1,-1,-1,7,9,11,13,15,17,19,21,23,-1,-1,25,27,29,31,-1,-1,-1,-1,-1,-1,-1,-1,-1,-1,-1,-1],"loss_changes":[8.36597E-6,1.2456197E-5,8.065556E-6,4.740267E-7,0E0,0E0,7.661664E-6,1.683195E-5,1.3698594E-5,1.3403208E-5,6.0466627E-6,1.2859232E-5,1.7545553E-5,1.3910096E-5,1.2908426E-5,8.8514753E-7,0E0,1.543005E-5,1.3631534E-5,2.1884749E-5,1.534689E-5,0E0,0E0,0E0,0E0,0E0,0E0,0E0,0E0,0E0,0E0,0E0,0E0],"parents":[2147483647,0,0,1,1,2,2,6,6,7,7,8,8,9,9,10,10,11,11,12,12,13,13,14,14,17,17,18,18,19,19,20,20],"right_children":[2,4,6,-1,-1,-1,8,10,12,14,16,18,20,22,24,-1,-1,26,28,30,32,-1,-1,-1,-1,-1,-1,-1,-1,-1,-1,-1,-1],"split_conditions":[-4.6069407E0,1.0103234E0,-6.3752747E0,-7.3313714E-7,9.655707E-4,-6.0542824E-4,1.2112795E-1,8.8296354E-2,-1.0257878E-1,2.6326363E0,6.4797235E-1,4.3865764E-1,1.4171928E-1,3.1373138E0,-4.9855847E-2,2.2208529E-4,7.535384E-4,3.218093E-1,-3.2866725E-1,2.0729337E-2,5.857993E-2,3.808408E-5,-3.0493343E-4,-1.4017308E-4,-9.6817914E-4,6.1457744E-5,5.6064874E-4,1.7118E-4,-2.2708059E-4,-2.7912745E-5,-3.1233695E-4,-1.0040285E-4,1.9888743E-4],"split_indices":[32,1,45,0,0,0,1,1,12,37,21,59,4,24,1,0,0,59,10,32,57,0,0,0,0,0,0,0,0,0,0,0,0],"split_type":[0,0,0,0,0,0,0,0,0,0,0,0,0,0,0,0,0,0,0,0,0,0,0,0,0,0,0,0,0,0,0,0,0],"sum_hessian":[6.57E2,4E0,6.53E2,3E0,1E0,1E0,6.52E2,3.68E2,2.84E2,3.56E2,1.2E1,1.26E2,1.58E2,3.4E2,1.6E1,1E1,2E0,9E1,3.6E1,9.7E1,6.1E1,3.3E2,1E1,1.5E1,1E0,8.5E1,5E0,1E1,2.6E1,4.7E1,5E1,3.5E1,2.6E1],"tree_param":{"num_deleted":"0","num_feature":"60","num_nodes":"33","size_leaf_vector":"0"}},{"base_weights":[-1.7663612E-6,-1.0122061E-3,1.065343E-5,-3.9207083E-4,-2.6765764E-3,2.4863606E-4,-4.4147582E-5,7.34172E-4,-1.5447451E-5,-2.6887704E-3,-2.9037701E-5,5.050594E-4,2.8417557E-3,-9.2629605E-5,1.9964378E-3,-1.246514E-4,1.6788435E-4,-1.6701315E-4,1.0090701E-3,3.5113294E-3,4.1651726E-4,-5.758199E-4,1.3278497E-4,1.8560886E-4,2.8090477E-3,-3.8645525E-5,-8.031317E-4,1.6792227E-3,6.486223E-5,6.0942166E-5,-6.330808E-4,1.8314105E-3,1.0264044E-4,-3.8720263E-4,-2.5513172E-3,5.204172E-4,-1.7160075E-4,-2.0867566E-5,-2.8282404E-3,-1.6456128E-3,3.7475533E-5,5.4129586E-4,3.5352707E-3,-2.2859493E-4,4.8875005E-4],"categories":[],"categories_nodes":[],"categories_segments":[],"categories_sizes":[],"default_left":[1,1,1,0,0,1,1,1,1,0,1,1,1,1,1,1,1,1,1,0,0,1,1,0,0,1,1,1,1,0,0,0,0,0,0,0,0,0,0,0,0,0,0,0,0],"id":97,"left_children":[1,3,5,-1,-1,7,9,11,13,-1,15,17,19,21,23,25,27,29,31,-1,-1,33,35,-1,-1,37,39,41,43,-1,-1,-1,-1,-1,-1,-1,-1,-1,-1,-1,-1,-1,-1,-1,-1],"loss_changes":[8.268322E-6,7.20767E-6,8.501117E-6,4.3667137E-7,0E0,1.565443E-5,2.1100688E-5,1.9328332E-5,1.2607459E-5,0E0,9.962347E-6,1.3717797E-5,5.0329763E-6,8.572075E-6,3.8931084E-6,2.0742737E-5,2.6827403E-5,1.950948E-6,1.6956077E-5,0E0,0E0,8.327447E-6,6.4607475E-6,0E0,0E0,1.566206E-5,2.8389495E-5,2.1318887E-5,2.038777E-5,0E0,0E0,0E0,0E0,0E0,0E0,0E0,0E0,0E0,0E0,0E0,0E0,0E0,0E0,0E0,0E0],"parents":[2147483647,0,0,1,1,2,2,5,5,6,6,7,7,8,8,10,10,11,11,12,12,13,13,14,14,15,15,16,16,17,17,18,18,21,21,22,22,25,25,26,26,27,27,28,28],"right_children":[2,4,6,-1,-1,8,10,12,14,-1,16,18,20,22,24,26,28,30,32,-1,-1,34,36,-1,-1,38,40,42,44,-1,-1,-1,-1,-1,-1,-1,-1,-1,-1,-1,-1,-1,-1,-1,-1],"split_conditions":[-4.4970026E0,7.0872426E-1,-1.027616E0,-1.1762125E-4,-8.0297294E-4,-4.471951E-1,-1.0039253E0,-1.1681702E0,3.1947322E0,-8.066312E-4,4.2550802E-1,-5.2225345E-1,1.06588036E-1,-4.0761495E-1,-2.5916164E0,2.3467533E-1,4.7488087E-1,1.6816897E0,5.5596066E-1,1.0533988E-3,1.2495519E-4,2.0539205E0,2.5316065E-2,5.568266E-5,8.4271433E-4,4.4501667E0,1.5484312E-1,-9.452753E-2,2.9578558E-1,1.828265E-5,-1.8992425E-4,5.4942316E-4,3.0792133E-5,-1.16160794E-4,-7.653952E-4,1.5612516E-4,-5.1480227E-5,-6.2602703E-6,-8.484722E-4,-4.9368385E-4,1.1242661E-5,1.6238877E-4,1.0605813E-3,-6.857848E-5,1.4662503E-4],"split_indices":[18,11,37,0,0,40,37,37,5,0,50,52,0,7,0,50,50,41,52,0,0,22,34,0,0,53,9,55,8,0,0,0,0,0,0,0,0,0,0,0,0,0,0,0,0],"split_type":[0,0,0,0,0,0,0,0,0,0,0,0,0,0,0,0,0,0,0,0,0,0,0,0,0,0,0,0,0,0,0,0,0,0,0,0,0,0,0,0,0,0,0,0,0],"sum_hessian":[6.57E2,7E0,6.5E2,6E0,1E0,1.21E2,5.29E2,4.2E1,7.9E1,2E0,5.27E2,3.9E1,3E0,7.7E1,2E0,3.55E2,1.72E2,1.7E1,2.2E1,2E0,1E0,2.4E1,5.3E1,1E0,1E0,3.16E2,3.9E1,1E1,1.62E2,1.2E1,5E0,1.1E1,1.1E1,2.3E1,1E0,2.3E1,3E1,3.15E2,1E0,1.9E1,2E1,7E0,3E0,9.6E1,6.6E1],"tree_param":{"num_deleted":"0","num_feature":"60","num_nodes":"45","size_leaf_vector":"0"}},{"base_weights":[-1.3180962E-6,1.131776E-3,-9.9788795E-6,2.9683113E-5,2.7700737E-3,9.479157E-5,-1.2097782E-4,2.693393E-4,-2.0339608E-4,-3.2033405E-4,1.4137331E-4,-4.1128573E-4,4.2908662E-4,-5.8377825E-4,7.555802E-5,-9.8717355E-6,-6.9504016E-4,5.4122986E-5,1.5524258E-3,-1.5912778E-4,-2.7039647E-3,-6.9527814E-5,7.37293E-4,-1.1224287E-4,-1.1939442E-3,5.5407675E-4,-1.8521375E-4,1.978318E-3,-7.063395E-5,-1.1173898E-3,7.427881E-5,-4.6269788E-4,2.4004676E-4,5.2751304E-4,2.4454603E-3,-4.7647298E-4,5.6815956E-4,-2.9790401E-4,-3.4066837E-3,5.8844226E-4,-3.8269768E-4,-1.5872181E-4,1.1048611E-3,1.8529178E-4,-1.3828526E-3,3.8324017E-4,-1.9079149E-3,2.9139519E-3,3.4312368E-4,1.9149033E-4,-5.394411E-4,-3.9725093E-4,3.9313236E-4,-3.7726903E-4,-1.7647379E-3,4.6910983E-4,-7.622942E-4,-1.4375831E-3,1.7871539E-4,9.6497394E-4,7.393757E-5],"categories":[],"categories_nodes":[],"categories_segments":[],"categories_sizes":[],"default_left":[1,1,1,0,0,1,1,1,1,1,1,1,1,1,1,1,1,1,1,1,1,1,1,1,1,1,1,0,1,1,1,1,1,0,0,0,0,0,0,0,0,0,0,0,0,0,0,0,0,0,0,0,0,0,0,0,0,0,0,0,0],"id":98,"left_children":[1,3,5,-1,-1,7,9,11,13,15,17,19,21,23,25,27,29,31,33,35,37,39,41,43,45,47,49,-1,51,53,55,57,59,-1,-1,-1,-1,-1,-1,-1,-1,-1,-1,-1,-1,-1,-1,-1,-1,-1,-1,-1,-1,-1,-1,-1,-1,-1,-1,-1,-1],"loss_changes":[6.468565E-6,8.945558E-6,7.6171013E-6,4.9603966E-7,0E0,1.759495E-5,1.667711E-5,2.3335546E-5,1.3307753E-5,2.1049253E-5,1.690582E-5,2.327253E-5,2.6637234E-5,1.5114874E-5,9.211868E-6,1.2220417E-5,2.6726568E-5,1.2698767E-5,6.0322473E-6,9.041157E-6,5.748272E-6,1.4030975E-5,3.541544E-5,1.1975794E-5,2.6630645E-5,1.194355E-5,6.508364E-6,0E0,1.500062E-5,2.4727357E-5,1.026675E-5,2.214257E-5,1.1609109E-5,7.1140676E-8,0E0,0E0,0E0,0E0,0E0,0E0,0E0,0E0,0E0,0E0,0E0,0E0,0E0,0E0,0E0,0E0,0E0,0E0,0E0,0E0,0E0,0E0,0E0,0E0,0E0,0E0,0E0],"parents":[2147483647,0,0,1,1,2,2,5,5,6,6,7,7,8,8,9,9,10,10,11,11,12,12,13,13,14,14,15,15,16,16,17,17,18,18,19,19,20,20,21,21,22,22,23,23,24,24,25,25,26,26,28,28,29,29,30,30,31,31,32,32],"right_children":[2,4,6,-1,-1,8,10,12,14,16,18,20,22,24,26,28,30,32,34,36,38,40,42,44,46,48,50,-1,52,54,56,58,60,-1,-1,-1,-1,-1,-1,-1,-1,-1,-1,-1,-1,-1,-1,-1,-1,-1,-1,-1,-1,-1,-1,-1,-1,-1,-1,-1,-1],"split_conditions":[-4.6069407E0,1.0103234E0,2.9104441E-2,8.9049345E-6,8.3102216E-4,2.6938406E-1,1.3124743E-1,-1.1329868E0,7.720956E-1,-7.574979E-3,2.0367572E0,1.3122126E0,-1.7516214E-1,2.0805972E-3,1.3476994E0,-2.7866535E0,4.5707086E-1,-4.2210603E-1,1.4134811E0,6.822196E-1,-1.2572043E0,-4.1182858E-1,-6.6633046E-1,6.5703535E-1,-6.8086244E-2,-1.8714116E0,3.1292539E-3,5.9349544E-4,1.324206E-1,-2.2308868E-1,6.2665904E-1,-9.76183E-2,-1.7435971E-1,1.5825391E-4,7.336381E-4,-1.429419E-4,1.7044788E-4,-8.9371206E-5,-1.0220051E-3,1.7653269E-4,-1.1480931E-4,-4.7616548E-5,3.3145834E-4,5.5587534E-5,-4.1485578E-4,1.14972056E-4,-5.723745E-4,8.741856E-4,1.0293711E-4,5.74471E-5,-1.6183234E-4,-1.1917528E-4,1.17939715E-4,-1.13180715E-4,-5.294214E-4,1.4073295E-4,-2.2868828E-4,-4.3127497E-4,5.3614618E-5,2.894922E-4,2.2181272E-5],"split_indices":[32,1,28,0,0,6,6,22,6,35,41,4,53,12,6,4,45,49,6,27,0,29,7,29,49,20,45,0,46,2,25,16,49,0,0,0,0,0,0,0,0,0,0,0,0,0,0,0,0,0,0,0,0,0,0,0,0,0,0,0,0],"split_type":[0,0,0,0,0,0,0,0,0,0,0,0,0,0,0,0,0,0,0,0,0,0,0,0,0,0,0,0,0,0,0,0,0,0,0,0,0,0,0,0,0,0,0,0,0,0,0,0,0,0,0,0,0,0,0,0,0,0,0,0,0],"sum_hessian":[6.57E2,4E0,6.53E2,3E0,1E0,3.36E2,3.17E2,2.12E2,1.24E2,1.8E2,1.37E2,4E1,1.72E2,5.2E1,7.2E1,9.9E1,8.1E1,1.3E2,7E0,3.7E1,3E0,6.6E1,1.06E2,3E1,2.2E1,2.5E1,4.7E1,2E0,9.7E1,5.2E1,2.9E1,3.4E1,9.6E1,4E0,3E0,2.6E1,1.1E1,1E0,2E0,2.1E1,4.5E1,3.1E1,7.5E1,2.5E1,5E0,7E0,1.5E1,1E0,2.4E1,2.3E1,2.4E1,5.7E1,4E1,2.5E1,2.7E1,2E1,9E0,1.3E1,2.1E1,1.7E1,7.9E1],"tree_param":{"num_deleted":"0","num_feature":"60","num_nodes":"61","size_leaf_vector":"0"}},{"base_weights":[3.667983E-7,1.5545667E-4,-6.292921E-5,1.1336919E-4,1.2455604E-3,1.9998282E-4,-1.5724273E-4,-4.6774912E-5,3.4887088E-4,4.6383217E-4,1.7158985E-3,-6.219066E-4,3.0184293E-4,-3.0020676E-5,-5.284478E-4,2.0009751E-4,-3.307282E-4,-2.332817E-5,6.930374E-4,-1.4208704E-4,-1.4571644E-3,1.2444392E-4,8.4914186E-4,-5.072438E-4,1.1091025E-4,1.861926E-5,-9.642485E-4,4.43569E-4,-2.731862E-4,-9.814568E-4,1.3381616E-5,-5.109448E-4,1.5165377E-4,1.2241155E-3,1.795364E-4,-3.738084E-4,2.989471E-4,-8.2357175E-5,7.203905E-4,1.4974851E-3,3.7967617E-4,-5.3491676E-5,-1.3893859E-3,2.6039223E-4,-3.4274356E-4,-7.39602E-4,5.0313614E-4,-1.5128393E-3,-2.783268E-4,-4.4816596E-5,6.078581E-4,-4.7824532E-4,1.1981558E-4,3.1717532E-4,-1.3751499E-3,4.388141E-4,-3.679728E-4,-5.893608E-4,2.3132261E-4,2.5363911E-3,5.742748E-4,8.374325E-4,-1.3945087E-4,-4.8487715E-4,2.0581116E-4,2.4321277E-3,4.2761042E-4,7.744E-4,2.2103072E-3,-5.6571593E-5,6.227724E-4,-4.0592675E-4,6.3002534E-4,-4.4355393E-4,-2.1229254E-3,-3.0869406E-4,4.8983115E-4,-7.9185003E-4,2.648397E-4,-2.8084606E-4,-2.6339293E-3,-8.088201E-4,7.188038E-4,-6.1672257E-4,-2.4304478E-3,-7.213217E-4,2.70515E-4],"categories":[],"categories_nodes":[],"categories_segments":[],"categories_sizes":[],"default_left":[1,1,1,1,1,1,1,1,1,0,0,1,1,1,1,1,1,1,1,1,0,1,1,1,1,1,1,1,1,1,1,0,1,1,1,0,0,1,1,1,1,1,1,1,1,1,1,1,1,0,0,0,0,0,0,0,0,0,0,0,0,0,0,0,0,0,0,0,0,0,0,0,0,0,0,0,0,0,0,0,0,0,0,0,0,0,0],"id":99,"left_children":[1,3,5,7,9,11,13,15,17,-1,-1,19,21,23,25,27,29,31,33,35,-1,37,39,41,43,45,47,49,51,53,55,-1,57,59,61,-1,-1,63,65,67,69,71,73,75,77,79,81,83,85,-1,-1,-1,-1,-1,-1,-1,-1,-1,-1,-1,-1,-1,-1,-1,-1,-1,-1,-1,-1,-1,-1,-1,-1,-1,-1,-1,-1,-1,-1,-1,-1,-1,-1,-1,-1,-1,-1],"loss_changes":[6.4690857E-6,8.621817E-6,1.1636049E-5,6.9934467E-6,1.7778466E-6,1.0568716E-5,1.6276923E-5,7.847304E-6,9.623552E-6,1.1476192E-7,0E0,5.403778E-6,1.0671352E-5,1.7408178E-5,2.0998228E-5,7.0350416E-6,1.1657083E-5,3.2344785E-6,1.0415884E-5,1.1337193E-6,1.8960236E-8,1.0534934E-5,7.649562E-6,2.3541837E-5,1.3651862E-5,1.506696E-5,1.8017163E-5,3.2366988E-6,1.749662E-6,9.63889E-6,5.839891E-6,9.277967E-7,1.7893341E-6,1.4746049E-5,4.5238507E-6,3.3397419E-7,0E0,7.523378E-6,9.985574E-6,3.958079E-6,1.838084E-6,9.891559E-6,1.293447E-5,1.986736E-5,1.3853192E-5,1.3164814E-5,7.655047E-6,2.070277E-5,5.787212E-6,0E0,0E0,0E0,0E0,0E0,0E0,0E0,0E0,0E0,0E0,0E0,0E0,0E0,0E0,0E0,0E0,0E0,0E0,0E0,0E0,0E0,0E0,0E0,0E0,0E0,0E0,0E0,0E0,0E0,0E0,0E0,0E0,0E0,0E0,0E0,0E0,0E0,0E0],"parents":[2147483647,0,0,1,1,2,2,3,3,4,4,5,5,6,6,7,7,8,8,11,11,12,12,13,13,14,14,15,15,16,16,17,17,18,18,19,19,21,21,22,22,23,23,24,24,25,25,26,26,27,27,28,28,29,29,30,30,32,32,33,33,34,34,37,37,38,38,39,39,40,40,41,41,42,42,43,43,44,44,45,45,46,46,47,47,48,48],"right_children":[2,4,6,8,10,12,14,16,18,-1,-1,20,22,24,26,28,30,32,34,36,-1,38,40,42,44,46,48,50,52,54,56,-1,58,60,62,-1,-1,64,66,68,70,72,74,76,78,80,82,84,86,-1,-1,-1,-1,-1,-1,-1,-1,-1,-1,-1,-1,-1,-1,-1,-1,-1,-1,-1,-1,-1,-1,-1,-1,-1,-1,-1,-1,-1,-1,-1,-1,-1,-1,-1,-1,-1,-1],"split_conditions":[-5.292059E-1,-5.947058E-1,-6.1949766E-1,1.2960193E-1,1.4368598E-1,-2.1764936E0,4.3383038E-1,-6.2278354E-1,-1.8158084E-1,1.3914966E-4,5.147696E-4,3.3081168E-1,5.0141877E-1,-9.345973E-2,-2.4915226E-1,1.7563999E-1,-4.178899E-1,-8.1832063E-1,3.5843406E-2,-7.211497E-1,-4.3714934E-4,5.442432E-1,1.2710139E-1,4.9049985E-1,5.4533124E-1,-3.1656286E-1,9.402901E-1,-7.047051E-1,7.3684114E-1,-9.9891174E-1,-4.3126434E-2,-1.5328344E-4,-3.6684804E0,-6.206948E-1,-5.56366E-1,-1.1214252E-4,8.968413E-5,-6.81594E-2,-8.990062E-1,2.2785707E-1,-3.3781606E-1,6.993158E-1,4.8278976E-2,-6.106778E-1,5.6154275E-1,2.9510003E-1,-1.4501376E0,2.9120728E-1,4.178509E-1,-1.3444979E-5,1.8235744E-4,-1.434736E-4,3.5944675E-5,9.51526E-5,-4.12545E-4,1.3164424E-4,-1.1039184E-4,-1.7680824E-4,6.939679E-5,7.609174E-4,1.7228245E-4,2.5122977E-4,-4.1835265E-5,-1.4546316E-4,6.174335E-5,7.296383E-4,1.2828314E-4,2.3232002E-4,6.630922E-4,-1.6971479E-5,1.8683172E-4,-1.2177803E-4,1.8900761E-4,-1.3306619E-4,-6.368776E-4,-9.260822E-5,1.4694934E-4,-2.3755502E-4,7.9451915E-5,-8.425382E-5,-7.9017883E-4,-2.4264604E-4,2.1564115E-4,-1.8501678E-4,-7.2913436E-4,-2.1639651E-4,8.11545E-5],"split_indices":[25,25,0,16,3,38,54,16,9,0,0,10,41,0,39,45,56,2,56,0,0,54,49,6,11,24,54,12,36,59,33,0,43,39,53,0,0,1,46,12,18,21,37,44,52,3,26,38,9,0,0,0,0,0,0,0,0,0,0,0,0,0,0,0,0,0,0,0,0,0,0,0,0,0,0,0,0,0,0,0,0,0,0,0,0,0,0],"split_type":[0,0,0,0,0,0,0,0,0,0,0,0,0,0,0,0,0,0,0,0,0,0,0,0,0,0,0,0,0,0,0,0,0,0,0,0,0,0,0,0,0,0,0,0,0,0,0,0,0,0,0,0,0,0,0,0,0,0,0,0,0,0,0,0,0,0,0,0,0,0,0,0,0,0,0,0,0,0,0,0,0,0,0,0,0,0,0],"sum_hessian":[6.57E2,1.9E2,4.67E2,1.84E2,6E0,1.23E2,3.44E2,1.1E2,7.4E1,3E0,3E0,1.3E1,1.1E2,2.57E2,8.7E1,5.9E1,5.1E1,3.6E1,3.8E1,9E0,4E0,8.4E1,2.6E1,5.8E1,1.99E2,3.9E1,4.8E1,3.9E1,2E1,1.7E1,3.4E1,9E0,2.7E1,1.8E1,2E1,6E0,3E0,6.3E1,2.1E1,1E1,1.6E1,3.9E1,1.9E1,1.5E2,4.9E1,1.5E1,2.4E1,2.6E1,2.2E1,1E1,2.9E1,1.3E1,7E0,4E0,1.3E1,1.6E1,1.8E1,2E0,2.5E1,5E0,1.3E1,6E0,1.4E1,2.6E1,3.7E1,2E0,1.9E1,6E0,4E0,6E0,1E1,2.6E1,1.3E1,9E0,1E1,4.3E1,1.07E2,2.8E1,2.1E1,1.3E1,2E0,3E0,2.1E1,1.4E1,1.2E1,1.2E1,1E1],"tree_param":{"num_deleted":"0","num_feature":"60","num_nodes":"87","size_leaf_vector":"0"}}]},"name":"gbtree"},"learner_model_param":{"base_score":"5E-1","num_class":"0","num_feature":"60","num_target":"1"},"objective":{"name":"reg:squarederror","reg_loss_param":{"scale_pos_weight":"1"}}},"version":[1,6,1]}