{"learner":{"attributes":{"best_iteration":"99","best_ntree_limit":"100","scikit_learn":"{\"n_estimators\": 100, \"objective\": \"reg:squarederror\", \"max_depth\": null, \"max_leaves\": null, \"max_bin\": null, \"grow_policy\": null, \"learning_rate\": null, \"verbosity\": null, \"booster\": null, \"tree_method\": null, \"gamma\": null, \"min_child_weight\": null, \"max_delta_step\": null, \"subsample\": null, \"sampling_method\": null, \"colsample_bytree\": null, \"colsample_bylevel\": null, \"colsample_bynode\": null, \"reg_alpha\": null, \"reg_lambda\": null, \"scale_pos_weight\": null, \"base_score\": null, \"missing\": NaN, \"num_parallel_tree\": null, \"random_state\": null, \"n_jobs\": null, \"monotone_constraints\": null, \"interaction_constraints\": null, \"importance_type\": null, \"gpu_id\": null, \"validate_parameters\": null, \"predictor\": null, \"enable_categorical\": false, \"max_cat_to_onehot\": null, \"eval_metric\": null, \"early_stopping_rounds\": null, \"callbacks\": null, \"_estimator_type\": \"regressor\"}"},"feature_names":[],"feature_types":[],"gradient_booster":{"model":{"gbtree_model_param":{"num_parallel_tree":"1","num_trees":"100","size_leaf_vector":"0"},"tree_info":[0,0,0,0,0,0,0,0,0,0,0,0,0,0,0,0,0,0,0,0,0,0,0,0,0,0,0,0,0,0,0,0,0,0,0,0,0,0,0,0,0,0,0,0,0,0,0,0,0,0,0,0,0,0,0,0,0,0,0,0,0,0,0,0,0,0,0,0,0,0,0,0,0,0,0,0,0,0,0,0,0,0,0,0,0,0,0,0,0,0,0,0,0,0,0,0,0,0,0,0],"trees":[{"base_weights":[-5.236495E-1,-5.478482E-1,7.191211E-1,9.911546E-1,-5.613992E-1,1.9726727E0,-5.7198837E-2,1.6291037E0,-1.8982895E-1,1.6248264E0,-5.707846E-1,2.140087E-1,-4.4971043E-1,2.4662048E-1,-5.313639E-1,1.2185305E0,-5.783155E-1,6.304178E-2,4.8442167E-1,1.5004231E0,3.273728E-1,1.556945E0,-5.8412087E-1,-1.891916E-2,1.23988785E-1,-8.033623E-1,-5.1240605E-1],"categories":[],"categories_nodes":[],"categories_segments":[],"categories_sizes":[],"default_left":[1,1,1,1,1,0,1,0,1,0,1,1,0,0,0,1,1,1,0,0,0,0,1,0,0,0,0],"id":0,"left_children":[1,3,5,7,9,-1,11,-1,13,-1,15,17,-1,-1,-1,19,21,23,-1,-1,-1,-1,25,-1,-1,-1,-1],"loss_changes":[2.0182312E1,1.4028732E1,1.2763876E1,4.829695E0,1.40798645E1,0E0,1.0543109E0,0E0,5.7823336E-1,0E0,9.315292E0,2.1440166E-1,0E0,0E0,0E0,2.6243448E-1,8.805664E0,2.7322132E-2,0E0,0E0,0E0,0E0,9.588089E0,0E0,0E0,0E0,0E0],"parents":[2147483647,0,0,1,1,2,2,3,3,4,4,6,6,8,8,10,10,11,11,15,15,16,16,17,17,22,22],"right_children":[2,4,6,8,10,-1,12,-1,14,-1,16,18,-1,-1,-1,20,22,24,-1,-1,-1,-1,26,-1,-1,-1,-1],"split_conditions":[2.414309E0,-3.011041E0,-3.9531028E-1,5.046695E-1,-3.9515738E0,5.918018E-1,-1.16934374E-1,4.8873112E-1,5.6570613E-1,4.8744795E-1,-3.9515738E0,5.7931566E-1,-1.3491313E-1,7.398614E-2,-1.5940918E-1,6.360573E-1,-4.284008E0,-6.1019063E-1,1.4532651E-1,4.5012695E-1,9.821184E-2,4.670835E-1,-4.1833025E-1,-5.6757485E-3,3.7196636E-2,-2.410087E-1,-1.5372182E-1],"split_indices":[48,58,5,0,24,0,6,0,0,0,56,0,0,0,0,0,44,0,0,0,0,0,26,0,0,0,0],"split_type":[0,0,0,0,0,0,0,0,0,0,0,0,0,0,0,0,0,0,0,0,0,0,0,0,0,0,0],"sum_hessian":[6.57E2,6.45E2,1.2E1,5E0,6.4E2,4E0,8E0,3E0,2E0,2E0,6.38E2,5E0,3E0,1E0,1E0,2E0,6.36E2,4E0,1E0,1E0,1E0,1E0,6.35E2,2E0,2E0,1.54E2,4.81E2],"tree_param":{"num_deleted":"0","num_feature":"60","num_nodes":"27","size_leaf_vector":"0"}},{"base_weights":[-3.632945E-1,1.9074954E-1,-4.013799E-1,1.0935736E0,-1.1597209E-1,1.2998612E0,-4.0903845E-1,1.9055367E-1,1.8143312E0,-3.9712882E-1,9.8505706E-1,3.6460394E-1,1.5851878E0,-6.949542E-1,-3.6366242E-1,-2.8258234E-2,6.4230657E-1,1.9745035E0,5.0673497E-1,-5.844969E-1,5.441902E-1,8.2264215E-2,1.3297213E0,-1.104201E0,-4.9951681E-1,-3.8416967E-1,4.8460183E-1,9.0565406E-2,-2.517764E-1,-9.6850634E-1,-3.151248E-1,7.781228E-1,2.9117638E-1,-1.0240044E-1,2.2579676E-1,-1.3393494E0,-9.71481E-2,-7.3935735E-1,-1.5335298E-1,-9.610733E-1,-3.4938437E-1,1.6078778E-1,1.5103861E0,-1.8728554E-2,1.3323958E-1,-1.2159021E0,-3.5528624E-1,-5.018651E-1,-8.899391E-2,-1.6374742E0,-6.5021217E-1,2.0827417E-1,-3.0192778E-1,-8.494657E-1,2.98822E-1,1.308696E-1,-3.8601854E-1,-2.6256807E0,-6.680155E-1,8.580366E-1,-3.6103952E-1,3.971393E-1,-3.5211223E-1],"categories":[],"categories_nodes":[],"categories_segments":[],"categories_sizes":[],"default_left":[1,1,1,1,1,1,1,1,1,1,1,0,0,1,1,1,0,0,0,1,1,1,0,1,1,1,1,1,0,1,1,0,0,0,0,1,1,1,1,1,1,1,0,0,0,0,0,0,0,0,0,0,0,0,0,0,0,0,0,0,0,0,0],"id":1,"left_children":[1,3,5,7,9,11,13,15,17,19,21,-1,-1,23,25,27,-1,-1,-1,29,31,33,-1,35,37,39,41,43,-1,45,47,-1,-1,-1,-1,49,51,53,55,57,59,61,-1,-1,-1,-1,-1,-1,-1,-1,-1,-1,-1,-1,-1,-1,-1,-1,-1,-1,-1,-1,-1],"loss_changes":[1.3961014E1,1.2034198E1,8.557571E0,6.813716E0,1.0606733E1,2.2259521E-1,7.713135E0,6.1124384E-1,2.560959E-1,5.0801525E0,2.0687346E0,0E0,0E0,6.0869484E0,9.44062E0,1.5559845E-1,0E0,0E0,0E0,2.0739527E0,6.936991E-2,1.0263786E-1,0E0,6.026863E0,4.702018E0,1.0099457E1,4.075272E0,2.1151502E-2,0E0,9.333792E-1,5.887532E-1,0E0,0E0,0E0,0E0,3.2497215E0,4.381494E-1,4.1404552E0,1.7037382E0,1.2392963E1,7.233551E0,1.4733094E0,0E0,0E0,0E0,0E0,0E0,0E0,0E0,0E0,0E0,0E0,0E0,0E0,0E0,0E0,0E0,0E0,0E0,0E0,0E0,0E0,0E0],"parents":[2147483647,0,0,1,1,2,2,3,3,4,4,5,5,6,6,7,7,8,8,9,9,10,10,13,13,14,14,15,15,19,19,20,20,21,21,23,23,24,24,25,25,26,26,27,27,29,29,30,30,35,35,36,36,37,37,38,38,39,39,40,40,41,41],"right_children":[2,4,6,8,10,12,14,16,18,20,22,-1,-1,24,26,28,-1,-1,-1,30,32,34,-1,36,38,40,42,44,-1,46,48,-1,-1,-1,-1,50,52,54,56,58,60,62,-1,-1,-1,-1,-1,-1,-1,-1,-1,-1,-1,-1,-1,-1,-1,-1,-1,-1,-1,-1,-1],"split_conditions":[-1.2761803E0,-3.9483953E-1,-3.9515738E0,-2.1801364E-2,1.0391794E0,-8.010266E-1,-6.8729436E-1,1.2992383E0,1.726887E-1,1.8254913E0,-7.287375E-1,1.09381184E-1,4.7555634E-1,-4.6116066E-1,1.7068698E0,6.1017406E-1,1.9269198E-1,5.923511E-1,1.520205E-1,-1.4804134E-1,-1.3014601E0,-3.811398E-2,3.9891642E-1,1.114054E0,8.0251604E-2,-1.2004176E0,6.677381E-1,-1.8419126E0,-7.553292E-2,-1.3677374E-1,-4.840787E-2,2.3343684E-1,8.735292E-2,-3.0720131E-2,6.773903E-2,2.9510394E-1,-6.5115047E-1,1.0633569E0,-4.8871897E-2,-5.895757E-1,-2.294246E0,1.0644896E0,4.5311585E-1,-5.6185666E-3,3.9971877E-2,-3.6477065E-1,-1.06585875E-1,-1.5055953E-1,-2.6698174E-2,-4.9124226E-1,-1.9506367E-1,6.2482253E-2,-9.057833E-2,-2.5483972E-1,8.96466E-2,3.926088E-2,-1.1580557E-1,-7.877042E-1,-2.0040466E-1,2.5741097E-1,-1.0831186E-1,1.19141795E-1,-1.05633676E-1],"split_indices":[46,44,24,21,40,0,2,1,0,42,25,0,0,3,24,1,0,0,0,1,2,0,0,7,20,48,50,0,0,2,10,0,0,0,0,47,8,52,34,46,39,16,0,0,0,0,0,0,0,0,0,0,0,0,0,0,0,0,0,0,0,0,0],"split_type":[0,0,0,0,0,0,0,0,0,0,0,0,0,0,0,0,0,0,0,0,0,0,0,0,0,0,0,0,0,0,0,0,0,0,0,0,0,0,0,0,0,0,0,0,0,0,0,0,0,0,0,0,0,0,0,0,0,0,0,0,0,0,0],"sum_hessian":[6.57E2,4.2E1,6.15E2,1E1,3.2E1,2E0,6.13E2,5E0,5E0,2.6E1,6E0,1E0,1E0,8.2E1,5.31E2,4E0,1E0,4E0,1E0,2.2E1,4E0,2E0,4E0,2.5E1,5.7E1,5.19E2,1.2E1,3E0,1E0,8E0,1.4E1,1E0,3E0,1E0,1E0,2E1,5E0,3.3E1,2.4E1,2.8E1,4.91E2,1E1,2E0,1E0,2E0,5E0,3E0,7E0,7E0,1.3E1,7E0,2E0,3E0,3E1,3E0,1.1E1,1.3E1,3E0,2.5E1,4E0,4.87E2,7E0,3E0],"tree_param":{"num_deleted":"0","num_feature":"60","num_nodes":"63","size_leaf_vector":"0"}},{"base_weights":[-2.539104E-1,-2.719561E-1,4.0282288E-1,-2.877787E-1,3.6410058E-1,1.2058222E0,-9.916198E-2,5.6022394E-1,-2.9827344E-1,8.713746E-1,-4.1259098E-1,1.5056721E0,3.0413163E-1,1.5600376E-1,-3.8032836E-1,2.6534314E0,-1.1786733E-1,-3.872897E-1,-1.670978E-1,1.5035926E0,1.9929717E-1,4.945901E-2,-4.978425E-1,5.2688107E-2,4.0350932E-1,2.7494583E-1,-1.939252E-3,-1.1412212E-1,-4.8490092E-1,-4.8901767E-1,2.8274983E-1,-9.954171E-1,-3.457457E-1,-2.02995E-1,5.677623E-1,-1.3758504E-1,4.0213454E-1,1.2197102E-1,3.6693513E-1,5.0181508E-2,-3.6040008E-2,-7.6467395E-2,-6.010453E-1,3.87322E-1,-1.5483312E-2,-1.6671296E0,-4.4452122E-1,-6.25058E-1,-2.607617E-1,-3.0337098E-1,5.6834634E-2,1.0711904E0,-1.14197426E-1],"categories":[],"categories_nodes":[],"categories_segments":[],"categories_sizes":[],"default_left":[1,1,1,1,1,1,1,1,1,1,1,0,1,1,1,0,1,1,1,0,1,0,0,0,0,1,1,0,0,1,1,1,1,1,1,0,0,0,0,0,0,0,0,0,0,0,0,0,0,0,0,0,0],"id":2,"left_children":[1,3,5,7,9,11,13,15,17,19,21,-1,23,25,27,-1,29,31,33,-1,35,-1,-1,-1,-1,37,39,-1,-1,41,43,45,47,49,51,-1,-1,-1,-1,-1,-1,-1,-1,-1,-1,-1,-1,-1,-1,-1,-1,-1,-1],"loss_changes":[7.9076424E0,6.555851E0,7.3752556E0,5.738228E0,6.663449E0,1.43468E0,9.202609E-1,1.1667838E1,7.163204E0,3.9493337E0,3.003559E-1,0E0,5.3703517E-2,1.3203567E-1,1.1168927E-1,0E0,1.1790942E0,8.953003E0,6.7628665E0,0E0,4.6532154E-1,0E0,0E0,0E0,0E0,1.1532754E-2,8.9179715E-3,0E0,0E0,1.3890773E-1,1.3074458E-1,7.76993E0,8.050037E0,6.302679E0,4.242139E0,0E0,0E0,0E0,0E0,0E0,0E0,0E0,0E0,0E0,0E0,0E0,0E0,0E0,0E0,0E0,0E0,0E0,0E0],"parents":[2147483647,0,0,1,1,2,2,3,3,4,4,5,5,6,6,7,7,8,8,9,9,10,10,12,12,13,13,14,14,16,16,17,17,18,18,20,20,25,25,26,26,29,29,30,30,31,31,32,32,33,33,34,34],"right_children":[2,4,6,8,10,12,14,16,18,20,22,-1,24,26,28,-1,30,32,34,-1,36,-1,-1,-1,-1,38,40,-1,-1,42,44,46,48,50,52,-1,-1,-1,-1,-1,-1,-1,-1,-1,-1,-1,-1,-1,-1,-1,-1,-1,-1],"split_conditions":[2.0162396E0,1.9046161E0,-3.9531028E-1,-2.9000936E0,-3.933302E-3,1.3913612E-1,-1.3987606E-2,-7.3875415E-1,1.1116111E-1,-5.3771347E-2,-1.1265181E0,4.5170164E-1,-5.6624746E-1,1.8609699E-2,-8.381516E-3,7.9602945E-1,-1.2770317E-1,-1.3026586E0,1.3966012E0,4.510778E-1,-4.0232313E-1,1.4837704E-2,-1.4935276E-1,1.5806433E-2,1.210528E-1,5.7931566E-1,-1.1233759E-1,-3.423664E-2,-1.4547028E-1,1.3035432E-1,-8.1349365E-2,-1.3289455E-1,-4.2299694E-1,2.3452696E-1,-3.0693552E-1,-4.1275516E-2,1.2064037E-1,3.6591306E-2,1.1008055E-1,1.5054453E-2,-1.0812003E-2,-2.2940218E-2,-1.803136E-1,1.1619661E-1,-4.6449937E-3,-5.0013894E-1,-1.3335638E-1,-1.875174E-1,-7.822852E-2,-9.10113E-2,1.7050391E-2,3.2135713E-1,-3.425923E-2],"split_indices":[48,50,5,43,23,2,6,3,47,15,2,0,0,9,1,0,2,41,21,0,6,0,0,0,0,0,1,0,0,1,1,53,39,18,49,0,0,0,0,0,0,0,0,0,0,0,0,0,0,0,0,0,0],"split_type":[0,0,0,0,0,0,0,0,0,0,0,0,0,0,0,0,0,0,0,0,0,0,0,0,0,0,0,0,0,0,0,0,0,0,0,0,0,0,0,0,0,0,0,0,0,0,0,0,0,0,0,0,0],"sum_hessian":[6.57E2,6.4E2,1.7E1,6.25E2,1.5E1,6E0,1.1E1,7E0,6.18E2,9E0,6E0,4E0,2E0,6E0,5E0,1E0,6E0,3.67E2,2.51E2,4E0,5E0,1E0,5E0,1E0,1E0,3E0,3E0,2E0,3E0,3E0,3E0,2.2E1,3.45E2,2.4E2,1.1E1,2E0,3E0,2E0,1E0,1E0,2E0,1E0,2E0,2E0,1E0,9E0,1.3E1,7.9E1,2.66E2,1.73E2,6.7E1,6E0,5E0],"tree_param":{"num_deleted":"0","num_feature":"60","num_nodes":"53","size_leaf_vector":"0"}},{"base_weights":[-1.7625715E-1,1.8190087E-1,-2.0097232E-1,1.5479032E0,7.751288E-2,-5.017533E-1,-1.6880915E-1,5.2386004E-1,-2.0014355E-1,-1.8146004E-1,-1.0726906E0,-1.5041463E-1,-7.453397E-1,7.244567E-1,-2.590443E-1,-6.831826E-1,-2.1072699E-2,-1.1767404E0,-6.583277E-2,-1.7398403E0,-5.283031E-1,2.5006875E-2,-1.9929373E-1,-4.2043403E-2,-1.0348762E0,1.1746558E0,3.9385095E-1,-6.9922045E-2,-2.987777E-1,-9.205115E-2,-9.012249E-1,-1.3368118E-1,4.6278155E-1,6.0061866E-1,-2.4741134E-1,-2.3228836E0,-4.3031502E-1,-1.5044475E-1,-7.45659E-1,2.2554169E0,-1.3008606E-2,-1.0086114E0,-1.813054E-1,3.7929165E-1,-3.4753385E-1,-6.5518886E-1,-1.3053654E0,5.026622E-1,1.3217139E-1,3.0427575E-2,-1.685043E-1,-5.9885457E-3,-3.1524372E-1,1.9526607E-1,8.04777E-1,-6.816036E-1,-7.827729E-2,6.0977966E-2,-6.1440533E-1,-4.7932677E-2,-2.3697925E-1,-3.0163184E-1,-8.4339607E-1,4.716122E-2,-6.6755885E-1,-2.0912525E-1,-1.6063753E0,5.5037487E-1,-1.9700103E-1],"categories":[],"categories_nodes":[],"categories_segments":[],"categories_sizes":[],"default_left":[1,1,1,0,1,1,1,1,1,1,1,1,1,1,1,1,1,0,1,1,1,1,1,1,1,0,1,0,0,1,0,1,0,1,1,0,1,1,1,0,1,1,1,0,0,0,0,0,0,0,0,0,0,0,0,0,0,0,0,0,0,0,0,0,0,0,0,0,0],"id":3,"left_children":[1,3,5,-1,7,9,11,13,15,17,19,21,23,25,27,29,31,-1,33,35,37,39,41,43,45,-1,47,-1,-1,49,-1,51,-1,53,55,-1,57,59,61,-1,63,65,67,-1,-1,-1,-1,-1,-1,-1,-1,-1,-1,-1,-1,-1,-1,-1,-1,-1,-1,-1,-1,-1,-1,-1,-1,-1,-1],"loss_changes":[5.8611298E0,6.01157E0,5.874527E0,0E0,5.1860247E0,1.0594523E1,5.805481E0,2.7004347E0,2.2345567E0,4.410713E0,6.7077847E0,4.6523333E0,3.4181986E0,1.47226E0,9.1667175E-3,8.19283E-1,1.1515869E0,0E0,4.505079E0,5.8720207E0,9.555061E-1,1.0119363E1,5.989847E0,9.0409976E-1,3.771553E-1,0E0,1.8982553E-1,0E0,0E0,3.321883E-2,0E0,3.9224356E-1,0E0,5.0490355E-1,2.0763102E0,0E0,3.992343E-1,4.1865945E-2,9.27887E-2,0E0,4.678816E0,3.9652023E0,4.8858433E0,0E0,0E0,0E0,0E0,0E0,0E0,0E0,0E0,0E0,0E0,0E0,0E0,0E0,0E0,0E0,0E0,0E0,0E0,0E0,0E0,0E0,0E0,0E0,0E0,0E0,0E0],"parents":[2147483647,0,0,1,1,2,2,4,4,5,5,6,6,7,7,8,8,9,9,10,10,11,11,12,12,13,13,14,14,15,15,16,16,18,18,19,19,20,20,21,21,22,22,23,23,24,24,26,26,29,29,31,31,33,33,34,34,36,36,37,37,38,38,40,40,41,41,42,42],"right_children":[2,4,6,-1,8,10,12,14,16,18,20,22,24,26,28,30,32,-1,34,36,38,40,42,44,46,-1,48,-1,-1,50,-1,52,-1,54,56,-1,58,60,62,-1,64,66,68,-1,-1,-1,-1,-1,-1,-1,-1,-1,-1,-1,-1,-1,-1,-1,-1,-1,-1,-1,-1,-1,-1,-1,-1,-1,-1],"split_conditions":[-1.2761803E0,-2.1151276E0,-1.0513711E0,4.6437097E-1,-3.6976993E-1,4.4761318E-1,1.5785978E0,7.8776085E-1,-3.6307406E-1,-1.6546911E0,-3.9392543E-1,-3.7627745E-1,-6.671486E-1,-7.435107E-1,3.0272704E-1,-8.567016E-1,8.4375334E-1,-3.5302213E-1,-6.4740247E-1,2.4612935E-1,-2.7933896E-1,-2.8571186E0,-3.5545903E-1,-5.3159803E-2,3.6641145E-1,3.5239676E-1,-9.863856E-1,-2.0976614E-2,-8.9633316E-2,-1.4609299E0,-2.7036747E-1,1.8119988E-1,1.3883448E-1,3.7673526E-3,-4.7885597E-1,-6.968651E-1,-3.862772E-1,-1.3639281E0,-1.716131E-2,6.766251E-1,1.0677323E0,6.451145E-3,-1.952904E0,1.137875E-1,-1.0426016E-1,-1.9655667E-1,-3.9160964E-1,1.5079866E-1,3.965142E-2,9.1282725E-3,-5.055129E-2,-1.7965637E-3,-9.457312E-2,5.857982E-2,2.4143311E-1,-2.044811E-1,-2.3483189E-2,1.829339E-2,-1.8432161E-1,-1.4379804E-2,-7.1093775E-2,-9.048955E-2,-2.5301883E-1,1.4148367E-2,-2.0026766E-1,-6.273758E-2,-4.819126E-1,1.6511247E-1,-5.910031E-2],"split_indices":[46,44,9,0,35,31,45,45,38,43,51,4,50,12,0,0,50,0,32,25,24,43,4,0,54,0,18,0,0,0,0,11,0,0,4,0,0,9,11,0,35,31,41,0,0,0,0,0,0,0,0,0,0,0,0,0,0,0,0,0,0,0,0,0,0,0,0,0,0],"split_type":[0,0,0,0,0,0,0,0,0,0,0,0,0,0,0,0,0,0,0,0,0,0,0,0,0,0,0,0,0,0,0,0,0,0,0,0,0,0,0,0,0,0,0,0,0,0,0,0,0,0,0,0,0,0,0,0,0,0,0,0,0,0,0,0,0,0,0,0,0],"sum_hessian":[6.57E2,4.2E1,6.15E2,2E0,4E1,5.8E1,5.57E2,1.5E1,2.5E1,3.8E1,2E1,5.41E2,1.6E1,1.2E1,3E0,6E0,1.9E1,3E0,3.5E1,8E0,1.2E1,1.18E2,4.23E2,5E0,1.1E1,4E0,8E0,1E0,2E0,2E0,4E0,1.6E1,3E0,7E0,2.8E1,5E0,3E0,5E0,7E0,1E0,1.17E2,8E0,4.15E2,2E0,3E0,6E0,5E0,5E0,3E0,1E0,1E0,1E1,6E0,3E0,4E0,7E0,2.1E1,1E0,2E0,3E0,2E0,2E0,5E0,1.08E2,9E0,4E0,4E0,8E0,4.07E2],"tree_param":{"num_deleted":"0","num_feature":"60","num_nodes":"69","size_leaf_vector":"0"}},{"base_weights":[-1.256176E-1,1.6821156E-1,-1.4849515E-1,4.6581158E-1,-1.7551942E-1,-2.7533916E-1,-8.234405E-2,1.3641472E-1,7.84715E-1,7.587372E-2,-6.5636575E-1,-7.962103E-1,-1.9036345E-1,-9.233722E-2,9.375595E-1,2.7474955E-1,-1.6753787E-1,5.475703E-2,9.982267E-1,-1.736633E-1,4.215161E-1,-2.7592864E-2,-7.422486E-1,2.0023745E-1,-1.0648592E0,5.911925E-1,-2.205379E-1,-1.1934737E-1,2.8522325E-1,2.7707897E-2,3.7666628E-1,-2.5354007E-1,-2.56897E-2,1.6432196E-1,-1.3696888E-1,2.1855438E-1,1.30115E0,-3.8948965E-1,2.4744861E-1,6.8615913E-1,1.7842703E-1,6.75145E-1,-1.2475454E-1,-1.5991316E0,-5.3087026E-1,1.0516386E0,-1.7051756E-2,-1.0366312E0,-1.8543026E-1,-1.0387325E-1,-9.157943E-1,-2.3774545E-1,6.596233E-1,-9.614974E-3,4.3353844E-2,1.5583955E-1,4.3382904E-1,4.49346E-3,-4.3028012E-2,2.9429674E-1,-4.3363348E-3,3.2922077E-1,1.408268E0,-5.5283144E-2,-4.3597686E-1,2.4074793E-1,5.6630448E-2,-2.0624213E-2,-1.8730001E-1,-2.0884452E0,-5.942665E-1,-1.0027698E0,-2.0971827E-1,-9.725657E-2,1.11781344E-1,-1.2236679E0,4.2794265E-2,4.474019E-1,-2.155366E-1,-3.4508225E-1,-5.9473295E-2,-1.694617E-1,-1.4331784E0,-3.9841127E-2,-8.1817806E-1,9.562543E-1,5.862678E-3],"categories":[],"categories_nodes":[],"categories_segments":[],"categories_sizes":[],"default_left":[1,1,1,1,1,1,1,1,1,1,1,1,1,1,0,1,1,1,1,1,1,0,0,1,1,1,1,1,1,1,1,0,1,0,0,1,1,1,0,0,1,0,1,1,1,0,1,1,1,1,1,1,1,0,0,0,0,0,0,0,0,0,0,0,0,0,0,0,0,0,0,0,0,0,0,0,0,0,0,0,0,0,0,0,0,0,0],"id":4,"left_children":[1,3,5,7,9,11,13,15,17,19,21,23,25,27,-1,29,31,33,35,37,39,-1,-1,41,43,45,47,49,51,53,55,-1,57,-1,-1,59,61,63,-1,-1,65,-1,67,69,71,-1,73,75,77,79,81,83,85,-1,-1,-1,-1,-1,-1,-1,-1,-1,-1,-1,-1,-1,-1,-1,-1,-1,-1,-1,-1,-1,-1,-1,-1,-1,-1,-1,-1,-1,-1,-1,-1,-1,-1],"loss_changes":[4.4481153E0,4.9918876E0,5.10415E0,2.624144E0,2.8300748E0,9.099062E0,4.1939774E0,6.346922E-1,1.9714499E0,1.4532111E0,4.1152596E-1,7.976366E0,4.3989067E0,4.1132264E0,0E0,2.413401E-1,5.4482922E-2,1.06532745E-1,2.0774355E0,1.005249E0,3.278935E-1,0E0,0E0,1.1646154E0,5.7128677E0,1.9783778E0,4.821722E0,4.5141673E0,5.4434094E0,2.752653E-3,2.0753741E-2,0E0,1.7633196E-3,0E0,0E0,6.880523E-2,2.6514816E-1,8.4652185E-2,0E0,0E0,2.431871E-2,0E0,2.8701492E-2,4.1675396E0,1.75987E0,0E0,5.220361E-2,1.4656115E0,3.3162637E0,3.9206355E0,2.460115E0,1.3458443E0,3.0972042E0,0E0,0E0,0E0,0E0,0E0,0E0,0E0,0E0,0E0,0E0,0E0,0E0,0E0,0E0,0E0,0E0,0E0,0E0,0E0,0E0,0E0,0E0,0E0,0E0,0E0,0E0,0E0,0E0,0E0,0E0,0E0,0E0,0E0,0E0],"parents":[2147483647,0,0,1,1,2,2,3,3,4,4,5,5,6,6,7,7,8,8,9,9,10,10,11,11,12,12,13,13,15,15,16,16,17,17,18,18,19,19,20,20,23,23,24,24,25,25,26,26,27,27,28,28,29,29,30,30,32,32,35,35,36,36,37,37,40,40,42,42,43,43,44,44,46,46,47,47,48,48,49,49,50,50,51,51,52,52],"right_children":[2,4,6,8,10,12,14,16,18,20,22,24,26,28,-1,30,32,34,36,38,40,-1,-1,42,44,46,48,50,52,54,56,-1,58,-1,-1,60,62,64,-1,-1,66,-1,68,70,72,-1,74,76,78,80,82,84,86,-1,-1,-1,-1,-1,-1,-1,-1,-1,-1,-1,-1,-1,-1,-1,-1,-1,-1,-1,-1,-1,-1,-1,-1,-1,-1,-1,-1,-1,-1,-1,-1,-1,-1],"split_conditions":[-1.1815233E0,-1.7623141E-1,-2.471912E-1,-3.5037446E-1,2.4420309E-1,-8.2450706E-1,2.0776641E0,9.870657E-1,-8.33169E-1,2.0638058E-1,-1.1054382E0,-7.560637E-1,-2.1196263E0,1.0528386E0,2.8126785E-1,-2.5886116E0,3.0199236E-1,-1.5187544E0,-9.520236E-2,4.1953683E-1,-8.134859E-1,-8.27786E-3,-2.226746E-1,1.4072835E-1,-1.7499948E-1,-3.1177366E-1,-1.381314E0,1.7796812E0,-1.5863717E-1,6.692389E-1,5.397418E-2,-7.606202E-2,-3.1586795E0,4.929659E-2,-4.1090667E-2,-1.891939E0,-7.736182E-1,-4.5074654E-1,7.423458E-2,2.0584776E-1,5.921625E-1,2.025435E-1,-3.1834388E-1,5.7940537E-1,-2.2519653E-1,3.154916E-1,2.8359705E-1,1.555738E0,-1.6782135E0,-4.9363345E-1,7.55468E-2,5.431361E-1,2.2899354E-1,-2.8844923E-3,1.30061535E-2,4.6751864E-2,1.3014872E-1,1.3480381E-3,-1.2908404E-2,8.828902E-2,-1.3009005E-3,9.876624E-2,4.224804E-1,-1.6584944E-2,-1.3079306E-1,7.222438E-2,1.6989134E-2,-6.1872643E-3,-5.6190006E-2,-6.2653357E-1,-1.7827995E-1,-3.0083096E-1,-6.291548E-2,-2.9176973E-2,3.3534404E-2,-3.6710036E-1,1.283828E-2,1.3422059E-1,-6.466098E-2,-1.0352468E-1,-1.784199E-2,-5.083851E-2,-4.2995355E-1,-1.1952339E-2,-2.4545343E-1,2.868763E-1,1.7588035E-3],"split_indices":[0,34,48,54,21,44,52,47,21,12,1,8,38,42,0,0,3,0,7,7,3,0,0,3,51,20,3,37,26,1,2,0,0,0,0,0,1,8,0,0,1,0,1,14,5,0,0,0,32,22,8,16,15,0,0,0,0,0,0,0,0,0,0,0,0,0,0,0,0,0,0,0,0,0,0,0,0,0,0,0,0,0,0,0,0,0,0],"split_type":[0,0,0,0,0,0,0,0,0,0,0,0,0,0,0,0,0,0,0,0,0,0,0,0,0,0,0,0,0,0,0,0,0,0,0,0,0,0,0,0,0,0,0,0,0,0,0,0,0,0,0,0,0,0,0,0,0,0,0,0,0,0,0,0,0,0,0,0,0,0,0,0,0,0,0,0,0,0,0,0,0,0,0,0,0,0,0],"sum_hessian":[6.57E2,4.7E1,6.1E2,2.5E1,2.2E1,2.08E2,4.02E2,1.3E1,1.2E1,1.5E1,7E0,2.8E1,1.8E2,3.99E2,3E0,9E0,4E0,3E0,9E0,9E0,6E0,1E0,6E0,6E0,2.2E1,6E0,1.74E2,3.73E2,2.6E1,3E0,6E0,2E0,2E0,2E0,1E0,3E0,6E0,6E0,3E0,2E0,4E0,2E0,4E0,1E1,1.2E1,3E0,3E0,6E0,1.68E2,3.67E2,6E0,1.1E1,1.5E1,1E0,2E0,2E0,4E0,1E0,1E0,2E0,1E0,1E0,5E0,1E0,5E0,2E0,2E0,2E0,2E0,6E0,4E0,4E0,8E0,2E0,1E0,5E0,1E0,7E0,1.61E2,5.6E1,3.11E2,3E0,3E0,9E0,2E0,1E1,5E0],"tree_param":{"num_deleted":"0","num_feature":"60","num_nodes":"87","size_leaf_vector":"0"}},{"base_weights":[-8.880786E-2,-4.503857E-2,-2.0047182E-1,-6.311528E-2,3.684584E-1,2.0827541E-1,-2.5408137E-1,-8.287972E-2,3.492967E-1,-2.7862813E-2,6.952542E-1,3.9272448E-1,-3.4904286E-1,-1.5472344E-1,-4.3299896E-1,-1.1314465E-1,2.6623788E-1,-4.6672332E-1,7.068196E-1,-3.4356174E-1,2.3986341E-1,1.0145323E0,2.6010033E-1,1.0975291E-1,6.3206E-1,-1.128365E-1,-4.389369E-1,-3.996062E-1,-4.4912037E-2,-2.6476818E-1,-8.976093E-1,-1.635645E-1,7.34346E-2,1.9260252E0,1.6077283E-1,-5.705258E-1,-1.381447E-1,9.708286E-1,2.6640514E-1,-4.848291E-1,-8.7773785E-2,2.7750355E-1,2.5831342E-2,3.479628E-1,-8.9605965E-2,1.8989016E-1,-2.6567256E-1,-7.473087E-1,-1.9178641E-1,2.1450564E-1,-1.2464663E-1,-1.5366608E-1,-6.797579E-1,-1.0333853E0,-1.00436015E-2,-1.1519268E0,-1.504111E-1,1.970608E-1,-2.5414395E-1,9.710823E-1,-1.2421312E-2,2.4762093E-1,1.142085E0,-9.976141E-2,3.4405982E-1,-1.1045019E-1,-2.1210488E-2,3.312324E-2,2.773257E-1,-9.5783395E-1,-2.6100647E-1,-3.6299035E-2,-7.1318364E-1,-1.59897E-1,4.150317E-1,-2.926895E-1,-3.5274718E-2,-5.092845E-1,-3.3872087E-2,-4.011757E-1,-9.276917E-1,-5.3117096E-1,-1.1309325E0,1.5521424E-1,-1.7027964E-1],"categories":[],"categories_nodes":[],"categories_segments":[],"categories_sizes":[],"default_left":[1,1,1,1,1,1,1,1,1,1,1,1,1,1,1,1,1,1,1,1,1,0,1,1,0,0,0,1,1,1,1,1,1,0,1,0,0,1,1,0,1,0,0,0,0,1,0,1,1,1,1,1,1,1,1,0,0,0,0,0,0,0,0,0,0,0,0,0,0,0,0,0,0,0,0,0,0,0,0,0,0,0,0,0,0],"id":5,"left_children":[1,3,5,7,9,11,13,15,17,19,21,23,25,27,29,31,33,35,37,39,41,-1,43,45,-1,-1,-1,47,49,51,53,55,57,-1,59,-1,-1,61,63,-1,65,-1,-1,-1,-1,67,-1,69,71,73,75,77,79,81,83,-1,-1,-1,-1,-1,-1,-1,-1,-1,-1,-1,-1,-1,-1,-1,-1,-1,-1,-1,-1,-1,-1,-1,-1,-1,-1,-1,-1,-1,-1],"loss_changes":[3.2069144E0,3.5662453E0,4.1067796E0,3.7376986E0,2.6096935E0,2.398608E0,2.8484144E0,4.626342E0,6.4565516E0,9.2761666E-1,1.2644067E0,1.0819571E0,7.787317E-2,2.8593812E0,4.295723E0,3.784337E0,5.8170834E0,1.5993595E-1,1.485467E0,1.3811713E-1,4.116893E-2,0E0,2.1553588E-1,3.2121873E-1,0E0,0E0,0E0,2.2412386E0,1.5780795E0,1.9242184E0,1.7972727E0,3.9348392E0,3.5328488E0,0E0,4.783651E0,0E0,0E0,8.318815E-1,2.3336565E-1,0E0,2.1855477E-3,0E0,0E0,0E0,0E0,1.00470036E-1,0E0,9.7854614E-1,1.7576673E0,1.4177573E0,8.607377E-1,1.5163838E0,2.4946213E-1,3.6146164E-2,1.05870605E-1,0E0,0E0,0E0,0E0,0E0,0E0,0E0,0E0,0E0,0E0,0E0,0E0,0E0,0E0,0E0,0E0,0E0,0E0,0E0,0E0,0E0,0E0,0E0,0E0,0E0,0E0,0E0,0E0,0E0,0E0],"parents":[2147483647,0,0,1,1,2,2,3,3,4,4,5,5,6,6,7,7,8,8,9,9,10,10,11,11,12,12,13,13,14,14,15,15,16,16,17,17,18,18,19,19,20,20,22,22,23,23,27,27,28,28,29,29,30,30,31,31,32,32,34,34,37,37,38,38,40,40,45,45,47,47,48,48,49,49,50,50,51,51,52,52,53,53,54,54],"right_children":[2,4,6,8,10,12,14,16,18,20,22,24,26,28,30,32,34,36,38,40,42,-1,44,46,-1,-1,-1,48,50,52,54,56,58,-1,60,-1,-1,62,64,-1,66,-1,-1,-1,-1,68,-1,70,72,74,76,78,80,82,84,-1,-1,-1,-1,-1,-1,-1,-1,-1,-1,-1,-1,-1,-1,-1,-1,-1,-1,-1,-1,-1,-1,-1,-1,-1,-1,-1,-1,-1,-1],"split_conditions":[2.9888192E-1,1.4674603E0,-1.1652071E0,1.4762411E0,-3.041953E-1,6.3019776E-1,1.7452765E-1,7.614738E-1,-5.384777E-1,-5.1686317E-1,2.054502E-1,8.983643E-1,6.40961E-2,-5.38157E-1,2.572188E-1,4.601714E-1,7.6505184E-1,4.8336732E-1,3.216698E-2,-5.1224726E-1,-9.0917224E-1,3.043597E-1,2.1773729E-1,1.0378258E0,1.89618E-1,-3.3850953E-2,-1.3168107E-1,-4.7527465E-1,-3.790412E-1,6.6577005E-1,6.041974E-1,-2.7094033E0,3.5093457E-1,5.7780755E-1,-6.9942605E-1,-1.7115775E-1,-4.144341E-2,-4.6684164E-1,-1.7793238E-2,-1.4544873E-1,-6.974567E-1,8.325107E-2,7.749403E-3,1.0438884E-1,-2.688179E-2,-1.5149969E-1,-7.9701774E-2,-8.392682E-1,3.911689E-1,-2.828064E-1,-1.65664E-1,4.4529992E-1,6.797426E-1,1.3698794E-2,-3.861046E-1,-3.4557804E-1,-4.512333E-2,5.911824E-2,-7.624319E-2,2.913247E-1,-3.7263937E-3,7.428628E-2,3.426255E-1,-2.9928425E-2,1.0321795E-1,-3.313506E-2,-6.3631465E-3,9.9369725E-3,8.319771E-2,-2.873502E-1,-7.8301944E-2,-1.0889711E-2,-2.139551E-1,-4.7969103E-2,1.2450951E-1,-8.780685E-2,-1.0582415E-2,-1.5278536E-1,-1.0161626E-2,-1.20352715E-1,-2.7830753E-1,-1.5935129E-1,-3.3927974E-1,4.6564274E-2,-5.1083893E-2],"split_indices":[53,42,50,59,0,5,2,20,24,22,20,53,0,2,42,14,20,12,11,1,0,0,5,7,0,0,0,13,4,36,40,53,22,0,42,0,0,22,0,0,0,0,0,0,0,25,0,2,52,28,12,53,3,0,0,0,0,0,0,0,0,0,0,0,0,0,0,0,0,0,0,0,0,0,0,0,0,0,0,0,0,0,0,0,0],"split_type":[0,0,0,0,0,0,0,0,0,0,0,0,0,0,0,0,0,0,0,0,0,0,0,0,0,0,0,0,0,0,0,0,0,0,0,0,0,0,0,0,0,0,0,0,0,0,0,0,0,0,0,0,0,0,0,0,0,0,0,0,0,0,0,0,0,0,0,0,0,0,0,0,0,0,0,0,0,0,0,0,0,0,0,0,0],"sum_hessian":[6.57E2,4.73E2,1.84E2,4.54E2,1.9E1,2.1E1,1.63E2,4.34E2,2E1,9E0,1E1,1.6E1,5E0,1.06E2,5.7E1,4E2,3.4E1,6E0,1.4E1,4E0,5E0,5E0,5E0,8E0,8E0,2E0,3E0,3.2E1,7.4E1,4.3E1,1.4E1,3.15E2,8.5E1,1E0,3.3E1,4E0,2E0,8E0,6E0,2E0,2E0,4E0,1E0,4E0,1E0,7E0,1E0,1.1E1,2.1E1,1.7E1,5.7E1,3.5E1,8E0,1.2E1,2E0,3E0,3.12E2,6.2E1,2.3E1,5E0,2.8E1,2E0,6E0,1E0,5E0,1E0,1E0,3E0,4E0,7E0,4E0,1.7E1,4E0,6E0,1.1E1,1.9E1,3.8E1,8E0,2.7E1,5E0,3E0,3E0,9E0,1E0,1E0],"tree_param":{"num_deleted":"0","num_feature":"60","num_nodes":"85","size_leaf_vector":"0"}},{"base_weights":[-6.31024E-2,8.014889E-2,-9.0756E-2,4.4826794E-1,-9.628683E-3,-2.4731867E-1,-5.5145916E-2,6.564111E-1,-6.1791394E-2,1.4837474E-1,-1.6741326E-1,-5.5059183E-2,-4.896238E-1,-3.7734187E-1,-3.0466354E-2,2.2436291E-1,7.931229E-1,1.4736994E-1,-1.7492992E-1,5.325417E-1,-2.9906306E-2,-4.0479813E-2,-5.0252914E-1,2.4291202E-1,-1.465378E-1,-1.9706035E-1,-7.865283E-1,-9.108373E-2,-9.9800146E-1,-3.7796554E-1,-8.324899E-4,8.769225E-1,2.7734995E-1,-1.9609882E-1,-4.5127146E-2,8.90542E-1,1.5272376E-1,-3.675251E-1,1.4836574E-1,1.9874675E-2,-4.8301852E-1,-5.731924E-1,1.3738348E-1,4.050859E-1,-4.083412E-2,-2.3130804E-1,1.7328887E-1,-3.7519386E-1,1.4151704E-1,-1.087148E0,-1.2455054E-1,-4.2571312E-1,1.9907066E-1,-3.3829823E-1,-1.3814205E0,-1.5963002E-1,-8.0012476E-1,9.755153E-1,-1.0974201E-2,3.232017E-1,1.0528377E0,-2.625394E-1,2.495527E-1,-4.9247393E-1,-1.1909171E-1,2.2773191E-1,-2.4587351E-1,8.307844E-2,-1.9966316E-1,-7.3790044E-1,-3.129524E-1,8.985813E-2,4.332571E-1,7.759812E-2,-1.19449764E-1,-6.011168E-1,-1.5227062E-1,3.2117978E-1,-1.2884243E-1,-1.7850442E-1,-6.7325884E-1,3.3349454E-1,-1.0054126E-2,-5.0216925E-1,-1.4213371E0,-3.6726755E-1,1.7566392E-2,9.367732E-3,-5.900394E-1,4.5486027E-1,3.4846365E-2,-6.968205E-2,-7.360558E-1,-1.1964242E0,-8.528047E-2,1.6371214E0,2.092728E-1,-2.992318E-1,1.2472423E-2],"categories":[],"categories_nodes":[],"categories_segments":[],"categories_sizes":[],"default_left":[1,1,1,1,1,1,1,1,1,1,1,1,1,1,1,0,1,0,1,1,1,1,1,1,1,1,1,1,1,1,1,0,0,0,0,1,1,1,1,1,0,1,0,1,1,1,1,1,1,1,1,1,1,0,0,1,1,1,1,0,0,0,0,0,0,0,0,0,0,0,0,0,0,0,0,0,0,0,0,0,0,0,0,0,0,0,0,0,0,0,0,0,0,0,0,0,0,0,0],"id":6,"left_children":[1,3,5,7,9,11,13,15,17,19,21,23,25,27,29,-1,31,-1,33,35,37,39,41,43,45,47,49,51,53,55,57,-1,-1,-1,-1,59,61,63,65,67,-1,69,-1,71,73,75,77,79,81,83,85,87,89,-1,-1,91,93,95,97,-1,-1,-1,-1,-1,-1,-1,-1,-1,-1,-1,-1,-1,-1,-1,-1,-1,-1,-1,-1,-1,-1,-1,-1,-1,-1,-1,-1,-1,-1,-1,-1,-1,-1,-1,-1,-1,-1,-1,-1],"loss_changes":[2.6138842E0,3.5405414E0,3.063877E0,2.270033E0,2.1937935E0,4.724759E0,3.5747006E0,7.080445E-1,1.9142884E-1,3.0294724E0,1.8513042E0,1.6165595E0,3.7538605E0,5.594502E0,4.3247375E0,0E0,2.3222256E-1,0E0,4.889548E-3,1.7676423E0,1.9203558E0,8.910033E-1,6.21367E-1,6.607682E-1,1.2601134E0,1.5005838E0,4.242673E0,2.3179133E0,2.0620956E0,2.9139638E0,3.8526185E0,0E0,0E0,0E0,0E0,3.042593E-1,3.8719332E-1,2.8280652E-1,7.1306777E-1,4.3285617E-1,0E0,2.4057221E-1,0E0,4.0991426E-2,6.513284E-2,9.6070206E-1,4.882063E-1,8.1784034E-1,2.652373E-1,2.2186508E0,2.8240514E-1,7.919748E-1,5.30239E-1,0E0,0E0,1.1412215E0,3.0141854E0,1.6851981E0,2.605819E0,0E0,0E0,0E0,0E0,0E0,0E0,0E0,0E0,0E0,0E0,0E0,0E0,0E0,0E0,0E0,0E0,0E0,0E0,0E0,0E0,0E0,0E0,0E0,0E0,0E0,0E0,0E0,0E0,0E0,0E0,0E0,0E0,0E0,0E0,0E0,0E0,0E0,0E0,0E0,0E0],"parents":[2147483647,0,0,1,1,2,2,3,3,4,4,5,5,6,6,7,7,8,8,9,9,10,10,11,11,12,12,13,13,14,14,16,16,18,18,19,19,20,20,21,21,22,22,23,23,24,24,25,25,26,26,27,27,28,28,29,29,30,30,35,35,36,36,37,37,38,38,39,39,41,41,43,43,44,44,45,45,46,46,47,47,48,48,49,49,50,50,51,51,52,52,55,55,56,56,57,57,58,58],"right_children":[2,4,6,8,10,12,14,16,18,20,22,24,26,28,30,-1,32,-1,34,36,38,40,42,44,46,48,50,52,54,56,58,-1,-1,-1,-1,60,62,64,66,68,-1,70,-1,72,74,76,78,80,82,84,86,88,90,-1,-1,92,94,96,98,-1,-1,-1,-1,-1,-1,-1,-1,-1,-1,-1,-1,-1,-1,-1,-1,-1,-1,-1,-1,-1,-1,-1,-1,-1,-1,-1,-1,-1,-1,-1,-1,-1,-1,-1,-1,-1,-1,-1,-1],"split_conditions":[-6.469075E-1,-6.6456604E-1,-5.046228E-1,5.4211676E-1,-2.3614205E-3,7.969552E-2,-1.0513711E0,-4.972378E-1,-5.604063E-1,-4.995429E-1,6.401671E-1,-4.8548603E-1,-8.64601E-2,-1.1885531E0,-9.289295E-1,6.730887E-2,8.699255E-1,4.421098E-2,-1.20690465E-2,-1.401627E-1,-3.3389884E-1,1.6214218E0,4.079756E-1,-1.5224789E-1,4.4101232E-1,1.8937936E-1,1.8590596E-1,1.0234314E-1,-2.0759352E-1,2.85775E-1,-2.774477E0,2.6307675E-1,8.3204985E-2,-5.8829647E-2,-1.35381445E-2,-3.116693E-1,-1.1809255E0,2.2931638E-1,6.4393187E-1,3.7185794E-1,-1.4490557E-1,3.4356338E-1,4.1215044E-2,-1.0300791E0,-2.1648234E-1,-7.147061E-1,4.2673135E-1,4.5505401E-1,-1.9853847E-1,-1.310379E0,-4.5516586E-1,-7.565465E-1,-2.1988395E-1,-1.0148948E-1,-4.1442618E-1,8.897786E-1,-2.2281753E-1,-8.785039E-2,-1.1010897E0,9.696051E-2,3.1585133E-1,-7.8761816E-2,7.486581E-2,-1.4774218E-1,-3.5727516E-2,6.8319574E-2,-7.376206E-2,2.4923531E-2,-5.989895E-2,-2.2137015E-1,-9.388573E-2,2.695744E-2,1.2997714E-1,2.3279436E-2,-3.583493E-2,-1.8033504E-1,-4.5681186E-2,9.635394E-2,-3.865273E-2,-5.3551327E-2,-2.0197766E-1,1.0004837E-1,-3.016238E-3,-1.5065078E-1,-4.2640117E-1,-1.10180266E-1,5.2699177E-3,2.81032E-3,-1.7701182E-1,1.3645808E-1,1.045391E-2,-2.0904616E-2,-2.2081675E-1,-3.5892728E-1,-2.5584143E-2,4.9113646E-1,6.278184E-2,-8.976954E-2,3.741727E-3],"split_indices":[8,13,22,15,33,24,9,49,7,38,9,10,30,9,20,0,9,0,0,25,40,14,14,44,30,58,39,34,29,51,43,0,0,0,0,0,2,38,34,20,0,17,0,2,3,52,47,20,37,22,0,30,46,0,0,54,53,0,45,0,0,0,0,0,0,0,0,0,0,0,0,0,0,0,0,0,0,0,0,0,0,0,0,0,0,0,0,0,0,0,0,0,0,0,0,0,0,0,0],"split_type":[0,0,0,0,0,0,0,0,0,0,0,0,0,0,0,0,0,0,0,0,0,0,0,0,0,0,0,0,0,0,0,0,0,0,0,0,0,0,0,0,0,0,0,0,0,0,0,0,0,0,0,0,0,0,0,0,0,0,0,0,0,0,0,0,0,0,0,0,0,0,0,0,0,0,0,0,0,0,0,0,0,0,0,0,0,0,0,0,0,0,0,0,0,0,0,0,0,0,0],"sum_hessian":[6.57E2,1.06E2,5.51E2,2E1,8.6E1,1.01E2,4.5E2,1.4E1,6E0,4.3E1,4.3E1,5.7E1,4.4E1,3.1E1,4.19E2,4E0,1E1,2E0,4E0,1.3E1,3E1,3.2E1,1.1E1,1.3E1,4.4E1,2.3E1,2.1E1,2.2E1,9E0,3.2E1,3.87E2,8E0,2E0,3E0,1E0,6E0,7E0,1E1,2E1,2.9E1,3E0,1E1,1E0,8E0,5E0,3.5E1,9E0,1.5E1,8E0,1.4E1,7E0,1E1,1.2E1,4E0,5E0,2.2E1,1E1,3E0,3.84E2,2E0,4E0,1E0,6E0,6E0,4E0,1.7E1,3E0,2.3E1,6E0,5E0,5E0,1E0,7E0,2E0,3E0,5E0,3E1,6E0,3E0,1E1,5E0,3E0,5E0,6E0,8E0,2E0,5E0,3E0,7E0,4E0,8E0,2E1,2E0,6E0,4E0,1E0,2E0,2.8E1,3.56E2],"tree_param":{"num_deleted":"0","num_feature":"60","num_nodes":"99","size_leaf_vector":"0"}},{"base_weights":[-4.632127E-2,1.404176E-2,-9.4815545E-2,-2.3713428E-1,5.3386856E-2,-1.5878436E-1,2.7782315E-2,-5.4190278E-2,-4.8145908E-1,-9.643004E-2,1.236834E-1,-9.532791E-2,-3.7559122E-1,1.9423528E-1,-7.714047E-2,2.7292043E-1,-2.0493707E-1,-3.2687283E-1,-9.021462E-1,3.6503248E-2,-2.94922E-1,2.7092052E-1,6.7350203E-3,-3.2010508E-1,-4.3285232E-2,-1.8361816E-1,-9.1097015E-1,8.7253165E-1,1.468071E-1,1.2785275E-1,-3.077506E-1,3.215582E-1,8.467139E-2,-3.8802204E-1,4.953629E-2,-4.6926463E-1,-1.1744321E-1,8.740877E-2,-3.513721E-1,-1.5453619E-1,-6.5211344E-1,5.0639963E-1,1.0984025E-1,1.0859078E0,-1.5585398E-2,-2.0487118E-1,-8.429237E-1,1.1226158E-1,-1.19883314E-1,1.3122573E-1,-4.1210032E-1,-1.6303096E0,-3.301916E-1,1.2504117E-2,3.4406918E-1,2.9131576E-1,-1.2967025E-1,4.90812E-2,-5.0307953E-1,1.4508031E-1,-5.394327E-1,-7.762057E-2,1.960983E-1,-2.1044849E-1,4.9228678E-3,-4.2802904E-2,2.1382007E-1,3.3592876E-2,-3.611421E-1,1.0372448E-1,-7.5955874E-1,1.9955447E-1,8.647434E-1,2.0911491E-1,-1.3910109E-1,-4.069325E-2,5.783455E-1,-2.8289548E-1,2.4182945E-1,-1.2821903E0,-3.0274287E-1,6.45817E-2,8.536124E-1,-1.8921584E-1,6.355887E-2,3.3347622E-1,-6.392227E-2,-2.0276962E-1,-1.0062975E0,-6.585068E-1,-1.9515843E0,-5.383303E-2,-4.0146077E-1,3.0647585E-1,-7.75092E-2,5.6529737E-1,8.843408E-2,1.0711293E-1,4.4155297E-1,-3.781503E-1,8.208084E-2,3.3923006E-1,-1.4980485E-1,-6.1487217E-2,-6.46861E-1],"categories":[],"categories_nodes":[],"categories_segments":[],"categories_sizes":[],"default_left":[1,1,1,1,1,1,1,1,1,1,1,1,1,1,1,1,1,1,0,1,1,1,1,1,1,1,1,0,1,1,1,0,0,1,1,0,1,1,0,1,1,1,1,0,1,1,1,1,1,1,1,1,1,1,1,1,1,1,1,0,0,0,0,0,0,0,0,0,0,0,0,0,0,0,0,0,0,0,0,0,0,0,0,0,0,0,0,0,0,0,0,0,0,0,0,0,0,0,0,0,0,0,0,0,0],"id":7,"left_children":[1,3,5,7,9,11,13,15,17,19,21,23,25,27,29,31,33,35,-1,37,39,41,43,45,47,49,51,-1,53,55,57,-1,-1,59,61,-1,63,65,-1,67,69,71,73,-1,75,77,79,81,83,85,87,89,91,93,95,97,99,101,103,-1,-1,-1,-1,-1,-1,-1,-1,-1,-1,-1,-1,-1,-1,-1,-1,-1,-1,-1,-1,-1,-1,-1,-1,-1,-1,-1,-1,-1,-1,-1,-1,-1,-1,-1,-1,-1,-1,-1,-1,-1,-1,-1,-1,-1,-1],"loss_changes":[1.9274695E0,2.9181283E0,2.8669014E0,1.7618198E0,2.6974874E0,3.2660656E0,2.2155366E0,1.2393929E0,8.106649E-1,2.1744332E0,2.9943063E0,2.173671E0,5.3827596E0,1.4482538E0,3.7266808E0,4.6021342E-2,8.1125546E-1,3.623829E-1,0E0,1.0179629E0,1.5539966E0,2.865067E0,2.377508E0,1.9359343E0,1.83639E0,3.003463E0,5.310563E0,0E0,1.2408633E0,1.8057852E0,2.603576E0,0E0,0E0,8.8543475E-1,1.6431218E-1,0E0,8.0700845E-2,7.4986225E-1,0E0,9.838462E-1,8.0968595E-1,3.236074E0,1.1906258E0,0E0,1.4700308E0,1.1140178E0,1.0355263E0,1.7475958E0,1.3220332E0,7.3175454E-1,2.7811623E0,5.8816147E-1,1.5565068E-1,7.911345E-1,1.0245285E0,6.722312E-1,9.255096E-1,8.5871017E-1,1.4840536E0,0E0,0E0,0E0,0E0,0E0,0E0,0E0,0E0,0E0,0E0,0E0,0E0,0E0,0E0,0E0,0E0,0E0,0E0,0E0,0E0,0E0,0E0,0E0,0E0,0E0,0E0,0E0,0E0,0E0,0E0,0E0,0E0,0E0,0E0,0E0,0E0,0E0,0E0,0E0,0E0,0E0,0E0,0E0,0E0,0E0,0E0],"parents":[2147483647,0,0,1,1,2,2,3,3,4,4,5,5,6,6,7,7,8,8,9,9,10,10,11,11,12,12,13,13,14,14,15,15,16,16,17,17,19,19,20,20,21,21,22,22,23,23,24,24,25,25,26,26,28,28,29,29,30,30,33,33,34,34,36,36,37,37,39,39,40,40,41,41,42,42,44,44,45,45,46,46,47,47,48,48,49,49,50,50,51,51,52,52,53,53,54,54,55,55,56,56,57,57,58,58],"right_children":[2,4,6,8,10,12,14,16,18,20,22,24,26,28,30,32,34,36,-1,38,40,42,44,46,48,50,52,-1,54,56,58,-1,-1,60,62,-1,64,66,-1,68,70,72,74,-1,76,78,80,82,84,86,88,90,92,94,96,98,100,102,104,-1,-1,-1,-1,-1,-1,-1,-1,-1,-1,-1,-1,-1,-1,-1,-1,-1,-1,-1,-1,-1,-1,-1,-1,-1,-1,-1,-1,-1,-1,-1,-1,-1,-1,-1,-1,-1,-1,-1,-1,-1,-1,-1,-1,-1,-1],"split_conditions":[-9.6304685E-2,-8.180109E-1,4.7732377E-1,-1.0194954E-1,-3.1935573E-1,3.4538004E-1,-1.13869645E-1,-3.973369E-1,2.1996266E-1,1.9522169E-1,-1.144747E-1,-4.390695E-1,1.9059205E-1,-1.6783777E0,-3.0663796E-2,2.3029852E-1,4.8615694E-2,2.5565058E-1,-2.706439E-1,8.453396E-1,4.5136732E-1,-1.530757E-1,-3.4009569E0,5.232999E-1,-1.8191661E-1,-6.262082E-2,4.136396E-1,2.6175952E-1,1.8459374E-1,2.6437098E-1,-1.3861512E-1,9.6467465E-2,2.5401419E-2,-9.2395777E-1,-1.0418863E-1,-1.4077939E-1,4.3718565E-1,-9.96094E-2,-1.05411634E-1,1.8233062E-1,-2.868889E0,-3.4207657E-2,3.9025027E-1,3.2577235E-1,1.919336E0,6.683358E-1,-3.7427896E-1,8.9835787E-1,2.6904842E-1,-6.34977E-2,2.8922236E-1,9.8245844E-2,-2.5827482E-1,-4.655773E-1,6.164975E-1,-2.6775858E-1,-3.076433E-1,-4.6839333E-1,-4.2530155E-1,4.3524094E-2,-1.6182981E-1,-2.3286173E-2,5.882949E-2,-6.313455E-2,1.4768604E-3,-1.2840872E-2,6.414603E-2,1.0077863E-2,-1.0834263E-1,3.1117344E-2,-2.2786763E-1,5.9866343E-2,2.5942305E-1,6.273448E-2,-4.173033E-2,-1.2207976E-2,1.7350365E-1,-8.486865E-2,7.254884E-2,-3.846571E-1,-9.082286E-2,1.937451E-2,2.5608373E-1,-5.6764755E-2,1.9067662E-2,1.0004287E-1,-1.9176682E-2,-6.0830887E-2,-3.0188924E-1,-1.9755206E-1,-5.854753E-1,-1.614991E-2,-1.2043823E-1,9.194276E-2,-2.3252761E-2,1.6958922E-1,2.6530225E-2,3.213388E-2,1.324659E-1,-1.13445096E-1,2.4624253E-2,1.0176902E-1,-4.4941455E-2,-1.8446166E-2,-1.9405831E-1],"split_indices":[6,23,6,13,17,36,49,44,20,25,35,53,8,44,16,11,50,15,0,16,50,29,41,22,55,59,8,0,24,46,27,0,0,5,20,0,25,27,0,45,3,13,53,0,36,3,3,2,9,10,44,6,5,50,24,21,7,14,9,0,0,0,0,0,0,0,0,0,0,0,0,0,0,0,0,0,0,0,0,0,0,0,0,0,0,0,0,0,0,0,0,0,0,0,0,0,0,0,0,0,0,0,0,0,0],"split_type":[0,0,0,0,0,0,0,0,0,0,0,0,0,0,0,0,0,0,0,0,0,0,0,0,0,0,0,0,0,0,0,0,0,0,0,0,0,0,0,0,0,0,0,0,0,0,0,0,0,0,0,0,0,0,0,0,0,0,0,0,0,0,0,0,0,0,0,0,0,0,0,0,0,0,0,0,0,0,0,0,0,0,0,0,0,0,0,0,0,0,0,0,0,0,0,0,0,0,0,0,0,0,0,0,0],"sum_hessian":[6.57E2,2.93E2,3.64E2,3.9E1,2.54E2,2.39E2,1.25E2,2.3E1,1.6E1,8.1E1,1.73E2,1.86E2,5.3E1,4.8E1,7.7E1,7E0,1.6E1,1.3E1,3E0,4.9E1,3.2E1,7.6E1,9.7E1,3.4E1,1.52E2,4E1,1.3E1,2E0,4.6E1,4.1E1,3.6E1,5E0,2E0,9E0,7E0,7E0,6E0,4.4E1,5E0,2.4E1,8E0,3E1,4.6E1,1E0,9.6E1,2.9E1,5E0,5E1,1.02E2,1.7E1,2.3E1,5E0,8E0,2.8E1,1.8E1,2.5E1,1.6E1,1.3E1,2.3E1,2E0,7E0,4E0,3E0,3E0,3E0,2.2E1,2.2E1,1.3E1,1.1E1,1E0,7E0,1.7E1,1.3E1,3.3E1,1.3E1,9.3E1,3E0,2.5E1,4E0,2E0,3E0,4.8E1,2E0,7.4E1,2.8E1,8E0,9E0,1.8E1,5E0,2E0,3E0,2E0,6E0,6E0,2.2E1,9E0,9E0,1.2E1,1.3E1,7E0,9E0,5E0,8E0,6E0,1.7E1],"tree_param":{"num_deleted":"0","num_feature":"60","num_nodes":"105","size_leaf_vector":"0"}},{"base_weights":[-3.3884723E-2,-3.689486E-2,6.3562715E-1,1.2697122E-1,-4.9749833E-2,1.5128879E-2,3.4971035E-1,-4.322199E-2,-4.3644533E-1,1.1362767E-1,-2.227811E-1,1.04443245E-1,4.864263E-1,-1.1578108E-2,-1.272778E-1,-1.2082281E0,-2.164441E-1,-1.1842045E-3,3.4339944E-1,2.7089184E-2,-3.3373827E-1,-6.158332E-2,1.8317054E-1,6.0571665E-1,1.560616E-1,-9.762657E-2,5.2575838E-2,-7.786703E-2,-2.9477248E-1,3.9110642E-2,-2.5327727E-1,1.715958E-1,-1.11027464E-1,5.177664E-1,1.3522597E-1,-5.077845E-2,6.997121E-2,-3.840884E-1,-1.3857527E-1,2.0001827E-1,7.2799236E-1,2.1978904E-1,-1.45711E-1,-1.1913029E-1,9.804241E-2,1.5465702E-1,-1.1732239E-1,-6.6314685E-1,-1.8671355E-1],"categories":[],"categories_nodes":[],"categories_segments":[],"categories_sizes":[],"default_left":[1,1,0,1,1,1,1,1,1,1,1,1,1,1,1,0,1,1,1,1,1,0,0,1,0,1,1,1,1,0,0,0,0,0,0,0,0,0,0,0,0,0,0,0,0,0,0,0,0],"id":8,"left_children":[1,3,-1,5,7,9,11,13,15,17,19,21,23,25,27,-1,29,31,33,35,37,-1,-1,39,-1,41,43,45,47,-1,-1,-1,-1,-1,-1,-1,-1,-1,-1,-1,-1,-1,-1,-1,-1,-1,-1,-1,-1],"loss_changes":[1.3495344E0,1.3881767E0,0E0,1.1904693E0,1.5184265E0,7.98631E-1,4.857068E-1,1.594438E0,1.4364177E0,6.335393E-1,2.8628963E-1,1.02776E-1,2.9956412E-1,2.417525E0,1.3343179E0,0E0,9.462187E-2,3.4169006E-1,2.2037321E-1,1.6909517E-2,1.556021E-2,0E0,0E0,2.016375E-1,0E0,2.8861604E0,1.9712093E0,1.1924577E0,1.3490086E0,0E0,0E0,0E0,0E0,0E0,0E0,0E0,0E0,0E0,0E0,0E0,0E0,0E0,0E0,0E0,0E0,0E0,0E0,0E0,0E0],"parents":[2147483647,0,0,1,1,3,3,4,4,5,5,6,6,7,7,8,8,9,9,10,10,11,11,12,12,13,13,14,14,16,16,17,17,18,18,19,19,20,20,23,23,25,25,26,26,27,27,28,28],"right_children":[2,4,-1,6,8,10,12,14,16,18,20,22,24,26,28,-1,30,32,34,36,38,-1,-1,40,-1,42,44,46,48,-1,-1,-1,-1,-1,-1,-1,-1,-1,-1,-1,-1,-1,-1,-1,-1,-1,-1,-1,-1],"split_conditions":[4.449991E0,-1.1815233E0,1.9068815E-1,4.8838088E-1,2.4429097E0,1.7050299E-1,-3.7951148E-1,2.9888192E-1,2.4715946E0,4.4761318E-1,-4.3429664E-1,-1.6516159E0,3.1083965E-1,-1.1931376E-1,3.6005315E-1,-3.6246845E-1,-2.9645343E0,-6.282491E-1,1.9639501E-1,-3.2960832E0,8.7716115E-1,-1.8474998E-2,5.4951165E-2,-1.0683824E0,4.6818484E-2,-7.363807E-1,-4.084884E-1,-6.921949E-1,-4.9381924E-1,1.1733193E-2,-7.598318E-2,5.147874E-2,-3.330824E-2,1.5532993E-1,4.0567793E-2,-1.5233535E-2,2.0991364E-2,-1.1522652E-1,-4.1572582E-2,6.0005482E-2,2.1839772E-1,6.5936714E-2,-4.37133E-2,-3.573909E-2,2.9412726E-2,4.639711E-2,-3.5196718E-2,-1.9894406E-1,-5.6014065E-2],"split_indices":[52,0,0,7,3,34,21,53,3,22,5,3,30,5,2,0,11,18,32,0,2,0,0,5,0,11,47,47,46,0,0,0,0,0,0,0,0,0,0,0,0,0,0,0,0,0,0,0,0],"split_type":[0,0,0,0,0,0,0,0,0,0,0,0,0,0,0,0,0,0,0,0,0,0,0,0,0,0,0,0,0,0,0,0,0,0,0,0,0,0,0,0,0,0,0,0,0,0,0,0,0],"sum_hessian":[6.57E2,6.55E2,2E0,4.7E1,6.08E2,3.2E1,1.5E1,5.99E2,9E0,2.3E1,9E0,6E0,9E0,4.36E2,1.63E2,1E0,8E0,1.6E1,7E0,3E0,6E0,2E0,4E0,6E0,3E0,1.86E2,2.5E2,1.27E2,3.6E1,1E0,7E0,6E0,1E1,3E0,4E0,1E0,2E0,4E0,2E0,2E0,4E0,2.4E1,1.62E2,5.2E1,1.98E2,1.8E1,1.09E2,7E0,2.9E1],"tree_param":{"num_deleted":"0","num_feature":"60","num_nodes":"49","size_leaf_vector":"0"}},{"base_weights":[-2.377883E-2,1.1467035E-1,-3.6597032E-2,-3.2478478E-2,3.2720906E-1,-1.063713E-1,-6.654383E-3,-1.5500851E-1,2.0507729E-1,2.2870626E-1,1.2471353E0,-1.707131E-1,4.4133764E-2,-2.4782512E-2,2.0833813E-1,4.0420778E-2,-3.0844802E-1,3.0308592E-1,-6.6711426E-2,3.3117222E-4,4.189912E-1,-2.733945E-1,-3.1322986E-2,-2.5134042E-1,1.4157435E-1,1.2031454E-1,-4.8389502E-2,-3.7273332E-2,5.4433036E-1,1.9918421E-1,-1.2507944E-1,-1.015561E-1,-3.89116E-1,3.2579333E-1,6.071333E-2,-1.8550253E-1,3.471979E-2,1.9295777E-1,-1.9235063E-1,4.7808743E-1,1.8127692E-1,-1.2635367E-1,-5.0519747E-1,1.6175888E-1,-1.5533705E-1,-4.6020195E-1,-8.41727E-2,6.248903E-2,3.3408028E-1,3.3091253E-1,-2.64121E-5,-1.7994279E-1,-1.8075878E-2,-2.6190728E-1,1.3430823E-1,2.6427343E-1,1.1784042E0,-4.1773674E-1,-8.007495E-2,3.059269E-1,5.9991494E-2,1.9004469E-1,5.3323615E-1,1.404853E-2,-2.941681E-1,-9.862332E-1,-1.8316472E-1,-9.194161E-2,3.4447014E-1,-3.2115248E-1,9.89623E-3,-1.6680151E-1,-5.6520176E-1,7.820703E-2,-1.7839707E-1,1.01644054E-1,-2.2721842E-1,5.5260396E-1,2.3455909E-2,-1.6114837E-1,3.9453864E-1,1.6093008E-1,-1.3683811E-1,-4.751532E-1,-1.0116478E-1,2.6018962E-1,-3.7419688E-2,1.5447208E-2,-4.0315905E-1,2.0319204E-1,-1.4007384E-1,1.1427177E-1,4.2142108E-1],"categories":[],"categories_nodes":[],"categories_segments":[],"categories_sizes":[],"default_left":[1,1,1,1,1,1,1,1,1,1,0,1,1,1,1,1,1,1,1,1,1,1,1,1,1,1,1,1,1,0,0,0,1,0,0,0,0,1,0,1,0,1,1,1,1,1,1,1,1,1,1,1,1,1,1,1,0,0,0,0,0,0,0,0,0,0,0,0,0,0,0,0,0,0,0,0,0,0,0,0,0,0,0,0,0,0,0,0,0,0,0,0,0],"id":9,"left_children":[1,3,5,7,9,11,13,15,17,19,-1,21,23,25,27,29,31,33,35,37,39,41,43,45,47,49,51,53,55,-1,-1,-1,57,-1,-1,-1,-1,59,-1,61,-1,63,65,67,69,71,73,75,77,79,81,83,85,87,89,91,-1,-1,-1,-1,-1,-1,-1,-1,-1,-1,-1,-1,-1,-1,-1,-1,-1,-1,-1,-1,-1,-1,-1,-1,-1,-1,-1,-1,-1,-1,-1,-1,-1,-1,-1,-1,-1],"loss_changes":[1.1719291E0,1.7620173E0,1.2590957E0,1.0214511E0,1.7989244E0,1.7602959E0,1.6537684E0,7.021589E-1,3.3987093E-1,9.559008E-1,0E0,1.8091586E0,1.6190984E0,1.345116E0,2.7435658E0,3.1394306E-1,1.7744708E-1,2.975285E-2,5.463711E-2,4.4538757E-1,8.191013E-2,2.4243355E0,1.3420949E0,4.5007223E-1,6.1854815E-1,1.3939047E0,1.3406552E0,8.060372E-1,2.174654E0,0E0,0E0,0E0,4.615462E-2,0E0,0E0,0E0,0E0,7.1773484E-2,0E0,4.1627884E-2,0E0,1.0879625E0,4.1568155E0,1.0514576E0,9.3471795E-1,9.056544E-2,1.5165305E-1,3.74744E-1,8.0158365E-1,6.897378E-1,8.147677E-1,1.4170647E0,1.489983E0,3.58819E-1,2.5526762E-1,2.1113998E-1,0E0,0E0,0E0,0E0,0E0,0E0,0E0,0E0,0E0,0E0,0E0,0E0,0E0,0E0,0E0,0E0,0E0,0E0,0E0,0E0,0E0,0E0,0E0,0E0,0E0,0E0,0E0,0E0,0E0,0E0,0E0,0E0,0E0,0E0,0E0,0E0,0E0],"parents":[2147483647,0,0,1,1,2,2,3,3,4,4,5,5,6,6,7,7,8,8,9,9,11,11,12,12,13,13,14,14,15,15,16,16,17,17,18,18,19,19,20,20,21,21,22,22,23,23,24,24,25,25,26,26,27,27,28,28,32,32,37,37,39,39,41,41,42,42,43,43,44,44,45,45,46,46,47,47,48,48,49,49,50,50,51,51,52,52,53,53,54,54,55,55],"right_children":[2,4,6,8,10,12,14,16,18,20,-1,22,24,26,28,30,32,34,36,38,40,42,44,46,48,50,52,54,56,-1,-1,-1,58,-1,-1,-1,-1,60,-1,62,-1,64,66,68,70,72,74,76,78,80,82,84,86,88,90,92,-1,-1,-1,-1,-1,-1,-1,-1,-1,-1,-1,-1,-1,-1,-1,-1,-1,-1,-1,-1,-1,-1,-1,-1,-1,-1,-1,-1,-1,-1,-1,-1,-1,-1,-1,-1,-1],"split_conditions":[-1.0821693E0,-4.4937655E-2,-3.2611197E-1,4.263683E-1,6.200955E-1,2.0501128E-1,8.2723975E-1,-1.6813089E-1,6.3107014E-1,-1.37584E-1,3.741406E-1,7.161387E-2,-5.61061E-1,-5.995809E-1,-4.2433456E-2,6.1331755E-1,-4.5680755E-1,1.4796743E0,-6.257445E-1,1.9872783E-1,4.5421213E-1,9.922254E-2,-3.6944193E-1,-4.220487E-1,4.7915378E-1,-4.3509585E-1,-4.9861068E-1,-1.6091835E-1,1.8540132E-1,5.9755266E-2,-3.7523832E-2,-3.046683E-2,1.0175738E-1,9.7738005E-2,1.8213999E-2,-5.565076E-2,1.0415938E-2,-1.295664E-1,-5.770519E-2,-8.746594E-2,5.4383077E-2,-1.297618E-2,-2.2857273E-1,-3.695194E-1,-6.881754E-2,-1.3865814E0,5.97131E-1,3.423702E-1,-8.010898E-2,-1.979728E0,-1.1564545E-1,-3.4320524E-1,-1.0270717E0,-9.543277E-2,3.3499265E-1,1.6285694E-1,3.535213E-1,-1.2532103E-1,-2.4022486E-2,9.177807E-2,1.799745E-2,5.7013407E-2,1.5997085E-1,4.214559E-3,-8.8250436E-2,-2.9586998E-1,-5.4949418E-2,-2.7582483E-2,1.0334105E-1,-9.6345745E-2,2.9688692E-3,-5.0040457E-2,-1.6956054E-1,2.3462111E-2,-5.3519126E-2,3.0493217E-2,-6.8165526E-2,1.657812E-1,7.036773E-3,-4.834451E-2,1.183616E-1,4.827903E-2,-4.1051432E-2,-1.4254597E-1,-3.0349435E-2,7.805689E-2,-1.1225907E-2,4.6341624E-3,-1.2094772E-1,6.0957614E-2,-4.2022154E-2,3.4281533E-2,1.2642632E-1],"split_indices":[50,26,28,41,20,48,59,37,51,54,0,41,37,5,3,57,28,0,0,44,14,1,13,57,6,37,43,38,31,0,0,0,4,0,0,0,0,0,0,54,0,26,52,49,34,5,48,6,8,37,48,12,15,1,2,17,0,0,0,0,0,0,0,0,0,0,0,0,0,0,0,0,0,0,0,0,0,0,0,0,0,0,0,0,0,0,0,0,0,0,0,0,0],"split_type":[0,0,0,0,0,0,0,0,0,0,0,0,0,0,0,0,0,0,0,0,0,0,0,0,0,0,0,0,0,0,0,0,0,0,0,0,0,0,0,0,0,0,0,0,0,0,0,0,0,0,0,0,0,0,0,0,0,0,0,0,0,0,0,0,0,0,0,0,0,0,0,0,0,0,0,0,0,0,0,0,0,0,0,0,0,0,0,0,0,0,0,0,0],"sum_hessian":[6.57E2,5.5E1,6.02E2,3.3E1,2.2E1,1.8E2,4.22E2,2.2E1,1.1E1,2.1E1,1E0,1.26E2,5.4E1,3.9E2,3.2E1,1E1,1.2E1,8E0,3E0,1E1,1.1E1,7.2E1,5.4E1,1.3E1,4.1E1,5.4E1,3.36E2,1.9E1,1.3E1,5E0,5E0,4E0,8E0,7E0,1E0,1E0,2E0,5E0,5E0,8E0,3E0,4.5E1,2.7E1,2.1E1,3.3E1,5E0,8E0,3E1,1.1E1,1.9E1,3.5E1,6.2E1,2.74E2,8E0,1.1E1,1E1,3E0,7E0,1E0,2E0,3E0,2E0,6E0,2.5E1,2E1,1E1,1.7E1,9E0,1.2E1,1.6E1,1.7E1,2E0,3E0,3E0,5E0,2.7E1,3E0,6E0,5E0,2E0,1.7E1,1.6E1,1.9E1,1.2E1,5E1,1.7E1,2.57E2,3E0,5E0,9E0,2E0,6E0,4E0],"tree_param":{"num_deleted":"0","num_feature":"60","num_nodes":"93","size_leaf_vector":"0"}},{"base_weights":[-1.5989007E-2,-9.630092E-3,-1.9938172E-1,-1.7720299E-2,1.7380495E-1,-4.1983998E-1,5.9243806E-2,-5.711267E-2,2.2774255E-2,9.886351E-4,3.3420664E-1,-1.377103E-1,-6.0168827E-1,2.5811085E-1,-9.126749E-2,-8.985247E-2,1.10915944E-1,4.583581E-2,-2.0453654E-1,1.2908685E-1,-8.452002E-2,2.1442145E-1,5.800642E-1,7.282567E-2,-1.3075396E-1,1.9224603E-1,-1.0547808E-1,8.368896E-1,4.8107386E-2,9.662063E-2,-3.3587195E-2,4.1874226E-2,-3.66442E-1,1.4258745E-1,3.0791909E-2,-1.4353009E-1,2.5125084E-2,1.24105476E-1,2.9797953E-1,1.396181E-1,6.8034023E-1,3.4072813E-2,3.9746487E-1,-3.484749E-1,-7.897182E-2,1.8746777E-1,9.9087435E-1,-1.1302435E-1,1.6723807E-1,2.0827612E-2,2.6529682E-1,8.254721E-2,-1.08741626E-1,1.9275159E-1,-1.4112839E-1,-1.7265664E-1,-6.9293904E-1,-3.4791425E-2,-1.5831953E-1,5.026981E-4,4.949612E-2,1.3449533E-1,3.0883193E-2],"categories":[],"categories_nodes":[],"categories_segments":[],"categories_sizes":[],"default_left":[1,1,1,1,1,1,1,1,1,1,1,0,0,0,1,1,1,1,1,1,1,1,1,0,0,1,1,1,1,1,1,1,1,0,0,1,1,1,0,0,0,0,0,0,0,0,0,0,0,0,0,0,0,0,0,0,0,0,0,0,0,0,0],"id":10,"left_children":[1,3,5,7,9,11,13,15,17,19,21,-1,-1,-1,23,25,27,29,31,33,35,37,39,-1,-1,41,43,45,47,49,51,53,55,-1,-1,57,59,61,-1,-1,-1,-1,-1,-1,-1,-1,-1,-1,-1,-1,-1,-1,-1,-1,-1,-1,-1,-1,-1,-1,-1,-1,-1],"loss_changes":[7.6542556E-1,9.484054E-1,1.2792279E0,9.7595346E-1,7.4811035E-1,5.32799E-1,3.5280624E-1,1.7153451E0,1.5925016E0,1.6425951E-1,2.879231E-1,0E0,0E0,0E0,5.4878462E-2,1.1663477E0,2.2852046E0,1.112453E0,1.1324115E0,3.5717115E-3,6.183768E-2,4.603201E-2,8.167696E-2,0E0,0E0,4.40899E-1,1.5633917E0,2.1424723E-1,9.402972E-1,2.1422668E0,9.51602E-1,3.5853413E-1,9.559555E-1,0E0,0E0,4.1409433E-3,2.3754109E-3,2.6263073E-3,0E0,0E0,0E0,0E0,0E0,0E0,0E0,0E0,0E0,0E0,0E0,0E0,0E0,0E0,0E0,0E0,0E0,0E0,0E0,0E0,0E0,0E0,0E0,0E0,0E0],"parents":[2147483647,0,0,1,1,2,2,3,3,4,4,5,5,6,6,7,7,8,8,9,9,10,10,14,14,15,15,16,16,17,17,18,18,19,19,20,20,21,21,22,22,25,25,26,26,27,27,28,28,29,29,30,30,31,31,32,32,35,35,36,36,37,37],"right_children":[2,4,6,8,10,12,14,16,18,20,22,-1,-1,-1,24,26,28,30,32,34,36,38,40,-1,-1,42,44,46,48,50,52,54,56,-1,-1,58,60,62,-1,-1,-1,-1,-1,-1,-1,-1,-1,-1,-1,-1,-1,-1,-1,-1,-1,-1,-1,-1,-1,-1,-1,-1,-1],"split_conditions":[1.8240304E0,1.4807261E0,1.2265876E-1,-3.3167996E-2,-1.9154076E-1,-3.5422122E-1,-3.5542172E-1,5.482137E-1,8.241167E-1,-1.36373E0,6.826518E-1,-4.1313093E-2,-1.8050648E-1,7.743326E-2,-1.7299048E0,-1.3426918E0,-8.546561E-1,1.11277744E-1,-2.4891141E-1,2.4420768E-2,4.5511186E-1,-4.6535954E-3,-1.3295165E-1,2.1847703E-2,-3.922619E-2,-2.3636106E-1,-7.648954E-1,-3.1562394E-1,-1.192372E-1,-1.0477884E-1,-1.8022697E-1,1.8417978E-1,1.00776516E-1,4.277624E-2,9.237573E-3,-6.544663E-1,-6.974567E-1,2.1735683E-1,8.939386E-2,4.188543E-2,2.0410208E-1,1.0221845E-2,1.19239464E-1,-1.0454247E-1,-2.3691546E-2,5.624033E-2,2.972623E-1,-3.3907305E-2,5.0171424E-2,6.2482837E-3,7.958905E-2,2.4764163E-2,-3.262249E-2,5.782548E-2,-4.233852E-2,-5.1796995E-2,-2.0788172E-1,-1.0437428E-2,-4.749586E-2,1.5080944E-4,1.4848837E-2,4.03486E-2,9.264958E-3],"split_indices":[43,42,41,18,26,9,20,10,0,28,41,0,0,0,9,25,57,21,57,1,49,49,1,0,0,10,59,1,40,21,48,23,31,0,0,0,0,3,0,0,0,0,0,0,0,0,0,0,0,0,0,0,0,0,0,0,0,0,0,0,0,0,0],"split_type":[0,0,0,0,0,0,0,0,0,0,0,0,0,0,0,0,0,0,0,0,0,0,0,0,0,0,0,0,0,0,0,0,0,0,0,0,0,0,0,0,0,0,0,0,0,0,0,0,0,0,0,0,0,0,0,0,0,0,0,0,0,0,0],"sum_hessian":[6.57E2,6.36E2,2.1E1,6.1E2,2.6E1,1.1E1,1E1,3.09E2,3.01E2,1.3E1,1.3E1,5E0,6E0,4E0,6E0,2.59E2,5E1,2.74E2,2.7E1,5E0,8E0,1E1,3E0,1E0,5E0,1.3E1,2.46E2,3E0,4.7E1,1.67E2,1.07E2,1.1E1,1.6E1,4E0,1E0,5E0,3E0,6E0,4E0,1E0,2E0,8E0,5E0,2.3E1,2.23E2,1E0,2E0,2E1,2.7E1,1.16E2,5.1E1,4.2E1,6.5E1,6E0,5E0,1.1E1,5E0,1E0,4E0,2E0,1E0,5E0,1E0],"tree_param":{"num_deleted":"0","num_feature":"60","num_nodes":"63","size_leaf_vector":"0"}},{"base_weights":[-1.0528033E-2,2.5819758E-2,-3.9776586E-2,-1.3925262E-1,5.161221E-2,3.7987377E-2,-8.193597E-2,-8.277034E-2,-6.2690055E-1,1.12867095E-1,-2.394041E-2,-3.295658E-2,1.667114E-1,4.2800415E-2,-1.4223287E-1,4.514486E-2,-1.8237929E-1,-1.2330228E-1,-7.5366586E-1,9.111246E-2,6.8637085E-1,-2.1178767E-1,1.5443813E-2,-8.849225E-2,2.0860079E-1,4.9750973E-2,3.4588593E-1,1.5970092E-1,-5.1161353E-2,-2.8351116E-1,-6.552984E-2,-6.6752225E-2,1.7937312E-1,4.351297E-2,-2.556902E-1,2.3045917E-1,3.9162546E-2,1.0277945E0,1.16156995E-1,1.994448E-2,-3.679378E-1,1.1446637E-1,-5.1406592E-2,-4.4033694E-1,-6.0065858E-2,3.291079E-2,2.8546798E-1,4.0364546E-1,-6.6078324E-3,6.191567E-1,1.9315434E-1,5.6571823E-2,3.7956694E-1,-1.7870979E-1,7.306591E-2,-5.5036917E-2,-5.1001984E-1,-8.702786E-2,3.0369216E-1,-1.3350834E-1,3.2434862E-6,-4.9712673E-2,2.1920146E-1,1.2696014E-1,-2.9950647E-2,-3.9753586E-1,-1.3082919E-1,3.27809E-1,-1.634101E-1,3.3082062E-1,1.3923959E-2,1.3867074E-1,-1.02770686E-1,-1.1904912E-1,-4.77501E-1,-1.634931E-1,1.6015138E-1,-2.0447338E-1,1.7047277E-2,-6.276506E-1,-1.0624424E-1,-1.8706068E-1,5.331917E-4,7.731738E-2,-8.621845E-3,1.2116041E-1,4.0219754E-1,-2.2324997E-1,3.135636E-2,6.7238826E-1,1.7649949E-1,-3.4613192E-2,2.649459E-1,3.123115E-1,-4.0625524E-2,6.0115755E-1,2.2132578E-1,-5.6106128E-2,-3.8625294E-1,5.26409E-1,2.8531726E-2,-2.390846E-1,5.441369E-2,-1.6179407E-1,-8.010292E-1,5.8785643E-2,-1.4176416E-1,9.550838E-2,3.8390696E-1],"categories":[],"categories_nodes":[],"categories_segments":[],"categories_sizes":[],"default_left":[1,1,1,1,1,1,1,1,1,1,1,1,1,1,1,1,1,0,0,1,1,1,1,1,1,1,1,1,1,1,1,1,1,1,1,1,1,0,0,1,1,1,1,1,1,1,1,0,1,1,1,1,1,1,1,1,1,1,1,0,0,0,0,0,0,0,0,0,0,0,0,0,0,0,0,0,0,0,0,0,0,0,0,0,0,0,0,0,0,0,0,0,0,0,0,0,0,0,0,0,0,0,0,0,0,0,0,0,0],"id":11,"left_children":[1,3,5,7,9,11,13,15,17,19,21,23,25,27,29,31,33,-1,-1,35,37,39,41,43,45,47,49,51,53,55,57,59,61,63,65,67,69,-1,-1,71,73,75,77,79,81,83,85,-1,87,89,91,93,95,97,99,101,103,105,107,-1,-1,-1,-1,-1,-1,-1,-1,-1,-1,-1,-1,-1,-1,-1,-1,-1,-1,-1,-1,-1,-1,-1,-1,-1,-1,-1,-1,-1,-1,-1,-1,-1,-1,-1,-1,-1,-1,-1,-1,-1,-1,-1,-1,-1,-1,-1,-1,-1,-1],"loss_changes":[7.005602E-1,1.2589278E0,1.199758E0,1.0498497E0,1.1828337E0,1.183547E0,1.788616E0,4.7966892E-1,1.6242647E-1,1.6966311E0,8.540659E-1,1.1453238E0,9.4678307E-1,8.6493635E-1,1.7152574E0,2.6730928E-1,3.5889345E-1,0E0,0E0,9.827244E-1,8.540368E-1,7.3103845E-1,6.4137536E-1,6.6366637E-1,2.0668179E-1,5.8107424E-1,6.3167477E-1,7.721375E-1,7.102373E-1,2.870008E0,8.5987157E-1,4.456379E-2,8.388996E-2,4.0584523E-2,2.3136663E-1,1.4722623E0,7.3885846E-1,0E0,0E0,1.4537692E-1,2.703824E-1,5.2142835E-1,6.1121047E-1,2.4621648E-1,5.003245E-1,1.1732555E-2,1.6224468E-1,0E0,2.2084107E-1,2.2703648E-2,2.2174388E-1,6.341183E-1,2.526605E-1,5.381308E-1,4.4933367E-1,5.9718925E-1,2.7078338E0,8.0646306E-1,6.353021E-2,0E0,0E0,0E0,0E0,0E0,0E0,0E0,0E0,0E0,0E0,0E0,0E0,0E0,0E0,0E0,0E0,0E0,0E0,0E0,0E0,0E0,0E0,0E0,0E0,0E0,0E0,0E0,0E0,0E0,0E0,0E0,0E0,0E0,0E0,0E0,0E0,0E0,0E0,0E0,0E0,0E0,0E0,0E0,0E0,0E0,0E0,0E0,0E0,0E0,0E0],"parents":[2147483647,0,0,1,1,2,2,3,3,4,4,5,5,6,6,7,7,8,8,9,9,10,10,11,11,12,12,13,13,14,14,15,15,16,16,19,19,20,20,21,21,22,22,23,23,24,24,25,25,26,26,27,27,28,28,29,29,30,30,31,31,32,32,33,33,34,34,35,35,36,36,39,39,40,40,41,41,42,42,43,43,44,44,45,45,46,46,48,48,49,49,50,50,51,51,52,52,53,53,54,54,55,55,56,56,57,57,58,58],"right_children":[2,4,6,8,10,12,14,16,18,20,22,24,26,28,30,32,34,-1,-1,36,38,40,42,44,46,48,50,52,54,56,58,60,62,64,66,68,70,-1,-1,72,74,76,78,80,82,84,86,-1,88,90,92,94,96,98,100,102,104,106,108,-1,-1,-1,-1,-1,-1,-1,-1,-1,-1,-1,-1,-1,-1,-1,-1,-1,-1,-1,-1,-1,-1,-1,-1,-1,-1,-1,-1,-1,-1,-1,-1,-1,-1,-1,-1,-1,-1,-1,-1,-1,-1,-1,-1,-1,-1,-1,-1,-1,-1],"split_conditions":[-9.6304685E-2,-8.180109E-1,-2.0143162E-1,-9.601047E-1,7.2621335E-3,1.9754744E-1,-1.9352165E-1,-3.7377387E-1,-3.1981936E-1,-2.4456644E-2,-7.289014E-1,5.156842E-1,7.9979196E-2,-2.7810964E-1,-1.8896928E-1,-9.9415615E-2,-3.161453E-1,-3.6990687E-2,-2.2609977E-1,-4.876176E-1,3.8309988E-1,-4.5112887E-1,-1.1231293E-1,-1.3567672E0,-3.7230062E-1,-1.203464E0,-5.9621736E-2,5.0818807E-1,-1.5376686E-1,-2.6713293E-2,8.785859E-1,-1.3762397E-1,-1.146497E0,2.5360698E-1,-2.5578114E-1,5.9588224E-1,-9.670545E-1,3.0833834E-1,3.48471E-2,8.301428E-2,-3.460182E-1,-4.813227E-1,-2.7461636E-1,2.080021E-2,-1.9570091E-1,-3.862772E-1,-8.792426E-2,1.2109364E-1,-6.823932E-1,9.762681E-2,-8.4124756E-1,-8.666736E-1,-2.2635666E-1,7.1552455E-2,-1.4425504E-1,-1.9516075E-1,-1.744703E-1,-3.1052887E-1,-1.4918578E-1,-4.0052503E-2,9.730459E-7,-1.4913802E-2,6.576044E-2,3.8088046E-2,-8.985194E-3,-1.19260766E-1,-3.9248757E-2,9.834271E-2,-4.9023032E-2,9.924619E-2,4.177188E-3,4.1601226E-2,-3.0831207E-2,-3.5714738E-2,-1.432503E-1,-4.9047932E-2,4.8045415E-2,-6.1342016E-2,5.1141833E-3,-1.882952E-1,-3.1873275E-2,-5.611821E-2,1.5995752E-4,2.3195215E-2,-2.5865538E-3,3.6348123E-2,1.2065927E-1,-6.6975E-2,9.406908E-3,2.0171648E-1,5.294985E-2,-1.0383958E-2,7.948377E-2,9.369345E-2,-1.2187658E-2,1.8034726E-1,6.639774E-2,-1.683184E-2,-1.15875885E-1,1.579227E-1,8.5595185E-3,-7.172538E-2,1.6324108E-2,-4.8538223E-2,-2.4030878E-1,1.7635694E-2,-4.252925E-2,2.8652515E-2,1.15172096E-1],"split_indices":[6,23,49,23,53,47,27,29,1,53,14,43,3,30,25,35,38,0,0,41,1,36,59,40,39,55,13,15,39,2,52,9,5,5,55,45,32,0,0,1,24,32,39,2,21,1,22,0,56,5,18,13,55,3,39,37,56,52,17,0,0,0,0,0,0,0,0,0,0,0,0,0,0,0,0,0,0,0,0,0,0,0,0,0,0,0,0,0,0,0,0,0,0,0,0,0,0,0,0,0,0,0,0,0,0,0,0,0,0],"split_type":[0,0,0,0,0,0,0,0,0,0,0,0,0,0,0,0,0,0,0,0,0,0,0,0,0,0,0,0,0,0,0,0,0,0,0,0,0,0,0,0,0,0,0,0,0,0,0,0,0,0,0,0,0,0,0,0,0,0,0,0,0,0,0,0,0,0,0,0,0,0,0,0,0,0,0,0,0,0,0,0,0,0,0,0,0,0,0,0,0,0,0,0,0,0,0,0,0,0,0,0,0,0,0,0,0,0,0,0,0],"sum_hessian":[6.57E2,2.93E2,3.64E2,3.9E1,2.54E2,1.28E2,2.36E2,3.6E1,3E0,1.4E2,1.14E2,8.3E1,4.5E1,7.7E1,1.59E2,1.6E1,2E1,1E0,2E0,1.36E2,4E0,1.9E1,9.5E1,6.8E1,1.5E1,2.8E1,1.7E1,3.4E1,4.3E1,5.5E1,1.04E2,9E0,7E0,5E0,1.5E1,3.6E1,1E2,2E0,2E0,8E0,1.1E1,3.8E1,5.7E1,4E0,6.4E1,5E0,1E1,3E0,2.5E1,5E0,1.2E1,2.4E1,1E1,2.1E1,2.2E1,2.8E1,2.7E1,9.9E1,5E0,4E0,5E0,1E0,6E0,2E0,3E0,6E0,9E0,2.9E1,7E0,7E0,9.3E1,4E0,4E0,4E0,7E0,5E0,3.3E1,1.7E1,4E1,2E0,2E0,2E1,4.4E1,2E0,3E0,5E0,5E0,3E0,2.2E1,4E0,1E0,3E0,9E0,6E0,1.8E1,3E0,7E0,1.4E1,7E0,1E0,2.1E1,1E1,1.8E1,1.3E1,1.4E1,2.7E1,7.2E1,2E0,3E0],"tree_param":{"num_deleted":"0","num_feature":"60","num_nodes":"109","size_leaf_vector":"0"}},{"base_weights":[-6.891979E-3,7.5634667E-3,-7.521259E-2,7.347191E-2,-1.3100777E-2,1.6711125E-2,-1.5406208E-1,7.30713E-1,5.749382E-2,-1.132895E-1,1.45988725E-2,2.1590656E-1,-2.262518E-2,4.6022896E-2,-2.0300293E-1,-3.8872266E-3,2.0297228E-1,-2.8391096E-1,-1.4258506E-2,-1.7227924E-1,3.3426296E-2,1.0582156E-1,3.2705742E-1,-1.0737411E-1,3.5691064E-2,1.03097655E-1,-3.774726E-2,-3.592619E-1,-1.2577017E-1,2.572103E-2,-2.0095167E-1,2.5551373E-1,-6.621326E-2,-1.0655019E-1,-6.289461E-1,-2.4518158E-1,3.315964E-2,-5.1752454E-1,-4.4703506E-2,4.3791227E-2,-2.6842636E-1,1.17973365E-1,2.2531264E-2,-1.2451973E-3,-2.2515677E-1,-1.835987E-1,5.9620995E-2,1.2573272E-1,2.346162E-2,-7.736377E-2,2.7657168E-2,-1.1689348E-1,-5.347825E-1,-2.330097E-3,-2.4222301E-1,3.8924072E-2,-3.2613173E-1,5.6222282E-2,-2.9292324E-1,3.6209664E-1,7.1885124E-2,-1.7118545E-2,-8.242743E-2,-3.872324E-2,-4.190474E-1,-1.3722885E-1,-1.1915611E0,-3.9262483E-1,-8.144861E-2,1.2019806E-1,-8.8615306E-2,-6.4692926E-1,-2.2638756E-1,-2.914906E-1,8.148401E-2,-3.4973413E-1,5.0565295E-2,-1.4097348E-1,-4.243623E-1,-6.590934E-2,6.362648E-2,-2.639228E-1,-1.107185E-1,1.3239874E-1,5.8599855E-3,4.2768504E-2,-1.2827516E-3,-2.3182014E-1,-1.5734524E-3,-1.965004E-1,-6.7117345E-1,-1.01746604E-1,1.0839159E-1,-2.8234858E-2,-2.831383E-1],"categories":[],"categories_nodes":[],"categories_segments":[],"categories_sizes":[],"default_left":[1,1,1,1,1,1,1,0,1,1,1,1,1,1,1,1,1,1,1,1,1,1,0,1,1,1,1,1,1,1,1,1,1,1,1,1,1,1,1,1,1,0,0,1,1,0,1,0,0,0,1,1,1,1,1,0,0,0,0,0,0,0,0,0,0,0,0,0,0,0,0,0,0,0,0,0,0,0,0,0,0,0,0,0,0,0,0,0,0,0,0,0,0,0,0],"id":12,"left_children":[1,3,5,7,9,11,13,-1,15,17,19,21,23,25,27,29,31,33,35,37,39,41,-1,43,45,47,49,51,53,55,57,59,61,63,65,67,69,71,73,75,77,-1,-1,79,81,-1,83,-1,-1,-1,85,87,89,91,93,-1,-1,-1,-1,-1,-1,-1,-1,-1,-1,-1,-1,-1,-1,-1,-1,-1,-1,-1,-1,-1,-1,-1,-1,-1,-1,-1,-1,-1,-1,-1,-1,-1,-1,-1,-1,-1,-1,-1,-1],"loss_changes":[6.5041286E-1,7.418623E-1,8.3611035E-1,1.3231778E0,1.1533588E0,4.2800805E-1,6.1646724E-1,0E0,1.1437805E0,1.5166651E0,1.1527679E0,7.5514674E-2,2.311753E-1,6.6046745E-2,5.582309E-1,5.3612953E-1,5.5436766E-1,1.9524436E0,6.4322686E-1,1.2982126E0,9.4097334E-1,3.4146756E-3,0E0,2.3722237E-1,1.5787883E-1,1.1470646E-2,1.7686233E-2,6.181381E-1,5.0255877E-1,3.8433647E-1,3.003011E-1,6.002641E-1,4.1611753E-3,4.7127497E-1,2.8796053E0,2.0943451E-1,5.3000724E-1,1.5493917E-1,7.400052E-1,7.854255E-1,1.3892102E-1,0E0,0E0,5.0337166E-2,1.0705769E-2,0E0,1.0095188E-1,0E0,0E0,0E0,1.3668239E-3,1.0566202E-1,2.8336167E-1,2.0916462E-1,1.4960265E-1,0E0,0E0,0E0,0E0,0E0,0E0,0E0,0E0,0E0,0E0,0E0,0E0,0E0,0E0,0E0,0E0,0E0,0E0,0E0,0E0,0E0,0E0,0E0,0E0,0E0,0E0,0E0,0E0,0E0,0E0,0E0,0E0,0E0,0E0,0E0,0E0,0E0,0E0,0E0,0E0],"parents":[2147483647,0,0,1,1,2,2,3,3,4,4,5,5,6,6,8,8,9,9,10,10,11,11,12,12,13,13,14,14,15,15,16,16,17,17,18,18,19,19,20,20,21,21,23,23,24,24,25,25,26,26,27,27,28,28,29,29,30,30,31,31,32,32,33,33,34,34,35,35,36,36,37,37,38,38,39,39,40,40,43,43,44,44,46,46,50,50,51,51,52,52,53,53,54,54],"right_children":[2,4,6,8,10,12,14,-1,16,18,20,22,24,26,28,30,32,34,36,38,40,42,-1,44,46,48,50,52,54,56,58,60,62,64,66,68,70,72,74,76,78,-1,-1,80,82,-1,84,-1,-1,-1,86,88,90,92,94,-1,-1,-1,-1,-1,-1,-1,-1,-1,-1,-1,-1,-1,-1,-1,-1,-1,-1,-1,-1,-1,-1,-1,-1,-1,-1,-1,-1,-1,-1,-1,-1,-1,-1,-1,-1,-1,-1,-1,-1],"split_conditions":[4.9586803E-1,-3.7627745E-1,-1.3269824E-1,-2.7590804E0,-3.7951678E-1,-8.5830355E-1,-7.582253E-1,2.1921392E-1,2.7646464E-1,-2.9773495E-1,-1.0746865E0,3.6955118E-1,-3.1597412E-1,3.8647997E-1,-3.9838994E-1,1.3381305E0,1.0192024E0,1.161318E-1,-7.6570463E-1,-4.319872E-1,1.8240304E0,4.782424E-1,9.811723E-2,-5.550995E-1,-8.9179057E-1,-1.03657246E-1,7.744589E-1,7.614738E-1,-1.0989633E-1,2.830685E0,-7.331303E-1,1.218995E-1,-1.2638692E0,6.1017406E-1,-1.3159997E-2,-4.6552706E-1,1.4395979E-1,-3.400793E-1,-2.8803658E-1,-3.693244E-1,-9.820004E-2,3.5392012E-2,6.7593795E-3,-5.6650746E-1,7.707434E-2,-5.5079613E-2,-2.0389363E-1,3.7719816E-2,7.038486E-3,-2.320913E-2,1.5218785E0,3.8591582E-2,-8.017954E-2,-1.639996E-2,-3.2018307E-1,1.1677222E-2,-9.783953E-2,1.6866686E-2,-8.7876976E-2,1.08628996E-1,2.1565538E-2,-5.1355637E-3,-2.472823E-2,-1.1616973E-2,-1.2571423E-1,-4.1168656E-2,-3.5746834E-1,-1.1778745E-1,-2.4434583E-2,3.605942E-2,-2.6584594E-2,-1.9407879E-1,-6.7916274E-2,-8.744719E-2,2.4445204E-2,-1.04920246E-1,1.5169589E-2,-4.2292044E-2,-1.273087E-1,-1.9772803E-2,1.9087946E-2,-7.917684E-2,-3.3215553E-2,3.9719623E-2,1.7579957E-3,1.2830552E-2,-3.848255E-4,-6.9546044E-2,-4.7203572E-4,-5.8950122E-2,-2.0135204E-1,-3.0523982E-2,3.2517478E-2,-8.470458E-3,-8.494149E-2],"split_indices":[30,4,58,43,7,34,1,0,9,52,57,56,45,10,45,54,15,31,49,6,43,2,0,45,41,0,0,30,8,57,12,18,4,9,22,13,27,9,48,4,22,0,0,2,15,0,22,0,0,0,0,13,34,27,14,0,0,0,0,0,0,0,0,0,0,0,0,0,0,0,0,0,0,0,0,0,0,0,0,0,0,0,0,0,0,0,0,0,0,0,0,0,0,0,0],"split_type":[0,0,0,0,0,0,0,0,0,0,0,0,0,0,0,0,0,0,0,0,0,0,0,0,0,0,0,0,0,0,0,0,0,0,0,0,0,0,0,0,0,0,0,0,0,0,0,0,0,0,0,0,0,0,0,0,0,0,0,0,0,0,0,0,0,0,0,0,0,0,0,0,0,0,0,0,0,0,0,0,0,0,0,0,0,0,0,0,0,0,0,0,0,0,0],"sum_hessian":[6.57E2,5.43E2,1.14E2,1.29E2,4.14E2,5.3E1,6.1E1,2E0,1.27E2,8.9E1,3.25E2,8E0,4.5E1,1.2E1,4.9E1,9E1,3.7E1,3.2E1,5.7E1,2.9E1,2.96E2,5E0,3E0,1.8E1,2.7E1,7E0,5E0,1.5E1,3.4E1,7.9E1,1.1E1,3.1E1,6E0,2.2E1,1E1,9E0,4.8E1,7E0,2.2E1,2.87E2,9E0,4E0,1E0,1E1,8E0,2E0,2.5E1,5E0,2E0,3E0,2E0,7E0,8E0,1.7E1,1.7E1,7.7E1,2E0,3E0,8E0,1.9E1,1.2E1,2E0,4E0,1.9E1,3E0,6E0,4E0,4E0,5E0,2.8E1,2E1,4E0,3E0,7E0,1.5E1,4E0,2.83E2,6E0,3E0,5E0,5E0,5E0,3E0,1E1,1.5E1,1E0,1E0,3E0,4E0,3E0,5E0,9E0,8E0,3E0,1.4E1],"tree_param":{"num_deleted":"0","num_feature":"60","num_nodes":"95","size_leaf_vector":"0"}},{"base_weights":[-7.050596E-3,3.805414E-1,-8.812373E-3,2.3291312E-1,-1.1402013E-2,2.9744196E-1,-7.712999E-2,-2.3029783E-1,-6.221448E-3,-6.178102E-2,-4.7277623E-1,2.8848456E-2,-2.5756206E-2,5.203367E-2,-1.4632976E-1,-5.3841573E-1,-7.228929E-2,-3.783706E-2,8.6082734E-2,-3.7757095E-4,-9.4736524E-2,6.574411E-2,-1.4040396E-3,-2.7997583E-2,-1.9849645E-1,-1.7559098E-1,2.144244E-2,1.465296E-1,-5.1002954E-3,-1.09118946E-1,2.3936061E-2,-7.4473694E-2,-7.926194E-1],"categories":[],"categories_nodes":[],"categories_segments":[],"categories_sizes":[],"default_left":[1,0,1,1,1,0,0,1,1,1,1,1,1,1,1,0,0,1,1,1,1,0,0,0,0,0,0,0,0,0,0,0,0],"id":13,"left_children":[1,-1,3,5,7,-1,-1,9,11,13,15,17,19,21,23,-1,-1,25,27,29,31,-1,-1,-1,-1,-1,-1,-1,-1,-1,-1,-1,-1],"loss_changes":[4.5266908E-1,0E0,4.132999E-1,1.6298878E-1,7.356698E-1,0E0,0E0,5.837167E-1,4.3645525E-1,1.0384296E-1,1.1880493E-1,8.73464E-1,7.159704E-1,3.7555806E-3,3.1480566E-2,0E0,0E0,8.6935925E-1,6.786901E-1,7.9578114E-1,1.4964894E0,0E0,0E0,0E0,0E0,0E0,0E0,0E0,0E0,0E0,0E0,0E0,0E0],"parents":[2147483647,0,0,2,2,3,3,4,4,7,7,8,8,9,9,10,10,11,11,12,12,13,13,14,14,17,17,18,18,19,19,20,20],"right_children":[2,-1,4,6,8,-1,-1,10,12,14,16,18,20,22,24,-1,-1,26,28,30,32,-1,-1,-1,-1,-1,-1,-1,-1,-1,-1,-1,-1],"split_conditions":[-3.9515738E0,1.1416243E-1,-2.8834224E0,1.3422383E0,-1.7773163E0,8.9232594E-2,-2.3138998E-2,2.1164688E-1,-2.136088E-1,-9.702847E-1,6.616541E-1,-9.181373E-2,2.9430765E-1,-6.018596E-2,-2.3643196E-1,-1.6152473E-1,-2.1686787E-2,-3.3853078E-1,1.18914545E-1,-4.7371855E-1,1.2070738E0,1.9723233E-2,-4.2121188E-4,-8.399275E-3,-5.9548937E-2,-5.2677296E-2,6.432732E-3,4.395888E-2,-1.5300887E-3,-3.2735687E-2,7.180819E-3,-2.2342108E-2,-2.3778583E-1],"split_indices":[24,0,59,2,59,0,0,0,16,38,0,51,39,0,1,0,0,31,53,44,36,0,0,0,0,0,0,0,0,0,0,0,0],"split_type":[0,0,0,0,0,0,0,0,0,0,0,0,0,0,0,0,0,0,0,0,0,0,0,0,0,0,0,0,0,0,0,0,0],"sum_hessian":[6.57E2,2E0,6.55E2,6E0,6.49E2,5E0,1E0,1.4E1,6.35E2,9E0,5E0,2.27E2,4.08E2,4E0,5E0,4E0,1E0,1.05E2,1.22E2,2.99E2,1.09E2,3E0,1E0,2E0,3E0,3.1E1,7.4E1,7.3E1,4.9E1,5.4E1,2.45E2,1.07E2,2E0],"tree_param":{"num_deleted":"0","num_feature":"60","num_nodes":"33","size_leaf_vector":"0"}},{"base_weights":[-5.453806E-3,-2.7756814E-2,2.2596393E-2,2.2944053E-1,-3.560391E-2,-2.2733081E-2,6.685435E-2,-5.7664763E-2,4.7830573E-1,-5.704351E-2,6.1586957E-2,2.2728683E-2,-8.062576E-2,1.1782083E-1,-6.902941E-2,7.9580486E-2,-1.461825E-1,2.5513807E-1,6.1642736E-1,-1.1590775E-1,-1.6119648E-2,3.521444E-1,8.601931E-3,3.707875E-1,4.8177475E-3,2.517742E-3,-1.8761447E-1,-2.9406039E-2,1.6023572E-1,-5.842378E-1,-4.1543256E-2,-1.7707133E-1,-2.6758019E-2,-1.7113006E-1,-2.0067675E-2,-2.95445E-1,-4.3851407E-3,4.3253922E-1,2.0376697E-2,1.98762E-1,-4.7777224E-2,-1.193434E-3,4.9517894E-1,-7.840281E-2,5.4653727E-2,3.656339E-2,-3.9552072E-1,-3.7174192E-1,-1.0853666E-1,1.3007213E-1,-1.1210589E-1,3.7992725E-1,1.18343696E-1,5.565702E-2,-1.321367E-1,-2.23916E-1,-9.872343E-4,2.0485591E-2,-2.1018723E-1,-5.2130777E-1,4.2790025E-3,-1.296516E-1,1.9464012E-2,5.5263925E-1,2.4995139E-1,3.0204654E-5,3.0534841E-2,6.304536E-3,4.2224497E-1,4.9378322E-3,-2.2750221E-1,-1.13684796E-1,8.167261E-2,1.5296751E-1,-4.198083E-2,-3.1757083E-2,1.4131247E-1,-6.53938E-2,-4.0616396E-1,4.6409808E-2,-1.7360923E-1,2.1469115E-1,5.198077E-2,-2.998225E-1,-3.1283665E-2,5.241108E-1,4.441143E-2,3.8473433E-1,8.373649E-2,1.3502814E-1,-8.0278166E-2,1.3087435E-2,-2.4214542E-1],"categories":[],"categories_nodes":[],"categories_segments":[],"categories_sizes":[],"default_left":[1,1,1,1,1,1,1,1,1,1,1,1,1,1,1,0,1,0,0,1,1,1,1,1,1,1,1,1,1,0,1,0,0,1,1,1,1,1,1,1,1,0,0,1,1,1,0,1,1,1,1,1,1,1,1,0,0,0,0,0,0,0,0,0,0,0,0,0,0,0,0,0,0,0,0,0,0,0,0,0,0,0,0,0,0,0,0,0,0,0,0,0,0],"id":14,"left_children":[1,3,5,7,9,11,13,15,17,19,21,23,25,27,29,-1,31,-1,-1,33,35,37,39,41,43,45,47,49,51,-1,53,-1,-1,55,57,59,61,63,65,67,69,-1,-1,71,73,75,-1,77,79,81,83,85,87,89,91,-1,-1,-1,-1,-1,-1,-1,-1,-1,-1,-1,-1,-1,-1,-1,-1,-1,-1,-1,-1,-1,-1,-1,-1,-1,-1,-1,-1,-1,-1,-1,-1,-1,-1,-1,-1,-1,-1],"loss_changes":[4.1227454E-1,7.4886763E-1,5.8732724E-1,8.13537E-1,7.474059E-1,3.834585E-1,1.0331097E0,8.4525116E-2,2.7671576E-2,7.0395464E-1,9.976584E-1,5.0940645E-1,5.69779E-1,6.7912984E-1,5.563339E-1,0E0,1.0017447E-2,0E0,0E0,6.316669E-1,5.6903213E-1,2.5791037E-1,6.098759E-1,1.8567598E-1,3.3192787E-1,5.158662E-1,3.673435E-1,3.443024E-1,7.28117E-1,0E0,3.5958263E-1,0E0,0E0,6.8234634E-1,3.512544E-1,4.7610605E-1,5.044234E-1,3.7297487E-2,6.1912555E-4,5.564804E-1,4.179887E-1,0E0,0E0,1.787183E-1,4.8144716E-1,2.549654E-1,0E0,5.7800293E-2,2.1979523E-1,4.831232E-2,2.485389E-1,6.056098E-1,6.3155437E-1,2.2662634E-1,3.3866337E-1,0E0,0E0,0E0,0E0,0E0,0E0,0E0,0E0,0E0,0E0,0E0,0E0,0E0,0E0,0E0,0E0,0E0,0E0,0E0,0E0,0E0,0E0,0E0,0E0,0E0,0E0,0E0,0E0,0E0,0E0,0E0,0E0,0E0,0E0,0E0,0E0,0E0,0E0],"parents":[2147483647,0,0,1,1,2,2,3,3,4,4,5,5,6,6,7,7,8,8,9,9,10,10,11,11,12,12,13,13,14,14,16,16,19,19,20,20,21,21,22,22,23,23,24,24,25,25,26,26,27,27,28,28,30,30,33,33,34,34,35,35,36,36,37,37,38,38,39,39,40,40,43,43,44,44,45,45,47,47,48,48,49,49,50,50,51,51,52,52,53,53,54,54],"right_children":[2,4,6,8,10,12,14,16,18,20,22,24,26,28,30,-1,32,-1,-1,34,36,38,40,42,44,46,48,50,52,-1,54,-1,-1,56,58,60,62,64,66,68,70,-1,-1,72,74,76,-1,78,80,82,84,86,88,90,92,-1,-1,-1,-1,-1,-1,-1,-1,-1,-1,-1,-1,-1,-1,-1,-1,-1,-1,-1,-1,-1,-1,-1,-1,-1,-1,-1,-1,-1,-1,-1,-1,-1,-1,-1,-1,-1,-1],"split_conditions":[6.260598E-2,-1.7409776E0,-1.3199133E-1,-1.1483592E-1,5.445458E-1,-4.2536223E-1,3.3171332E-1,-2.6361507E-1,3.6901116E-1,-1.6849183E-1,5.8405924E-1,-1.4310932E0,-3.547381E-2,-5.022416E-1,8.498523E-2,2.3874147E-2,-5.972147E-2,7.6541424E-2,1.8492821E-1,1.9512376E-1,-2.0598812E0,4.6469215E-2,-5.007808E-1,3.5973623E-2,-2.7745336E-1,8.486521E-1,-2.2515339E-1,-4.3016902E-1,-1.9507825E-1,-1.7527135E-1,2.2486156E-1,-5.3121403E-2,-8.027406E-3,3.76554E-1,4.2657608E-1,1.6050816E-1,-5.6393063E-1,-1.5865591E-1,-3.9036632E-1,1.383861E-1,3.7558094E-1,-3.580302E-4,1.4855368E-1,4.883912E-1,-5.721695E-2,1.4706859E-1,-1.1865622E-1,-4.6375465E-1,-2.9697442E-1,-3.760044E-1,-4.66748E-1,3.4338713E-2,9.170869E-2,5.9573436E-1,-3.215236E-1,-6.71748E-2,-2.961703E-4,6.1456775E-3,-6.305617E-2,-1.5639234E-1,1.2837008E-3,-3.8895484E-2,5.839204E-3,1.6579178E-1,7.498542E-2,9.061397E-6,9.1604525E-3,1.8913609E-3,1.2667349E-1,1.4813497E-3,-6.825066E-2,-3.410544E-2,2.4501784E-2,4.5890257E-2,-1.2594249E-2,-9.527125E-3,4.239374E-2,-1.961814E-2,-1.21849194E-1,1.3922943E-2,-5.208277E-2,6.440735E-2,1.5594232E-2,-8.9946754E-2,-9.3851E-3,1.5723324E-1,1.3323429E-2,1.15420304E-1,2.5120948E-2,4.050844E-2,-2.408345E-2,3.9262306E-3,-7.264363E-2],"split_indices":[57,50,26,38,19,26,39,4,2,45,19,38,48,25,57,0,0,0,0,4,15,52,53,0,3,36,45,5,25,0,16,0,0,50,20,23,22,13,0,2,29,0,0,52,10,15,0,1,49,4,7,33,57,3,1,0,0,0,0,0,0,0,0,0,0,0,0,0,0,0,0,0,0,0,0,0,0,0,0,0,0,0,0,0,0,0,0,0,0,0,0,0,0],"split_type":[0,0,0,0,0,0,0,0,0,0,0,0,0,0,0,0,0,0,0,0,0,0,0,0,0,0,0,0,0,0,0,0,0,0,0,0,0,0,0,0,0,0,0,0,0,0,0,0,0,0,0,0,0,0,0,0,0,0,0,0,0,0,0,0,0,0,0,0,0,0,0,0,0,0,0,0,0,0,0,0,0,0,0,0,0,0,0,0,0,0,0,0,0],"sum_hessian":[6.57E2,3.66E2,2.91E2,1E1,3.56E2,1.44E2,1.47E2,5E0,5E0,2.92E2,6.4E1,8.1E1,6.3E1,1.07E2,4E1,2E0,3E0,3E0,2E0,1.19E2,1.73E2,9E0,5.5E1,3E0,7.8E1,3.6E1,2.7E1,2.4E1,8.3E1,1E0,3.9E1,2E0,1E0,7.5E1,4.4E1,6E0,1.67E2,7E0,2E0,1.2E1,4.3E1,1E0,2E0,2.9E1,4.9E1,3.4E1,2E0,7E0,2E1,8E0,1.6E1,1.2E1,7.1E1,1.9E1,2E1,5.7E1,1.8E1,3.7E1,7E0,3E0,3E0,2.6E1,1.41E2,3E0,4E0,1E0,1E0,7E0,5E0,3.4E1,9E0,2.4E1,5E0,2.4E1,2.5E1,2.1E1,1.3E1,1E0,6E0,6E0,1.4E1,3E0,5E0,4E0,1.2E1,8E0,4E0,7E0,6.4E1,1.2E1,7E0,9E0,1.1E1],"tree_param":{"num_deleted":"0","num_feature":"60","num_nodes":"93","size_leaf_vector":"0"}},{"base_weights":[-3.5227304E-3,-8.949646E-3,7.430291E-2,2.3293851E-2,-3.0017912E-2,1.4640303E-1,-7.0044175E-2,-2.9286005E-2,5.4212507E-2,-1.0018271E-1,-7.6768924E-3,9.8959215E-2,5.2459633E-1,-1.0807716E-1,6.1565816E-2,1.0884255E-2,-1.07386E-1,1.6436894E-1,8.655667E-3,-1.20306194E-1,2.6597768E-1,-8.119594E-2,2.5745925E-2,3.773095E-2,2.3965998E-1,-1.9657075E-2,-1.4983007E-1,-1.3374521E-1,5.2841093E-2,4.7606792E-2,-2.2197007E-1,2.2433864E-2,2.876274E-1,4.8324037E-2,-9.8737456E-2,-1.9096181E-4,-2.1100155E-1,3.5830063E-1,8.499549E-2,1.1943519E-1,-1.11021295E-1,1.0509059E-1,-1.7226946E-2,-8.881563E-2,8.583418E-2,-4.3270513E-3,3.2171017E-1,6.9970787E-3,-3.9758872E-2,-1.780175E-1,-4.351185E-2,-1.601891E-3,-2.0698018E-1,9.233388E-2,-7.3331766E-2,9.9366136E-2,-6.543325E-2,-6.5582186E-2,-2.7707446E-1,9.044806E-2,-6.822798E-2,9.9834114E-2,4.3884987E-1,2.3559716E-2,1.557164E-1,-3.1068078E-1,-2.0725114E-2,-4.4661185E-1,3.7016083E-2,-6.240133E-2,-2.952726E-1,2.530689E-1,-1.2170158E-2,-1.7543668E-1,-2.6869917E-2,-2.4915643E-2,1.6647469E-1,-3.2817017E-2,4.7426954E-1,-1.4982486E-1,-4.6648808E-2,1.09426044E-1,-4.500858E-2,2.1095578E-2,-2.7586155E-2,9.478131E-2,3.4813967E-1,-4.711049E-2,-1.2527816E-2],"categories":[],"categories_nodes":[],"categories_segments":[],"categories_sizes":[],"default_left":[1,1,1,1,1,1,1,1,1,1,1,1,0,1,0,1,1,1,1,1,1,1,1,1,1,1,1,1,1,1,1,1,1,1,1,1,1,0,0,1,1,1,1,1,1,1,1,0,1,0,0,0,0,0,0,0,0,0,0,0,0,0,0,0,0,0,0,0,0,0,0,0,0,0,0,0,0,0,0,0,0,0,0,0,0,0,0,0,0],"id":15,"left_children":[1,3,5,7,9,11,13,15,17,19,21,23,-1,25,-1,27,29,31,33,35,37,39,41,43,45,47,49,51,53,55,57,59,61,63,65,67,69,-1,-1,71,73,75,77,79,81,83,85,-1,87,-1,-1,-1,-1,-1,-1,-1,-1,-1,-1,-1,-1,-1,-1,-1,-1,-1,-1,-1,-1,-1,-1,-1,-1,-1,-1,-1,-1,-1,-1,-1,-1,-1,-1,-1,-1,-1,-1,-1,-1],"loss_changes":[2.7857336E-1,4.1915703E-1,4.5777467E-1,3.982581E-1,5.839282E-1,4.6843147E-1,8.173667E-2,2.8666288E-1,7.714077E-1,6.951567E-1,6.9993913E-1,2.235587E-1,0E0,4.1356325E-2,0E0,3.7722716E-1,5.611181E-1,7.808089E-1,4.7338352E-1,9.368346E-1,5.3090096E-2,5.458265E-1,6.701053E-1,1.2936941E-1,1.6154549E-1,2.9571778E-3,1.622884E-2,1.3515359E-1,2.459511E-1,8.841413E-2,1.3694668E-1,1.4182952E-1,6.3775337E-1,2.1175082E-1,4.8958692E-1,6.477119E-1,5.951867E-1,0E0,0E0,2.1412283E-1,4.1809624E-1,5.5478966E-1,9.963597E-1,8.446235E-3,5.1227465E-2,2.3558685E-3,2.988577E-3,0E0,1.0385644E-5,0E0,0E0,0E0,0E0,0E0,0E0,0E0,0E0,0E0,0E0,0E0,0E0,0E0,0E0,0E0,0E0,0E0,0E0,0E0,0E0,0E0,0E0,0E0,0E0,0E0,0E0,0E0,0E0,0E0,0E0,0E0,0E0,0E0,0E0,0E0,0E0,0E0,0E0,0E0,0E0],"parents":[2147483647,0,0,1,1,2,2,3,3,4,4,5,5,6,6,7,7,8,8,9,9,10,10,11,11,13,13,15,15,16,16,17,17,18,18,19,19,20,20,21,21,22,22,23,23,24,24,25,25,26,26,27,27,28,28,29,29,30,30,31,31,32,32,33,33,34,34,35,35,36,36,39,39,40,40,41,41,42,42,43,43,44,44,45,45,46,46,48,48],"right_children":[2,4,6,8,10,12,14,16,18,20,22,24,-1,26,-1,28,30,32,34,36,38,40,42,44,46,48,50,52,54,56,58,60,62,64,66,68,70,-1,-1,72,74,76,78,80,82,84,86,-1,88,-1,-1,-1,-1,-1,-1,-1,-1,-1,-1,-1,-1,-1,-1,-1,-1,-1,-1,-1,-1,-1,-1,-1,-1,-1,-1,-1,-1,-1,-1,-1,-1,-1,-1,-1,-1,-1,-1,-1,-1],"split_conditions":[1.1595747E0,-1.5944844E-1,6.233954E-1,-2.8069443E-1,-3.4419984E-1,5.3660715E-1,6.6046464E-1,3.4368643E-1,-2.9540578E-1,1.1725231E0,-3.3650535E-1,1.3617998E-1,1.5737891E-1,-6.059408E-1,1.8469745E-2,-6.0884535E-1,-1.4109494E-1,-1.18648544E-1,2.2949483E-1,-1.5160489E-1,5.9111174E-2,-1.5813149E0,-2.0608681E-1,-3.9543468E-1,-8.1383824E-1,-9.511144E-1,2.2721514E-1,-4.456742E-1,5.732093E-1,2.7871045E-1,-5.702024E-1,1.7025876E-1,-3.518116E-1,5.2149004E-1,-5.74317E-1,-1.6802456E0,-1.8940565E-1,1.0749019E-1,2.549865E-2,-1.5835926E-1,6.327872E-3,-2.1569864E-1,1.1278439E0,-3.7801564E-1,4.032325E-1,-2.5532013E-1,-1.485105E0,2.0991238E-3,-2.6194632E-2,-5.340525E-2,-1.3053555E-2,-4.805673E-4,-6.209406E-2,2.7700165E-2,-2.199953E-2,2.9809842E-2,-1.9629976E-2,-1.9674657E-2,-8.312234E-2,2.7134418E-2,-2.0468393E-2,2.9950235E-2,1.3165496E-1,7.067915E-3,4.6714924E-2,-9.320424E-2,-6.2175347E-3,-1.3398357E-1,1.1104825E-2,-1.87204E-2,-8.858178E-2,7.592067E-2,-3.6510476E-3,-5.2631006E-2,-8.060976E-3,-7.474693E-3,4.9942408E-2,-9.845106E-3,1.4228086E-1,-4.494746E-2,-1.39946425E-2,3.2827813E-2,-1.35025745E-2,6.3286736E-3,-8.275847E-3,2.8434394E-2,1.044419E-1,-1.4133148E-2,-3.758345E-3],"split_indices":[59,29,25,9,35,25,33,45,6,2,19,15,0,41,0,37,34,49,55,9,4,19,59,54,13,0,13,58,8,43,51,21,23,2,48,53,16,0,0,14,15,39,55,0,3,0,1,0,0,0,0,0,0,0,0,0,0,0,0,0,0,0,0,0,0,0,0,0,0,0,0,0,0,0,0,0,0,0,0,0,0,0,0,0,0,0,0,0,0],"split_type":[0,0,0,0,0,0,0,0,0,0,0,0,0,0,0,0,0,0,0,0,0,0,0,0,0,0,0,0,0,0,0,0,0,0,0,0,0,0,0,0,0,0,0,0,0,0,0,0,0,0,0,0,0,0,0,0,0,0,0,0,0,0,0,0,0,0,0,0,0,0,0,0,0,0,0,0,0,0,0,0,0,0,0,0,0,0,0,0,0],"sum_hessian":[6.57E2,6.15E2,4.2E1,2.43E2,3.72E2,2.8E1,1.4E1,9E1,1.53E2,8.9E1,2.83E2,2.6E1,2E0,1.1E1,3E0,6E1,3E1,4.4E1,1.09E2,8.5E1,4E0,8.8E1,1.95E2,1.9E1,7E0,4E0,7E0,1.3E1,4.7E1,1.3E1,1.7E1,2.1E1,2.3E1,8E1,2.9E1,3.7E1,4.8E1,2E0,2E0,1.1E1,7.7E1,6.8E1,1.27E2,5E0,1.4E1,2E0,5E0,2E0,2E0,5E0,2E0,5E0,8E0,3.6E1,1.1E1,9E0,4E0,5E0,1.2E1,1.2E1,9E0,1.1E1,1.2E1,6.6E1,1.4E1,7E0,2.2E1,2E0,3.5E1,1.8E1,3E1,5E0,6E0,4.3E1,3.4E1,2.2E1,4.6E1,1.24E2,3E0,1E0,4E0,1.2E1,2E0,1E0,1E0,1E0,4E0,1E0,1E0],"tree_param":{"num_deleted":"0","num_feature":"60","num_nodes":"89","size_leaf_vector":"0"}},{"base_weights":[-2.0900154E-3,-4.0910378E-2,9.157546E-3,9.0224E-2,-6.330444E-2,1.925798E-2,-5.80641E-2,1.8822744E-1,-2.4891023E-2,-9.3927115E-2,2.6770048E-2,-5.296533E-4,6.9359444E-2,4.3123282E-2,-9.333028E-2,4.524915E-2,2.8389063E-1,9.152638E-2,-6.0931157E-2,-1.3944049E-1,-1.1920157E-2,8.209267E-2,-1.2987836E-1,-3.4353346E-2,5.2510135E-2,-1.1307351E-2,1.3001658E-1,-7.020114E-2,1.0563559E-1,-2.5162548E-2,-1.5046714E-1,1.4222175E-2,5.7207093E-2,-9.243065E-2,-1.7245434E-2,1.911937E-1,-1.53889E-1,-4.2060815E-2,1.1465115E-1,1.5393181E-2,1.6558355E-1,1.9863069E-2,-1.5107892E-1,-6.841028E-2,4.989794E-2,-1.4215077E-1,7.83426E-2,2.7342241E-2,-2.1188773E-1,-4.2828858E-2,1.7247632E-1,-1.0394004E-1,-1.8911956E-2,1.722402E-1,5.0803263E-2,-1.1144084E-1,4.4424865E-2,-7.916529E-2,-2.211641E-1,5.6382343E-3,-2.4375908E-2,-2.1986641E-1,-7.805491E-2,-1.01621866E-1,5.9600393E-3,1.4611733E-1,-3.7072964E-2,-4.694836E-2,1.1673022E-1,2.2661528E-1,4.702242E-2,-1.7021972E-1,-6.2437687E-2,-1.4707935E-1,-7.5699748E-3,1.114191E-1,-9.185074E-3,-3.4448233E-1,-3.7259083E-2,1.1940389E-2,1.6850857E-1,-2.3186075E-2,1.4810085E-1,2.752293E-3,-4.8087585E-1,6.643275E-2,-8.85997E-2,2.7957863E-1,1.1312959E-1,-5.6161284E-3,-2.1471856E-2,6.7352355E-3,5.613652E-2,-1.4205047E-1,-2.2361346E-2,-4.7844764E-2,1.1960768E-1,-4.0668906E-3,-1.163078E-1,-1.4423001E-1,-3.582083E-1],"categories":[],"categories_nodes":[],"categories_segments":[],"categories_sizes":[],"default_left":[1,1,1,1,1,1,1,1,1,1,1,1,1,1,1,1,0,0,1,1,1,1,1,1,1,1,1,1,1,1,1,0,0,0,1,0,1,1,1,1,1,0,1,1,1,1,1,1,1,1,1,0,1,0,1,1,1,1,1,0,0,0,0,0,0,0,0,0,0,0,0,0,0,0,0,0,0,0,0,0,0,0,0,0,0,0,0,0,0,0,0,0,0,0,0,0,0,0,0,0,0],"id":16,"left_children":[1,3,5,7,9,11,13,15,17,19,21,23,25,27,29,31,-1,-1,33,35,37,39,41,43,45,47,49,51,53,55,57,-1,-1,-1,59,-1,61,63,65,67,69,-1,71,73,75,77,79,81,83,85,87,-1,89,-1,91,93,95,97,99,-1,-1,-1,-1,-1,-1,-1,-1,-1,-1,-1,-1,-1,-1,-1,-1,-1,-1,-1,-1,-1,-1,-1,-1,-1,-1,-1,-1,-1,-1,-1,-1,-1,-1,-1,-1,-1,-1,-1,-1,-1,-1],"loss_changes":[2.876801E-1,4.40333E-1,3.480707E-1,2.5288185E-1,3.528213E-1,4.4120497E-1,2.4311367E-1,1.5128732E-1,5.1729493E-2,3.5291713E-1,2.9664668E-1,5.758844E-1,6.179903E-1,1.3493083E-1,1.9095832E-1,1.4125034E-3,0E0,0E0,1.0790698E-2,3.2083E-1,1.383453E-1,1.3667111E-1,3.1572312E-2,5.658041E-1,6.397078E-1,4.3217275E-1,5.3579295E-1,1.0147378E-2,3.5074666E-2,1.4904393E-1,1.1859375E-1,0E0,0E0,0E0,9.5329434E-4,0E0,2.7803528E-1,8.355066E-2,3.883624E-2,1.002429E-1,6.8939894E-2,0E0,2.9451847E-3,6.689616E-1,2.0821014E-1,3.0550838E-1,6.6256934E-1,2.9021513E-1,5.209441E-1,8.0900855E-2,3.3702946E-1,0E0,1.5555299E-5,0E0,1.5021153E-3,2.6817158E-2,1.0284187E-1,4.1367143E-2,8.539945E-2,0E0,0E0,0E0,0E0,0E0,0E0,0E0,0E0,0E0,0E0,0E0,0E0,0E0,0E0,0E0,0E0,0E0,0E0,0E0,0E0,0E0,0E0,0E0,0E0,0E0,0E0,0E0,0E0,0E0,0E0,0E0,0E0,0E0,0E0,0E0,0E0,0E0,0E0,0E0,0E0,0E0,0E0],"parents":[2147483647,0,0,1,1,2,2,3,3,4,4,5,5,6,6,7,7,8,8,9,9,10,10,11,11,12,12,13,13,14,14,15,15,18,18,19,19,20,20,21,21,22,22,23,23,24,24,25,25,26,26,27,27,28,28,29,29,30,30,34,34,36,36,37,37,38,38,39,39,40,40,42,42,43,43,44,44,45,45,46,46,47,47,48,48,49,49,50,50,52,52,54,54,55,55,56,56,57,57,58,58],"right_children":[2,4,6,8,10,12,14,16,18,20,22,24,26,28,30,32,-1,-1,34,36,38,40,42,44,46,48,50,52,54,56,58,-1,-1,-1,60,-1,62,64,66,68,70,-1,72,74,76,78,80,82,84,86,88,-1,90,-1,92,94,96,98,100,-1,-1,-1,-1,-1,-1,-1,-1,-1,-1,-1,-1,-1,-1,-1,-1,-1,-1,-1,-1,-1,-1,-1,-1,-1,-1,-1,-1,-1,-1,-1,-1,-1,-1,-1,-1,-1,-1,-1,-1,-1,-1],"split_conditions":[-4.5035487E-1,-8.781148E-1,5.961206E-1,-3.2960653E-2,2.7680755E-1,2.2779422E-1,-4.5084643E-1,-3.5008547E-1,-7.613337E-1,2.748884E-1,3.9127356E-1,1.6666584E-1,-1.199647E-1,-3.2552135E-1,1.0406157E-1,-6.3198876E-1,8.516719E-2,2.7457915E-2,-1.4734003E-1,-2.7015996E0,6.249224E-1,1.7986092E-1,-1.660831E-1,1.683114E-1,-7.293837E-1,4.069313E-1,-5.033504E-1,-4.298152E-1,-7.1605086E-1,-2.7980933E-1,6.1526567E-2,4.2666527E-3,1.716213E-2,-2.7729196E-2,-6.930744E-1,5.7358112E-2,-1.07323915E-1,-1.7654836E-1,1.7856327E-1,4.1736948E-1,-1.6487177E-2,5.958921E-3,4.1811627E-1,-1.4792342E-1,-3.153585E-2,-7.9756284E-1,1.2465954E-2,6.939112E-2,1.7843363E-1,-4.025513E-1,-1.821743E-1,-3.1182013E-2,-1.9429781E0,5.167206E-2,-8.1494045E-1,4.3635E-1,-7.846952E-2,-2.5564522E-1,1.0046205E-1,1.6914704E-3,-7.312773E-3,-6.595992E-2,-2.3416474E-2,-3.0486561E-2,1.7880119E-3,4.38352E-2,-1.112189E-2,-1.4084508E-2,3.5019066E-2,6.798459E-2,1.4106727E-2,-5.1065918E-2,-1.8731307E-2,-4.4123806E-2,-2.2709926E-3,3.342573E-2,-2.7555223E-3,-1.033447E-1,-1.1177725E-2,3.582117E-3,5.0552573E-2,-6.9558225E-3,4.4430256E-2,8.256879E-4,-1.4426276E-1,1.9929826E-2,-2.657991E-2,8.387359E-2,3.393888E-2,-1.6848386E-3,-6.4415573E-3,2.0205707E-3,1.6840957E-2,-4.2615145E-2,-6.708404E-3,-1.435343E-2,3.5882305E-2,-1.2200673E-3,-3.4892343E-2,-4.3269005E-2,-1.07462496E-1],"split_indices":[56,42,16,19,16,8,21,2,57,57,11,23,19,2,45,6,0,0,9,44,25,6,0,18,17,36,26,13,27,7,2,0,0,0,5,0,1,8,16,7,42,0,3,45,21,51,22,31,31,36,41,0,1,0,0,22,58,15,17,0,0,0,0,0,0,0,0,0,0,0,0,0,0,0,0,0,0,0,0,0,0,0,0,0,0,0,0,0,0,0,0,0,0,0,0,0,0,0,0,0,0],"split_type":[0,0,0,0,0,0,0,0,0,0,0,0,0,0,0,0,0,0,0,0,0,0,0,0,0,0,0,0,0,0,0,0,0,0,0,0,0,0,0,0,0,0,0,0,0,0,0,0,0,0,0,0,0,0,0,0,0,0,0,0,0,0,0,0,0,0,0,0,0,0,0,0,0,0,0,0,0,0,0,0,0,0,0,0,0,0,0,0,0,0,0,0,0,0,0,0,0,0,0,0,0],"sum_hessian":[6.57E2,1.47E2,5.1E2,2.1E1,1.26E2,4.44E2,6.6E1,1.1E1,1E1,9.4E1,3.2E1,3.19E2,1.25E2,1.7E1,4.9E1,5E0,6E0,2E0,8E0,6E1,3.4E1,2.4E1,8E0,1.95E2,1.24E2,5.4E1,7.1E1,6E0,1.1E1,2.3E1,2.6E1,2E0,3E0,4E0,4E0,2E0,5.8E1,2.8E1,6E0,1.4E1,1E1,1E0,7E0,1.39E2,5.6E1,1.4E1,1.1E2,4.6E1,8E0,1.4E1,5.7E1,3E0,3E0,4E0,7E0,1E1,1.3E1,1.4E1,1.2E1,1E0,3E0,3E1,2.8E1,1.2E1,1.6E1,5E0,1E0,9E0,5E0,6E0,4E0,5E0,2E0,6E1,7.9E1,2.7E1,2.9E1,4E0,1E1,6.4E1,4.6E1,3.3E1,1.3E1,5E0,3E0,4E0,1E1,1.9E1,3.8E1,1E0,2E0,1E0,6E0,7E0,3E0,6E0,7E0,5E0,9E0,9E0,3E0],"tree_param":{"num_deleted":"0","num_feature":"60","num_nodes":"101","size_leaf_vector":"0"}},{"base_weights":[-1.679483E-3,-6.769854E-4,-3.301602E-1,-5.7206894E-3,6.0667995E-2,-1.9493073E-2,2.2683322E-2,-5.0601505E-2,8.3066985E-2,-4.2473227E-2,1.8983504E-2,6.469276E-4,1.2244125E-1,1.2374729E-3,-9.232018E-2,6.6604926E-3,1.2103236E-1,-1.2561168E-2,-9.087585E-2,-3.770111E-2,5.75938E-2,2.2602385E-1,-1.2359735E-2,1.6100705E-5,2.0034742E-1,1.2696867E-2,-1.0634412E-2,3.2658752E-2,-1.08218804E-1,3.914217E-2,1.5776233E-1,2.189333E-2,-5.6058966E-2,-3.1307632E-1,-6.764607E-2,-2.6217258E-1,-4.960526E-3,-3.675474E-2,9.334706E-2,-5.01979E-2,3.7250105E-1,-1.9774151E-1,-1.0030065E-3,-1.19607754E-1,1.538159E-1,1.2067368E-1,2.8388855E-1,4.0930314E-3,6.530326E-2,9.768029E-2,1.2297602E-2,2.3015752E-1,9.6352E-2],"categories":[],"categories_nodes":[],"categories_segments":[],"categories_sizes":[],"default_left":[1,1,0,1,1,1,1,1,1,1,1,1,1,1,0,1,1,1,1,1,1,1,1,1,1,0,0,1,0,1,1,0,0,0,0,0,0,0,0,0,0,0,0,0,0,0,0,0,0,0,0,0,0],"id":17,"left_children":[1,3,-1,5,7,9,11,13,15,17,19,21,23,25,-1,27,29,31,33,35,37,39,41,43,45,-1,-1,47,-1,49,51,-1,-1,-1,-1,-1,-1,-1,-1,-1,-1,-1,-1,-1,-1,-1,-1,-1,-1,-1,-1,-1,-1],"loss_changes":[2.1645662E-1,2.0362677E-1,0E0,2.3828629E-1,1.2881953E-1,3.6332738E-1,4.3738353E-1,1.9578127E-2,1.210275E-1,3.7094873E-1,3.3921728E-1,4.8354346E-1,3.4335303E-1,8.152468E-4,0E0,4.833422E-2,7.804394E-2,2.4101846E-1,4.8466504E-1,4.6170712E-1,3.1377155E-1,3.8284045E-1,3.282332E-1,2.9436943E-1,1.1217487E-1,0E0,0E0,1.1855392E-2,0E0,1.4513071E-2,6.2294275E-2,0E0,0E0,0E0,0E0,0E0,0E0,0E0,0E0,0E0,0E0,0E0,0E0,0E0,0E0,0E0,0E0,0E0,0E0,0E0,0E0,0E0,0E0],"parents":[2147483647,0,0,1,1,3,3,4,4,5,5,6,6,7,7,8,8,9,9,10,10,11,11,12,12,13,13,15,15,16,16,17,17,18,18,19,19,20,20,21,21,22,22,23,23,24,24,27,27,29,29,30,30],"right_children":[2,4,-1,6,8,10,12,14,16,18,20,22,24,26,-1,28,30,32,34,36,38,40,42,44,46,-1,-1,48,-1,50,52,-1,-1,-1,-1,-1,-1,-1,-1,-1,-1,-1,-1,-1,-1,-1,-1,-1,-1,-1,-1,-1,-1],"split_conditions":[5.1434946E0,1.0218886E0,-9.904806E-2,2.0597395E-1,-8.2038355E-1,1.3043216E-1,5.31417E-1,-6.134757E-1,-6.5387714E-1,1.464099E-1,-8.444846E-2,2.3144452E-1,-1.9955246E-1,-5.372981E-1,-2.7696056E-2,7.758379E-1,-2.4241151E-1,8.551757E-2,1.851054E-1,-6.1999416E-1,-3.1810796E-1,-2.5764155E-1,-1.3540337E0,-4.285399E-2,2.3987185E-2,3.8090602E-3,-3.1903237E-3,3.8781175E-1,-3.2465644E-2,-6.5550435E-1,1.877003E-1,6.5679993E-3,-1.681769E-2,-9.39229E-2,-2.0293823E-2,-7.865178E-2,-1.4881578E-3,-1.1026422E-2,2.800412E-2,-1.5059371E-2,1.1175032E-1,-5.9322454E-2,-3.0090194E-4,-3.5882328E-2,4.614477E-2,3.6202107E-2,8.5166566E-2,1.2279095E-3,1.9590978E-2,2.9304089E-2,3.689281E-3,6.904726E-2,2.8905602E-2],"split_indices":[49,42,0,49,56,47,50,5,29,29,18,49,37,3,0,5,9,7,29,59,15,8,24,57,24,0,0,37,0,12,9,0,0,0,0,0,0,0,0,0,0,0,0,0,0,0,0,0,0,0,0,0,0],"split_type":[0,0,0,0,0,0,0,0,0,0,0,0,0,0,0,0,0,0,0,0,0,0,0,0,0,0,0,0,0,0,0,0,0,0,0,0,0,0,0,0,0,0,0,0,0,0,0,0,0,0,0,0,0],"sum_hessian":[6.57E2,6.56E2,1E0,6.07E2,4.9E1,4.09E2,1.98E2,8E0,4.1E1,2.56E2,1.53E2,1.63E2,3.5E1,4E0,4E0,1.4E1,2.7E1,1.59E2,9.7E1,6.2E1,9.1E1,8E0,1.55E2,1.4E1,2.1E1,2E0,2E0,1.2E1,2E0,9E0,1.8E1,8.9E1,7E1,8E0,8.9E1,7E0,5.5E1,2.5E1,6.6E1,3E0,5E0,8E0,1.47E2,8E0,6E0,1.2E1,9E0,7E0,5E0,2E0,7E0,7E0,1.1E1],"tree_param":{"num_deleted":"0","num_feature":"60","num_nodes":"53","size_leaf_vector":"0"}},{"base_weights":[-1.2147797E-3,-3.623328E-4,-2.806362E-1,1.2129691E-1,-2.239231E-3,2.3223686E-1,8.630797E-3,-2.7206004E-2,8.4893145E-3,-3.411752E-2,3.8534336E-2,1.2646411E-3,-7.180168E-2,2.0507637E-1,4.9519865E-3,6.686412E-3,4.6921507E-2,3.8636196E-1,-5.21821E-3,-1.6070315E-1,-3.0189658E-2,4.3187022E-1,5.750004E-2,3.2467067E-2,-1.6663246E-2,-1.3238174E-1,1.1626201E-2,-3.310247E-2,-3.0849466E-1,-5.434208E-2,1.3628942E-1,-2.7348025E-2,1.06761076E-1,-3.211363E-2,5.8343895E-2,-1.06392965E-1,-2.592265E-3],"categories":[],"categories_nodes":[],"categories_segments":[],"categories_sizes":[],"default_left":[1,1,0,1,1,0,1,1,1,0,1,1,1,1,1,0,0,0,1,1,1,0,1,1,1,0,0,0,0,0,0,0,0,0,0,0,0],"id":18,"left_children":[1,3,-1,5,7,-1,9,11,13,-1,15,17,19,21,23,-1,-1,-1,25,27,29,-1,31,33,35,-1,-1,-1,-1,-1,-1,-1,-1,-1,-1,-1,-1],"loss_changes":[1.566286E-1,1.5029232E-1,0E0,1.22987345E-1,1.738024E-1,0E0,8.984651E-3,2.47676E-1,3.1469285E-1,0E0,7.547196E-4,3.0159953E-1,2.763006E-1,2.4292266E-1,2.6639196E-1,0E0,0E0,0E0,2.5643644E-1,4.423871E-1,2.205125E-1,0E0,2.7997924E-2,3.310889E-1,3.1663308E-1,0E0,0E0,0E0,0E0,0E0,0E0,0E0,0E0,0E0,0E0,0E0,0E0],"parents":[2147483647,0,0,1,1,3,3,4,4,6,6,7,7,8,8,10,10,11,11,12,12,13,13,14,14,18,18,19,19,20,20,22,22,23,23,24,24],"right_children":[2,4,-1,6,8,-1,10,12,14,-1,16,18,20,22,24,-1,-1,-1,26,28,30,-1,32,34,36,-1,-1,-1,-1,-1,-1,-1,-1,-1,-1,-1,-1],"split_conditions":[5.1434946E0,-2.7094033E0,-8.419086E-2,-2.4419372E-1,-2.9116663E-1,6.9671065E-2,-2.8556374E-1,1.7025876E-1,-2.5147872E0,-1.02352565E-2,-6.5380657E-1,-3.27687E0,-3.7694532E-1,-2.2559758E-1,-9.536673E-2,2.0059235E-3,1.4076453E-2,1.1590859E-1,-1.1117778E0,-2.0855337E-2,9.4782966E-1,1.2956107E-1,2.0860913E-1,-3.5432345E-1,-1.5369803E-1,-3.9714523E-2,3.4878603E-3,-9.930742E-3,-9.25484E-2,-1.6302625E-2,4.0886827E-2,-8.204408E-3,3.2028325E-2,-9.63409E-3,1.7503168E-2,-3.1917892E-2,-7.776795E-4],"split_indices":[49,45,0,8,42,0,1,56,43,0,2,41,28,3,10,0,0,0,39,14,13,0,3,21,42,0,0,0,0,0,0,0,0,0,0,0,0],"split_type":[0,0,0,0,0,0,0,0,0,0,0,0,0,0,0,0,0,0,0,0,0,0,0,0,0,0,0,0,0,0,0,0,0,0,0,0,0],"sum_hessian":[6.57E2,6.56E2,1E0,9E0,6.47E2,4E0,5E0,1.94E2,4.53E2,2E0,3E0,1.19E2,7.5E1,7E0,4.46E2,1E0,2E0,1E0,1.18E2,2.3E1,5.2E1,2E0,5E0,1.96E2,2.5E2,1.3E1,1.05E2,1.3E1,1E1,4.6E1,6E0,2E0,3E0,5.6E1,1.4E2,3.3E1,2.17E2],"tree_param":{"num_deleted":"0","num_feature":"60","num_nodes":"37","size_leaf_vector":"0"}},{"base_weights":[-6.6543097E-4,-5.9342887E-2,3.0266435E-3,5.2897935E-3,-1.5258297E-1,-8.164647E-3,2.6225276E-2,4.5827117E-2,-1.5791747E-1,-2.2426322E-2,-2.5132412E-1,-5.9018685E-3,-2.4145243E-1,8.05679E-3,1.01953655E-1,1.00355195E-2,1.8648463E-1,-2.5017956E-2,-2.3817782E-1,3.195733E-2,-6.1447978E-2,-6.314259E-2,-2.960699E-1,4.1255306E-2,-1.5891904E-2,-9.626117E-2,-3.3851308E-1,5.6437783E-2,-2.0397995E-2,1.7076786E-1,-1.9533599E-2,5.111244E-2,-3.215646E-2,-3.4600794E-3,-3.4066856E-2,5.5936933E-2,5.318483E-3,-1.777286E-2,-6.7923546E-2,-2.3842514E-2,8.2290456E-2,-2.6876308E-2,5.58522E-2,1.106321E-1,-4.4662684E-2,-4.4747084E-2,6.729868E-2,2.474609E-1,3.0982208E-2,-5.6117237E-2,1.1090742E-2,9.543652E-2,1.3044313E-2,-4.4959206E-2,8.435438E-3,-1.5851259E-3,9.56285E-3,1.9290084E-2,-1.6215783E-1,2.855383E-2,1.5432194E-1,1.8303956E-1,-3.106889E-2,1.1811293E-1,-1.7437365E-2,3.0470826E-3,1.7506123E-1,-1.9650824E-1,2.4561167E-2,-5.743295E-2,7.977627E-2,1.3337795E-1,-1.6913066E-2,3.0692494E-1,1.2716071E-1,1.2694368E-1,-2.827895E-2,-7.615773E-2,-3.2869495E-2,2.7723223E-2,-1.6630664E-2],"categories":[],"categories_nodes":[],"categories_segments":[],"categories_sizes":[],"default_left":[1,1,1,1,1,1,1,1,1,1,1,1,1,1,1,1,0,1,0,1,1,0,0,1,1,0,0,1,1,1,1,1,1,0,0,0,1,0,0,1,1,1,1,1,1,1,1,1,1,1,1,0,0,0,0,0,0,0,0,0,0,0,0,0,0,0,0,0,0,0,0,0,0,0,0,0,0,0,0,0,0],"id":19,"left_children":[1,3,5,7,9,11,13,15,17,19,21,23,25,27,29,31,-1,33,-1,35,37,-1,-1,39,41,-1,-1,43,45,47,49,51,53,-1,-1,-1,55,-1,-1,57,59,61,63,65,67,69,71,73,75,77,79,-1,-1,-1,-1,-1,-1,-1,-1,-1,-1,-1,-1,-1,-1,-1,-1,-1,-1,-1,-1,-1,-1,-1,-1,-1,-1,-1,-1,-1,-1],"loss_changes":[1.4272973E-1,2.3583506E-1,1.6118017E-1,1.6602056E-1,1.9999275E-1,2.1975605E-1,2.7710435E-1,9.881568E-2,4.7374085E-2,1.8940836E-2,5.7088375E-2,1.96634E-1,2.3783758E-2,2.2692522E-1,3.2937762E-1,3.1106576E-2,0E0,4.6735106E-4,0E0,2.2576563E-3,2.0691007E-4,0E0,0E0,1.969668E-1,2.725959E-1,0E0,0E0,3.3916444E-1,2.2508618E-1,2.6034778E-1,1.7427629E-2,1.3941109E-2,5.0564418E-3,0E0,0E0,0E0,1.03062666E-4,0E0,0E0,1.761391E-1,1.6977632E-1,2.6883352E-1,2.1196042E-1,2.767309E-1,2.3607583E-1,1.3411605E-1,1.3024282E-1,7.542783E-2,6.045772E-2,7.5800717E-4,4.610738E-3,0E0,0E0,0E0,0E0,0E0,0E0,0E0,0E0,0E0,0E0,0E0,0E0,0E0,0E0,0E0,0E0,0E0,0E0,0E0,0E0,0E0,0E0,0E0,0E0,0E0,0E0,0E0,0E0,0E0,0E0],"parents":[2147483647,0,0,1,1,2,2,3,3,4,4,5,5,6,6,7,7,8,8,9,9,10,10,11,11,12,12,13,13,14,14,15,15,17,17,19,19,20,20,23,23,24,24,27,27,28,28,29,29,30,30,31,31,32,32,36,36,39,39,40,40,41,41,42,42,43,43,44,44,45,45,46,46,47,47,48,48,49,49,50,50],"right_children":[2,4,6,8,10,12,14,16,18,20,22,24,26,28,30,32,-1,34,-1,36,38,-1,-1,40,42,-1,-1,44,46,48,50,52,54,-1,-1,-1,56,-1,-1,58,60,62,64,66,68,70,72,74,76,78,80,-1,-1,-1,-1,-1,-1,-1,-1,-1,-1,-1,-1,-1,-1,-1,-1,-1,-1,-1,-1,-1,-1,-1,-1,-1,-1,-1,-1,-1,-1],"split_conditions":[-1.3639407E0,-8.967112E-2,2.0348021E-1,4.0457305E-1,-1.04541406E-1,1.9772953E-1,4.0247735E-1,2.1484908E-1,1.615954E-1,4.0353712E-1,-8.792205E-1,-6.135106E-1,6.298365E-1,-1.5530461E-1,4.0597656E-1,3.6794552E-1,5.5945393E-2,-6.367262E-1,-7.145335E-2,-2.7325973E-1,-7.125297E-1,-1.8942777E-2,-8.882097E-2,-2.2663248E-1,5.8269083E-1,-2.8878354E-2,-1.01553924E-1,3.5093457E-1,4.4123378E-1,5.1702082E-2,-2.8568648E-2,-4.4743836E-1,6.4955495E-2,-1.0380239E-3,-1.0220057E-2,1.678108E-2,5.0524212E-2,-5.3318585E-3,-2.0377064E-2,4.6947265E-1,-3.3438418E-2,-2.8404474E0,-1.4085555E-2,-1.2557858E-1,-1.9154076E-1,7.2774863E-1,1.6221805E-1,4.7003463E-2,6.447067E-2,-6.875254E-1,7.480911E-1,2.8630957E-2,3.913294E-3,-1.3487763E-2,2.5306316E-3,-4.755378E-4,2.8688551E-3,5.787025E-3,-4.864735E-2,8.5661495E-3,4.629658E-2,5.491187E-2,-9.320667E-3,3.543388E-2,-5.2312096E-3,9.1412483E-4,5.251837E-2,-5.8952477E-2,7.3683504E-3,-1.7229885E-2,2.3932884E-2,4.0013388E-2,-5.07392E-3,9.2077486E-2,3.8148217E-2,3.8083106E-2,-8.483686E-3,-2.2847319E-2,-9.860849E-3,8.316968E-3,-4.9891993E-3],"split_indices":[53,29,48,15,13,48,20,5,2,11,7,11,0,34,54,54,0,0,0,0,0,0,0,51,6,0,0,25,37,35,49,16,5,0,0,0,0,0,0,5,28,43,32,9,12,54,57,53,39,1,6,0,0,0,0,0,0,0,0,0,0,0,0,0,0,0,0,0,0,0,0,0,0,0,0,0,0,0,0,0,0],"split_type":[0,0,0,0,0,0,0,0,0,0,0,0,0,0,0,0,0,0,0,0,0,0,0,0,0,0,0,0,0,0,0,0,0,0,0,0,0,0,0,0,0,0,0,0,0,0,0,0,0,0,0,0,0,0,0,0,0,0,0,0,0,0,0,0,0,0,0,0,0,0,0,0,0,0,0,0,0,0,0,0,0],"sum_hessian":[6.57E2,3.8E1,6.19E2,2.3E1,1.5E1,4.18E2,2.01E2,1.9E1,4E0,7E0,8E0,4.15E2,3E0,1.63E2,3.8E1,1.6E1,3E0,2E0,2E0,3E0,4E0,2E0,6E0,7.2E1,3.43E2,2E0,1E0,6E1,1.03E2,2.4E1,1.4E1,8E0,8E0,1E0,1E0,1E0,2E0,1E0,3E0,2.8E1,4.4E1,2.98E2,4.5E1,3.9E1,2.1E1,8.1E1,2.2E1,1.5E1,9E0,6E0,8E0,3E0,5E0,6E0,2E0,1E0,1E0,2.2E1,6E0,2.6E1,1.8E1,5E0,2.93E2,2.4E1,2.1E1,1.5E1,2.4E1,6E0,1.5E1,7.4E1,7E0,1.2E1,1E1,9E0,6E0,3E0,6E0,2E0,4E0,5E0,3E0],"tree_param":{"num_deleted":"0","num_feature":"60","num_nodes":"81","size_leaf_vector":"0"}},{"base_weights":[-4.4783516E-4,-4.5448456E-2,3.4886017E-3,1.6527697E-1,-6.139752E-2,4.5574585E-4,8.79536E-2,2.1688329E-1,5.2289963E-3,-8.762734E-2,2.8965859E-2,8.155107E-3,-3.1493846E-2,3.1987492E-2,2.2253759E-1,3.9468754E-2,-1.0747879E-1,-3.9198427E-3,7.578981E-2,4.5257375E-2,-2.9470914E-3,5.6782052E-2,-4.974673E-2,6.9915935E-2,-4.2879235E-2,-2.69773E-2,7.943611E-2,-4.446931E-2,-1.4936195E-1,9.603515E-3,-4.9291674E-2,9.7184226E-2,1.1255703E-2,7.89798E-3,-5.7124134E-2,-9.21966E-3,1.3847522E-1,-9.467101E-2,-9.13223E-3,1.6880205E-2,9.781061E-2,-4.9821723E-2,-4.083395E-3,2.1324039E-2,9.169879E-2,2.5937775E-2,-6.4232565E-2,-7.6396614E-2,-2.1468765E-1,-8.954108E-4,1.39821675E-2,2.611808E-2,2.0433727E-1,7.0025235E-2,-1.5242507E-2,2.6195163E-2,-4.8562653E-2,6.839003E-2,-9.5966436E-2,1.8179802E-2,-5.121487E-2,7.150686E-2,2.4857633E-1,-6.8074346E-2,-3.5026827E-1,5.616176E-2,-2.8492121E-2,-1.4221966E-2,2.821124E-2],"categories":[],"categories_nodes":[],"categories_segments":[],"categories_sizes":[],"default_left":[1,1,1,1,1,1,1,0,0,1,1,1,1,1,0,1,1,1,0,1,1,1,1,1,1,0,1,1,1,1,0,1,1,1,1,1,1,1,1,1,0,0,0,0,0,0,0,0,0,0,0,0,0,0,0,0,0,0,0,0,0,0,0,0,0,0,0,0,0],"id":20,"left_children":[1,3,5,7,9,11,13,-1,-1,15,17,19,21,23,-1,25,27,29,-1,31,33,35,37,39,41,-1,43,45,47,49,-1,51,53,55,57,59,61,63,65,67,-1,-1,-1,-1,-1,-1,-1,-1,-1,-1,-1,-1,-1,-1,-1,-1,-1,-1,-1,-1,-1,-1,-1,-1,-1,-1,-1,-1,-1],"loss_changes":[1.1671805E-1,1.8827388E-1,1.5519902E-1,3.190387E-2,1.2104896E-1,1.4440781E-1,1.5105654E-1,0E0,0E0,1.0264066E-1,1.8775146E-2,1.9496997E-1,1.8651175E-1,4.8431195E-2,0E0,1.807701E-2,8.308521E-2,5.382009E-3,0E0,1.913565E-1,2.1490832E-1,1.0911448E-1,1.7247027E-1,1.4622498E-2,1.4125956E-3,0E0,8.950494E-4,2.2538142E-2,7.892883E-2,3.3431785E-4,0E0,3.2210612E-1,1.05405614E-1,3.1635863E-1,3.0395395E-1,1.4738832E-2,4.85847E-2,2.820673E-1,6.6068485E-2,2.163318E-3,0E0,0E0,0E0,0E0,0E0,0E0,0E0,0E0,0E0,0E0,0E0,0E0,0E0,0E0,0E0,0E0,0E0,0E0,0E0,0E0,0E0,0E0,0E0,0E0,0E0,0E0,0E0,0E0,0E0],"parents":[2147483647,0,0,1,1,2,2,3,3,4,4,5,5,6,6,9,9,10,10,11,11,12,12,13,13,15,15,16,16,17,17,19,19,20,20,21,21,22,22,23,23,24,24,26,26,27,27,28,28,29,29,31,31,32,32,33,33,34,34,35,35,36,36,37,37,38,38,39,39],"right_children":[2,4,6,8,10,12,14,-1,-1,16,18,20,22,24,-1,26,28,30,-1,32,34,36,38,40,42,-1,44,46,48,50,-1,52,54,56,58,60,62,64,66,68,-1,-1,-1,-1,-1,-1,-1,-1,-1,-1,-1,-1,-1,-1,-1,-1,-1,-1,-1,-1,-1,-1,-1,-1,-1,-1,-1,-1,-1],"split_conditions":[-1.1617002E0,-1.6905341E0,1.496556E0,4.4610552E-2,1.9332647E-1,4.504388E-1,9.690591E-2,6.506499E-2,1.5686989E-3,-1.4020191E0,-5.5844296E-2,-3.7627745E-1,-5.266744E-1,2.7408555E-1,6.676128E-2,-5.846845E-1,-3.9284152E-1,-1.8676576E-1,2.2736944E-2,-1.9202755E-1,5.482137E-1,4.5076925E-3,-6.882246E-2,-6.487635E-1,2.5856823E-1,-8.09319E-3,-2.1065078E0,-7.649966E-1,-1.7444588E-1,-5.731406E-1,-1.4787503E-2,1.15296945E-1,-3.8474974E-1,2.7822563E-1,-3.6567122E-1,-3.9154434E-1,-4.321213E-2,-8.196953E-2,-4.19983E-1,-6.930423E-1,2.9343184E-2,-1.4946518E-2,-1.2250185E-3,6.397212E-3,2.7509637E-2,7.781333E-3,-1.926977E-2,-2.2918984E-2,-6.44063E-2,-2.6862323E-4,4.1946503E-3,7.8354245E-3,6.1301183E-2,2.1007571E-2,-4.5727524E-3,7.858549E-3,-1.4568796E-2,2.0517008E-2,-2.8789932E-2,5.453941E-3,-1.5364462E-2,2.1452058E-2,7.45729E-2,-2.0422304E-2,-1.05080485E-1,1.6848529E-2,-8.547637E-3,-4.26659E-3,8.4633725E-3],"split_indices":[37,58,41,0,18,30,26,0,0,31,6,4,34,12,0,5,8,6,0,25,27,27,32,20,4,0,0,34,9,7,0,34,18,28,33,16,11,32,56,0,0,0,0,0,0,0,0,0,0,0,0,0,0,0,0,0,0,0,0,0,0,0,0,0,0,0,0,0,0],"split_type":[0,0,0,0,0,0,0,0,0,0,0,0,0,0,0,0,0,0,0,0,0,0,0,0,0,0,0,0,0,0,0,0,0,0,0,0,0,0,0,0,0,0,0,0,0,0,0,0,0,0,0,0,0,0,0,0,0,0,0,0,0,0,0,0,0,0,0,0,0],"sum_hessian":[6.57E2,5.2E1,6.05E2,3E0,4.9E1,5.85E2,2E1,2E0,1E0,3.8E1,1.1E1,4.72E2,1.13E2,1.5E1,5E0,5E0,3.3E1,7E0,4E0,1.08E2,3.64E2,1.9E1,9.4E1,1E1,5E0,2E0,3E0,1.4E1,1.9E1,6E0,1E0,4.2E1,6.6E1,3.04E2,6E1,1.1E1,8E0,4.4E1,5E1,4E0,6E0,4E0,1E0,1E0,2E0,3E0,1.1E1,1E1,9E0,2E0,4E0,2.6E1,1.6E1,2E1,4.6E1,2.3E2,7.4E1,1.4E1,4.6E1,7E0,4E0,6E0,2E0,4.1E1,3E0,1.1E1,3.9E1,1E0,3E0],"tree_param":{"num_deleted":"0","num_feature":"60","num_nodes":"69","size_leaf_vector":"0"}},{"base_weights":[-1.17223375E-4,8.311706E-3,-2.1233758E-2,7.461879E-2,3.4704823E-3,4.113346E-3,-7.281196E-2,1.4364515E-1,1.2951329E-2,2.5192596E-2,-1.37623735E-2,-3.7032943E-2,3.708835E-2,4.638297E-2,-1.08543456E-1,5.2636653E-2,2.16698E-1,-1.7211525E-2,9.481706E-2,1.5049476E-2,1.6603862E-1,-8.480168E-2,-1.1803893E-3,-8.272981E-3,-1.24776185E-1,9.749522E-3,1.3045621E-1,-1.559887E-1,8.95162E-2,-2.191037E-1,-6.1218124E-2,8.174022E-2,3.098026E-3,9.041103E-2,2.4372517E-1,-4.950822E-2,2.2157775E-2,2.5168449E-2,1.3285998E-1,-9.25296E-3,6.502369E-2,-2.5972795E-2,2.542629E-1,-2.4734178E-1,-1.5440839E-2,-4.3973602E-2,2.007284E-2,3.5813637E-2,-6.816662E-2,-1.413201E-2,-2.0599282E-1,3.8831696E-2,-5.3803492E-2,3.5291012E-2,2.477699E-1,-1.9765705E-1,-3.632598E-2,-7.3921084E-3,1.334079E-1,-4.2462546E-2,-3.1251958E-1,-8.430772E-2,6.44329E-2,-2.039221E-2,1.7725507E-2,-1.186911E-2,-6.971787E-2,-2.3693502E-2,3.374857E-2,3.1937408E-1,-1.4521262E-2,1.05028255E-2,1.2294244E-1,-7.670706E-2,3.3419065E-2,6.261728E-2,3.0007344E-1,-3.9513135E-1,-5.8328565E-2,-9.219881E-2,2.1730876E-2,-8.368422E-2,4.6471585E-2,5.2605692E-2,-2.3455583E-2,-2.3969129E-2,1.1951461E-1,-4.9051535E-3,-1.3791212E-1,-3.7748646E-2,2.993972E-2,9.09732E-2,-5.5946093E-3,-2.5755294E-2,-1.4553337E-1,-7.4121444E-3,6.499514E-2,2.677468E-1,6.395425E-2,6.4522736E-3,-3.138482E-2,-2.3514628E-3,1.5067177E-1,-9.795322E-2,9.771097E-3,-2.0240991E-1,-3.9955422E-1,-5.7278022E-2,-2.4568129E-1,1.2432719E-1,3.403958E-3],"categories":[],"categories_nodes":[],"categories_segments":[],"categories_sizes":[],"default_left":[1,1,1,1,1,1,1,1,1,1,1,1,1,1,1,1,1,1,1,1,1,1,1,1,1,1,1,1,1,1,1,0,1,0,0,1,1,0,0,1,1,1,1,1,1,1,1,1,1,1,0,1,1,1,1,0,0,1,1,1,1,1,1,0,0,0,0,0,0,0,0,0,0,0,0,0,0,0,0,0,0,0,0,0,0,0,0,0,0,0,0,0,0,0,0,0,0,0,0,0,0,0,0,0,0,0,0,0,0,0,0],"id":21,"left_children":[1,3,5,7,9,11,13,15,17,19,21,23,25,27,29,31,33,35,37,39,41,43,45,47,49,51,53,55,57,59,61,-1,63,-1,-1,65,67,-1,-1,69,71,73,75,77,79,81,83,85,87,89,-1,91,93,95,97,-1,-1,99,101,103,105,107,109,-1,-1,-1,-1,-1,-1,-1,-1,-1,-1,-1,-1,-1,-1,-1,-1,-1,-1,-1,-1,-1,-1,-1,-1,-1,-1,-1,-1,-1,-1,-1,-1,-1,-1,-1,-1,-1,-1,-1,-1,-1,-1,-1,-1,-1,-1,-1,-1],"loss_changes":[1.1729376E-1,1.5093553E-1,2.4608278E-1,1.3435338E-1,1.6505371E-1,1.7368695E-1,2.690934E-1,8.8320225E-2,4.607942E-2,2.760817E-1,2.1977851E-1,1.4280678E-1,1.7996046E-1,1.4489767E-1,2.3773724E-1,1.1280777E-2,5.2699745E-3,1.889797E-2,9.904303E-3,2.2285426E-1,2.2682476E-1,4.133158E-1,1.9187641E-1,1.1862365E-1,1.2289499E-1,1.0559183E-1,1.6988283E-1,7.778354E-3,5.6281276E-2,2.1774495E-1,1.069753E-1,0E0,1.7358741E-3,0E0,0E0,5.257897E-3,4.5197913E-3,0E0,0E0,2.1931972E-1,1.8817559E-1,1.762949E-2,6.022483E-2,2.8422856E-1,7.9040654E-2,2.5530335E-1,2.0090452E-1,1.3296542E-1,8.3155364E-2,8.415966E-3,0E0,9.085068E-2,4.2563185E-2,1.3166353E-2,8.580923E-3,0E0,0E0,1.8633245E-3,2.1447867E-2,1.8347993E-2,5.376458E-3,1.16784245E-1,2.1508506E-2,0E0,0E0,0E0,0E0,0E0,0E0,0E0,0E0,0E0,0E0,0E0,0E0,0E0,0E0,0E0,0E0,0E0,0E0,0E0,0E0,0E0,0E0,0E0,0E0,0E0,0E0,0E0,0E0,0E0,0E0,0E0,0E0,0E0,0E0,0E0,0E0,0E0,0E0,0E0,0E0,0E0,0E0,0E0,0E0,0E0,0E0,0E0,0E0],"parents":[2147483647,0,0,1,1,2,2,3,3,4,4,5,5,6,6,7,7,8,8,9,9,10,10,11,11,12,12,13,13,14,14,15,15,16,16,17,17,18,18,19,19,20,20,21,21,22,22,23,23,24,24,25,25,26,26,27,27,28,28,29,29,30,30,32,32,35,35,36,36,39,39,40,40,41,41,42,42,43,43,44,44,45,45,46,46,47,47,48,48,49,49,51,51,52,52,53,53,54,54,57,57,58,58,59,59,60,60,61,61,62,62],"right_children":[2,4,6,8,10,12,14,16,18,20,22,24,26,28,30,32,34,36,38,40,42,44,46,48,50,52,54,56,58,60,62,-1,64,-1,-1,66,68,-1,-1,70,72,74,76,78,80,82,84,86,88,90,-1,92,94,96,98,-1,-1,100,102,104,106,108,110,-1,-1,-1,-1,-1,-1,-1,-1,-1,-1,-1,-1,-1,-1,-1,-1,-1,-1,-1,-1,-1,-1,-1,-1,-1,-1,-1,-1,-1,-1,-1,-1,-1,-1,-1,-1,-1,-1,-1,-1,-1,-1,-1,-1,-1,-1,-1,-1],"split_conditions":[2.748884E-1,-1.1104623E0,1.3275203E-1,-5.729161E-4,-1.0382557E-1,-1.297318E-1,-7.8556275E-1,-4.3386674E-1,2.7264687E-1,-1.3000116E-1,-5.1138276E-1,4.9561372E-1,4.6903253E-1,-7.499053E-1,-1.4687036E-1,3.456807E-1,-7.985392E-1,-1.5555936E-1,-7.556487E-3,2.7131253E-1,-2.7579114E-1,-1.8549597E-1,-2.64957E-1,7.389687E-2,-4.579172E-1,-8.548487E-2,1.2277382E-1,-1.4313558E-1,-7.1138275E-1,-1.7640445E-1,4.4927356E-1,2.4522068E-2,-1.0946165E0,2.712331E-2,7.3117554E-2,-3.1702894E-1,-1.4872231E0,7.550535E-3,3.9857995E-2,-2.6588545E0,-8.811617E-3,9.384006E-4,-1.1486219E-1,4.3693286E-1,-2.1382146E-2,1.9204888E-1,9.2412576E-2,-2.7529094E-1,-4.8170465E-1,6.180983E-1,-6.1797846E-2,6.870215E-1,5.210029E-1,-2.0606886E-1,3.7797713E-1,-5.929712E-2,-1.0897795E-2,3.7518707E-1,-5.311934E-1,2.8867987E-1,-6.1965365E-2,6.259917E-1,-2.069621E-1,-6.117663E-3,5.317652E-3,-3.5607333E-3,-2.0915361E-2,-7.108051E-3,1.0124572E-2,9.581223E-2,-4.3563787E-3,3.1508477E-3,3.6882732E-2,-2.3012118E-2,1.002572E-2,1.8785184E-2,9.0022035E-2,-1.1853941E-1,-1.749857E-2,-2.7659645E-2,6.519263E-3,-2.5105268E-2,1.3941476E-2,1.5781708E-2,-7.0366752E-3,-7.190739E-3,3.5854384E-2,-1.4715461E-3,-4.137364E-2,-1.1324594E-2,8.981916E-3,2.7291961E-2,-1.6783829E-3,-7.7265883E-3,-4.366001E-2,-2.2236435E-3,1.9498542E-2,8.032405E-2,1.9186275E-2,1.9356821E-3,-9.415446E-3,-7.054389E-4,4.5201533E-2,-2.9385967E-2,2.9313294E-3,-6.0722973E-2,-1.19866274E-1,-1.7183408E-2,-7.370439E-2,3.7298158E-2,1.0211874E-3],"split_indices":[44,52,29,57,4,8,16,24,29,4,7,7,59,32,12,48,10,4,0,9,15,25,51,31,30,59,23,0,27,37,40,0,1,0,0,30,8,0,0,43,26,3,16,26,59,43,17,31,8,10,0,44,52,3,0,0,0,2,4,4,14,56,2,0,0,0,0,0,0,0,0,0,0,0,0,0,0,0,0,0,0,0,0,0,0,0,0,0,0,0,0,0,0,0,0,0,0,0,0,0,0,0,0,0,0,0,0,0,0,0,0],"split_type":[0,0,0,0,0,0,0,0,0,0,0,0,0,0,0,0,0,0,0,0,0,0,0,0,0,0,0,0,0,0,0,0,0,0,0,0,0,0,0,0,0,0,0,0,0,0,0,0,0,0,0,0,0,0,0,0,0,0,0,0,0,0,0,0,0,0,0,0,0,0,0,0,0,0,0,0,0,0,0,0,0,0,0,0,0,0,0,0,0,0,0,0,0,0,0,0,0,0,0,0,0,0,0,0,0,0,0,0,0,0,0],"sum_hessian":[6.57E2,4.7E2,1.87E2,3.1E1,4.39E2,1.26E2,6.1E1,1.4E1,1.7E1,1.94E2,2.45E2,5.6E1,7E1,1.4E1,4.7E1,7E0,7E0,1.3E1,4E0,1.82E2,1.2E1,3.6E1,2.09E2,4.3E1,1.3E1,5.5E1,1.5E1,2E0,1.2E1,1.3E1,3.4E1,4E0,3E0,2E0,5E0,7E0,6E0,2E0,2E0,1.23E2,5.9E1,4E0,8E0,1E1,2.6E1,6.9E1,1.4E2,2.5E1,1.8E1,6E0,7E0,3.8E1,1.7E1,9E0,6E0,1E0,1E0,4E0,8E0,5E0,8E0,2.9E1,5E0,1E0,2E0,3E0,4E0,1E0,5E0,1E0,1.22E2,3.1E1,2.8E1,2E0,2E0,2E0,6E0,5E0,5E0,8E0,1.8E1,4.8E1,2.1E1,8E1,6E1,1.5E1,1E1,1E1,8E0,4E0,2E0,1.7E1,2.1E1,1.4E1,3E0,4E0,5E0,5E0,1E0,3E0,1E0,1E0,7E0,2E0,3E0,5E0,3E0,2.6E1,3E0,2E0,3E0],"tree_param":{"num_deleted":"0","num_feature":"60","num_nodes":"111","size_leaf_vector":"0"}},{"base_weights":[-1.7700421E-4,-8.043358E-3,1.7494101E-2,-1.7119259E-2,3.0104946E-2,2.7838673E-2,-5.096824E-2,-2.2847493E-1,-1.4762588E-2,1.07837856E-1,-2.4531598E-3,5.297205E-2,-9.549889E-3,5.7782326E-3,-9.034258E-2,-2.956649E-1,-1.3452496E-2,6.1279066E-2,-2.1243194E-2,2.6552975E-1,6.7097075E-2,-3.0863032E-2,7.028613E-2,1.4492147E-2,8.9758396E-2,4.8978813E-2,-3.9834633E-2,-2.3013584E-2,3.8405646E-2,-2.0310013E-1,-5.9727207E-2,1.565065E-3,1.169078E-1,-5.644922E-2,-6.8389066E-3,1.533827E-1,1.6604928E-2,1.9421384E-2,-7.029033E-2,1.0487332E-1,-1.6367132E-2,-1.9536993E-2,7.1617074E-2,3.8399182E-2,1.4359142E-1,-4.560513E-2,1.2655228E-1,-2.8320143E-2,-2.0311193E-1,-3.3111814E-3,-3.696259E-2,1.3102938E-2,4.7781266E-2,5.7459674E-3,-7.1118236E-2,-8.6916685E-2,2.186354E-2,1.5579444E-1,3.2612078E-2,-8.140854E-2,5.161365E-2,-2.6293114E-2,2.5517402E-2,9.591688E-2,2.171868E-1,-4.4126302E-2,6.1995335E-2,-1.55715905E-2,1.0949908E-1,-4.172211E-2,-2.16985E-1,1.4728245E-1,4.74823E-2,1.9010102E-2,-3.8808275E-2,6.7913253E-3,-7.52045E-2,7.1105575E-3,1.6748804E-1,1.1590881E-2,1.20998E-1,1.7740859E-1,1.2994359E-3,-1.56576E-1,8.782489E-3,5.965179E-2,2.3504281E-1,3.933632E-2,-4.3598775E-2,-4.8717856E-3,-2.997961E-1,1.1930341E-3,-8.411914E-3,1.680985E-2,-8.1909E-3],"categories":[],"categories_nodes":[],"categories_segments":[],"categories_sizes":[],"default_left":[1,1,1,1,1,1,1,1,1,1,1,1,1,1,1,0,0,1,1,0,1,1,1,1,1,1,1,1,1,0,1,1,1,1,1,1,1,1,1,1,1,1,1,1,1,1,1,1,1,1,0,0,0,1,0,0,0,0,0,0,0,0,0,0,0,0,0,0,0,0,0,0,0,0,0,0,0,0,0,0,0,0,0,0,0,0,0,0,0,0,0,0,0,0,0],"id":22,"left_children":[1,3,5,7,9,11,13,15,17,19,21,23,25,27,29,-1,-1,31,33,-1,35,37,39,41,43,45,47,49,51,-1,53,55,57,59,61,63,65,67,69,71,73,75,77,79,81,83,85,87,89,91,-1,-1,-1,93,-1,-1,-1,-1,-1,-1,-1,-1,-1,-1,-1,-1,-1,-1,-1,-1,-1,-1,-1,-1,-1,-1,-1,-1,-1,-1,-1,-1,-1,-1,-1,-1,-1,-1,-1,-1,-1,-1,-1,-1,-1],"loss_changes":[9.160743E-2,1.5839636E-1,1.4518625E-1,1.8042454E-1,2.2297816E-1,1.6683292E-1,6.08496E-2,5.3811997E-2,1.8166515E-1,1.4922053E-1,1.3235964E-1,1.4874592E-1,1.2957299E-1,1.2156681E-2,4.3103233E-2,0E0,0E0,9.614964E-2,1.7101972E-1,0E0,9.330151E-2,9.2563756E-2,5.5664152E-2,1.04426526E-1,1.4378664E-1,1.8920155E-1,8.449048E-2,1.8014126E-3,7.972978E-4,0E0,1.0849938E-2,2.8840976E-2,4.4088885E-2,2.68525E-1,1.523723E-1,8.500561E-3,4.4084854E-2,6.789889E-2,9.990786E-2,2.464743E-2,5.5011827E-3,5.034222E-2,1.2249509E-1,6.281321E-2,1.2487918E-1,7.3800415E-2,8.759226E-2,4.926514E-2,5.6039512E-2,1.019349E-4,0E0,0E0,0E0,6.0027547E-4,0E0,0E0,0E0,0E0,0E0,0E0,0E0,0E0,0E0,0E0,0E0,0E0,0E0,0E0,0E0,0E0,0E0,0E0,0E0,0E0,0E0,0E0,0E0,0E0,0E0,0E0,0E0,0E0,0E0,0E0,0E0,0E0,0E0,0E0,0E0,0E0,0E0,0E0,0E0,0E0,0E0],"parents":[2147483647,0,0,1,1,2,2,3,3,4,4,5,5,6,6,7,7,8,8,9,9,10,10,11,11,12,12,13,13,14,14,17,17,18,18,20,20,21,21,22,22,23,23,24,24,25,25,26,26,27,27,28,28,30,30,31,31,32,32,33,33,34,34,35,35,36,36,37,37,38,38,39,39,40,40,41,41,42,42,43,43,44,44,45,45,46,46,47,47,48,48,49,49,53,53],"right_children":[2,4,6,8,10,12,14,16,18,20,22,24,26,28,30,-1,-1,32,34,-1,36,38,40,42,44,46,48,50,52,-1,54,56,58,60,62,64,66,68,70,72,74,76,78,80,82,84,86,88,90,92,-1,-1,-1,94,-1,-1,-1,-1,-1,-1,-1,-1,-1,-1,-1,-1,-1,-1,-1,-1,-1,-1,-1,-1,-1,-1,-1,-1,-1,-1,-1,-1,-1,-1,-1,-1,-1,-1,-1,-1,-1,-1,-1,-1,-1],"split_conditions":[2.241253E-1,4.9570885E-1,5.825367E-1,-2.2773356E0,6.707228E-1,1.1525314E-3,-3.7017792E-1,5.3556055E-1,-1.1104623E0,-7.302971E-1,1.6943541E-1,-5.2191652E-2,-1.534915E-1,7.229243E-2,-6.881337E-1,-8.8699475E-2,-4.035749E-3,-2.5529438E-1,-3.123101E-1,7.9658926E-2,-3.5180673E-1,-9.411441E-2,-1.8730116E-1,1.9064203E-1,-1.4064854E-1,1.3263543E-2,1.0100509E0,-1.0437858E0,1.7293428E-1,-6.093004E-2,-3.9155555E-1,-2.1151276E0,-9.218228E-2,5.685922E-1,1.9390848E-1,4.33066E-1,4.282087E-3,-1.5476812E-1,-1.346104E-1,6.604812E-1,-1.6928522E-1,2.8276402E-1,2.4719816E-1,2.755793E-1,4.2247844E-1,-1.0026262E-1,1.5661043E-1,3.0995828E-1,-5.611383E-1,-2.2528493E0,-1.1088777E-2,3.9308816E-3,1.4334381E-2,1.937735E0,-2.1335471E-2,-2.6075007E-2,6.5590623E-3,4.6738334E-2,9.783624E-3,-2.4422562E-2,1.5484096E-2,-7.887934E-3,7.655221E-3,2.8775066E-2,6.515604E-2,-1.3237891E-2,1.8598601E-2,-4.6714772E-3,3.2849725E-2,-1.2516634E-2,-6.509551E-2,4.4184737E-2,1.4244691E-2,5.703031E-3,-1.1642483E-2,2.0373976E-3,-2.256135E-2,2.1331673E-3,5.0246414E-2,3.4772644E-3,3.6299404E-2,5.3222578E-2,3.8983076E-4,-4.69728E-2,2.634747E-3,1.7895536E-2,7.0512846E-2,1.1800896E-2,-1.3079633E-2,-1.4615357E-3,-8.9938834E-2,3.5791023E-4,-2.5235743E-3,5.0429553E-3,-2.4572702E-3],"split_indices":[8,23,53,31,23,36,22,0,52,54,16,46,42,31,46,0,0,29,5,0,25,45,31,38,53,19,39,1,5,0,15,41,8,6,43,6,53,16,8,16,2,51,37,25,39,16,12,8,0,1,0,0,0,0,0,0,0,0,0,0,0,0,0,0,0,0,0,0,0,0,0,0,0,0,0,0,0,0,0,0,0,0,0,0,0,0,0,0,0,0,0,0,0,0,0],"split_type":[0,0,0,0,0,0,0,0,0,0,0,0,0,0,0,0,0,0,0,0,0,0,0,0,0,0,0,0,0,0,0,0,0,0,0,0,0,0,0,0,0,0,0,0,0,0,0,0,0,0,0,0,0,0,0,0,0,0,0,0,0,0,0,0,0,0,0,0,0,0,0,0,0,0,0,0,0,0,0,0,0,0,0,0,0,0,0,0,0,0,0,0,0,0,0],"sum_hessian":[6.57E2,4.55E2,2.02E2,3.68E2,8.7E1,1.76E2,2.6E1,3E0,3.65E2,2.5E1,6.2E1,1.05E2,7.1E1,1.1E1,1.5E1,2E0,1E0,2.8E1,3.37E2,4E0,2.1E1,4.5E1,1.7E1,5.2E1,5.3E1,2.4E1,4.7E1,6E0,5E0,2E0,1.3E1,1.4E1,1.4E1,9.7E1,2.4E2,7E0,1.4E1,2E1,2.5E1,1.2E1,5E0,3.3E1,1.9E1,2.8E1,2.5E1,1.1E1,1.3E1,4.5E1,2E0,3E0,3E0,2E0,3E0,2E0,1.1E1,2E0,1.2E1,9E0,5E0,7.9E1,1.8E1,1.5E2,9E1,5E0,2E0,6E0,8E0,1.5E1,5E0,2.2E1,3E0,6E0,6E0,2E0,3E0,2.3E1,1E1,1.2E1,7E0,2.2E1,6E0,2E1,5E0,3E0,8E0,9E0,4E0,8E0,3.7E1,1E0,1E0,2E0,1E0,1E0,1E0],"tree_param":{"num_deleted":"0","num_feature":"60","num_nodes":"95","size_leaf_vector":"0"}},{"base_weights":[5.7059035E-5,-3.0641422E-2,3.2450804E-3,-7.237108E-2,1.9339604E-2,-4.3588974E-2,6.2393523E-3,-1.3466465E-2,-1.3048355E-1,-3.607244E-2,8.128625E-2,-7.090636E-2,2.494204E-2,1.5050969E-2,-7.323714E-3,2.4658654E-2,-5.4331433E-2,-3.029485E-3,-1.8333696E-1,1.381215E-2,-7.640625E-2,1.1241215E-1,2.7772188E-3,-9.228776E-2,-1.1262272E-2,5.223541E-2,-3.5880208E-2,8.27728E-3,8.252085E-2,2.821456E-2,-2.916016E-2,3.9808393E-2,-8.018054E-3,5.1097125E-3,-7.204458E-2,-4.0328283E-2,2.5701985E-2,-2.3294882E-1,-6.729057E-2,-8.245012E-3,3.7930563E-2,-2.841278E-2,-1.2929489E-1,1.1744201E-3,1.246414E-1,9.872794E-3,-1.4648736E-3,-3.1734187E-2,-1.2496615E-1,-3.246528E-2,7.952589E-3,-4.3433406E-3,7.181888E-2,-4.6152752E-2,-2.5312863E-3,-3.0922329E-2,1.7965674E-2,1.3709098E-2,1.5500613E-1,-1.0784306E-2,7.235789E-2,-8.0953814E-2,-3.2282446E-3,-5.5300194E-4,-1.5206605E-2,3.4812074E-2,-8.1413984E-4,-2.6904026E-1,-8.311635E-2,-8.586764E-3,-7.981983E-2,4.436478E-3,-1.8178165E-2,3.4794211E-3,-4.5228735E-2,-2.4665892E-4,-1.7887255E-3,-4.893159E-2,-2.3038834E-3,-7.7359885E-2,-1.7614295E-1,-2.99114E-3,1.1436306E-2,4.6239495E-3,-1.1138961E-2,-1.9957212E-1,-1.8964337E-2,4.4629708E-2,-3.3034203E-3,6.040073E-2,-4.6369083E-2,6.154897E-2,2.5302157E-1,-1.2192667E-1,5.7434626E-3,1.12466045E-1,1.7088702E-2,-1.0639685E-1,2.1280792E-2,2.276376E-3,-2.5482666E-1],"categories":[],"categories_nodes":[],"categories_segments":[],"categories_sizes":[],"default_left":[1,1,1,1,1,1,1,1,1,1,1,1,1,1,1,1,1,1,1,1,1,1,1,1,1,1,1,1,1,1,1,0,1,0,0,0,1,1,1,1,0,1,0,0,0,0,1,1,1,0,1,1,0,0,0,1,1,1,1,1,1,1,1,0,0,0,0,0,0,0,0,0,0,0,0,0,0,0,0,0,0,0,0,0,0,0,0,0,0,0,0,0,0,0,0,0,0,0,0,0,0],"id":23,"left_children":[1,3,5,7,9,11,13,15,17,19,21,23,25,27,29,31,33,35,37,39,41,43,45,47,49,51,53,55,57,59,61,-1,63,-1,-1,-1,65,67,69,71,-1,73,-1,-1,-1,-1,75,77,79,-1,81,83,-1,-1,-1,85,87,89,91,93,95,97,99,-1,-1,-1,-1,-1,-1,-1,-1,-1,-1,-1,-1,-1,-1,-1,-1,-1,-1,-1,-1,-1,-1,-1,-1,-1,-1,-1,-1,-1,-1,-1,-1,-1,-1,-1,-1,-1,-1],"loss_changes":[6.449619E-2,1.3071248E-1,8.39916E-2,1.1462799E-1,1.0247733E-1,6.916374E-2,6.7276284E-2,2.9383413E-2,1.1396307E-1,3.32479E-2,3.389909E-2,3.211774E-2,2.0134702E-2,1.5516078E-1,1.731013E-1,5.269622E-3,9.8441355E-3,7.4664126E-3,5.341211E-2,4.568608E-3,1.917116E-2,1.3457164E-2,1.6496284E-4,3.363137E-2,3.5174862E-3,9.176001E-3,1.2534875E-3,1.186675E-1,1.5249798E-1,1.4711122E-1,1.8508765E-1,0E0,2.0624237E-4,0E0,0E0,0E0,9.94599E-4,2.0899683E-2,2.992183E-3,7.104829E-4,0E0,3.3751563E-3,0E0,0E0,0E0,0E0,1.1368793E-6,3.9362656E-3,1.5609652E-2,0E0,2.2483186E-4,2.3432088E-4,0E0,0E0,0E0,1.2125145E-1,1.4192739E-1,5.0488252E-2,1.2183046E-1,8.5199304E-2,8.6747885E-2,1.21917516E-1,1.2938079E-1,0E0,0E0,0E0,0E0,0E0,0E0,0E0,0E0,0E0,0E0,0E0,0E0,0E0,0E0,0E0,0E0,0E0,0E0,0E0,0E0,0E0,0E0,0E0,0E0,0E0,0E0,0E0,0E0,0E0,0E0,0E0,0E0,0E0,0E0,0E0,0E0,0E0,0E0],"parents":[2147483647,0,0,1,1,2,2,3,3,4,4,5,5,6,6,7,7,8,8,9,9,10,10,11,11,12,12,13,13,14,14,15,15,16,16,17,17,18,18,19,19,20,20,21,21,22,22,23,23,24,24,25,25,26,26,27,27,28,28,29,29,30,30,32,32,36,36,37,37,38,38,39,39,41,41,46,46,47,47,48,48,50,50,51,51,55,55,56,56,57,57,58,58,59,59,60,60,61,61,62,62],"right_children":[2,4,6,8,10,12,14,16,18,20,22,24,26,28,30,32,34,36,38,40,42,44,46,48,50,52,54,56,58,60,62,-1,64,-1,-1,-1,66,68,70,72,-1,74,-1,-1,-1,-1,76,78,80,-1,82,84,-1,-1,-1,86,88,90,92,94,96,98,100,-1,-1,-1,-1,-1,-1,-1,-1,-1,-1,-1,-1,-1,-1,-1,-1,-1,-1,-1,-1,-1,-1,-1,-1,-1,-1,-1,-1,-1,-1,-1,-1,-1,-1,-1,-1,-1,-1],"split_conditions":[-1.1104623E0,1.9864756E-1,-1.2272468E0,-2.2679362E-1,-1.3047698E-1,6.106335E-1,1.4558098E-1,-2.6441446E-1,-1.1926072E0,-2.8992498E-1,3.761393E-1,9.434843E-1,1.7171624E-1,8.0251604E-2,-1.7919633E-1,3.8902193E-1,-3.7668782E-1,-2.4349183E-1,3.2067657E-1,2.0144224E-2,-2.6364368E-1,-2.4000852E0,-2.3489857E0,-3.8093853E-1,-5.039142E-1,-7.6817745E-1,9.076158E-1,-4.4984668E-1,-1.2185625E-1,-8.440506E-2,-1.6089115E-1,1.1942518E-2,2.09277E0,1.5329138E-3,-2.1613374E-2,-1.2098486E-2,3.1017238E-1,5.987489E-2,-1.6013154E-1,-1.2831838E-1,1.1379169E-2,-5.6763047E-1,-3.8788468E-2,3.5232605E-4,3.7392423E-2,2.9618384E-3,-5.090053E-1,1.2896315E0,-1.16452806E-1,-9.739584E-3,-3.120389E0,3.630683E-2,2.1545665E-2,-1.38458265E-2,-7.5938593E-4,-1.4991552E0,-1.1571357E-1,6.041234E-2,-2.6001725E-2,-7.273687E-1,2.6383452E-2,5.585056E-1,1.774992E0,-1.659006E-4,-4.5619817E-3,1.0443622E-2,-2.4424196E-4,-8.071208E-2,-2.4934907E-2,-2.5760294E-3,-2.394595E-2,1.3309434E-3,-5.4534497E-3,1.0438263E-3,-1.3568621E-2,-7.399768E-5,-5.3661765E-4,-1.4679478E-2,-6.9116504E-4,-2.3207966E-2,-5.2842885E-2,-8.97342E-4,3.430892E-3,1.387185E-3,-3.3416883E-3,-5.9871636E-2,-5.6893015E-3,1.3388913E-2,-9.910262E-4,1.812022E-2,-1.3910726E-2,1.8464692E-2,7.590647E-2,-3.6578003E-2,1.7230388E-3,3.3739816E-2,5.126611E-3,-3.1919055E-2,6.3842377E-3,6.8291277E-4,-7.6448E-2],"split_indices":[48,49,2,35,24,10,3,45,49,22,59,38,7,3,33,0,3,0,7,26,36,0,0,11,13,6,0,22,16,42,45,0,1,0,0,0,0,15,1,1,0,16,0,0,0,0,0,4,25,0,2,0,0,0,0,58,50,34,57,59,13,41,37,0,0,0,0,0,0,0,0,0,0,0,0,0,0,0,0,0,0,0,0,0,0,0,0,0,0,0,0,0,0,0,0,0,0,0,0,0,0],"split_type":[0,0,0,0,0,0,0,0,0,0,0,0,0,0,0,0,0,0,0,0,0,0,0,0,0,0,0,0,0,0,0,0,0,0,0,0,0,0,0,0,0,0,0,0,0,0,0,0,0,0,0,0,0,0,0,0,0,0,0,0,0,0,0,0,0,0,0,0,0,0,0,0,0,0,0,0,0,0,0,0,0,0,0,0,0,0,0,0,0,0,0,0,0,0,0,0,0,0,0,0,0],"sum_hessian":[6.57E2,6.1E1,5.96E2,3.3E1,2.8E1,3.5E1,5.61E2,1.7E1,1.6E1,1.5E1,1.3E1,2.5E1,1E1,3.4E2,2.21E2,9E0,8E0,5E0,1.1E1,7E0,8E0,9E0,4E0,1.8E1,7E0,7E0,3E0,3.1E2,3E1,8.4E1,1.37E2,6E0,3E0,2E0,6E0,2E0,3E0,7E0,4E0,4E0,3E0,5E0,3E0,1E0,8E0,1E0,3E0,7E0,1.1E1,3E0,4E0,2E0,5E0,2E0,1E0,6.1E1,2.49E2,1.6E1,1.4E1,4.5E1,3.9E1,4.5E1,9.2E1,2E0,1E0,2E0,1E0,5E0,2E0,1E0,3E0,2E0,2E0,2E0,3E0,1E0,2E0,4E0,3E0,7E0,4E0,1E0,3E0,1E0,1E0,3E0,5.8E1,1.1E2,1.39E2,9E0,7E0,8E0,6E0,5E0,4E1,2.2E1,1.7E1,3.6E1,9E0,9.1E1,1E0],"tree_param":{"num_deleted":"0","num_feature":"60","num_nodes":"101","size_leaf_vector":"0"}},{"base_weights":[-4.105238E-4,5.323172E-3,-1.5550281E-2,-1.1955107E-2,1.7903998E-2,5.04017E-3,-4.904551E-2,-2.6374443E-2,2.4299355E-2,6.821709E-2,7.060132E-3,-5.340697E-2,1.3844887E-2,-1.3317442E-1,-2.1135377E-2,-1.00560095E-2,-6.752227E-2,-2.4813658E-2,5.9697177E-2,-1.7745933E-2,1.0666389E-1,5.7243913E-2,-8.377278E-3,1.0759E-2,-1.5144908E-1,-1.701368E-2,2.8837241E-2,-4.1865606E-2,-2.935963E-1,-5.383563E-2,2.7389329E-2,-3.5991557E-2,2.3991575E-2,1.099376E-2,-1.00390755E-1,2.6788266E-2,-6.1000824E-2,1.1425602E-1,2.4744356E-2,9.661767E-3,-6.503572E-2,1.3199978E-1,-9.917327E-3,8.444581E-2,-1.9110752E-2,1.091341E-2,-5.101522E-2,4.127091E-2,-2.8007096E-2,-1.6399318E-1,-4.4364303E-2,-2.9328314E-3,-9.527986E-2,-1.835574E-2,4.7900207E-2,2.6849229E-2,-1.15055315E-1,-1.1340535E-1,-2.16037E-2,-3.0096391E-2,6.950224E-2,2.8053806E-3,-7.237597E-2,1.107933E-1,2.8019163E-3,4.3716386E-2,-3.44687E-2,-2.8504145E-1,-7.6155834E-2,5.03576E-2,-1.1566451E-2,-2.6953327E-3,-9.957167E-2,7.227967E-3,1.3305858E-1,6.913161E-2,-1.13031035E-2,-1.7517934E-2,3.5231173E-2,1.2163937E-2,-8.2908444E-2,9.3933456E-2,2.1542388E-1,2.1745563E-2,-5.9383035E-2,5.13161E-2,1.7870334E-1,4.7951926E-2,-4.7856446E-2,-1.6958814E-2,5.733184E-2,-7.1017645E-2,4.6097465E-2,5.365044E-2,1.1007905E-2,-2.2352934E-3,-3.3891223E-2,-3.475079E-2,3.5480736E-3,-2.5437297E-2,-1.0638118E-1,1.2719528E-2,-5.7749905E-2,-1.28818555E-2,6.631871E-2,2.008615E-3,4.4977535E-2,-5.3714022E-2,-1.5849192E-1,-1.8503879E-1,-4.6037834E-2,2.51289E-2,-7.0620745E-2,-6.8978116E-2,-3.5787758E-3,-1.8142052E-2,1.1047104E-1],"categories":[],"categories_nodes":[],"categories_segments":[],"categories_sizes":[],"default_left":[1,1,1,1,1,1,1,1,1,1,1,1,1,1,1,1,1,1,1,1,1,1,1,1,1,1,1,1,0,1,1,1,1,1,1,1,1,1,1,1,1,1,1,1,1,1,1,1,1,0,0,1,1,1,1,1,1,1,1,1,1,0,0,0,0,0,0,0,0,0,0,0,0,0,0,0,0,0,0,0,0,0,0,0,0,0,0,0,0,0,0,0,0,0,0,0,0,0,0,0,0,0,0,0,0,0,0,0,0,0,0,0,0,0,0,0,0],"id":24,"left_children":[1,3,5,7,9,11,13,15,17,19,21,23,25,27,29,31,33,35,37,39,41,43,45,47,49,51,53,55,-1,57,59,61,63,65,67,69,71,73,75,77,79,81,83,85,87,89,91,93,95,-1,-1,97,99,101,103,105,107,109,111,113,115,-1,-1,-1,-1,-1,-1,-1,-1,-1,-1,-1,-1,-1,-1,-1,-1,-1,-1,-1,-1,-1,-1,-1,-1,-1,-1,-1,-1,-1,-1,-1,-1,-1,-1,-1,-1,-1,-1,-1,-1,-1,-1,-1,-1,-1,-1,-1,-1,-1,-1,-1,-1,-1,-1,-1,-1],"loss_changes":[5.7201624E-2,1.0411931E-1,1.250796E-1,1.0623947E-1,1.5064639E-1,5.8890395E-2,1.5920068E-1,9.6683845E-2,1.0231394E-1,1.6383801E-1,1.7788759E-1,9.599396E-2,4.6292245E-2,2.3672324E-1,8.557334E-2,9.358299E-2,1.0691249E-1,4.8317295E-2,6.2010318E-2,2.136603E-2,1.0173446E-1,1.13771394E-1,1.4531943E-1,1.2984156E-2,7.842481E-4,3.6088347E-2,6.1155003E-2,6.343977E-2,0E0,5.899153E-2,5.5351377E-2,8.489926E-2,8.4297314E-2,2.0846311E-2,1.08067304E-1,1.0526403E-2,3.3464998E-2,2.5199458E-2,3.598246E-2,8.261834E-3,9.2871E-3,6.868267E-2,1.2254909E-2,1.1573863E-1,3.1211259E-2,1.5881403E-1,1.10110655E-1,1.6572718E-3,6.8246573E-4,0E0,0E0,6.103364E-3,1.1706725E-3,2.5218233E-2,5.4591E-2,3.061885E-3,7.4735135E-3,4.456465E-2,5.216989E-2,1.0063648E-2,4.8683032E-2,0E0,0E0,0E0,0E0,0E0,0E0,0E0,0E0,0E0,0E0,0E0,0E0,0E0,0E0,0E0,0E0,0E0,0E0,0E0,0E0,0E0,0E0,0E0,0E0,0E0,0E0,0E0,0E0,0E0,0E0,0E0,0E0,0E0,0E0,0E0,0E0,0E0,0E0,0E0,0E0,0E0,0E0,0E0,0E0,0E0,0E0,0E0,0E0,0E0,0E0,0E0,0E0,0E0,0E0,0E0,0E0],"parents":[2147483647,0,0,1,1,2,2,3,3,4,4,5,5,6,6,7,7,8,8,9,9,10,10,11,11,12,12,13,13,14,14,15,15,16,16,17,17,18,18,19,19,20,20,21,21,22,22,23,23,24,24,25,25,26,26,27,27,29,29,30,30,31,31,32,32,33,33,34,34,35,35,36,36,37,37,38,38,39,39,40,40,41,41,42,42,43,43,44,44,45,45,46,46,47,47,48,48,51,51,52,52,53,53,54,54,55,55,56,56,57,57,58,58,59,59,60,60],"right_children":[2,4,6,8,10,12,14,16,18,20,22,24,26,28,30,32,34,36,38,40,42,44,46,48,50,52,54,56,-1,58,60,62,64,66,68,70,72,74,76,78,80,82,84,86,88,90,92,94,96,-1,-1,98,100,102,104,106,108,110,112,114,116,-1,-1,-1,-1,-1,-1,-1,-1,-1,-1,-1,-1,-1,-1,-1,-1,-1,-1,-1,-1,-1,-1,-1,-1,-1,-1,-1,-1,-1,-1,-1,-1,-1,-1,-1,-1,-1,-1,-1,-1,-1,-1,-1,-1,-1,-1,-1,-1,-1,-1,-1,-1,-1,-1,-1,-1],"split_conditions":[2.9734352E-1,-1.26334E-1,1.1185239E-1,3.2173234E-1,-5.2802086E-1,-6.884775E-1,-4.2032477E-1,3.3664417E-1,-1.1121639E-1,-4.6323404E-1,-3.645034E-1,-3.5620368E-1,-2.4682443E-1,3.4949005E-1,2.1266851E-1,-2.3648158E-2,-4.6511787E-1,-5.457996E-1,-1.3618839E-1,-3.2624525E-1,4.1446152E-1,2.5220093E-1,2.3226863E-1,1.5575977E-1,-1.3564661E-1,-1.2646265E-1,-4.6016365E-1,2.8881561E-2,-8.807889E-2,-1.762454E-1,-2.98272E-1,-3.4497574E-1,-4.7054935E-1,4.2243525E-1,-1.181869E0,4.217484E-2,-4.1814238E-1,-1.8201196E0,-6.268045E-2,-4.191811E-1,-1.4691308E0,1.21528015E-1,3.630398E-1,4.3446416E-1,-4.3464607E-1,-1.014039E-1,5.813613E-1,2.661321E-1,-4.2954224E-1,-4.9197957E-2,-1.3309292E-2,-6.956946E-1,-7.661536E-1,1.335154E-1,-4.1577154E-1,-2.5390023E-1,2.0390266E-1,-9.432092E-2,-1.4835007E-2,-1.3712396E-1,-2.0760153E-1,8.416142E-4,-2.1712791E-2,3.323799E-2,8.405749E-4,1.3114916E-2,-1.03406105E-2,-8.551244E-2,-2.284675E-2,1.5107281E-2,-3.4699354E-3,-8.0859987E-4,-2.9871501E-2,2.1683902E-3,3.9917573E-2,2.0739485E-2,-3.3909313E-3,-5.25538E-3,1.0569353E-2,3.6491812E-3,-2.4872534E-2,2.8180039E-2,6.462717E-2,6.523669E-3,-1.7814912E-2,1.5394831E-2,5.3611003E-2,1.4385578E-2,-1.4356934E-2,-5.0876443E-3,1.7199554E-2,-2.1305295E-2,1.382924E-2,1.6095132E-2,3.3023716E-3,-6.7058805E-4,-1.0167368E-2,-1.0425237E-2,1.0644221E-3,-7.6311897E-3,-3.1914353E-2,3.8158584E-3,-1.7324973E-2,-3.8645568E-3,1.9895615E-2,6.0258457E-4,1.3493261E-2,-1.6114207E-2,-4.754758E-2,-5.551164E-2,-1.3811351E-2,7.53867E-3,-2.1186225E-2,-2.0693436E-2,-1.0736327E-3,-5.4426156E-3,3.3141315E-2],"split_indices":[54,5,29,46,59,56,40,51,0,20,3,29,9,17,12,16,41,27,34,11,17,50,58,45,2,29,46,13,0,20,28,16,18,16,36,45,36,8,16,38,4,4,0,10,36,54,11,7,2,0,0,0,1,27,17,5,32,39,34,17,16,0,0,0,0,0,0,0,0,0,0,0,0,0,0,0,0,0,0,0,0,0,0,0,0,0,0,0,0,0,0,0,0,0,0,0,0,0,0,0,0,0,0,0,0,0,0,0,0,0,0,0,0,0,0,0,0],"split_type":[0,0,0,0,0,0,0,0,0,0,0,0,0,0,0,0,0,0,0,0,0,0,0,0,0,0,0,0,0,0,0,0,0,0,0,0,0,0,0,0,0,0,0,0,0,0,0,0,0,0,0,0,0,0,0,0,0,0,0,0,0,0,0,0,0,0,0,0,0,0,0,0,0,0,0,0,0,0,0,0,0,0,0,0,0,0,0,0,0,0,0,0,0,0,0,0,0,0,0,0,0,0,0,0,0,0,0,0,0,0,0,0,0,0,0,0,0],"sum_hessian":[6.57E2,4.77E2,1.8E2,2.01E2,2.76E2,1.12E2,6.8E1,1.44E2,5.7E1,4.8E1,2.28E2,1.4E1,9.8E1,1.6E1,5.2E1,1.04E2,4E1,2.4E1,3.3E1,1.5E1,3.3E1,5.3E1,1.75E2,9E0,5E0,3.2E1,6.6E1,1.1E1,5E0,3.1E1,2.1E1,5.9E1,4.5E1,1.2E1,2.8E1,1E1,1.4E1,1.2E1,2.1E1,1E1,5E0,2.7E1,6E0,3.9E1,1.4E1,1.21E2,5.4E1,5E0,4E0,4E0,1E0,2.8E1,4E0,1.9E1,4.7E1,6E0,5E0,1E1,2.1E1,9E0,1.2E1,2.9E1,3E1,8E0,3.7E1,7E0,5E0,2E0,2.6E1,6E0,4E0,6E0,8E0,2E0,1E1,9E0,1.2E1,5E0,5E0,1E0,4E0,2E1,7E0,4E0,2E0,3E1,9E0,4E0,1E1,7.6E1,4.5E1,4.5E1,9E0,3E0,2E0,1E0,3E0,4E0,2.4E1,1E0,3E0,1.1E1,8E0,1.1E1,3.6E1,3E0,3E0,3E0,2E0,4E0,6E0,1.1E1,1E1,3E0,6E0,4E0,8E0],"tree_param":{"num_deleted":"0","num_feature":"60","num_nodes":"117","size_leaf_vector":"0"}},{"base_weights":[-6.3345337E-4,-2.9160172E-2,1.7604547E-3,8.593226E-5,-7.449593E-2,7.069376E-3,-1.184813E-2,3.6362562E-2,-3.0149367E-2,-2.1395305E-1,-3.7300374E-2,2.4412354E-2,-2.7073496E-3,6.3249054E-3,-4.085561E-2,-1.5555338E-3,7.991975E-2,-8.476291E-2,-8.491004E-3,1.0738625E-2,-8.119489E-2,4.3148257E-2,-1.8146044E-2,-1.6629593E-1,-3.4381822E-4,-1.2393704E-2,2.6754655E-2,-1.0838689E-1,-1.8868236E-2,-1.6996011E-2,1.419605E-2,1.497072E-2,8.824947E-2,-9.199142E-3,-1.0135406E-1,2.284738E-2,-2.8439816E-2,2.6030073E-2,-1.4883202E-2,-4.7589242E-2,-9.856156E-2,3.1261172E-2,1.7307429E-1,6.5354094E-2,-3.361878E-2,-1.8821211E-1,-5.027371E-2,5.1081316E-3,-6.7308545E-2,1.3504992E-2,-4.504829E-2,6.126282E-3,7.585433E-2,-3.7546072E-2,-2.2019723E-1,-1.0178359E-1,-5.5509983E-3,1.6228847E-2,3.032431E-3,2.6201662E-2,3.0379891E-3,-4.5546383E-2,-5.645287E-3,3.5234902E-2,1.2618931E-2,-1.8181589E-1,3.5171002E-2,5.5252247E-2,2.5628147E-1,-8.462355E-3,1.11336425E-1,2.0402487E-2,-5.5907372E-2,3.399742E-2,-7.369618E-3,-2.7712965E-1,-4.2961005E-2,3.5485834E-2,-2.6086899E-2,-2.0621236E-2,-8.618291E-2,-1.728892E-2,6.304302E-2,9.46481E-2,5.094474E-4,-1.0556838E-1,1.6405014E-2,-9.7679175E-2,-2.5703645E-1,2.968033E-3,-1.4427784E-1,-1.4989728E-2,9.4943404E-2],"categories":[],"categories_nodes":[],"categories_segments":[],"categories_sizes":[],"default_left":[1,1,1,1,1,1,1,1,1,0,1,1,1,1,1,1,1,1,1,1,1,1,1,1,1,1,1,1,1,0,1,0,0,0,0,1,1,1,0,0,0,1,1,1,1,0,0,1,1,1,1,1,1,1,1,1,1,0,0,0,0,0,0,0,0,0,0,0,0,0,0,0,0,0,0,0,0,0,0,0,0,0,0,0,0,0,0,0,0,0,0,0,0],"id":25,"left_children":[1,3,5,7,9,11,13,15,17,-1,19,21,23,25,27,29,31,33,35,37,39,41,43,45,47,49,51,53,55,-1,57,-1,-1,-1,-1,59,61,63,-1,-1,-1,65,67,69,71,-1,-1,73,75,77,79,81,83,85,87,89,91,-1,-1,-1,-1,-1,-1,-1,-1,-1,-1,-1,-1,-1,-1,-1,-1,-1,-1,-1,-1,-1,-1,-1,-1,-1,-1,-1,-1,-1,-1,-1,-1,-1,-1,-1,-1],"loss_changes":[4.4986382E-2,6.762701E-2,4.4009876E-2,3.619502E-2,9.5763154E-2,7.43323E-2,9.040174E-2,2.4898402E-2,2.0571396E-2,0E0,3.671895E-2,1.2676743E-1,1.0859056E-1,4.0867742E-2,9.595406E-2,2.430184E-3,2.4658926E-3,5.3360797E-3,9.402065E-3,3.913564E-3,5.6209415E-4,1.6447806E-1,6.550394E-2,7.089302E-4,1.0183837E-1,4.79682E-2,5.1190466E-2,1.1846422E-1,5.574938E-2,0E0,6.425404E-5,0E0,0E0,0E0,0E0,3.1907717E-4,3.2523023E-3,2.960572E-4,0E0,0E0,0E0,9.1370374E-2,7.407266E-2,2.8096188E-2,5.1711082E-2,0E0,0E0,9.325267E-2,9.537541E-2,2.8774137E-2,2.3342732E-2,5.0400477E-2,2.1192E-2,4.2100504E-2,1.9737184E-3,3.1587616E-2,4.4107452E-2,0E0,0E0,0E0,0E0,0E0,0E0,0E0,0E0,0E0,0E0,0E0,0E0,0E0,0E0,0E0,0E0,0E0,0E0,0E0,0E0,0E0,0E0,0E0,0E0,0E0,0E0,0E0,0E0,0E0,0E0,0E0,0E0,0E0,0E0,0E0,0E0],"parents":[2147483647,0,0,1,1,2,2,3,3,4,4,5,5,6,6,7,7,8,8,10,10,11,11,12,12,13,13,14,14,15,15,16,16,17,17,18,18,19,19,20,20,21,21,22,22,23,23,24,24,25,25,26,26,27,27,28,28,30,30,35,35,36,36,37,37,41,41,42,42,43,43,44,44,47,47,48,48,49,49,50,50,51,51,52,52,53,53,54,54,55,55,56,56],"right_children":[2,4,6,8,10,12,14,16,18,-1,20,22,24,26,28,30,32,34,36,38,40,42,44,46,48,50,52,54,56,-1,58,-1,-1,-1,-1,60,62,64,-1,-1,-1,66,68,70,72,-1,-1,74,76,78,80,82,84,86,88,90,92,-1,-1,-1,-1,-1,-1,-1,-1,-1,-1,-1,-1,-1,-1,-1,-1,-1,-1,-1,-1,-1,-1,-1,-1,-1,-1,-1,-1,-1,-1,-1,-1,-1,-1,-1,-1],"split_conditions":[-1.2042743E0,-5.344516E-3,2.885636E-1,-4.2955142E-1,-6.462561E-1,-1.7691445E-1,1.1185239E-1,5.100467E-2,-1.3853572E-1,-6.418592E-2,-8.595011E-2,3.7000763E-1,-1.667486E-1,5.5412233E-2,-4.2032477E-1,5.7186925E-1,-7.659395E-1,-1.2419097E0,-7.1311116E-1,4.7086895E-1,1.399121E-1,-2.1678197E-1,-9.215466E-1,-2.290963E-1,8.371403E-1,1.5019974E-1,1.879256E-1,3.4949005E-1,-6.1558753E-1,-5.0988034E-3,1.1680017E-1,4.491216E-3,2.6474841E-2,-2.7597428E-3,-3.040622E-2,3.5877162E-1,-4.7825533E-1,-7.8566587E-1,-4.4649607E-3,-1.4276774E-2,-2.956847E-2,-2.214581E0,-2.3472609E-1,-2.7449358E-1,-3.307926E-1,-5.6463636E-2,-1.5082113E-2,-2.2978804E-1,-1.3540337E0,3.1651464E-1,-3.303845E-1,2.8405583E-1,2.892122E-1,1.03084475E-1,-4.1581017E-1,-8.3512497E-1,9.498069E-1,4.8686545E-3,9.0972934E-4,7.8604985E-3,9.1139675E-4,-1.3663915E-2,-1.6935862E-3,1.0570471E-2,3.7856793E-3,-5.454477E-2,1.0551301E-2,1.6575675E-2,7.688444E-2,-2.5387064E-3,3.340093E-2,6.1207465E-3,-1.6772212E-2,1.0199226E-2,-2.2108855E-3,-8.31389E-2,-1.2888302E-2,1.0645751E-2,-7.82607E-3,-6.186371E-3,-2.5854873E-2,-5.186676E-3,1.8912908E-2,2.839443E-2,1.5283423E-4,-3.1670514E-2,4.9215043E-3,-2.9303754E-2,-7.711094E-2,8.9041E-4,-4.3283354E-2,-4.4969185E-3,2.8483022E-2],"split_indices":[48,36,54,47,54,41,29,3,47,0,8,16,41,3,40,19,1,5,28,0,10,41,33,0,49,45,33,17,33,0,0,0,0,0,0,2,6,5,0,0,0,31,33,12,2,0,0,7,24,59,29,9,6,11,2,4,53,0,0,0,0,0,0,0,0,0,0,0,0,0,0,0,0,0,0,0,0,0,0,0,0,0,0,0,0,0,0,0,0,0,0,0,0],"split_type":[0,0,0,0,0,0,0,0,0,0,0,0,0,0,0,0,0,0,0,0,0,0,0,0,0,0,0,0,0,0,0,0,0,0,0,0,0,0,0,0,0,0,0,0,0,0,0,0,0,0,0,0,0,0,0,0,0,0,0,0,0,0,0,0,0,0,0,0,0,0,0,0,0,0,0,0,0,0,0,0,0,0,0,0,0,0,0,0,0,0,0,0,0],"sum_hessian":[6.57E2,5E1,6.07E2,3.1E1,1.9E1,4.37E2,1.7E2,1.4E1,1.7E1,3E0,1.6E1,1.57E2,2.8E2,1.05E2,6.5E1,8E0,6E0,4E0,1.3E1,8E0,8E0,1.09E2,4.8E1,3E0,2.77E2,5.5E1,5E1,1.5E1,5E1,4E0,4E0,1E0,5E0,1E0,3E0,5E0,8E0,5E0,3E0,4E0,4E0,1.01E2,8E0,7E0,4.1E1,2E0,1E0,2.57E2,2E1,3.1E1,2.4E1,3.6E1,1.4E1,1E1,5E0,6E0,4.4E1,3E0,1E0,4E0,1E0,4E0,4E0,2E0,3E0,1E0,1E2,4E0,4E0,3E0,4E0,1.2E1,2.9E1,7.7E1,1.8E2,1E0,1.9E1,2E1,1.1E1,1.6E1,8E0,2.6E1,1E1,1.1E1,3E0,4E0,6E0,2E0,3E0,2E0,4E0,4.1E1,3E0],"tree_param":{"num_deleted":"0","num_feature":"60","num_nodes":"93","size_leaf_vector":"0"}},{"base_weights":[-9.520346E-4,6.5377355E-2,-1.8689769E-3,1.0540637E-1,1.2272869E-2,-1.803657E-2,2.564158E-3,-1.3129115E-3,1.5997542E-2,8.393932E-3,-3.7392046E-2,5.5753227E-2,-2.8662375E-4,2.0157516E-1,-1.7429236E-3,-5.5578735E-2,3.2174392E-3,8.848849E-2,-2.8962176E-2,7.284662E-3,-1.6501982E-2,-6.923559E-2,8.878336E-3,-2.6906803E-2,-9.005565E-2,-2.026457E-2,5.858503E-2,3.4859706E-2,1.4420274E-1,-7.1594805E-2,6.5957144E-2,1.1709228E-2,-5.2667513E-2,1.5411017E-2,-3.420824E-2,5.860424E-3,-1.4579672E-1,2.7934961E-2,-1.0519762E-2,7.726667E-3,-4.5416083E-2,-3.4029886E-2,-1.4791441E-1,4.37E-3,-3.49989E-2,7.000479E-2,-1.0676652E-2,-5.511406E-2,4.936849E-2,1.6065075E-1,6.3093007E-3,-3.0468713E-2,-1.0256466E-1,1.004099E-2,1.7907858E-1,-2.4212163E-2,-1.5026434E-1,-2.9731367E-3,8.306734E-2,-2.523586E-1,-2.7181106E-2],"categories":[],"categories_nodes":[],"categories_segments":[],"categories_sizes":[],"default_left":[1,1,1,0,1,1,1,0,0,1,1,1,1,0,1,1,1,1,1,1,1,1,1,1,1,1,1,1,1,1,0,1,1,1,1,0,0,0,0,0,0,0,0,0,0,0,0,0,0,0,0,0,0,0,0,0,0,0,0,0,0],"id":26,"left_children":[1,3,5,-1,7,9,11,-1,-1,13,15,17,19,-1,21,23,25,27,29,31,33,35,37,39,41,43,45,47,49,51,-1,53,55,57,59,-1,-1,-1,-1,-1,-1,-1,-1,-1,-1,-1,-1,-1,-1,-1,-1,-1,-1,-1,-1,-1,-1,-1,-1,-1,-1],"loss_changes":[4.014189E-2,1.7837841E-2,4.6633776E-2,0E0,2.740164E-4,7.1934365E-2,7.749914E-2,0E0,0E0,1.1784634E-1,6.0001522E-2,7.4665524E-2,5.9786968E-2,0E0,4.2192414E-2,5.2934006E-2,3.49909E-2,5.1742986E-2,3.709547E-2,8.868379E-2,8.811146E-2,4.684991E-2,1.9146647E-2,2.0864213E-2,7.600601E-2,7.0494497E-3,7.075032E-3,1.7080404E-2,1.9399077E-2,4.517E-3,0E0,8.475757E-2,6.0236268E-2,6.990001E-2,1.4643782E-1,0E0,0E0,0E0,0E0,0E0,0E0,0E0,0E0,0E0,0E0,0E0,0E0,0E0,0E0,0E0,0E0,0E0,0E0,0E0,0E0,0E0,0E0,0E0,0E0,0E0,0E0],"parents":[2147483647,0,0,1,1,2,2,4,4,5,5,6,6,9,9,10,10,11,11,12,12,14,14,15,15,16,16,17,17,18,18,19,19,20,20,21,21,22,22,23,23,24,24,25,25,26,26,27,27,28,28,29,29,31,31,32,32,33,33,34,34],"right_children":[2,4,6,-1,8,10,12,-1,-1,14,16,18,20,-1,22,24,26,28,30,32,34,36,38,40,42,44,46,48,50,52,-1,54,56,58,60,-1,-1,-1,-1,-1,-1,-1,-1,-1,-1,-1,-1,-1,-1,-1,-1,-1,-1,-1,-1,-1,-1,-1,-1,-1,-1],"split_conditions":[-2.8504164E0,-2.4419372E-1,-4.71507E-1,3.162191E-2,-5.138141E-1,-2.0316535E-1,-4.031362E-1,-3.9387346E-4,4.7992626E-3,-1.6342113E0,1.6355357E-1,2.0416856E-1,2.3806879E-1,6.047255E-2,-9.14322E-1,-1.8161479E-1,1.833351E-1,1.6642946E-1,3.3907944E-1,1.0218886E0,-1.4863521E-1,-4.1181722E-1,-9.855844E-2,-3.987291E-1,-4.9743317E-2,-4.6404397E-1,1.5349965E0,-4.2911425E-1,7.0941395E-1,5.194159E-2,1.9787144E-2,2.2466779E-1,7.36331E-2,2.8932327E-1,-1.4568064E-1,1.7581274E-3,-4.3739017E-2,8.3804885E-3,-3.1559286E-3,2.3180002E-3,-1.36248255E-2,-1.0208966E-2,-4.4374324E-2,1.3110001E-3,-1.0499671E-2,2.1001438E-2,-3.2029958E-3,-1.6534219E-2,1.4810547E-2,4.8195224E-2,1.8927903E-3,-9.140614E-3,-3.07694E-2,3.0122972E-3,5.3723577E-2,-7.2636493E-3,-4.5079302E-2,-8.919411E-4,2.4920205E-2,-7.570758E-2,-8.154332E-3],"split_indices":[45,8,45,0,1,28,45,0,0,43,32,55,51,0,13,32,24,36,19,39,11,11,57,51,43,49,1,9,4,10,0,51,51,1,11,0,0,0,0,0,0,0,0,0,0,0,0,0,0,0,0,0,0,0,0,0,0,0,0,0,0],"split_type":[0,0,0,0,0,0,0,0,0,0,0,0,0,0,0,0,0,0,0,0,0,0,0,0,0,0,0,0,0,0,0,0,0,0,0,0,0,0,0,0,0,0,0,0,0,0,0,0,0,0,0,0,0,0,0,0,0,0,0,0,0],"sum_hessian":[6.57E2,8E0,6.49E2,4E0,4E0,1.39E2,5.1E2,1E0,3E0,5.9E1,8E1,2.5E1,4.85E2,2E0,5.7E1,5.5E1,2.5E1,1.8E1,7E0,3.31E2,1.54E2,7E0,5E1,3.1E1,2.4E1,1.8E1,7E0,1E1,8E0,5E0,2E0,3.09E2,2.2E1,5.5E1,9.9E1,4E0,3E0,2.5E1,2.5E1,1.1E1,2E1,1.3E1,1.1E1,7E0,1.1E1,6E0,1E0,1E0,9E0,7E0,1E0,3E0,2E0,3.07E2,2E0,1.8E1,4E0,4.4E1,1.1E1,2E0,9.7E1],"tree_param":{"num_deleted":"0","num_feature":"60","num_nodes":"61","size_leaf_vector":"0"}},{"base_weights":[-7.04017E-4,6.412787E-3,-6.7224223E-3,1.1423788E-2,-3.9401088E-2,1.809454E-1,-7.757853E-3,1.1187188E-3,3.1685732E-2,-6.3755E-2,1.5682228E-2,-1.4887062E-2,1.7024007E-2,1.5993163E-2,-2.03154E-2,4.974562E-2,-1.8704586E-2,-3.3257622E-2,-1.19998656E-1,-1.1690143E-2,3.5878833E-2,-2.17359E-2,1.8240433E-2,3.1739667E-2,-2.5831403E-2,3.0797653E-2,-2.5398294E-2,2.9945506E-2,-3.5563346E-2,7.739522E-2,-4.1701267E-3,-4.764475E-2,3.803845E-2,-4.4178236E-2,-9.513662E-3,-2.351006E-2,-1.5389208E-1,-2.3196673E-2,3.7131011E-3,-9.395004E-2,-1.7329846E-2,3.9050233E-2,-3.5086952E-2,-2.7314308E-3,5.818025E-2,-1.1478637E-1,-4.6285526E-3,-6.7644683E-3,4.516198E-2,-8.9695044E-2,-8.265843E-3,6.349473E-2,-1.9927863E-2,2.9918188E-4,-5.444623E-2,2.7213862E-2,1.20170005E-1,-7.873746E-2,2.5059955E-2,-7.785887E-2,-3.9215013E-3,8.3692655E-2,1.2625717E-3,-2.17399E-3,-4.8603818E-2,-1.7902665E-2,4.8428946E-3,2.7351081E-3,-3.8000196E-2,-2.3630112E-3,7.932663E-3,5.035917E-3,-1.1240529E-1,-1.704314E-3,-4.2724334E-2,8.090369E-2,1.0641205E-2,-7.074109E-2,4.9628504E-4,1.9861065E-2,-4.312478E-2,8.074135E-2,-2.5235998E-2,1.1408819E-2,-3.8604766E-2],"categories":[],"categories_nodes":[],"categories_segments":[],"categories_sizes":[],"default_left":[1,1,1,1,1,0,1,1,1,1,1,1,1,1,1,1,1,1,1,1,0,1,1,1,1,1,1,1,1,1,1,1,1,1,1,1,0,0,1,1,1,1,1,1,1,0,1,0,0,0,0,0,0,0,0,0,0,0,0,0,0,0,0,0,0,0,0,0,0,0,0,0,0,0,0,0,0,0,0,0,0,0,0,0,0],"id":27,"left_children":[1,3,5,7,9,-1,11,13,15,17,19,21,23,25,27,29,31,33,35,37,-1,39,41,43,45,47,49,51,53,55,57,59,61,63,65,67,-1,-1,69,71,73,75,77,79,81,-1,83,-1,-1,-1,-1,-1,-1,-1,-1,-1,-1,-1,-1,-1,-1,-1,-1,-1,-1,-1,-1,-1,-1,-1,-1,-1,-1,-1,-1,-1,-1,-1,-1,-1,-1,-1,-1,-1,-1],"loss_changes":[2.8226443E-2,6.978128E-2,7.0774905E-2,5.6967158E-2,4.124464E-2,0E0,6.314975E-2,5.8350258E-2,8.4654465E-2,3.20301E-2,5.9477184E-3,6.324358E-2,5.1271528E-2,6.6962376E-2,5.8543127E-2,1.0169369E-1,4.2866144E-2,3.4691822E-3,1.9274294E-2,9.72321E-4,0E0,7.155311E-2,5.4637298E-2,5.4845076E-2,3.9076783E-2,4.346987E-2,3.1203862E-2,3.1383142E-2,3.9293192E-2,9.332207E-2,5.4283783E-2,2.2152688E-2,1.5005093E-2,1.7532688E-3,8.0932386E-4,1.244823E-3,0E0,0E0,9.5660565E-5,2.4314612E-2,8.643011E-2,4.0754646E-2,1.7796764E-2,2.5496341E-2,6.602432E-2,0E0,1.0248439E-2,0E0,0E0,0E0,0E0,0E0,0E0,0E0,0E0,0E0,0E0,0E0,0E0,0E0,0E0,0E0,0E0,0E0,0E0,0E0,0E0,0E0,0E0,0E0,0E0,0E0,0E0,0E0,0E0,0E0,0E0,0E0,0E0,0E0,0E0,0E0,0E0,0E0,0E0],"parents":[2147483647,0,0,1,1,2,2,3,3,4,4,6,6,7,7,8,8,9,9,10,10,11,11,12,12,13,13,14,14,15,15,16,16,17,17,18,18,19,19,21,21,22,22,23,23,24,24,25,25,26,26,27,27,28,28,29,29,30,30,31,31,32,32,33,33,34,34,35,35,38,38,39,39,40,40,41,41,42,42,43,43,44,44,46,46],"right_children":[2,4,6,8,10,-1,12,14,16,18,20,22,24,26,28,30,32,34,36,38,-1,40,42,44,46,48,50,52,54,56,58,60,62,64,66,68,-1,-1,70,72,74,76,78,80,82,-1,84,-1,-1,-1,-1,-1,-1,-1,-1,-1,-1,-1,-1,-1,-1,-1,-1,-1,-1,-1,-1,-1,-1,-1,-1,-1,-1,-1,-1,-1,-1,-1,-1,-1,-1,-1,-1,-1,-1],"split_conditions":[-1.1425713E-1,7.3935103E-1,-3.3563826E0,1.4053184E-1,4.5132384E-1,5.4283623E-2,4.0245232E-1,1.2126844E-1,3.2168216E-1,5.6595314E-1,2.794781E-1,5.3541064E-1,3.7140733E-1,3.3884862E-1,-3.559854E-1,2.2895233E-1,1.9743538E-1,1.675448E-1,-7.957468E-1,-7.945612E-1,1.0763651E-2,-7.209718E-2,1.2866223E-1,-1.257747E-1,4.0582526E-1,-4.0399787E-1,-8.5210454E-1,2.2398433E-1,-1.7592569E-1,-1.2564893E-1,3.4538004E-1,-2.479024E-1,-2.9249397E-1,-1.2990748E0,2.9177949E-2,-1.0498408E0,-4.6167627E-2,-6.959002E-3,-4.6197307E-1,-3.9018175E-1,1.0650898E-1,-1.4605895E-1,1.9622011E-1,9.5008284E-2,2.8708106E-1,-3.4435913E-2,4.298341E-1,-2.0293405E-3,1.3548595E-2,-2.6908515E-2,-2.479753E-3,1.9048419E-2,-5.9783594E-3,8.975457E-5,-1.633387E-2,8.164159E-3,3.6051E-2,-2.3621239E-2,7.517987E-3,-2.3357663E-2,-1.1764504E-3,2.5107797E-2,3.787715E-4,-6.5219705E-4,-1.4581146E-2,-5.3707995E-3,1.4528685E-3,8.205325E-4,-1.1400059E-2,-7.089034E-4,2.379799E-3,1.5107751E-3,-3.372159E-2,-5.1129423E-4,-1.2817301E-2,2.4271106E-2,3.1923617E-3,-2.1222327E-2,1.4888552E-4,5.9583196E-3,-1.2937435E-2,2.4222407E-2,-7.5707994E-3,3.4226459E-3,-1.158143E-2],"split_indices":[1,5,41,5,28,0,50,9,54,26,11,41,45,41,47,16,49,48,0,1,0,1,33,17,45,6,22,58,38,13,16,38,43,0,3,0,0,0,0,34,27,28,1,32,42,0,35,0,0,0,0,0,0,0,0,0,0,0,0,0,0,0,0,0,0,0,0,0,0,0,0,0,0,0,0,0,0,0,0,0,0,0,0,0,0],"split_type":[0,0,0,0,0,0,0,0,0,0,0,0,0,0,0,0,0,0,0,0,0,0,0,0,0,0,0,0,0,0,0,0,0,0,0,0,0,0,0,0,0,0,0,0,0,0,0,0,0,0,0,0,0,0,0,0,0,0,0,0,0,0,0,0,0,0,0,0,0,0,0,0,0,0,0,0,0,0,0,0,0,0,0,0,0],"sum_hessian":[6.57E2,3.01E2,3.56E2,2.72E2,2.9E1,1E0,3.55E2,1.81E2,9.1E1,2E1,9E0,2.76E2,7.9E1,1.07E2,7.4E1,6.7E1,2.4E1,1.4E1,6E0,4E0,5E0,2.29E2,4.7E1,5.9E1,2E1,7.9E1,2.8E1,1.7E1,5.7E1,4.4E1,2.3E1,1.6E1,8E0,9E0,5E0,2E0,4E0,2E0,2E0,1.2E1,2.17E2,3.4E1,1.3E1,2.6E1,3.3E1,3E0,1.7E1,2.2E1,5.7E1,5E0,2.3E1,1E1,7E0,2E1,3.7E1,2.1E1,2.3E1,6E0,1.7E1,9E0,7E0,3E0,5E0,1E0,8E0,3E0,2E0,1E0,1E0,1E0,1E0,2E0,1E1,1.35E2,8.2E1,1.3E1,2.1E1,6E0,7E0,1.7E1,9E0,2.6E1,7E0,1.2E1,5E0],"tree_param":{"num_deleted":"0","num_feature":"60","num_nodes":"85","size_leaf_vector":"0"}},{"base_weights":[-6.1468146E-4,-2.3202188E-3,2.8073398E-2,-1.2649125E-2,2.7878745E-3,-1.9855645E-2,4.911475E-2,-2.3599947E-2,2.3888994E-2,2.5043968E-2,-3.6777451E-3,8.059408E-3,-4.0946312E-2,8.0768175E-2,1.6214086E-2,4.9114404E-3,-3.1394336E-2,4.669338E-2,-1.3375249E-2,-7.114608E-2,3.241086E-2,5.162136E-2,-7.099331E-3,-2.3156032E-3,1.9206285E-2,-4.5381293E-2,-7.1682185E-3,1.3226056E-1,4.3187052E-2,3.2296468E-2,-1.0611832E-2,-2.4657944E-2,4.598115E-2,-3.793096E-2,1.2363687E-2,-1.1064572E-2,7.1973674E-2,-3.4441605E-2,1.989619E-2,-9.215677E-2,-1.2412906E-2,3.979805E-2,-7.518044E-2,9.286563E-2,-4.5240195E-3,-2.532071E-2,1.3510177E-3,2.5838614E-5,-4.6699643E-3,1.20534E-3,4.82841E-2,8.847986E-3,3.7732035E-2,3.1653494E-3,-1.40003385E-2,-4.7438186E-2,1.0986622E-2,-3.5846815E-3,6.4330965E-2,-1.1739446E-2,-4.964792E-2,-2.0370109E-3,4.7332764E-2,9.230806E-3,-4.3815337E-2,-1.8211467E-3,9.514838E-2,-5.9272926E-2,2.6854128E-4,2.1748424E-3,3.707383E-2,-1.7617196E-2,-1.0021627E-3,4.652539E-2,-5.4290354E-2,-1.3290264E-1,-1.309368E-2,1.578327E-1,4.87739E-2,-3.128599E-2,7.5916857E-3,1.4977297E-2,-3.6652755E-2,1.5864147E-2,-1.7436083E-2,-6.110221E-4,6.4978004E-4],"categories":[],"categories_nodes":[],"categories_segments":[],"categories_sizes":[],"default_left":[1,1,1,1,1,1,1,1,1,1,1,1,1,1,1,1,1,1,1,1,1,1,1,1,0,0,0,0,1,1,1,1,1,1,1,1,1,1,1,0,1,1,1,1,1,1,1,1,0,0,0,0,0,0,0,0,0,0,0,0,0,0,0,0,0,0,0,0,0,0,0,0,0,0,0,0,0,0,0,0,0,0,0,0,0,0,0],"id":28,"left_children":[1,3,5,7,9,11,13,15,17,19,21,23,25,27,29,31,33,35,37,39,41,43,45,47,-1,-1,-1,-1,49,51,53,55,57,59,61,63,65,67,69,-1,71,73,75,77,79,81,83,85,-1,-1,-1,-1,-1,-1,-1,-1,-1,-1,-1,-1,-1,-1,-1,-1,-1,-1,-1,-1,-1,-1,-1,-1,-1,-1,-1,-1,-1,-1,-1,-1,-1,-1,-1,-1,-1,-1,-1],"loss_changes":[3.2260153E-2,3.2852616E-2,3.8289405E-2,8.298899E-2,6.009817E-2,7.394967E-3,2.5767297E-2,3.5488576E-2,4.1414373E-2,6.8916336E-2,6.1670717E-2,7.38368E-4,7.233331E-4,1.9444898E-2,6.3826703E-3,4.363801E-2,3.622268E-2,4.46005E-2,1.4002508E-2,7.4942373E-3,7.293421E-2,4.441796E-2,4.715117E-2,2.2171063E-5,0E0,0E0,0E0,0E0,1.8676464E-3,8.132495E-4,3.244204E-4,1.7573014E-2,1.3873469E-2,3.286761E-2,8.657262E-3,7.051342E-3,3.6086902E-2,1.0358703E-2,2.3546568E-3,0E0,1.6049916E-4,5.5061936E-2,1.9762523E-2,2.3811497E-2,3.155675E-3,4.4844866E-2,5.7535134E-2,1.5891213E-6,0E0,0E0,0E0,0E0,0E0,0E0,0E0,0E0,0E0,0E0,0E0,0E0,0E0,0E0,0E0,0E0,0E0,0E0,0E0,0E0,0E0,0E0,0E0,0E0,0E0,0E0,0E0,0E0,0E0,0E0,0E0,0E0,0E0,0E0,0E0,0E0,0E0,0E0,0E0],"parents":[2147483647,0,0,1,1,2,2,3,3,4,4,5,5,6,6,7,7,8,8,9,9,10,10,11,11,12,12,13,13,14,14,15,15,16,16,17,17,18,18,19,19,20,20,21,21,22,22,23,23,28,28,29,29,30,30,31,31,32,32,33,33,34,34,35,35,36,36,37,37,38,38,40,40,41,41,42,42,43,43,44,44,45,45,46,46,47,47],"right_children":[2,4,6,8,10,12,14,16,18,20,22,24,26,28,30,32,34,36,38,40,42,44,46,48,-1,-1,-1,-1,50,52,54,56,58,60,62,64,66,68,70,-1,72,74,76,78,80,82,84,86,-1,-1,-1,-1,-1,-1,-1,-1,-1,-1,-1,-1,-1,-1,-1,-1,-1,-1,-1,-1,-1,-1,-1,-1,-1,-1,-1,-1,-1,-1,-1,-1,-1,-1,-1,-1,-1,-1,-1],"split_conditions":[1.3522654E0,-3.0906737E-1,-4.7865596E-1,4.8828924E-1,-8.444846E-2,-7.991117E-2,-6.779544E-2,-6.0260797E-1,-1.3748193E-1,-7.7909863E-1,-1.1617002E0,4.4129884E-1,8.231122E-1,-5.2586246E-1,2.1447039E-1,2.6583048E-2,7.0256126E-1,-4.5915246E-1,1.9029939E-1,3.781083E-1,7.6387787E-1,3.464862E-1,-2.7941513E-1,-1.6512069E0,5.761886E-3,-1.3614388E-2,-2.1504657E-3,3.967817E-2,-2.669137E0,-2.3660157E0,-1.5794203E-1,1.3913612E-1,-3.6762524E-1,-3.0552614E-1,-1.20576695E-1,-2.5304645E-1,-3.5987073E-1,8.2732666E-1,-1.5857509E-1,-2.7647031E-2,6.108686E-1,8.8141507E-1,4.647991E-1,4.063872E-1,-1.0541047E0,-4.8162526E-1,2.9708862E-2,-2.0327435E0,-1.4009894E-3,3.6160203E-4,1.448523E-2,2.654396E-3,1.1319611E-2,9.4960484E-4,-4.200102E-3,-1.4231456E-2,3.295987E-3,-1.0754045E-3,1.9299291E-2,-3.5218338E-3,-1.48943765E-2,-6.1110326E-4,1.419983E-2,2.7692418E-3,-1.3144602E-2,-5.4634403E-4,2.8544514E-2,-1.7781878E-2,8.0562386E-5,6.5245276E-4,1.11221485E-2,-5.2851588E-3,-3.0064883E-4,1.3957617E-2,-1.6287107E-2,-3.987079E-2,-3.9281044E-3,4.734981E-2,1.463217E-2,-9.385797E-3,2.2775058E-3,4.493189E-3,-1.0995827E-2,4.759244E-3,-5.2308254E-3,-1.8330665E-4,1.9493402E-4],"split_indices":[2,39,7,37,39,54,53,52,30,19,19,11,5,36,35,24,28,51,28,0,4,58,40,0,0,0,0,0,1,1,0,7,29,38,37,29,1,37,4,0,0,48,1,39,7,3,44,0,0,0,0,0,0,0,0,0,0,0,0,0,0,0,0,0,0,0,0,0,0,0,0,0,0,0,0,0,0,0,0,0,0,0,0,0,0,0,0],"split_type":[0,0,0,0,0,0,0,0,0,0,0,0,0,0,0,0,0,0,0,0,0,0,0,0,0,0,0,0,0,0,0,0,0,0,0,0,0,0,0,0,0,0,0,0,0,0,0,0,0,0,0,0,0,0,0,0,0,0,0,0,0,0,0,0,0,0,0,0,0,0,0,0,0,0,0,0,0,0,0,0,0,0,0,0,0,0,0],"sum_hessian":[6.57E2,6.21E2,3.6E1,2.05E2,4.16E2,1.1E1,2.5E1,1.58E2,4.7E1,9.3E1,3.23E2,5E0,6E0,1.2E1,1.3E1,3.4E1,1.24E2,2.9E1,1.8E1,6E0,8.7E1,1.8E1,3.05E2,3E0,2E0,5E0,1E0,4E0,8E0,8E0,5E0,2E1,1.4E1,1.08E2,1.6E1,9E0,2E1,1.1E1,7E0,4E0,2E0,8.2E1,5E0,1E1,8E0,9.6E1,2.09E2,2E0,1E0,1E0,7E0,2E0,6E0,1E0,4E0,1.2E1,8E0,4E0,1E1,3.4E1,7.4E1,1.2E1,4E0,6E0,3E0,5E0,1.5E1,6E0,5E0,4E0,3E0,1E0,1E0,7.7E1,5E0,2E0,3E0,3E0,7E0,2E0,6E0,2.1E1,7.5E1,1.18E2,9.1E1,1E0,1E0],"tree_param":{"num_deleted":"0","num_feature":"60","num_nodes":"87","size_leaf_vector":"0"}},{"base_weights":[-3.7472858E-4,-3.4978562E-3,9.287957E-3,-9.925778E-3,8.113721E-3,2.510102E-2,-1.44528905E-2,6.865754E-4,-2.4183879E-2,4.3423146E-2,3.7212053E-4,4.1310515E-2,-9.115476E-3,-2.7598E-2,3.1204006E-2,-3.7284663E-3,7.832266E-2,-5.376319E-2,-6.017507E-3,2.6510565E-2,1.2944898E-1,-2.3958584E-2,1.3942176E-2,-7.2221184E-5,6.0624067E-2,-7.629882E-2,6.1517665E-3,-4.9786534E-2,3.9135474E-3,-1.3573413E-2,5.4950055E-2,1.356256E-2,-1.8614106E-2,-4.3157027E-3,1.6182415E-1,-1.0489186E-1,-3.0200431E-2,4.127857E-2,-2.720045E-2,2.318256E-3,5.424644E-2,-3.3834536E-2,3.5822965E-2,3.609389E-2,-1.4588608E-3,1.4627296E-2,-5.2976035E-2,2.8989447E-2,9.5397465E-2,-8.419829E-2,-1.8400744E-2,-1.194778E-2,3.356454E-2,-7.9250485E-3,-7.725391E-2,3.5567403E-2,-2.0736614E-2,-2.9006153E-3,-2.327934E-2,3.220952E-2,9.72748E-2,-3.6143982E-3,3.3546787E-2,-3.2552958E-2,9.84529E-3,-5.7519536E-2,3.66661E-2,7.261355E-2,1.9709337E-1,-3.935372E-2,-1.5149333E-1,-1.3530385E-2,-1.3418266E-1,6.264848E-2,-2.8728103E-2,-3.6599055E-2,6.348685E-2,3.9035507E-2,-2.3615643E-2,2.2282232E-2,1.0093273E-1,-1.0694436E-2,-5.8592174E-2,3.0204405E-3,4.6253733E-2,4.8142314E-2,-1.6611531E-2,1.0991096E-2,-3.4048818E-2,-1.2273179E-2,2.9100297E-2,6.613909E-2,-1.8625545E-4,6.430516E-2,2.1146351E-1,6.5645566E-3,-2.9132586E-2,7.958341E-2,6.3595437E-3,-2.9690795E-2,1.4972849E-2,-1.321803E-1,-3.8775682E-2,1.0691859E-2,5.8304574E-2,1.7814804E-2,-3.408352E-2,-3.8290222E-3,-5.7697296E-5],"categories":[],"categories_nodes":[],"categories_segments":[],"categories_sizes":[],"default_left":[1,1,1,1,1,1,1,1,1,1,1,1,1,1,1,1,1,1,1,1,0,1,1,1,1,1,1,1,1,1,1,1,1,1,1,1,1,1,1,1,1,1,1,1,1,1,0,1,1,0,0,1,1,1,1,1,1,1,0,0,0,0,0,0,0,0,0,0,0,0,0,0,0,0,0,0,0,0,0,0,0,0,0,0,0,0,0,0,0,0,0,0,0,0,0,0,0,0,0,0,0,0,0,0,0,0,0,0,0],"id":29,"left_children":[1,3,5,7,9,11,13,15,17,19,21,23,25,27,29,31,33,35,37,39,-1,41,43,45,47,49,51,53,55,57,59,61,63,65,67,69,71,73,75,77,79,81,83,85,87,89,-1,91,93,-1,-1,95,97,99,101,103,105,107,-1,-1,-1,-1,-1,-1,-1,-1,-1,-1,-1,-1,-1,-1,-1,-1,-1,-1,-1,-1,-1,-1,-1,-1,-1,-1,-1,-1,-1,-1,-1,-1,-1,-1,-1,-1,-1,-1,-1,-1,-1,-1,-1,-1,-1,-1,-1,-1,-1,-1,-1],"loss_changes":[1.9889481E-2,3.725042E-2,6.080468E-2,4.8587758E-2,4.8640408E-2,5.4175884E-2,3.9871883E-2,6.370383E-2,7.329325E-2,4.312564E-2,4.886888E-2,5.2754723E-2,3.3291914E-2,3.5853785E-2,1.6695162E-2,4.5552738E-2,6.9702655E-2,5.9478313E-2,8.728362E-2,1.8662099E-2,0E0,3.250324E-2,3.2462798E-2,1.7883427E-2,4.6736434E-2,1.1948757E-3,1.379731E-2,3.3882514E-2,1.7903546E-2,5.540119E-4,6.4917E-3,2.8269242E-2,3.8006164E-2,1.5191351E-2,1.4202893E-3,4.2904943E-2,6.2319838E-2,4.219276E-2,5.3463615E-2,1.6157392E-2,1.7150763E-2,2.572652E-2,2.597537E-3,2.5565393E-2,2.3501614E-2,7.3651047E-3,0E0,2.7108992E-2,6.2185794E-2,0E0,0E0,5.599468E-3,1.3265259E-2,6.9236234E-3,3.291709E-2,5.032611E-3,7.29624E-3,1.0336615E-5,0E0,0E0,0E0,0E0,0E0,0E0,0E0,0E0,0E0,0E0,0E0,0E0,0E0,0E0,0E0,0E0,0E0,0E0,0E0,0E0,0E0,0E0,0E0,0E0,0E0,0E0,0E0,0E0,0E0,0E0,0E0,0E0,0E0,0E0,0E0,0E0,0E0,0E0,0E0,0E0,0E0,0E0,0E0,0E0,0E0,0E0,0E0,0E0,0E0,0E0,0E0],"parents":[2147483647,0,0,1,1,2,2,3,3,4,4,5,5,6,6,7,7,8,8,9,9,10,10,11,11,12,12,13,13,14,14,15,15,16,16,17,17,18,18,19,19,21,21,22,22,23,23,24,24,25,25,26,26,27,27,28,28,29,29,30,30,31,31,32,32,33,33,34,34,35,35,36,36,37,37,38,38,39,39,40,40,41,41,42,42,43,43,44,44,45,45,47,47,48,48,51,51,52,52,53,53,54,54,55,55,56,56,57,57],"right_children":[2,4,6,8,10,12,14,16,18,20,22,24,26,28,30,32,34,36,38,40,-1,42,44,46,48,50,52,54,56,58,60,62,64,66,68,70,72,74,76,78,80,82,84,86,88,90,-1,92,94,-1,-1,96,98,100,102,104,106,108,-1,-1,-1,-1,-1,-1,-1,-1,-1,-1,-1,-1,-1,-1,-1,-1,-1,-1,-1,-1,-1,-1,-1,-1,-1,-1,-1,-1,-1,-1,-1,-1,-1,-1,-1,-1,-1,-1,-1,-1,-1,-1,-1,-1,-1,-1,-1,-1,-1,-1,-1],"split_conditions":[3.817559E-1,1.687889E-1,1.3266665E-1,-1.8104596E-1,2.709107E-1,2.4165183E-1,4.2993358E-1,-2.4110612E-1,-7.9678684E-2,3.1144452E-1,-1.8918046E-1,-4.6564803E-1,-4.6116066E-1,-9.975583E-2,-8.624053E-1,-1.4295673E-1,6.900884E-2,-3.0566597E-1,-2.1788587E-1,-7.9678684E-2,3.8834695E-2,6.4198506E-1,-2.9212095E-2,2.6973018E-1,-1.4384723E-1,2.3525867E0,1.3465054E-1,-2.121746E-1,-1.4109494E-1,-4.1230986E-1,7.447128E-1,-2.7228411E-2,2.8449595E-1,-9.153256E-2,-1.843441E-1,-1.5292957E-1,5.232787E-1,5.705353E-1,4.0245232E-1,3.486535E-2,1.1578937E-1,-1.5640518E-1,-9.945287E-1,5.555353E-1,2.7078962E-1,-2.491472E-1,-1.5892811E-2,-1.5257162E-1,1.0077384E-2,-2.5259487E-2,-5.520223E-3,1.664944E-1,-1.6924354E-1,1.01872966E-1,7.619802E-3,-4.270587E-1,-6.689973E-1,3.5091043E-3,-6.983802E-3,9.662856E-3,2.9182442E-2,-1.0843195E-3,1.0064037E-2,-9.765888E-3,2.9535873E-3,-1.7255861E-2,1.099983E-2,2.1784067E-2,5.9128013E-2,-1.1806116E-2,-4.5447998E-2,-4.0591154E-3,-4.02548E-2,1.8794546E-2,-8.618431E-3,-1.0979717E-2,1.9046057E-2,1.1710652E-2,-7.0846933E-3,6.6846698E-3,3.027982E-2,-3.2083308E-3,-1.7577654E-2,9.0613216E-4,1.3876121E-2,1.4442694E-2,-4.9834596E-3,3.2973287E-3,-1.0214645E-2,-3.681954E-3,8.730089E-3,1.9841727E-2,-5.5876637E-5,1.9291548E-2,6.343906E-2,1.969367E-3,-8.739776E-3,2.3875022E-2,1.9078632E-3,-8.907239E-3,4.491855E-3,-3.965409E-2,-1.1632705E-2,3.2075578E-3,1.7491372E-2,5.344441E-3,-1.0225056E-2,-1.1487067E-3,-1.730919E-5],"split_indices":[10,41,41,41,41,31,43,41,45,26,2,44,13,31,55,53,24,5,25,32,0,43,23,43,31,0,34,43,7,16,46,25,12,17,2,49,42,13,50,18,6,28,11,48,17,2,0,30,26,0,0,16,4,39,58,45,21,0,0,0,0,0,0,0,0,0,0,0,0,0,0,0,0,0,0,0,0,0,0,0,0,0,0,0,0,0,0,0,0,0,0,0,0,0,0,0,0,0,0,0,0,0,0,0,0,0,0,0,0],"split_type":[0,0,0,0,0,0,0,0,0,0,0,0,0,0,0,0,0,0,0,0,0,0,0,0,0,0,0,0,0,0,0,0,0,0,0,0,0,0,0,0,0,0,0,0,0,0,0,0,0,0,0,0,0,0,0,0,0,0,0,0,0,0,0,0,0,0,0,0,0,0,0,0,0,0,0,0,0,0,0,0,0,0,0,0,0,0,0,0,0,0,0,0,0,0,0,0,0,0,0,0,0,0,0,0,0,0,0,0,0],"sum_hessian":[6.57E2,4.97E2,1.6E2,3.2E2,1.77E2,9.6E1,6.4E1,1.84E2,1.36E2,3.1E1,1.46E2,6.5E1,3.1E1,5E1,1.4E1,1.75E2,9E0,5.1E1,8.5E1,2.7E1,4E0,5.2E1,9.4E1,2.1E1,4.4E1,5E0,2.6E1,2.9E1,2.1E1,5E0,9E0,8.1E1,9.4E1,5E0,4E0,1.5E1,3.6E1,2.6E1,5.9E1,1.5E1,1.2E1,4.5E1,7E0,3.8E1,5.6E1,1.7E1,4E0,2.4E1,2E1,4E0,1E0,1.6E1,1E1,1.2E1,1.7E1,9E0,1.2E1,3E0,2E0,7E0,2E0,4.4E1,3.7E1,6.3E1,3.1E1,2E0,3E0,2E0,2E0,7E0,8E0,3.2E1,4E0,2E1,6E0,5.4E1,5E0,6E0,9E0,8E0,4E0,2.4E1,2.1E1,2E0,5E0,3.1E1,7E0,4.1E1,1.5E1,6E0,1.1E1,1E1,1.4E1,1.7E1,3E0,8E0,8E0,3E0,7E0,6E0,6E0,6E0,1.1E1,5E0,4E0,3E0,9E0,2E0,1E0],"tree_param":{"num_deleted":"0","num_feature":"60","num_nodes":"109","size_leaf_vector":"0"}},{"base_weights":[-4.775477E-5,8.96486E-4,-2.50288E-2,6.9031464E-3,-3.830372E-3,-5.5434536E-2,-6.361275E-3,-7.444316E-3,1.4791782E-2,3.7098816E-3,-1.4210385E-2,-1.1808289E-1,-2.0666022E-2,-1.3092078E-2,1.7104156E-2,-3.5038653E-3,-1.01139165E-1,4.3397583E-2,7.880253E-3,-3.857616E-3,4.372813E-2,-5.6112904E-2,-8.788347E-3,-2.8119965E-2,1.2028813E-2,8.7828125E-4,-2.193334E-2,2.4262553E-2,-1.2964915E-2,2.105135E-2,8.447359E-2,-3.4963313E-4,4.2869754E-2,3.5562754E-2,-1.0975015E-2,6.260663E-2,-5.9530884E-3,-1.3631784E-2,-1.0220019E-1,2.2186236E-3,-2.989339E-2,-4.1965097E-3,7.351909E-3,-2.894082E-2,-7.690653E-3,1.17058E-2,7.2148405E-2,-3.5090424E-2,7.8463304E-4,6.506208E-4,5.498027E-2,2.5177753E-2,1.3957313E-1,1.3603327E-2,-2.6586162E-2,6.0202163E-2,-7.986542E-3,-1.7795166E-3,6.1346788E-2,-4.111426E-2,8.448339E-5,-3.2220535E-2,7.768768E-2,2.4377897E-2,-3.0236728E-2,1.7692557E-2,-3.7463438E-2,-3.6450267E-2,-1.3436009E-1,-6.5653417E-3,3.723123E-2,-4.6421446E-2,3.9980495E-3,-5.5626533E-3,-4.903972E-5,8.865692E-3,2.1621715E-3],"categories":[],"categories_nodes":[],"categories_segments":[],"categories_sizes":[],"default_left":[1,1,1,1,1,1,1,1,1,1,1,0,1,1,0,1,0,1,1,1,1,1,1,0,0,1,1,1,1,1,1,1,1,1,1,1,1,1,1,1,1,1,1,0,0,0,0,0,0,0,0,0,0,0,0,0,0,0,0,0,0,0,0,0,0,0,0,0,0,0,0,0,0,0,0,0,0],"id":30,"left_children":[1,3,5,7,9,11,13,15,17,19,21,-1,23,25,-1,27,-1,29,31,33,35,37,39,-1,-1,41,43,45,47,49,51,53,55,57,59,61,63,65,67,69,71,73,75,-1,-1,-1,-1,-1,-1,-1,-1,-1,-1,-1,-1,-1,-1,-1,-1,-1,-1,-1,-1,-1,-1,-1,-1,-1,-1,-1,-1,-1,-1,-1,-1,-1,-1],"loss_changes":[1.5543423E-2,1.8055761E-2,1.32697625E-2,3.1801045E-2,2.7916105E-2,1.7163407E-2,2.7509884E-3,3.6565617E-2,3.5443496E-2,6.285615E-2,3.358642E-2,0E0,2.0441876E-3,1.624966E-3,0E0,2.5796408E-2,0E0,3.034801E-2,4.2345047E-2,4.949014E-2,3.1323634E-2,3.18901E-2,3.1194871E-2,0E0,0E0,2.279662E-4,5.758691E-4,1.4187715E-2,2.2235284E-2,1.657642E-2,3.569194E-2,4.429093E-2,2.5161747E-2,2.6105694E-2,4.9668886E-2,3.682538E-2,8.102575E-3,8.127933E-3,1.2018628E-2,2.7616343E-2,2.5952928E-2,2.2391367E-5,4.3992623E-6,0E0,0E0,0E0,0E0,0E0,0E0,0E0,0E0,0E0,0E0,0E0,0E0,0E0,0E0,0E0,0E0,0E0,0E0,0E0,0E0,0E0,0E0,0E0,0E0,0E0,0E0,0E0,0E0,0E0,0E0,0E0,0E0,0E0,0E0],"parents":[2147483647,0,0,1,1,2,2,3,3,4,4,5,5,6,6,7,7,8,8,9,9,10,10,12,12,13,13,15,15,17,17,18,18,19,19,20,20,21,21,22,22,25,25,26,26,27,27,28,28,29,29,30,30,31,31,32,32,33,33,34,34,35,35,36,36,37,37,38,38,39,39,40,40,41,41,42,42],"right_children":[2,4,6,8,10,12,14,16,18,20,22,-1,24,26,-1,28,-1,30,32,34,36,38,40,-1,-1,42,44,46,48,50,52,54,56,58,60,62,64,66,68,70,72,74,76,-1,-1,-1,-1,-1,-1,-1,-1,-1,-1,-1,-1,-1,-1,-1,-1,-1,-1,-1,-1,-1,-1,-1,-1,-1,-1,-1,-1,-1,-1,-1,-1,-1,-1],"split_conditions":[1.7796812E0,-9.6304685E-2,-4.972378E-1,-2.7646175E-1,3.1383637E-2,-7.8715965E-2,9.3288875E-1,-2.885096E-1,-5.2694905E-1,-8.5171565E-2,8.615172E-2,-3.542487E-2,1.2223392E0,-1.3382483E-1,5.131247E-3,-4.7276047E-1,-3.034175E-2,4.5168763E-1,5.5948204E-1,-5.4064584E-1,1.6494316E-1,-1.3717753E-1,1.9334951E-1,-8.43599E-3,3.6086442E-3,-3.0455655E-1,-1.5438369E-1,7.287257E-1,-3.274879E-1,1.6651529E-1,-1.4854647E-1,1.9467132E-1,2.3748073E-1,-2.2146302E-1,-3.4428012E-1,-1.9079329E0,-5.5041945E-1,-1.21848196E-1,6.682426E-4,3.4327683E-1,2.7327096E-1,5.8770853E-1,-9.2515916E-2,-8.682246E-3,-2.3071961E-3,3.5117401E-3,2.1644522E-2,-1.0527127E-2,2.3538992E-4,1.9518625E-4,1.6494082E-2,7.553326E-3,4.187194E-2,4.0809982E-3,-7.975849E-3,1.8060649E-2,-2.3959626E-3,-5.33855E-4,1.8404037E-2,-1.2334279E-2,2.5345018E-5,-9.666161E-3,2.3306305E-2,7.3133693E-3,-9.071019E-3,5.307767E-3,-1.1239031E-2,-1.093508E-2,-4.030803E-2,-1.9696027E-3,1.1169369E-2,-1.3926434E-2,1.199415E-3,-1.6687961E-3,-1.4711917E-5,2.6597076E-3,6.486515E-4],"split_indices":[33,6,50,51,21,54,1,51,3,21,21,0,4,7,0,20,0,10,17,23,10,16,26,0,0,1,17,31,9,49,5,25,35,26,35,28,14,27,52,37,48,0,0,0,0,0,0,0,0,0,0,0,0,0,0,0,0,0,0,0,0,0,0,0,0,0,0,0,0,0,0,0,0,0,0,0,0],"split_type":[0,0,0,0,0,0,0,0,0,0,0,0,0,0,0,0,0,0,0,0,0,0,0,0,0,0,0,0,0,0,0,0,0,0,0,0,0,0,0,0,0,0,0,0,0,0,0,0,0,0,0,0,0,0,0,0,0,0,0,0,0,0,0,0,0,0,0,0,0,0,0,0,0,0,0,0,0],"sum_hessian":[6.57E2,6.34E2,2.3E1,2.79E2,3.55E2,8E0,1.5E1,9.9E1,1.8E2,2.06E2,1.49E2,2E0,6E0,1.2E1,3E0,9.6E1,3E0,3.4E1,1.46E2,1.74E2,3.2E1,1.6E1,1.33E2,5E0,1E0,5E0,7E0,2.4E1,7.2E1,2.3E1,1.1E1,1.19E2,2.7E1,2.6E1,1.48E2,2.3E1,9E0,9E0,7E0,8.8E1,4.5E1,3E0,2E0,4E0,3E0,2E1,4E0,2.7E1,4.5E1,1.5E1,8E0,6E0,5E0,7.8E1,4.1E1,2E1,7E0,1.1E1,1.5E1,3.9E1,1.09E2,3E0,2E1,4E0,5E0,4E0,5E0,3E0,4E0,7.1E1,1.7E1,3E1,1.5E1,2E0,1E0,1E0,1E0],"tree_param":{"num_deleted":"0","num_feature":"60","num_nodes":"77","size_leaf_vector":"0"}},{"base_weights":[-7.193281E-5,-3.1308685E-3,7.260423E-3,-1.3306351E-2,1.5214795E-3,-9.776628E-3,1.6325455E-2,-4.1532153E-3,-4.2216204E-2,-6.146672E-3,1.3223054E-2,-3.196124E-2,-1.7550661E-3,2.4052685E-2,-1.6163757E-2,-2.9278867E-2,5.3961556E-3,6.1922157E-3,-5.9211127E-2,1.4454992E-2,-1.3993078E-2,1.5882973E-2,-7.254019E-2,-6.8016924E-2,-1.2861597E-2,-3.598171E-2,4.507848E-3,3.3727795E-2,-6.143374E-4,-2.86337E-3,-1.12745464E-1,-5.0926466E-2,4.6121534E-3,-9.149678E-3,2.4236657E-2,-3.947857E-2,3.1405207E-2,-7.1785096E-3,-7.125801E-2,-1.549068E-2,3.8927887E-2,1.4241553E-3,-3.3660587E-2,3.8008068E-2,6.7550344E-3,-2.4514202E-2,1.0685411E-2,-5.625076E-2,1.6550286E-2,-5.7030614E-3,1.8243417E-2,-6.325038E-3,4.236733E-2,-1.1934485E-2,4.665534E-2,1.3014096E-2,-2.1367341E-2,-1.3429368E-1,-3.482452E-2,-2.5073249E-2,-1.027629E-1,1.8802635E-2,-2.1853143E-2,-1.8259613E-2,2.638304E-2,4.7534168E-2,-1.1548805E-2,4.050275E-3,4.153712E-2,-4.2402327E-2,8.34672E-3,-2.4702704E-2,-8.07591E-2,4.3377653E-3,-6.709779E-2,2.3179429E-2,7.309879E-2,3.0564662E-2,-1.2377251E-2,-5.6162536E-2,1.8887982E-3,5.6682043E-2,-4.063379E-3,-3.0372726E-2,1.35054765E-2,-3.7851714E-2,-6.273852E-3,1.0570884E-4,1.3303909E-2,-7.507188E-2,-2.8072223E-2,1.9959845E-2,4.865583E-3,2.2664566E-2,-1.03886025E-2,-1.4407545E-2,2.7910843E-2,-3.9366074E-2,1.0827984E-2,1.7700488E-2,6.27604E-2,-3.0913481E-2,1.9625356E-2,9.561737E-3,6.28117E-2,-1.9970941E-3,3.743142E-2,-1.6736189E-3,-2.5557768E-2],"categories":[],"categories_nodes":[],"categories_segments":[],"categories_sizes":[],"default_left":[1,1,1,1,1,1,1,1,1,1,1,1,1,1,1,1,1,1,1,1,1,1,0,0,1,1,1,1,1,1,1,1,1,1,1,0,1,1,1,1,1,1,1,1,1,1,1,1,1,1,1,1,1,1,1,1,1,0,0,0,0,0,0,0,0,0,0,0,0,0,0,0,0,0,0,0,0,0,0,0,0,0,0,0,0,0,0,0,0,0,0,0,0,0,0,0,0,0,0,0,0,0,0,0,0,0,0,0,0],"id":31,"left_children":[1,3,5,7,9,11,13,15,17,19,21,23,25,27,29,31,33,35,37,39,41,43,-1,-1,45,47,49,51,53,55,57,59,61,63,65,-1,67,69,71,73,75,77,79,81,83,85,87,89,91,93,95,97,99,101,103,105,107,-1,-1,-1,-1,-1,-1,-1,-1,-1,-1,-1,-1,-1,-1,-1,-1,-1,-1,-1,-1,-1,-1,-1,-1,-1,-1,-1,-1,-1,-1,-1,-1,-1,-1,-1,-1,-1,-1,-1,-1,-1,-1,-1,-1,-1,-1,-1,-1,-1,-1,-1,-1],"loss_changes":[1.4781147E-2,2.2033293E-2,3.012124E-2,3.845858E-2,2.87947E-2,1.2044861E-2,3.227234E-2,2.703062E-2,2.9161055E-2,3.156218E-2,3.0123802E-2,1.1520905E-2,1.1094486E-2,2.4602305E-2,3.179152E-2,2.2978317E-2,2.2693925E-2,1.2754803E-2,1.5786074E-2,4.017731E-2,4.280176E-2,2.4785861E-2,0E0,0E0,3.8289363E-3,9.449153E-3,6.2751593E-3,2.5874779E-2,1.66098E-2,7.035388E-3,3.604591E-4,2.2886034E-2,5.2931155E-3,1.5695678E-2,3.05626E-2,0E0,1.7718687E-3,3.6350675E-3,7.29388E-3,2.5873277E-2,1.4449783E-2,3.2552704E-2,4.9701765E-2,2.8513394E-2,2.271616E-2,1.9520517E-3,1.3710838E-4,1.0746755E-3,2.240279E-5,3.6913126E-3,6.399492E-3,8.360806E-3,2.9574104E-2,1.5581042E-2,2.9951977E-3,4.839684E-3,8.6500216E-4,0E0,0E0,0E0,0E0,0E0,0E0,0E0,0E0,0E0,0E0,0E0,0E0,0E0,0E0,0E0,0E0,0E0,0E0,0E0,0E0,0E0,0E0,0E0,0E0,0E0,0E0,0E0,0E0,0E0,0E0,0E0,0E0,0E0,0E0,0E0,0E0,0E0,0E0,0E0,0E0,0E0,0E0,0E0,0E0,0E0,0E0,0E0,0E0,0E0,0E0,0E0,0E0],"parents":[2147483647,0,0,1,1,2,2,3,3,4,4,5,5,6,6,7,7,8,8,9,9,10,10,11,11,12,12,13,13,14,14,15,15,16,16,17,17,18,18,19,19,20,20,21,21,24,24,25,25,26,26,27,27,28,28,29,29,30,30,31,31,32,32,33,33,34,34,36,36,37,37,38,38,39,39,40,40,41,41,42,42,43,43,44,44,45,45,46,46,47,47,48,48,49,49,50,50,51,51,52,52,53,53,54,54,55,55,56,56],"right_children":[2,4,6,8,10,12,14,16,18,20,22,24,26,28,30,32,34,36,38,40,42,44,-1,-1,46,48,50,52,54,56,58,60,62,64,66,-1,68,70,72,74,76,78,80,82,84,86,88,90,92,94,96,98,100,102,104,106,108,-1,-1,-1,-1,-1,-1,-1,-1,-1,-1,-1,-1,-1,-1,-1,-1,-1,-1,-1,-1,-1,-1,-1,-1,-1,-1,-1,-1,-1,-1,-1,-1,-1,-1,-1,-1,-1,-1,-1,-1,-1,-1,-1,-1,-1,-1,-1,-1,-1,-1,-1,-1],"split_conditions":[2.4165183E-1,-2.56316E-1,-1.9916114E-1,-3.7472445E-1,1.5382543E-1,-4.0894324E-1,3.9515236E-1,-3.780592E-1,-4.4507828E-1,-9.496342E-3,1.9743538E-1,-3.5841107E-1,-9.406351E-1,3.695999E-1,1.0733176E0,2.6847315E-1,4.2971924E-2,7.029432E-2,-1.4751963E-1,-2.103708E-1,-5.3159803E-2,-2.829322E-1,-2.1762056E-2,-2.0405078E-2,-8.1893615E-2,2.146688E-1,1.9797917E-1,-5.1036435E-1,7.667507E-1,2.2090766E-1,6.162763E-1,-4.817039E-1,3.6644566E-1,4.3297243E-1,5.532671E-1,-1.1843571E-2,-3.477669E-1,3.0391133E-1,-3.6253667E-1,2.547515E-1,1.9366693E-1,-3.3139783E-1,5.1261447E-2,2.0150268E-1,-4.8919967E-1,-4.3636236E-1,-7.9862016E-1,1.3200274E-1,-2.5115544E-1,-1.317215E0,-5.211171E-1,-3.174079E-1,-1.144747E-1,4.536369E-2,-2.7479473E-1,1.7856327E-1,-4.5576817E-1,-4.0288106E-2,-1.0447357E-2,-7.521975E-3,-3.082887E-2,5.640791E-3,-6.5559433E-3,-5.477884E-3,7.914913E-3,1.4260251E-2,-3.4646417E-3,1.2150825E-3,1.2461137E-2,-1.27206985E-2,2.504016E-3,-7.4108113E-3,-2.422773E-2,1.3013296E-3,-2.0129338E-2,6.953829E-3,2.1929638E-2,9.169399E-3,-3.7131754E-3,-1.6848762E-2,5.666395E-4,1.7004613E-2,-1.2190137E-3,-9.111818E-3,4.051643E-3,-1.1355515E-2,-1.8821558E-3,3.1712654E-5,3.991173E-3,-2.2521565E-2,-8.421667E-3,5.987954E-3,1.4596749E-3,6.79937E-3,-3.116581E-3,-4.322264E-3,8.373253E-3,-1.1809823E-2,3.2483952E-3,5.3101466E-3,1.882812E-2,-9.274045E-3,5.887607E-3,2.8685213E-3,1.8843511E-2,-5.9912825E-4,1.1229426E-2,-5.020857E-4,-7.6673306E-3],"split_indices":[8,0,26,0,23,28,27,53,10,0,8,46,19,35,36,54,22,25,36,54,19,3,0,0,31,2,39,47,9,40,0,8,26,38,22,0,1,2,3,13,36,55,41,16,18,6,2,1,0,49,41,30,17,16,2,19,12,0,0,0,0,0,0,0,0,0,0,0,0,0,0,0,0,0,0,0,0,0,0,0,0,0,0,0,0,0,0,0,0,0,0,0,0,0,0,0,0,0,0,0,0,0,0,0,0,0,0,0,0],"split_type":[0,0,0,0,0,0,0,0,0,0,0,0,0,0,0,0,0,0,0,0,0,0,0,0,0,0,0,0,0,0,0,0,0,0,0,0,0,0,0,0,0,0,0,0,0,0,0,0,0,0,0,0,0,0,0,0,0,0,0,0,0,0,0,0,0,0,0,0,0,0,0,0,0,0,0,0,0,0,0,0,0,0,0,0,0,0,0,0,0,0,0,0,0,0,0,0,0,0,0,0,0,0,0,0,0,0,0,0,0],"sum_hessian":[6.57E2,4.64E2,1.93E2,1.45E2,3.19E2,6.7E1,1.26E2,1.11E2,3.4E1,1.93E2,1.26E2,1.7E1,5E1,1.02E2,2.4E1,3E1,8.1E1,9E0,2.5E1,5.3E1,1.4E2,1.23E2,3E0,5E0,1.2E1,7E0,4.3E1,7.3E1,2.9E1,2.2E1,2E0,1.8E1,1.2E1,4.6E1,3.5E1,3E0,6E0,5E0,2E1,2.4E1,2.9E1,7.9E1,6.1E1,3.5E1,8.8E1,8E0,4E0,5E0,2E0,2.5E1,1.8E1,1.3E1,6E1,2.4E1,5E0,1.2E1,1E1,1E0,1E0,1.3E1,5E0,8E0,4E0,3.7E1,9E0,2.1E1,1.4E1,2E0,4E0,1E0,4E0,4E0,1.6E1,1.8E1,6E0,2.1E1,8E0,2.5E1,5.4E1,3.7E1,2.4E1,2.4E1,1.1E1,1.3E1,7.5E1,4E0,4E0,1E0,3E0,2E0,3E0,1E0,1E0,3E0,2.2E1,4E0,1.4E1,4E0,9E0,2.8E1,3.2E1,1.5E1,9E0,2E0,3E0,8E0,4E0,2E0,8E0],"tree_param":{"num_deleted":"0","num_feature":"60","num_nodes":"109","size_leaf_vector":"0"}},{"base_weights":[-2.5949502E-4,1.3726257E-2,-1.4822432E-3,9.666085E-2,1.0272498E-2,-1.3860439E-2,1.1396551E-3,2.0335019E-2,-5.550033E-3,-2.0717036E-2,9.183618E-3,-3.8838203E-3,7.5736567E-3,5.6415748E-2,1.3165781E-2,-1.2964383E-2,8.118833E-3,-7.4452646E-3,-4.3473266E-2,-1.5433934E-2,2.9628403E-2,-8.3596855E-2,-2.7270603E-3,-4.90483E-3,1.7637562E-2,8.190438E-3,6.642447E-2,4.077677E-3,2.91166E-2,2.676767E-3,-1.9488519E-2,1.2378523E-2,7.645134E-4,2.000254E-2,-1.9855196E-2,-1.09825045E-1,-2.9041259E-2,1.2761062E-2,-3.1126564E-2,1.1946013E-2,4.1396946E-2,2.6261336E-3,-2.0391824E-2,2.1370258E-2,-1.022738E-2,9.590316E-3,5.8199007E-2,1.3100874E-2,-3.6756357E-3,-1.4205972E-3,3.6928475E-2,4.2779967E-3,-1.8640757E-3,-2.1628194E-2,-7.2865486E-3,3.6754608E-3,1.3635423E-2,-1.8743277E-3,2.268903E-3,3.689622E-2,-3.614877E-3,9.065143E-4,-4.433406E-2,-6.159801E-2,-1.5136659E-1,-1.5977975E-2,-6.9922544E-2,-1.8765926E-3,2.314503E-2,-1.8737571E-2,-4.5529027E-2,6.451886E-4,2.0260334E-2,4.4736736E-2,9.009212E-3,-1.613578E-2,1.1045073E-2,5.6820097E-3,-3.296529E-2,-2.9927433E-2,3.4500293E-2,1.011628E-2,-1.7730279E-2,-1.0457707E-4,3.4332614E-2,1.9711474E-2,9.4715394E-2],"categories":[],"categories_nodes":[],"categories_segments":[],"categories_sizes":[],"default_left":[1,1,1,0,1,1,1,1,1,1,1,1,1,1,1,1,1,1,1,1,1,0,1,1,1,0,0,1,1,1,1,1,1,1,1,1,1,1,1,1,1,1,1,1,1,1,1,0,0,0,0,0,0,0,0,0,0,0,0,0,0,0,0,0,0,0,0,0,0,0,0,0,0,0,0,0,0,0,0,0,0,0,0,0,0,0,0],"id":32,"left_children":[1,3,5,-1,7,9,11,13,15,17,19,21,23,25,27,29,31,33,35,37,39,-1,41,43,45,-1,-1,47,49,51,53,55,57,59,61,63,65,67,69,71,73,75,77,79,81,83,85,-1,-1,-1,-1,-1,-1,-1,-1,-1,-1,-1,-1,-1,-1,-1,-1,-1,-1,-1,-1,-1,-1,-1,-1,-1,-1,-1,-1,-1,-1,-1,-1,-1,-1,-1,-1,-1,-1,-1,-1],"loss_changes":[1.1272838E-2,1.4188163E-2,1.9683145E-2,0E0,8.392017E-3,1.693866E-2,1.6222259E-2,7.5347247E-3,2.2335167E-3,2.44416E-2,1.3039798E-2,2.577492E-2,2.7714621E-2,1.8693227E-3,3.9402274E-3,1.4807961E-3,2.4115341E-4,1.8450297E-2,2.5538225E-2,5.706651E-3,2.4188152E-3,0E0,2.6436603E-2,1.4063759E-2,3.9263625E-2,0E0,0E0,1.3773876E-3,2.4379883E-3,4.4329172E-5,1.0348763E-4,4.577916E-6,2.0132047E-5,6.916122E-3,1.8844444E-2,6.932467E-4,1.2767917E-2,8.0341846E-4,5.743527E-4,6.44639E-4,4.62302E-4,3.413864E-2,2.1496808E-2,1.2482693E-2,1.2848187E-2,2.4710603E-2,2.6241533E-2,0E0,0E0,0E0,0E0,0E0,0E0,0E0,0E0,0E0,0E0,0E0,0E0,0E0,0E0,0E0,0E0,0E0,0E0,0E0,0E0,0E0,0E0,0E0,0E0,0E0,0E0,0E0,0E0,0E0,0E0,0E0,0E0,0E0,0E0,0E0,0E0,0E0,0E0,0E0,0E0],"parents":[2147483647,0,0,1,1,2,2,4,4,5,5,6,6,7,7,8,8,9,9,10,10,11,11,12,12,13,13,14,14,15,15,16,16,17,17,18,18,19,19,20,20,22,22,23,23,24,24,27,27,28,28,29,29,30,30,31,31,32,32,33,33,34,34,35,35,36,36,37,37,38,38,39,39,40,40,41,41,42,42,43,43,44,44,45,45,46,46],"right_children":[2,4,6,-1,8,10,12,14,16,18,20,22,24,26,28,30,32,34,36,38,40,-1,42,44,46,-1,-1,48,50,52,54,56,58,60,62,64,66,68,70,72,74,76,78,80,82,84,86,-1,-1,-1,-1,-1,-1,-1,-1,-1,-1,-1,-1,-1,-1,-1,-1,-1,-1,-1,-1,-1,-1,-1,-1,-1,-1,-1,-1,-1,-1,-1,-1,-1,-1,-1,-1,-1,-1,-1,-1],"split_conditions":[-1.1399077E0,-3.4916105E0,-4.2234015E-1,2.8998258E-2,3.759117E-1,4.560526E-1,4.2995267E-2,-7.0996594E-1,2.2226232E-1,2.0708823E-1,-1.6532183E-1,-2.3952432E0,-1.37584E-1,-1.3070072E0,1.3500693E-1,-7.31032E-1,1.3916096E-1,-3.4110487E-1,-5.506109E-1,-1.1305923E0,-1.2260296E-1,-2.5079058E-2,3.2138103E-1,-4.9245384E-1,4.2598772E-1,2.4571316E-3,1.9927341E-2,-5.317601E-1,-2.881105E-1,1.4060552E0,1.0543935E0,-1.9205259E0,-2.837346E-1,-6.882591E-1,1.3761877E-2,1.806266E-1,2.6046008E-1,-9.878733E-1,1.5856731E0,-2.69337E-1,1.5218296E0,-2.4413805E-1,-2.2269192E-1,-1.7079409E0,-2.8154346E-1,2.0315105E-1,2.4169782E-1,3.9302623E-3,-1.1026907E-3,-4.2617918E-4,1.1078543E-2,1.2833991E-3,-5.592227E-4,-6.4884583E-3,-2.1859647E-3,1.1026383E-3,4.090627E-3,-5.6229834E-4,6.806709E-4,1.1068867E-2,-1.0844631E-3,2.719543E-4,-1.3300219E-2,-1.8479403E-2,-4.5409977E-2,-4.7933925E-3,-2.0976763E-2,-5.629778E-4,6.943509E-3,-5.6212717E-3,-1.3658709E-2,1.935566E-4,6.0781003E-3,1.3421021E-2,2.7027638E-3,-4.8407344E-3,3.313522E-3,1.704603E-3,-9.889588E-3,-8.97823E-3,1.0350089E-2,3.034884E-3,-5.319084E-3,-3.137312E-5,1.0299785E-2,5.9134425E-3,2.841462E-2],"split_indices":[42,41,42,0,56,23,56,21,59,44,13,58,40,0,22,47,11,50,7,40,54,0,18,59,0,0,0,48,3,1,1,1,0,42,13,0,4,1,4,12,0,12,7,59,52,49,46,0,0,0,0,0,0,0,0,0,0,0,0,0,0,0,0,0,0,0,0,0,0,0,0,0,0,0,0,0,0,0,0,0,0,0,0,0,0,0,0],"split_type":[0,0,0,0,0,0,0,0,0,0,0,0,0,0,0,0,0,0,0,0,0,0,0,0,0,0,0,0,0,0,0,0,0,0,0,0,0,0,0,0,0,0,0,0,0,0,0,0,0,0,0,0,0,0,0,0,0,0,0,0,0,0,0,0,0,0,0,0,0,0,0,0,0,0,0,0,0,0,0,0,0,0,0,0,0,0,0],"sum_hessian":[6.57E2,5.2E1,6.05E2,1E0,5.1E1,1.05E2,5E2,3.1E1,2E1,8.1E1,2.4E1,2.81E2,2.19E2,4E0,2.7E1,1.3E1,7E0,5.2E1,2.9E1,1.1E1,1.3E1,3E0,2.78E2,9.8E1,1.21E2,1E0,3E0,1.8E1,9E0,4E0,9E0,4E0,3E0,1.6E1,3.6E1,4E0,2.5E1,4E0,7E0,6E0,7E0,2.14E2,6.4E1,1.6E1,8.2E1,1.02E2,1.9E1,8E0,1E1,2E0,7E0,3E0,1E0,7E0,2E0,1E0,3E0,1E0,2E0,9E0,7E0,2E1,1.6E1,3E0,1E0,2E1,5E0,2E0,2E0,5E0,2E0,3E0,3E0,6E0,1E0,6.6E1,1.48E2,2.1E1,4.3E1,3E0,1.3E1,2.2E1,6E1,7.4E1,2.8E1,1E1,9E0],"tree_param":{"num_deleted":"0","num_feature":"60","num_nodes":"87","size_leaf_vector":"0"}},{"base_weights":[-2.0002191E-4,-7.173878E-3,1.8201948E-3,9.401957E-3,-1.4277135E-2,4.788038E-3,-6.825365E-3,1.0206127E-1,4.976489E-3,2.4884104E-4,-2.6732415E-2,-3.9900737E-3,1.10254E-2,-1.0527111E-1,-4.4830195E-3,1.5278096E-2,-5.093591E-3,-1.4248899E-2,1.8689198E-2,-4.680473E-2,-1.0215531E-2,2.5727132E-3,-2.4955072E-2,-1.3290342E-2,1.8129893E-2,-2.9245034E-2,-1.2866163E-1,6.4884224E-3,-1.5727272E-2,3.9787278E-2,9.314158E-3,-2.8776959E-2,-1.4677008E-3,-4.454182E-3,-4.9420495E-2,2.8115117E-3,3.1686313E-2,7.5682625E-4,-6.534293E-2,-1.8557666E-3,-3.9806724E-2,-7.201497E-3,1.5014338E-2,-1.2524288E-2,-8.91652E-2,2.137229E-2,-2.571104E-2,1.9534476E-2,-1.11729145E-1,-4.4381637E-3,2.7109353E-2,-2.8384078E-2,2.4017151E-2,1.256546E-2,-6.0195886E-3,-3.1121895E-3,-4.005325E-2,9.15753E-3,-5.360431E-3,5.2080364E-3,-2.3221847E-2,-5.7924986E-3,-5.6987595E-2,-1.4004439E-2,1.0868048E-2,4.409507E-3,4.4773526E-2,-1.1732914E-2,1.0597253E-2,-8.046691E-2,-2.1683833E-2,-3.0383505E-2,3.1862648E-3,-4.281507E-2,-1.08783245E-2,-3.9274795E-3,-7.792072E-2,-1.762967E-2,2.3775123E-2,-2.1138003E-3,-7.040026E-2,-1.1389032E-3,-1.06542684E-1,1.0193989E-2,5.8961403E-2,-4.622133E-2,-3.5397656E-4,1.0941716E-2,3.8621206E-2,-2.5247123E-2,1.3954598E-2,6.1758667E-2,8.09036E-3,-3.628118E-2,2.4181562E-2,4.7472265E-2,9.040075E-3],"categories":[],"categories_nodes":[],"categories_segments":[],"categories_sizes":[],"default_left":[1,1,1,1,1,1,1,0,1,1,1,1,1,1,1,1,1,1,1,1,1,1,1,1,1,0,0,1,1,0,1,1,1,1,1,1,1,1,1,1,1,1,1,1,1,1,1,1,0,1,1,1,1,0,0,0,0,0,0,0,0,0,0,0,0,0,0,0,0,0,0,0,0,0,0,0,0,0,0,0,0,0,0,0,0,0,0,0,0,0,0,0,0,0,0,0,0],"id":33,"left_children":[1,3,5,7,9,11,13,-1,15,17,19,21,23,25,27,29,31,33,35,37,39,41,43,45,47,-1,-1,49,51,-1,53,55,57,59,61,63,65,67,69,71,73,75,77,79,81,83,85,87,-1,89,91,93,95,-1,-1,-1,-1,-1,-1,-1,-1,-1,-1,-1,-1,-1,-1,-1,-1,-1,-1,-1,-1,-1,-1,-1,-1,-1,-1,-1,-1,-1,-1,-1,-1,-1,-1,-1,-1,-1,-1,-1,-1,-1,-1,-1,-1],"loss_changes":[9.2834225E-3,1.756011E-2,1.3144257E-2,1.794483E-2,1.882286E-2,2.0904602E-2,2.9735882E-2,0E0,4.642293E-3,1.3366133E-2,1.8087659E-2,2.1940824E-2,3.8764432E-2,1.5721545E-3,1.6016215E-2,2.8451816E-3,1.9328496E-3,9.425755E-3,4.4509233E-3,2.2092104E-2,7.842141E-3,1.4944187E-2,2.9214192E-2,2.2506744E-2,3.373738E-2,0E0,0E0,1.4991197E-2,3.2876104E-2,0E0,1.0228769E-3,7.43557E-4,9.176726E-4,4.2916974E-3,1.6507227E-3,1.6424624E-3,4.086299E-3,1.1075715E-3,1.0140553E-2,3.8365917E-3,1.434302E-4,1.566995E-2,1.5862454E-2,1.9734254E-2,9.05671E-3,5.2815024E-3,1.9746706E-2,2.778674E-2,0E0,1.719262E-2,1.4657233E-2,2.1218032E-2,5.1914705E-3,0E0,0E0,0E0,0E0,0E0,0E0,0E0,0E0,0E0,0E0,0E0,0E0,0E0,0E0,0E0,0E0,0E0,0E0,0E0,0E0,0E0,0E0,0E0,0E0,0E0,0E0,0E0,0E0,0E0,0E0,0E0,0E0,0E0,0E0,0E0,0E0,0E0,0E0,0E0,0E0,0E0,0E0,0E0,0E0],"parents":[2147483647,0,0,1,1,2,2,3,3,4,4,5,5,6,6,8,8,9,9,10,10,11,11,12,12,13,13,14,14,15,15,16,16,17,17,18,18,19,19,20,20,21,21,22,22,23,23,24,24,27,27,28,28,30,30,31,31,32,32,33,33,34,34,35,35,36,36,37,37,38,38,39,39,40,40,41,41,42,42,43,43,44,44,45,45,46,46,47,47,49,49,50,50,51,51,52,52],"right_children":[2,4,6,8,10,12,14,-1,16,18,20,22,24,26,28,30,32,34,36,38,40,42,44,46,48,-1,-1,50,52,-1,54,56,58,60,62,64,66,68,70,72,74,76,78,80,82,84,86,88,-1,90,92,94,96,-1,-1,-1,-1,-1,-1,-1,-1,-1,-1,-1,-1,-1,-1,-1,-1,-1,-1,-1,-1,-1,-1,-1,-1,-1,-1,-1,-1,-1,-1,-1,-1,-1,-1,-1,-1,-1,-1,-1,-1,-1,-1,-1,-1],"split_conditions":[-4.71507E-1,-4.7554782E-1,3.4673768E-1,-2.6309824E0,-1.04541406E-1,-1.299885E-1,3.5780197E-1,3.0618383E-2,1.0556227E-1,1.3873184E-1,-9.9052906E-2,-2.2346193E-1,-4.2085475E-1,1.8688361E-1,6.563719E-3,-8.372794E-1,-2.081595E0,-6.9090503E-1,-3.3346808E-1,-3.7700278E-1,4.5830745E-1,1.3546392E-1,2.6056725E-1,-4.4136205E-1,1.6452014E0,-8.77351E-3,-3.8598493E-2,6.2937595E-2,4.6558246E-1,1.1936184E-2,4.6350935E-1,5.8754885E-1,-6.8661E-1,2.0812848E-1,-5.488107E-1,-4.2173818E-1,-6.831045E-1,-2.1506584E-1,3.346595E-1,-7.598732E-1,1.3279717E-1,1.3381305E0,-5.003682E-1,8.376232E-1,-6.620404E-2,1.1095583E0,-5.7536297E-2,2.6546633E-1,-3.3518746E-2,-1.790403E-1,-3.321848E-1,8.071854E-1,-2.596676E-1,3.7696382E-3,-1.8058766E-3,-9.336569E-4,-1.2015975E-2,2.747259E-3,-1.6081294E-3,1.562411E-3,-6.966554E-3,-1.7377497E-3,-1.709628E-2,-4.201332E-3,3.2604146E-3,1.3228521E-3,1.34320585E-2,-3.5198743E-3,3.179176E-3,-2.4140075E-2,-6.50515E-3,-9.1150515E-3,9.5587946E-4,-1.2844522E-2,-3.2634975E-3,-1.1782439E-3,-2.3376217E-2,-5.2889013E-3,7.132537E-3,-6.341401E-4,-2.1120079E-2,-3.4167097E-4,-3.196281E-2,3.0581967E-3,1.7688422E-2,-1.3866399E-2,-1.0619297E-4,3.2825149E-3,1.15863625E-2,-7.5741373E-3,4.1863797E-3,1.85276E-2,2.4271081E-3,-1.0884354E-2,7.2544687E-3,1.424168E-2,2.7120227E-3],"split_indices":[45,3,51,43,5,11,51,0,31,29,21,11,22,0,21,39,30,45,25,31,44,39,40,8,37,0,0,20,0,0,9,0,17,24,0,39,41,1,44,14,0,5,26,56,1,52,53,19,0,56,24,9,13,0,0,0,0,0,0,0,0,0,0,0,0,0,0,0,0,0,0,0,0,0,0,0,0,0,0,0,0,0,0,0,0,0,0,0,0,0,0,0,0,0,0,0,0],"split_type":[0,0,0,0,0,0,0,0,0,0,0,0,0,0,0,0,0,0,0,0,0,0,0,0,0,0,0,0,0,0,0,0,0,0,0,0,0,0,0,0,0,0,0,0,0,0,0,0,0,0,0,0,0,0,0,0,0,0,0,0,0,0,0,0,0,0,0,0,0,0,0,0,0,0,0,0,0,0,0,0,0,0,0,0,0,0,0,0,0,0,0,0,0,0,0,0,0],"sum_hessian":[6.57E2,1.47E2,5.1E2,4.4E1,1.03E2,3.8E2,1.3E2,1E0,4.3E1,4.8E1,5.5E1,1.58E2,2.22E2,2E0,1.28E2,2.1E1,2.2E1,2.7E1,2.1E1,2.4E1,3.1E1,1.21E2,3.7E1,5E1,1.72E2,1E0,1E0,6.5E1,6.3E1,3E0,1.8E1,2E0,2E1,2.2E1,5E0,1E1,1.1E1,7E0,1.7E1,2.5E1,6E0,6.8E1,5.3E1,3.2E1,5E0,1.3E1,3.7E1,1.71E2,1E0,4.3E1,2.2E1,4.8E1,1.5E1,1.5E1,3E0,1E0,1E0,5E0,1.5E1,1.5E1,7E0,1E0,4E0,3E0,7E0,4E0,7E0,3E0,4E0,1.2E1,5E0,3E0,2.2E1,5E0,1E0,6.6E1,2E0,1.1E1,4.2E1,2.8E1,4E0,1E0,4E0,1.1E1,2E0,2E1,1.7E1,1.19E2,5.2E1,2E1,2.3E1,7E0,1.5E1,4.2E1,6E0,5E0,1E1],"tree_param":{"num_deleted":"0","num_feature":"60","num_nodes":"97","size_leaf_vector":"0"}},{"base_weights":[-3.498859E-4,3.2307394E-3,-3.3778942E-3,2.2472215E-3,6.1202258E-2,-6.986338E-3,7.091931E-3,4.4527934E-3,-1.7604312E-2,-1.1313681E-2,8.215967E-2,-1.1338586E-2,8.475593E-3,1.5593204E-2,-1.0139385E-2,-1.9908955E-3,1.0768981E-2,-4.136985E-3,-4.0489968E-2,-9.707426E-3,-6.463641E-2,-1.78822E-2,2.048346E-2,2.501889E-2,-5.451683E-3,-3.2457586E-2,3.7585062E-3,8.498747E-3,-9.866329E-3,-3.6892954E-2,1.2869764E-2,3.6429872E-3,-1.9105932E-2,-5.644419E-2,1.5409738E-3,-4.345541E-3,-2.5193948E-2,-8.630989E-2,-1.4192969E-2,-5.0235707E-2,-5.905552E-3,3.59733E-2,-8.763814E-3,6.3268985E-3,3.9553095E-2,8.308647E-3,-1.7465467E-2,-6.273848E-2,-1.8657403E-3,-5.1833624E-3,3.1620786E-2,6.552198E-2,5.2921674E-3,-2.0978594E-2,3.3720457E-3,-3.784746E-3,-4.275765E-2,1.935898E-2,-3.5211833E-3,-2.4088174E-3,1.0038909E-2,-9.5142424E-4,-2.6177451E-2,-7.7308685E-2,-2.846376E-2,3.92131E-3,-2.8000176E-3,-1.6833419E-3,-6.884516E-2,-1.6023962E-2,-6.7225665E-2,-2.511099E-3,-1.8778354E-2,-5.566167E-2,-1.4265925E-2,6.6919127E-3,-2.1258641E-2,4.81086E-2,-5.571651E-3,-4.2407453E-2,1.8377217E-2,-3.154392E-3,3.540165E-2,9.8353885E-3,5.1211245E-2,-6.7429394E-3,1.5722604E-2,-2.6096579E-2,-1.8888175E-3,-1.6355067E-2,-6.8744145E-2,4.626803E-3,-7.891849E-3,2.0736314E-2,-1.2759928E-2,4.784449E-2,1.5603736E-2],"categories":[],"categories_nodes":[],"categories_segments":[],"categories_sizes":[],"default_left":[1,1,1,1,1,1,1,1,1,0,0,1,1,1,1,1,1,1,1,1,1,1,1,1,1,1,1,1,1,1,1,1,1,1,1,1,1,0,1,1,1,1,1,1,1,1,1,1,1,1,1,0,0,0,0,0,0,0,0,0,0,0,0,0,0,0,0,0,0,0,0,0,0,0,0,0,0,0,0,0,0,0,0,0,0,0,0,0,0,0,0,0,0,0,0,0,0],"id":34,"left_children":[1,3,5,7,9,11,13,15,17,-1,-1,19,21,23,25,27,29,31,33,35,37,39,41,43,45,47,49,51,53,55,57,59,61,63,65,67,69,-1,71,73,75,77,79,81,83,85,87,89,91,93,95,-1,-1,-1,-1,-1,-1,-1,-1,-1,-1,-1,-1,-1,-1,-1,-1,-1,-1,-1,-1,-1,-1,-1,-1,-1,-1,-1,-1,-1,-1,-1,-1,-1,-1,-1,-1,-1,-1,-1,-1,-1,-1,-1,-1,-1,-1],"loss_changes":[7.1450565E-3,1.7081305E-2,1.3536926E-2,1.3126014E-2,8.528259E-3,1.7996348E-2,1.3635011E-2,1.0969618E-2,9.07875E-3,0E0,0E0,1.7455501E-2,1.9039841E-2,1.243487E-2,9.737447E-3,1.1153655E-2,1.4092132E-2,2.3987629E-3,7.4632615E-3,1.674702E-2,5.3347163E-3,7.065576E-3,1.8889723E-2,1.14317015E-2,3.4513872E-3,1.0999126E-2,5.1467186E-3,1.0258517E-2,1.1398081E-2,1.00319E-3,1.40019E-2,5.6607806E-4,8.737538E-4,2.4698824E-3,5.231182E-5,2.5984153E-2,1.8965147E-2,0E0,1.135433E-4,1.8178858E-4,3.0434108E-3,1.3880376E-2,1.4476176E-2,5.6249937E-3,7.8112036E-3,1.2219348E-3,1.4295897E-3,5.4706447E-4,3.103874E-4,3.406708E-3,5.5272644E-4,0E0,0E0,0E0,0E0,0E0,0E0,0E0,0E0,0E0,0E0,0E0,0E0,0E0,0E0,0E0,0E0,0E0,0E0,0E0,0E0,0E0,0E0,0E0,0E0,0E0,0E0,0E0,0E0,0E0,0E0,0E0,0E0,0E0,0E0,0E0,0E0,0E0,0E0,0E0,0E0,0E0,0E0,0E0,0E0,0E0,0E0],"parents":[2147483647,0,0,1,1,2,2,3,3,4,4,5,5,6,6,7,7,8,8,11,11,12,12,13,13,14,14,15,15,16,16,17,17,18,18,19,19,20,20,21,21,22,22,23,23,24,24,25,25,26,26,27,27,28,28,29,29,30,30,31,31,32,32,33,33,34,34,35,35,36,36,38,38,39,39,40,40,41,41,42,42,43,43,44,44,45,45,46,46,47,47,48,48,49,49,50,50],"right_children":[2,4,6,8,10,12,14,16,18,-1,-1,20,22,24,26,28,30,32,34,36,38,40,42,44,46,48,50,52,54,56,58,60,62,64,66,68,70,-1,72,74,76,78,80,82,84,86,88,90,92,94,96,-1,-1,-1,-1,-1,-1,-1,-1,-1,-1,-1,-1,-1,-1,-1,-1,-1,-1,-1,-1,-1,-1,-1,-1,-1,-1,-1,-1,-1,-1,-1,-1,-1,-1,-1,-1,-1,-1,-1,-1,-1,-1,-1,-1,-1,-1],"split_conditions":[-1.1425713E-1,-1.26334E-1,5.8405924E-1,7.3935103E-1,-2.6849556E-1,4.5304784E-1,2.4030824E-1,-3.4207657E-2,4.0767413E-1,-3.3941043E-3,2.46479E-2,5.671345E-1,-4.7951362E-1,3.7869138E-1,-3.5928726E-1,-1.4608105E-1,-2.2369885E0,-7.4995406E-2,1.0001463E0,3.2548648E-1,5.7756126E-1,-1.215397E0,2.713123E-1,-4.2809728E-1,1.3441455E-1,9.9215496E-1,1.614052E-1,-2.4801111E0,3.955186E-1,-1.9247826E0,3.4193742E-1,1.423197E-1,-4.585266E-2,-3.543228E-3,-2.6630676E-1,1.1178916E0,4.0237525E-1,-2.5892967E-2,-1.9937308E-1,1.4724708E-1,4.2263338E-1,2.0348686E-1,-1.2238419E-1,5.1809305E-1,-3.3087534E-1,-4.4771922E-1,1.2815818E-1,-9.480174E-1,7.3192275E-1,-2.243064E-1,-1.6278784E0,1.9656595E-2,1.5876503E-3,-6.2935785E-3,1.0116138E-3,-1.1354238E-3,-1.2827295E-2,5.807694E-3,-1.0563551E-3,-7.2264526E-4,3.0116728E-3,-2.854273E-4,-7.853236E-3,-2.3192607E-2,-8.539128E-3,1.176393E-3,-8.400053E-4,-5.050026E-4,-2.065355E-2,-4.8071886E-3,-2.0167701E-2,-7.533297E-4,-5.6335065E-3,-1.6698502E-2,-4.2797774E-3,2.0075738E-3,-6.3775927E-3,1.443258E-2,-1.6714953E-3,-1.2722236E-2,5.513165E-3,-9.463176E-4,1.0620495E-2,2.9506166E-3,1.5363374E-2,-2.022882E-3,4.7167814E-3,-7.828974E-3,-5.666453E-4,-4.9065202E-3,-2.0623244E-2,1.388041E-3,-2.3675547E-3,6.2208944E-3,-3.8279784E-3,1.4353347E-2,4.681121E-3],"split_indices":[1,1,1,5,2,47,30,45,26,0,0,1,27,21,5,19,41,33,38,56,1,54,49,16,32,1,25,43,19,1,41,28,15,9,1,36,14,0,0,0,13,36,46,9,45,10,31,0,0,55,0,0,0,0,0,0,0,0,0,0,0,0,0,0,0,0,0,0,0,0,0,0,0,0,0,0,0,0,0,0,0,0,0,0,0,0,0,0,0,0,0,0,0,0,0,0,0],"split_type":[0,0,0,0,0,0,0,0,0,0,0,0,0,0,0,0,0,0,0,0,0,0,0,0,0,0,0,0,0,0,0,0,0,0,0,0,0,0,0,0,0,0,0,0,0,0,0,0,0,0,0,0,0,0,0,0,0,0,0,0,0,0,0,0,0,0,0,0,0,0,0,0,0,0,0,0,0,0,0,0,0,0,0,0,0,0,0,0,0,0,0,0,0,0,0,0,0],"sum_hessian":[6.57E2,3.01E2,3.56E2,2.97E2,4E0,2.65E2,9.1E1,2.68E2,2.9E1,1E0,3E0,2.07E2,5.8E1,6.1E1,3E1,1.33E2,1.35E2,1.9E1,1E1,2.02E2,5E0,1.8E1,4E1,4.2E1,1.9E1,1.1E1,1.9E1,5.7E1,7.6E1,5E0,1.3E2,1.3E1,6E0,7E0,3E0,1.51E2,5.1E1,3E0,2E0,4E0,1.4E1,2.6E1,1.4E1,1.9E1,2.3E1,9E0,1E1,5E0,6E0,1.5E1,4E0,2E0,5.5E1,4.1E1,3.5E1,1E0,4E0,9.3E1,3.7E1,7E0,6E0,2E0,4E0,3E0,4E0,2E0,1E0,1.46E2,5E0,4.3E1,8E0,1E0,1E0,3E0,1E0,8E0,6E0,2E1,6E0,6E0,8E0,1.5E1,4E0,7E0,1.6E1,3E0,6E0,6E0,4E0,1E0,4E0,3E0,3E0,3E0,1.2E1,1E0,3E0],"tree_param":{"num_deleted":"0","num_feature":"60","num_nodes":"97","size_leaf_vector":"0"}},{"base_weights":[-3.8207136E-4,1.0616264E-3,-6.2538716E-3,-7.97243E-3,2.907089E-3,5.366828E-3,-1.4322234E-2,-2.1213539E-2,2.1117171E-3,-9.767114E-3,5.0903764E-3,2.1383401E-3,4.518834E-2,6.9902404E-3,-2.532448E-2,-3.646893E-3,-5.2322056E-2,2.1188118E-2,-1.0473162E-2,2.4080666E-2,-1.5636947E-2,1.4229753E-2,1.4021121E-3,6.8121324E-3,-2.0429594E-2,-9.879872E-3,1.9205935E-2,9.5163233E-4,-3.433872E-2,-3.5161994E-2,3.6813975E-3,-1.3698353E-2,-8.8988855E-2,1.096974E-2,7.8841805E-2,6.070697E-3,-2.739644E-2,7.84401E-3,5.9351522E-2,-8.810179E-3,-4.2763706E-2,-2.9035697E-3,2.4350878E-2,-5.932675E-3,9.899248E-3,1.1220451E-2,-1.1088234E-2,-2.2209138E-3,-3.4552358E-2,-1.7368793E-4,-1.4711253E-2,4.8330943E-3,2.98478E-2,-1.0785702E-2,8.6707845E-3,-5.0093934E-2,-1.40499305E-2,-1.736386E-3,2.244914E-2,-2.3694191E-2,-2.9620123E-3,-4.3394603E-2,-1.1233589E-1,3.283638E-2,8.1476994E-4,-1.7133603E-2,1.45284515E-2,-1.4310337E-2,-6.307717E-2,1.6234487E-2,-4.3717324E-4,7.025778E-2,1.8769503E-2,3.7330293E-4,-2.6052542E-2,-6.080601E-2,-8.951741E-3,7.3454864E-3,-3.1523313E-2,7.2156056E-3,3.768884E-2,-2.3065344E-3,-3.7205458E-2,7.244606E-3,6.1342213E-2,1.9003882E-3,1.9917157E-2,-2.8407915E-2,2.3062576E-3,4.0085316E-3,-4.780408E-3,4.276216E-3,-2.355218E-3,-5.843535E-3,-1.8863177E-2,-2.7589113E-3,1.3114828E-2,3.8320005E-2,9.677544E-3,-1.2797609E-2,-4.507924E-3,1.7771006E-2,3.5320062E-3,-1.6834281E-2,-6.227551E-2,-2.5297144E-2,1.2660689E-2],"categories":[],"categories_nodes":[],"categories_segments":[],"categories_sizes":[],"default_left":[1,1,1,1,1,1,1,1,1,1,1,1,0,1,1,1,1,1,1,1,1,1,1,1,1,1,1,1,1,0,1,1,1,1,0,1,1,1,1,1,1,1,1,1,1,1,1,1,0,1,1,1,1,1,1,1,1,0,0,0,0,0,0,0,0,0,0,0,0,0,0,0,0,0,0,0,0,0,0,0,0,0,0,0,0,0,0,0,0,0,0,0,0,0,0,0,0,0,0,0,0,0,0,0,0,0,0],"id":35,"left_children":[1,3,5,7,9,11,13,15,17,19,21,23,-1,25,27,29,31,33,35,37,39,41,43,45,47,49,51,53,55,-1,57,59,61,63,-1,65,67,69,71,73,75,77,79,81,83,85,87,89,-1,91,93,95,97,99,101,103,105,-1,-1,-1,-1,-1,-1,-1,-1,-1,-1,-1,-1,-1,-1,-1,-1,-1,-1,-1,-1,-1,-1,-1,-1,-1,-1,-1,-1,-1,-1,-1,-1,-1,-1,-1,-1,-1,-1,-1,-1,-1,-1,-1,-1,-1,-1,-1,-1,-1,-1],"loss_changes":[5.5845743E-3,8.842671E-3,1.2265667E-2,1.2062075E-2,1.2225146E-2,6.845789E-3,1.823238E-2,2.1121608E-2,1.2705765E-2,1.3290802E-2,1.2654422E-2,5.518539E-3,0E0,5.753916E-3,1.2112495E-2,6.1341925E-3,1.8607903E-2,1.1506798E-2,9.125558E-3,5.261254E-3,9.993777E-3,1.879882E-2,1.6824069E-2,3.517568E-3,2.2376743E-3,5.601762E-4,2.3030043E-3,1.3619523E-3,1.1443045E-2,0E0,2.2759307E-3,7.8836735E-4,2.5766604E-3,4.1922918E-3,0E0,3.5852813E-3,6.56809E-3,5.62962E-4,9.089708E-6,7.2935927E-3,6.1661843E-3,1.2257893E-2,1.52694285E-2,1.6357113E-2,1.6625931E-2,2.7990346E-3,2.153411E-3,9.888356E-5,0E0,5.8609417E-5,1.8431712E-4,5.391824E-4,1.1671362E-3,1.8091174E-5,3.581089E-4,7.45989E-3,5.7278397E-3,0E0,0E0,0E0,0E0,0E0,0E0,0E0,0E0,0E0,0E0,0E0,0E0,0E0,0E0,0E0,0E0,0E0,0E0,0E0,0E0,0E0,0E0,0E0,0E0,0E0,0E0,0E0,0E0,0E0,0E0,0E0,0E0,0E0,0E0,0E0,0E0,0E0,0E0,0E0,0E0,0E0,0E0,0E0,0E0,0E0,0E0,0E0,0E0,0E0,0E0],"parents":[2147483647,0,0,1,1,2,2,3,3,4,4,5,5,6,6,7,7,8,8,9,9,10,10,11,11,13,13,14,14,15,15,16,16,17,17,18,18,19,19,20,20,21,21,22,22,23,23,24,24,25,25,26,26,27,27,28,28,30,30,31,31,32,32,33,33,35,35,36,36,37,37,38,38,39,39,40,40,41,41,42,42,43,43,44,44,45,45,46,46,47,47,49,49,50,50,51,51,52,52,53,53,54,54,55,55,56,56],"right_children":[2,4,6,8,10,12,14,16,18,20,22,24,-1,26,28,30,32,34,36,38,40,42,44,46,48,50,52,54,56,-1,58,60,62,64,-1,66,68,70,72,74,76,78,80,82,84,86,88,90,-1,92,94,96,98,100,102,104,106,-1,-1,-1,-1,-1,-1,-1,-1,-1,-1,-1,-1,-1,-1,-1,-1,-1,-1,-1,-1,-1,-1,-1,-1,-1,-1,-1,-1,-1,-1,-1,-1,-1,-1,-1,-1,-1,-1,-1,-1,-1,-1,-1,-1,-1,-1,-1,-1,-1,-1],"split_conditions":[4.5585138E-1,-5.193294E-1,-1.8224701E-1,-1.065972E-1,-6.1470896E-1,-2.3753676E-1,-3.384546E-1,-7.3111844E-1,-2.8511092E-2,-1.19275E0,-2.765549E-1,4.7802705E-1,1.3556503E-2,-4.1604662E-1,-5.061585E-1,-9.5132315E-1,2.2083518E-1,-1.3124086E-1,-8.18122E-2,3.2716386E-2,3.8795957E-1,-1.8357334E-1,7.095215E-2,6.259358E-1,-3.9881635E-1,-2.5764373E-1,-9.913093E-2,5.869329E-3,1.0676393E-1,-1.0548599E-2,5.183011E-1,-9.360478E-2,-5.18982E-2,2.474528E-1,2.3652542E-2,-4.047698E-1,1.7429438E-1,-5.360695E-1,-3.5654604E-3,2.0404461E-1,-6.095274E-2,2.9080254E-1,-4.4484846E-2,-1.0388443E-3,7.217076E-1,-2.3020136E-1,-1.4912996E-1,-3.1904535E0,-1.0365708E-2,-2.9850724E0,-3.103199E-1,3.8460997E-1,3.6385807E-1,-2.7329582E-1,-6.762011E-1,-1.1215468E-1,2.42645E-1,-5.2091584E-4,6.7347423E-3,-7.1082576E-3,-8.8860374E-4,-1.3018382E-2,-3.3700768E-2,9.850915E-3,2.44431E-4,-5.140081E-3,4.3585356E-3,-4.2931014E-3,-1.892315E-2,4.8703463E-3,-1.3115197E-4,2.1077335E-2,5.630851E-3,1.11990885E-4,-7.815763E-3,-1.8241804E-2,-2.6855224E-3,2.203646E-3,-9.456994E-3,2.1646817E-3,1.1306653E-2,-6.9196033E-4,-1.11616375E-2,2.1733819E-3,1.8402664E-2,5.7011645E-4,5.9751472E-3,-8.522375E-3,6.918773E-4,1.2025596E-3,-1.4341224E-3,1.2828648E-3,-7.065654E-4,-1.7530606E-3,-5.6589535E-3,-8.276734E-4,3.9344486E-3,1.1496002E-2,2.9032633E-3,-3.8392828E-3,-1.3523772E-3,5.331302E-3,1.0596019E-3,-5.050285E-3,-1.8682653E-2,-7.5891437E-3,3.7982068E-3],"split_indices":[30,7,48,59,55,48,38,7,15,35,27,34,0,27,45,23,51,15,14,22,52,49,48,22,7,4,33,52,22,0,27,14,27,59,0,27,33,5,0,23,37,37,2,48,20,45,9,2,0,4,18,20,33,11,7,1,16,0,0,0,0,0,0,0,0,0,0,0,0,0,0,0,0,0,0,0,0,0,0,0,0,0,0,0,0,0,0,0,0,0,0,0,0,0,0,0,0,0,0,0,0,0,0,0,0,0,0],"split_type":[0,0,0,0,0,0,0,0,0,0,0,0,0,0,0,0,0,0,0,0,0,0,0,0,0,0,0,0,0,0,0,0,0,0,0,0,0,0,0,0,0,0,0,0,0,0,0,0,0,0,0,0,0,0,0,0,0,0,0,0,0,0,0,0,0,0,0,0,0,0,0,0,0,0,0,0,0,0,0,0,0,0,0,0,0,0,0,0,0,0,0,0,0,0,0,0,0,0,0,0,0,0,0,0,0,0,0],"sum_hessian":[6.57E2,5.28E2,1.29E2,8.9E1,4.39E2,5.3E1,7.6E1,3.8E1,5.1E1,6.4E1,3.75E2,5E1,3E0,2.6E1,5E1,2.5E1,1.3E1,2E1,3.1E1,9E0,5.5E1,1.07E2,2.68E2,4.2E1,8E0,1.1E1,1.5E1,1.3E1,3.7E1,4E0,2.1E1,7E0,6E0,1.8E1,2E0,1.6E1,1.5E1,7E0,2E0,4.5E1,1E1,4E1,6.7E1,1.44E2,1.24E2,3.4E1,8E0,4E0,4E0,4E0,7E0,7E0,8E0,5E0,8E0,2E1,1.7E1,1.7E1,4E0,3E0,4E0,3E0,3E0,5E0,1.3E1,4E0,1.2E1,1.2E1,3E0,3E0,4E0,1E0,1E0,3E1,1.5E1,6E0,4E0,3E1,1E1,3E1,3.7E1,1.3E2,1.4E1,1.19E2,5E0,1.7E1,1.7E1,3E0,5E0,1E0,3E0,1E0,3E0,3E0,4E0,4E0,3E0,5E0,3E0,3E0,2E0,2E0,6E0,6E0,1.4E1,1.2E1,5E0],"tree_param":{"num_deleted":"0","num_feature":"60","num_nodes":"107","size_leaf_vector":"0"}},{"base_weights":[-3.366367E-4,-5.3750686E-3,1.1232939E-3,-7.2422385E-2,-4.426295E-3,-8.925214E-3,2.5562877E-3,-1.6641913E-3,-2.4128918E-2,1.923362E-3,-1.9833894E-2,9.206619E-3,-9.932277E-4,-4.835642E-3,1.5027416E-2,5.719602E-3,-4.3643393E-2,1.32636605E-2,-1.2569239E-2,-1.0950635E-2,-4.999545E-2,-3.6556416E-4,2.0671424E-2,-7.614306E-3,6.198391E-3,-1.0422732E-3,-1.9139154E-2,2.440923E-2,-7.2232485E-3,2.3983335E-2,-4.3655313E-3,-7.036815E-2,-2.9885873E-2,3.9255016E-2,3.7156316E-3,-2.4494862E-2,9.275377E-4,3.791107E-3,-1.7713137E-2,-2.1000404E-3,-6.87336E-2,1.1510835E-2,-6.933471E-3,3.458928E-2,4.50819E-3,-1.4941837E-2,8.242939E-3,1.0969178E-2,-1.5325061E-2,-1.1371497E-2,3.472748E-3,-1.0942176E-2,-4.6459842E-2,3.3354122E-2,5.4328763E-3,-9.551098E-3,3.3719242E-3,-9.045251E-3,3.3292721E-3,-9.653467E-3,-3.4287494E-2,1.1327505E-2,4.3405015E-2,-4.867662E-3,1.7401848E-2,-2.9038088E-2,-7.2434545E-3,5.457878E-3,-4.9672723E-3,1.3840328E-2,-1.0572885E-3,-5.9079584E-3,-2.6566483E-2,3.672704E-3,-6.822765E-3,-5.582105E-3,2.1191057E-2,1.17800655E-2,-1.3451794E-2,-8.00517E-3,4.4465613E-2,-1.2162425E-2,2.4022782E-2,-2.3142274E-2,9.605439E-3,7.153499E-2,2.5600877E-3,1.5248195E-3,2.0718167E-2,-3.742835E-2,-1.4216516E-3],"categories":[],"categories_nodes":[],"categories_segments":[],"categories_sizes":[],"default_left":[1,1,1,0,1,1,1,1,1,1,1,1,1,1,1,1,1,1,1,1,1,1,1,1,1,1,1,1,1,0,1,0,1,1,1,1,1,1,1,1,0,1,1,1,1,1,1,1,1,0,0,0,0,0,0,0,0,0,0,0,0,0,0,0,0,0,0,0,0,0,0,0,0,0,0,0,0,0,0,0,0,0,0,0,0,0,0,0,0,0,0],"id":36,"left_children":[1,3,5,-1,7,9,11,13,15,17,19,21,23,25,27,29,31,33,35,37,39,41,43,45,47,49,51,53,55,-1,57,-1,59,61,63,65,67,69,71,73,-1,75,77,79,81,83,85,87,89,-1,-1,-1,-1,-1,-1,-1,-1,-1,-1,-1,-1,-1,-1,-1,-1,-1,-1,-1,-1,-1,-1,-1,-1,-1,-1,-1,-1,-1,-1,-1,-1,-1,-1,-1,-1,-1,-1,-1,-1,-1,-1],"loss_changes":[4.846128E-3,9.094119E-3,7.3809344E-3,0E0,7.959685E-3,7.6121413E-3,1.0584388E-2,6.954426E-3,1.073423E-2,5.5902777E-3,8.026371E-3,1.7127499E-2,1.3998763E-2,5.9484863E-3,4.5600985E-3,1.5782374E-3,1.9413158E-3,4.5693005E-3,2.437082E-3,2.65912E-3,6.137958E-3,6.788075E-3,1.5816053E-2,1.7900914E-2,1.464652E-2,4.1435165E-3,4.642411E-3,2.364912E-3,2.0485336E-4,0E0,2.461712E-4,0E0,4.705051E-4,8.782558E-5,1.8467986E-3,4.1668024E-4,2.4075473E-4,4.5313663E-4,1.7243223E-3,1.0684725E-4,0E0,5.2476577E-3,6.9893925E-3,1.6341683E-2,1.1353063E-2,2.1358622E-2,1.744115E-2,1.064887E-2,7.936878E-3,0E0,0E0,0E0,0E0,0E0,0E0,0E0,0E0,0E0,0E0,0E0,0E0,0E0,0E0,0E0,0E0,0E0,0E0,0E0,0E0,0E0,0E0,0E0,0E0,0E0,0E0,0E0,0E0,0E0,0E0,0E0,0E0,0E0,0E0,0E0,0E0,0E0,0E0,0E0,0E0,0E0,0E0],"parents":[2147483647,0,0,1,1,2,2,4,4,5,5,6,6,7,7,8,8,9,9,10,10,11,11,12,12,13,13,14,14,15,15,16,16,17,17,18,18,19,19,20,20,21,21,22,22,23,23,24,24,25,25,26,26,27,27,28,28,30,30,32,32,33,33,34,34,35,35,36,36,37,37,38,38,39,39,41,41,42,42,43,43,44,44,45,45,46,46,47,47,48,48],"right_children":[2,4,6,-1,8,10,12,14,16,18,20,22,24,26,28,30,32,34,36,38,40,42,44,46,48,50,52,54,56,-1,58,-1,60,62,64,66,68,70,72,74,-1,76,78,80,82,84,86,88,90,-1,-1,-1,-1,-1,-1,-1,-1,-1,-1,-1,-1,-1,-1,-1,-1,-1,-1,-1,-1,-1,-1,-1,-1,-1,-1,-1,-1,-1,-1,-1,-1,-1,-1,-1,-1,-1,-1,-1,-1,-1,-1],"split_conditions":[-4.5035487E-1,-2.2773356E0,-6.909088E-1,-2.1726716E-2,-5.092607E-1,-1.1617002E0,-1.8466549E-1,4.66595E-1,-1.6945688E-1,8.8067144E-2,5.617892E-1,3.856972E-2,4.259236E-2,4.5366463E-1,2.2455797E-1,-6.9470507E-1,-2.7363566E-1,-6.542006E-1,-8.0935314E-2,-5.268297E-1,-9.0528023E-1,-7.057412E-2,8.601846E-2,3.0310845E-1,5.2181673E-1,-4.9771452E-1,4.3105686E-1,2.9762423E-1,2.0032582E0,7.195001E-3,5.002159E-1,-2.1110445E-2,-7.1237534E-3,-9.6400464E-1,-1.3954998E0,8.8911474E-1,3.7524506E-1,-1.3562202E0,-1.3223128E-2,-1.4216471E0,-2.0620082E-2,-4.5309746E-1,-4.8102242E-1,-8.4468937E-1,8.170006E-2,3.5404056E-1,3.3076537E-1,1.942261E-2,8.225155E-2,-3.4114493E-3,1.0418245E-3,-3.282653E-3,-1.3937953E-2,1.0006237E-2,1.6298629E-3,-2.8653294E-3,1.0115773E-3,-2.7135753E-3,9.987816E-4,-2.8960402E-3,-1.0286248E-2,3.3982517E-3,1.3021505E-2,-1.4602987E-3,5.220555E-3,-8.7114265E-3,-2.1730363E-3,1.6373635E-3,-1.4901818E-3,4.1520987E-3,-3.1718655E-4,-1.7723875E-3,-7.969946E-3,1.1018113E-3,-2.0468296E-3,-1.6746315E-3,6.3573173E-3,3.5340197E-3,-4.0355385E-3,-2.4015512E-3,1.3339684E-2,-3.6487274E-3,7.206835E-3,-6.9426824E-3,2.881632E-3,2.1460498E-2,7.6802634E-4,4.574459E-4,6.2154504E-3,-1.12285055E-2,-4.2649548E-4],"split_indices":[56,31,14,0,56,14,41,2,27,53,20,25,18,22,32,8,48,27,43,59,4,1,28,5,30,55,28,1,0,0,5,0,2,0,14,3,15,12,17,0,0,29,53,11,48,31,5,33,38,0,0,0,0,0,0,0,0,0,0,0,0,0,0,0,0,0,0,0,0,0,0,0,0,0,0,0,0,0,0,0,0,0,0,0,0,0,0,0,0,0,0],"split_type":[0,0,0,0,0,0,0,0,0,0,0,0,0,0,0,0,0,0,0,0,0,0,0,0,0,0,0,0,0,0,0,0,0,0,0,0,0,0,0,0,0,0,0,0,0,0,0,0,0,0,0,0,0,0,0,0,0,0,0,0,0,0,0,0,0,0,0,0,0,0,0,0,0,0,0,0,0,0,0,0,0,0,0,0,0,0,0,0,0,0,0],"sum_hessian":[6.57E2,1.47E2,5.1E2,1E0,1.46E2,6.3E1,4.47E2,1.29E2,1.7E1,3.2E1,3.1E1,1.55E2,2.92E2,1.09E2,2E1,7E0,1E1,1.8E1,1.4E1,2.5E1,6E0,8.5E1,7E1,1.52E2,1.4E2,8.7E1,2.2E1,1.4E1,6E0,2E0,5E0,2E0,8E0,4E0,1.4E1,7E0,7E0,8E0,1.7E1,2E0,4E0,3E1,5.5E1,3.7E1,3.3E1,1.04E2,4.8E1,1.15E2,2.5E1,2.6E1,6.1E1,1.8E1,4E0,9E0,5E0,5E0,1E0,3E0,2E0,2E0,6E0,1E0,3E0,9E0,5E0,5E0,2E0,4E0,3E0,2E0,6E0,8E0,9E0,1E0,1E0,1.1E1,1.9E1,1.4E1,4.1E1,7E0,3E1,1.8E1,1.5E1,7.8E1,2.6E1,3E0,4.5E1,5.9E1,5.6E1,9E0,1.6E1],"tree_param":{"num_deleted":"0","num_feature":"60","num_nodes":"91","size_leaf_vector":"0"}},{"base_weights":[-3.0633595E-4,2.1270059E-4,-1.1992254E-2,-5.526616E-4,1.1534743E-2,3.2240201E-3,-1.5440315E-2,6.4793974E-3,-1.6800122E-3,1.8303456E-2,-3.931312E-3,-4.2729577E-4,5.156502E-3,-2.1174736E-2,-5.868092E-3,2.0175342E-2,-2.6895131E-3,-9.69783E-3,1.2705693E-4,5.060589E-3,2.6574688E-2,8.1155505E-3,-1.0187201E-2,-2.6944416E-2,-1.1555855E-2,-9.938474E-3,1.8998384E-4,7.7807433E-3,5.7935867E-2,-1.0442935E-2,6.866371E-3,1.3982711E-4,-2.7062515E-2,1.056788E-2,-2.649135E-3,8.40584E-3,-7.777112E-3,3.5008002E-2,5.2789473E-3,-1.2141131E-3,-1.4471393E-2,-1.125201E-2,-1.6853958E-3,3.0560493E-3,-1.2905449E-3,-2.2911334E-3,1.802886E-2,2.108328E-2,7.5830765E-2,5.4119173E-3,-2.267232E-2,2.6703384E-2,-1.2743183E-4,2.6618526E-3,-7.559085E-2,-9.024783E-2,-2.0293187E-2,2.0807674E-2,-4.800924E-3,-6.5887826E-3,3.2654442E-3,1.20343445E-2,3.9811134E-3,-2.185788E-3,-9.47988E-3,1.8121466E-2,4.448103E-2,8.084949E-3,-2.2203724E-4,-1.9969393E-3,5.671829E-4],"categories":[],"categories_nodes":[],"categories_segments":[],"categories_sizes":[],"default_left":[1,1,1,1,1,1,1,1,1,1,1,0,0,1,1,1,1,1,1,1,1,0,1,0,0,1,1,1,1,1,1,1,1,1,1,1,1,1,1,1,0,0,0,0,0,0,0,0,0,0,0,0,0,0,0,0,0,0,0,0,0,0,0,0,0,0,0,0,0,0,0],"id":37,"left_children":[1,3,5,7,9,11,13,15,17,19,21,-1,-1,23,25,27,29,31,33,35,37,-1,39,-1,-1,41,43,45,47,49,51,53,55,57,59,61,63,65,67,69,-1,-1,-1,-1,-1,-1,-1,-1,-1,-1,-1,-1,-1,-1,-1,-1,-1,-1,-1,-1,-1,-1,-1,-1,-1,-1,-1,-1,-1,-1,-1],"loss_changes":[3.993596E-3,5.474282E-3,1.518846E-3,4.704023E-3,4.2593684E-3,4.453997E-5,1.1382415E-3,1.03515675E-2,7.404985E-3,2.9324917E-3,1.0624046E-3,3.595269E-7,3.4338882E-7,4.65604E-4,2.4847494E-4,1.4994092E-2,3.7762453E-3,1.60616E-2,1.2144029E-2,5.8071717E-4,2.8682873E-3,0E0,3.28412E-4,0E0,0E0,4.608021E-5,2.5160429E-5,2.7249688E-3,3.6770254E-3,5.5517633E-3,3.1943345E-3,1.1851887E-2,1.2711132E-2,1.3948754E-2,7.7342642E-3,1.1264137E-4,7.841183E-6,1.1135386E-3,9.44098E-5,6.710411E-6,0E0,0E0,0E0,0E0,1.6703598E-7,0E0,0E0,0E0,0E0,0E0,0E0,0E0,0E0,0E0,0E0,0E0,0E0,0E0,0E0,0E0,0E0,0E0,0E0,0E0,0E0,0E0,0E0,0E0,0E0,0E0,0E0],"parents":[2147483647,0,0,1,1,2,2,3,3,4,4,5,5,6,6,7,7,8,8,9,9,10,10,13,13,14,14,15,15,16,16,17,17,18,18,19,19,20,20,22,22,25,25,26,26,27,27,28,28,29,29,30,30,31,31,32,32,33,33,34,34,35,35,36,36,37,37,38,38,39,39],"right_children":[2,4,6,8,10,12,14,16,18,20,22,-1,-1,24,26,28,30,32,34,36,38,-1,40,-1,-1,42,44,46,48,50,52,54,56,58,60,62,64,66,68,70,-1,-1,-1,-1,-1,-1,-1,-1,-1,-1,-1,-1,-1,-1,-1,-1,-1,-1,-1,-1,-1,-1,-1,-1,-1,-1,-1,-1,-1,-1,-1],"split_conditions":[1.5134039E0,1.1519346E0,-1.0231663E0,-7.5124836E-1,4.2652917E-1,-7.356451E-1,3.580238E-1,-2.0339867E-1,-3.355544E-1,-2.103787E-1,-6.5115047E-1,-1.2818874E-4,1.5469507E-3,-1.3032109E-3,-8.187913E-1,-3.7451962E-1,-1.8717109E-1,8.582771E-2,-1.1486219E-1,6.2002325E-1,2.0911744E-1,2.4346653E-3,-1.8498074E-2,-8.083325E-3,-3.4667568E-3,-1.1541826E-1,3.121557E-1,-1.6321069E-1,-3.8178182E-1,-3.206001E-1,-1.9445528E-1,1.1191936E0,-8.5839164E-1,9.000619E-2,8.0251604E-2,-5.305716E-1,8.9196056E-1,-1.4273426E-1,7.712785E-1,-7.1451056E-1,-4.341418E-3,-3.3756031E-3,-5.0561875E-4,9.1681484E-4,-3.8716348E-4,-6.8734004E-4,5.4086586E-3,6.3249846E-3,2.274923E-2,1.6235752E-3,-6.801696E-3,8.011015E-3,-3.822955E-5,7.9855585E-4,-2.2677256E-2,-2.707435E-2,-6.0879565E-3,6.2423027E-3,-1.4402773E-3,-1.9766348E-3,9.796333E-4,3.6103034E-3,1.1943341E-3,-6.557364E-4,-2.8439641E-3,5.43644E-3,1.334431E-2,2.4254848E-3,-6.6611174E-5,-5.990818E-4,1.7015488E-4],"split_indices":[45,46,12,28,55,4,35,38,28,9,47,0,0,54,41,38,15,19,28,45,34,0,0,0,0,0,2,15,9,58,36,36,24,11,56,23,0,2,10,1,0,0,0,0,0,0,0,0,0,0,0,0,0,0,0,0,0,0,0,0,0,0,0,0,0,0,0,0,0,0,0],"split_type":[0,0,0,0,0,0,0,0,0,0,0,0,0,0,0,0,0,0,0,0,0,0,0,0,0,0,0,0,0,0,0,0,0,0,0,0,0,0,0,0,0,0,0,0,0,0,0,0,0,0,0,0,0,0,0,0,0,0,0,0,0,0,0,0,0,0,0,0,0,0,0],"sum_hessian":[6.57E2,6.3E2,2.7E1,5.91E2,3.9E1,5E0,2.2E1,8.1E1,5.1E2,2.7E1,1.2E1,2E0,3E0,1.3E1,9E0,3.2E1,4.9E1,9.3E1,4.17E2,1.1E1,1.6E1,4E0,8E0,7E0,6E0,5E0,4E0,2.5E1,7E0,2.7E1,2.2E1,6E1,3.3E1,8.7E1,3.3E2,9E0,2E0,1.1E1,5E0,3E0,5E0,4E0,1E0,1E0,3E0,1.3E1,1.2E1,3E0,4E0,1.2E1,1.5E1,5E0,1.7E1,5.9E1,1E0,2E0,3.1E1,5.2E1,3.5E1,1.98E2,1.32E2,4E0,5E0,1E0,1E0,5E0,6E0,3E0,2E0,2E0,1E0],"tree_param":{"num_deleted":"0","num_feature":"60","num_nodes":"71","size_leaf_vector":"0"}},{"base_weights":[-2.2662357E-4,-7.782191E-4,8.093197E-3,4.149977E-3,-1.9987633E-3,-1.41346E-3,2.303569E-2,-8.630811E-3,9.537784E-3,-3.3181144E-3,6.9587035E-3,9.241993E-3,-1.2779836E-2,1.0176361E-2,7.536733E-2,3.2546674E-3,-2.2805179E-2,-8.3705345E-5,1.9384976E-2,1.651629E-3,-6.663238E-3,2.5604943E-2,2.098538E-4,-2.5918968E-3,2.1446154E-2,-2.9648354E-2,-7.0175272E-3,1.9574108E-2,6.812867E-4,2.0360067E-2,-6.752323E-3,-6.5150526E-3,-3.6561396E-2,9.733318E-3,-1.0789381E-2,1.9018841E-3,2.9674886E-2,-1.1064084E-3,1.617084E-2,-1.0602879E-2,5.017877E-3,5.365737E-2,9.444984E-3,-5.3510126E-3,9.775243E-3,-5.267968E-3,3.6242108E-3,6.644502E-4,2.4799028E-2,-3.671497E-4,-9.465525E-3,2.5958624E-2,2.4085443E-3,-4.055512E-3,6.4319633E-3,2.5910081E-2,2.473348E-3,9.763822E-3,-1.2144346E-2,2.2089959E-3,-1.393609E-2,-1.7000198E-2,-4.8810314E-2,3.8412977E-3,4.969703E-2,2.1558525E-3,-2.1756731E-2,1.7672937E-2,-6.1421324E-3,3.708143E-2,7.449164E-3,-2.1298125E-2,1.3309892E-3,-3.2933662E-3,2.4121191E-2,4.5972215E-3,-1.5092224E-2,5.4959822E-2,9.0936734E-4,5.7820417E-3,6.207603E-2,-1.0387832E-3,2.4330014E-2,4.0338817E-3,-1.5630491E-2,1.7057072E-2,-1.4591785E-3,-1.7718027E-3,-6.5730996E-3,1.3689265E-2,3.1345706E-2,-2.1865964E-3,9.68198E-4,-1.1138256E-2,-2.964889E-3,-1.8996E-3,5.5124164E-3,-1.6204119E-3,-5.138775E-3],"categories":[],"categories_nodes":[],"categories_segments":[],"categories_sizes":[],"default_left":[1,1,1,1,1,1,1,1,1,1,1,1,1,1,0,1,1,1,1,1,1,1,1,1,1,0,1,1,1,1,1,1,1,1,1,1,1,1,1,1,1,1,1,1,1,1,0,0,1,1,1,0,1,1,0,0,0,0,0,0,0,0,0,0,0,0,0,0,0,0,0,0,0,0,0,0,0,0,0,0,0,0,0,0,0,0,0,0,0,0,0,0,0,0,0,0,0,0,0],"id":38,"left_children":[1,3,5,7,9,11,13,15,17,19,21,23,25,27,-1,29,31,33,35,37,39,41,43,45,47,-1,49,51,53,55,57,59,61,63,65,67,69,71,73,75,77,79,81,83,85,87,-1,-1,89,91,93,-1,95,97,-1,-1,-1,-1,-1,-1,-1,-1,-1,-1,-1,-1,-1,-1,-1,-1,-1,-1,-1,-1,-1,-1,-1,-1,-1,-1,-1,-1,-1,-1,-1,-1,-1,-1,-1,-1,-1,-1,-1,-1,-1,-1,-1,-1,-1],"loss_changes":[3.025976E-3,3.7256153E-3,5.8567394E-3,8.55215E-3,5.88484E-3,3.2670721E-3,1.0000231E-2,6.3075814E-3,8.244406E-3,7.209374E-3,8.04843E-3,2.077504E-3,1.0555626E-3,1.2359167E-3,0E0,3.7321225E-3,3.5713399E-3,4.834421E-3,7.679239E-3,7.0256838E-3,1.1972228E-2,7.1997503E-3,2.6055162E-3,1.5217019E-4,4.7127134E-4,0E0,1.7560594E-4,7.0463424E-4,2.4400328E-4,7.300875E-4,1.3653515E-3,6.134582E-4,1.3266467E-3,5.4603075E-3,3.170352E-3,2.265214E-3,4.1684005E-3,7.3122038E-3,4.4123637E-3,1.330765E-2,1.3492361E-2,2.0593498E-3,1.8978879E-3,3.0536782E-3,1.4974178E-3,1.5731508E-5,0E0,0E0,7.2924886E-6,1.1835434E-5,5.3966767E-5,0E0,5.058718E-5,4.8623406E-6,0E0,0E0,0E0,0E0,0E0,0E0,0E0,0E0,0E0,0E0,0E0,0E0,0E0,0E0,0E0,0E0,0E0,0E0,0E0,0E0,0E0,0E0,0E0,0E0,0E0,0E0,0E0,0E0,0E0,0E0,0E0,0E0,0E0,0E0,0E0,0E0,0E0,0E0,0E0,0E0,0E0,0E0,0E0,0E0,0E0],"parents":[2147483647,0,0,1,1,2,2,3,3,4,4,5,5,6,6,7,7,8,8,9,9,10,10,11,11,12,12,13,13,15,15,16,16,17,17,18,18,19,19,20,20,21,21,22,22,23,23,24,24,26,26,27,27,28,28,29,29,30,30,31,31,32,32,33,33,34,34,35,35,36,36,37,37,38,38,39,39,40,40,41,41,42,42,43,43,44,44,45,45,48,48,49,49,50,50,52,52,53,53],"right_children":[2,4,6,8,10,12,14,16,18,20,22,24,26,28,-1,30,32,34,36,38,40,42,44,46,48,-1,50,52,54,56,58,60,62,64,66,68,70,72,74,76,78,80,82,84,86,88,-1,-1,90,92,94,-1,96,98,-1,-1,-1,-1,-1,-1,-1,-1,-1,-1,-1,-1,-1,-1,-1,-1,-1,-1,-1,-1,-1,-1,-1,-1,-1,-1,-1,-1,-1,-1,-1,-1,-1,-1,-1,-1,-1,-1,-1,-1,-1,-1,-1,-1,-1],"split_conditions":[1.1740623E0,-5.2586246E-1,-6.625123E-2,-4.624189E-1,5.8168554E-1,-1.0214255E-1,1.3952217E-1,5.337681E-2,-9.120387E-1,-1.4859697E-1,-1.3199133E-1,-2.9095173E-1,-7.815862E-1,1.3439624E-1,2.26102E-2,-2.9304066E-1,-4.2011368E-1,1.1528894E-1,-1.5245786E-1,4.8759684E-1,3.682366E-1,-3.6567122E-1,-4.4162206E-2,3.8136542E-1,-1.2197508E0,-8.894507E-3,-8.852592E-2,8.281393E-1,-2.3626994E-1,3.3617282E-1,-6.7923605E-1,-7.7176464E-1,-1.3548711E-1,5.232999E-1,-3.4948755E-2,-3.4548724E-1,7.7512777E-1,-7.1458364E-1,-3.0703425E-1,-4.3462402E-1,4.0056556E-1,-3.571921E-1,2.2164746E-1,-1.5702027E-1,2.4134412E-1,-5.038285E-1,1.0872633E-3,1.9933507E-4,-8.0558807E-1,-6.3921154E-1,-7.419573E-2,7.7875876E-3,-9.616503E-1,-6.9457847E-1,1.9295891E-3,7.7730245E-3,7.420044E-4,2.9291466E-3,-3.6433039E-3,6.6269876E-4,-4.180827E-3,-5.10006E-3,-1.46430945E-2,1.1523893E-3,1.490911E-2,6.467558E-4,-6.5270197E-3,5.3018816E-3,-1.8426398E-3,1.112443E-2,2.2347493E-3,-6.3894377E-3,3.9929678E-4,-9.880099E-4,7.236358E-3,1.3791665E-3,-4.5276675E-3,1.6487947E-2,2.7281023E-4,1.7346126E-3,1.862281E-2,-3.1163497E-4,7.2990046E-3,1.2101645E-3,-4.6891477E-3,5.117122E-3,-4.3775357E-4,-5.3154083E-4,-1.97193E-3,4.1067796E-3,9.403712E-3,-6.559789E-4,2.904594E-4,-3.341477E-3,-8.894667E-4,-5.6988E-4,1.6537249E-3,-4.8612358E-4,-1.5416326E-3],"split_indices":[59,59,40,19,1,18,26,41,59,22,59,26,11,31,0,15,6,12,22,39,10,13,25,5,1,0,0,16,46,0,53,22,17,14,31,4,22,26,49,37,10,4,49,17,10,3,0,0,5,0,26,0,0,1,0,0,0,0,0,0,0,0,0,0,0,0,0,0,0,0,0,0,0,0,0,0,0,0,0,0,0,0,0,0,0,0,0,0,0,0,0,0,0,0,0,0,0,0,0],"split_type":[0,0,0,0,0,0,0,0,0,0,0,0,0,0,0,0,0,0,0,0,0,0,0,0,0,0,0,0,0,0,0,0,0,0,0,0,0,0,0,0,0,0,0,0,0,0,0,0,0,0,0,0,0,0,0,0,0,0,0,0,0,0,0,0,0,0,0,0,0,0,0,0,0,0,0,0,0,0,0,0,0,0,0,0,0,0,0,0,0,0,0,0,0,0,0,0,0,0,0],"sum_hessian":[6.57E2,6.17E2,4E1,1.22E2,4.95E2,2.5E1,1.5E1,3.6E1,8.6E1,4.32E2,6.3E1,1.3E1,1.2E1,1.3E1,2E0,2E1,1.6E1,4.4E1,4.2E1,1.74E2,2.58E2,1.6E1,4.7E1,7E0,6E0,2E0,1E1,6E0,7E0,7E0,1.3E1,8E0,8E0,2.3E1,2.1E1,1.6E1,2.6E1,1.47E2,2.7E1,1.93E2,6.5E1,5E0,1.1E1,3E1,1.7E1,5E0,2E0,1E0,5E0,3E0,7E0,4E0,2E0,4E0,3E0,5E0,2E0,3E0,1E1,4E0,4E0,4E0,4E0,2.1E1,2E0,1E1,1.1E1,5E0,1.1E1,1.9E1,7E0,1.5E1,1.32E2,8E0,1.9E1,4.4E1,1.49E2,4E0,6.1E1,1E0,4E0,7E0,4E0,1.6E1,1.4E1,1E1,7E0,2E0,3E0,3E0,2E0,1E0,2E0,5E0,2E0,1E0,1E0,2E0,2E0],"tree_param":{"num_deleted":"0","num_feature":"60","num_nodes":"99","size_leaf_vector":"0"}},{"base_weights":[-3.0763775E-5,2.1267396E-3,-1.8557926E-3,1.5446387E-3,3.6394615E-2,5.7428956E-2,-2.1836401E-3,4.0680976E-3,-6.8892767E-3,-1.0888677E-2,5.0937608E-2,2.5804325E-3,-5.6651514E-3,-2.1594838E-4,1.0857607E-2,1.7360575E-3,-1.9581232E-2,4.9795597E-3,-1.662325E-2,1.5647825E-2,-7.664984E-3,5.288059E-3,-8.048502E-3,5.3522818E-2,5.982984E-3,6.6092503E-3,-1.0997696E-2,-9.010018E-3,-4.4883013E-2,-2.8229764E-2,6.4739934E-3,-3.88185E-2,-9.877939E-4,2.1070493E-2,-2.6652098E-3,-9.56276E-3,1.2098548E-2,-1.0312191E-3,1.612525E-2,-3.0712012E-2,-3.891245E-3,1.1365712E-3,6.832795E-2,1.6841747E-2,-4.004801E-3,-3.7363556E-3,1.4288652E-2,-4.226566E-3,-2.3483314E-2,-3.0224815E-2,-2.2403707E-3,-1.1967656E-2,-6.2238697E-2,1.0173122E-3,-4.310763E-2,-2.2201696E-4,1.2216602E-2,-1.3336045E-2,-6.834976E-2,3.568828E-3,-4.1014105E-3,3.0359462E-2,7.4444585E-3,-5.9999824E-3,1.5579661E-3,6.415695E-3,-1.205556E-2,2.7688745E-2,-4.8359325E-3],"categories":[],"categories_nodes":[],"categories_segments":[],"categories_sizes":[],"default_left":[1,1,1,1,1,0,1,1,1,0,0,1,1,1,1,1,1,1,1,1,1,1,1,1,1,1,1,1,1,1,1,1,1,1,1,1,1,0,0,0,0,0,0,0,0,0,0,0,0,0,0,0,0,0,0,0,0,0,0,0,0,0,0,0,0,0,0,0,0],"id":39,"left_children":[1,3,5,7,9,-1,11,13,15,-1,-1,17,19,21,23,25,27,29,31,33,35,37,39,41,43,45,47,49,51,53,55,57,59,61,63,65,67,-1,-1,-1,-1,-1,-1,-1,-1,-1,-1,-1,-1,-1,-1,-1,-1,-1,-1,-1,-1,-1,-1,-1,-1,-1,-1,-1,-1,-1,-1,-1,-1],"loss_changes":[2.5948256E-3,5.9678876E-3,7.0641832E-3,6.370252E-3,3.9928462E-3,0E0,5.9192963E-3,6.692256E-3,7.5875865E-3,0E0,0E0,7.039659E-3,8.9001525E-3,6.164242E-3,1.8189713E-2,2.678956E-3,7.0847794E-3,6.8826918E-3,5.8612144E-3,1.8436564E-3,7.2044684E-3,5.7692192E-3,5.439356E-3,6.902607E-3,8.852303E-3,2.5162776E-3,9.15247E-4,2.9482357E-3,3.8252976E-3,2.6546582E-3,5.001547E-3,4.356187E-3,1.7070056E-4,1.5459955E-3,7.976443E-5,6.9681257E-3,4.6221027E-3,0E0,0E0,0E0,0E0,0E0,0E0,0E0,0E0,0E0,0E0,0E0,0E0,0E0,0E0,0E0,0E0,0E0,0E0,0E0,0E0,0E0,0E0,0E0,0E0,0E0,0E0,0E0,0E0,0E0,0E0,0E0,0E0],"parents":[2147483647,0,0,1,1,2,2,3,3,4,4,6,6,7,7,8,8,11,11,12,12,13,13,14,14,15,15,16,16,17,17,18,18,19,19,20,20,21,21,22,22,23,23,24,24,25,25,26,26,27,27,28,28,29,29,30,30,31,31,32,32,33,33,34,34,35,35,36,36],"right_children":[2,4,6,8,10,-1,12,14,16,-1,-1,18,20,22,24,26,28,30,32,34,36,38,40,42,44,46,48,50,52,54,56,58,60,62,64,66,68,-1,-1,-1,-1,-1,-1,-1,-1,-1,-1,-1,-1,-1,-1,-1,-1,-1,-1,-1,-1,-1,-1,-1,-1,-1,-1,-1,-1,-1,-1,-1,-1],"split_conditions":[-1.1425713E-1,-1.26334E-1,-3.3563826E0,4.462368E-1,-2.6849556E-1,1.7228687E-2,-1.1945662E-1,1.17659695E-1,-4.9775857E-3,-3.2666032E-3,1.5281283E-2,8.431339E-1,-9.577631E-1,6.2160507E-2,2.0055245E-1,5.1567554E-1,5.7175413E-2,-1.6379274E0,-2.837323E-1,1.9080468E-1,7.458702E-1,2.138835E-1,-6.233445E-1,-8.593894E-1,-8.420937E-2,-1.9816065E-1,2.6012692E-1,-5.989349E-1,-1.1926147E-1,-4.5516667E-1,-1.3017234E-1,-9.2371434E-1,-3.5852128E-1,4.7814775E-1,1.0892397E0,-5.002169E-1,2.7198441E-2,-3.0936574E-4,4.8375754E-3,-9.213604E-3,-1.1673735E-3,3.4097137E-4,2.0498386E-2,5.052524E-3,-1.2014403E-3,-1.1209067E-3,4.2865956E-3,-1.2679698E-3,-7.0449943E-3,-9.067445E-3,-6.7211123E-4,-3.590297E-3,-1.867161E-2,3.0519365E-4,-1.2932289E-2,-6.660509E-5,3.6649809E-3,-4.0008137E-3,-2.0504927E-2,1.0706484E-3,-1.2304232E-3,9.107839E-3,2.2333376E-3,-1.7999947E-3,4.6738985E-4,1.9247086E-3,-3.616668E-3,8.306624E-3,-1.4507798E-3],"split_indices":[1,1,41,55,2,0,36,34,34,0,0,49,34,10,34,33,19,34,54,45,41,42,58,9,7,45,16,6,15,31,17,0,57,48,1,5,17,0,0,0,0,0,0,0,0,0,0,0,0,0,0,0,0,0,0,0,0,0,0,0,0,0,0,0,0,0,0,0,0],"split_type":[0,0,0,0,0,0,0,0,0,0,0,0,0,0,0,0,0,0,0,0,0,0,0,0,0,0,0,0,0,0,0,0,0,0,0,0,0,0,0,0,0,0,0,0,0,0,0,0,0,0,0,0,0,0,0,0,0,0,0,0,0,0,0,0,0,0,0,0,0],"sum_hessian":[6.57E2,3.01E2,3.56E2,2.97E2,4E0,1E0,3.55E2,2.29E2,6.8E1,1E0,3E0,1.5E2,2.05E2,1.41E2,8.8E1,4.1E1,2.7E1,1.34E2,1.6E1,1.7E1,1.88E2,8.3E1,5.8E1,8E0,8E1,3E1,1.1E1,2E1,7E0,5E0,1.29E2,6E0,1E1,1.3E1,4E0,1.72E2,1.6E1,5.3E1,3E1,8E0,5E1,2E0,6E0,3.8E1,4.2E1,1.3E1,1.7E1,8E0,3E0,4E0,1.6E1,3E0,4E0,2E0,3E0,6E1,6.9E1,4E0,2E0,4E0,6E0,7E0,6E0,2E0,2E0,2.3E1,1.49E2,8E0,8E0],"tree_param":{"num_deleted":"0","num_feature":"60","num_nodes":"69","size_leaf_vector":"0"}},{"base_weights":[-3.3070024E-5,6.385876E-4,-5.7757497E-3,-3.2068626E-3,2.1898653E-3,-1.1322159E-2,3.832626E-3,1.3564639E-3,-1.3306215E-2,5.8521614E-3,-1.5530005E-3,-2.413791E-3,-2.1891512E-2,-1.946804E-3,1.49656385E-2,-1.4244982E-3,2.8537141E-2,4.7913427E-4,-2.3890954E-2,-4.353569E-2,6.5266234E-3,-7.1050884E-4,-3.5784557E-2,8.893294E-3,-8.257907E-3,-5.2613914E-2,-1.0922542E-2,-5.0686896E-3,1.7382693E-3,-5.2079894E-3,2.592045E-2,1.3169742E-2,-5.9790253E-3,5.0266106E-2,2.0519842E-3,-2.6016948E-3,2.2912169E-2,-3.9207175E-2,-5.9609218E-3,1.3928467E-3,1.1139099E-2,2.9205743E-3,-7.7550346E-3,-8.929096E-3,-4.026615E-2,2.6115428E-3,1.6092598E-2,-2.9098568E-3,-1.5482285E-2,-2.2304727E-2,-3.72112E-3,-7.7376715E-3,-8.5217354E-4,-6.099716E-4,3.7388564E-3,-1.3922453E-3,-6.0158223E-3,3.1388864E-2,9.989083E-3,2.3221701E-2,1.3314981E-3,-1.1864404E-2,1.31531395E-2,7.948425E-3,-6.493931E-3,1.6581704E-3,-1.4237697E-2,-1.6091561E-2,-6.6628456E-2,1.7892227E-3,-2.1819055E-2,-2.7643011E-3,9.311019E-3,3.0623535E-3,2.1296157E-2,3.181851E-4,2.1118583E-2,1.6893934E-2,-1.1208029E-2,-1.0085702E-3,4.6737418E-3,-6.9395155E-3,1.6047781E-3,-7.6901764E-3,-1.9403823E-2,-2.6455794E-2,-9.335061E-3,-9.61023E-3,1.0169755E-3,1.8360217E-4,-1.6038915E-3,4.1315705E-4,-9.69043E-4],"categories":[],"categories_nodes":[],"categories_segments":[],"categories_sizes":[],"default_left":[1,1,1,1,1,1,1,1,1,1,1,1,1,1,1,1,1,1,1,0,1,1,1,1,1,0,1,1,1,1,1,1,1,0,1,1,0,1,1,1,1,1,1,0,0,1,0,1,1,1,1,0,1,1,0,0,0,0,0,0,0,0,0,0,0,0,0,0,0,0,0,0,0,0,0,0,0,0,0,0,0,0,0,0,0,0,0,0,0,0,0,0,0],"id":40,"left_children":[1,3,5,7,9,11,13,15,17,19,21,23,25,27,29,31,33,35,37,-1,39,41,43,45,47,-1,49,51,53,55,57,59,61,-1,63,65,-1,67,69,71,73,75,77,-1,-1,79,-1,81,83,85,87,-1,89,91,-1,-1,-1,-1,-1,-1,-1,-1,-1,-1,-1,-1,-1,-1,-1,-1,-1,-1,-1,-1,-1,-1,-1,-1,-1,-1,-1,-1,-1,-1,-1,-1,-1,-1,-1,-1,-1,-1,-1],"loss_changes":[2.5416696E-3,3.5265859E-3,3.7205406E-3,7.852779E-3,5.7799392E-3,4.090009E-3,1.7020392E-3,8.960086E-3,7.7449055E-3,7.379215E-3,6.0020927E-3,1.7254379E-3,6.165184E-3,2.1588951E-4,2.1239782E-3,7.2574876E-3,6.2273014E-3,1.7183068E-3,8.004898E-3,0E0,4.9808426E-3,5.2663973E-3,2.422356E-4,3.6499166E-4,6.117666E-4,0E0,1.228488E-3,1.059442E-4,4.456134E-5,3.9544393E-6,2.0916993E-4,3.0630166E-3,9.501858E-3,0E0,3.539594E-4,1.1141002E-3,0E0,9.069601E-3,1.8825814E-3,3.3503573E-3,9.040776E-3,6.4340094E-3,6.1472417E-3,0E0,0E0,4.9506154E-5,0E0,2.1125318E-4,6.468047E-5,7.606135E-5,3.1670817E-4,0E0,4.187534E-6,2.237248E-6,0E0,0E0,0E0,0E0,0E0,0E0,0E0,0E0,0E0,0E0,0E0,0E0,0E0,0E0,0E0,0E0,0E0,0E0,0E0,0E0,0E0,0E0,0E0,0E0,0E0,0E0,0E0,0E0,0E0,0E0,0E0,0E0,0E0,0E0,0E0,0E0,0E0,0E0,0E0],"parents":[2147483647,0,0,1,1,2,2,3,3,4,4,5,5,6,6,7,7,8,8,9,9,10,10,11,11,12,12,13,13,14,14,15,15,16,16,17,17,18,18,20,20,21,21,22,22,23,23,24,24,26,26,27,27,28,28,29,29,30,30,31,31,32,32,34,34,35,35,37,37,38,38,39,39,40,40,41,41,42,42,45,45,47,47,48,48,49,49,50,50,52,52,53,53],"right_children":[2,4,6,8,10,12,14,16,18,20,22,24,26,28,30,32,34,36,38,-1,40,42,44,46,48,-1,50,52,54,56,58,60,62,-1,64,66,-1,68,70,72,74,76,78,-1,-1,80,-1,82,84,86,88,-1,90,92,-1,-1,-1,-1,-1,-1,-1,-1,-1,-1,-1,-1,-1,-1,-1,-1,-1,-1,-1,-1,-1,-1,-1,-1,-1,-1,-1,-1,-1,-1,-1,-1,-1,-1,-1,-1,-1,-1,-1],"split_conditions":[7.3935103E-1,-3.4387374E-1,1.2711003E-1,3.03716E-1,5.770821E-3,-1.3891894E-1,3.3968252E-1,5.290487E-1,-2.1133026E-1,-2.6242802E0,1.6775254E0,-5.592338E-1,-1.5916765E-1,2.8026438E-1,-6.570183E-1,-1.1866889E0,3.2780105E-1,6.427523E-1,-2.3179095E-2,-1.3060708E-2,-4.2991027E-2,2.1538442E-1,-4.050525E-1,-5.5469906E-1,3.0314405E-2,-1.5784174E-2,-1.3852836E-1,2.5126922E-1,3.5353905E-1,-1.743953E-2,5.334533E-1,1.359699E-1,4.8193353E-1,1.5079833E-2,2.024925E-1,1.922834E-1,6.873651E-3,7.129009E-2,9.526236E-1,2.2057305E-1,-1.8899571E-2,1.0570067E-1,-5.3453493E-1,-2.678729E-3,-1.2079845E-2,-8.034307E-1,4.8277797E-3,2.6547274E-1,-4.335567E-1,3.0933025E-1,-1.8692474E-1,-2.3213015E-3,9.23544E-2,1.6859072E-1,1.121657E-3,-4.176736E-4,-1.8047468E-3,9.416659E-3,2.996725E-3,6.966511E-3,3.9944946E-4,-3.5593214E-3,3.945942E-3,2.3845276E-3,-1.9481794E-3,4.974511E-4,-4.2713094E-3,-4.8274687E-3,-1.9988537E-2,5.3676683E-4,-6.545717E-3,-8.2929037E-4,2.793306E-3,9.1870606E-4,6.3888473E-3,9.5455536E-5,6.335575E-3,5.0681806E-3,-3.362409E-3,-3.0257108E-4,1.4021226E-3,-2.0818547E-3,4.8143344E-4,-2.307053E-3,-5.821147E-3,-7.936738E-3,-2.8005182E-3,-2.8830692E-3,3.0509266E-4,5.5080654E-5,-4.8116746E-4,1.2394712E-4,-2.9071292E-4],"split_indices":[5,35,39,36,52,36,59,5,25,58,39,35,23,50,46,35,19,1,47,0,55,21,0,39,2,0,20,56,31,0,0,38,15,0,0,53,0,6,28,58,19,21,53,0,0,3,0,42,15,2,1,0,6,2,0,0,0,0,0,0,0,0,0,0,0,0,0,0,0,0,0,0,0,0,0,0,0,0,0,0,0,0,0,0,0,0,0,0,0,0,0,0,0],"split_type":[0,0,0,0,0,0,0,0,0,0,0,0,0,0,0,0,0,0,0,0,0,0,0,0,0,0,0,0,0,0,0,0,0,0,0,0,0,0,0,0,0,0,0,0,0,0,0,0,0,0,0,0,0,0,0,0,0,0,0,0,0,0,0,0,0,0,0,0,0,0,0,0,0,0,0,0,0,0,0,0,0,0,0,0,0,0,0,0,0,0,0,0,0],"sum_hessian":[6.57E2,5.89E2,6.8E1,1.69E2,4.2E2,4.3E1,2.5E1,1.17E2,5.2E1,2.12E2,2.08E2,2.4E1,1.9E1,1.7E1,8E0,1.07E2,1E1,2.3E1,2.9E1,2E0,2.1E2,2.04E2,4E0,8E0,1.6E1,4E0,1.5E1,9E0,8E0,3E0,5E0,2.5E1,8.2E1,5E0,5E0,2.1E1,2E0,1.5E1,1.4E1,1E2,1.1E2,1.35E2,6.9E1,1E0,3E0,5E0,3E0,1E1,6E0,5E0,1E1,5E0,4E0,4E0,4E0,1E0,2E0,3E0,2E0,1.3E1,1.2E1,6.3E1,1.9E1,3E0,2E0,1.6E1,5E0,9E0,6E0,1E1,4E0,6.6E1,3.4E1,6.2E1,4.8E1,1.19E2,1.6E1,8E0,6.1E1,2E0,3E0,5E0,5E0,3E0,3E0,3E0,2E0,4E0,6E0,2E0,2E0,1E0,3E0],"tree_param":{"num_deleted":"0","num_feature":"60","num_nodes":"93","size_leaf_vector":"0"}},{"base_weights":[-8.2979976E-5,1.1407089E-3,-3.1712055E-3,3.560613E-3,-2.1396622E-3,-5.112374E-2,-2.6385374E-3,1.8159036E-3,1.8117458E-2,-5.886407E-3,6.977697E-3,2.5830995E-3,-6.5179057E-3,2.5532737E-2,9.0375356E-4,5.212016E-2,1.0592218E-2,-7.513633E-4,-1.5134891E-2,1.4793503E-2,-5.0367503E-3,7.2370805E-3,-7.3612095E-3,1.1373095E-3,-1.1105158E-2,5.194155E-3,4.9657427E-2,-7.393776E-3,4.0341937E-3,1.6471602E-2,1.2598E-4,-1.8245995E-2,5.2575297E-3,-2.5285149E-2,-4.4025215E-3,-3.0544668E-3,2.7687505E-2,-1.3091051E-2,9.841646E-3,1.1356917E-3,1.7857727E-2,-1.7540348E-3,-2.2330107E-2,-1.8090108E-2,4.3102875E-3,-6.556507E-3,-2.409787E-2,9.26888E-3,-7.589735E-3,-1.2131457E-2,4.714898E-3,8.000148E-3,-5.80274E-3,3.6843952E-3,2.3775488E-2,1.2160551E-2,-6.768915E-3,-3.8138315E-2,-5.916191E-3,-1.4319312E-2,9.97364E-3,-3.3168964E-2,-1.151913E-2,-1.29077295E-2,3.8096374E-3,-1.226787E-2,7.6924204E-3,4.0084004E-2,6.7050573E-3,-2.6847152E-2,-4.397628E-3,2.2310317E-3,1.5483931E-2,-3.6115975E-3,9.812557E-3,2.4817476E-2,1.3871214E-3,-7.4131065E-3,5.9862873E-3,-1.984153E-3,-3.7093535E-2,-5.686924E-3,-2.8597653E-2,9.4239535E-3,-5.4618875E-3,-1.0340262E-2,1.2249934E-2,-4.2671386E-2,-6.8292674E-3],"categories":[],"categories_nodes":[],"categories_segments":[],"categories_sizes":[],"default_left":[1,1,1,1,1,0,1,1,1,1,1,1,1,1,1,0,1,1,1,1,1,1,1,1,1,1,0,1,1,1,1,1,1,1,1,1,1,1,1,1,1,1,1,1,1,1,1,0,0,0,0,0,0,0,0,0,0,0,0,0,0,0,0,0,0,0,0,0,0,0,0,0,0,0,0,0,0,0,0,0,0,0,0,0,0,0,0,0,0],"id":41,"left_children":[1,3,5,7,9,-1,11,13,15,17,19,21,23,25,27,-1,29,31,33,35,37,39,41,43,45,47,-1,49,51,53,55,57,59,61,63,65,67,69,71,73,75,77,79,81,83,85,87,-1,-1,-1,-1,-1,-1,-1,-1,-1,-1,-1,-1,-1,-1,-1,-1,-1,-1,-1,-1,-1,-1,-1,-1,-1,-1,-1,-1,-1,-1,-1,-1,-1,-1,-1,-1,-1,-1,-1,-1,-1,-1],"loss_changes":[2.4902173E-3,3.754441E-3,4.6416093E-3,6.8752095E-3,6.907318E-3,0E0,3.784574E-3,5.255452E-3,6.868408E-3,6.7798947E-3,5.614764E-3,3.7557236E-3,3.770085E-3,4.1580284E-3,6.1599086E-3,0E0,1.5363011E-3,9.872401E-3,5.4444335E-3,8.369313E-3,3.0048792E-3,3.5437567E-3,2.1430962E-3,2.5793088E-3,3.801656E-3,3.8289334E-4,0E0,3.786056E-3,6.7566307E-3,1.4067423E-3,9.1208465E-4,5.6608077E-3,6.605673E-3,2.4396703E-3,1.8651729E-3,1.6786162E-3,5.193522E-3,1.7953378E-3,3.5192614E-4,1.5183362E-3,2.2582007E-3,9.204377E-4,2.029033E-3,6.193295E-4,1.8504516E-3,3.7557743E-3,5.161143E-3,0E0,0E0,0E0,0E0,0E0,0E0,0E0,0E0,0E0,0E0,0E0,0E0,0E0,0E0,0E0,0E0,0E0,0E0,0E0,0E0,0E0,0E0,0E0,0E0,0E0,0E0,0E0,0E0,0E0,0E0,0E0,0E0,0E0,0E0,0E0,0E0,0E0,0E0,0E0,0E0,0E0,0E0],"parents":[2147483647,0,0,1,1,2,2,3,3,4,4,6,6,7,7,8,8,9,9,10,10,11,11,12,12,13,13,14,14,16,16,17,17,18,18,19,19,20,20,21,21,22,22,23,23,24,24,25,25,27,27,28,28,29,29,30,30,31,31,32,32,33,33,34,34,35,35,36,36,37,37,38,38,39,39,40,40,41,41,42,42,43,43,44,44,45,45,46,46],"right_children":[2,4,6,8,10,-1,12,14,16,18,20,22,24,26,28,-1,30,32,34,36,38,40,42,44,46,48,-1,50,52,54,56,58,60,62,64,66,68,70,72,74,76,78,80,82,84,86,88,-1,-1,-1,-1,-1,-1,-1,-1,-1,-1,-1,-1,-1,-1,-1,-1,-1,-1,-1,-1,-1,-1,-1,-1,-1,-1,-1,-1,-1,-1,-1,-1,-1,-1,-1,-1,-1,-1,-1,-1,-1,-1],"split_conditions":[3.2548648E-1,8.330588E-2,3.3001375E-1,-2.2761615E-2,2.7822563E-1,-1.5337122E-2,-1.512818E-1,-1.7409776E0,-4.182688E-1,8.5515045E-2,3.4785E-1,1.8072054E-1,-2.5794256E-1,-4.3216422E-2,-4.07891E-1,1.563605E-2,1.4865863E-1,-3.3355975E-1,3.4502515E-1,-4.926054E-2,6.1916316E-1,-2.525725E-1,7.3885694E-2,3.833775E-1,2.5041735E-1,2.0334324E-1,1.4897228E-2,2.3740907E-1,3.792464E-1,1.8188538E-1,-1.8701017E-1,-1.5502736E-1,-6.77705E-1,4.5729734E-2,8.214939E-2,-1.0486307E-1,7.147093E-1,2.7720398E-1,3.1259945E-1,-5.2236512E-2,1.834819E-1,-2.7553953E-2,-2.1133944E-1,2.9829317E-1,3.487103E-1,-5.6467704E-2,2.834168E-1,2.780664E-3,-2.2769207E-3,-3.6394373E-3,1.4144694E-3,2.4000446E-3,-1.740822E-3,1.1053187E-3,7.1326466E-3,3.6481654E-3,-2.0306746E-3,-1.1441495E-2,-1.7748573E-3,-4.295794E-3,2.992092E-3,-9.95069E-3,-3.4557392E-3,-3.872319E-3,1.1428912E-3,-3.6803612E-3,2.3077263E-3,1.2025202E-2,2.0115173E-3,-8.054146E-3,-1.3192884E-3,6.693095E-4,4.6451795E-3,-1.0834793E-3,2.9437672E-3,7.445243E-3,4.1613643E-4,-2.223932E-3,1.7958862E-3,-5.952459E-4,-1.11280605E-2,-1.7060773E-3,-8.579296E-3,2.8271861E-3,-1.6385663E-3,-3.1020788E-3,3.6749803E-3,-1.2801416E-2,-2.0487802E-3],"split_indices":[56,55,56,55,23,0,11,50,15,40,41,2,5,17,21,0,23,35,40,5,53,2,19,56,4,1,0,27,51,36,43,41,6,0,20,58,23,0,18,31,18,20,0,1,51,4,38,0,0,0,0,0,0,0,0,0,0,0,0,0,0,0,0,0,0,0,0,0,0,0,0,0,0,0,0,0,0,0,0,0,0,0,0,0,0,0,0,0,0],"split_type":[0,0,0,0,0,0,0,0,0,0,0,0,0,0,0,0,0,0,0,0,0,0,0,0,0,0,0,0,0,0,0,0,0,0,0,0,0,0,0,0,0,0,0,0,0,0,0,0,0,0,0,0,0,0,0,0,0,0,0,0,0,0,0,0,0,0,0,0,0,0,0,0,0,0,0,0,0,0,0,0,0,0,0,0,0,0,0,0,0],"sum_hessian":[6.57E2,4.71E2,1.86E2,2.71E2,2E2,1E0,1.85E2,2.43E2,2.8E1,1.42E2,5.8E1,7.9E1,1.06E2,8E0,2.35E2,4E0,2.4E1,9.2E1,5E1,3.5E1,2.3E1,5.4E1,2.5E1,4E1,6.6E1,5E0,3E0,6.4E1,1.71E2,1.5E1,9E0,2.3E1,6.9E1,2.5E1,2.5E1,1.5E1,2E1,1.5E1,8E0,3.5E1,1.9E1,1.9E1,6E0,5E0,3.5E1,5E1,1.6E1,4E0,1E0,4.6E1,1.8E1,1.22E2,4.9E1,6E0,9E0,3E0,6E0,8E0,1.5E1,1.3E1,5.6E1,1.5E1,1E1,1.2E1,1.3E1,8E0,7E0,1.2E1,8E0,5E0,1E1,4E0,4E0,2.3E1,1.2E1,1.3E1,6E0,1.1E1,8E0,3E0,3E0,3E0,2E0,2.3E1,1.2E1,4.2E1,8E0,7E0,9E0],"tree_param":{"num_deleted":"0","num_feature":"60","num_nodes":"89","size_leaf_vector":"0"}},{"base_weights":[-9.4355004E-5,-2.9064924E-3,7.853261E-4,8.9724234E-4,-7.5264703E-3,8.120412E-3,-8.804015E-4,-1.2233841E-2,2.5692114E-3,4.304234E-3,-1.2250358E-2,1.518398E-2,-1.2085999E-3,2.4320618E-3,-5.571127E-3,5.870206E-5,-3.0687332E-2,5.2309576E-3,-5.971524E-3,1.0028897E-3,2.3778E-2,-1.5329444E-2,6.2159067E-3,-1.9185498E-3,2.0236392E-2,1.8994306E-3,-3.043274E-2,-4.630365E-4,8.604259E-3,5.572007E-3,-8.712991E-3,-4.357183E-3,7.398943E-3,9.194291E-3,-1.0971379E-3,8.450327E-4,-1.5449919E-2,-3.8630837E-3,9.896427E-3,-3.9296425E-3,-2.0518364E-2,1.0727529E-2,-9.775981E-4,-1.1936662E-2,5.8348533E-3,1.2300057E-2,3.4663606E-2,-9.282543E-3,1.0453709E-2,-4.983805E-3,-3.725445E-2,-2.986456E-3,6.544241E-3,3.8806228E-3,3.3867236E-2,-4.341636E-3,1.4711367E-2,-1.5144858E-2,-2.342165E-3,-1.541833E-3,-5.7201385E-3,1.2891485E-2,-2.0772822E-3,4.958586E-3,-7.566077E-3,-7.1968026E-3,4.3252893E-3,-4.165478E-3,-2.1387488E-2,9.954721E-5,-6.3521713E-3,1.25072645E-2,-2.8842986E-3,1.5052423E-2,-6.3606775E-3,-1.4180542E-2,-3.177595E-2,-4.1399896E-3,1.4565289E-3,-3.5013456E-3,-1.5278984E-2,9.349743E-3,-1.7471611E-5,2.7418654E-2,5.9548747E-3,5.2142285E-2,1.5036808E-2,-1.9269582E-3,-2.2446623E-2,3.6273142E-3,1.8282652E-2,-1.4319088E-3,-3.2802384E-2,-1.0296806E-3,1.1827329E-2,1.1435114E-2,-9.816199E-3,5.8334395E-2,1.9229917E-2,1.4590238E-3,-1.0948927E-2,2.5762327E-2,-1.6578421E-3,-2.342791E-2,-8.425032E-3,5.7979757E-3,-8.1852125E-3],"categories":[],"categories_nodes":[],"categories_segments":[],"categories_sizes":[],"default_left":[1,1,1,1,1,1,1,1,1,1,1,1,1,1,1,1,0,1,1,1,0,1,1,1,1,1,1,1,1,1,1,1,0,1,1,1,1,1,1,1,1,0,1,1,1,1,1,1,1,0,0,1,1,1,1,1,1,1,1,0,0,0,0,0,0,0,0,0,0,0,0,0,0,0,0,0,0,0,0,0,0,0,0,0,0,0,0,0,0,0,0,0,0,0,0,0,0,0,0,0,0,0,0,0,0,0,0],"id":42,"left_children":[1,3,5,7,9,11,13,15,17,19,21,23,25,27,29,31,-1,33,35,37,-1,39,41,43,45,47,49,51,53,55,57,59,-1,61,63,65,67,69,71,73,75,-1,77,79,81,83,85,87,89,-1,-1,91,93,95,97,99,101,103,105,-1,-1,-1,-1,-1,-1,-1,-1,-1,-1,-1,-1,-1,-1,-1,-1,-1,-1,-1,-1,-1,-1,-1,-1,-1,-1,-1,-1,-1,-1,-1,-1,-1,-1,-1,-1,-1,-1,-1,-1,-1,-1,-1,-1,-1,-1,-1,-1],"loss_changes":[1.6300324E-3,2.7657407E-3,6.1407136E-3,1.9414962E-3,4.0206998E-3,6.14669E-3,6.38407E-3,2.270205E-3,1.8044317E-3,1.326235E-3,2.9951069E-3,4.618504E-3,3.7818155E-3,4.3104417E-3,6.000285E-3,2.5913416E-4,0E0,1.5149086E-3,1.2406459E-3,8.6046936E-4,0E0,2.5220867E-3,2.7012225E-4,1.0794166E-3,4.2681023E-3,3.7318782E-3,5.0875195E-4,2.9371239E-3,9.057223E-3,3.5068367E-3,5.414376E-3,1.0366486E-5,0E0,1.5686874E-3,9.776957E-4,3.6698006E-4,4.4692785E-4,1.2885571E-4,2.6965345E-4,7.879345E-4,1.6898569E-3,0E0,3.6820664E-5,1.1566427E-4,1.6472556E-4,2.522773E-3,4.018653E-3,1.6028478E-3,1.109439E-3,0E0,0E0,5.6077624E-3,1.7727808E-3,6.941435E-3,3.175837E-3,7.44181E-4,3.6606193E-3,3.476224E-3,3.2817575E-3,0E0,0E0,0E0,0E0,0E0,0E0,0E0,0E0,0E0,0E0,0E0,0E0,0E0,0E0,0E0,0E0,0E0,0E0,0E0,0E0,0E0,0E0,0E0,0E0,0E0,0E0,0E0,0E0,0E0,0E0,0E0,0E0,0E0,0E0,0E0,0E0,0E0,0E0,0E0,0E0,0E0,0E0,0E0,0E0,0E0,0E0,0E0,0E0],"parents":[2147483647,0,0,1,1,2,2,3,3,4,4,5,5,6,6,7,7,8,8,9,9,10,10,11,11,12,12,13,13,14,14,15,15,17,17,18,18,19,19,21,21,22,22,23,23,24,24,25,25,26,26,27,27,28,28,29,29,30,30,31,31,33,33,34,34,35,35,36,36,37,37,38,38,39,39,40,40,42,42,43,43,44,44,45,45,46,46,47,47,48,48,51,51,52,52,53,53,54,54,55,55,56,56,57,57,58,58],"right_children":[2,4,6,8,10,12,14,16,18,20,22,24,26,28,30,32,-1,34,36,38,-1,40,42,44,46,48,50,52,54,56,58,60,-1,62,64,66,68,70,72,74,76,-1,78,80,82,84,86,88,90,-1,-1,92,94,96,98,100,102,104,106,-1,-1,-1,-1,-1,-1,-1,-1,-1,-1,-1,-1,-1,-1,-1,-1,-1,-1,-1,-1,-1,-1,-1,-1,-1,-1,-1,-1,-1,-1,-1,-1,-1,-1,-1,-1,-1,-1,-1,-1,-1,-1,-1,-1,-1,-1,-1,-1],"split_conditions":[-4.4898498E-1,2.6801927E-2,-1.8466549E-1,-1.2638692E0,-6.51577E-1,9.169266E-2,8.9642696E-2,3.5788754E-1,2.6099947E-1,5.874539E-1,6.868426E-1,-3.3246294E-1,1.1101081E0,-1.4911138E-1,-4.4183832E-1,-4.7649896E-1,-9.2062E-3,1.04347736E-1,3.0247045E-1,3.8296294E-1,7.1334005E-3,-4.447841E-1,3.605698E-1,-5.320263E-1,7.1971565E-3,-1.8570724E-1,-9.942678E-2,2.0057425E-1,4.487912E-1,-1.6348481E-1,3.504987E-1,6.87993E-2,2.219683E-3,3.651134E-1,1.2020475E-1,-9.392345E-1,-5.04334E-1,-1.1959733E-1,7.1466815E-1,-7.2982895E-1,6.555773E-2,3.218259E-3,-8.9599466E-1,-6.0369337E-1,6.2287018E-2,-4.0417242E-1,-7.248138E-2,1.877003E-1,8.2554154E-2,-1.4951417E-3,-1.1176335E-2,1.648227E-1,-2.3996179E-1,1.0195361E-1,-1.3675253E-1,-2.240056E-1,-1.2360156E-2,-3.0475955E-2,-2.0226683E-2,-4.6254994E-4,-1.7160416E-3,3.8674457E-3,-6.2318466E-4,1.4875758E-3,-2.2698233E-3,-2.159041E-3,1.2975868E-3,-1.2496435E-3,-6.4162468E-3,2.9864163E-5,-1.9056514E-3,3.7521794E-3,-8.652896E-4,4.515727E-3,-1.9082034E-3,-4.254163E-3,-9.532786E-3,-1.2419969E-3,4.3695868E-4,-1.0504037E-3,-4.5836954E-3,2.8049229E-3,-5.2414834E-6,8.2255965E-3,1.7864625E-3,1.5642686E-2,4.5110425E-3,-5.7808746E-4,-6.733987E-3,1.0881943E-3,5.4847957E-3,-4.2957265E-4,-9.840716E-3,-3.089042E-4,3.5481988E-3,3.4305344E-3,-2.9448597E-3,1.7500319E-2,5.7689752E-3,4.3770715E-4,-3.2846783E-3,7.728698E-3,-4.973526E-4,-7.028373E-3,-2.5275096E-3,1.7393928E-3,-2.4555638E-3],"split_indices":[48,2,48,57,27,1,40,1,25,25,4,0,18,40,11,1,0,36,5,50,0,37,27,1,37,55,2,8,49,22,40,7,0,11,27,2,24,45,4,9,21,0,0,0,27,5,9,42,57,0,0,8,52,38,4,37,18,46,28,0,0,0,0,0,0,0,0,0,0,0,0,0,0,0,0,0,0,0,0,0,0,0,0,0,0,0,0,0,0,0,0,0,0,0,0,0,0,0,0,0,0,0,0,0,0,0,0],"split_type":[0,0,0,0,0,0,0,0,0,0,0,0,0,0,0,0,0,0,0,0,0,0,0,0,0,0,0,0,0,0,0,0,0,0,0,0,0,0,0,0,0,0,0,0,0,0,0,0,0,0,0,0,0,0,0,0,0,0,0,0,0,0,0,0,0,0,0,0,0,0,0,0,0,0,0,0,0,0,0,0,0,0,0,0,0,0,0,0,0,0,0,0,0,0,0,0,0,0,0,0,0,0,0,0,0,0,0],"sum_hessian":[6.57E2,1.56E2,5.01E2,8.6E1,7E1,9.2E1,4.09E2,9E0,7.7E1,2E1,5E1,5.2E1,4E1,2.4E2,1.69E2,6E0,3E0,5.9E1,1.8E1,1.8E1,2E0,4.3E1,7E0,1.2E1,4E1,3.7E1,3E0,1.64E2,7.6E1,3.7E1,1.32E2,4E0,2E0,3.6E1,2.3E1,1.1E1,7E0,1.2E1,6E0,1.4E1,2.9E1,4E0,3E0,5E0,7E0,2.7E1,1.3E1,1.6E1,2.1E1,1E0,2E0,1.21E2,4.3E1,6.5E1,1.1E1,1.8E1,1.9E1,6.5E1,6.7E1,2E0,2E0,2.7E1,9E0,1.2E1,1.1E1,3E0,8E0,3E0,4E0,5E0,7E0,5E0,1E0,1E0,1.3E1,2E1,9E0,1E0,2E0,2E0,3E0,4E0,3E0,7E0,2E1,6E0,7E0,1.1E1,5E0,1.2E1,9E0,1.16E2,5E0,1.8E1,2.5E1,4.2E1,2.3E1,3E0,8E0,1E1,8E0,1.1E1,8E0,2.8E1,3.7E1,2.8E1,3.9E1],"tree_param":{"num_deleted":"0","num_feature":"60","num_nodes":"107","size_leaf_vector":"0"}},{"base_weights":[-5.251371E-5,-4.811565E-3,3.7234792E-4,-1.0074245E-2,2.1865445E-3,1.1253743E-2,-2.349291E-4,3.967154E-3,-1.5998779E-2,8.496597E-3,-3.8063158E-3,-3.7043553E-3,1.9265337E-2,2.3956219E-2,-3.6139504E-4,1.4899645E-2,-2.8467204E-3,-6.3129864E-3,-2.108259E-2,-7.916093E-4,1.5244118E-2,1.8862571E-3,-8.955129E-3,-7.6185507E-3,1.4795983E-3,3.0359711E-2,1.099536E-3,3.789234E-2,-1.9580126E-3,3.2401576E-3,-1.2453386E-3,-8.837928E-3,1.3173486E-3,-7.4362196E-3,1.3364404E-3,-1.1104477E-2,-2.5392152E-2,-5.263746E-3,2.7603954E-3,8.105547E-3,1.857166E-2,2.6597877E-3,-1.3774633E-3,-2.6881197E-4,-1.2375894E-2,-2.4642572E-3,-1.0868207E-2,-1.0251353E-3,2.988249E-3,1.1290824E-2,3.7580237E-2,7.0304507E-3,-1.3105777E-2,7.1495515E-3,-4.9831807E-3,-4.0454466E-2,-9.857912E-4,-6.832977E-4,2.8788787E-3,-8.369327E-3,-3.0912657E-3,-2.8381199E-3,-1.2190124E-2,3.7885308E-3,1.15484E-3,1.829952E-3,-2.23317E-3,-4.121065E-4,-3.0109386E-3,3.4712155E-3,7.696748E-4,6.23776E-3,4.0718324E-2,-1.8233061E-4,9.952029E-3,-8.019892E-4,1.1709657E-2,1.7981522E-2,-6.1205756E-3,7.558567E-3,-1.5385898E-3],"categories":[],"categories_nodes":[],"categories_segments":[],"categories_sizes":[],"default_left":[1,1,1,1,1,1,1,1,1,1,1,1,1,1,1,0,1,1,1,1,1,1,1,1,1,1,1,0,0,1,1,0,1,1,0,1,0,0,1,0,0,0,0,1,0,1,0,0,1,0,1,1,0,1,1,0,1,0,0,0,0,0,0,0,0,0,0,0,0,0,0,0,0,0,0,0,0,0,0,0,0],"id":43,"left_children":[1,3,5,7,9,11,13,15,17,19,21,23,25,27,29,-1,31,33,35,37,39,41,43,45,47,49,51,-1,-1,53,55,-1,57,59,-1,61,-1,-1,63,-1,-1,-1,-1,65,-1,67,-1,-1,69,-1,71,73,-1,75,77,-1,79,-1,-1,-1,-1,-1,-1,-1,-1,-1,-1,-1,-1,-1,-1,-1,-1,-1,-1,-1,-1,-1,-1,-1,-1],"loss_changes":[1.332227E-3,2.0107832E-3,4.0004966E-3,2.6423207E-3,9.399072E-4,3.9061876E-3,1.7647282E-3,7.873413E-4,9.502014E-4,7.641358E-4,3.9792169E-4,2.5476445E-4,4.1989204E-3,1.1576253E-3,1.8250368E-3,0E0,1.8627725E-4,8.7266875E-5,3.2005226E-4,1.09840315E-4,1.5743775E-5,2.1335874E-5,2.0467013E-4,9.0465735E-5,2.5735972E-5,1.3656244E-3,8.503941E-4,0E0,0E0,3.6683823E-3,4.6413695E-3,0E0,1.7587477E-5,6.562652E-6,0E0,1.924904E-5,0E0,0E0,2.2277673E-6,0E0,0E0,0E0,0E0,1.6454766E-5,0E0,3.2466633E-6,0E0,2.0838797E-9,1.6142803E-6,0E0,6.312076E-4,1.4932352E-4,0E0,2.8014001E-3,1.076495E-3,0E0,2.1749055E-3,0E0,0E0,0E0,0E0,0E0,0E0,0E0,0E0,0E0,0E0,0E0,0E0,0E0,0E0,0E0,0E0,0E0,0E0,0E0,0E0,0E0,0E0,0E0,0E0],"parents":[2147483647,0,0,1,1,2,2,3,3,4,4,5,5,6,6,7,7,8,8,9,9,10,10,11,11,12,12,13,13,14,14,16,16,17,17,18,18,19,19,20,20,21,21,22,22,23,23,24,24,25,25,26,26,29,29,30,30,32,32,33,33,35,35,38,38,43,43,45,45,48,48,50,50,51,51,53,53,54,54,56,56],"right_children":[2,4,6,8,10,12,14,16,18,20,22,24,26,28,30,-1,32,34,36,38,40,42,44,46,48,50,52,-1,-1,54,56,-1,58,60,-1,62,-1,-1,64,-1,-1,-1,-1,66,-1,68,-1,-1,70,-1,72,74,-1,76,78,-1,80,-1,-1,-1,-1,-1,-1,-1,-1,-1,-1,-1,-1,-1,-1,-1,-1,-1,-1,-1,-1,-1,-1,-1,-1],"split_conditions":[-1.1748391E0,-2.8725228E-1,-7.845713E-1,-5.4889995E-1,-1.3321099E-1,-2.6430583E-1,-3.4981008E0,-1.968798E-1,-2.2164573E-1,-5.419153E-1,-5.307634E-1,-5.822461E-2,9.95187E-2,-2.8183115E-1,-4.635396E-1,4.469894E-3,-5.7825375E-1,4.8897988E-1,-1.2102069E-1,-9.890801E-2,2.50354E-2,-4.3136066E-1,-1.2552981E0,-5.70845E-2,-5.0484663E-1,-3.9827317E-1,-2.357828E-1,1.1367703E-2,-5.874038E-4,3.9730823E-1,-4.60202E-1,-2.6513785E-3,-1.6093034E-1,4.481724E-2,4.0093216E-4,-1.6316738E0,-7.617646E-3,-1.5791238E-3,-2.1284442E0,2.4316642E-3,5.571498E-3,7.9793634E-4,-4.1323903E-4,-7.6678765E-1,-3.7127684E-3,-5.361934E-1,-3.260462E-3,-3.0754058E-4,2.2709699E0,3.3872474E-3,-5.270526E-1,-2.5763428E-1,-3.9317333E-3,-2.9183033E-1,-2.6182077E0,-1.213634E-2,-1.1869571E0,-2.0498932E-4,8.636637E-4,-2.5107982E-3,-9.2737976E-4,-8.51436E-4,-3.6570374E-3,1.1365593E-3,3.46452E-4,5.489856E-4,-6.69951E-4,-1.2363197E-4,-9.032816E-4,1.0413647E-3,2.3090244E-4,1.8713281E-3,1.2215498E-2,-5.4699183E-5,2.985609E-3,-2.4059678E-4,3.512897E-3,5.394457E-3,-1.8361728E-3,2.2675702E-3,-4.6157697E-4],"split_indices":[54,53,54,26,19,0,41,58,13,36,17,42,53,0,23,0,13,5,28,3,0,3,5,2,10,35,25,0,0,31,23,0,0,31,0,1,0,0,0,0,0,0,0,0,0,0,0,0,1,0,10,4,0,33,0,0,19,0,0,0,0,0,0,0,0,0,0,0,0,0,0,0,0,0,0,0,0,0,0,0,0],"split_type":[0,0,0,0,0,0,0,0,0,0,0,0,0,0,0,0,0,0,0,0,0,0,0,0,0,0,0,0,0,0,0,0,0,0,0,0,0,0,0,0,0,0,0,0,0,0,0,0,0,0,0,0,0,0,0,0,0,0,0,0,0,0,0,0,0,0,0,0,0,0,0,0,0,0,0,0,0,0,0,0,0],"sum_hessian":[6.57E2,5.3E1,6.04E2,3E1,2.3E1,3.1E1,5.73E2,9E0,2.1E1,1.1E1,1.2E1,1.1E1,2E1,2E0,5.71E2,3E0,6E0,8E0,1.3E1,5E0,6E0,6E0,6E0,6E0,5E0,1.2E1,8E0,1E0,1E0,1.12E2,4.59E2,2E0,4E0,7E0,1E0,5E0,8E0,2E0,3E0,3E0,3E0,5E0,1E0,2E0,4E0,3E0,3E0,2E0,3E0,4E0,8E0,6E0,2E0,7.6E1,3.6E1,2E0,4.57E2,2E0,2E0,5E0,2E0,1E0,4E0,1E0,2E0,1E0,1E0,1E0,2E0,2E0,1E0,1E0,7E0,2E0,4E0,2.8E1,4.8E1,1E0,3.5E1,2.7E1,4.3E2],"tree_param":{"num_deleted":"0","num_feature":"60","num_nodes":"81","size_leaf_vector":"0"}},{"base_weights":[-1.821359E-5,3.502958E-4,-6.3949674E-3,-8.053386E-5,1.2123439E-2,-1.1707704E-2,9.776847E-4,1.17844E-3,-2.1508615E-3,4.2963432E-4,2.3778187E-2,-5.7511353E-3,-2.279925E-2,-3.7473217E-3,5.069059E-3,-7.9007744E-4,4.271458E-3,-4.2761922E-2,-1.7835796E-3,-6.265074E-3,4.5601227E-3,4.8956624E-3,3.869768E-2,-7.2761104E-3,-2.2509873E-3,-3.2030933E-2,-7.867755E-3,1.8194442E-3,8.676216E-3,9.277902E-3,-2.0631377E-3,-8.157306E-4,9.511286E-3,-2.7701408E-3,1.1399829E-2,-1.0412037E-3,-7.3107406E-3,6.462395E-3,1.0422515E-3,8.283357E-3,1.1309758E-3,-2.7525232E-3,-8.062942E-3,-3.0465007E-3,8.6328946E-4,-8.99263E-3,-2.2465661E-3,4.9958628E-5,2.6916973E-3,2.138351E-3,2.5074597E-2,-5.485651E-3,1.1227683E-3,4.2125746E-3,-8.088569E-3,2.9291807E-2,5.8484315E-3,-5.1922956E-3,1.1331813E-3,-3.0990634E-3,2.3021085E-2,-2.0891428E-4,1.5289448E-3,2.276669E-3,-1.1530519E-3,-8.2302094E-4,-3.3966154E-3],"categories":[],"categories_nodes":[],"categories_segments":[],"categories_sizes":[],"default_left":[1,1,1,1,1,1,1,1,1,1,1,1,1,0,1,1,1,0,1,1,1,1,0,1,1,0,1,1,0,1,1,1,1,1,1,0,0,0,1,0,1,0,0,1,0,0,0,0,0,0,0,0,0,0,0,0,0,0,0,0,0,0,0,0,0,0,0],"id":44,"left_children":[1,3,5,7,9,11,13,15,17,19,21,23,25,-1,27,29,31,-1,33,35,37,39,-1,41,43,-1,45,47,-1,49,51,53,55,57,59,-1,-1,-1,61,-1,63,-1,-1,65,-1,-1,-1,-1,-1,-1,-1,-1,-1,-1,-1,-1,-1,-1,-1,-1,-1,-1,-1,-1,-1,-1,-1],"loss_changes":[1.5484701E-3,3.1609691E-3,1.421529E-3,1.5716408E-3,2.9881278E-3,1.2562973E-3,3.2830366E-4,2.286622E-3,3.3245117E-3,3.603985E-4,2.9094429E-3,6.3686166E-5,7.1288855E-4,0E0,8.971094E-5,2.967085E-3,3.8995342E-3,0E0,2.9839952E-3,1.9700165E-5,4.6800153E-5,6.715338E-5,0E0,1.3399578E-5,1.7494704E-5,0E0,5.089969E-6,9.126161E-6,0E0,2.8786957E-3,2.2414394E-3,2.7768274E-3,5.045318E-3,2.0102272E-3,2.7672693E-3,0E0,0E0,0E0,2.7551546E-6,0E0,1.3092296E-5,0E0,0E0,1.0968797E-6,0E0,0E0,0E0,2.7675107E-9,0E0,0E0,0E0,0E0,0E0,0E0,0E0,0E0,0E0,0E0,0E0,0E0,0E0,0E0,0E0,0E0,0E0,0E0,0E0],"parents":[2147483647,0,0,1,1,2,2,3,3,4,4,5,5,6,6,7,7,8,8,9,9,10,10,11,11,12,12,14,14,15,15,16,16,18,18,19,19,20,20,21,21,23,23,24,24,26,26,27,27,29,29,30,30,31,31,32,32,33,33,34,34,38,38,40,40,43,43],"right_children":[2,4,6,8,10,12,14,16,18,20,22,24,26,-1,28,30,32,-1,34,36,38,40,-1,42,44,-1,46,48,-1,50,52,54,56,58,60,-1,-1,-1,62,-1,64,-1,-1,66,-1,-1,-1,-1,-1,-1,-1,-1,-1,-1,-1,-1,-1,-1,-1,-1,-1,-1,-1,-1,-1,-1,-1],"split_conditions":[1.3489782E0,1.5093985E0,3.6363888E-1,1.5382543E-1,-3.3988172E-1,-5.061992E-2,-3.3640802E-1,-1.6283318E-1,1.5683137E-1,-5.846845E-1,-1.0350382E-1,2.193821E0,5.0678957E-2,-1.1241966E-3,-2.4155734E-1,-8.262116E-1,-7.887353E-2,-1.2828577E-2,7.6505184E-1,-1.1661781E0,3.817028E-1,7.8107494E-1,1.1609304E-2,-7.945931E-1,1.1549476E0,-9.60928E-3,1.3392094E-1,-4.060703E-1,2.602865E-3,-1.1467228E0,-9.422545E-2,5.1217712E-2,5.080422E-2,1.05780125E-1,-1.0943512E-1,-3.1236114E-4,-2.1932223E-3,1.9387186E-3,1.010192E0,2.4850073E-3,3.7557113E-1,-8.25757E-4,-2.4188827E-3,-2.5483067E0,2.5898684E-4,-2.697789E-3,-6.7396986E-4,1.4987589E-5,8.0750923E-4,6.4150535E-4,7.5223795E-3,-1.6456954E-3,3.368305E-4,1.2637724E-3,-2.4265707E-3,8.787543E-3,1.7545295E-3,-1.5576888E-3,3.399544E-4,-9.2971907E-4,6.906326E-3,-6.2674284E-5,4.5868347E-4,6.830007E-4,-3.4591556E-4,-2.469063E-4,-1.0189847E-3],"split_indices":[33,34,10,20,13,10,17,20,20,38,11,33,2,0,6,13,45,0,17,0,2,2,0,22,3,0,1,3,0,13,55,55,45,51,11,0,0,0,0,0,0,0,0,0,0,0,0,0,0,0,0,0,0,0,0,0,0,0,0,0,0,0,0,0,0,0,0],"split_type":[0,0,0,0,0,0,0,0,0,0,0,0,0,0,0,0,0,0,0,0,0,0,0,0,0,0,0,0,0,0,0,0,0,0,0,0,0,0,0,0,0,0,0,0,0,0,0,0,0,0,0,0,0,0,0,0,0,0,0,0,0,0,0,0,0,0,0],"sum_hessian":[6.57E2,6.22E2,3.5E1,6.01E2,2.1E1,2E1,1.5E1,3.74E2,2.27E2,1.1E1,1E1,1.4E1,6E0,7E0,8E0,2.29E2,1.45E2,1E0,2.26E2,4E0,7E0,5E0,5E0,9E0,5E0,3E0,3E0,5E0,3E0,2.5E1,2.04E2,7.4E1,7.1E1,2.11E2,1.5E1,1E0,3E0,4E0,3E0,2E0,3E0,2E0,7E0,4E0,1E0,2E0,1E0,2E0,3E0,1.8E1,7E0,9.8E1,1.06E2,4.4E1,3E1,1E1,6.1E1,1.3E2,8.1E1,7E0,8E0,1E0,2E0,2E0,1E0,1E0,3E0],"tree_param":{"num_deleted":"0","num_feature":"60","num_nodes":"67","size_leaf_vector":"0"}},{"base_weights":[-1.3621985E-6,-1.3675049E-3,1.27264E-3,-2.0170711E-4,-9.464757E-3,1.4091619E-2,3.8735816E-4,2.0088584E-3,-4.6444386E-3,-1.8745175E-2,2.9193747E-3,-8.101246E-4,2.906701E-2,2.8794426E-3,-2.1860413E-3,6.398497E-4,1.2247339E-2,6.8481723E-3,-7.687787E-3,-6.7645535E-3,-3.1199984E-2,-1.0224761E-2,1.0343506E-2,-6.361331E-3,8.23383E-3,3.945924E-2,1.0157973E-3,5.0979718E-3,-5.379692E-3,-3.7610137E-3,8.869318E-3,2.0400565E-3,-7.7297105E-3,1.8001458E-2,3.5422505E-3,-8.03481E-3,9.947217E-3,-1.2733653E-2,2.1174154E-3,-1.2314898E-2,4.578978E-3,-4.2610597E-3,-4.076945E-2,-2.2490355E-3,-1.5644297E-2,1.9809268E-3,2.1654932E-2,-3.0276403E-3,-8.938111E-3,4.3330666E-2,6.1796308E-3,2.2761524E-3,-1.382634E-3,-8.605064E-3,6.4482978E-3,-1.3563029E-2,4.082842E-3,1.547229E-3,-7.0503633E-3,2.85273E-2,2.1718661E-3,7.4386233E-3,-1.1265817E-3,5.060366E-3,-1.1361855E-2,2.0346342E-2,3.4030627E-3,-1.4305233E-3,7.0958533E-3,-1.0875776E-2,-3.462563E-3,4.627194E-3,1.6886221E-2,-2.5095869E-2,-5.381981E-3,-3.2558655E-3,9.740605E-3,-3.488645E-3,-1.8678172E-2,7.024914E-3,-2.6023835E-3,1.9226335E-3,-6.9631687E-3,-2.062893E-2,-4.8727974E-2,-3.1876564E-3,2.8341357E-4,-1.0234863E-3,3.988272E-3,-1.2893104E-2,3.1942911E-3,3.392047E-3,1.3047333E-2,-1.465848E-3,-2.222772E-2,1.3874507E-2,-4.158774E-3,5.3094216E-3,-8.588433E-3,-9.087627E-3,6.2700636E-3,-5.5933893E-3,4.394109E-3],"categories":[],"categories_nodes":[],"categories_segments":[],"categories_sizes":[],"default_left":[1,1,1,1,1,1,1,1,1,1,1,1,1,1,1,1,1,1,1,1,1,1,1,1,0,1,1,1,1,1,1,1,1,1,1,1,1,1,1,1,1,1,1,1,0,1,0,0,0,0,0,0,0,1,1,1,1,1,1,0,1,0,0,0,0,0,0,0,0,0,0,0,0,0,0,0,0,0,0,0,0,0,0,0,0,0,0,0,0,0,0,0,0,0,0,0,0,0,0,0,0,0,0],"id":45,"left_children":[1,3,5,7,9,11,13,15,17,19,21,23,25,27,29,31,33,35,37,39,41,43,45,47,-1,49,51,53,55,57,59,61,63,65,67,69,71,73,75,77,79,81,83,85,-1,87,-1,-1,-1,-1,-1,-1,-1,89,91,93,95,97,99,-1,101,-1,-1,-1,-1,-1,-1,-1,-1,-1,-1,-1,-1,-1,-1,-1,-1,-1,-1,-1,-1,-1,-1,-1,-1,-1,-1,-1,-1,-1,-1,-1,-1,-1,-1,-1,-1,-1,-1,-1,-1,-1,-1],"loss_changes":[1.1469689E-3,2.9999344E-3,3.8643489E-3,2.7493746E-3,4.6519204E-3,4.9330555E-3,2.0584958E-3,2.6132618E-3,3.3054168E-3,3.2209223E-3,1.8622683E-3,6.548364E-4,3.1665787E-3,3.014096E-3,2.7844354E-3,1.9611423E-3,1.0382165E-3,1.0023846E-3,3.6881682E-3,8.748763E-4,2.6619807E-3,2.6738853E-4,1.0922155E-3,4.1660125E-5,0E0,7.629497E-4,1.5238587E-5,2.442448E-3,2.7656043E-3,2.4379415E-3,2.5712103E-3,2.4530091E-3,1.1724249E-3,3.757705E-4,1.8686341E-4,1.4300342E-5,5.4943026E-4,4.318199E-3,1.096714E-3,4.4031325E-4,1.06107276E-4,8.022367E-5,2.771048E-4,1.0411464E-5,0E0,5.2329095E-5,0E0,0E0,0E0,0E0,0E0,0E0,0E0,6.4833753E-4,2.3356029E-3,1.958966E-3,1.4295864E-3,2.1047445E-3,2.390781E-3,0E0,3.0067848E-4,0E0,0E0,0E0,0E0,0E0,0E0,0E0,0E0,0E0,0E0,0E0,0E0,0E0,0E0,0E0,0E0,0E0,0E0,0E0,0E0,0E0,0E0,0E0,0E0,0E0,0E0,0E0,0E0,0E0,0E0,0E0,0E0,0E0,0E0,0E0,0E0,0E0,0E0,0E0,0E0,0E0,0E0],"parents":[2147483647,0,0,1,1,2,2,3,3,4,4,5,5,6,6,7,7,8,8,9,9,10,10,11,11,12,12,13,13,14,14,15,15,16,16,17,17,18,18,19,19,20,20,21,21,22,22,23,23,25,25,26,26,27,27,28,28,29,29,30,30,31,31,32,32,33,33,34,34,35,35,36,36,37,37,38,38,39,39,40,40,41,41,42,42,43,43,45,45,53,53,54,54,55,55,56,56,57,57,58,58,60,60],"right_children":[2,4,6,8,10,12,14,16,18,20,22,24,26,28,30,32,34,36,38,40,42,44,46,48,-1,50,52,54,56,58,60,62,64,66,68,70,72,74,76,78,80,82,84,86,-1,88,-1,-1,-1,-1,-1,-1,-1,90,92,94,96,98,100,-1,102,-1,-1,-1,-1,-1,-1,-1,-1,-1,-1,-1,-1,-1,-1,-1,-1,-1,-1,-1,-1,-1,-1,-1,-1,-1,-1,-1,-1,-1,-1,-1,-1,-1,-1,-1,-1,-1,-1,-1,-1,-1,-1],"split_conditions":[-6.868553E-2,-1.3199133E-1,-2.7228411E-2,2.2249438E-1,1.648227E-2,-1.5576994E-1,-3.9996255E-2,1.09595865E-1,-7.909873E-1,-3.385435E-2,2.7867744E-2,-1.0382587E-1,4.421885E-1,5.264628E-1,5.761228E-1,7.6505184E-1,3.449126E-1,-1.277693E0,1.8635201E-1,2.852353E-1,-2.7868325E-1,-5.2008543E-2,9.196413E-2,2.0169526E-1,2.4701492E-3,5.0475883E-1,1.2041712E0,-9.842106E-1,-1.7521046E-3,-2.4049741E-1,1.5984634E-1,-2.1290088E-1,-4.339308E-1,5.609863E-1,-1.0982065E-1,7.445106E-2,-2.049042E-1,-2.7941513E-1,3.425574E-2,1.371051E-1,2.5856823E-1,-4.9927656E-2,3.5051785E-2,7.0662653E-1,-4.6932893E-3,-3.5528016E-1,6.4964797E-3,-9.0829213E-4,-2.6814335E-3,1.29992E-2,1.8538893E-3,6.828457E-4,-4.1479024E-4,4.255004E-1,-3.0262458E-1,-4.2502046E-1,-1.2716252E-1,5.406712E-1,4.4933397E-1,8.55819E-3,1.8221164E-1,2.2315872E-3,-3.3797452E-4,1.5181098E-3,-3.4085566E-3,6.1039026E-3,1.0209188E-3,-4.2915702E-4,2.1287561E-3,-3.262733E-3,-1.0387689E-3,1.3881582E-3,5.0658667E-3,-7.528761E-3,-1.6145944E-3,-9.767597E-4,2.9221815E-3,-1.0465935E-3,-5.6034517E-3,2.1074743E-3,-7.807151E-4,5.767901E-4,-2.0889507E-3,-6.188679E-3,-1.4618393E-2,-9.56297E-4,8.5024076E-5,-3.0704588E-4,1.1964816E-3,-3.8679314E-3,9.582874E-4,1.0176142E-3,3.9142002E-3,-4.397544E-4,-6.668316E-3,4.162352E-3,-1.2476322E-3,1.5928266E-3,-2.57653E-3,-2.726288E-3,1.8810191E-3,-1.6780169E-3,1.3182327E-3],"split_indices":[15,15,15,51,56,39,39,51,25,48,6,30,13,42,41,28,21,50,42,11,47,17,40,2,0,0,0,43,45,11,15,1,26,5,19,0,44,54,29,55,1,0,20,0,0,0,0,0,0,0,0,0,0,20,39,27,23,55,47,0,15,0,0,0,0,0,0,0,0,0,0,0,0,0,0,0,0,0,0,0,0,0,0,0,0,0,0,0,0,0,0,0,0,0,0,0,0,0,0,0,0,0,0],"split_type":[0,0,0,0,0,0,0,0,0,0,0,0,0,0,0,0,0,0,0,0,0,0,0,0,0,0,0,0,0,0,0,0,0,0,0,0,0,0,0,0,0,0,0,0,0,0,0,0,0,0,0,0,0,0,0,0,0,0,0,0,0,0,0,0,0,0,0,0,0,0,0,0,0,0,0,0,0,0,0,0,0,0,0,0,0,0,0,0,0,0,0,0,0,0,0,0,0,0,0,0,0,0,0],"sum_hessian":[6.57E2,3.17E2,3.4E2,2.78E2,3.9E1,2.1E1,3.19E2,1.86E2,9.2E1,2.2E1,1.7E1,1.1E1,1E1,1.62E2,1.57E2,1.65E2,2.1E1,1.9E1,7.3E1,1.2E1,1E1,6E0,1.1E1,7E0,4E0,7E0,3E0,1.28E2,3.4E1,1.38E2,1.9E1,1.42E2,2.3E1,1.2E1,9E0,3E0,1.6E1,4.8E1,2.5E1,8E0,4E0,3E0,7E0,3E0,3E0,7E0,4E0,4E0,3E0,6E0,1E0,2E0,1E0,1.1E1,1.17E2,1.8E1,1.6E1,5.3E1,8.5E1,4E0,1.5E1,5.2E1,9E1,5E0,1.8E1,1E1,2E0,4E0,5E0,1E0,2E0,1E1,6E0,1.7E1,3.1E1,1.5E1,1E1,4E0,4E0,3E0,1E0,1E0,2E0,3E0,4E0,2E0,1E0,3E0,4E0,8E0,3E0,8.1E1,3.6E1,8E0,1E1,7E0,9E0,3.9E1,1.4E1,7.4E1,1.1E1,3E0,1.2E1],"tree_param":{"num_deleted":"0","num_feature":"60","num_nodes":"103","size_leaf_vector":"0"}},{"base_weights":[-6.785644E-6,-4.2287544E-3,3.4737092E-4,-9.13887E-4,-1.025524E-2,2.6728802E-3,-3.999669E-4,2.004743E-3,-6.431771E-3,-1.5853452E-2,-2.895534E-3,5.2893437E-3,-1.3636381E-3,3.9978535E-3,-1.4336788E-3,-4.2353016E-3,4.456247E-3,-1.744032E-5,-9.636756E-3,-3.6365464E-3,-2.056976E-2,-9.2850626E-4,-6.5200874E-3,9.078302E-3,-1.344511E-4,1.6214405E-3,-5.784438E-3,1.8175228E-2,1.7364725E-3,-5.809153E-3,-1.2667372E-4,-7.2816014E-4,-6.683618E-3,-1.7133525E-3,7.977243E-3,9.5846254E-4,-9.875298E-4,-3.3792928E-3,-1.2715375E-2,-2.2402138E-2,-4.7877505E-3,-1.544854E-3,4.0824214E-4,1.1472863E-2,-2.3655922E-3,1.6781074E-3,-1.5960725E-2,2.0099862E-5,1.1545733E-2,3.1047952E-3,-1.0423104E-2,3.9016612E-2,2.8774608E-3,-3.4079708E-3,5.277466E-3,-9.595566E-3,3.8135194E-3,1.0225351E-2,-9.7599416E-4,-1.138409E-3,2.5129318E-4,-3.1936914E-3,1.3249964E-3,9.840374E-3,-2.7123094E-4,1.8803589E-2,7.425071E-3,2.2801857E-3,-3.8120598E-3,-3.0795832E-3,3.9870315E-3,1.652956E-3,-2.2382937E-2,9.221236E-3,-9.0068375E-4,6.6161156E-6,1.4428858E-2,-2.352301E-3,6.2253936E-3,-3.5166442E-3,-1.5404057E-2,4.7323674E-2,2.894178E-3,1.2585163E-2,-2.455967E-3,2.985625E-4,-1.2913396E-2,8.685725E-3,-2.345317E-3,9.6476154E-4,-1.2695761E-2,1.6617553E-2,-2.1836646E-4,1.7096056E-2,-6.93988E-3,-5.693383E-3,9.2095864E-4],"categories":[],"categories_nodes":[],"categories_segments":[],"categories_sizes":[],"default_left":[1,1,1,1,1,1,1,1,1,1,1,1,1,1,1,1,1,1,1,0,1,1,0,1,1,1,1,1,1,1,1,1,0,1,1,0,0,0,0,0,0,0,0,1,1,1,1,1,1,1,1,1,1,1,1,1,1,1,1,0,0,0,0,0,0,0,0,0,0,0,0,0,0,0,0,0,0,0,0,0,0,0,0,0,0,0,0,0,0,0,0,0,0,0,0,0,0],"id":46,"left_children":[1,3,5,7,9,11,13,15,17,19,21,23,25,27,29,31,33,35,37,-1,39,41,-1,43,45,47,49,51,53,55,57,59,-1,61,63,-1,-1,-1,-1,-1,-1,-1,-1,65,67,69,71,73,75,77,79,81,83,85,87,89,91,93,95,-1,-1,-1,-1,-1,-1,-1,-1,-1,-1,-1,-1,-1,-1,-1,-1,-1,-1,-1,-1,-1,-1,-1,-1,-1,-1,-1,-1,-1,-1,-1,-1,-1,-1,-1,-1,-1,-1],"loss_changes":[9.853356E-4,1.009455E-3,1.0577372E-3,5.604526E-4,6.957174E-4,1.5703001E-3,2.1014744E-3,3.7071595E-4,2.4652592E-4,5.0138426E-4,5.811244E-5,1.8507689E-3,7.8796875E-4,2.7897586E-3,2.1380829E-3,5.5239405E-5,3.8296112E-4,5.680076E-6,1.1114584E-4,0E0,9.517418E-5,6.3979874E-6,0E0,1.4795042E-3,1.1168536E-3,5.7188614E-4,1.0219819E-3,3.713651E-3,1.4206514E-3,3.170039E-3,2.5509219E-3,1.8933529E-6,0E0,3.5716133E-5,1.717169E-4,0E0,0E0,0E0,0E0,0E0,0E0,0E0,1.9427074E-7,1.1660052E-3,7.5891876E-5,3.9675858E-4,4.894732E-4,2.794176E-4,1.6624818E-4,1.6790866E-4,4.962415E-4,1.3633939E-3,4.451114E-4,1.131285E-3,1.2154701E-3,2.0420714E-3,1.2942387E-3,2.7132635E-3,2.4034851E-3,0E0,0E0,0E0,0E0,0E0,0E0,0E0,0E0,0E0,0E0,0E0,0E0,0E0,0E0,0E0,0E0,0E0,0E0,0E0,0E0,0E0,0E0,0E0,0E0,0E0,0E0,0E0,0E0,0E0,0E0,0E0,0E0,0E0,0E0,0E0,0E0,0E0,0E0],"parents":[2147483647,0,0,1,1,2,2,3,3,4,4,5,5,6,6,7,7,8,8,9,9,10,10,11,11,12,12,13,13,14,14,15,15,16,16,17,17,18,18,20,20,21,21,23,23,24,24,25,25,26,26,27,27,28,28,29,29,30,30,31,31,33,33,34,34,43,43,44,44,45,45,46,46,47,47,48,48,49,49,50,50,51,51,52,52,53,53,54,54,55,55,56,56,57,57,58,58],"right_children":[2,4,6,8,10,12,14,16,18,20,22,24,26,28,30,32,34,36,38,-1,40,42,-1,44,46,48,50,52,54,56,58,60,-1,62,64,-1,-1,-1,-1,-1,-1,-1,-1,66,68,70,72,74,76,78,80,82,84,86,88,90,92,94,96,-1,-1,-1,-1,-1,-1,-1,-1,-1,-1,-1,-1,-1,-1,-1,-1,-1,-1,-1,-1,-1,-1,-1,-1,-1,-1,-1,-1,-1,-1,-1,-1,-1,-1,-1,-1,-1,-1],"split_conditions":[-1.2042743E0,5.9775714E-2,-4.0089053E-1,3.7636194E-1,2.2120816E-1,8.938884E-2,-4.6546197E-1,-6.454407E-1,-9.0508425E-1,-3.066257E-1,1.2650796E0,1.4675435E-1,1.8776709E-1,-1.9882017E-1,-1.6868852E-1,2.9736437E-2,-5.988045E-1,-3.2805964E-1,-4.4628687E-2,-1.090964E-3,-2.7849076E-2,1.491057E-1,-1.9560263E-3,8.2723975E-1,5.8175755E-1,8.884058E-2,-3.0483127E-1,3.0148512E-1,-6.0005546E-2,3.3884862E-1,-1.2372635E-1,1.622324E0,-2.0050853E-3,-5.194694E-1,4.8646784E-1,2.8753877E-4,-2.9625895E-4,-1.0137879E-3,-3.8146127E-3,-6.7206416E-3,-1.4363253E-3,-4.6345624E-4,1.2247264E-4,-1.6734767E-1,-7.509782E-1,-5.703644E-1,-7.44143E-2,-1.5330687E0,-7.7886455E-2,-1.7718464E-1,-3.019772E-1,3.8056517E-1,-6.9248986E-1,-1.6701882E-1,2.2699521E-1,-1.774179E-1,-4.8262176E-1,1.5826887E-1,-3.3019572E-1,-3.415227E-4,7.538796E-5,-9.5810747E-4,3.9749892E-4,2.9521124E-3,-8.136928E-5,5.6410767E-3,2.2275215E-3,6.8405573E-4,-1.143618E-3,-9.2387496E-4,1.1961095E-3,4.9588684E-4,-6.7148814E-3,2.766371E-3,-2.7020514E-4,1.9848349E-6,4.3286574E-3,-7.0569036E-4,1.8676182E-3,-1.0549934E-3,-4.621217E-3,1.4197103E-2,8.6825347E-4,3.7755491E-3,-7.367901E-4,8.956875E-5,-3.8740188E-3,2.6057176E-3,-7.035951E-4,2.8942848E-4,-3.8087287E-3,4.9852664E-3,-6.550994E-5,5.1288167E-3,-2.0819642E-3,-1.708015E-3,2.762876E-4],"split_indices":[48,2,41,22,32,53,23,52,39,15,25,6,17,41,23,7,17,0,10,0,3,1,0,47,19,17,47,57,12,38,23,0,0,2,46,0,0,0,0,0,0,0,0,2,28,49,1,7,0,0,12,1,29,12,57,48,57,42,35,0,0,0,0,0,0,0,0,0,0,0,0,0,0,0,0,0,0,0,0,0,0,0,0,0,0,0,0,0,0,0,0,0,0,0,0,0,0],"split_type":[0,0,0,0,0,0,0,0,0,0,0,0,0,0,0,0,0,0,0,0,0,0,0,0,0,0,0,0,0,0,0,0,0,0,0,0,0,0,0,0,0,0,0,0,0,0,0,0,0,0,0,0,0,0,0,0,0,0,0,0,0,0,0,0,0,0,0,0,0,0,0,0,0,0,0,0,0,0,0,0,0,0,0,0,0,0,0,0,0,0,0,0,0,0,0,0,0],"sum_hessian":[6.57E2,5E1,6.07E2,3.3E1,1.7E1,1.47E2,4.6E2,2.2E1,1.1E1,9E0,8E0,8.9E1,5.8E1,8.7E1,3.73E2,6E0,1.6E1,4E0,7E0,3E0,6E0,6E0,2E0,5.2E1,3.7E1,3.5E1,2.3E1,1.1E1,7.6E1,8.5E1,2.88E2,3E0,3E0,6E0,1E1,2E0,2E0,3E0,4E0,5E0,1E0,4E0,2E0,4.3E1,9E0,3.4E1,3E0,3.1E1,4E0,8E0,1.5E1,4E0,7E0,3.1E1,4.5E1,6.1E1,2.4E1,2.1E1,2.67E2,2E0,1E0,4E0,2E0,8E0,2E0,1.4E1,2.9E1,2E0,7E0,1.1E1,2.3E1,1E0,2E0,2E0,2.9E1,1E0,3E0,3E0,5E0,7E0,8E0,3E0,1E0,2E0,5E0,2.3E1,8E0,3.1E1,1.4E1,1.4E1,4.7E1,5E0,1.9E1,1.5E1,6E0,7.6E1,1.91E2],"tree_param":{"num_deleted":"0","num_feature":"60","num_nodes":"97","size_leaf_vector":"0"}},{"base_weights":[5.386056E-6,2.571455E-4,-5.0949464E-3,-1.4859725E-4,3.963581E-3,-1.0724228E-4,-1.1992749E-2,-8.223942E-4,2.5960458E-3,6.4183595E-3,-2.3935656E-3,-3.7723954E-3,6.714791E-3,-3.5511684E-3,-2.4789045E-2,-5.752744E-4,-1.9260501E-2,-3.5739005E-2,3.2633797E-3,9.496936E-3,-3.719218E-4,1.7670497E-3,-1.1009305E-2,-8.095643E-3,-5.841069E-5,9.781472E-3,1.969412E-3,-4.7427244E-3,4.1285157E-4,-3.0878857E-3,-2.9442362E-2,-1.7160036E-3,1.7483244E-3,-2.608896E-2,-3.7357237E-3,-3.04808E-3,6.2100794E-3,3.0634957E-3,1.709015E-2,-6.3149435E-3,4.291753E-3,4.904866E-3,-8.0719404E-4,-8.832455E-3,-2.205791E-3,-4.848182E-3,1.3184398E-3,1.4050007E-3,-7.857233E-4,-2.532422E-4,-8.163304E-3,-3.1273502E-3,6.3480115E-3,-9.087343E-3,3.5019088E-4,1.661033E-3,1.2413111E-2,3.9889538E-4,7.19374E-3,8.415376E-3,2.725395E-2,-1.6547733E-3,-1.1976913E-2,-3.982745E-4,6.703146E-3,1.5411427E-3,6.2014423E-3,1.2145241E-3,-1.6835207E-3],"categories":[],"categories_nodes":[],"categories_segments":[],"categories_sizes":[],"default_left":[1,1,1,1,1,1,1,1,1,1,1,1,1,1,1,1,1,0,1,1,1,1,0,1,1,0,0,0,1,0,0,1,1,0,0,1,1,1,1,1,1,1,1,0,0,0,0,0,0,0,0,0,0,0,0,0,0,0,0,0,0,0,0,0,0,0,0,0,0],"id":47,"left_children":[1,3,5,7,9,11,13,15,17,19,21,23,25,27,29,31,33,-1,35,37,39,41,-1,43,45,-1,-1,-1,47,-1,-1,49,51,-1,-1,53,55,57,59,61,63,65,67,-1,-1,-1,-1,-1,-1,-1,-1,-1,-1,-1,-1,-1,-1,-1,-1,-1,-1,-1,-1,-1,-1,-1,-1,-1,-1],"loss_changes":[8.4621954E-4,9.450125E-4,1.065244E-3,1.0507064E-3,9.82897E-4,5.00403E-4,1.3162424E-3,2.0666483E-3,2.9818448E-3,9.4423024E-4,6.646959E-4,2.082613E-4,8.260421E-5,4.44682E-5,4.1399733E-4,1.1984194E-3,5.3860084E-4,0E0,2.083304E-3,1.4620095E-3,4.4284694E-4,1.0896674E-4,0E0,6.555725E-6,5.915043E-5,0E0,0E0,0E0,4.6714367E-6,0E0,0E0,2.855484E-3,3.3614126E-3,0E0,0E0,7.420121E-4,2.12394E-3,1.9522857E-4,1.0050088E-3,1.6488112E-4,1.04455175E-4,1.6610618E-5,1.6218162E-5,0E0,0E0,0E0,9.156747E-7,0E0,0E0,0E0,0E0,0E0,0E0,0E0,0E0,0E0,0E0,0E0,0E0,0E0,0E0,0E0,0E0,0E0,0E0,0E0,0E0,0E0,0E0],"parents":[2147483647,0,0,1,1,2,2,3,3,4,4,5,5,6,6,7,7,8,8,9,9,10,10,11,11,12,12,13,13,14,14,15,15,16,16,18,18,19,19,20,20,21,21,23,23,24,24,28,28,31,31,32,32,35,35,36,36,37,37,38,38,39,39,40,40,41,41,42,42],"right_children":[2,4,6,8,10,12,14,16,18,20,22,24,26,28,30,32,34,-1,36,38,40,42,-1,44,46,-1,-1,-1,48,-1,-1,50,52,-1,-1,54,56,58,60,62,64,66,68,-1,-1,-1,-1,-1,-1,-1,-1,-1,-1,-1,-1,-1,-1,-1,-1,-1,-1,-1,-1,-1,-1,-1,-1,-1,-1],"split_conditions":[1.3998885E0,7.254938E-1,7.395815E-2,4.636045E-1,5.62786E-1,-1.6939497E-1,-3.1523353E-1,4.5346022E-1,-1.9759235E0,2.1297476E-1,-5.2210532E-2,6.80988E-2,1.5268835E-1,3.8234273E-1,-6.022153E-1,1.9512376E-1,2.0032701E-1,-1.0721702E-2,-2.8653085E-1,4.553648E-2,-6.9003984E-2,4.419642E-1,-3.3027916E-3,-2.3710585E-1,-1.3317766E0,2.934442E-3,5.908236E-4,-1.4228174E-3,-3.3434844E-1,-9.263657E-4,-8.832709E-3,3.219375E-2,-9.137649E-2,-7.826689E-3,-1.1207171E-3,-3.0807418E-1,1.1480546E-1,2.776077E-1,9.49751E-3,-1.3687901E-1,-1.5229042E-1,2.1803787E-1,-1.961831E0,-2.6497366E-3,-6.617373E-4,-1.4544547E-3,3.9553197E-4,4.215002E-4,-2.35717E-4,-7.597267E-5,-2.4489914E-3,-9.382051E-4,1.9044036E-3,-2.7262028E-3,1.0505727E-4,4.983099E-4,3.7239334E-3,1.1966862E-4,2.1581221E-3,2.524613E-3,8.176185E-3,-4.96432E-4,-3.593074E-3,-1.19482356E-4,2.0109438E-3,4.6234284E-4,1.8604328E-3,3.6435726E-4,-5.0505623E-4],"split_indices":[25,29,21,9,7,6,16,9,35,54,10,36,13,6,0,49,6,0,14,43,30,17,0,6,14,0,0,0,0,0,0,49,53,0,0,33,42,3,36,7,16,4,21,0,0,0,0,0,0,0,0,0,0,0,0,0,0,0,0,0,0,0,0,0,0,0,0,0,0],"split_type":[0,0,0,0,0,0,0,0,0,0,0,0,0,0,0,0,0,0,0,0,0,0,0,0,0,0,0,0,0,0,0,0,0,0,0,0,0,0,0,0,0,0,0,0,0,0,0,0,0,0,0,0,0,0,0,0,0,0,0,0,0,0,0,0,0,0,0,0,0],"sum_hessian":[6.57E2,6.27E2,3E1,5.66E2,6.1E1,1.8E1,1.2E1,4.55E2,1.11E2,4.4E1,1.7E1,1.2E1,6E0,8E0,4E0,4.5E2,5E0,1E0,1.1E2,3E1,1.4E1,1.2E1,5E0,5E0,7E0,3E0,3E0,6E0,2E0,1E0,3E0,3.02E2,1.48E2,3E0,2E0,3.5E1,7.5E1,1.7E1,1.3E1,6E0,8E0,5E0,7E0,4E0,1E0,1E0,6E0,1E0,1E0,2.47E2,5.5E1,7.2E1,7.6E1,1.2E1,2.3E1,4.4E1,3.1E1,1.1E1,6E0,8E0,5E0,4E0,2E0,3E0,5E0,2E0,3E0,2E0,5E0],"tree_param":{"num_deleted":"0","num_feature":"60","num_nodes":"69","size_leaf_vector":"0"}},{"base_weights":[-2.9373825E-5,-1.842712E-3,5.56925E-4,-1.1727247E-4,-5.075817E-3,2.4317065E-3,-5.399534E-4,5.1747556E-3,-1.4855942E-3,-9.9022295E-3,-8.641225E-4,-2.37539E-3,4.4467724E-3,1.8231891E-3,-2.2103952E-3,-3.6963157E-4,8.36938E-3,-3.4386073E-3,3.9285547E-3,-1.7916866E-2,-5.093721E-4,2.2487582E-3,-4.3344456E-3,1.0860533E-3,-8.991075E-3,7.101053E-3,-2.1662496E-3,-1.4374589E-3,8.086594E-3,1.8038882E-4,-6.423722E-3,-1.4731049E-3,8.077681E-4,1.9558519E-4,1.1619339E-2,-5.096134E-3,4.030557E-3,-4.4696938E-4,9.661433E-3,-5.849652E-3,-2.623607E-2,2.4110824E-3,-4.318416E-3,4.4593606E-3,-3.9485595E-3,-3.5087267E-4,-6.291145E-3,-2.943043E-3,1.2258918E-2,-3.1554357E-3,-1.6620649E-2,9.992305E-3,-4.685526E-3,-4.5839865E-3,2.7568677E-2,1.9865509E-3,-6.833314E-3,2.0654526E-2,4.3708733E-3,-4.4370137E-4,1.8233906E-2,-1.05003575E-2,4.641298E-6,2.3115475E-3,-1.9855723E-3,1.2541973E-2,1.6578138E-3,-1.1448648E-3,-8.442047E-3,-1.8369427E-3,1.0204214E-2,-3.1285977E-3,7.039251E-3,1.1997629E-2,3.157732E-3,-6.6707493E-3,-2.5312728E-3,-1.142101E-2,-3.2840904E-2,-2.090931E-4,3.319323E-3,-1.9448757E-3,-8.093059E-3,7.292065E-3,2.3901511E-3,-5.9097647E-3,-6.7116815E-4,-1.7649233E-3,7.973835E-4,-1.03354454E-4,-7.825173E-3,8.402125E-4,-1.1023273E-2,-1.5549213E-3,1.5906744E-2,2.0706228E-5,-6.335029E-3,-2.1603301E-2,-1.115126E-3,1.2932149E-2,-2.6292126E-3,-1.4604049E-2,5.7015503E-3,-1.6657094E-2,-2.0993855E-3,2.3025513E-2,1.1551457E-3,-2.3344494E-3,-1.7397145E-2,4.127735E-2,5.9194085E-3,7.7259983E-3,-2.1594237E-3,-1.9922534E-2,7.2791634E-5,-1.4750132E-2,9.991071E-4,-4.7071893E-3,5.441012E-3],"categories":[],"categories_nodes":[],"categories_segments":[],"categories_sizes":[],"default_left":[1,1,1,1,1,1,1,1,1,1,1,1,1,1,1,1,1,1,1,1,1,1,1,1,1,1,1,1,1,1,1,0,0,1,1,1,1,1,1,1,1,1,1,1,1,1,1,1,1,1,1,1,1,1,0,1,1,1,1,1,0,1,1,0,0,0,0,0,0,0,0,0,0,0,0,0,0,0,0,0,0,0,0,0,0,0,0,0,0,0,0,0,0,0,0,0,0,0,0,0,0,0,0,0,0,0,0,0,0,0,0,0,0,0,0,0,0,0,0],"id":48,"left_children":[1,3,5,7,9,11,13,15,17,19,21,23,25,27,29,31,33,35,37,39,41,43,45,47,49,51,53,55,57,59,61,-1,-1,63,65,67,69,71,73,75,77,79,81,83,85,87,89,91,93,95,97,99,101,103,-1,105,107,109,111,113,-1,115,117,-1,-1,-1,-1,-1,-1,-1,-1,-1,-1,-1,-1,-1,-1,-1,-1,-1,-1,-1,-1,-1,-1,-1,-1,-1,-1,-1,-1,-1,-1,-1,-1,-1,-1,-1,-1,-1,-1,-1,-1,-1,-1,-1,-1,-1,-1,-1,-1,-1,-1,-1,-1,-1,-1,-1,-1],"loss_changes":[7.0058426E-4,8.975477E-4,1.0254038E-3,7.7525445E-4,1.1297762E-3,1.7929003E-3,1.2474898E-3,3.927627E-4,9.122906E-4,1.9481622E-3,3.4463088E-4,1.2692547E-3,2.297249E-3,2.6870053E-3,1.8646922E-3,1.288299E-5,3.696304E-4,8.005014E-4,5.812583E-4,1.251983E-3,1.5502587E-4,2.505047E-4,1.1471243E-4,1.7016908E-3,7.934999E-4,3.2160706E-3,2.8582416E-3,1.6209399E-3,2.011173E-3,1.3488661E-3,1.7558571E-3,8.741008E-7,6.6102984E-7,2.766598E-5,7.111614E-5,6.7780644E-4,4.5343165E-4,3.0307664E-4,1.14053895E-4,2.187502E-6,4.0773163E-4,1.973204E-5,3.8015598E-5,5.876983E-5,2.8171737E-5,1.11494755E-5,9.4113726E-5,8.6521E-4,5.2863837E-4,1.21317236E-4,5.939787E-4,2.8168983E-3,2.0407303E-3,1.0449172E-3,0E0,9.1796485E-4,1.5752454E-3,2.7944595E-3,8.054424E-4,1.1684891E-3,0E0,2.018412E-3,7.1722374E-4,0E0,0E0,0E0,0E0,0E0,0E0,0E0,0E0,0E0,0E0,0E0,0E0,0E0,0E0,0E0,0E0,0E0,0E0,0E0,0E0,0E0,0E0,0E0,0E0,0E0,0E0,0E0,0E0,0E0,0E0,0E0,0E0,0E0,0E0,0E0,0E0,0E0,0E0,0E0,0E0,0E0,0E0,0E0,0E0,0E0,0E0,0E0,0E0,0E0,0E0,0E0,0E0,0E0,0E0,0E0,0E0],"parents":[2147483647,0,0,1,1,2,2,3,3,4,4,5,5,6,6,7,7,8,8,9,9,10,10,11,11,12,12,13,13,14,14,15,15,16,16,17,17,18,18,19,19,20,20,21,21,22,22,23,23,24,24,25,25,26,26,27,27,28,28,29,29,30,30,33,33,34,34,35,35,36,36,37,37,38,38,39,39,40,40,41,41,42,42,43,43,44,44,45,45,46,46,47,47,48,48,49,49,50,50,51,51,52,52,53,53,55,55,56,56,57,57,58,58,59,59,61,61,62,62],"right_children":[2,4,6,8,10,12,14,16,18,20,22,24,26,28,30,32,34,36,38,40,42,44,46,48,50,52,54,56,58,60,62,-1,-1,64,66,68,70,72,74,76,78,80,82,84,86,88,90,92,94,96,98,100,102,104,-1,106,108,110,112,114,-1,116,118,-1,-1,-1,-1,-1,-1,-1,-1,-1,-1,-1,-1,-1,-1,-1,-1,-1,-1,-1,-1,-1,-1,-1,-1,-1,-1,-1,-1,-1,-1,-1,-1,-1,-1,-1,-1,-1,-1,-1,-1,-1,-1,-1,-1,-1,-1,-1,-1,-1,-1,-1,-1,-1,-1,-1,-1],"split_conditions":[-4.4944662E-1,1.331467E-1,-2.0329146E-2,-8.0858076E-1,-1.08273596E-1,-2.1594158E-1,-1.6184804E-1,-3.99498E-1,3.3135775E-1,1.773955E-1,-5.6160152E-2,1.3152753E-1,2.4574804E-1,-3.4428012E-1,1.6604972E-1,6.4372784E-1,-3.931366E-1,7.0256126E-1,-1.8744838E-1,-2.666631E-1,-2.13836E-1,4.3602657E-1,-4.009093E-1,-1.0848835E-1,2.3286235E-1,3.2662272E-1,1.2070738E0,-5.3206503E-1,-1.0302676E-1,1.370813E-1,5.482137E-1,-4.419315E-4,2.4233044E-4,-3.1461793E-1,7.76327E-1,-1.630756E-1,-5.02388E-1,2.036429E-2,3.58406E-1,1.9084203E-1,-1.6305548E-1,-1.2312078E0,-1.1829562E-1,-2.0048146E-1,-6.270233E-2,-1.2177128E0,-8.341812E-1,1.0311961E-1,-2.8781027E-1,-6.1987706E-2,5.1724976E-1,4.9450532E-1,-1.2412803E-1,-4.4774276E-1,8.270604E-3,-3.309876E0,2.3430172E-1,-1.5437305E-1,1.0287665E-1,-2.19933E0,5.470172E-3,3.319246E-1,1.03310116E-1,6.934643E-4,-5.956717E-4,3.762592E-3,4.973442E-4,-3.4345945E-4,-2.5326142E-3,-5.5108283E-4,3.0612643E-3,-9.385794E-4,2.1117753E-3,3.5992889E-3,9.4731967E-4,-2.0012248E-3,-7.5938186E-4,-3.4263032E-3,-9.8522715E-3,-6.272793E-5,9.95797E-4,-5.834627E-4,-2.427918E-3,2.1876195E-3,7.170454E-4,-1.7729294E-3,-2.0135046E-4,-5.29477E-4,2.3921505E-4,-3.1006337E-5,-2.3475522E-3,2.5206376E-4,-3.3069819E-3,-4.664764E-4,4.7720233E-3,6.2118684E-6,-1.9005088E-3,-6.4809904E-3,-3.345378E-4,3.8796447E-3,-7.887638E-4,-4.3812147E-3,1.7104652E-3,-4.997128E-3,-6.298157E-4,6.907654E-3,3.4654373E-4,-7.0033484E-4,-5.219144E-3,1.2383205E-2,1.7758226E-3,2.3177995E-3,-6.478271E-4,-5.9767603E-3,2.1837492E-5,-4.42504E-3,2.9973214E-4,-1.4121569E-3,1.6323036E-3],"split_indices":[49,19,49,51,27,42,42,8,32,43,53,38,30,42,38,2,45,34,29,36,29,32,2,38,27,57,57,42,41,38,38,0,0,0,18,56,19,36,20,2,0,6,0,56,1,3,5,3,36,17,4,36,37,19,0,41,56,36,33,35,0,54,48,0,0,0,0,0,0,0,0,0,0,0,0,0,0,0,0,0,0,0,0,0,0,0,0,0,0,0,0,0,0,0,0,0,0,0,0,0,0,0,0,0,0,0,0,0,0,0,0,0,0,0,0,0,0,0,0],"split_type":[0,0,0,0,0,0,0,0,0,0,0,0,0,0,0,0,0,0,0,0,0,0,0,0,0,0,0,0,0,0,0,0,0,0,0,0,0,0,0,0,0,0,0,0,0,0,0,0,0,0,0,0,0,0,0,0,0,0,0,0,0,0,0,0,0,0,0,0,0,0,0,0,0,0,0,0,0,0,0,0,0,0,0,0,0,0,0,0,0,0,0,0,0,0,0,0,0,0,0,0,0,0,0,0,0,0,0,0,0,0,0,0,0,0,0,0,0,0,0],"sum_hessian":[6.57E2,1.6E2,4.97E2,1.05E2,5.5E1,1.83E2,3.14E2,2.1E1,8.4E1,2.5E1,3E1,5.4E1,1.29E2,1.3E2,1.84E2,8E0,1.3E1,6.2E1,2.2E1,1.3E1,1.2E1,1.6E1,1.4E1,3.6E1,1.8E1,9.2E1,3.7E1,8.6E1,4.4E1,1.18E2,6.6E1,4E0,4E0,4E0,9E0,5.1E1,1.1E1,1.3E1,9E0,6E0,7E0,7E0,5E0,1.2E1,4E0,5E0,9E0,2.7E1,9E0,1.1E1,7E0,7.4E1,1.8E1,3.5E1,2E0,5.3E1,3.3E1,9E0,3.5E1,1.15E2,3E0,4E1,2.6E1,2E0,2E0,8E0,1E0,2.4E1,2.7E1,6E0,5E0,1E1,3E0,6E0,3E0,4E0,2E0,3E0,4E0,2E0,5E0,4E0,1E0,4E0,8E0,2E0,2E0,2E0,3E0,2E0,7E0,1.9E1,8E0,2E0,7E0,6E0,5E0,5E0,2E0,6E1,1.4E1,9E0,9E0,5E0,3E1,1E0,5.2E1,2.4E1,9E0,3E0,6E0,2.3E1,1.2E1,2E0,1.13E2,2.9E1,1.1E1,1.4E1,1.2E1],"tree_param":{"num_deleted":"0","num_feature":"60","num_nodes":"119","size_leaf_vector":"0"}},{"base_weights":[-2.3549095E-5,-1.1976139E-3,7.81241E-4,-2.2774949E-3,2.583932E-3,-1.8134996E-3,2.8274003E-3,-4.7686353E-4,-7.188562E-3,2.5923118E-2,9.007622E-4,1.9168473E-3,-4.756007E-3,2.84336E-2,2.460368E-3,1.10821E-3,-5.179214E-3,-8.856252E-3,8.184898E-3,-8.4483525E-4,9.189554E-3,3.909564E-3,-2.931686E-3,1.9325409E-3,-7.4982084E-3,3.4114182E-2,8.53622E-3,8.00728E-3,1.238078E-3,-3.064035E-3,3.429891E-3,2.2986878E-3,-9.006576E-3,-4.9195653E-3,-1.5227537E-2,-1.8610358E-3,1.0566291E-2,3.4058485E-3,-3.07661E-3,4.4967663E-3,1.8640468E-2,7.3404103E-3,-1.9947268E-4,3.1770251E-3,-7.875081E-3,-1.488407E-3,4.4348813E-3,-2.7629578E-2,-5.8342842E-3,-2.5617548E-3,1.2250892E-2,2.4559377E-3,-3.345453E-3,4.875948E-3,-5.697653E-3,1.28476E-3,1.1924765E-2,-1.3964353E-3,6.1933016E-3,-1.5742749E-2,-2.1082314E-3,-1.0560725E-3,-1.0782164E-2,-1.8309727E-2,9.081103E-4,6.4005502E-3,6.695025E-4,-7.543944E-3,-3.7734245E-4,5.1414147E-3,1.7085472E-3,4.4649355E-3,1.615055E-2,-1.190152E-3,7.792453E-3,5.682409E-3,1.4213721E-4,-1.263844E-2,-1.9867101E-3,9.5829926E-4,-4.5026145E-3,-2.252575E-3,6.028806E-3,1.3505816E-3,-3.5212263E-2,-8.453074E-3,5.29111E-3,3.7382452E-3,-7.5957896E-3,1.5375384E-2,6.809309E-4,1.0329857E-3,1.2858056E-2,-6.2079653E-3,1.0218239E-2],"categories":[],"categories_nodes":[],"categories_segments":[],"categories_sizes":[],"default_left":[1,1,1,1,1,1,1,1,1,0,1,1,1,1,1,1,1,1,1,1,1,1,1,1,1,0,0,1,1,1,1,1,1,1,1,0,0,1,1,1,0,1,1,1,1,1,1,1,1,1,1,1,1,0,0,0,0,0,0,0,0,0,0,0,0,0,0,0,0,0,0,0,0,0,0,0,0,0,0,0,0,0,0,0,0,0,0,0,0,0,0,0,0,0,0],"id":49,"left_children":[1,3,5,7,9,11,13,15,17,-1,19,21,23,25,27,29,31,33,35,37,39,41,43,45,47,-1,-1,49,51,53,55,57,59,61,63,-1,-1,65,67,69,-1,71,73,75,77,79,81,83,85,87,89,91,93,-1,-1,-1,-1,-1,-1,-1,-1,-1,-1,-1,-1,-1,-1,-1,-1,-1,-1,-1,-1,-1,-1,-1,-1,-1,-1,-1,-1,-1,-1,-1,-1,-1,-1,-1,-1,-1,-1,-1,-1,-1,-1],"loss_changes":[6.226638E-4,1.100295E-3,2.0810454E-3,1.8447635E-3,2.333678E-3,1.9080637E-3,1.9882708E-3,1.1535897E-3,1.5082248E-3,0E0,8.3249056E-4,7.554166E-4,1.7936011E-3,4.7879992E-5,1.4613323E-3,1.1341574E-3,1.1369078E-3,1.2042564E-3,1.6320415E-4,4.658338E-4,3.5968947E-4,7.7682524E-4,7.195681E-4,2.5485182E-4,2.1500988E-3,0E0,0E0,1.7805684E-3,1.0074117E-3,9.060387E-4,1.3513758E-3,2.1012363E-4,1.1749901E-3,7.360667E-4,9.6155703E-4,0E0,0E0,1.35022E-4,3.830263E-4,5.5950222E-6,0E0,6.878887E-4,2.1512754E-4,8.283147E-5,3.3952057E-4,1.0018829E-4,1.9478844E-4,1.1462942E-3,1.9385056E-3,4.0896796E-4,1.0017375E-3,2.0885614E-3,1.5388314E-3,0E0,0E0,0E0,0E0,0E0,0E0,0E0,0E0,0E0,0E0,0E0,0E0,0E0,0E0,0E0,0E0,0E0,0E0,0E0,0E0,0E0,0E0,0E0,0E0,0E0,0E0,0E0,0E0,0E0,0E0,0E0,0E0,0E0,0E0,0E0,0E0,0E0,0E0,0E0,0E0,0E0,0E0],"parents":[2147483647,0,0,1,1,2,2,3,3,4,4,5,5,6,6,7,7,8,8,10,10,11,11,12,12,13,13,14,14,15,15,16,16,17,17,18,18,19,19,20,20,21,21,22,22,23,23,24,24,27,27,28,28,29,29,30,30,31,31,32,32,33,33,34,34,37,37,38,38,39,39,41,41,42,42,43,43,44,44,45,45,46,46,47,47,48,48,49,49,50,50,51,51,52,52],"right_children":[2,4,6,8,10,12,14,16,18,-1,20,22,24,26,28,30,32,34,36,38,40,42,44,46,48,-1,-1,50,52,54,56,58,60,62,64,-1,-1,66,68,70,-1,72,74,76,78,80,82,84,86,88,90,92,94,-1,-1,-1,-1,-1,-1,-1,-1,-1,-1,-1,-1,-1,-1,-1,-1,-1,-1,-1,-1,-1,-1,-1,-1,-1,-1,-1,-1,-1,-1,-1,-1,-1,-1,-1,-1,-1,-1,-1,-1,-1,-1],"split_conditions":[-1.7124617E-1,4.957302E-1,-1.2609753E-1,8.349008E-2,5.2560365E-1,-2.0577681E-1,-1.1792347E-1,4.1497836E-1,1.1206274E0,7.7769356E-3,5.6178516E-1,3.107559E-1,-3.5342136E-1,-3.9728436E-1,-4.547274E-2,-2.6854837E-1,-4.3696707E-1,-4.19983E-1,-1.2068261E0,-4.168625E-1,-3.4519857E-1,1.7593235E-1,-1.7086801E-1,-1.8895882E-1,-5.8051986E-1,1.0234255E-2,2.560866E-3,-2.0075998E-1,4.484716E-1,-4.1264194E-1,1.1512086E-1,-3.9358324E-1,6.005343E-2,-8.917555E-3,7.217076E-1,-5.5831077E-4,3.1698875E-3,8.0424273E-1,-1.0681962E-1,1.6442945E0,5.5921404E-3,3.765229E-1,7.022468E-1,6.734121E-2,2.4140595E-1,-3.2246214E-1,-6.984531E-1,-4.1794124E-1,6.2320364E-1,-8.050729E-2,3.612613E-1,3.0834252E-1,3.8641143E-1,1.4627845E-3,-1.709296E-3,3.85428E-4,3.5774296E-3,-4.189306E-4,1.8579905E-3,-4.722825E-3,-6.324694E-4,-3.1682177E-4,-3.2346493E-3,-5.492918E-3,2.724331E-4,1.9201651E-3,2.0085076E-4,-2.2631832E-3,-1.1320274E-4,1.5424244E-3,5.125642E-4,1.3394807E-3,4.8451656E-3,-3.5704562E-4,2.3377358E-3,1.7047228E-3,4.2641164E-5,-3.7915322E-3,-5.9601304E-4,2.874898E-4,-1.3507844E-3,-6.7577255E-4,1.8086418E-3,4.051745E-4,-1.0563679E-2,-2.5359222E-3,1.587333E-3,1.1214736E-3,-2.278737E-3,4.6126153E-3,2.0427928E-4,3.0989572E-4,3.857417E-3,-1.8623896E-3,3.065472E-3],"split_indices":[30,52,5,52,52,14,5,26,24,0,11,24,41,0,30,21,41,30,3,22,30,50,38,15,35,0,0,20,59,5,26,1,41,42,49,0,0,52,57,11,0,52,2,13,47,5,26,0,14,13,53,59,44,0,0,0,0,0,0,0,0,0,0,0,0,0,0,0,0,0,0,0,0,0,0,0,0,0,0,0,0,0,0,0,0,0,0,0,0,0,0,0,0,0,0],"split_type":[0,0,0,0,0,0,0,0,0,0,0,0,0,0,0,0,0,0,0,0,0,0,0,0,0,0,0,0,0,0,0,0,0,0,0,0,0,0,0,0,0,0,0,0,0,0,0,0,0,0,0,0,0,0,0,0,0,0,0,0,0,0,0,0,0,0,0,0,0,0,0,0,0,0,0,0,0,0,0,0,0,0,0,0,0,0,0,0,0,0,0,0,0,0,0],"sum_hessian":[6.57E2,2.67E2,3.9E2,2.08E2,5.9E1,1.72E2,2.18E2,1.53E2,5.5E1,3E0,5.6E1,7.6E1,9.6E1,2E0,2.16E2,1.15E2,3.8E1,5E1,5E0,4.7E1,9E0,5.4E1,2.2E1,2.8E1,6.8E1,1E0,1E0,3.8E1,1.78E2,4.1E1,7.4E1,1.3E1,2.5E1,3.2E1,1.8E1,1E0,4E0,1.6E1,3.1E1,7E0,2E0,2.9E1,2.5E1,1E1,1.2E1,1.2E1,1.6E1,4E0,6.4E1,1.1E1,2.7E1,1.41E2,3.7E1,1E1,3.1E1,6E1,1.4E1,7E0,6E0,1.2E1,1.3E1,2E1,1.2E1,1.5E1,3E0,7E0,9E0,1.1E1,2E1,5E0,2E0,2.3E1,6E0,2.3E1,2E0,5E0,5E0,6E0,6E0,7E0,5E0,3E0,1.3E1,1E0,3E0,5.2E1,1.2E1,5E0,6E0,2.1E1,6E0,1.25E2,1.6E1,3.1E1,6E0],"tree_param":{"num_deleted":"0","num_feature":"60","num_nodes":"95","size_leaf_vector":"0"}},{"base_weights":[2.1692915E-5,2.480873E-4,-2.8605708E-3,7.747621E-6,4.7445153E-3,-7.1014045E-4,-6.405169E-3,-1.5902297E-3,7.5829314E-4,6.0928E-4,9.722352E-3,-2.8566616E-3,2.100397E-3,-9.907554E-3,-2.6125058E-3,-1.1265621E-3,-2.240546E-2,9.715216E-3,3.8015915E-4,-1.401681E-3,3.2981914E-3,2.5175452E-2,5.048881E-3,-4.1411514E-3,1.3112426E-3,4.0771253E-3,-4.5877803E-4,-1.0615589E-2,-2.1216348E-3,-4.927635E-3,-2.4781376E-4,-2.7143667E-3,1.5361056E-3,2.3809226E-2,3.0331102E-3,1.520601E-3,-1.6620919E-3,-3.4210458E-3,-2.1678838E-4,4.4823163E-3,-1.69456E-4,6.689741E-3,-2.1036118E-3,-6.886415E-4,-5.4532913E-3,-4.7703585E-4,2.66244E-3,6.932169E-4,4.4615096E-3,-1.0749511E-3,1.6191304E-3,1.2142708E-3,-1.2824237E-3,-2.9755104E-4,-5.7413992E-3,-1.6228576E-3,3.7330284E-3,9.243469E-3,-2.7233553E-3,-2.2327956E-3,2.618862E-3,7.902526E-4,-5.812913E-3,-8.7109534E-4,3.5001486E-4,1.8169383E-3,5.360771E-3,1.8920997E-3,7.6526385E-3,-2.9316396E-3,-2.2377819E-4,-1.5956213E-3,4.4788545E-4,-1.9030422E-3,-6.1029736E-3,1.726605E-3,9.480119E-5],"categories":[],"categories_nodes":[],"categories_segments":[],"categories_sizes":[],"default_left":[1,1,1,1,1,1,1,1,1,1,1,1,1,1,1,1,0,1,1,1,1,0,1,1,1,1,1,0,0,0,1,1,1,0,1,1,1,0,1,1,0,1,1,1,1,0,0,0,0,0,0,1,0,0,0,0,0,0,0,0,0,0,0,0,0,0,0,0,0,0,0,0,0,0,0,0,0],"id":50,"left_children":[1,3,5,7,9,11,13,15,17,19,21,23,25,27,29,31,-1,33,35,37,39,-1,41,43,45,47,49,-1,-1,-1,51,53,55,-1,57,59,61,-1,63,65,-1,67,69,71,73,-1,-1,-1,-1,-1,-1,75,-1,-1,-1,-1,-1,-1,-1,-1,-1,-1,-1,-1,-1,-1,-1,-1,-1,-1,-1,-1,-1,-1,-1,-1,-1],"loss_changes":[4.300733E-4,6.602526E-4,3.6132723E-4,6.98031E-4,6.3219666E-4,1.9301935E-4,2.1321705E-4,1.769909E-3,1.3375258E-3,1.01954334E-4,8.839668E-4,1.01795405E-4,7.2693605E-5,2.7091999E-5,5.352455E-5,7.778563E-4,0E0,1.4346266E-3,8.8990247E-4,2.557839E-5,3.3608587E-5,0E0,1.5490747E-4,5.966713E-5,1.3351668E-5,7.3129777E-6,1.07029455E-5,0E0,0E0,0E0,1.0633333E-5,8.396062E-4,4.8491813E-4,0E0,4.5416979E-4,1.0157886E-3,1.3991499E-3,0E0,3.2718028E-6,4.308291E-6,0E0,3.171683E-5,4.0136256E-6,5.868691E-6,1.1451106E-5,0E0,0E0,0E0,0E0,3.9598035E-8,0E0,1.5569435E-6,0E0,0E0,0E0,0E0,0E0,0E0,0E0,0E0,0E0,0E0,0E0,0E0,0E0,0E0,0E0,0E0,0E0,0E0,0E0,0E0,0E0,0E0,0E0,0E0,0E0],"parents":[2147483647,0,0,1,1,2,2,3,3,4,4,5,5,6,6,7,7,8,8,9,9,10,10,11,11,12,12,13,13,14,14,15,15,17,17,18,18,19,19,20,20,22,22,23,23,24,24,25,25,26,26,30,30,31,31,32,32,34,34,35,35,36,36,38,38,39,39,41,41,42,42,43,43,44,44,51,51],"right_children":[2,4,6,8,10,12,14,16,18,20,22,24,26,28,30,32,-1,34,36,38,40,-1,42,44,46,48,50,-1,-1,-1,52,54,56,-1,58,60,62,-1,64,66,-1,68,70,72,74,-1,-1,-1,-1,-1,-1,76,-1,-1,-1,-1,-1,-1,-1,-1,-1,-1,-1,-1,-1,-1,-1,-1,-1,-1,-1,-1,-1,-1,-1,-1,-1],"split_conditions":[1.0659242E0,7.1938163E-1,1.2711003E-1,-2.5698885E-1,6.1702933E-2,1.8372476E-2,3.465466E-1,-2.7662423E-1,-2.1255316E-1,4.171167E-1,-2.9765177E-1,5.664323E-1,-1.7241323E-1,-1.9102056E-1,-5.1338816E-1,1.5871559E-1,-6.7216386E-3,-1.2095454E-1,1.9797917E-1,-5.7100964E-1,6.1672557E-2,7.552636E-3,3.3146054E-1,-1.0950861E0,-1.4875671E0,2.3011899E-1,1.687776E0,-3.1846769E-3,-6.3649047E-4,-1.4782907E-3,3.8263625E-1,1.2811044E-1,-3.935296E-1,7.1427682E-3,1.7762035E-3,-4.4850874E-1,1.10586464E-1,-1.0263138E-3,-3.323545E-1,-2.0528227E-1,-5.0836803E-5,-3.371156E-1,1.5087657E-1,-3.000958E-1,-1.5065644E0,-1.4311077E-4,7.9873204E-4,2.0796509E-4,1.3384529E-3,-3.2248534E-4,4.8573912E-4,-3.8349658E-1,-3.8472714E-4,-8.926532E-5,-1.7224199E-3,-4.8685732E-4,1.1199085E-3,2.7730407E-3,-8.170066E-4,-6.698387E-4,7.8565866E-4,2.3707579E-4,-1.743874E-3,-2.6132862E-4,1.0500446E-4,5.450815E-4,1.6082313E-3,5.6762993E-4,2.2957916E-3,-8.794919E-4,-6.713346E-5,-4.7868642E-4,1.3436565E-4,-5.7091267E-4,-1.8308922E-3,5.1798153E-4,2.8440358E-5],"split_indices":[12,12,45,47,48,32,44,47,47,53,4,58,25,5,52,16,0,31,51,2,19,0,45,37,5,0,0,0,0,0,1,36,55,0,57,45,34,0,17,8,0,16,0,2,3,0,0,0,0,0,0,0,0,0,0,0,0,0,0,0,0,0,0,0,0,0,0,0,0,0,0,0,0,0,0,0,0],"split_type":[0,0,0,0,0,0,0,0,0,0,0,0,0,0,0,0,0,0,0,0,0,0,0,0,0,0,0,0,0,0,0,0,0,0,0,0,0,0,0,0,0,0,0,0,0,0,0,0,0,0,0,0,0,0,0,0,0,0,0,0,0,0,0,0,0,0,0,0,0,0,0,0,0,0,0,0,0],"sum_hessian":[6.57E2,6.1E2,4.7E1,5.8E2,3E1,3E1,1.7E1,1.85E2,3.95E2,1.7E1,1.3E1,1.7E1,1.3E1,8E0,9E0,1.82E2,3E0,1.5E1,3.8E2,1E1,7E0,2E0,1.1E1,1.3E1,4E0,7E0,6E0,7E0,1E0,4E0,5E0,1.14E2,6.8E1,4E0,1.1E1,2.44E2,1.36E2,3E0,7E0,5E0,2E0,9E0,2E0,4E0,9E0,2E0,2E0,1E0,6E0,5E0,1E0,2E0,3E0,6.4E1,5E1,2.8E1,4E1,5E0,6E0,5.5E1,1.89E2,8.6E1,5E1,3E0,4E0,2E0,3E0,2E0,7E0,1E0,1E0,2E0,2E0,2E0,7E0,1E0,1E0],"tree_param":{"num_deleted":"0","num_feature":"60","num_nodes":"77","size_leaf_vector":"0"}},{"base_weights":[2.2296035E-5,2.0488796E-3,-2.6174475E-4,-5.4554327E-4,5.148884E-3,1.2964808E-3,-8.927203E-4,6.7453674E-4,-1.3219997E-2,7.2885547E-3,-1.357083E-3,3.358376E-4,6.739501E-3,-9.79689E-3,-6.468531E-4,9.2878835E-3,1.1672266E-5,-2.1829844E-2,-3.073434E-3,1.00410525E-2,1.3299532E-3,1.0663135E-3,-3.993742E-3,-1.6988281E-3,3.5271724E-3,-1.2480369E-3,1.3104568E-2,-2.651447E-2,-3.1358206E-3,-2.6347225E-3,4.2542326E-4,-1.125036E-3,3.5343007E-3,2.1697858E-3,1.3507038E-2,-1.2478884E-3,2.6130122E-3,-1.3781786E-3,1.8308476E-3,3.2908202E-4,-6.0561025E-3,-2.9514292E-3,6.1923987E-3,-1.1225919E-2,1.8701315E-3,7.0453673E-3,2.649123E-2,-7.5021274E-3,1.8576502E-3,-1.9367167E-3,-1.8017063E-2,-1.1153826E-3,2.667856E-3,-2.4377855E-3,2.9538423E-3,6.1160303E-3,-1.8673018E-3,3.4692287E-4,4.484629E-3,1.6887082E-2,8.197418E-3,-1.9142516E-3,-3.876835E-4,2.852102E-3,5.892366E-4,-7.9167485E-3,1.2066874E-3,-1.0134719E-3,-9.774733E-3,-7.0833946E-3,6.492857E-4,8.626802E-3,-4.623566E-3,5.678244E-3,-5.730944E-4,1.3779532E-3,8.998403E-3,2.9977E-2,8.016963E-3,-6.46621E-4,3.7427049E-3,1.3128942E-3,-4.5972387E-3,-2.2634678E-2,-5.854557E-3,1.5317339E-3,-4.844911E-3,1.5695434E-2,1.7385401E-3],"categories":[],"categories_nodes":[],"categories_segments":[],"categories_sizes":[],"default_left":[1,1,1,1,1,1,1,1,1,1,1,1,1,1,1,0,1,0,0,1,1,1,0,1,1,1,1,0,1,1,1,1,1,1,1,1,1,0,0,1,1,1,1,0,1,1,1,0,1,1,1,1,1,0,0,0,0,0,0,0,0,0,0,0,0,0,0,0,0,0,0,0,0,0,0,0,0,0,0,0,0,0,0,0,0,0,0,0,0],"id":51,"left_children":[1,3,5,7,9,11,13,15,17,19,21,23,25,27,29,-1,31,-1,-1,33,35,37,-1,39,41,43,45,-1,47,49,51,53,55,57,59,61,63,-1,-1,65,67,69,71,-1,73,75,77,-1,79,81,83,85,87,-1,-1,-1,-1,-1,-1,-1,-1,-1,-1,-1,-1,-1,-1,-1,-1,-1,-1,-1,-1,-1,-1,-1,-1,-1,-1,-1,-1,-1,-1,-1,-1,-1,-1,-1,-1],"loss_changes":[3.793024E-4,6.5426936E-4,5.694483E-4,7.047905E-4,5.249545E-4,8.709463E-4,8.95631E-4,2.3968979E-4,2.8234883E-4,4.45875E-4,6.8155285E-5,9.345339E-4,1.2873854E-3,1.141782E-3,8.580021E-4,0E0,1.6414425E-4,0E0,0E0,4.8904493E-4,3.633598E-5,1.373662E-5,0E0,7.795752E-4,9.85225E-4,3.9434654E-4,9.4893435E-4,0E0,2.1016358E-4,1.4790174E-3,9.082259E-4,1.7319176E-4,1.5087523E-4,2.7981667E-5,9.487732E-5,1.5507117E-6,1.7064885E-6,0E0,3.0057708E-7,4.5098475E-4,5.151407E-4,2.5752565E-4,1.0931034E-3,0E0,9.6294956E-5,1.093559E-4,1.7263694E-5,0E0,2.6023554E-5,1.1818457E-3,2.0445464E-4,1.5475305E-3,1.2681336E-3,0E0,0E0,0E0,0E0,0E0,0E0,0E0,0E0,0E0,0E0,0E0,0E0,0E0,0E0,0E0,0E0,0E0,0E0,0E0,0E0,0E0,0E0,0E0,0E0,0E0,0E0,0E0,0E0,0E0,0E0,0E0,0E0,0E0,0E0,0E0,0E0],"parents":[2147483647,0,0,1,1,2,2,3,3,4,4,5,5,6,6,7,7,8,8,9,9,10,10,11,11,12,12,13,13,14,14,16,16,19,19,20,20,21,21,23,23,24,24,25,25,26,26,28,28,29,29,30,30,31,31,32,32,33,33,34,34,35,35,36,36,39,39,40,40,41,41,42,42,44,44,45,45,46,46,48,48,49,49,50,50,51,51,52,52],"right_children":[2,4,6,8,10,12,14,16,18,20,22,24,26,28,30,-1,32,-1,-1,34,36,38,-1,40,42,44,46,-1,48,50,52,54,56,58,60,62,64,-1,-1,66,68,70,72,-1,74,76,78,-1,80,82,84,86,88,-1,-1,-1,-1,-1,-1,-1,-1,-1,-1,-1,-1,-1,-1,-1,-1,-1,-1,-1,-1,-1,-1,-1,-1,-1,-1,-1,-1,-1,-1,-1,-1,-1,-1,-1,-1],"split_conditions":[-8.2055163E-1,-5.6697384E-2,-3.3346808E-1,1.0553752E0,5.918102E-1,-4.1751853E-1,-3.1337208E-1,-1.2293241E0,2.2364506E-1,5.7553124E-1,-1.1000154E0,3.2296285E-2,-1.806568E-1,-2.8162938E-1,-1.5267186E-1,2.786365E-3,4.1208375E-1,-6.5489532E-3,-9.2203025E-4,-3.5737306E-1,-4.3553162E-1,-3.1668386E0,-1.1981227E-3,4.469887E-1,-1.0648227E-1,2.3867946E-2,6.5364614E-2,-7.954341E-3,1.6706172E-1,-1.6585353E-1,2.6438126E-1,4.6078992E-1,2.9015157E-1,1.2498425E-1,-1.0555885E0,-9.577631E-1,5.0094074E-1,-4.1345358E-4,5.492543E-4,-1.536674E0,-4.2234957E-1,4.4272673E-1,5.003783E-1,-3.3677758E-3,-2.966958E-1,-3.0201846E-1,-2.760798E-1,-2.2506383E-3,6.686102E-1,-8.5082695E-2,-9.1780014E-2,1.3396081E-1,-1.1782955E-1,-7.3133566E-4,8.8615273E-4,1.8348092E-3,-5.601905E-4,1.0407686E-4,1.3453887E-3,5.0661247E-3,2.4592257E-3,-5.742755E-4,-1.16305055E-4,8.556307E-4,1.7677099E-4,-2.3750246E-3,3.6200625E-4,-3.0404158E-4,-2.9324202E-3,-2.1250185E-3,1.9478571E-4,2.5880407E-3,-1.3870698E-3,1.7034733E-3,-1.7192833E-4,4.1338598E-4,2.6995211E-3,8.9931E-3,2.4050889E-3,-1.939863E-4,1.1228115E-3,3.9386828E-4,-1.3791716E-3,-6.7904037E-3,-1.7563672E-3,4.5952018E-4,-1.4534733E-3,4.7086305E-3,5.2156206E-4],"split_indices":[31,28,59,50,14,59,59,26,0,56,31,5,45,30,31,0,10,0,0,10,3,0,0,24,31,31,27,0,24,31,59,39,7,2,31,3,11,0,0,57,2,5,17,0,30,11,0,0,4,33,0,6,31,0,0,0,0,0,0,0,0,0,0,0,0,0,0,0,0,0,0,0,0,0,0,0,0,0,0,0,0,0,0,0,0,0,0,0,0],"split_type":[0,0,0,0,0,0,0,0,0,0,0,0,0,0,0,0,0,0,0,0,0,0,0,0,0,0,0,0,0,0,0,0,0,0,0,0,0,0,0,0,0,0,0,0,0,0,0,0,0,0,0,0,0,0,0,0,0,0,0,0,0,0,0,0,0,0,0,0,0,0,0,0,0,0,0,0,0,0,0,0,0,0,0,0,0,0,0,0,0],"sum_hessian":[6.57E2,8E1,5.77E2,4.4E1,3.6E1,1.66E2,4.11E2,4.1E1,3E0,2.7E1,9E0,1.42E2,2.4E1,1E1,4.01E2,2E0,3.9E1,1E0,2E0,1.8E1,9E0,5E0,4E0,8.7E1,5.5E1,1.1E1,1.3E1,2E0,8E0,1.4E2,2.61E2,3E1,9E0,6E0,1.2E1,3E0,6E0,1E0,4E0,6E1,2.7E1,1.6E1,3.9E1,2E0,9E0,1E1,3E0,4E0,4E0,1.35E2,5E0,1.55E2,1.06E2,2.3E1,7E0,6E0,3E0,4E0,2E0,6E0,6E0,1E0,2E0,5E0,1E0,5E0,5.5E1,1.2E1,1.5E1,7E0,9E0,3.2E1,7E0,3E0,6E0,3E0,7E0,2E0,1E0,2E0,2E0,6.1E1,7.4E1,3E0,2E0,9.1E1,6.4E1,6E0,1E2],"tree_param":{"num_deleted":"0","num_feature":"60","num_nodes":"89","size_leaf_vector":"0"}},{"base_weights":[1.1235984E-5,-1.2592113E-4,3.8034397E-3,4.8855966E-4,-1.0106676E-3,-2.901256E-5,8.788529E-3,1.3116334E-3,-1.097571E-3,1.7385244E-2,-1.1482874E-3,-1.327084E-3,2.5729327E-3,3.0532181E-3,1.39131965E-2,3.438468E-3,-1.486499E-4,1.8309201E-3,-3.5156473E-3,-2.071286E-3,1.6525744E-3,-2.9134454E-4,-1.9690196E-3,3.542304E-4,3.933991E-3,7.6824427E-4,3.356564E-3,2.2497235E-4,6.982016E-3,1.7783977E-3,-3.0046264E-3,4.4391993E-3,-1.2153605E-3,1.3991786E-3,-5.8998177E-3,-8.439355E-4,-6.2920447E-3,-1.02042664E-4,7.032467E-3,-5.69272E-4,6.6738054E-3,1.0398629E-2,2.0940541E-3,-2.0509153E-3,4.418137E-3,-4.9877176E-3,5.3433813E-3,-2.4848204E-4,7.6596383E-3,-4.1217357E-3,2.4552061E-3,6.7287907E-3,3.1738693E-4,-9.175979E-4,-9.425774E-3,-3.2434613E-3,1.0136756E-3,-1.4264806E-2,-2.4884732E-3,3.597802E-3,-3.655661E-3,2.4381936E-2,4.250373E-3],"categories":[],"categories_nodes":[],"categories_segments":[],"categories_sizes":[],"default_left":[1,1,1,1,1,1,1,1,1,0,1,1,1,1,0,1,1,1,1,1,1,0,0,0,0,0,0,1,1,1,1,1,1,1,1,1,1,1,1,0,0,0,0,0,0,0,0,0,0,0,0,0,0,0,0,0,0,0,0,0,0,0,0],"id":52,"left_children":[1,3,5,7,9,11,13,15,17,-1,19,21,23,25,-1,27,29,31,33,35,37,-1,-1,-1,-1,-1,-1,39,41,43,45,47,49,51,53,55,57,59,61,-1,-1,-1,-1,-1,-1,-1,-1,-1,-1,-1,-1,-1,-1,-1,-1,-1,-1,-1,-1,-1,-1,-1,-1],"loss_changes":[3.4272298E-4,3.4626134E-4,4.3967264E-4,4.923086E-4,6.8072195E-4,5.0699655E-5,2.5143562E-4,7.7074487E-4,9.1992645E-4,0E0,6.755728E-4,6.075117E-6,1.3705376E-5,1.5801597E-6,0E0,1.1485339E-3,8.1987656E-4,4.7418269E-4,8.4021746E-4,1.0100387E-3,6.142949E-4,4.7007305E-7,1.1554948E-7,2.033002E-7,0E0,0E0,0E0,2.8038444E-4,7.7983807E-4,9.0870773E-4,1.0199428E-3,4.8498786E-4,3.0882494E-4,1.362371E-4,8.345712E-4,6.8526785E-4,1.298801E-3,6.705441E-4,6.686532E-4,0E0,0E0,0E0,0E0,0E0,0E0,0E0,0E0,0E0,0E0,0E0,0E0,0E0,0E0,0E0,0E0,0E0,0E0,0E0,0E0,0E0,0E0,0E0,0E0],"parents":[2147483647,0,0,1,1,2,2,3,3,4,4,5,5,6,6,7,7,8,8,10,10,11,11,12,12,13,13,15,15,16,16,17,17,18,18,19,19,20,20,27,27,28,28,29,29,30,30,31,31,32,32,33,33,34,34,35,35,36,36,37,37,38,38],"right_children":[2,4,6,8,10,12,14,16,18,-1,20,22,24,26,-1,28,30,32,34,36,38,-1,-1,-1,-1,-1,-1,40,42,44,46,48,50,52,54,56,58,60,62,-1,-1,-1,-1,-1,-1,-1,-1,-1,-1,-1,-1,-1,-1,-1,-1,-1,-1,-1,-1,-1,-1,-1,-1],"split_conditions":[1.7796812E0,1.1185239E-1,-1.3598773E-1,2.0181736E-1,-3.4916105E0,-4.1730368E-1,-4.86629E-1,-1.3933814E-1,-9.5127404E-2,5.2155736E-3,3.3001375E-1,-7.580516E-1,-4.82754E-1,-3.0985882E0,4.173959E-3,-7.559947E-2,6.959114E-2,1.9874051E-1,-3.1765646E-1,6.3694134E-2,4.356725E-1,-8.7403365E-5,-5.907059E-4,1.0626912E-4,1.1801973E-3,2.3047329E-4,1.0069693E-3,6.659924E-1,-1.3819408E-1,-4.078362E-2,4.5585138E-1,-2.0229644E-1,-3.8416162E-2,-4.8834717E-1,-1.829663E-1,-8.725661E-2,-1.3082911E-1,-7.4528106E-2,-6.668798E-1,-1.707816E-4,2.0021417E-3,3.1195888E-3,6.2821625E-4,-6.152746E-4,1.3254412E-3,-1.4963154E-3,1.6030144E-3,-7.4544616E-5,2.2978915E-3,-1.2365207E-3,7.365619E-4,2.0186373E-3,9.5216084E-5,-2.752794E-4,-2.8277324E-3,-9.7303843E-4,3.041027E-4,-4.279442E-3,-7.46542E-4,1.0793407E-3,-1.0966983E-3,7.314581E-3,1.275112E-3],"split_indices":[34,20,27,12,41,26,1,32,10,0,1,36,1,1,0,45,25,48,41,1,53,0,0,0,0,0,0,42,58,22,49,14,32,51,43,46,18,30,2,0,0,0,0,0,0,0,0,0,0,0,0,0,0,0,0,0,0,0,0,0,0,0,0],"split_type":[0,0,0,0,0,0,0,0,0,0,0,0,0,0,0,0,0,0,0,0,0,0,0,0,0,0,0,0,0,0,0,0,0,0,0,0,0,0,0,0,0,0,0,0,0,0,0,0,0,0,0,0,0,0,0,0,0,0,0,0,0,0,0],"sum_hessian":[6.57E2,6.35E2,2.2E1,3.75E2,2.6E2,1.3E1,9E0,2.47E2,1.28E2,1E0,2.59E2,9E0,4E0,5E0,4E0,1E2,1.47E2,5.8E1,7E1,1.95E2,6.4E1,4E0,5E0,2E0,2E0,1E0,4E0,5.3E1,4.7E1,8.8E1,5.9E1,3.1E1,2.7E1,2.3E1,4.7E1,1.52E2,4.3E1,4.9E1,1.5E1,4.8E1,5E0,2.7E1,2E1,3.6E1,5.2E1,4.8E1,1.1E1,1.3E1,1.8E1,1.5E1,1.2E1,3E0,2E1,2E1,2.7E1,6.6E1,8.6E1,1.3E1,3E1,2.4E1,2.5E1,1E0,1.4E1],"tree_param":{"num_deleted":"0","num_feature":"60","num_nodes":"63","size_leaf_vector":"0"}},{"base_weights":[4.0149203E-5,-1.3054116E-3,3.7074042E-4,6.107225E-4,-2.9062938E-3,-1.960506E-3,7.601765E-4,3.73016E-3,-1.8844402E-3,-1.2266016E-2,-2.1644295E-3,-4.2421073E-3,1.4883379E-3,-1.6046241E-3,1.3574258E-3,2.265142E-3,9.723211E-3,7.3245686E-4,-4.874228E-3,-2.5137265E-3,-1.7929634E-2,-3.2987518E-3,1.6573947E-3,-2.7652312E-4,-7.865705E-3,-6.175965E-4,4.8742E-3,2.4510256E-5,-5.144623E-3,7.2593255E-5,3.0427945E-3,1.4400252E-3,7.285913E-3,1.3506293E-2,2.6990573E-3,-9.2135725E-4,2.3130253E-3,-2.0712365E-4,-9.515442E-3,-4.3996572E-3,6.290674E-4,3.6578128E-4,-5.0891186E-3,6.7642033E-3,-6.085585E-4,1.0550283E-3,-4.22509E-3,-1.6132632E-2,-3.5126968E-3,5.369533E-3,-1.9900035E-3,-2.3129582E-4,7.4558603E-3,7.935701E-3,-1.0862623E-3,-7.368484E-3,1.6140719E-3,1.7173963E-3,-3.7142169E-3,-2.4881454E-3,4.5919013E-3,4.051558E-5,2.7086234E-3,-2.8741062E-3,-7.390673E-5,2.7886499E-3,2.7368465E-4,-3.1324849E-3,1.7776377E-3,-1.0119489E-2,-2.6435554E-3,-7.1336236E-4,5.999287E-3,-6.813602E-3,-1.6466391E-3,-2.793245E-3,1.350967E-3,2.2691241E-3,-1.7513508E-3,-6.6486996E-4,-5.8389828E-3,-1.5477426E-3,-1.7995082E-2,-5.7339235E-3,-2.9707607E-4,2.2113994E-3,-2.6976173E-3,1.2502E-3,-3.0786395E-3,1.6882122E-3,8.038637E-3,1.18832495E-2,1.0173395E-3,2.2006159E-4,-5.524594E-3,-8.740666E-3,9.915018E-4,3.9052349E-3,-5.4167287E-4,3.5879975E-3,-1.5973833E-3,-7.942071E-3,3.486966E-3,-6.005666E-3,4.5027863E-4,7.4521024E-3,7.991977E-4],"categories":[],"categories_nodes":[],"categories_segments":[],"categories_sizes":[],"default_left":[1,1,1,1,1,1,1,1,1,1,1,1,1,1,1,1,1,1,1,1,0,1,1,1,1,1,1,1,1,1,1,1,0,0,0,1,1,1,1,0,0,1,1,0,1,1,1,1,1,0,1,1,1,1,1,1,1,1,1,1,1,0,0,0,0,0,0,0,0,0,0,0,0,0,0,0,0,0,0,0,0,0,0,0,0,0,0,0,0,0,0,0,0,0,0,0,0,0,0,0,0,0,0,0,0,0,0],"id":53,"left_children":[1,3,5,7,9,11,13,15,17,19,21,23,25,27,29,31,33,35,37,39,-1,41,43,45,47,49,51,53,55,57,59,61,-1,-1,-1,63,65,67,69,-1,-1,71,73,-1,75,77,79,81,83,-1,85,87,89,91,93,95,97,99,101,103,105,-1,-1,-1,-1,-1,-1,-1,-1,-1,-1,-1,-1,-1,-1,-1,-1,-1,-1,-1,-1,-1,-1,-1,-1,-1,-1,-1,-1,-1,-1,-1,-1,-1,-1,-1,-1,-1,-1,-1,-1,-1,-1,-1,-1,-1,-1],"loss_changes":[2.931825E-4,4.0055058E-4,4.8175442E-4,4.7403952E-4,4.6644977E-4,6.043491E-4,6.433966E-4,2.1503353E-4,2.6958503E-4,2.31096E-4,2.9592443E-4,6.588302E-4,2.2405281E-4,5.307024E-4,7.858253E-4,8.479073E-5,9.6410484E-5,5.179648E-5,3.4460562E-4,2.0548956E-5,0E0,3.4302613E-4,1.8926505E-4,1.2538514E-4,8.0699485E-4,1.7502096E-4,1.5989237E-4,5.7102233E-4,4.4777483E-4,1.2956901E-3,1.3566037E-3,3.717398E-5,0E0,0E0,0E0,1.6336166E-5,8.936397E-6,5.782372E-5,6.4561027E-6,0E0,0E0,1.1370818E-4,1.965579E-4,0E0,5.5144967E-5,6.530387E-5,3.0592717E-5,1.8945709E-4,1.197212E-4,0E0,5.6506004E-5,2.4940553E-5,1.3319106E-5,2.0639523E-4,3.3169598E-4,2.610376E-4,4.162866E-5,9.048229E-4,1.9457634E-3,3.6446308E-4,1.3283351E-3,0E0,0E0,0E0,0E0,0E0,0E0,0E0,0E0,0E0,0E0,0E0,0E0,0E0,0E0,0E0,0E0,0E0,0E0,0E0,0E0,0E0,0E0,0E0,0E0,0E0,0E0,0E0,0E0,0E0,0E0,0E0,0E0,0E0,0E0,0E0,0E0,0E0,0E0,0E0,0E0,0E0,0E0,0E0,0E0,0E0,0E0],"parents":[2147483647,0,0,1,1,2,2,3,3,4,4,5,5,6,6,7,7,8,8,9,9,10,10,11,11,12,12,13,13,14,14,15,15,16,16,17,17,18,18,19,19,21,21,22,22,23,23,24,24,25,25,26,26,27,27,28,28,29,29,30,30,31,31,35,35,36,36,37,37,38,38,41,41,42,42,44,44,45,45,46,46,47,47,48,48,50,50,51,51,52,52,53,53,54,54,55,55,56,56,57,57,58,58,59,59,60,60],"right_children":[2,4,6,8,10,12,14,16,18,20,22,24,26,28,30,32,34,36,38,40,-1,42,44,46,48,50,52,54,56,58,60,62,-1,-1,-1,64,66,68,70,-1,-1,72,74,-1,76,78,80,82,84,-1,86,88,90,92,94,96,98,100,102,104,106,-1,-1,-1,-1,-1,-1,-1,-1,-1,-1,-1,-1,-1,-1,-1,-1,-1,-1,-1,-1,-1,-1,-1,-1,-1,-1,-1,-1,-1,-1,-1,-1,-1,-1,-1,-1,-1,-1,-1,-1,-1,-1,-1,-1,-1,-1],"split_conditions":[-5.157362E-1,-1.4740902E-1,-5.8356416E-1,-1.4457515E-1,-9.2640966E-2,-7.3676765E-2,-4.5022136E-1,-2.1378614E-1,-3.422836E-1,-3.123101E-1,5.5066466E-1,-5.8641218E-2,1.601263E-1,3.8795957E-1,6.081156E-2,2.1234353E0,-2.5691015E-1,2.1888189E-2,7.175374E-2,-4.8768294E-1,-5.3788903E-3,-3.7150198E-1,-7.415438E-2,5.054364E-1,2.8174284E-1,-1.0404745E0,-3.228883E-1,-6.847378E-1,6.309078E-1,-1.4393522E-1,-3.7155747E-1,-4.3686667E-1,2.185774E-3,4.0518884E-3,8.097172E-4,-4.932632E-1,6.602986E-1,-3.3477765E-1,1.5598726E0,-1.3198972E-3,1.8872024E-4,1.1652293E0,3.8672543E-1,2.029261E-3,-5.3350836E-1,3.97716E-1,-8.4439933E-1,-7.4147594E-1,9.560494E-2,1.6108599E-3,-1.1828339E0,1.0628223E-2,-3.486244E-1,7.531991E-1,4.3602657E-1,4.0350968E-1,2.7048385E-1,2.0181736E-1,1.7111774E-1,1.5866154E-1,1.5046552E-1,1.2154675E-5,8.1258704E-4,-8.622319E-4,-2.217202E-5,8.36595E-4,8.21054E-5,-9.397455E-4,5.332914E-4,-3.0358469E-3,-7.9306663E-4,-2.1400872E-4,1.7997862E-3,-2.0440808E-3,-4.9399177E-4,-8.3797355E-4,4.052901E-4,6.8073726E-4,-5.254053E-4,-1.9946099E-4,-1.751695E-3,-4.643228E-4,-5.398525E-3,-1.7201771E-3,-8.912283E-5,6.6341984E-4,-8.092852E-4,3.7506002E-4,-9.235919E-4,5.064637E-4,2.4115914E-3,3.564975E-3,3.0520186E-4,6.601848E-5,-1.6573783E-3,-2.6222E-3,2.9745058E-4,1.1715705E-3,-1.6250186E-4,1.0763993E-3,-4.79215E-4,-2.3826214E-3,1.0460898E-3,-1.8017E-3,1.350836E-4,2.2356308E-3,2.3975932E-4],"split_indices":[29,15,17,12,15,44,56,12,21,0,10,9,24,32,32,57,1,52,47,0,0,39,18,40,9,38,57,51,38,32,58,36,0,0,0,0,6,22,7,0,0,52,44,0,16,3,9,0,22,0,8,0,1,12,47,25,31,16,55,18,56,0,0,0,0,0,0,0,0,0,0,0,0,0,0,0,0,0,0,0,0,0,0,0,0,0,0,0,0,0,0,0,0,0,0,0,0,0,0,0,0,0,0,0,0,0,0],"split_type":[0,0,0,0,0,0,0,0,0,0,0,0,0,0,0,0,0,0,0,0,0,0,0,0,0,0,0,0,0,0,0,0,0,0,0,0,0,0,0,0,0,0,0,0,0,0,0,0,0,0,0,0,0,0,0,0,0,0,0,0,0,0,0,0,0,0,0,0,0,0,0,0,0,0,0,0,0,0,0,0,0,0,0,0,0,0,0,0,0,0,0,0,0,0,0,0,0,0,0,0,0,0,0,0,0,0,0],"sum_hessian":[6.57E2,1.29E2,5.28E2,5.9E1,7E1,7.5E1,4.53E2,2.6E1,3.3E1,4E0,6.6E1,4.5E1,3E1,9.1E1,3.62E2,2.2E1,4E0,1.8E1,1.5E1,2E0,2E0,5.1E1,1.5E1,2.2E1,2.3E1,1.9E1,1.1E1,6.3E1,2.8E1,2.06E2,1.56E2,2E1,2E0,2E0,2E0,9E0,9E0,8E0,7E0,1E0,1E0,1.7E1,3.4E1,4E0,1.1E1,1.7E1,5E0,7E0,1.6E1,3E0,1.6E1,4E0,7E0,7E0,5.6E1,2.1E1,7E0,1.44E2,6.2E1,3.4E1,1.22E2,1E1,1E1,2E0,7E0,7E0,2E0,3E0,5E0,6E0,1E0,1.5E1,2E0,2.2E1,1.2E1,5E0,6E0,1.2E1,5E0,2E0,3E0,1E0,6E0,9E0,7E0,2E0,1.4E1,3E0,1E0,1E0,6E0,4E0,3E0,4.4E1,1.2E1,1.8E1,3E0,3E0,4E0,9.2E1,5.2E1,3.9E1,2.3E1,1.5E1,1.9E1,6.9E1,5.3E1],"tree_param":{"num_deleted":"0","num_feature":"60","num_nodes":"107","size_leaf_vector":"0"}},{"base_weights":[1.7778282E-5,-1.5705262E-4,2.3472034E-3,2.0553104E-3,-3.571831E-4,-4.800882E-4,5.735888E-3,-2.0781462E-3,3.6754874E-3,-1.4211329E-3,2.6545385E-4,3.460473E-3,-1.353848E-3,2.4601647E-3,1.1935883E-2,-5.2670616E-4,-8.108337E-3,6.912518E-3,1.4045765E-3,-1.1092047E-3,-1.3863581E-2,-3.0531082E-4,4.7821277E-3,-1.7905806E-3,2.0089846E-3,7.347733E-3,6.2596175E-4,5.93777E-3,1.7954111E-2,-2.759916E-3,1.2140395E-3,1.1684395E-2,2.4330004E-3,2.931515E-3,-2.5043567E-3,5.784527E-4,-2.7697082E-3,-1.5975982E-2,-2.7069896E-3,4.4947898E-4,-3.4169378E-3,-9.82341E-4,7.5939954E-3,-2.41558E-3,7.034838E-5,-1.566334E-3,1.9179014E-3,-3.3760704E-3,-1.018405E-3,3.510428E-4,2.5353532E-3,1.3399905E-2,4.930414E-3,-5.1363185E-4,3.991922E-3,1.1629001E-3,5.2919793E-3,9.4070035E-4,-4.0705195E-3,-6.279814E-5,6.4842403E-3,1.8396693E-3,-4.04435E-3,6.486089E-4,-1.2257859E-2,-4.295781E-3,5.5015595E-3,1.9938813E-3,-5.282951E-3,3.346176E-3,1.3468444E-2,-2.999197E-3,-6.083399E-5,-2.7747205E-4,-2.3330848E-3,2.5256213E-3,6.316105E-5],"categories":[],"categories_nodes":[],"categories_segments":[],"categories_sizes":[],"default_left":[1,1,1,1,1,1,1,1,1,1,1,0,1,1,1,1,0,1,1,1,1,1,1,1,0,0,1,0,0,1,1,1,1,1,1,1,1,0,0,1,1,1,1,1,0,1,1,0,0,0,0,0,0,0,0,0,0,0,0,0,0,0,0,0,0,0,0,0,0,0,0,0,0,0,0,0,0],"id":54,"left_children":[1,3,5,7,9,11,13,15,17,19,21,-1,23,25,27,29,-1,31,33,35,37,39,41,43,-1,-1,45,-1,-1,47,49,51,53,55,57,59,61,-1,-1,63,65,67,69,71,-1,73,75,-1,-1,-1,-1,-1,-1,-1,-1,-1,-1,-1,-1,-1,-1,-1,-1,-1,-1,-1,-1,-1,-1,-1,-1,-1,-1,-1,-1,-1,-1],"loss_changes":[2.6834276E-4,2.721468E-4,4.4347052E-4,3.4918165E-4,3.7333916E-4,9.420566E-5,3.9713463E-4,1.3606151E-4,2.6227813E-4,7.919021E-4,9.19213E-4,0E0,3.5907735E-5,1.298725E-4,1.4607864E-4,5.3887507E-5,0E0,2.922074E-4,1.4462168E-4,5.732837E-4,7.458922E-5,7.4604974E-4,6.558168E-4,2.3431523E-5,0E0,0E0,3.699184E-5,0E0,0E0,3.0000301E-6,8.232296E-6,1.50385895E-5,4.339249E-5,6.481675E-5,4.1597785E-5,3.8669052E-4,6.1259663E-4,0E0,0E0,6.557359E-4,5.0958694E-4,1.8972757E-4,6.286794E-4,2.0431602E-5,5.83392E-7,4.2938136E-6,8.857782E-6,0E0,0E0,0E0,0E0,0E0,0E0,0E0,0E0,0E0,0E0,0E0,0E0,0E0,0E0,0E0,0E0,0E0,0E0,0E0,0E0,0E0,0E0,0E0,0E0,0E0,0E0,0E0,0E0,0E0,0E0],"parents":[2147483647,0,0,1,1,2,2,3,3,4,4,5,5,6,6,7,7,8,8,9,9,10,10,12,12,13,13,14,14,15,15,17,17,18,18,19,19,20,20,21,21,22,22,23,23,26,26,29,29,30,30,31,31,32,32,33,33,34,34,35,35,36,36,39,39,40,40,41,41,42,42,43,43,45,45,46,46],"right_children":[2,4,6,8,10,12,14,16,18,20,22,-1,24,26,28,30,-1,32,34,36,38,40,42,44,-1,-1,46,-1,-1,48,50,52,54,56,58,60,62,-1,-1,64,66,68,70,72,-1,74,76,-1,-1,-1,-1,-1,-1,-1,-1,-1,-1,-1,-1,-1,-1,-1,-1,-1,-1,-1,-1,-1,-1,-1,-1,-1,-1,-1,-1,-1,-1],"split_conditions":[1.128943E0,-1.0821693E0,-2.491472E-1,-4.2714375E-1,-2.1594158E-1,-1.4634664E0,-7.47665E-2,8.4316087E-1,3.6540862E-2,-2.2978804E-1,5.961206E-1,1.0381419E-3,2.4686198E0,-5.124362E-2,-4.817307E-2,-1.0496523E-1,-2.4325014E-3,-2.5514814E-1,3.7095052E-1,-6.488833E-2,5.118274E-1,2.7837256E-1,-4.3489698E-1,1.02283955E-1,6.026954E-4,2.20432E-3,1.6025443E-2,1.781331E-3,5.3862333E-3,-1.7294133E-1,5.403501E-1,3.897056E-1,-6.674433E-1,1.2142739E-1,-4.0897456E-1,7.275456E-1,-4.9979028E-1,-4.7927946E-3,-8.120969E-4,1.9298589E0,5.776619E-1,2.5654164E-1,-4.1884653E-2,7.7049255E-1,2.1104515E-5,1.965809E-1,8.107433E-1,-1.0128212E-3,-3.055215E-4,1.0531284E-4,7.6060597E-4,4.0199715E-3,1.4791242E-3,-1.5408956E-4,1.1975766E-3,3.4887006E-4,1.5875938E-3,2.8221012E-4,-1.2211559E-3,-1.8839444E-5,1.9452722E-3,5.519008E-4,-1.2133049E-3,1.9458268E-4,-3.677358E-3,-1.2887343E-3,1.6504679E-3,5.981644E-4,-1.5848854E-3,1.0038528E-3,4.0405337E-3,-8.997591E-4,-1.8250197E-5,-8.324162E-5,-6.9992547E-4,7.5768644E-4,1.8948316E-5],"split_indices":[59,13,41,4,30,47,43,11,27,30,20,0,3,41,18,58,0,30,43,19,0,20,17,42,0,0,13,0,0,1,3,9,20,11,2,31,34,0,0,33,39,46,48,8,0,1,0,0,0,0,0,0,0,0,0,0,0,0,0,0,0,0,0,0,0,0,0,0,0,0,0,0,0,0,0,0,0],"split_type":[0,0,0,0,0,0,0,0,0,0,0,0,0,0,0,0,0,0,0,0,0,0,0,0,0,0,0,0,0,0,0,0,0,0,0,0,0,0,0,0,0,0,0,0,0,0,0,0,0,0,0,0,0,0,0,0,0,0,0,0,0,0,0,0,0,0,0,0,0,0,0,0,0,0,0,0,0],"sum_hessian":[6.57E2,6.12E2,4.5E1,5E1,5.62E2,2.5E1,2E1,1.4E1,3.6E1,2.07E2,3.55E2,4E0,2.1E1,1.4E1,6E0,1.2E1,2E0,1.4E1,2.2E1,2.03E2,4E0,3.16E2,3.9E1,1.9E1,2E0,3E0,1.1E1,4E0,2E0,5E0,7E0,6E0,8E0,1.6E1,6E0,1.01E2,1.02E2,3E0,1E0,2.55E2,6.1E1,1.3E1,2.6E1,1.4E1,5E0,4E0,7E0,3E0,2E0,5E0,2E0,4E0,2E0,3E0,5E0,1E1,6E0,2E0,4E0,9.2E1,9E0,2.2E1,8E1,2.52E2,3E0,5.6E1,5E0,8E0,5E0,1.6E1,1E1,1.1E1,3E0,2E0,2E0,5E0,2E0],"tree_param":{"num_deleted":"0","num_feature":"60","num_nodes":"77","size_leaf_vector":"0"}},{"base_weights":[2.9711786E-5,-1.2247768E-4,2.057156E-3,3.303465E-4,-1.1966402E-3,5.350948E-4,5.497932E-3,1.2734061E-4,1.2637513E-2,1.7624941E-3,-2.594965E-3,-4.1309795E-3,9.693893E-4,1.4276674E-3,1.25388745E-2,-1.5439498E-3,7.2117295E-4,1.869141E-2,3.4242384E-3,-4.518441E-4,6.4480403E-3,7.5748627E-4,-4.514178E-3,-3.062925E-4,2.350536E-3,2.519611E-3,-1.6819834E-4,1.7307142E-2,3.5909812E-3,-2.900113E-3,2.093125E-3,1.8290089E-3,-1.0000018E-3,-2.8563226E-3,1.3703416E-3,1.0705569E-2,-7.442584E-4,-6.0044033E-3,2.5645515E-3,5.4756814E-4,-5.808392E-3,2.0347752E-4,-1.2747837E-3,2.9109842E-3,-8.6158514E-4,-1.3609935E-3,-6.7891153E-3,-2.1668663E-4,4.2721163E-3,3.369721E-3,-5.669425E-4,-2.5220504E-3,2.647033E-3,1.5562624E-4,-5.8855633E-3,5.424219E-3,2.8835516E-4,3.330967E-3,1.3976499E-2,-2.1825857E-3,1.2397151E-3,-1.0083802E-3,-8.001502E-3,-1.0238348E-3,5.0577163E-3,2.0554655E-3,-2.559488E-3,-8.272111E-3,-2.2170583E-3,-2.198389E-4,1.1050701E-3,-3.634592E-4,-1.6395813E-3,4.197056E-3,1.2090579E-3],"categories":[],"categories_nodes":[],"categories_segments":[],"categories_sizes":[],"default_left":[1,1,1,1,1,1,1,1,1,1,1,0,1,1,1,1,1,0,0,1,1,1,1,1,1,0,0,0,0,1,1,1,1,1,1,1,1,1,1,1,1,1,1,1,0,0,0,0,0,0,0,0,0,0,0,0,0,0,0,0,0,0,0,0,0,0,0,0,0,0,0,0,0,0,0],"id":55,"left_children":[1,3,5,7,9,11,13,15,17,19,21,-1,23,25,27,29,31,-1,-1,33,35,37,39,41,43,-1,-1,-1,-1,45,47,49,51,53,55,57,59,61,63,65,67,69,71,73,-1,-1,-1,-1,-1,-1,-1,-1,-1,-1,-1,-1,-1,-1,-1,-1,-1,-1,-1,-1,-1,-1,-1,-1,-1,-1,-1,-1,-1,-1,-1],"loss_changes":[2.0328158E-4,2.9856263E-4,2.3796334E-4,1.0777113E-3,7.5765885E-4,7.087738E-5,3.8331762E-4,4.2390413E-4,3.264296E-4,6.1506114E-4,8.012437E-4,3.04899E-8,5.5338962E-5,1.7849745E-5,1.511802E-4,5.585066E-4,6.024644E-4,0E0,0E0,1.835518E-4,5.8977463E-4,5.7748065E-4,5.2070816E-4,8.652423E-6,2.951148E-5,0E0,9.528722E-7,0E0,0E0,4.8158248E-4,1.5695057E-4,7.106729E-4,6.949955E-4,1.651465E-4,1.0370569E-4,2.429065E-4,2.553461E-5,9.1706956E-5,3.3619645E-4,8.490801E-5,5.3908676E-4,4.8228444E-6,1.3987719E-6,2.33799E-5,0E0,0E0,0E0,0E0,0E0,0E0,0E0,0E0,0E0,0E0,0E0,0E0,0E0,0E0,0E0,0E0,0E0,0E0,0E0,0E0,0E0,0E0,0E0,0E0,0E0,0E0,0E0,0E0,0E0,0E0,0E0],"parents":[2147483647,0,0,1,1,2,2,3,3,4,4,5,5,6,6,7,7,8,8,9,9,10,10,12,12,13,13,14,14,15,15,16,16,19,19,20,20,21,21,22,22,23,23,24,24,29,29,30,30,31,31,32,32,33,33,34,34,35,35,36,36,37,37,38,38,39,39,40,40,41,41,42,42,43,43],"right_children":[2,4,6,8,10,12,14,16,18,20,22,-1,24,26,28,30,32,-1,-1,34,36,38,40,42,44,-1,-1,-1,-1,46,48,50,52,54,56,58,60,62,64,66,68,70,72,74,-1,-1,-1,-1,-1,-1,-1,-1,-1,-1,-1,-1,-1,-1,-1,-1,-1,-1,-1,-1,-1,-1,-1,-1,-1,-1,-1,-1,-1,-1,-1],"split_conditions":[1.1595747E0,1.9667852E-1,1.05241016E-1,1.8719631E-1,-2.672521E-1,-2.472989E0,-7.040563E-2,-3.7450457E-1,6.3493586E-1,-4.6958464E-1,-2.1594158E-1,-1.239294E-3,7.379716E-2,-2.0170964E-2,2.0985061E-1,3.3146054E-1,1.4053184E-1,5.607423E-3,1.0272716E-3,-3.885048E-1,5.326847E-2,-3.401838E-1,-5.0193393E-1,-4.3686222E-2,3.71494E0,7.5588335E-4,-5.0459505E-5,5.192143E-3,1.0772945E-3,-5.2346045E-1,-3.6073267E-1,2.6326483E-1,1.9275773E-1,-4.5635924E-2,-2.116311E-1,-1.2538236E-1,-5.8166087E-2,-6.9825925E-2,-4.6170905E-2,2.8449595E-1,5.1200427E-2,-3.7642285E-2,-1.0956025E0,-4.335567E-1,-2.5847554E-4,-4.0829807E-4,-2.0367347E-3,-6.5005996E-5,1.2816349E-3,1.0109163E-3,-1.7008276E-4,-7.5661513E-4,7.9410995E-4,4.6687874E-5,-1.7656691E-3,1.6272658E-3,8.650655E-5,9.992901E-4,4.19295E-3,-6.547757E-4,3.7191456E-4,-3.0251406E-4,-2.4004506E-3,-3.0715045E-4,1.5173149E-3,6.166397E-4,-7.678464E-4,-2.4816336E-3,-6.651175E-4,-6.595167E-5,3.3152103E-4,-1.0903776E-4,-4.918744E-4,1.2591168E-3,3.6271737E-4],"split_indices":[58,58,41,58,46,40,13,21,2,46,50,0,7,23,0,46,27,0,0,19,38,40,23,23,58,0,0,0,0,21,58,21,28,41,19,48,3,34,41,31,43,55,11,49,0,0,0,0,0,0,0,0,0,0,0,0,0,0,0,0,0,0,0,0,0,0,0,0,0,0,0,0,0,0,0],"split_type":[0,0,0,0,0,0,0,0,0,0,0,0,0,0,0,0,0,0,0,0,0,0,0,0,0,0,0,0,0,0,0,0,0,0,0,0,0,0,0,0,0,0,0,0,0,0,0,0,0,0,0,0,0,0,0,0,0,0,0,0,0,0,0,0,0,0,0,0,0,0,0,0,0,0,0],"sum_hessian":[6.57E2,6.12E2,4.5E1,4.31E2,1.81E2,3.2E1,1.3E1,4.25E2,6E0,5.8E1,1.23E2,2E0,3E1,9E0,4E0,1.11E2,3.14E2,3E0,3E0,4E1,1.8E1,4.5E1,7.8E1,1.6E1,1.4E1,5E0,4E0,2E0,2E0,8.1E1,3E1,1.91E2,1.23E2,1.7E1,2.3E1,1.1E1,7E0,9E0,3.6E1,1.6E1,6.2E1,1.1E1,5E0,1.2E1,2E0,5.9E1,2.2E1,1.5E1,1.5E1,1.16E2,7.5E1,8.7E1,3.6E1,9E0,8E0,4E0,1.9E1,4E0,7E0,4E0,3E0,3E0,6E0,1.5E1,2.1E1,1.1E1,5E0,3.6E1,2.6E1,8E0,3E0,2E0,3E0,6E0,6E0],"tree_param":{"num_deleted":"0","num_feature":"60","num_nodes":"75","size_leaf_vector":"0"}},{"base_weights":[4.0802744E-5,-1.1412101E-3,2.8535703E-4,-8.295584E-4,-1.22919185E-2,1.9648017E-3,-1.1425164E-4,1.1208518E-3,-1.9879537E-3,-1.3439804E-3,-1.7093897E-2,2.4831542E-3,-5.646872E-3,-4.045883E-3,1.8185232E-4,2.70411E-3,-2.6190402E-3,-3.2895615E-3,1.6789704E-3,3.5275228E-3,-1.1211729E-3,-7.515301E-4,-1.750946E-2,-1.129196E-3,-1.22902095E-2,-3.7223747E-4,2.1683984E-3,4.2933887E-3,2.9556168E-4,-1.0076314E-2,-1.1579078E-3,-2.6833538E-3,-1.7103076E-2,3.2910716E-4,6.6586807E-3,8.066646E-4,5.549833E-3,-4.222992E-3,1.1744959E-3,-2.3738816E-3,1.6621152E-3,5.3928274E-5,-1.4170527E-2,-2.9381588E-3,-1.7313808E-2,1.3776721E-3,-1.1977755E-3,-1.2594142E-3,5.0622704E-3,6.633885E-4,6.543081E-3,1.3641695E-3,-3.7211876E-3,1.5419403E-4,-2.4957086E-3,2.7027068E-4,-3.921538E-3,1.847981E-3,-1.8877279E-3,-2.216921E-3,3.0340203E-3,9.066042E-3,2.766841E-3,-9.75507E-4,-7.2753755E-3,5.397305E-3,-4.678433E-4,3.4110136E-3,-1.6279849E-3,-8.331537E-4,-4.626587E-3,6.521225E-4,1.1338555E-2,-7.943976E-4,-8.789737E-3,-4.6105086E-4,-1.1484454E-2,2.0200416E-2,3.6358607E-3],"categories":[],"categories_nodes":[],"categories_segments":[],"categories_sizes":[],"default_left":[1,1,1,1,1,1,1,1,1,0,0,1,1,1,1,1,1,1,1,1,1,1,0,1,1,1,1,1,1,0,1,1,0,1,0,1,1,1,1,0,0,1,0,1,0,1,1,1,1,0,0,0,0,0,0,0,0,0,0,0,0,0,0,0,0,0,0,0,0,0,0,0,0,0,0,0,0,0,0],"id":56,"left_children":[1,3,5,7,9,11,13,15,17,-1,-1,19,21,23,25,27,29,31,33,35,37,39,-1,41,43,45,47,49,51,-1,53,55,-1,57,-1,59,61,63,65,-1,-1,67,-1,69,-1,71,73,75,77,-1,-1,-1,-1,-1,-1,-1,-1,-1,-1,-1,-1,-1,-1,-1,-1,-1,-1,-1,-1,-1,-1,-1,-1,-1,-1,-1,-1,-1,-1],"loss_changes":[1.905313E-4,3.824936E-4,3.6665637E-4,2.5301563E-4,1.3474142E-4,4.2830277E-4,5.152997E-4,2.5577316E-4,3.3962587E-4,0E0,0E0,3.766152E-4,3.933411E-4,7.315516E-4,4.5430582E-4,1.1356668E-4,1.299814E-4,3.8954703E-4,1.2552521E-4,4.1920948E-4,1.6873713E-4,2.7440354E-5,0E0,3.7107256E-4,3.2497698E-4,4.6826137E-4,8.991441E-4,1.4265426E-4,6.0876613E-5,0E0,2.1448792E-5,1.875736E-4,0E0,5.736197E-5,0E0,2.3570261E-4,4.0548109E-4,9.202851E-5,9.961908E-5,4.8293805E-7,0E0,1.3541857E-4,0E0,1.0361942E-5,0E0,7.442258E-4,6.667519E-4,3.3756354E-4,9.846209E-4,0E0,0E0,0E0,0E0,0E0,0E0,0E0,0E0,0E0,0E0,0E0,0E0,0E0,0E0,0E0,0E0,0E0,0E0,0E0,0E0,0E0,0E0,0E0,0E0,0E0,0E0,0E0,0E0,0E0,0E0],"parents":[2147483647,0,0,1,1,2,2,3,3,4,4,5,5,6,6,7,7,8,8,11,11,12,12,13,13,14,14,15,15,16,16,17,17,18,18,19,19,20,20,21,21,23,23,24,24,25,25,26,26,27,27,28,28,30,30,31,31,33,33,35,35,36,36,37,37,38,38,41,41,43,43,45,45,46,46,47,47,48,48],"right_children":[2,4,6,8,10,12,14,16,18,-1,-1,20,22,24,26,28,30,32,34,36,38,40,-1,42,44,46,48,50,52,-1,54,56,-1,58,-1,60,62,64,66,-1,-1,68,-1,70,-1,72,74,76,78,-1,-1,-1,-1,-1,-1,-1,-1,-1,-1,-1,-1,-1,-1,-1,-1,-1,-1,-1,-1,-1,-1,-1,-1,-1,-1,-1,-1,-1,-1],"split_conditions":[-5.157362E-1,-5.2586246E-1,-2.5130832E-1,-2.6758775E-1,5.249847E-1,1.7285843E0,-1.7691445E-1,5.0419146E-1,3.507718E-1,-4.0319414E-4,-5.1281694E-3,3.2973668E-1,3.6600578E-1,3.7186673E-1,3.2548648E-1,1.5727901E-1,-1.0219402E0,3.4656692E-1,-7.5974506E-1,-6.268045E-2,-1.6839463E-1,7.4971056E-1,-5.252838E-3,1.2828879E0,-3.4741396E-1,-1.881257E-1,-8.553599E-2,-1.4611053E-1,3.040773E-1,-3.0228945E-3,-8.25899E-1,-4.426164E-1,-5.130923E-3,3.3492863E-1,1.9976043E-3,-3.933929E-1,-6.552283E-2,9.009234E-3,1.0829281E-2,-7.121645E-4,4.986346E-4,-2.7411798E-1,-4.2511583E-3,-3.4934875E-1,-5.1941425E-3,-2.3311637E-1,2.5443327E-1,1.5829637E0,-5.2666347E-2,1.9901656E-4,1.9629244E-3,4.0925088E-4,-1.1163563E-3,4.625821E-5,-7.487126E-4,8.1081205E-5,-1.1764615E-3,5.543943E-4,-5.663184E-4,-6.650763E-4,9.102061E-4,2.7198126E-3,8.3005236E-4,-2.926521E-4,-2.1826127E-3,1.6191915E-3,-1.4035299E-4,1.0233042E-3,-4.883955E-4,-2.4994614E-4,-1.3879761E-3,1.9563675E-4,3.4015668E-3,-2.3831929E-4,-2.6369211E-3,-1.3831527E-4,-3.4453364E-3,6.0601253E-3,1.0907582E-3],"split_indices":[7,7,7,45,0,37,7,26,43,0,0,56,26,59,26,21,49,43,7,11,1,4,0,5,3,41,14,10,35,0,45,5,0,33,0,55,8,48,1,0,0,56,0,0,0,41,26,44,14,0,0,0,0,0,0,0,0,0,0,0,0,0,0,0,0,0,0,0,0,0,0,0,0,0,0,0,0,0,0],"split_type":[0,0,0,0,0,0,0,0,0,0,0,0,0,0,0,0,0,0,0,0,0,0,0,0,0,0,0,0,0,0,0,0,0,0,0,0,0,0,0,0,0,0,0,0,0,0,0,0,0,0,0,0,0,0,0,0,0,0,0,0,0,0,0,0,0,0,0,0,0,0,0,0,0,0,0,0,0,0,0],"sum_hessian":[6.57E2,1.12E2,5.45E2,1.1E2,2E0,1.04E2,4.41E2,4.1E1,6.9E1,1E0,1E0,9.8E1,6E0,3E1,4.11E2,2.9E1,1.2E1,5.1E1,1.8E1,7.6E1,2.2E1,5E0,1E0,2.3E1,7E0,3.22E2,8.9E1,1.7E1,1.2E1,1E0,1.1E1,5E1,1E0,1.5E1,3E0,3.3E1,4.3E1,9E0,1.3E1,3E0,2E0,2.2E1,1E0,3E0,4E0,1.03E2,2.19E2,4.1E1,4.8E1,7E0,1E1,1E1,2E0,6E0,5E0,1.5E1,3.5E1,9E0,6E0,1.4E1,1.9E1,1.8E1,2.5E1,5E0,4E0,3E0,1E1,7E0,1.5E1,2E0,1E0,9.7E1,6E0,2.09E2,1E1,3.9E1,2E0,3E0,4.5E1],"tree_param":{"num_deleted":"0","num_feature":"60","num_nodes":"79","size_leaf_vector":"0"}},{"base_weights":[-3.3073868E-6,3.0776885E-4,-8.0031727E-4,-2.895908E-5,1.8943903E-3,-5.8026197E-3,-2.9239152E-4,4.7094945E-5,-1.4883041E-2,-9.507894E-4,3.8880005E-3,-9.435539E-6,-1.6421884E-2,1.1629317E-3,-1.6136138E-3,5.73074E-4,-1.8249595E-3,1.9891425E-3,-4.56628E-3,1.4859227E-3,7.942361E-3,1.0812144E-2,-3.2549656E-3,-2.1515783E-2,-4.156058E-3,-2.7923827E-4,3.902726E-3,-4.8600156E-3,-3.401729E-4,-7.023727E-4,1.388478E-3,-3.1989326E-3,1.4687835E-3,5.5519245E-3,-8.487056E-4,-1.5365066E-3,-1.0924481E-2,7.766223E-3,3.1137187E-4,1.5717112E-3,1.1853528E-2,-7.267644E-3,-1.3433406E-3,3.7798386E-3,-1.067335E-3,-5.6157535E-4,6.414092E-3,-5.8147166E-4,-8.764712E-3,1.1841054E-3,-2.5293091E-3,7.3032937E-4,-2.2464737E-3,-1.954105E-3,2.1983262E-3,-7.376307E-4,-5.8894167E-3,-1.2530355E-3,4.2869896E-3,9.614825E-4,6.7261243E-3,-2.454007E-3,1.8895179E-3,1.4881662E-3,-4.809207E-3,2.0481795E-3,8.683689E-3,1.1253384E-3,-6.8467953E-3,-5.5056514E-4,3.8316287E-3,1.8171122E-3,1.3881941E-2,3.5618246E-4,-2.434291E-3,1.404638E-3,6.3976794E-3,-2.225092E-3,1.7379012E-3,-2.0417608E-3,2.4871435E-4,1.9126236E-3,1.0703047E-2,3.1534955E-3,-2.0173113E-3,-1.1463867E-2,1.7435104E-4,3.2232744E-3,-9.1426895E-4,-1.1942089E-2,-1.7079682E-3],"categories":[],"categories_nodes":[],"categories_segments":[],"categories_sizes":[],"default_left":[1,1,1,1,1,1,1,1,0,1,1,1,1,1,1,1,1,1,1,1,1,0,1,0,0,1,1,1,1,1,1,1,1,1,1,1,0,1,1,1,1,0,1,1,1,1,1,1,1,1,1,0,0,0,0,0,0,0,0,0,0,0,0,0,0,0,0,0,0,0,0,0,0,0,0,0,0,0,0,0,0,0,0,0,0,0,0,0,0,0,0],"id":57,"left_children":[1,3,5,7,9,11,13,15,-1,17,19,21,23,25,27,29,31,33,35,37,39,-1,41,-1,-1,43,45,47,49,51,53,55,57,59,61,63,-1,65,67,69,71,-1,73,75,77,79,81,83,85,87,89,-1,-1,-1,-1,-1,-1,-1,-1,-1,-1,-1,-1,-1,-1,-1,-1,-1,-1,-1,-1,-1,-1,-1,-1,-1,-1,-1,-1,-1,-1,-1,-1,-1,-1,-1,-1,-1,-1,-1,-1],"loss_changes":[1.633848E-4,2.53294E-4,4.6835106E-4,4.435483E-4,4.7448755E-4,1.0456741E-3,3.2683063E-4,3.860485E-4,0E0,3.811084E-4,4.6540378E-4,4.5665426E-4,2.8546434E-4,3.2114098E-4,3.6628172E-4,3.1921652E-4,3.9389273E-4,2.0692461E-4,2.9143703E-4,2.3363082E-4,4.2986986E-4,0E0,6.694445E-5,0E0,0E0,1.767774E-4,3.175239E-4,4.125639E-4,2.1989043E-4,2.6710908E-4,5.10502E-4,3.996035E-4,2.0480857E-4,4.20438E-5,5.7384983E-5,1.2594307E-4,0E0,8.444797E-6,1.708472E-4,4.0478917E-5,1.9871304E-4,0E0,1.5699814E-5,4.697466E-5,1.5326493E-4,1.3700985E-5,3.2704778E-4,7.607817E-5,3.1566154E-4,1.698256E-4,1.8834307E-4,0E0,0E0,0E0,0E0,0E0,0E0,0E0,0E0,0E0,0E0,0E0,0E0,0E0,0E0,0E0,0E0,0E0,0E0,0E0,0E0,0E0,0E0,0E0,0E0,0E0,0E0,0E0,0E0,0E0,0E0,0E0,0E0,0E0,0E0,0E0,0E0,0E0,0E0,0E0,0E0],"parents":[2147483647,0,0,1,1,2,2,3,3,4,4,5,5,6,6,7,7,9,9,10,10,11,11,12,12,13,13,14,14,15,15,16,16,17,17,18,18,19,19,20,20,22,22,25,25,26,26,27,27,28,28,29,29,30,30,31,31,32,32,33,33,34,34,35,35,37,37,38,38,39,39,40,40,42,42,43,43,44,44,45,45,46,46,47,47,48,48,49,49,50,50],"right_children":[2,4,6,8,10,12,14,16,-1,18,20,22,24,26,28,30,32,34,36,38,40,-1,42,-1,-1,44,46,48,50,52,54,56,58,60,62,64,-1,66,68,70,72,-1,74,76,78,80,82,84,86,88,90,-1,-1,-1,-1,-1,-1,-1,-1,-1,-1,-1,-1,-1,-1,-1,-1,-1,-1,-1,-1,-1,-1,-1,-1,-1,-1,-1,-1,-1,-1,-1,-1,-1,-1,-1,-1,-1,-1,-1,-1],"split_conditions":[3.1476757E-1,1.10586464E-1,3.5924232E-1,1.1006247E-1,-9.573231E-2,-5.6332983E-3,-7.061903E-2,3.9991555E-1,-4.4649127E-3,-1.1819491E-1,2.1379882E-1,-9.903219E-1,2.2468537E-1,2.97031E-1,1.6324852E-1,-1.8191013E-1,2.664076E-1,-1.2191206E-1,2.766356E-1,1.8398443E-3,-1.9209796E-1,3.2436433E-3,-5.487629E-1,-6.454735E-3,-1.2468175E-3,-1.1347197E0,-4.303143E-1,-1.3186838E-1,4.014808E-2,-1.0698468E-1,-5.211171E-1,-1.1883725E-1,-1.1570867E-1,-3.8583472E-2,3.3111662E-1,-6.827853E-2,-3.2773444E-3,-1.5013716E-1,4.7738832E-1,2.4763983E-1,-5.146214E-1,-2.1802934E-3,-1.2749904E-1,-1.2549353E0,2.4145111E-1,-3.6268502E-1,-1.4184254E-1,-3.486728E-1,3.1872693E-1,-9.506418E-2,-1.7278144E0,2.1909882E-4,-6.7394215E-4,-5.8623153E-4,6.5949786E-4,-2.2128921E-4,-1.7668251E-3,-3.7591066E-4,1.2860969E-3,2.8844477E-4,2.0178375E-3,-7.362022E-4,5.6685536E-4,4.4644988E-4,-1.4427621E-3,6.1445386E-4,2.6051067E-3,3.3760152E-4,-2.0540387E-3,-1.6516955E-4,1.1494886E-3,5.4513366E-4,4.1645826E-3,1.0685474E-4,-7.302873E-4,4.2139142E-4,1.9193039E-3,-6.675276E-4,5.213704E-4,-6.125283E-4,7.4614305E-5,5.7378714E-4,3.210914E-3,9.460487E-4,-6.0519343E-4,-3.43916E-3,5.2305313E-5,9.6698233E-4,-2.742807E-4,-3.5826268E-3,-5.1239046E-4],"split_indices":[51,51,51,51,21,50,45,28,0,32,4,11,10,26,45,11,12,15,58,21,12,0,43,0,0,21,28,29,47,43,22,26,14,45,6,18,0,0,45,1,15,0,24,21,18,8,27,9,22,37,20,0,0,0,0,0,0,0,0,0,0,0,0,0,0,0,0,0,0,0,0,0,0,0,0,0,0,0,0,0,0,0,0,0,0,0,0,0,0,0,0],"split_type":[0,0,0,0,0,0,0,0,0,0,0,0,0,0,0,0,0,0,0,0,0,0,0,0,0,0,0,0,0,0,0,0,0,0,0,0,0,0,0,0,0,0,0,0,0,0,0,0,0,0,0,0,0,0,0,0,0,0,0,0,0,0,0,0,0,0,0,0,0,0,0,0,0,0,0,0,0,0,0,0,0,0,0,0,0,0,0,0,0,0,0],"sum_hessian":[6.57E2,4.73E2,1.84E2,3.91E2,8.2E1,1.6E1,1.68E2,3.9E2,1E0,3.4E1,4.8E1,1.1E1,5E0,8E1,8.8E1,3.05E2,8.5E1,1.9E1,1.5E1,3.1E1,1.7E1,2E0,9E0,3E0,2E0,5.3E1,2.7E1,2.4E1,6.4E1,1.19E2,1.86E2,6E1,2.5E1,8E0,1.1E1,1.1E1,4E0,4E0,2.7E1,7E0,1E1,2E0,7E0,8E0,4.5E1,1E1,1.7E1,1.2E1,1.2E1,3.8E1,2.6E1,6.2E1,5.7E1,3.6E1,1.5E2,3.2E1,2.8E1,1.3E1,1.2E1,2E0,6E0,7E0,4E0,6E0,5E0,1E0,3E0,2.5E1,2E0,4E0,3E0,2E0,8E0,3E0,4E0,5E0,3E0,3.2E1,1.3E1,3E0,7E0,9E0,8E0,3E0,9E0,9E0,3E0,1.9E1,1.9E1,1E0,2.5E1],"tree_param":{"num_deleted":"0","num_feature":"60","num_nodes":"91","size_leaf_vector":"0"}},{"base_weights":[-1.6195494E-5,-1.6639387E-3,1.2498877E-4,-1.2451708E-3,-1.1510551E-2,1.2034255E-3,-1.003807E-4,1.0599185E-4,-2.45013E-3,6.9121236E-4,7.327608E-3,-4.945778E-3,8.964596E-5,1.5791804E-3,-8.2137546E-4,-4.260807E-3,-7.175349E-4,-4.2451007E-4,2.7116416E-3,1.4389873E-2,2.5752075E-3,-1.3402926E-3,-1.253428E-2,4.2651463E-4,-1.2281098E-3,3.7570793E-5,3.1132759E-3,-1.7056562E-3,5.5915778E-5,-2.1877945E-3,-8.378136E-3,4.3347556E-4,-2.0949005E-3,1.4745989E-3,-1.6796978E-3,6.176502E-3,3.8347393E-4,7.3459744E-4,3.3118632E-3,8.231487E-5,-9.917095E-3,-1.4422464E-2,-1.5466809E-3,1.0843975E-3,-6.0888106E-4,-2.1465037E-3,2.5068705E-3,5.0489977E-4,-5.980581E-4,6.039845E-4,-1.2415498E-3,1.733005E-4,-2.7997307E-3,-8.585206E-4,1.2225604E-3,-2.64287E-4,-2.3559548E-3,-1.454344E-4,3.6969564E-3,-3.03832E-4,-3.8608275E-3,1.5456664E-3,8.577447E-3,1.4447679E-3,-1.6543865E-3,-1.0398515E-3,1.1927219E-3,-1.1219752E-3,1.8554811E-3,1.0427837E-3,-2.4356076E-3,1.1981654E-3,-3.8729985E-3,4.6630595E-3,-1.1562444E-4],"categories":[],"categories_nodes":[],"categories_segments":[],"categories_sizes":[],"default_left":[1,1,1,1,0,1,1,1,1,1,1,1,1,1,1,1,1,1,1,0,1,1,1,1,1,1,0,0,1,1,0,1,1,1,1,1,1,0,0,1,0,0,0,1,1,1,1,0,0,0,0,0,0,0,0,0,0,0,0,0,0,0,0,0,0,0,0,0,0,0,0,0,0,0,0],"id":58,"left_children":[1,3,5,7,-1,9,11,13,15,17,19,21,23,25,27,29,31,33,35,-1,37,39,41,43,45,47,-1,-1,49,51,-1,53,55,57,59,61,63,-1,-1,65,-1,-1,-1,67,69,71,73,-1,-1,-1,-1,-1,-1,-1,-1,-1,-1,-1,-1,-1,-1,-1,-1,-1,-1,-1,-1,-1,-1,-1,-1,-1,-1,-1,-1],"loss_changes":[1.5328208E-4,2.0008656E-4,1.4765015E-4,8.329258E-5,0E0,3.2430812E-4,4.6358295E-4,3.5451772E-5,8.16463E-5,2.2206646E-4,2.314448E-4,5.030448E-4,2.1582047E-4,2.3532792E-5,1.2507721E-5,9.262892E-5,2.4688523E-5,1.5503612E-4,2.7996858E-4,0E0,5.7024918E-6,1.7163626E-4,1.02172664E-4,2.642727E-4,3.4496904E-4,2.084246E-6,0E0,1.17777745E-7,7.14978E-6,1.49335865E-5,0E0,1.0225045E-5,2.7225797E-6,9.414529E-5,1.1586369E-4,1.4239951E-4,4.9971124E-5,0E0,0E0,1.7439052E-5,0E0,0E0,0E0,4.0528938E-4,4.5812794E-4,4.6660478E-4,1.1363106E-4,0E0,0E0,0E0,0E0,0E0,0E0,0E0,0E0,0E0,0E0,0E0,0E0,0E0,0E0,0E0,0E0,0E0,0E0,0E0,0E0,0E0,0E0,0E0,0E0,0E0,0E0,0E0,0E0],"parents":[2147483647,0,0,1,1,2,2,3,3,5,5,6,6,7,7,8,8,9,9,10,10,11,11,12,12,13,13,14,14,15,15,16,16,17,17,18,18,20,20,21,21,22,22,23,23,24,24,25,25,28,28,29,29,31,31,32,32,33,33,34,34,35,35,36,36,39,39,43,43,44,44,45,45,46,46],"right_children":[2,4,6,8,-1,10,12,14,16,18,20,22,24,26,28,30,32,34,36,-1,38,40,42,44,46,48,-1,-1,50,52,-1,54,56,58,60,62,64,-1,-1,66,-1,-1,-1,68,70,72,74,-1,-1,-1,-1,-1,-1,-1,-1,-1,-1,-1,-1,-1,-1,-1,-1,-1,-1,-1,-1,-1,-1,-1,-1,-1,-1,-1,-1],"split_conditions":[-1.1534771E0,-1.1658434E0,-4.3747672E-1,-3.3464935E-1,-3.4531655E-3,-4.4944662E-1,-3.9682287E-1,-2.4096958E-2,-1.3203737E-1,1.6624956E-1,2.1597601E-2,3.7681818E-1,4.1920882E-1,-6.529124E-1,5.2801895E-1,1.208973E-1,7.713289E-1,-2.2422567E-1,3.3845782E-1,4.316962E-3,-3.4796304E-1,-4.0089053E-1,4.7062182E-1,1.3349012E-1,5.9524584E-1,-3.939763E-1,9.339828E-4,-5.1169685E-4,5.6158394E-1,-2.2037644E0,-2.5134408E-3,-4.9438986E-1,-1.7144427E0,-1.0767011E-1,1.7530349E-1,-1.9523934E-1,3.226808E-1,2.2037924E-4,9.93559E-4,1.9944549E-2,-2.9751288E-3,-4.3267393E-3,-4.640043E-4,-3.4870833E-1,2.2098538E-2,-2.842427E-1,5.144804E-2,1.5146994E-4,-1.7941743E-4,1.8119536E-4,-3.7246497E-4,5.1990155E-5,-8.3991926E-4,-2.575562E-4,3.6676813E-4,-7.92861E-5,-7.0678646E-4,-4.3630323E-5,1.109087E-3,-9.11496E-5,-1.1582483E-3,4.6369992E-4,2.5732343E-3,4.334304E-4,-4.96316E-4,-3.1195546E-4,3.5781658E-4,-3.3659258E-4,5.5664434E-4,3.1283512E-4,-7.306823E-4,3.5944962E-4,-1.1618997E-3,1.3989179E-3,-3.4687335E-5],"split_indices":[10,10,10,33,0,10,10,57,22,13,18,54,12,57,34,56,12,9,13,0,3,10,1,11,24,3,0,0,6,1,0,5,8,42,17,49,36,0,0,16,0,0,0,56,48,41,28,0,0,0,0,0,0,0,0,0,0,0,0,0,0,0,0,0,0,0,0,0,0,0,0,0,0,0,0],"split_type":[0,0,0,0,0,0,0,0,0,0,0,0,0,0,0,0,0,0,0,0,0,0,0,0,0,0,0,0,0,0,0,0,0,0,0,0,0,0,0,0,0,0,0,0,0,0,0,0,0,0,0,0,0,0,0,0,0,0,0,0,0,0,0,0,0,0,0,0,0,0,0,0,0,0,0],"sum_hessian":[6.57E2,5.1E1,6.06E2,5E1,1E0,1.04E2,5.02E2,2.4E1,2.6E1,9.7E1,7E0,1.8E1,4.84E2,9E0,1.5E1,1.2E1,1.4E1,6.3E1,3.4E1,2E0,5E0,1.3E1,5E0,3.86E2,9.8E1,5E0,4E0,7E0,8E0,9E0,3E0,8E0,6E0,2.5E1,3.8E1,1.3E1,2.1E1,2E0,3E0,1.2E1,1E0,4E0,1E0,2.36E2,1.5E2,7.9E1,1.9E1,3E0,2E0,6E0,2E0,2E0,7E0,3E0,5E0,1E0,5E0,1.5E1,1E1,2.4E1,1.4E1,5E0,8E0,1.4E1,7E0,6E0,6E0,6.1E1,1.75E2,7.9E1,7.1E1,2.7E1,5.2E1,1E1,9E0],"tree_param":{"num_deleted":"0","num_feature":"60","num_nodes":"75","size_leaf_vector":"0"}},{"base_weights":[-2.0855508E-5,2.2879944E-3,-1.11865585E-4,8.253247E-3,1.0994032E-3,-2.71375E-4,1.3909256E-3,9.527326E-3,2.2155046E-3,-5.7760376E-4,2.0989503E-3,-5.4953103E-5,-1.4988043E-3,2.7669754E-3,-1.3618824E-3,5.650073E-4,-1.2430772E-3,2.8657652E-3,9.2274055E-4,5.498477E-4,-6.84725E-4,-3.3213985E-3,7.828195E-4,4.5144944E-3,-9.257038E-4,-2.5504748E-3,2.9517084E-3,-8.564442E-6,1.0793855E-3,-5.205667E-4,1.6417251E-3,-1.5745217E-3,6.6637114E-4,2.4361635E-4,-5.1115192E-3,-9.5674716E-4,2.6642974E-3,4.6711267E-4,6.4070905E-3,-3.5549973E-3,9.300146E-4,-1.6839434E-3,-6.0329735E-3,4.658073E-3,1.360599E-3,1.2082994E-3,-1.991328E-3,2.4684886E-3,-2.5309003E-3,-2.8569505E-3,3.4320427E-4,2.4639958E-4,4.2534866E-3,-3.9990433E-4,1.8680468E-3,-7.825637E-3,-2.2563776E-3,6.2115905E-5,-5.302444E-3,1.1681848E-4,4.5063896E-3,1.8753962E-3,-2.1141618E-3,2.2288014E-3,9.243228E-3,-5.8470294E-4,2.9695872E-3,5.686283E-4,-1.8854578E-3],"categories":[],"categories_nodes":[],"categories_segments":[],"categories_sizes":[],"default_left":[1,1,1,1,1,1,1,0,0,1,1,1,1,1,1,0,0,0,1,1,1,1,1,1,1,1,1,0,0,1,1,1,1,1,1,1,1,1,1,0,1,1,0,0,0,0,0,0,0,0,0,0,0,0,0,0,0,0,0,0,0,0,0,0,0,0,0,0,0],"id":59,"left_children":[1,3,5,7,9,11,13,-1,-1,15,17,19,21,23,25,-1,-1,-1,27,29,31,33,35,37,39,41,43,-1,-1,45,47,49,51,53,55,57,59,61,63,-1,65,67,-1,-1,-1,-1,-1,-1,-1,-1,-1,-1,-1,-1,-1,-1,-1,-1,-1,-1,-1,-1,-1,-1,-1,-1,-1,-1,-1],"loss_changes":[1.3852058E-4,1.681825E-4,1.5235317E-4,9.6624135E-6,3.808981E-5,1.5239647E-4,2.3483633E-4,0E0,0E0,7.5457438E-6,9.9827375E-6,1.8663004E-4,3.6022888E-4,2.6875324E-4,1.1519738E-4,2.575473E-8,4.923304E-7,0E0,1.0304339E-6,2.9304496E-4,2.8957738E-4,3.075719E-4,1.3019436E-4,2.1148875E-4,7.1615395E-5,4.1141626E-5,7.237297E-6,0E0,0E0,3.2533536E-4,4.3401957E-4,3.5758587E-4,1.4357464E-4,1.8518067E-5,2.3031648E-4,9.331044E-5,8.863468E-5,4.0316554E-5,2.0455255E-4,0E0,2.9540715E-5,7.881008E-6,0E0,0E0,0E0,0E0,0E0,0E0,0E0,0E0,0E0,0E0,0E0,0E0,0E0,0E0,0E0,0E0,0E0,0E0,0E0,0E0,0E0,0E0,0E0,0E0,0E0,0E0,0E0],"parents":[2147483647,0,0,1,1,2,2,3,3,4,4,5,5,6,6,9,9,10,10,11,11,12,12,13,13,14,14,18,18,19,19,20,20,21,21,22,22,23,23,24,24,25,25,26,26,29,29,30,30,31,31,32,32,33,33,34,34,35,35,36,36,37,37,38,38,40,40,41,41],"right_children":[2,4,6,8,10,12,14,-1,-1,16,18,20,22,24,26,-1,-1,-1,28,30,32,34,36,38,40,42,44,-1,-1,46,48,50,52,54,56,58,60,62,64,-1,66,68,-1,-1,-1,-1,-1,-1,-1,-1,-1,-1,-1,-1,-1,-1,-1,-1,-1,-1,-1,-1,-1,-1,-1,-1,-1,-1,-1],"split_conditions":[-1.7409776E0,-7.9192984E-1,7.806678E-1,-1.5987682E-1,-3.9719063E-1,4.1920882E-1,1.9385986E-1,2.8581978E-3,6.646514E-4,-4.5739603E-1,-2.6881653E-1,-2.7754605E-2,1.7530349E-1,3.5278177E-1,1.2613907E-1,1.6950221E-4,-3.7292318E-4,8.597296E-4,-5.765233E-1,6.894007E-2,4.3369263E-1,-1.4383002E-1,2.7130634E-1,-1.3276878E-1,-4.060377E-1,1.7636645E-1,-1.7106175E-2,-2.5693328E-6,3.2381568E-4,-1.0229395E-1,5.799428E-1,1.5382543E-1,1.2252986E0,4.00024E-1,2.9741487E-1,4.1743878E-1,-7.226004E-2,-1.4498359E-1,-2.2477284E-4,-1.0664993E-3,-5.3536966E-3,8.750081E-1,-1.8098921E-3,1.397422E-3,4.081797E-4,3.6248984E-4,-5.9739844E-4,7.405466E-4,-7.592701E-4,-8.5708516E-4,1.0296128E-4,7.391987E-5,1.276046E-3,-1.199713E-4,5.6041405E-4,-2.3476912E-3,-6.769133E-4,1.8634772E-5,-1.5907333E-3,3.5045545E-5,1.3519169E-3,5.626189E-4,-6.342486E-4,6.686404E-4,2.7729683E-3,-1.7541088E-4,8.908762E-4,1.705885E-4,-5.6563737E-4],"split_indices":[44,58,11,0,28,11,35,0,0,12,43,23,2,30,38,0,0,0,1,3,23,17,23,42,49,52,0,0,0,34,32,10,57,16,17,49,16,15,13,0,3,11,0,0,0,0,0,0,0,0,0,0,0,0,0,0,0,0,0,0,0,0,0,0,0,0,0,0,0],"split_type":[0,0,0,0,0,0,0,0,0,0,0,0,0,0,0,0,0,0,0,0,0,0,0,0,0,0,0,0,0,0,0,0,0,0,0,0,0,0,0,0,0,0,0,0,0,0,0,0,0,0,0,0,0,0,0,0,0,0,0,0,0,0,0,0,0,0,0,0,0],"sum_hessian":[6.57E2,2.4E1,6.33E2,3E0,2.1E1,5.73E2,6E1,2E0,1E0,8E0,1.3E1,4.88E2,8.5E1,4E1,2E1,3E0,5E0,7E0,6E0,2.49E2,2.39E2,4.7E1,3.8E1,2.7E1,1.3E1,1.6E1,4E0,1E0,5E0,1.26E2,1.23E2,1.44E2,9.5E1,1.6E1,3.1E1,2E1,1.8E1,9E0,1.8E1,5E0,8E0,1.4E1,2E0,1E0,3E0,5.8E1,6.8E1,1.03E2,2E1,8.6E1,5.8E1,8.6E1,9E0,1.2E1,4E0,1.5E1,1.6E1,1.7E1,3E0,8E0,1E1,6E0,3E0,8E0,1E1,5E0,3E0,1E0,1.3E1],"tree_param":{"num_deleted":"0","num_feature":"60","num_nodes":"69","size_leaf_vector":"0"}},{"base_weights":[-7.464754E-6,-1.1925514E-4,1.482426E-3,5.773276E-3,-1.4799219E-4,-1.2791328E-4,3.4055877E-3,-4.88111E-4,3.1925604E-4,1.8092036E-3,-5.623529E-4,1.2961507E-2,2.2797163E-3,-3.1441994E-4,-7.960947E-3,2.0477222E-3,-4.0032147E-4,2.9851793E-4,-1.1813033E-3,4.175586E-3,3.4895132E-4,3.5486964E-3,-4.9964717E-4,1.5435418E-3,-1.1386367E-2,-8.1385963E-4,3.7339337E-3,1.1208695E-3,-1.3746556E-3,7.624507E-4,-1.3784568E-4,-3.9525144E-4,-2.0324886E-3,8.785073E-4,5.463119E-3,8.503452E-4,-2.3324937E-3,5.9279776E-4,8.376394E-3,-2.894771E-3,-2.5213562E-4,3.7627518E-3,-1.4474392E-3,-4.77423E-3,-1.3498877E-2,3.4281393E-3,-2.8941662E-3,3.2712304E-4,5.767116E-3,5.614034E-4,7.18143E-3,9.5145406E-5,-3.0126446E-3,2.366826E-4,-8.217484E-4,1.2521669E-3,-1.2123585E-4,2.884701E-3,6.6757575E-3,1.1707118E-3,7.7117234E-5],"categories":[],"categories_nodes":[],"categories_segments":[],"categories_sizes":[],"default_left":[1,1,1,0,1,1,1,1,1,0,1,0,1,1,1,1,1,1,1,1,1,1,1,1,1,1,1,1,1,0,0,1,0,1,1,1,0,0,0,0,0,0,0,0,0,0,0,0,0,0,0,0,0,0,0,0,0,0,0,0,0],"id":60,"left_children":[1,3,5,-1,7,9,11,13,15,-1,17,-1,19,21,23,25,27,29,31,33,35,37,39,41,43,45,47,49,51,-1,-1,53,-1,55,57,59,-1,-1,-1,-1,-1,-1,-1,-1,-1,-1,-1,-1,-1,-1,-1,-1,-1,-1,-1,-1,-1,-1,-1,-1,-1],"loss_changes":[1.09770284E-4,1.0465613E-4,1.42895E-4,0E0,9.72559E-5,2.2897977E-5,1.9638488E-4,4.5697647E-4,3.217112E-4,6.9068847E-7,1.207504E-5,0E0,7.1752496E-5,2.5007044E-4,2.7803023E-4,3.697565E-4,2.7277396E-4,2.129534E-6,7.894641E-6,3.7651596E-5,1.6772487E-5,2.233575E-4,1.9608665E-4,2.53592E-5,1.9362487E-5,2.658367E-4,3.3059344E-4,2.4009714E-4,2.6992863E-4,0E0,4.4067997E-7,2.350637E-6,0E0,1.6460622E-6,2.6292546E-6,2.3868824E-6,0E0,0E0,0E0,0E0,0E0,0E0,0E0,0E0,0E0,0E0,0E0,0E0,0E0,0E0,0E0,0E0,0E0,0E0,0E0,0E0,0E0,0E0,0E0,0E0,0E0],"parents":[2147483647,0,0,1,1,2,2,4,4,5,5,6,6,7,7,8,8,10,10,12,12,13,13,14,14,15,15,16,16,17,17,18,18,19,19,20,20,21,21,22,22,23,23,24,24,25,25,26,26,27,27,28,28,31,31,33,33,34,34,35,35],"right_children":[2,4,6,-1,8,10,12,14,16,-1,18,-1,20,22,24,26,28,30,32,34,36,38,40,42,44,46,48,50,52,-1,-1,54,-1,56,58,60,-1,-1,-1,-1,-1,-1,-1,-1,-1,-1,-1,-1,-1,-1,-1,-1,-1,-1,-1,-1,-1,-1,-1,-1,-1],"split_conditions":[1.128943E0,-2.9000936E0,-2.491472E-1,1.7319829E-3,6.0429595E-2,-1.4634664E0,-1.8428375E-1,4.2084433E-2,2.2779422E-1,5.427611E-4,-4.4875705E-1,3.8884522E-3,7.860537E-2,-1.7389455E0,-3.9125913E-1,-1.4478299E-1,-1.650166E-1,4.7351378E-1,-1.23847574E-1,-9.174833E-1,4.5897168E-1,-1.3042498E-1,-9.321536E-1,4.4266188E-1,6.252983E-2,-3.048787E-1,-1.0372227E-1,-1.7790145E-1,-3.2076646E-2,2.2873521E-4,-4.1353705E-5,-3.0281544E-1,-6.097466E-4,6.619364E-1,9.016082E-3,-3.302322E-1,-6.997481E-4,1.7783933E-4,2.5129183E-3,-8.6843135E-4,-7.564069E-5,1.1288256E-3,-4.3423177E-4,-1.4322691E-3,-4.0496634E-3,1.0284418E-3,-8.6824986E-4,9.8136916E-5,1.7301348E-3,1.6842103E-4,2.154429E-3,2.8543624E-5,-9.0379344E-4,7.100478E-5,-2.4652452E-4,3.756501E-4,-3.6370755E-5,8.654103E-4,2.0027272E-3,3.5121356E-4,2.3135171E-5],"split_indices":[59,26,41,0,30,47,41,30,30,0,14,0,16,51,2,38,42,27,50,11,34,35,57,0,1,35,48,42,10,0,0,0,0,0,4,10,0,0,0,0,0,0,0,0,0,0,0,0,0,0,0,0,0,0,0,0,0,0,0,0,0],"split_type":[0,0,0,0,0,0,0,0,0,0,0,0,0,0,0,0,0,0,0,0,0,0,0,0,0,0,0,0,0,0,0,0,0,0,0,0,0,0,0,0,0,0,0,0,0,0,0,0,0,0,0,0,0,0,0,0,0,0,0,0,0],"sum_hessian":[6.57E2,6.12E2,4.5E1,2E0,6.1E2,2.5E1,2E1,3.53E2,2.57E2,4E0,2.1E1,1E0,1.9E1,3.46E2,7E0,7.5E1,1.82E2,9E0,1.2E1,9E0,1E1,1.5E1,3.31E2,2E0,5E0,2.8E1,4.7E1,7.1E1,1.11E2,4E0,5E0,7E0,5E0,3E0,6E0,9E0,1E0,1E1,5E0,3E1,3.01E2,1E0,1E0,2E0,3E0,9E0,1.9E1,1.8E1,2.9E1,6.6E1,5E0,5.9E1,5.2E1,3E0,4E0,2E0,1E0,3E0,3E0,6E0,3E0],"tree_param":{"num_deleted":"0","num_feature":"60","num_nodes":"61","size_leaf_vector":"0"}},{"base_weights":[8.21369E-6,1.7947758E-3,-6.518098E-5,-5.069226E-4,3.043141E-3,-1.754917E-4,1.2531241E-3,-1.0331459E-3,1.0653138E-3,4.2833122E-3,5.560865E-5,1.938989E-4,-6.961727E-4,7.3228305E-4,8.99526E-3,-3.7139654E-4,-1.3559163E-3,1.6496927E-3,6.6419826E-3,-6.8916753E-4,1.0301074E-3,6.552023E-5,6.346715E-3,-1.0664125E-2,-5.6920166E-4,2.2233708E-3,-1.8677904E-4,1.9475644E-3,-6.876886E-5,1.9233786E-3,7.201028E-3,-1.1824262E-3,7.259013E-4,-1.980275E-3,1.0073567E-2,2.779213E-5,-2.0577628E-3,3.4443886E-4,4.064032E-3,6.034877E-4,-1.4224699E-3,-8.8126183E-4,-6.6070906E-3,-2.1643171E-4,1.8075685E-3,-6.8416976E-4,1.9510128E-3,-5.2290116E-3,-7.4810797E-4,9.769443E-4,-1.4570554E-3,5.277408E-3,1.22796E-3,9.3578466E-4,-8.76572E-4,-3.7886415E-4,-2.4029315E-3],"categories":[],"categories_nodes":[],"categories_segments":[],"categories_sizes":[],"default_left":[1,1,1,1,1,1,1,1,0,1,1,1,1,1,0,0,0,1,1,0,0,1,1,0,1,1,1,0,0,0,0,1,1,0,0,1,1,1,1,1,1,0,0,0,0,0,0,0,0,0,0,0,0,0,0,0,0],"id":61,"left_children":[1,3,5,7,9,11,13,15,-1,17,19,21,23,25,-1,-1,-1,27,29,-1,-1,31,33,-1,35,37,39,-1,-1,-1,-1,41,43,-1,-1,45,47,49,51,53,55,-1,-1,-1,-1,-1,-1,-1,-1,-1,-1,-1,-1,-1,-1,-1,-1],"loss_changes":[8.639667E-5,7.6250006E-5,9.2272785E-5,9.374099E-6,6.2747684E-5,1.1265078E-4,1.9100161E-4,1.2051623E-6,1.3425415E-7,6.358487E-5,5.0646167E-6,2.7051655E-4,3.0148088E-4,6.4824184E-5,0E0,0E0,0E0,3.7170994E-6,1.9771687E-6,0E0,0E0,2.7858684E-4,2.3718263E-4,0E0,2.1422465E-4,6.0852763E-5,3.0154202E-5,0E0,0E0,0E0,0E0,1.8532218E-4,2.2565448E-4,0E0,0E0,2.3821677E-4,2.826618E-4,1.2818012E-5,2.4490539E-5,1.0164849E-5,1.1368198E-5,0E0,0E0,0E0,0E0,0E0,0E0,0E0,0E0,0E0,0E0,0E0,0E0,0E0,0E0,0E0,0E0],"parents":[2147483647,0,0,1,1,2,2,3,3,4,4,5,5,6,6,7,7,9,9,10,10,11,11,12,12,13,13,17,17,18,18,21,21,22,22,24,24,25,25,26,26,31,31,32,32,35,35,36,36,37,37,38,38,39,39,40,40],"right_children":[2,4,6,8,10,12,14,16,-1,18,20,22,24,26,-1,-1,-1,28,30,-1,-1,32,34,-1,36,38,40,-1,-1,-1,-1,42,44,-1,-1,46,48,50,52,54,56,-1,-1,-1,-1,-1,-1,-1,-1,-1,-1,-1,-1,-1,-1,-1,-1],"split_conditions":[-1.5938718E0,-1.1489108E-1,9.3237424E-1,3.178398E-1,7.83937E-1,1.1580423E-2,1.9858664E0,-6.465662E-1,3.1959417E-4,-3.5348997E-1,-5.1925957E-2,-1.0388443E-3,1.5705561E-2,-1.796849E-1,2.6985782E-3,-1.11418965E-4,-4.067749E-4,1.0348778E0,-4.7103015E-1,-2.0675026E-4,3.090322E-4,-2.5661486E-1,-3.241661E-1,-3.1992376E-3,2.3693067E-1,-1.7977098E-1,1.4771375E-1,5.8426935E-4,-2.0630658E-5,5.770136E-4,2.1603084E-3,-2.7662423E-1,-6.397404E-2,-5.940825E-4,3.0220703E-3,1.7025876E-1,-3.146261E-1,9.374944E-1,4.240945E-1,3.768068E-1,-3.5680008E-1,-2.6437856E-4,-1.9821273E-3,-6.492952E-5,5.4227054E-4,-2.0525094E-4,5.853039E-4,-1.5687036E-3,-2.244324E-4,2.930833E-4,-4.3711666E-4,1.5832224E-3,3.6838802E-4,2.807354E-4,-2.6297162E-4,-1.1365925E-4,-7.2087947E-4],"split_indices":[19,48,35,17,37,35,53,5,0,12,7,35,35,57,0,0,0,7,0,0,0,47,3,0,10,9,2,0,0,0,0,47,17,0,0,55,50,12,42,48,19,0,0,0,0,0,0,0,0,0,0,0,0,0,0,0,0],"split_type":[0,0,0,0,0,0,0,0,0,0,0,0,0,0,0,0,0,0,0,0,0,0,0,0,0,0,0,0,0,0,0,0,0,0,0,0,0,0,0,0,0,0,0,0,0,0,0,0,0,0,0,0,0,0,0,0,0],"sum_hessian":[6.57E2,2.5E1,6.32E2,9E0,1.6E1,5.84E2,4.8E1,7E0,2E0,1.1E1,5E0,3.42E2,2.42E2,4.6E1,2E0,3E0,4E0,6E0,5E0,3E0,2E0,3.36E2,6E0,2E0,2.4E2,1.7E1,2.9E1,5E0,1E0,1E0,4E0,1.16E2,2.2E2,2E0,4E0,1.72E2,6.8E1,9E0,8E0,1.8E1,1.1E1,1.11E2,5E0,1.18E2,1.02E2,1.26E2,4.6E1,1.9E1,4.9E1,7E0,2E0,5E0,3E0,1.5E1,3E0,6E0,5E0],"tree_param":{"num_deleted":"0","num_feature":"60","num_nodes":"57","size_leaf_vector":"0"}},{"base_weights":[1.0220433E-5,-3.3053238E-4,3.3975384E-4,1.5986407E-5,-2.6575392E-3,4.3169977E-3,1.398299E-4,-6.00435E-4,1.0203769E-3,-5.4437397E-3,3.8788724E-4,-5.521439E-5,7.723742E-3,-3.0387432E-4,1.4527828E-3,-3.9249763E-4,-6.426577E-3,-6.799791E-4,2.5536777E-3,-1.0585707E-3,-9.009833E-3,3.2097767E-3,-2.4692647E-3,-1.434201E-3,1.6823225E-3,1.141965E-2,3.972513E-3,1.1383703E-3,-1.0457622E-3,-7.459898E-4,2.6284738E-3,-1.203594E-3,7.394765E-4,-9.366192E-3,-3.6489838E-4,1.132532E-3,-2.046905E-3,-4.288622E-4,3.7280556E-3,-3.0956008E-3,9.226566E-5,-1.1622254E-2,-3.0279935E-3,-1.1828014E-4,6.002871E-3,-8.16538E-4,-5.157402E-3,-3.3531943E-4,2.6941274E-3,1.2969521E-3,-1.7668883E-3,8.9085323E-4,-2.829093E-3,3.912438E-4,4.330642E-3,-2.009988E-3,5.728053E-4,-8.041902E-4,1.9945146E-3,1.9745114E-3,-3.3604987E-3,-5.3149387E-3,-3.9322674E-4,-1.368798E-3,1.5224864E-3,8.187449E-4,4.903676E-3,5.340874E-4,-8.221331E-4,-1.5670896E-2,-6.0588894E-3,5.7600933E-4,-6.094272E-4,5.9367716E-4,-1.1028083E-3,8.243444E-4,-2.1574139E-3,1.4898125E-3,7.3251603E-3,4.436296E-3,-1.4556736E-3,-2.8988908E-3,4.5832797E-4,-3.1460077E-4,2.286314E-3,-5.201948E-3,-5.2081687E-5,-9.362678E-4,3.1633005E-3,1.7006733E-3,8.133872E-3],"categories":[],"categories_nodes":[],"categories_segments":[],"categories_sizes":[],"default_left":[1,1,1,1,1,1,1,1,1,1,1,1,1,1,1,1,1,1,1,1,1,1,1,0,0,0,0,1,1,1,1,1,1,0,0,1,1,1,1,0,1,1,0,1,0,1,0,1,1,1,1,1,1,1,1,0,0,0,0,0,0,0,0,0,0,0,0,0,0,0,0,0,0,0,0,0,0,0,0,0,0,0,0,0,0,0,0,0,0,0,0],"id":62,"left_children":[1,3,5,7,9,11,13,15,17,19,21,23,25,27,29,31,33,35,37,39,41,43,45,-1,-1,-1,-1,47,49,51,53,55,57,-1,-1,59,61,63,65,-1,67,69,-1,71,-1,73,-1,75,77,79,81,83,85,87,89,-1,-1,-1,-1,-1,-1,-1,-1,-1,-1,-1,-1,-1,-1,-1,-1,-1,-1,-1,-1,-1,-1,-1,-1,-1,-1,-1,-1,-1,-1,-1,-1,-1,-1,-1,-1],"loss_changes":[7.399874E-5,2.613004E-4,2.6577036E-4,1.7582584E-4,3.5848864E-4,2.3874664E-4,1.8686154E-4,2.1069674E-4,2.833094E-4,3.3449673E-4,1.772397E-4,2.1581109E-5,7.941306E-5,2.5798657E-4,2.1135205E-4,1.57892E-4,1.03496306E-4,1.3115173E-4,2.0124871E-4,2.6072787E-5,1.5233294E-4,1.0296135E-4,4.46591E-5,2.273091E-7,0E0,0E0,0E0,1.8890505E-4,2.7090497E-4,1.0140198E-4,2.0013718E-4,1.443991E-4,1.4109394E-4,0E0,7.7127424E-9,9.3645256E-5,1.6003831E-4,3.32644E-5,1.3621512E-4,0E0,3.671101E-6,8.5244305E-5,0E0,2.3970254E-6,0E0,3.8843336E-6,0E0,9.263818E-5,2.1217577E-4,3.3483247E-4,3.0864056E-4,2.931606E-5,8.539187E-5,9.12802E-5,2.862382E-4,0E0,0E0,0E0,0E0,0E0,0E0,0E0,0E0,0E0,0E0,0E0,0E0,0E0,0E0,0E0,0E0,0E0,0E0,0E0,0E0,0E0,0E0,0E0,0E0,0E0,0E0,0E0,0E0,0E0,0E0,0E0,0E0,0E0,0E0,0E0,0E0],"parents":[2147483647,0,0,1,1,2,2,3,3,4,4,5,5,6,6,7,7,8,8,9,9,10,10,11,11,12,12,13,13,14,14,15,15,16,16,17,17,18,18,19,19,20,20,21,21,22,22,27,27,28,28,29,29,30,30,31,31,32,32,35,35,36,36,37,37,38,38,40,40,41,41,43,43,45,45,47,47,48,48,49,49,50,50,51,51,52,52,53,53,54,54],"right_children":[2,4,6,8,10,12,14,16,18,20,22,24,26,28,30,32,34,36,38,40,42,44,46,-1,-1,-1,-1,48,50,52,54,56,58,-1,-1,60,62,64,66,-1,68,70,-1,72,-1,74,-1,76,78,80,82,84,86,88,90,-1,-1,-1,-1,-1,-1,-1,-1,-1,-1,-1,-1,-1,-1,-1,-1,-1,-1,-1,-1,-1,-1,-1,-1,-1,-1,-1,-1,-1,-1,-1,-1,-1,-1,-1,-1],"split_conditions":[-5.0701484E-2,-1.299885E-1,-2.7228411E-2,1.3750656E-1,3.0621508E-2,-1.5576994E-1,3.8984305E-1,1.19631276E-1,-8.031161E-2,-3.8203064E-2,1.5861513E-1,-7.362305E-2,1.6296759E-1,-2.693705E-1,-2.1999761E-1,8.447701E-2,-1.265338E-1,-4.451466E-2,-3.817728E-1,1.2980926E-1,1.3112187E-1,-2.3765527E-1,6.132581E-2,-4.3026032E-4,5.0469674E-4,3.4258952E-3,1.191754E-3,-1.8013028E-2,-3.1961274E-1,-1.1182672E-1,-1.6688359E-1,2.1367893E-1,-1.6796383E-1,-2.8098577E-3,-1.0946952E-4,-2.6562274E-1,-1.4965716E-1,2.8393146E-1,-2.9725033E-1,-9.2868024E-4,-1.7839265E-1,2.1700682E-2,-9.0839807E-4,3.841508E-1,1.8008613E-3,-3.9017498E-1,-1.5472206E-3,-3.836548E-2,3.218461E-1,7.4602686E-2,1.7962098E-1,-2.7129138E-1,4.151683E-1,1.10586464E-1,-1.8772759E-2,-6.0299644E-4,1.7184159E-4,-2.4125706E-4,5.983544E-4,5.9235346E-4,-1.0081497E-3,-1.5944816E-3,-1.17968026E-4,-4.1063942E-4,4.5674594E-4,2.4562347E-4,1.4711028E-3,1.6022623E-4,-2.4663995E-4,-4.701269E-3,-1.8176669E-3,1.728028E-4,-1.8282817E-4,1.7810316E-4,-3.308425E-4,2.4730334E-4,-6.472242E-4,4.4694377E-4,2.1975483E-3,1.3308888E-3,-4.367021E-4,-8.696673E-4,1.374984E-4,-9.438024E-5,6.858942E-4,-1.5605844E-3,-1.5624506E-5,-2.8088034E-4,9.489902E-4,5.10202E-4,2.4401618E-3],"split_indices":[15,15,15,14,4,39,50,14,45,37,7,6,0,20,6,2,5,8,10,5,10,57,20,0,0,0,0,22,52,35,37,18,55,0,0,15,24,51,56,0,25,28,0,1,0,1,0,16,52,54,8,17,27,27,52,0,0,0,0,0,0,0,0,0,0,0,0,0,0,0,0,0,0,0,0,0,0,0,0,0,0,0,0,0,0,0,0,0,0,0,0],"split_type":[0,0,0,0,0,0,0,0,0,0,0,0,0,0,0,0,0,0,0,0,0,0,0,0,0,0,0,0,0,0,0,0,0,0,0,0,0,0,0,0,0,0,0,0,0,0,0,0,0,0,0,0,0,0,0,0,0,0,0,0,0,0,0,0,0,0,0,0,0,0,0,0,0,0,0,0,0,0,0,0,0,0,0,0,0,0,0,0,0,0,0],"sum_hessian":[6.57E2,3.23E2,3.34E2,2.82E2,4.1E1,1.5E1,3.19E2,1.75E2,1.07E2,2.1E1,2E1,7E0,8E0,2.39E2,8E1,1.7E2,5E0,5.1E1,5.6E1,1E1,1.1E1,1E1,1E1,4E0,3E0,3E0,5E0,8.1E1,1.58E2,2.8E1,5.2E1,9.9E1,7.1E1,3E0,2E0,2.2E1,2.9E1,1.6E1,4E1,3E0,7E0,7E0,4E0,5E0,5E0,7E0,3E0,4.2E1,3.9E1,3.7E1,1.21E2,1.6E1,1.2E1,2.3E1,2.9E1,6.8E1,3.1E1,3.2E1,3.9E1,1.9E1,3E0,9E0,2E1,1.1E1,5E0,1.2E1,2.8E1,5E0,2E0,3E0,4E0,2E0,3E0,1E0,6E0,2.6E1,1.6E1,3.2E1,7E0,1.7E1,2E1,8E1,4.1E1,9E0,7E0,6E0,6E0,1.6E1,7E0,1.8E1,1.1E1],"tree_param":{"num_deleted":"0","num_feature":"60","num_nodes":"91","size_leaf_vector":"0"}},{"base_weights":[4.148928E-6,3.219399E-4,-3.904016E-4,1.7310468E-4,9.198397E-3,-2.938989E-3,-6.790623E-5,8.4147503E-4,-4.3606362E-4,-2.1177593E-3,-1.0445367E-2,7.968633E-4,-1.0978574E-3,3.7626948E-4,3.030906E-3,-4.8575713E-3,-1.3553466E-4,1.055642E-3,-3.08732E-3,-2.5915308E-4,1.9018397E-3,-3.3020074E-4,-3.6083648E-3,1.1739108E-3,-8.129275E-4,1.1679126E-3,5.7280697E-3,-1.2655534E-3,-6.4953864E-3,-1.1383587E-3,8.1426126E-4,-7.7401596E-4,1.7945307E-3,-1.9463353E-3,-7.0337947E-3,8.868524E-4,-1.7098524E-3,8.231089E-4,5.2165235E-3,6.929866E-4,-2.211541E-3,1.1921942E-3,-5.945061E-3,7.3847047E-4,4.4094105E-3,-4.9248366E-3,2.5421794E-4,3.447441E-5,3.1060246E-3,8.9097396E-4,7.2414377E-3,-5.9980154E-4,-7.2519267E-3,-3.2938586E-4,-3.248188E-3,1.8599322E-3,-7.206377E-4,8.8830665E-4,2.4046525E-3,-6.7100994E-4,-4.2189383E-3,-1.0882817E-3,2.1441765E-3,-3.1265935E-3,1.9867669E-4,1.4968321E-3,-1.9466118E-3,-1.0451326E-3,7.912641E-3,-1.6731595E-3,1.888013E-3,-7.5691077E-4,-6.0064537E-3,-3.759265E-4,2.8355003E-3,-5.838951E-4,-7.818056E-3],"categories":[],"categories_nodes":[],"categories_segments":[],"categories_sizes":[],"default_left":[1,1,1,1,0,1,1,1,1,1,0,1,1,1,1,1,1,1,1,1,1,1,1,1,1,1,1,0,1,1,1,0,1,1,0,1,1,1,1,1,1,1,1,0,0,0,0,0,0,0,0,0,0,0,0,0,0,0,0,0,0,0,0,0,0,0,0,0,0,0,0,0,0,0,0,0,0],"id":63,"left_children":[1,3,5,7,-1,9,11,13,15,17,-1,19,21,23,25,27,29,31,33,35,37,39,41,43,45,47,49,-1,51,53,55,-1,57,59,-1,61,63,65,67,69,71,73,75,-1,-1,-1,-1,-1,-1,-1,-1,-1,-1,-1,-1,-1,-1,-1,-1,-1,-1,-1,-1,-1,-1,-1,-1,-1,-1,-1,-1,-1,-1,-1,-1,-1,-1],"loss_changes":[8.262875E-5,4.8062004E-4,2.414413E-4,1.4694096E-4,0E0,1.8130642E-4,2.342305E-4,1.7404766E-4,2.5048316E-4,9.8640056E-5,0E0,1.6735574E-4,2.3007345E-4,1.3659734E-4,1.4405407E-4,6.2376464E-5,1.7046803E-4,1.2204303E-5,9.437869E-5,1.2454207E-4,2.4600184E-4,1.8055417E-4,3.211762E-4,1.1790638E-4,2.5575625E-4,4.163079E-5,8.139174E-5,2.4113433E-8,3.133228E-5,1.4742123E-4,1.4900026E-4,0E0,1.1813736E-6,5.5135206E-5,0E0,1.0663559E-4,8.9849615E-5,1.0367909E-4,2.9526654E-4,1.7564297E-4,1.7762005E-4,2.6834965E-5,1.8622237E-4,0E0,0E0,0E0,0E0,0E0,0E0,0E0,0E0,0E0,0E0,0E0,0E0,0E0,0E0,0E0,0E0,0E0,0E0,0E0,0E0,0E0,0E0,0E0,0E0,0E0,0E0,0E0,0E0,0E0,0E0,0E0,0E0,0E0,0E0],"parents":[2147483647,0,0,1,1,2,2,3,3,5,5,6,6,7,7,8,8,9,9,11,11,12,12,13,13,14,14,15,15,16,16,17,17,18,18,19,19,20,20,21,21,22,22,23,23,24,24,25,25,26,26,28,28,29,29,30,30,32,32,33,33,35,35,36,36,37,37,38,38,39,39,40,40,41,41,42,42],"right_children":[2,4,6,8,-1,10,12,14,16,18,-1,20,22,24,26,28,30,32,34,36,38,40,42,44,46,48,50,-1,52,54,56,-1,58,60,-1,62,64,66,68,70,72,74,76,-1,-1,-1,-1,-1,-1,-1,-1,-1,-1,-1,-1,-1,-1,-1,-1,-1,-1,-1,-1,-1,-1,-1,-1,-1,-1,-1,-1,-1,-1,-1,-1,-1,-1],"split_conditions":[3.7071824E-2,1.3263543E-2,1.0195361E-1,-2.9479068E-2,2.7595193E-3,9.4782966E-1,6.4009316E-2,4.8838088E-1,3.1383637E-2,-1.8466549E-1,-3.1336101E-3,-9.64908E-2,3.3474317E-1,1.708326E-1,-9.090429E-2,-5.0921196E-1,-8.573167E-2,-8.601713E-1,2.059525E-1,1.1982289E-1,2.6980704E-1,2.6326483E-1,-1.8277067E-1,4.0954995E-1,2.659643E-1,-5.571863E-2,-3.0311185E-1,-3.7966605E-4,-1.7745781E0,-2.1951047E-1,1.2265876E-1,-2.322048E-4,4.4925678E-1,1.8267354E-1,-2.1101385E-3,-5.39709E-1,8.517275E-2,4.4198585E-1,-4.438327E-1,-2.4413946E-1,1.2949937E-2,3.0247045E-1,-3.9471895E-1,2.2154115E-4,1.3228232E-3,-1.4774511E-3,7.626539E-5,1.0342324E-5,9.318074E-4,2.672922E-4,2.1724314E-3,-1.7994047E-4,-2.1755781E-3,-9.881576E-5,-9.7445643E-4,5.579797E-4,-2.1619131E-4,2.6649202E-4,7.213958E-4,-2.0130299E-4,-1.2656816E-3,-3.2648453E-4,6.43253E-4,-9.379781E-4,5.9603008E-5,4.4904966E-4,-5.8398355E-4,-3.1353981E-4,2.3737925E-3,-5.019479E-4,5.664039E-4,-2.2707324E-4,-1.8019362E-3,-1.12777954E-4,8.5065013E-4,-1.7516853E-4,-2.345417E-3],"split_indices":[19,19,19,35,0,6,44,5,35,18,0,38,4,50,40,17,31,18,7,5,26,2,41,17,50,21,22,0,1,31,32,0,4,29,0,38,2,30,9,49,34,49,46,0,0,0,0,0,0,0,0,0,0,0,0,0,0,0,0,0,0,0,0,0,0,0,0,0,0,0,0,0,0,0,0,0,0],"split_type":[0,0,0,0,0,0,0,0,0,0,0,0,0,0,0,0,0,0,0,0,0,0,0,0,0,0,0,0,0,0,0,0,0,0,0,0,0,0,0,0,0,0,0,0,0,0,0,0,0,0,0,0,0,0,0,0,0,0,0,0,0,0,0,0,0,0,0,0,0,0,0,0,0,0,0,0,0],"sum_hessian":[6.57E2,3.64E2,2.93E2,3.59E2,5E0,3.2E1,2.61E2,1.71E2,1.88E2,3E1,2E0,1.42E2,1.19E2,1.42E2,2.9E1,1.1E1,1.77E2,7E0,2.3E1,7.3E1,6.9E1,9.2E1,2.7E1,8.5E1,5.7E1,1.8E1,1.1E1,4E0,7E0,8.6E1,9.1E1,2E0,5E0,1.9E1,4E0,4.1E1,3.2E1,5.3E1,1.6E1,6E1,3.2E1,9E0,1.8E1,7.6E1,9E0,1.1E1,4.6E1,1.2E1,6E0,3E0,8E0,1E0,6E0,6.3E1,2.3E1,5.4E1,3.7E1,3E0,2E0,1.3E1,6E0,1.6E1,2.5E1,1.8E1,1.4E1,4.3E1,1E1,5E0,1.1E1,2E1,4E1,2.4E1,8E0,5E0,4E0,5E0,1.3E1],"tree_param":{"num_deleted":"0","num_feature":"60","num_nodes":"77","size_leaf_vector":"0"}},{"base_weights":[-5.4866396E-6,6.428884E-4,-1.454394E-4,1.3041269E-3,-4.8380566E-4,-6.8119547E-4,1.7993173E-4,2.447853E-3,2.1494056E-4,-1.3467888E-3,1.1105891E-3,-3.2498245E-4,-2.4631792E-3,4.9108583E-3,6.504549E-5,4.0669553E-4,3.3296945E-3,3.254801E-3,-4.3639168E-4,-2.7864706E-4,-2.471323E-3,6.1695493E-4,3.0440192E-3,3.5008686E-4,-1.469632E-3,5.291077E-4,-3.7320117E-3,1.3054237E-3,1.0484775E-2,7.069194E-4,-4.7079986E-4,1.1757942E-3,-5.5836886E-4,5.5707726E-3,1.9473771E-3,-3.8209558E-4,3.924633E-3,4.8634857E-3,-7.539968E-4,1.1247098E-3,-8.401585E-4,-4.2713624E-3,-5.8737304E-4,-7.155339E-4,8.986642E-4,5.9119426E-4,-3.2476485E-3,-2.6390573E-3,-1.3962893E-4,1.1838062E-3,-1.611357E-3,-6.47828E-5,-5.561577E-3,2.2456609E-3,-3.8336715E-4,2.0817302E-3,-7.9900215E-5,-8.7726716E-4,2.1006467E-3,2.2516213E-4,1.8324777E-3,1.3463995E-3,3.1204433E-3,1.0711104E-3,4.2811157E-3,-1.2783962E-3,3.633472E-4,4.6037883E-4,1.891017E-3,-1.0443911E-3,1.206696E-4,-4.879425E-3,-3.1149387E-4,3.086459E-4,-1.1867136E-3,1.0253381E-3,-2.4737418E-4,-4.1213298E-5,2.5659543E-3,-7.5479248E-3,-1.795292E-5,-7.470068E-4,-4.4871666E-3,9.720313E-4,-1.5589328E-3,6.591997E-4,2.0132859E-3,1.185894E-3,-8.877702E-4,-2.1632053E-3,-7.964399E-3,1.8294888E-4,3.440762E-3,4.027436E-4,-2.7452027E-3,-3.470565E-4,-2.320771E-3,5.679322E-3,3.934217E-4],"categories":[],"categories_nodes":[],"categories_segments":[],"categories_sizes":[],"default_left":[1,1,1,1,1,1,1,1,1,1,1,1,1,1,1,1,1,1,1,1,1,1,0,1,1,1,1,1,0,1,1,1,0,0,1,0,1,0,1,1,1,1,1,0,1,1,1,1,1,1,0,1,1,0,0,1,1,1,1,0,0,0,0,0,0,0,0,0,0,0,0,0,0,0,0,0,0,0,0,0,0,0,0,0,0,0,0,0,0,0,0,0,0,0,0,0,0,0,0],"id":64,"left_children":[1,3,5,7,9,11,13,15,17,19,21,23,25,27,29,31,33,35,37,39,41,43,-1,45,47,49,51,53,-1,55,57,59,-1,-1,61,-1,63,-1,65,67,69,71,73,-1,75,77,79,81,83,85,-1,87,89,-1,-1,91,93,95,97,-1,-1,-1,-1,-1,-1,-1,-1,-1,-1,-1,-1,-1,-1,-1,-1,-1,-1,-1,-1,-1,-1,-1,-1,-1,-1,-1,-1,-1,-1,-1,-1,-1,-1,-1,-1,-1,-1,-1,-1],"loss_changes":[5.9801656E-5,8.7797525E-5,9.460377E-5,9.1657945E-5,6.20369E-5,1.2932651E-4,1.8338977E-4,6.344501E-5,7.863877E-5,3.4145065E-5,1.3392493E-5,1.3342196E-4,1.310628E-4,1.4708407E-4,1.1417867E-4,9.563285E-6,6.6598644E-5,1.8552353E-5,5.9214897E-5,1.3552951E-5,4.496771E-5,5.898268E-6,0E0,9.647101E-5,9.917324E-5,1.7322483E-5,1.6066615E-4,1.0388095E-5,0E0,1.6350727E-4,1.9102564E-4,3.957246E-6,0E0,6.800692E-7,7.783405E-6,0E0,1.5178302E-6,0E0,1.9214407E-5,1.674824E-6,2.4808141E-6,1.5335012E-5,4.662438E-6,4.880394E-7,1.9957197E-6,1.2873762E-4,9.708458E-5,1.155364E-4,5.0426628E-5,2.5891968E-6,0E0,1.0316423E-5,1.1342234E-4,0E0,3.8736994E-7,1.4129825E-4,1.258856E-4,1.1935626E-4,1.5050573E-4,0E0,0E0,0E0,0E0,0E0,0E0,0E0,0E0,0E0,0E0,0E0,0E0,0E0,0E0,0E0,0E0,0E0,0E0,0E0,0E0,0E0,0E0,0E0,0E0,0E0,0E0,0E0,0E0,0E0,0E0,0E0,0E0,0E0,0E0,0E0,0E0,0E0,0E0,0E0,0E0],"parents":[2147483647,0,0,1,1,2,2,3,3,4,4,5,5,6,6,7,7,8,8,9,9,10,10,11,11,12,12,13,13,14,14,15,15,16,16,17,17,18,18,19,19,20,20,21,21,23,23,24,24,25,25,26,26,27,27,29,29,30,30,31,31,34,34,36,36,38,38,39,39,40,40,41,41,42,42,44,44,45,45,46,46,47,47,48,48,49,49,51,51,52,52,55,55,56,56,57,57,58,58],"right_children":[2,4,6,8,10,12,14,16,18,20,22,24,26,28,30,32,34,36,38,40,42,44,-1,46,48,50,52,54,-1,56,58,60,-1,-1,62,-1,64,-1,66,68,70,72,74,-1,76,78,80,82,84,86,-1,88,90,-1,-1,92,94,96,98,-1,-1,-1,-1,-1,-1,-1,-1,-1,-1,-1,-1,-1,-1,-1,-1,-1,-1,-1,-1,-1,-1,-1,-1,-1,-1,-1,-1,-1,-1,-1,-1,-1,-1,-1,-1,-1,-1,-1,-1],"split_conditions":[-5.6889045E-1,1.9414634E-1,-1.6283318E-1,-1.7996517E-1,1.2074445E-1,-2.5130832E-1,-1.4852802E-1,-5.420382E-1,-7.726283E-1,-1.596159E-1,4.5897168E-1,1.2867633E-1,-2.6032814E-1,6.544332E-2,-1.0477884E-1,-1.2957701E-1,-1.9062565E-1,-9.9653286E-1,-2.2880185E0,-5.406858E-1,5.8175755E-1,-1.6318449E0,9.132058E-4,1.3381305E0,-1.5566868E-1,-1.809568E-1,-2.0893624E-1,2.4786955E-1,3.1454326E-3,-1.9006142E-1,5.1019657E-1,2.7231908E-1,-1.6751066E-4,1.6712318E-3,3.3861378E-1,-1.14628674E-4,-2.717658E0,1.4590458E-3,5.863916E-1,3.267283E-1,6.342609E-1,6.074494E-1,-6.2849575E-1,-2.1466018E-4,4.5643097E-1,4.6114188E-1,4.5221525E-1,-1.1311132E-1,1.2890476E-2,1.7971644E-1,-4.8340712E-4,-3.6114138E-1,-7.870275E-2,6.7369826E-4,-1.1501015E-4,-6.1987706E-2,5.672407E-1,1.9567414E-1,1.847944E-1,6.7548644E-5,5.4974336E-4,4.0391987E-4,9.3613303E-4,3.2133312E-4,1.2843348E-3,-3.835189E-4,1.0900417E-4,1.3811365E-4,5.6730513E-4,-3.1331734E-4,3.6200883E-5,-1.4638274E-3,-9.3448165E-5,9.259377E-5,-3.560141E-4,3.0760144E-4,-7.421226E-5,-1.236399E-5,7.6978636E-4,-2.2643774E-3,-5.385876E-6,-2.2410204E-4,-1.3461501E-3,2.916094E-4,-4.6767987E-4,1.9775993E-4,6.039858E-4,3.5576822E-4,-2.6633107E-4,-6.4896164E-4,-2.3893197E-3,5.4884666E-5,1.0322286E-3,1.2082309E-4,-8.2356087E-4,-1.0411696E-4,-6.962314E-4,1.7037967E-3,1.1802652E-4],"split_indices":[59,12,20,55,7,20,20,51,13,24,53,44,36,3,22,39,41,3,26,45,12,19,0,9,54,20,7,1,0,27,53,13,0,0,6,0,0,0,1,0,13,6,37,0,6,52,13,34,3,17,0,42,17,0,0,3,53,17,20,0,0,0,0,0,0,0,0,0,0,0,0,0,0,0,0,0,0,0,0,0,0,0,0,0,0,0,0,0,0,0,0,0,0,0,0,0,0,0,0],"split_type":[0,0,0,0,0,0,0,0,0,0,0,0,0,0,0,0,0,0,0,0,0,0,0,0,0,0,0,0,0,0,0,0,0,0,0,0,0,0,0,0,0,0,0,0,0,0,0,0,0,0,0,0,0,0,0,0,0,0,0,0,0,0,0,0,0,0,0,0,0,0,0,0,0,0,0,0,0,0,0,0,0,0,0,0,0,0,0,0,0,0,0,0,0,0,0,0,0,0,0],"sum_hessian":[6.57E2,1.16E2,5.41E2,7.3E1,4.3E1,2.04E2,3.37E2,3.5E1,3.8E1,2.8E1,1.5E1,1.71E2,3.3E1,7E0,3.3E2,1.1E1,2.4E1,6E0,3.2E1,1.5E1,1.3E1,1.3E1,2E0,1.08E2,6.3E1,1E1,2.3E1,5E0,2E0,1.5E2,1.8E2,6E0,5E0,8E0,1.6E1,1E0,5E0,1E0,3.1E1,4E0,1.1E1,6E0,7E0,2E0,1.1E1,1.02E2,6E0,3.3E1,3E1,8E0,2E0,8E0,1.5E1,3E0,2E0,5.4E1,9.6E1,1.56E2,2.4E1,3E0,3E0,1.2E1,4E0,1E0,4E0,2.1E1,1E1,3E0,1E0,9E0,2E0,5E0,1E0,3E0,4E0,1E1,1E0,7.8E1,2.4E1,2E0,4E0,1.7E1,1.6E1,1.7E1,1.3E1,6E0,2E0,3E0,5E0,7E0,8E0,2.3E1,3.1E1,8.2E1,1.4E1,1.15E2,4.1E1,7E0,1.7E1],"tree_param":{"num_deleted":"0","num_feature":"60","num_nodes":"99","size_leaf_vector":"0"}},{"base_weights":[3.601062E-6,-6.327418E-5,9.1599656E-4,4.911994E-4,-2.0317528E-4,-3.820041E-5,2.4898623E-3,9.458515E-4,-3.2798664E-4,-4.1497432E-4,6.504165E-4,3.6018662E-4,-9.635256E-4,5.582124E-4,4.5931917E-3,1.8504895E-3,1.636365E-4,-9.90762E-4,8.219235E-4,-7.864546E-4,6.850423E-4,1.2334532E-3,-1.1013887E-3,-6.141998E-4,5.5670657E-4,-1.911521E-4,-1.8812045E-3,1.1772279E-3,-6.6461787E-4,2.1215652E-3,8.005381E-3,2.4139415E-4,2.6131994E-3,9.696876E-4,-1.4593748E-3,-1.682844E-4,-1.8599677E-3,2.968356E-3,5.022492E-4,-4.9591495E-4,-2.134632E-3,-1.5425659E-3,1.4885609E-3,2.33638E-3,1.2709136E-4,6.6486E-4,-3.07023E-3,2.3233755E-4,9.331256E-4,3.721714E-4,2.3970096E-3,-2.4391297E-4,1.0666682E-3,1.0126192E-3,3.612745E-3,2.6534544E-3,-4.868582E-6,-3.5851202E-3,-3.6045638E-4,9.283811E-4,-6.1120465E-4,-3.2124114E-3,-4.4408347E-4,9.5999736E-4,-7.5498596E-5,-7.64992E-4,1.7896153E-3,-1.1270347E-3,-4.1428013E-3,-4.1890796E-3,2.606233E-4,2.0636888E-3,-1.1236796E-3,1.2751055E-3,4.197571E-3,-1.3130973E-3,1.983389E-3,-7.7657105E-4,1.3190896E-3,-4.2236918E-3,2.9261725E-4],"categories":[],"categories_nodes":[],"categories_segments":[],"categories_sizes":[],"default_left":[1,1,1,1,1,1,1,1,1,1,1,1,1,1,1,1,1,1,1,1,1,1,1,0,1,0,0,0,0,1,0,1,1,1,1,1,1,0,1,1,1,1,1,1,1,1,1,0,0,0,0,0,0,0,0,0,0,0,0,0,0,0,0,0,0,0,0,0,0,0,0,0,0,0,0,0,0,0,0,0,0],"id":65,"left_children":[1,3,5,7,9,11,13,15,17,19,21,23,25,27,29,31,33,35,37,39,41,43,45,-1,47,-1,-1,-1,-1,49,-1,51,53,55,57,59,61,-1,63,65,67,69,71,73,75,77,79,-1,-1,-1,-1,-1,-1,-1,-1,-1,-1,-1,-1,-1,-1,-1,-1,-1,-1,-1,-1,-1,-1,-1,-1,-1,-1,-1,-1,-1,-1,-1,-1,-1,-1],"loss_changes":[4.0206927E-5,4.7728678E-5,6.7675115E-5,4.6493362E-5,8.9037756E-5,1.1037539E-5,6.6505265E-5,5.6306904E-5,3.511028E-5,1.6154075E-4,1.01452446E-4,4.3631426E-6,6.0195216E-6,8.351915E-6,5.048531E-5,4.4778295E-5,5.8977257E-5,2.0419162E-5,1.0173852E-5,1.1449261E-4,1.8128866E-4,9.000054E-5,8.8977846E-5,1.6138188E-8,1.9809759E-6,4.1213738E-7,0E0,0E0,9.564985E-8,1.9990675E-6,0E0,5.4668217E-6,3.6337995E-5,4.9240683E-5,3.374803E-5,8.339197E-6,2.5382073E-5,0E0,4.303886E-6,1.5142505E-4,1.0054906E-4,1.2994022E-4,1.13494476E-4,6.773135E-5,1.0419429E-4,1.4226742E-5,4.7782916E-5,7.040239E-7,0E0,0E0,0E0,0E0,0E0,0E0,0E0,0E0,0E0,0E0,0E0,0E0,0E0,0E0,0E0,0E0,0E0,0E0,0E0,0E0,0E0,0E0,0E0,0E0,0E0,0E0,0E0,0E0,0E0,0E0,0E0,0E0,0E0],"parents":[2147483647,0,0,1,1,2,2,3,3,4,4,5,5,6,6,7,7,8,8,9,9,10,10,11,11,12,12,13,13,14,14,15,15,16,16,17,17,18,18,19,19,20,20,21,21,22,22,24,24,29,29,31,31,32,32,33,33,34,34,35,35,36,36,38,38,39,39,40,40,41,41,42,42,43,43,44,44,45,45,46,46],"right_children":[2,4,6,8,10,12,14,16,18,20,22,24,26,28,30,32,34,36,38,40,42,44,46,-1,48,-1,-1,-1,-1,50,-1,52,54,56,58,60,62,-1,64,66,68,70,72,74,76,78,80,-1,-1,-1,-1,-1,-1,-1,-1,-1,-1,-1,-1,-1,-1,-1,-1,-1,-1,-1,-1,-1,-1,-1,-1,-1,-1,-1,-1,-1,-1,-1,-1,-1,-1],"split_conditions":[1.1424309E0,-5.218183E-1,-4.2286295E-2,1.9414634E-1,4.636045E-1,1.3459688E-1,-2.693098E-1,-2.3166385E-1,1.2074445E-1,3.7461516E-1,3.2813805E-1,-2.332396E0,-5.2210532E-2,-8.3769575E-2,3.1468224E-2,-5.420382E-1,2.728837E-1,-1.596159E-1,-1.2168415E0,4.5937586E-1,-3.193415E-1,-1.3481589E-1,-2.1478848E-1,-1.8425994E-4,-4.6549028E-1,-5.734563E-5,-5.643614E-4,3.531684E-4,-1.9938537E-4,-1.0820634E0,2.4016143E-3,2.7231908E-1,-1.473532E-1,-2.9405656E-1,6.7186154E-2,-5.406858E-1,5.8175755E-1,8.9050684E-4,-5.058693E-2,5.38718E-1,1.2277382E-1,-1.9018334E-1,5.2864546E-1,1.6440722E-1,2.3985462E-1,-5.688166E-1,5.145332E-1,6.9701266E-5,2.799377E-4,1.11651425E-4,7.191029E-4,-7.31739E-5,3.2000046E-4,3.0378578E-4,1.0838236E-3,7.960364E-4,-1.4605747E-6,-1.0755361E-3,-1.0813692E-4,2.7851434E-4,-1.8336141E-4,-9.6372346E-4,-1.3322505E-4,2.8799922E-4,-2.264958E-5,-2.294976E-4,5.368846E-4,-3.381104E-4,-1.2428404E-3,-1.2567239E-3,7.818699E-5,6.191067E-4,-3.3710388E-4,3.8253167E-4,1.2592713E-3,-3.9392922E-4,5.9501675E-4,-2.3297132E-4,3.9572688E-4,-1.2671076E-3,8.778518E-5],"split_indices":[59,59,40,12,9,18,43,55,7,29,29,55,11,7,15,51,29,24,52,27,0,13,19,0,50,0,0,0,0,9,0,13,26,1,55,45,12,0,51,49,1,52,19,55,0,49,17,0,0,0,0,0,0,0,0,0,0,0,0,0,0,0,0,0,0,0,0,0,0,0,0,0,0,0,0,0,0,0,0,0,0],"split_type":[0,0,0,0,0,0,0,0,0,0,0,0,0,0,0,0,0,0,0,0,0,0,0,0,0,0,0,0,0,0,0,0,0,0,0,0,0,0,0,0,0,0,0,0,0,0,0,0,0,0,0,0,0,0,0,0,0,0,0,0,0,0,0,0,0,0,0,0,0,0,0,0,0,0,0,0,0,0,0,0,0],"sum_hessian":[6.57E2,6.13E2,4.4E1,1.23E2,4.9E2,2.8E1,1.6E1,7.9E1,4.4E1,3.93E2,9.7E1,2E1,8E0,9E0,7E0,3.6E1,4.3E1,2.8E1,1.6E1,2.94E2,9.9E1,7.3E1,2.4E1,3E0,1.7E1,5E0,3E0,6E0,3E0,5E0,2E0,1.2E1,2.4E1,2.9E1,1.4E1,1.5E1,1.3E1,1E0,1.5E1,2.43E2,5.1E1,2.6E1,7.3E1,3.6E1,3.7E1,1.3E1,1.1E1,1E1,7E0,1E0,4E0,8E0,4E0,1E1,1.4E1,1E1,1.9E1,4E0,1E1,4E0,1.1E1,6E0,7E0,8E0,7E0,2.18E2,2.5E1,3.5E1,1.6E1,1E1,1.6E1,6E1,1.3E1,2.4E1,1.2E1,2.1E1,1.6E1,4E0,9E0,8E0,3E0],"tree_param":{"num_deleted":"0","num_feature":"60","num_nodes":"81","size_leaf_vector":"0"}},{"base_weights":[7.0560586E-6,-2.7031426E-3,3.194754E-5,-7.541388E-4,-6.224081E-3,1.9884923E-4,-3.2108245E-4,1.7540902E-4,-1.030378E-3,1.6127437E-4,5.6685978E-3,-9.3877513E-4,2.4899066E-4,2.5198117E-4,-1.429035E-3,7.3064566E-3,1.1964403E-3,-1.5703652E-3,4.102698E-4,4.774416E-4,-8.05824E-3,-9.424817E-5,8.5453835E-4,-3.239208E-3,-4.931281E-4,-1.0703697E-4,-2.5085276E-3,1.7306154E-3,-6.5370137E-4,1.3768061E-3,-3.5140742E-4,2.88782E-4,-1.7221561E-3,-5.037885E-4,1.276791E-3,-4.0229857E-3,-1.4496837E-3,-1.218285E-3,2.8682087E-4,-3.69669E-3,3.1127056E-4,-1.3024127E-4,-3.824974E-3,-1.2293458E-6,2.5966605E-3,8.2694326E-4,-1.8057105E-3,5.4284856E-3,1.0179586E-3,-2.9592812E-3,1.3426385E-5],"categories":[],"categories_nodes":[],"categories_segments":[],"categories_sizes":[],"default_left":[1,1,1,1,0,1,1,0,0,1,1,1,1,1,1,0,0,1,1,1,0,1,1,1,1,1,1,1,1,1,1,0,0,0,0,0,0,0,0,0,0,0,0,0,0,0,0,0,0,0,0],"id":66,"left_children":[1,3,5,7,-1,9,11,-1,-1,13,15,17,19,21,23,-1,-1,25,27,29,-1,31,33,35,37,39,41,43,45,47,49,-1,-1,-1,-1,-1,-1,-1,-1,-1,-1,-1,-1,-1,-1,-1,-1,-1,-1,-1,-1],"loss_changes":[4.4475604E-5,3.6480113E-5,3.8539463E-5,1.4646255E-6,0E0,9.033896E-5,7.418104E-5,0E0,1.2218152E-8,6.411942E-5,1.3232544E-5,8.670064E-5,2.1260476E-4,8.7493565E-5,3.9062335E-5,0E0,0E0,9.44574E-5,4.7490023E-5,8.0991056E-5,0E0,1.6698193E-4,8.8397464E-5,5.3886615E-6,9.964381E-6,4.319488E-5,1.3099905E-4,2.2501034E-5,3.390183E-5,7.007863E-5,5.4271848E-5,0E0,0E0,0E0,0E0,0E0,0E0,0E0,0E0,0E0,0E0,0E0,0E0,0E0,0E0,0E0,0E0,0E0,0E0,0E0,0E0],"parents":[2147483647,0,0,1,1,2,2,3,3,5,5,6,6,9,9,10,10,11,11,12,12,13,13,14,14,17,17,18,18,19,19,21,21,22,22,23,23,24,24,25,25,26,26,27,27,28,28,29,29,30,30],"right_children":[2,4,6,8,-1,10,12,-1,-1,14,16,18,20,22,24,-1,-1,26,28,30,-1,32,34,36,38,40,42,44,46,48,50,-1,-1,-1,-1,-1,-1,-1,-1,-1,-1,-1,-1,-1,-1,-1,-1,-1,-1,-1,-1],"split_conditions":[-3.011041E0,-3.152759E0,2.2918618E-1,-5.2588594E-1,-1.8672243E-3,2.2530203E-1,-6.868553E-2,5.262271E-5,-3.091134E-4,1.1902943E0,3.776744E-2,1.8999168E-1,1.3541781E0,1.0769682E-1,1.5151757E0,2.191937E-3,3.589321E-4,-2.6581955E-1,-1.08733594E-1,-9.619397E-2,-2.417472E-3,-7.329775E-2,-3.32007E-1,-1.8128249E-1,-1.4337438E-1,-1.9522114E0,-3.6251688E-1,-2.7447596E-1,3.8294572E-2,-9.750147E-1,-9.1577876E-1,8.66346E-5,-5.1664683E-4,-1.5113657E-4,3.8303732E-4,-1.2068958E-3,-4.3490512E-4,-3.654855E-4,8.604626E-5,-1.109007E-3,9.3381175E-5,-3.9072384E-5,-1.1474922E-3,-3.6880377E-7,7.789982E-4,2.48083E-4,-5.4171315E-4,1.6285457E-3,3.053876E-4,-8.877844E-4,4.0279156E-6],"split_indices":[6,6,51,2,0,51,15,0,0,32,0,54,34,39,32,0,0,32,25,11,0,39,4,0,27,3,56,37,11,32,57,0,0,0,0,0,0,0,0,0,0,0,0,0,0,0,0,0,0,0,0],"split_type":[0,0,0,0,0,0,0,0,0,0,0,0,0,0,0,0,0,0,0,0,0,0,0,0,0,0,0,0,0,0,0,0,0,0,0,0,0,0,0,0,0,0,0,0,0,0,0,0,0,0,0],"sum_hessian":[6.57E2,5E0,6.52E2,4E0,1E0,4.43E2,2.09E2,1E0,3E0,4.41E2,2E0,1E2,1.09E2,4.18E2,2.3E1,1E0,1E0,6.8E1,3.2E1,1.07E2,2E0,2.66E2,1.52E2,7E0,1.6E1,2.7E1,4.1E1,1.4E1,1.8E1,5.1E1,5.6E1,2.16E2,5E1,3.6E1,1.16E2,4E0,3E0,8E0,8E0,2E0,2.5E1,1.5E1,2.6E1,5E0,9E0,8E0,1E1,3E0,4.8E1,6E0,5E1],"tree_param":{"num_deleted":"0","num_feature":"60","num_nodes":"51","size_leaf_vector":"0"}},{"base_weights":[-2.3174343E-6,1.10881076E-4,-5.734813E-4,5.0120194E-5,3.0836079E-3,7.4252515E-5,-1.4622093E-3,-2.2338518E-4,4.3111166E-4,4.637863E-3,2.9092917E-4,3.769461E-4,-2.0917207E-3,-1.3824832E-4,-2.7801592E-3,-1.1405869E-4,-2.5657578E-3,3.4306628E-5,1.4572215E-3,2.3205467E-3,5.7957135E-3,9.364386E-4,-4.5155673E-4,-7.7131303E-4,8.438597E-4,-8.308649E-4,-3.1448603E-3,2.2956356E-3,-5.95262E-4,-1.2035794E-3,-5.098886E-3,-3.925889E-4,7.976747E-4,-4.790074E-3,3.4285497E-4,4.760254E-4,-1.6686189E-3,-1.4730144E-3,2.3244931E-3,3.23819E-4,-1.5702874E-3,-7.676431E-5,1.7243E-3,-3.005604E-3,-1.8335212E-4,-2.0920513E-3,-1.6466016E-4,-3.6397576E-4,-5.6452528E-3,-7.119839E-5,-1.5914311E-3,1.590989E-3,-7.2566303E-4,-1.4887918E-3,-6.4730854E-3,-1.8240014E-3,1.5743978E-3,1.1693032E-3,-4.1670885E-4,-2.7151213E-3,2.3074046E-4,4.7824613E-4,-3.7713472E-3,1.3360295E-3,5.26092E-3,-2.1691024E-4,9.187758E-4,-3.9930642E-4,-2.0150926E-3,-5.110023E-4,6.9274777E-4,3.0645176E-3,2.273277E-4,-8.5296563E-4,3.8118186E-4,-2.4836175E-3,-6.1156816E-4,1.769167E-4,-1.2778491E-3],"categories":[],"categories_nodes":[],"categories_segments":[],"categories_sizes":[],"default_left":[1,1,1,1,1,1,1,1,1,1,1,1,1,1,1,1,1,1,1,0,0,0,0,1,1,0,0,0,1,1,1,1,1,1,1,1,1,1,1,1,1,1,1,0,1,1,1,0,0,0,0,0,0,0,0,0,0,0,0,0,0,0,0,0,0,0,0,0,0,0,0,0,0,0,0,0,0,0,0],"id":67,"left_children":[1,3,5,7,9,11,13,15,17,19,21,23,25,27,29,31,33,35,37,-1,-1,-1,-1,39,41,-1,-1,-1,43,45,47,49,51,53,55,57,59,61,63,65,67,69,71,-1,73,75,77,-1,-1,-1,-1,-1,-1,-1,-1,-1,-1,-1,-1,-1,-1,-1,-1,-1,-1,-1,-1,-1,-1,-1,-1,-1,-1,-1,-1,-1,-1,-1,-1],"loss_changes":[4.2606516E-5,9.918948E-5,6.285542E-5,5.636604E-5,4.639659E-5,4.2748543E-5,7.988171E-5,8.037362E-5,9.1969414E-5,5.3325202E-6,2.8192637E-6,3.1210737E-5,8.009902E-6,2.8062144E-5,7.7943216E-5,7.700464E-5,9.221776E-5,1.2415742E-4,1.6352661E-4,0E0,0E0,0E0,0E0,1.538319E-5,3.3365097E-5,5.261427E-9,0E0,0E0,2.0298632E-5,1.3501278E-5,2.1228261E-5,8.9275476E-5,8.695699E-5,3.481169E-5,2.155174E-5,8.156484E-5,6.8207744E-5,6.907333E-5,1.3519629E-4,2.7729764E-6,4.4039443E-6,7.371175E-6,4.1434992E-5,0E0,7.5075077E-6,3.1187592E-6,3.2679893E-6,0E0,0E0,0E0,0E0,0E0,0E0,0E0,0E0,0E0,0E0,0E0,0E0,0E0,0E0,0E0,0E0,0E0,0E0,0E0,0E0,0E0,0E0,0E0,0E0,0E0,0E0,0E0,0E0,0E0,0E0,0E0,0E0],"parents":[2147483647,0,0,1,1,2,2,3,3,4,4,5,5,6,6,7,7,8,8,9,9,10,10,11,11,12,12,13,13,14,14,15,15,16,16,17,17,18,18,23,23,24,24,28,28,29,29,30,30,31,31,32,32,33,33,34,34,35,35,36,36,37,37,38,38,39,39,40,40,41,41,42,42,44,44,45,45,46,46],"right_children":[2,4,6,8,10,12,14,16,18,20,22,24,26,28,30,32,34,36,38,-1,-1,-1,-1,40,42,-1,-1,-1,44,46,48,50,52,54,56,58,60,62,64,66,68,70,72,-1,74,76,78,-1,-1,-1,-1,-1,-1,-1,-1,-1,-1,-1,-1,-1,-1,-1,-1,-1,-1,-1,-1,-1,-1,-1,-1,-1,-1,-1,-1,-1,-1,-1,-1],"split_conditions":[5.5178463E-1,5.2181673E-1,4.3637E-3,8.349008E-2,-1.5555936E-1,1.3285065E0,4.4444948E-4,4.924466E-2,2.7354527E-1,-7.8266904E-2,1.6553293E-1,-5.88367E-1,-9.967483E-2,-1.0389432E0,1.8964437E-1,3.792464E-1,-7.642087E-2,3.9000827E-1,-5.6298506E-1,6.9616403E-4,1.7387142E-3,2.809316E-4,-1.3546702E-4,-6.0884535E-1,-1.4658418E-1,-2.4925946E-4,-9.434581E-4,6.886907E-4,-9.71794E-1,2.6860914E-1,-4.807887E-1,1.3964114E-1,1.5348881E-1,-2.2879362E-1,-1.6226712E-1,4.2084433E-2,3.5560745E-1,-2.6999277E-1,1.6336861E-1,-2.1532398E-1,-6.495509E-1,-9.400632E-3,3.6893226E-2,-9.0168125E-4,-4.2466843E-1,5.6512403E-1,2.1665888E0,-1.0919273E-4,-1.6935759E-3,-2.1359518E-5,-4.7742933E-4,4.772967E-4,-2.1769892E-4,-4.4663754E-4,-1.9419257E-3,-5.4720044E-4,4.7231934E-4,3.5079097E-4,-1.2501267E-4,-8.145364E-4,6.9222144E-5,1.4347385E-4,-1.1314042E-3,4.0080887E-4,1.5782762E-3,-6.507307E-5,2.7563274E-4,-1.1979193E-4,-6.045278E-4,-1.533007E-4,2.0782434E-4,9.193553E-4,6.8198315E-5,-2.558897E-4,1.1435456E-4,-7.450853E-4,-1.8347046E-4,5.307501E-5,-3.8335475E-4],"split_indices":[4,4,10,47,25,0,56,47,42,9,0,15,7,34,35,6,23,52,45,0,0,0,0,38,32,0,0,0,43,3,2,6,17,2,1,37,25,23,26,0,7,3,9,0,28,10,4,0,0,0,0,0,0,0,0,0,0,0,0,0,0,0,0,0,0,0,0,0,0,0,0,0,0,0,0,0,0,0,0],"split_type":[0,0,0,0,0,0,0,0,0,0,0,0,0,0,0,0,0,0,0,0,0,0,0,0,0,0,0,0,0,0,0,0,0,0,0,0,0,0,0,0,0,0,0,0,0,0,0,0,0,0,0,0,0,0,0,0,0,0,0,0,0,0,0,0,0,0,0,0,0,0,0,0,0,0,0,0,0,0,0],"sum_hessian":[6.57E2,5.49E2,1.08E2,5.39E2,1E1,6.3E1,4.5E1,3.14E2,2.25E2,6E0,4E0,5.6E1,7E0,2.3E1,2.2E1,3.01E2,1.3E1,1.63E2,6.2E1,3E0,3E0,2E0,2E0,1.6E1,4E1,4E0,3E0,3E0,2E1,1.4E1,8E0,2.31E2,7E1,7E0,6E0,1.3E2,3.3E1,1.4E1,4.8E1,7E0,9E0,2E1,2E1,2E0,1.8E1,7E0,7E0,1E0,7E0,1.83E2,4.8E1,4.6E1,2.4E1,3E0,4E0,2E0,4E0,7.3E1,5.7E1,2.1E1,1.2E1,8E0,6E0,3.7E1,1.1E1,4E0,3E0,3E0,6E0,1.3E1,7E0,1E1,1E1,8E0,1E1,5E0,2E0,6E0,1E0],"tree_param":{"num_deleted":"0","num_feature":"60","num_nodes":"79","size_leaf_vector":"0"}},{"base_weights":[-7.2945218E-6,-4.9932353E-4,1.17129726E-4,-3.515809E-5,-1.3478996E-3,2.2047914E-4,-8.291799E-4,-3.8854827E-3,1.0114935E-4,-9.4192213E-4,-5.476676E-3,5.7314634E-3,1.967609E-4,2.7037278E-4,-2.0275118E-3,-5.314976E-3,-5.1324815E-4,-3.532211E-3,2.3125696E-4,-5.9384904E-3,-5.6259765E-4,-1.2993068E-3,-6.43603E-3,6.474553E-5,1.1614216E-3,-1.6719755E-4,2.3166358E-3,-3.1297965E-4,-3.3522884E-3,-4.724756E-3,-5.735606E-4,-2.8261077E-4,8.4722164E-4,-1.0726452E-3,-7.83509E-3,4.8807493E-4,-9.991359E-4,1.2259389E-4,-2.915307E-3,1.8892781E-3,-6.6231587E-4,-7.736644E-4,6.1986916E-4,-1.314481E-4,3.9925077E-3,1.9041555E-4,-8.4811077E-4,-1.3587243E-3,-5.7839197E-3,-5.718617E-4,8.158788E-4,1.8437952E-3,-1.4188429E-4,7.528398E-4,-8.6116794E-5,-2.165989E-3,-5.4983323E-4,4.7948927E-4,-2.910002E-4,-7.164478E-5,-3.3113095E-3,-3.2495175E-4,2.9289187E-3,7.60423E-4,-1.7342754E-3,-1.1694652E-3,1.7267019E-4,1.2632853E-3,-4.0488737E-4,-1.9750036E-3,-9.4624236E-5],"categories":[],"categories_nodes":[],"categories_segments":[],"categories_sizes":[],"default_left":[1,1,1,1,1,1,1,1,1,1,1,0,1,1,1,0,0,1,1,1,1,0,0,1,1,1,1,1,1,0,0,1,1,0,0,1,1,1,1,1,1,1,1,0,0,0,0,1,0,0,0,0,0,0,0,0,0,0,0,0,0,0,0,0,0,0,0,0,0,0,0],"id":68,"left_children":[1,3,5,7,9,11,13,15,17,19,21,-1,23,25,27,-1,-1,29,31,33,35,-1,-1,37,39,41,43,45,47,-1,-1,49,51,-1,-1,53,55,57,59,61,63,65,67,-1,-1,-1,-1,69,-1,-1,-1,-1,-1,-1,-1,-1,-1,-1,-1,-1,-1,-1,-1,-1,-1,-1,-1,-1,-1,-1,-1],"loss_changes":[4.0341467E-5,5.2338604E-5,5.1625902E-5,4.6053043E-5,7.362232E-5,6.0959934E-5,6.90649E-5,1.1733857E-5,4.0998715E-5,8.005311E-5,7.667928E-6,0E0,6.0288716E-5,2.5458088E-5,5.573511E-5,0E0,0E0,7.8750345E-6,2.6510956E-5,1.9281411E-5,1.9751322E-5,0E0,0E0,7.241689E-5,7.6914184E-5,1.1935487E-5,2.1038188E-5,3.3940828E-6,6.0007835E-5,0E0,0E0,1.5082572E-5,3.771884E-5,0E0,0E0,2.0411676E-6,1.4537172E-5,6.080717E-5,8.771545E-6,9.5333904E-5,2.7245795E-5,5.4457723E-6,7.7642835E-6,0E0,0E0,5.948581E-7,1.6967988E-8,6.8244644E-6,0E0,0E0,0E0,0E0,0E0,0E0,0E0,0E0,0E0,0E0,0E0,0E0,0E0,0E0,0E0,0E0,0E0,0E0,0E0,0E0,0E0,0E0,0E0],"parents":[2147483647,0,0,1,1,2,2,3,3,4,4,5,5,6,6,7,7,8,8,9,9,10,10,12,12,13,13,14,14,17,17,18,18,19,19,20,20,23,23,24,24,25,25,26,26,27,27,28,28,31,31,32,32,35,35,36,36,37,37,38,38,39,39,40,40,41,41,42,42,47,47],"right_children":[2,4,6,8,10,12,14,16,18,20,22,-1,24,26,28,-1,-1,30,32,34,36,-1,-1,38,40,42,44,46,48,-1,-1,50,52,-1,-1,54,56,58,60,62,64,66,68,-1,-1,-1,-1,70,-1,-1,-1,-1,-1,-1,-1,-1,-1,-1,-1,-1,-1,-1,-1,-1,-1,-1,-1,-1,-1,-1,-1],"split_conditions":[-4.833712E-1,1.14319265E-1,7.3688966E-1,-2.366233E0,1.0140256E0,-3.4009569E0,-2.2024175E-2,3.0674392E-1,-2.8249362E0,-1.9396545E0,2.8421016E-2,1.719439E-3,3.8034403E-1,3.9772552E-1,-2.83353E-1,-1.5944928E-3,-1.5397446E-4,9.101309E-1,-1.150568E-1,-5.241719E-2,-4.1364467E-1,-3.8979205E-4,-1.930809E-3,3.5404056E-1,4.0091932E-1,-7.3821835E-2,-7.3003566E-1,-1.9731483E-1,3.781108E-2,-1.4174269E-3,-1.7206819E-4,3.102458E-1,2.745515E-1,-3.2179357E-4,-2.350527E-3,3.318817E-1,-2.1427725E-1,3.788194E-2,-3.860467E-1,-2.7050474E-1,-1.9922665E-1,1.8529026E-1,2.926612E-1,-3.943443E-5,1.1977523E-3,5.7124667E-5,-2.5443325E-4,1.1676939E0,-1.735176E-3,-1.7155851E-4,2.4476365E-4,5.5313855E-4,-4.2565287E-5,2.2585194E-4,-2.583504E-5,-6.4979674E-4,-1.6494998E-4,1.4384679E-4,-8.730007E-5,-2.1493435E-5,-9.933929E-4,-9.748553E-5,8.7867567E-4,2.2812691E-4,-5.2028266E-4,-3.5083957E-4,5.180106E-5,3.789856E-4,-1.2146621E-4,-5.9250114E-4,-2.8387272E-5],"split_indices":[17,21,45,34,6,41,12,0,6,31,1,0,45,48,37,0,0,0,29,0,4,0,0,45,35,20,3,5,55,0,0,0,29,0,0,55,50,19,0,0,36,30,57,0,0,0,0,45,0,0,0,0,0,0,0,0,0,0,0,0,0,0,0,0,0,0,0,0,0,0,0],"split_type":[0,0,0,0,0,0,0,0,0,0,0,0,0,0,0,0,0,0,0,0,0,0,0,0,0,0,0,0,0,0,0,0,0,0,0,0,0,0,0,0,0,0,0,0,0,0,0,0,0,0,0,0,0,0,0,0,0,0,0,0,0,0,0,0,0,0,0,0,0,0,0],"sum_hessian":[6.57E2,1.32E2,5.25E2,8.6E1,4.6E1,4.74E2,5.1E1,2E0,8.4E1,4.3E1,3E0,1E0,4.73E2,2.7E1,2.4E1,1E0,1E0,2E0,8.2E1,2E0,4.1E1,1E0,2E0,4.17E2,5.6E1,2.3E1,4E0,1.1E1,1.3E1,1E0,1E0,4.5E1,3.7E1,1E0,1E0,1.2E1,2.9E1,4.1E2,7E0,4E1,1.6E1,1.3E1,1E1,2E0,2E0,6E0,5E0,8E0,5E0,3.6E1,9E0,1.8E1,1.9E1,8E0,4E0,7E0,2.2E1,2.2E2,1.9E2,1E0,6E0,1.3E1,2.7E1,7E0,9E0,9E0,4E0,6E0,4E0,5E0,3E0],"tree_param":{"num_deleted":"0","num_feature":"60","num_nodes":"71","size_leaf_vector":"0"}},{"base_weights":[-1.8096762E-5,-6.6044604E-6,-3.784269E-3,1.3702571E-4,-3.1950593E-4,-2.764318E-4,5.21627E-4,-2.3917216E-3,-8.508864E-5,2.9392948E-4,-9.6498657E-4,-4.0644011E-4,9.283707E-4,-4.001086E-4,-4.542485E-3,1.5813959E-4,-1.2681673E-3,-1.3439749E-4,1.4760286E-3,-4.8092954E-4,-3.1165248E-3,4.8135332E-4,-1.1699924E-3,-4.1388E-4,1.428143E-3,8.801129E-4,-2.3684413E-3,-1.7411312E-3,-6.9956123E-3,4.2532844E-4,-1.0784854E-3,-2.3731242E-4,-2.0567593E-3,-4.903307E-4,9.7186863E-4,3.0136094E-3,-2.4990295E-4,-2.6473836E-3,-1.4326393E-4,-4.9326327E-3,1.3377964E-3,-1.7376713E-4,2.6322156E-3,1.7939025E-4,-2.7542382E-3,-1.1996808E-3,5.413058E-4,2.0518748E-3,9.608097E-5,1.6767345E-3,6.679296E-5,-3.1358996E-4,-3.633812E-3,3.4451485E-5,-2.103138E-3,3.4958717E-5,2.0478682E-3,-4.9471048E-5,-2.446382E-3,1.8622205E-4,-9.036511E-4,-9.840422E-4,-3.2746503E-3],"categories":[],"categories_nodes":[],"categories_segments":[],"categories_sizes":[],"default_left":[1,1,0,1,1,1,1,1,1,1,1,1,1,1,1,1,1,1,1,1,1,1,1,1,1,1,1,1,0,1,1,1,1,0,0,0,0,0,0,0,0,0,0,0,0,0,0,0,0,0,0,0,0,0,0,0,0,0,0,0,0,0,0],"id":69,"left_children":[1,3,-1,5,7,9,11,13,15,17,19,21,23,25,27,29,31,33,35,37,39,41,43,45,47,49,51,53,-1,55,57,59,61,-1,-1,-1,-1,-1,-1,-1,-1,-1,-1,-1,-1,-1,-1,-1,-1,-1,-1,-1,-1,-1,-1,-1,-1,-1,-1,-1,-1,-1,-1],"loss_changes":[2.8454553E-5,2.9570734E-5,0E0,7.186055E-5,1.0034947E-4,8.5897685E-5,8.8708905E-5,8.813576E-5,5.4011318E-5,6.095737E-5,1.01606434E-4,4.9370297E-5,1.09934685E-4,3.2323318E-5,5.654049E-5,5.2003044E-5,2.5525474E-5,3.5520894E-5,8.567341E-5,5.960677E-5,1.5221038E-4,4.8365902E-5,8.386648E-5,3.4425757E-5,9.867396E-5,5.0712715E-6,1.1861215E-5,3.9290935E-6,0E0,8.1635764E-5,3.929136E-5,4.401541E-6,2.0293752E-5,0E0,0E0,0E0,0E0,0E0,0E0,0E0,0E0,0E0,0E0,0E0,0E0,0E0,0E0,0E0,0E0,0E0,0E0,0E0,0E0,0E0,0E0,0E0,0E0,0E0,0E0,0E0,0E0,0E0,0E0],"parents":[2147483647,0,0,1,1,3,3,4,4,5,5,6,6,7,7,8,8,9,9,10,10,11,11,12,12,13,13,14,14,15,15,16,16,17,17,18,18,19,19,20,20,21,21,22,22,23,23,24,24,25,25,26,26,27,27,29,29,30,30,31,31,32,32],"right_children":[2,4,-1,6,8,10,12,14,16,18,20,22,24,26,28,30,32,34,36,38,40,42,44,46,48,50,52,54,-1,56,58,60,62,-1,-1,-1,-1,-1,-1,-1,-1,-1,-1,-1,-1,-1,-1,-1,-1,-1,-1,-1,-1,-1,-1,-1,-1,-1,-1,-1,-1,-1,-1],"split_conditions":[4.5793595E0,2.3693067E-1,-1.1352808E-3,-4.542148E-2,2.7916378E-1,9.21946E-2,-2.4413946E-1,-1.0314678E-1,5.621807E-1,-3.0287553E-2,-1.425084E-1,-9.422545E-2,-3.5290572E-1,-1.8108264E-3,1.9045219E-1,5.5810946E-1,-2.6218575E-1,4.790622E-1,9.4256744E-2,-6.8406916E-1,6.249224E-1,5.9564793E-1,-7.949915E-2,1.9055852E-1,1.6697316E-1,6.606029E-2,-1.4871137E-1,-2.8205016E-1,-2.0986837E-3,3.8887042E-1,-6.0433336E-4,1.625491E-1,3.773781E-2,-1.4709921E-4,2.915606E-4,9.0408284E-4,-7.4970885E-5,-7.942151E-4,-4.297918E-5,-1.4797898E-3,4.0133894E-4,-5.213014E-5,7.8966474E-4,5.3817075E-5,-8.262715E-4,-3.5990425E-4,1.6239175E-4,6.155624E-4,2.8824292E-5,5.0302036E-4,2.0037889E-5,-9.407699E-5,-1.0901437E-3,1.0335446E-5,-6.309414E-4,1.0487615E-5,6.143605E-4,-1.4841315E-5,-7.3391467E-4,5.5866618E-5,-2.7109534E-4,-2.9521267E-4,-9.823951E-4],"split_indices":[50,45,0,32,45,14,26,21,12,45,32,18,58,8,7,50,8,35,51,52,30,25,7,30,28,0,2,0,0,42,0,27,10,0,0,0,0,0,0,0,0,0,0,0,0,0,0,0,0,0,0,0,0,0,0,0,0,0,0,0,0,0,0],"split_type":[0,0,0,0,0,0,0,0,0,0,0,0,0,0,0,0,0,0,0,0,0,0,0,0,0,0,0,0,0,0,0,0,0,0,0,0,0,0,0,0,0,0,0,0,0,0,0,0,0,0,0,0,0,0,0,0,0,0,0,0,0,0,0],"sum_hessian":[6.57E2,6.56E2,1E0,4.5E2,2.06E2,2.17E2,2.33E2,2E1,1.86E2,1.19E2,9.8E1,7.1E1,1.62E2,1.1E1,9E0,1.55E2,3.1E1,8.8E1,3.1E1,8.1E1,1.7E1,3.3E1,3.8E1,4.4E1,1.18E2,7E0,4E0,5E0,4E0,1.28E2,2.7E1,1.4E1,1.7E1,6.7E1,2.1E1,1.6E1,1.5E1,1E1,7.1E1,1.2E1,5E0,2.6E1,7E0,2.1E1,1.7E1,2.4E1,2E1,8E1,3.8E1,3E0,4E0,2E0,2E0,1E0,4E0,1.04E2,2.4E1,1.6E1,1.1E1,9E0,5E0,1E1,7E0],"tree_param":{"num_deleted":"0","num_feature":"60","num_nodes":"63","size_leaf_vector":"0"}},{"base_weights":[-2.2794604E-5,4.5167653E-5,-6.768377E-4,-1.5409452E-5,8.890891E-4,-2.799008E-4,-2.1514536E-3,2.6267229E-4,-3.02536E-4,3.5993392E-3,3.9907225E-4,1.3513658E-4,-1.7636821E-3,-5.748749E-3,-9.747865E-4,5.307388E-4,-8.88921E-4,-1.8012099E-3,-1.3211097E-4,-2.0928713E-4,1.4447025E-3,-4.6430356E-4,1.1651571E-3,-3.4310874E-3,-7.0951926E-4,-1.6696134E-3,1.9292832E-4,3.806302E-4,2.397951E-3,6.83772E-5,-1.8487517E-3,-2.6469093E-3,6.4390246E-4,-4.4804136E-4,5.494115E-4,9.305452E-4,-5.7760417E-4,4.6174476E-4,2.925086E-3,-8.6461754E-5,-1.4775225E-3,2.7229803E-4,2.1466676E-3,-9.050447E-5,8.3117245E-4,3.633715E-5,4.4931257E-3,-9.0796966E-4,1.264775E-3,-3.187763E-4,-3.2466734E-3,-1.1214463E-3,-4.5562554E-3,1.1492312E-3,-1.4873408E-4,-3.168424E-4,-3.9813393E-3,1.5273803E-3,-7.236745E-4,4.3908756E-5,1.3628863E-3,2.7348287E-4,-1.1440672E-3,-1.3238788E-4,9.6352847E-4,1.1300197E-3,3.7451237E-3,1.9949861E-4,-9.842425E-4,-1.1134595E-3,5.8470014E-4,7.486741E-4,2.5561303E-3],"categories":[],"categories_nodes":[],"categories_segments":[],"categories_sizes":[],"default_left":[1,1,1,1,1,1,1,1,1,0,1,1,1,0,1,1,1,1,1,1,1,1,1,0,0,0,0,1,1,1,1,1,1,1,1,1,1,1,1,1,0,1,1,0,0,0,0,0,0,0,0,0,0,0,0,0,0,0,0,0,0,0,0,0,0,0,0,0,0,0,0,0,0],"id":70,"left_children":[1,3,5,7,9,11,13,15,17,-1,19,21,23,-1,25,27,29,31,33,35,37,39,41,-1,-1,-1,-1,43,45,47,49,51,53,55,57,59,61,63,65,67,-1,69,71,-1,-1,-1,-1,-1,-1,-1,-1,-1,-1,-1,-1,-1,-1,-1,-1,-1,-1,-1,-1,-1,-1,-1,-1,-1,-1,-1,-1,-1,-1],"loss_changes":[2.9278834E-5,3.0533723E-5,3.5688237E-5,4.463278E-5,5.1686333E-5,3.1029576E-5,4.9422844E-5,8.81436E-5,7.000022E-5,0E0,2.2566523E-5,2.5238412E-5,1.690046E-5,0E0,9.247071E-6,6.3833E-5,4.9743994E-5,5.9603582E-5,5.364395E-5,1.019334E-5,1.7566364E-5,9.825999E-6,1.2560724E-5,0E0,4.945646E-7,3.6198253E-7,8.210516E-8,4.571243E-5,8.3952626E-5,3.3855158E-5,5.6712248E-5,5.6055782E-5,3.3752663E-6,7.7544595E-5,9.946337E-5,2.2401332E-6,8.99085E-6,2.810694E-6,3.128047E-6,5.3309495E-6,0E0,4.547262E-6,2.0932748E-6,0E0,0E0,0E0,0E0,0E0,0E0,0E0,0E0,0E0,0E0,0E0,0E0,0E0,0E0,0E0,0E0,0E0,0E0,0E0,0E0,0E0,0E0,0E0,0E0,0E0,0E0,0E0,0E0,0E0,0E0],"parents":[2147483647,0,0,1,1,2,2,3,3,4,4,5,5,6,6,7,7,8,8,10,10,11,11,12,12,14,14,15,15,16,16,17,17,18,18,19,19,20,20,21,21,22,22,27,27,28,28,29,29,30,30,31,31,32,32,33,33,34,34,35,35,36,36,37,37,38,38,39,39,41,41,42,42],"right_children":[2,4,6,8,10,12,14,16,18,-1,20,22,24,-1,26,28,30,32,34,36,38,40,42,-1,-1,-1,-1,44,46,48,50,52,54,56,58,60,62,64,66,68,-1,70,72,-1,-1,-1,-1,-1,-1,-1,-1,-1,-1,-1,-1,-1,-1,-1,-1,-1,-1,-1,-1,-1,-1,-1,-1,-1,-1,-1,-1,-1,-1],"split_conditions":[8.288346E-1,8.4642804E-1,5.078577E-1,-2.819288E-2,9.6080226E-1,5.779263E-1,-8.8858706E-1,4.5585138E-1,4.2995267E-2,1.0798018E-3,1.3193792E-1,-1.3767855E-1,-3.9930987E-1,-1.7246247E-3,9.973561E-1,-7.171817E-2,-1.4105141E-1,4.750887E-1,1.9245166E-1,-5.5335647E-1,-6.5076225E-2,2.1017303E-1,1.3259625E0,-1.0293262E-3,-2.1285578E-4,-5.00884E-4,5.7878497E-5,-4.808102E-3,-9.7550616E-2,-1.4511846E-2,-1.5309781E-1,3.9030246E-2,7.2171426E-1,1.6790253E-1,5.106054E-2,-6.8242836E-1,-5.4423396E-2,-4.9062458E-1,-1.7151527E-1,6.490233E-1,-4.4325678E-4,-6.618917E-2,-5.155097E-1,-2.7151344E-5,2.4935175E-4,1.0901145E-5,1.3479377E-3,-2.723909E-4,3.7943255E-4,-9.5632895E-5,-9.7400206E-4,-3.3643388E-4,-1.3668766E-3,3.447694E-4,-4.4620225E-5,-9.5052725E-5,-1.1944019E-3,4.582141E-4,-2.1710235E-4,1.3172627E-5,4.088659E-4,8.204486E-5,-3.4322016E-4,-3.9716368E-5,2.8905855E-4,3.390059E-4,1.1235372E-3,5.9849586E-5,-2.9527277E-4,-3.3403785E-4,1.7541005E-4,2.2460223E-4,7.6683913E-4],"split_indices":[5,1,26,56,1,57,57,30,56,0,58,40,29,0,58,56,42,12,40,0,43,6,5,0,0,0,0,35,21,0,6,33,2,40,16,0,15,16,10,36,0,1,21,0,0,0,0,0,0,0,0,0,0,0,0,0,0,0,0,0,0,0,0,0,0,0,0,0,0,0,0,0,0],"split_type":[0,0,0,0,0,0,0,0,0,0,0,0,0,0,0,0,0,0,0,0,0,0,0,0,0,0,0,0,0,0,0,0,0,0,0,0,0,0,0,0,0,0,0,0,0,0,0,0,0,0,0,0,0,0,0,0,0,0,0,0,0,0,0,0,0,0,0,0,0,0,0,0,0],"sum_hessian":[6.57E2,5.96E2,6.1E1,5.57E2,3.9E1,4.9E1,1.2E1,2.83E2,2.74E2,5E0,3.4E1,3.9E1,1E1,2E0,1E1,2.3E2,5.3E1,2.7E1,2.47E2,2.2E1,1.2E1,2.5E1,1.4E1,3E0,7E0,6E0,4E0,2.14E2,1.6E1,2.7E1,2.6E1,2E1,7E0,1.69E2,7.8E1,5E0,1.7E1,8E0,4E0,1.9E1,6E0,8E0,6E0,1.05E2,1.09E2,8E0,8E0,1.5E1,1.2E1,1.3E1,1.3E1,1.2E1,8E0,4E0,3E0,1.64E2,5E0,4.4E1,3.4E1,2E0,3E0,7E0,1E1,4E0,4E0,2E0,2E0,1.5E1,4E0,1E0,7E0,2E0,4E0],"tree_param":{"num_deleted":"0","num_feature":"60","num_nodes":"73","size_leaf_vector":"0"}},{"base_weights":[-1.9203231E-5,9.6641516E-4,-5.321328E-5,3.2693893E-3,4.3071454E-4,-3.8069594E-4,4.9318776E-5,9.602308E-5,4.2951703E-3,7.7476166E-4,-1.3919547E-4,-3.1117682E-4,-5.439043E-3,9.406192E-4,-7.1298346E-5,4.8416355E-4,1.234917E-3,-6.1313156E-4,3.9139666E-4,-8.938566E-4,1.3414237E-3,-1.6519174E-3,2.6446782E-5,-2.5455751E-3,-4.0758963E-4,1.2086057E-3,-2.837105E-4,-1.7044824E-3,6.574532E-5,-2.2307634E-3,1.545231E-3,-3.1071072E-3,4.826066E-4,2.5966967E-4,-4.2173278E-4,-5.9336424E-5,-3.6026293E-3,-8.711589E-4,2.2020728E-4,2.46704E-3,4.031714E-4,1.3138354E-4,-8.6169183E-4,-3.9981856E-4,1.9045942E-3,-5.1008444E-4,-5.3157415E-3,-8.50295E-4,1.7350739E-3,1.7330902E-4,3.987474E-3,-1.0939675E-3,1.3375442E-4],"categories":[],"categories_nodes":[],"categories_segments":[],"categories_sizes":[],"default_left":[1,1,1,1,1,1,1,0,0,1,0,1,0,1,1,0,0,1,1,1,1,1,1,1,1,1,1,0,0,0,1,1,1,1,1,0,0,0,0,0,0,0,0,0,0,0,0,0,0,0,0,0,0],"id":71,"left_children":[1,3,5,7,9,11,13,-1,-1,15,-1,17,-1,19,21,-1,-1,23,25,27,29,31,33,35,37,39,41,-1,-1,-1,43,45,47,49,51,-1,-1,-1,-1,-1,-1,-1,-1,-1,-1,-1,-1,-1,-1,-1,-1,-1,-1],"loss_changes":[2.2108197E-5,2.5733332E-5,2.1407624E-5,1.2608278E-5,3.8332855E-6,5.1758587E-5,5.2315023E-5,0E0,0E0,1.0067411E-6,8.0856444E-7,3.227393E-5,0E0,4.3844477E-5,6.632324E-5,2.617703E-7,0E0,4.1065457E-5,2.5721263E-5,8.6687205E-6,3.8392864E-5,7.9152946E-5,4.2442432E-5,2.6067122E-5,2.8421488E-5,2.029067E-5,6.3510442E-6,0E0,8.539111E-7,0E0,3.2914533E-5,8.3326624E-5,1.9838895E-5,8.526575E-5,5.2051393E-5,0E0,0E0,0E0,0E0,0E0,0E0,0E0,0E0,0E0,0E0,0E0,0E0,0E0,0E0,0E0,0E0,0E0,0E0],"parents":[2147483647,0,0,1,1,2,2,3,3,4,4,5,5,6,6,9,9,11,11,13,13,14,14,17,17,18,18,19,19,20,20,21,21,22,22,23,23,24,24,25,25,26,26,30,30,31,31,32,32,33,33,34,34],"right_children":[2,4,6,8,10,12,14,-1,-1,16,-1,18,-1,20,22,-1,-1,24,26,28,30,32,34,36,38,40,42,-1,-1,-1,44,46,48,50,52,-1,-1,-1,-1,-1,-1,-1,-1,-1,-1,-1,-1,-1,-1,-1,-1,-1,-1],"split_conditions":[-1.9398301E0,-1.0162566E0,-3.7951678E-1,-4.3389317E-1,4.7351378E-1,-3.817728E-1,-2.2978804E-1,2.8806926E-5,1.2885511E-3,9.0606995E-2,-4.175864E-5,2.2530203E-1,-1.631713E-3,-6.019293E-1,-1.7691445E-1,1.4524907E-4,3.704751E-4,-8.1507695E-1,2.932482E-2,-9.0709135E-2,-1.1000504E0,2.2943303E-1,1.9667852E-1,-6.902461E-1,4.0459767E-2,-3.6434996E-1,8.65114E-3,-5.1134476E-4,1.9723597E-5,-6.692291E-4,-7.9756284E-1,-1.6502059E-1,-1.5149704E-1,1.795363E-1,2.2870325E-1,-1.7800929E-5,-1.0807888E-3,-2.6134768E-4,6.606219E-5,7.4011204E-4,1.2095142E-4,3.9415063E-5,-2.5850756E-4,-1.1994557E-4,5.713783E-4,-1.5302534E-4,-1.5947225E-3,-2.5508853E-4,5.205222E-4,5.199271E-5,1.1962422E-3,-3.2819025E-4,4.0126328E-5],"split_indices":[44,8,7,2,26,7,7,0,0,3,0,52,0,49,7,0,0,21,9,0,56,20,58,1,13,51,34,0,0,0,5,2,29,58,7,0,0,0,0,0,0,0,0,0,0,0,0,0,0,0,0,0,0],"split_type":[0,0,0,0,0,0,0,0,0,0,0,0,0,0,0,0,0,0,0,0,0,0,0,0,0,0,0,0,0,0,0,0,0,0,0,0,0,0,0,0,0,0,0,0,0,0,0,0,0,0,0,0,0],"sum_hessian":[6.57E2,2.1E1,6.36E2,3E0,1.8E1,1.51E2,4.85E2,1E0,2E0,1.1E1,7E0,1.5E2,1E0,5.7E1,4.28E2,8E0,3E0,1.05E2,4.5E1,1E1,4.7E1,2.4E1,4.04E2,9E0,9.6E1,2E1,2.5E1,5E0,5E0,2E0,4.5E1,1.4E1,1E1,2.66E2,1.38E2,3E0,6E0,5.5E1,4.1E1,7E0,1.3E1,1.5E1,1E1,7E0,3.8E1,7E0,7E0,5E0,5E0,2.61E2,5E0,6.2E1,7.6E1],"tree_param":{"num_deleted":"0","num_feature":"60","num_nodes":"53","size_leaf_vector":"0"}},{"base_weights":[-1.6059877E-5,-2.5511925E-5,3.096968E-3,-8.870588E-5,4.3138326E-4,3.8639307E-3,-1.0225279E-4,8.5569837E-4,-7.26161E-4,-2.1940403E-4,3.504756E-4,1.4353964E-3,-2.6163112E-4,-1.0946658E-3,2.1987302E-4,-3.7566264E-4,3.1098846E-4,-6.203518E-4,6.84691E-4,4.5589844E-4,2.6761643E-3,-1.3966266E-3,1.803441E-4,-8.921027E-5,-1.4223835E-3,-1.6986698E-4,-1.2742245E-3,-5.693525E-4,1.1529651E-3,-2.237514E-4,-2.2355616E-3,3.0885146E-3,5.0483824E-4,-6.692431E-5,1.1422604E-3,1.3223649E-3,4.937736E-3,-1.6365412E-3,-9.852648E-5,-1.8987805E-4,6.834694E-4,-3.5852194E-4,-1.5993037E-3],"categories":[],"categories_nodes":[],"categories_segments":[],"categories_sizes":[],"default_left":[1,1,0,1,1,0,1,1,1,1,1,1,1,1,0,1,1,1,1,1,1,1,1,0,1,0,0,0,0,0,0,0,0,0,0,0,0,0,0,0,0,0,0],"id":72,"left_children":[1,3,-1,5,7,-1,9,11,13,15,17,19,21,23,-1,25,27,29,31,33,35,37,39,-1,41,-1,-1,-1,-1,-1,-1,-1,-1,-1,-1,-1,-1,-1,-1,-1,-1,-1,-1],"loss_changes":[1.9440322E-5,1.9007835E-5,0E0,3.134469E-5,3.9914456E-5,0E0,3.0679646E-5,3.8590646E-5,7.910285E-6,3.815801E-5,3.9036146E-5,4.617779E-5,1.0786311E-5,5.145199E-6,6.7076337E-7,6.54302E-5,7.8485224E-5,1.935817E-5,3.6918558E-5,8.3298955E-6,4.5519657E-5,1.7073571E-6,3.1100662E-6,8.4582433E-7,1.6852355E-6,0E0,0E0,0E0,0E0,0E0,0E0,0E0,0E0,0E0,0E0,0E0,0E0,0E0,0E0,0E0,0E0,0E0,0E0],"parents":[2147483647,0,0,1,1,3,3,4,4,6,6,7,7,8,8,9,9,10,10,11,11,12,12,13,13,15,15,16,16,17,17,18,18,19,19,20,20,21,21,22,22,24,24],"right_children":[2,4,-1,6,8,-1,10,12,14,16,18,20,22,24,-1,26,28,30,32,34,36,38,40,-1,42,-1,-1,-1,-1,-1,-1,-1,-1,-1,-1,-1,-1,-1,-1,-1,-1,-1,-1],"split_conditions":[5.1434946E0,6.143545E-1,9.290904E-4,-3.4981008E0,4.7353512E-1,1.1591793E-3,4.263683E-1,1.3986498E-1,3.2858562E-1,3.9784664E-1,-4.5227385E-1,-1.275094E-1,-4.097308E-1,-6.5635586E-1,6.596191E-5,1.3651541E-1,6.790231E-2,1.7391585E-1,-3.378325E-1,-7.787611E-2,-7.1520954E-2,2.994575E-1,-3.331668E-1,-2.6763082E-5,-1.2965875E0,-5.0960098E-5,-3.8226738E-4,-1.7080575E-4,3.4588954E-4,-6.7125424E-5,-6.706685E-4,9.265544E-4,1.5145147E-4,-2.0077294E-5,3.4267813E-4,3.9670948E-4,1.4813208E-3,-4.909624E-4,-2.9557945E-5,-5.6963418E-5,2.0504084E-4,-1.0755659E-4,-4.797911E-4],"split_indices":[43,31,0,41,22,0,22,51,15,50,24,55,43,12,0,50,3,51,24,0,6,0,10,0,6,0,0,0,0,0,0,0,0,0,0,0,0,0,0,0,0,0,0],"split_type":[0,0,0,0,0,0,0,0,0,0,0,0,0,0,0,0,0,0,0,0,0,0,0,0,0,0,0,0,0,0,0,0,0,0,0,0,0,0,0,0,0,0,0],"sum_hessian":[6.57E2,6.56E2,1E0,5.77E2,7.9E1,1E0,5.76E2,5.8E1,2.1E1,4.58E2,1.18E2,3.8E1,2E1,1.5E1,6E0,3.54E2,1.04E2,3E1,8.8E1,2.2E1,1.6E1,5E0,1.5E1,4E0,1.1E1,2.89E2,6.5E1,5.1E1,5.3E1,2.5E1,5E0,5E0,8.3E1,1.3E1,9E0,1.1E1,5E0,4E0,1E0,9E0,6E0,2E0,9E0],"tree_param":{"num_deleted":"0","num_feature":"60","num_nodes":"43","size_leaf_vector":"0"}},{"base_weights":[-6.000272E-6,3.3687554E-6,-3.0807257E-3,6.816907E-5,-4.1639886E-4,4.756029E-5,5.8972836E-3,5.4256915E-4,-7.4427563E-4,-2.7098384E-5,6.697522E-4,1.126756E-3,-1.9715795E-4,2.4366875E-4,-1.1791138E-3,5.0893144E-5,-6.718083E-4,5.980163E-6,1.401984E-3,1.7693825E-4,1.3940075E-3,4.7403574E-4,-5.0811004E-4,1.1535846E-3,-2.9368806E-4,-2.9310475E-3,-7.895091E-4,1.0210197E-4,-1.1295885E-3,-2.1335114E-4,-2.296834E-3,6.202879E-4,-6.086794E-4,3.3190325E-3,6.4114894E-4,8.2980737E-4,2.0328558E-3,3.2995344E-4,1.8947273E-3,-7.1801804E-4,2.3321595E-4,-5.919401E-4,-5.12217E-3,-1.2692088E-3,-9.406183E-5],"categories":[],"categories_nodes":[],"categories_segments":[],"categories_sizes":[],"default_left":[1,1,0,1,1,1,0,1,1,1,1,1,1,1,1,1,1,1,1,0,1,0,0,1,1,1,1,0,0,0,0,0,0,0,0,0,0,0,0,0,0,0,0,0,0],"id":73,"left_children":[1,3,-1,5,7,9,-1,11,13,15,17,19,21,23,25,27,29,31,33,-1,35,-1,-1,37,39,41,43,-1,-1,-1,-1,-1,-1,-1,-1,-1,-1,-1,-1,-1,-1,-1,-1,-1,-1],"loss_changes":[1.8965507E-5,1.7899492E-5,0E0,6.819417E-5,2.8073071E-5,2.6449348E-5,0E0,1.0161342E-5,2.8640647E-5,2.5627685E-5,2.9639748E-5,3.0532683E-6,2.5366624E-6,1.0606733E-5,2.9083749E-5,2.7620576E-5,4.0485225E-5,1.2838029E-5,4.017018E-5,0E0,1.917504E-6,1.2718431E-7,9.146993E-7,4.258254E-6,3.2975895E-6,3.7970145E-5,1.2891243E-5,0E0,0E0,0E0,0E0,0E0,0E0,0E0,0E0,0E0,0E0,0E0,0E0,0E0,0E0,0E0,0E0,0E0,0E0],"parents":[2147483647,0,0,1,1,3,3,4,4,5,5,7,7,8,8,9,9,10,10,11,11,12,12,13,13,14,14,15,15,16,16,17,17,18,18,20,20,23,23,24,24,25,25,26,26],"right_children":[2,4,-1,6,8,10,-1,12,14,16,18,20,22,24,26,28,30,32,34,-1,36,-1,-1,38,40,42,44,-1,-1,-1,-1,-1,-1,-1,-1,-1,-1,-1,-1,-1,-1,-1,-1,-1,-1],"split_conditions":[4.5793595E0,6.4660823E-1,-9.2421775E-4,6.3812673E-1,-4.9062532E-1,7.1500176E-1,1.7691852E-3,2.8742585E-2,-5.007225E-1,4.4164467E-1,-1.1753429E-1,-1.5062023E0,5.528643E-1,-4.245327E-1,-5.9991896E-1,1.404722E0,3.555068E-1,3.9081223E-2,1.3709018E-1,5.3081476E-5,-3.5605842E-1,1.4221073E-4,-1.5243301E-4,4.9375802E-1,-3.5667643E-3,-9.9280035E-1,-9.972249E-2,3.0630592E-5,-3.3887656E-4,-6.400535E-5,-6.8905024E-4,1.8608638E-4,-1.8260382E-4,9.957098E-4,1.923447E-4,2.4894223E-4,6.0985674E-4,9.8986035E-5,5.6841824E-4,-2.1540542E-4,6.9964786E-5,-1.7758203E-4,-1.536651E-3,-3.8076268E-4,-2.8218548E-5],"split_indices":[50,0,0,0,30,20,0,45,15,20,29,5,55,57,11,25,47,8,29,0,45,0,0,2,14,11,53,0,0,0,0,0,0,0,0,0,0,0,0,0,0,0,0,0,0],"split_type":[0,0,0,0,0,0,0,0,0,0,0,0,0,0,0,0,0,0,0,0,0,0,0,0,0,0,0,0,0,0,0,0,0,0,0,0,0,0,0,0,0,0,0,0,0],"sum_hessian":[6.57E2,6.56E2,1E0,5.69E2,8.7E1,5.68E2,1E0,2.2E1,6.5E1,5.08E2,6E1,1.2E1,1E1,2E1,4.5E1,4.54E2,5.4E1,3.2E1,2.8E1,3E0,9E0,3E0,7E0,7E0,1.3E1,7E0,3.8E1,4.36E2,1.8E1,4.3E1,1.1E1,1.6E1,1.6E1,7E0,2.1E1,6E0,3E0,4E0,3E0,7E0,6E0,4E0,3E0,2.2E1,1.6E1],"tree_param":{"num_deleted":"0","num_feature":"60","num_nodes":"45","size_leaf_vector":"0"}},{"base_weights":[-3.7815078E-6,1.9841401E-4,-1.2656908E-4,9.005117E-5,2.1586893E-3,-2.494662E-4,5.177653E-4,-2.1914362E-3,1.3862364E-4,7.615358E-4,5.111901E-3,3.877143E-5,-6.8210356E-4,-3.9095286E-4,1.3845281E-3,-3.878923E-4,3.7177504E-4,-3.2907428E-4,1.5434548E-3,-6.85244E-4,3.7266125E-4,5.9232814E-5,-1.0656425E-3,1.2003085E-4,-2.7103845E-3,4.723184E-3,9.090716E-4,-7.012629E-4,1.2959234E-4,1.9715665E-4,1.4740211E-3,7.3541637E-4,-1.2752006E-3,1.4281309E-3,5.551567E-5,2.2393353E-3,-2.4634504E-4,7.5345073E-4,-1.3514978E-3,-2.7096286E-4,3.4686327E-3,-4.7106347E-3,-5.32601E-4,-4.828579E-4,1.5948884E-3,-3.001274E-5,-1.00344E-3,4.0224276E-4,-9.3716633E-4,-4.3990233E-4,6.0969323E-4,-1.737965E-4,2.102815E-3,6.3893385E-5,2.7372066E-3,-9.382E-4,-3.918366E-3,2.2115628E-4,2.4216566E-3,3.06548E-4,-1.454148E-3,7.7535707E-4,2.7774852E-3,4.6919912E-4,-9.506917E-4,-4.9731974E-4,2.2955695E-3,5.024706E-4,-1.6910514E-3,-8.1600354E-4,3.3684733E-4,-8.3211384E-4,1.02671984E-4,4.0853173E-3,7.6859235E-4],"categories":[],"categories_nodes":[],"categories_segments":[],"categories_sizes":[],"default_left":[1,1,1,1,1,1,1,0,1,1,0,1,1,1,1,1,1,0,0,1,1,1,1,1,1,0,1,1,1,1,1,1,1,1,1,1,1,1,1,1,0,0,0,1,1,0,0,0,0,0,0,0,0,0,0,0,0,0,0,0,0,0,0,0,0,0,0,0,0,0,0,0,0,0,0],"id":74,"left_children":[1,3,5,7,9,11,13,-1,15,17,-1,19,21,23,25,27,29,-1,-1,31,33,35,37,39,41,-1,43,45,47,49,51,53,55,57,59,61,63,65,67,69,-1,-1,-1,71,73,-1,-1,-1,-1,-1,-1,-1,-1,-1,-1,-1,-1,-1,-1,-1,-1,-1,-1,-1,-1,-1,-1,-1,-1,-1,-1,-1,-1,-1,-1],"loss_changes":[1.6361342E-5,5.269844E-5,3.2595763E-5,2.6567528E-5,4.974628E-5,4.3048763E-5,5.2525727E-5,0E0,2.8746805E-5,9.035599E-6,0E0,5.0537572E-5,3.9300845E-5,3.9436658E-5,4.96774E-5,1.1766719E-5,3.0889918E-5,1.3676612E-7,9.697378E-7,5.625425E-5,4.7788184E-5,3.252882E-5,4.8338057E-5,3.7599773E-5,2.3627781E-5,7.671333E-7,3.0362973E-5,9.0975245E-6,8.520829E-6,3.732444E-5,2.3160497E-5,2.6710073E-5,3.818897E-5,3.9036728E-5,4.251192E-5,2.5734953E-6,2.2117683E-5,2.621651E-5,5.058192E-5,8.888182E-6,0E0,0E0,4.2948182E-7,2.3349323E-6,4.0074516E-5,0E0,0E0,0E0,0E0,0E0,0E0,0E0,0E0,0E0,0E0,0E0,0E0,0E0,0E0,0E0,0E0,0E0,0E0,0E0,0E0,0E0,0E0,0E0,0E0,0E0,0E0,0E0,0E0,0E0,0E0],"parents":[2147483647,0,0,1,1,2,2,3,3,4,4,5,5,6,6,8,8,9,9,11,11,12,12,13,13,14,14,15,15,16,16,19,19,20,20,21,21,22,22,23,23,24,24,26,26,27,27,28,28,29,29,30,30,31,31,32,32,33,33,34,34,35,35,36,36,37,37,38,38,39,39,43,43,44,44],"right_children":[2,4,6,8,10,12,14,-1,16,18,-1,20,22,24,26,28,30,-1,-1,32,34,36,38,40,42,-1,44,46,48,50,52,54,56,58,60,62,64,66,68,70,-1,-1,-1,72,74,-1,-1,-1,-1,-1,-1,-1,-1,-1,-1,-1,-1,-1,-1,-1,-1,-1,-1,-1,-1,-1,-1,-1,-1,-1,-1,-1,-1,-1,-1],"split_conditions":[-1.8466549E-1,-2.1950153E-1,4.9811298E-1,-2.6267617E0,1.7820716E-1,1.0706482E-1,9.344863E-3,-6.574309E-4,-3.6302724E-1,-6.8587966E-2,1.5335704E-3,-3.1375015E-1,-2.1843836E-1,-9.9254E-2,5.264628E-1,1.7875274E-1,5.5810946E-1,-9.872229E-5,4.6303647E-4,-4.2299694E-1,-7.3563986E-2,-8.3357316E-1,-4.3763745E-1,-2.0518795E-1,3.3956897E-1,1.4169551E-3,-1.8921444E-1,-6.0369337E-1,3.9203823E-1,-1.817975E-1,-7.5124836E-1,3.7071824E-2,-3.6755994E-1,-5.8130845E-2,5.8498883E-1,-6.869129E-1,-5.9949763E-2,-7.430047E-2,-4.339721E-1,-7.95055E-2,1.0405899E-3,-1.4131905E-3,-1.5978032E-4,3.4661257E-1,-5.896817E-2,-9.003822E-6,-3.01032E-4,1.20672834E-4,-2.811499E-4,-1.3197071E-4,1.8290797E-4,-5.2138956E-5,6.3084456E-4,1.9168016E-5,8.21162E-4,-2.8146E-4,-1.1755099E-3,6.634689E-5,7.2649703E-4,9.19644E-5,-4.3624442E-4,2.3260713E-4,8.332456E-4,1.4075974E-4,-2.8520753E-4,-1.4919593E-4,6.886709E-4,1.5074118E-4,-5.0731545E-4,-2.4480108E-4,1.01054204E-4,-2.4963418E-4,3.0801595E-5,1.2255952E-3,2.3057772E-4],"split_indices":[48,48,39,15,37,40,30,0,41,10,0,31,55,30,39,46,34,0,0,13,31,23,14,30,6,0,2,11,5,50,23,50,31,24,0,2,12,30,11,14,0,0,0,27,2,0,0,0,0,0,0,0,0,0,0,0,0,0,0,0,0,0,0,0,0,0,0,0,0,0,0,0,0,0,0],"split_type":[0,0,0,0,0,0,0,0,0,0,0,0,0,0,0,0,0,0,0,0,0,0,0,0,0,0,0,0,0,0,0,0,0,0,0,0,0,0,0,0,0,0,0,0,0,0,0,0,0,0,0,0,0,0,0,0,0,0,0,0,0,0,0,0,0,0,0,0,0,0,0,0,0,0,0],"sum_hessian":[6.57E2,2.48E2,4.09E2,2.36E2,1.2E1,3.44E2,6.5E1,4E0,2.32E2,9E0,3E0,2.07E2,1.37E2,3.2E1,3.3E1,7.1E1,1.61E2,4E0,5E0,6.5E1,1.42E2,4.7E1,9E1,2.7E1,5E0,3E0,3E1,4.4E1,2.7E1,1.4E2,2.1E1,1.9E1,4.6E1,3.2E1,1.1E2,5E0,4.2E1,1.2E1,7.8E1,2.5E1,2E0,2E0,3E0,1E1,2E1,1.4E1,3E1,2.2E1,5E0,5.5E1,8.5E1,6E0,1.5E1,1.5E1,4E0,4.2E1,4E0,1.5E1,1.7E1,9.5E1,1.5E1,2E0,3E0,2.1E1,2.1E1,7E0,5E0,1.2E1,6.6E1,1.3E1,1.2E1,6E0,4E0,4E0,1.6E1],"tree_param":{"num_deleted":"0","num_feature":"60","num_nodes":"75","size_leaf_vector":"0"}},{"base_weights":[3.9097085E-6,7.6224736E-4,-2.8493814E-5,-1.998246E-4,2.1797905E-3,2.644955E-4,-1.2425448E-4,3.9594952E-4,-9.1956416E-4,3.8814084E-3,6.529508E-4,-2.6183398E-4,6.849388E-4,-1.291556E-3,-4.3022712E-5,1.148187E-4,7.8894105E-4,-4.968372E-4,-1.9393265E-3,-9.6807875E-5,9.7221584E-4,3.904489E-4,-7.059856E-4,9.995021E-4,-2.3382457E-4,-1.4999746E-5,-2.8405886E-3,4.407251E-4,-1.7135398E-4,1.5360065E-3,8.779081E-5,-5.591923E-5,-1.3533891E-3,1.250805E-4,1.475374E-3,1.377379E-4,-8.271148E-4,-7.86253E-4,1.658549E-3,-3.3884617E-3,-6.2379055E-4,7.244837E-4,-7.976159E-4,-4.530817E-4,2.103931E-4,2.4239222E-5,2.2858302E-3,-7.362393E-5,1.2422353E-3,-7.280788E-4,1.8460292E-4,-1.989774E-3,-7.05421E-5,-1.6820377E-4,1.6335528E-3,7.695597E-4,2.9906859E-3,3.7017316E-4,-2.7261054E-4,-1.2351986E-3,-8.21054E-6,4.4142082E-4,-1.1986973E-3,8.710146E-4,2.7981102E-3,-4.1281646E-3,-1.6751855E-3,4.5082736E-5,1.4577528E-3,-3.595541E-4,-1.8646658E-3,-5.619566E-4,1.1897694E-3,7.360479E-4,-3.613483E-4],"categories":[],"categories_nodes":[],"categories_segments":[],"categories_sizes":[],"default_left":[1,1,1,1,1,1,1,1,1,0,1,1,1,1,1,0,0,0,0,0,0,1,1,1,1,1,1,1,1,1,1,1,1,1,1,1,1,1,1,1,0,1,1,1,1,0,0,0,0,0,0,0,0,0,0,0,0,0,0,0,0,0,0,0,0,0,0,0,0,0,0,0,0,0,0],"id":75,"left_children":[1,3,5,7,9,11,13,15,17,-1,19,21,23,25,27,-1,-1,-1,-1,-1,-1,29,31,33,35,37,39,41,43,45,47,49,51,53,55,57,59,61,63,65,-1,67,69,71,73,-1,-1,-1,-1,-1,-1,-1,-1,-1,-1,-1,-1,-1,-1,-1,-1,-1,-1,-1,-1,-1,-1,-1,-1,-1,-1,-1,-1,-1,-1],"loss_changes":[1.619063E-5,3.7257596E-5,1.7764796E-5,7.653739E-6,2.6044709E-5,3.4700846E-5,4.517451E-5,1.0142351E-6,2.4851188E-6,0E0,1.7697203E-6,2.0555526E-5,2.5377518E-5,6.125764E-5,2.7825265E-5,1.4726119E-7,0E0,2.46769E-7,0E0,3.533529E-9,7.8423454E-8,9.919808E-6,1.7600241E-5,2.6862785E-5,5.184146E-6,2.4537178E-5,1.4889643E-5,3.3608514E-5,3.8167578E-5,6.7459478E-6,4.563723E-6,3.6911297E-6,1.7003713E-5,1.089264E-5,4.2618703E-5,1.5316048E-6,2.9974913E-6,7.111641E-6,2.947465E-6,7.0250244E-6,1.5183798E-7,3.8294427E-5,7.74336E-6,3.715711E-5,4.56473E-5,0E0,0E0,0E0,0E0,0E0,0E0,0E0,0E0,0E0,0E0,0E0,0E0,0E0,0E0,0E0,0E0,0E0,0E0,0E0,0E0,0E0,0E0,0E0,0E0,0E0,0E0,0E0,0E0,0E0,0E0],"parents":[2147483647,0,0,1,1,2,2,3,3,4,4,5,5,6,6,7,7,8,8,10,10,11,11,12,12,13,13,14,14,21,21,22,22,23,23,24,24,25,25,26,26,27,27,28,28,29,29,30,30,31,31,32,32,33,33,34,34,35,35,36,36,37,37,38,38,39,39,41,41,42,42,43,43,44,44],"right_children":[2,4,6,8,10,12,14,16,18,-1,20,22,24,26,28,-1,-1,-1,-1,-1,-1,30,32,34,36,38,40,42,44,46,48,50,52,54,56,58,60,62,64,66,-1,68,70,72,74,-1,-1,-1,-1,-1,-1,-1,-1,-1,-1,-1,-1,-1,-1,-1,-1,-1,-1,-1,-1,-1,-1,-1,-1,-1,-1,-1,-1,-1,-1],"split_conditions":[-1.7299048E0,1.1063712E-1,-3.7789565E-1,1.0773978E-1,2.5487867E-1,-1.4557207E-1,-3.0195522E-1,-2.3047864E-2,2.245656E-1,1.1644226E-3,-5.034851E-1,-4.0174672E-1,3.4941417E-1,-5.802784E-3,-4.3207094E-1,3.4445613E-5,2.3668232E-4,-1.4905116E-4,-5.8179797E-4,-2.9042363E-5,2.9166476E-4,-7.591971E-1,-3.2270294E-2,-1.590558E-1,3.7636772E-1,2.1774724E-1,1.7485666E-1,6.265503E-1,6.8709806E-2,-6.3686967E-1,-4.4247654E-1,-3.1808102E-1,2.8597492E-1,4.3128413E-1,1.8388675E-1,1.3632223E-1,3.56467E-1,-8.065138E-1,-3.45056E-1,1.7044099E-1,-1.8713718E-4,-2.952565E-3,7.2590375E-1,1.1782895E0,-2.6678303E-3,7.2717667E-6,6.857491E-4,-2.208718E-5,3.7267062E-4,-2.1842365E-4,5.538088E-5,-5.969322E-4,-2.116263E-5,-5.0461134E-5,4.900659E-4,2.3086792E-4,8.972058E-4,1.1105195E-4,-8.178317E-5,-3.705596E-4,-2.463162E-6,1.3242626E-4,-3.596092E-4,2.613044E-4,8.394331E-4,-1.2384495E-3,-5.025557E-4,1.3524821E-5,4.3732586E-4,-1.0786624E-4,-5.593998E-4,-1.68587E-4,3.5693083E-4,2.2081439E-4,-1.0840449E-4],"split_indices":[51,10,3,27,10,5,3,52,5,0,3,9,36,6,1,0,0,0,0,0,0,52,49,17,11,10,9,16,8,2,9,43,33,40,42,21,1,18,3,18,0,45,24,58,23,0,0,0,0,0,0,0,0,0,0,0,0,0,0,0,0,0,0,0,0,0,0,0,0,0,0,0,0,0,0],"split_type":[0,0,0,0,0,0,0,0,0,0,0,0,0,0,0,0,0,0,0,0,0,0,0,0,0,0,0,0,0,0,0,0,0,0,0,0,0,0,0,0,0,0,0,0,0,0,0,0,0,0,0,0,0,0,0,0,0,0,0,0,0,0,0,0,0,0,0,0,0,0,0,0,0,0,0],"sum_hessian":[6.57E2,2.6E1,6.31E2,1.6E1,1E1,1.55E2,4.76E2,9E0,7E0,4E0,6E0,6.9E1,8.6E1,3E1,4.46E2,6E0,3E0,6E0,1E0,2E0,4E0,2.8E1,4.1E1,6.4E1,2.2E1,1.7E1,1.3E1,9.3E1,3.53E2,5E0,2.3E1,2.1E1,2E1,2.3E1,4.1E1,1.4E1,8E0,1.2E1,5E0,1E1,3E0,7.6E1,1.7E1,2.03E2,1.5E2,2E0,3E0,2.1E1,2E0,5E0,1.6E1,1.3E1,7E0,2E1,3E0,2.9E1,1.2E1,9E0,5E0,5E0,3E0,3E0,9E0,4E0,1E0,6E0,4E0,4E1,3.6E1,1.3E1,4E0,1.91E2,1.2E1,7.8E1,7.2E1],"tree_param":{"num_deleted":"0","num_feature":"60","num_nodes":"75","size_leaf_vector":"0"}},{"base_weights":[4.9903197E-6,5.588708E-5,-4.6020455E-4,2.4435413E-4,-9.979858E-5,-2.7141273E-3,-3.4557006E-4,1.3344709E-4,1.5477589E-3,-6.4857694E-4,3.935534E-5,2.668351E-4,-4.338026E-3,-1.4976862E-4,-1.2575615E-3,-3.7683404E-4,3.7723008E-4,1.02664344E-4,3.1270967E-3,2.3020341E-4,-1.2628661E-3,2.1364603E-3,-9.94929E-6,-6.03595E-4,1.2159304E-4,-2.087015E-3,-4.854431E-4,6.2907126E-4,-5.6089106E-4,5.3143303E-5,1.1054033E-3,-6.40824E-4,1.2717128E-3,2.7406216E-4,4.310674E-3,6.1815255E-4,-1.0219514E-3,-1.8416598E-3,3.7785078E-4,2.6438131E-3,-2.001524E-4,5.1567995E-4,-2.5180168E-4,-9.5470063E-4,-6.838805E-5,-3.3230416E-4,5.9503753E-4,1.4892097E-3,8.131978E-5,1.1194486E-4,-8.57589E-4,1.5743765E-4,-2.3353964E-3,-1.5815008E-4,1.9664604E-3,2.7094968E-4,-8.0978445E-4,4.7157086E-3,9.4023347E-4,8.389812E-5,1.250868E-3,6.986037E-5,-1.8582754E-3,-2.7549178E-3,1.690222E-4,-2.73481E-4,2.205896E-3,-2.1356807E-4,9.962821E-4,8.144241E-5,-8.5081795E-4,1.8796325E-4,-1.0756667E-3,1.0433462E-4,-6.920487E-4,8.165836E-5,1.0423014E-3],"categories":[],"categories_nodes":[],"categories_segments":[],"categories_sizes":[],"default_left":[1,1,1,1,1,1,1,1,1,1,1,0,0,1,1,1,1,1,1,1,1,1,1,1,1,0,0,1,1,1,1,1,0,0,1,1,1,1,1,0,0,1,1,1,0,1,1,0,0,0,0,0,0,0,0,0,0,0,0,0,0,0,0,0,0,0,0,0,0,0,0,0,0,0,0,0,0],"id":76,"left_children":[1,3,5,7,9,11,13,15,17,19,21,-1,-1,23,25,27,29,31,33,35,37,39,41,43,45,-1,-1,47,49,51,53,55,-1,-1,57,59,61,63,65,-1,-1,67,69,71,-1,73,75,-1,-1,-1,-1,-1,-1,-1,-1,-1,-1,-1,-1,-1,-1,-1,-1,-1,-1,-1,-1,-1,-1,-1,-1,-1,-1,-1,-1,-1,-1],"loss_changes":[1.5605128E-5,1.7453307E-5,1.58566E-5,3.867923E-5,2.4920406E-5,1.567988E-5,1.1061519E-5,3.111722E-5,4.7607093E-5,3.5919176E-5,2.7007865E-5,0E0,0E0,6.6004E-6,6.0316706E-6,1.53495E-5,3.9823783E-5,1.1245031E-5,3.2586482E-5,1.4233347E-5,3.7731705E-5,7.642091E-6,3.2673768E-5,3.6929932E-6,7.5041685E-6,0E0,3.7050313E-7,6.003746E-6,1.3870405E-5,2.97628E-5,5.6886565E-5,1.4518407E-6,9.6934855E-8,0E0,5.1221286E-6,7.3317387E-6,6.521579E-6,5.3717507E-5,1.3700573E-5,0E0,0E0,2.8601507E-5,3.520217E-5,1.8608689E-6,3.229335E-7,2.8996158E-6,3.8183593E-6,0E0,0E0,0E0,0E0,0E0,0E0,0E0,0E0,0E0,0E0,0E0,0E0,0E0,0E0,0E0,0E0,0E0,0E0,0E0,0E0,0E0,0E0,0E0,0E0,0E0,0E0,0E0,0E0,0E0,0E0],"parents":[2147483647,0,0,1,1,2,2,3,3,4,4,5,5,6,6,7,7,8,8,9,9,10,10,13,13,14,14,15,15,16,16,17,17,18,18,19,19,20,20,21,21,22,22,23,23,24,24,27,27,28,28,29,29,30,30,31,31,34,34,35,35,36,36,37,37,38,38,41,41,42,42,43,43,45,45,46,46],"right_children":[2,4,6,8,10,12,14,16,18,20,22,-1,-1,24,26,28,30,32,34,36,38,40,42,44,46,-1,-1,48,50,52,54,56,-1,-1,58,60,62,64,66,-1,-1,68,70,72,-1,74,76,-1,-1,-1,-1,-1,-1,-1,-1,-1,-1,-1,-1,-1,-1,-1,-1,-1,-1,-1,-1,-1,-1,-1,-1,-1,-1,-1,-1,-1,-1],"split_conditions":[7.8998494E-1,-8.508138E-2,-2.0567858E0,-1.2882575E-1,6.790231E-2,-1.5387578E0,7.121682E-1,-3.5057372E-1,-4.5320578E-4,-2.0536736E-1,8.023657E-2,8.005053E-5,-1.3014078E-3,-1.9840392E-1,-3.9930987E-1,-1.0725969E0,1.8519834E-1,1.6798608E-1,-3.9471895E-1,4.0196288E-1,1.907357E-1,-4.799649E-3,-3.048787E-1,7.519602E-2,-2.8876162E-1,-6.2610453E-4,-1.4563293E-4,-2.1869214E-2,-4.0089053E-1,1.2480946E0,-3.288867E-1,-1.1103289E0,3.8151388E-4,8.221865E-5,1.1714519E0,1.3471097E-1,2.5011413E-3,1.7283657E-1,1.4807493E-2,7.93144E-4,-6.004572E-5,-2.1362075E-1,1.2148644E-1,-2.2037644E0,-2.0516416E-5,-1.82945E-1,-1.3942079E-1,4.4676292E-4,2.4395935E-5,3.358346E-5,-2.5727673E-4,4.7231297E-5,-7.0061896E-4,-4.7445028E-5,5.8993814E-4,8.12849E-5,-2.4293535E-4,1.4147126E-3,2.8207005E-4,2.5169438E-5,3.752604E-4,2.0958112E-5,-5.5748265E-4,-8.264754E-4,5.070666E-5,-8.204431E-5,6.6176883E-4,-6.4070424E-5,2.9888464E-4,2.4432726E-5,-2.552454E-4,5.6388977E-5,-3.2270004E-4,3.1300387E-5,-2.0761462E-4,2.449751E-5,3.1269045E-4],"split_indices":[5,33,31,33,33,0,57,35,40,56,33,0,0,10,29,39,42,43,7,35,40,3,38,50,49,0,0,52,13,32,12,0,0,0,0,23,21,18,33,0,0,24,59,1,0,36,40,0,0,0,0,0,0,0,0,0,0,0,0,0,0,0,0,0,0,0,0,0,0,0,0,0,0,0,0,0,0],"split_type":[0,0,0,0,0,0,0,0,0,0,0,0,0,0,0,0,0,0,0,0,0,0,0,0,0,0,0,0,0,0,0,0,0,0,0,0,0,0,0,0,0,0,0,0,0,0,0,0,0,0,0,0,0,0,0,0,0,0,0,0,0,0,0,0,0,0,0,0,0,0,0,0,0,0,0,0,0],"sum_hessian":[6.57E2,5.93E2,6.4E1,2.68E2,3.25E2,2E0,6.2E1,2.48E2,2E1,6.5E1,2.6E2,1E0,1E0,5.2E1,1E1,8E1,1.68E2,1.1E1,9E0,2.7E1,3.8E1,5E0,2.55E2,1.9E1,3.3E1,4E0,6E0,1.2E1,6.8E1,1.17E2,5.1E1,7E0,4E0,3E0,6E0,2.1E1,6E0,2.8E1,1E1,4E0,1E0,8E1,1.75E2,1.1E1,8E0,1.7E1,1.6E1,4E0,8E0,2.1E1,4.7E1,1.13E2,4E0,2.1E1,3E1,1E0,6E0,5E0,1E0,1.2E1,9E0,3E0,3E0,1.9E1,9E0,8E0,2E0,3.2E1,4.8E1,1.13E2,6.2E1,1E0,1E1,8E0,9E0,8E0,8E0],"tree_param":{"num_deleted":"0","num_feature":"60","num_nodes":"77","size_leaf_vector":"0"}},{"base_weights":[4.1337703E-6,5.94632E-5,-2.6041598E-4,3.0111478E-5,2.0259335E-3,-5.9862604E-4,2.9125056E-4,-3.241293E-5,5.1066035E-4,3.0991638E-3,1.7791241E-4,-1.0594669E-3,6.6505374E-5,3.3824842E-3,6.3513624E-5,6.558329E-5,-4.2715124E-4,1.2185079E-3,1.1838458E-4,-2.24057E-4,-1.6766886E-3,-8.546024E-4,8.211526E-4,-2.0239141E-4,8.312816E-4,-1.620144E-4,2.5188102E-4,-3.2590628E-3,-3.3120622E-4,3.6140956E-4,2.4163823E-3,-1.0910954E-4,2.2499827E-3,-6.3153426E-4,2.9886595E-4,-4.226433E-4,-2.277296E-3,-1.916488E-4,-1.7065989E-3,1.6362686E-3,8.694455E-5,6.0529367E-4,-4.1206082E-4,2.0455196E-4,1.8769205E-3,7.662612E-5,-6.8932644E-4,2.8143045E-3,1.6315492E-4,-5.4793357E-4,6.699238E-4,7.924605E-4,-1.8285002E-4,9.983132E-4,3.93939E-3,-3.4661606E-4,4.3437257E-4,2.8637052E-3,2.0440738E-4,-8.822214E-4,2.772361E-5,-1.5273318E-4,5.5012107E-4,7.269382E-5,-8.3345175E-4,-5.784035E-4,-2.7953933E-3,1.0287762E-4,-5.855262E-4,-2.181096E-3,-5.050699E-4,2.2078871E-3,5.126782E-4,4.0881548E-4,-4.980657E-4,1.8440187E-6,1.0574199E-3,-8.472121E-4,2.1441174E-5],"categories":[],"categories_nodes":[],"categories_segments":[],"categories_sizes":[],"default_left":[1,1,1,1,1,1,1,1,1,0,0,1,1,0,1,1,1,1,1,1,1,1,1,1,1,1,1,0,1,1,1,1,1,1,1,1,1,1,1,1,1,1,1,0,0,0,0,0,0,0,0,0,0,0,0,0,0,0,0,0,0,0,0,0,0,0,0,0,0,0,0,0,0,0,0,0,0,0,0],"id":77,"left_children":[1,3,5,7,9,11,13,15,17,-1,-1,19,21,-1,23,25,27,29,31,33,35,37,39,41,43,45,47,-1,49,51,53,55,57,59,61,63,65,67,69,71,73,75,77,-1,-1,-1,-1,-1,-1,-1,-1,-1,-1,-1,-1,-1,-1,-1,-1,-1,-1,-1,-1,-1,-1,-1,-1,-1,-1,-1,-1,-1,-1,-1,-1,-1,-1,-1,-1],"loss_changes":[9.646886E-6,3.1396008E-5,2.1444375E-5,1.6181317E-5,1.531544E-5,2.1833357E-5,3.076064E-5,1.8479739E-5,1.7071377E-5,0E0,4.4838708E-7,2.1280914E-5,2.1555099E-5,0E0,8.742686E-6,1.6280364E-5,2.4732819E-5,2.1714011E-5,2.0127462E-5,4.237249E-6,1.711405E-5,7.580611E-6,1.0031636E-5,5.6685167E-6,6.8247336E-6,2.1822798E-5,4.7512487E-5,0E0,2.0545489E-5,3.4293516E-6,1.550483E-5,5.055621E-6,4.4362987E-6,1.8424007E-6,1.1052209E-6,1.8919849E-6,1.24661965E-5,1.1043034E-6,2.319126E-6,4.006186E-6,2.086595E-6,1.907898E-6,4.9227788E-6,5.5044245E-7,0E0,0E0,0E0,0E0,0E0,0E0,0E0,0E0,0E0,0E0,0E0,0E0,0E0,0E0,0E0,0E0,0E0,0E0,0E0,0E0,0E0,0E0,0E0,0E0,0E0,0E0,0E0,0E0,0E0,0E0,0E0,0E0,0E0,0E0,0E0],"parents":[2147483647,0,0,1,1,2,2,3,3,4,4,5,5,6,6,7,7,8,8,11,11,12,12,14,14,15,15,16,16,17,17,18,18,19,19,20,20,21,21,22,22,23,23,24,24,25,25,26,26,28,28,29,29,30,30,31,31,32,32,33,33,34,34,35,35,36,36,37,37,38,38,39,39,40,40,41,41,42,42],"right_children":[2,4,6,8,10,12,14,16,18,-1,-1,20,22,-1,24,26,28,30,32,34,36,38,40,42,44,46,48,-1,50,52,54,56,58,60,62,64,66,68,70,72,74,76,78,-1,-1,-1,-1,-1,-1,-1,-1,-1,-1,-1,-1,-1,-1,-1,-1,-1,-1,-1,-1,-1,-1,-1,-1,-1,-1,-1,-1,-1,-1,-1,-1,-1,-1,-1,-1],"split_conditions":[5.400525E-1,5.013951E-1,1.7103517E-1,6.143545E-1,-1.1155436E-1,-4.4396862E-2,-1.4397105E0,3.9784664E-1,-2.9720625E-1,9.2974916E-4,5.3373726E-5,-1.0805108E-1,-1.304417E-1,1.0147453E-3,3.270852E-1,-9.15744E-2,4.0068066E-1,-4.973526E-1,7.9989386E-1,2.5048956E-1,-3.832865E-1,-2.5686687E-1,4.384688E-1,3.32423E-1,4.729267E-1,-2.665487E-1,-7.3676765E-2,-9.777189E-4,6.705122E-1,-2.1921472E-1,1.0785085E-1,5.406755E-1,1.8392202E-1,3.673615E-1,-7.3709476E-1,-1.226129E-1,-5.2451277E-1,-3.9562955E-3,9.684017E-1,2.2498976E-1,2.2940785E-2,-7.47665E-2,7.1027815E-1,6.1365594E-5,5.630762E-4,2.2987837E-5,-2.0679794E-4,8.442914E-4,4.894648E-5,-1.6438008E-4,2.0097714E-4,2.3773816E-4,-5.485501E-5,2.9949396E-4,1.1818171E-3,-1.0398482E-4,1.3031178E-4,8.591116E-4,6.1322215E-5,-2.6466642E-4,8.3170835E-6,-4.5819954E-5,1.6503633E-4,2.1808148E-5,-2.5003555E-4,-1.7352105E-4,-8.38618E-4,3.0863288E-5,-1.7565787E-4,-6.5432885E-4,-1.5152097E-4,6.6236616E-4,1.5380346E-4,1.2264465E-4,-1.4941972E-4,5.532056E-7,3.17226E-4,-2.5416363E-4,6.4323526E-6],"split_indices":[7,7,9,31,20,54,37,36,33,0,0,27,22,0,23,18,36,33,8,33,13,9,54,9,50,18,18,0,34,5,8,41,0,5,22,38,30,17,7,21,10,5,9,0,0,0,0,0,0,0,0,0,0,0,0,0,0,0,0,0,0,0,0,0,0,0,0,0,0,0,0,0,0,0,0,0,0,0,0],"split_type":[0,0,0,0,0,0,0,0,0,0,0,0,0,0,0,0,0,0,0,0,0,0,0,0,0,0,0,0,0,0,0,0,0,0,0,0,0,0,0,0,0,0,0,0,0,0,0,0,0,0,0,0,0,0,0,0,0,0,0,0,0,0,0,0,0,0,0,0,0,0,0,0,0,0,0,0,0,0,0],"sum_hessian":[6.57E2,5.44E2,1.13E2,5.37E2,7E0,7E1,4.3E1,4.76E2,6.1E1,4E0,3E0,4.1E1,2.9E1,2E0,4.1E1,3.82E2,9.4E1,2.1E1,4E1,1.8E1,2.3E1,1.3E1,1.6E1,3.1E1,1E1,1.72E2,2.1E2,2E0,9.2E1,1.3E1,8E0,3.7E1,3E0,1E1,8E0,8E0,1.5E1,8E0,5E0,7E0,9E0,6E0,2.5E1,7E0,3E0,1.19E2,5.3E1,6E0,2.04E2,7.6E1,1.6E1,7E0,6E0,5E0,3E0,2.6E1,1.1E1,2E0,1E0,7E0,3E0,3E0,5E0,4E0,4E0,4E0,1.1E1,5E0,3E0,3E0,2E0,4E0,3E0,6E0,3E0,3E0,3E0,1.2E1,1.3E1],"tree_param":{"num_deleted":"0","num_feature":"60","num_nodes":"79","size_leaf_vector":"0"}},{"base_weights":[8.261928E-6,1.9740619E-4,-6.725269E-5,-8.326511E-4,2.6612528E-4,-6.3424895E-4,7.692272E-6,-1.3426458E-4,-1.7835393E-3,2.1901331E-5,5.488006E-4,-1.1746162E-3,7.563096E-4,2.0398299E-4,-2.518904E-4,-1.4576613E-4,5.6040095E-4,-2.9271989E-5,9.3871215E-4,-1.4562388E-3,1.0879904E-3,3.2697022E-3,3.7076994E-4,-2.0232788E-4,4.4803662E-4,-4.3759248E-4,6.5479346E-4,-2.8680003E-4,6.880462E-4,-3.988358E-5,1.1139853E-3,-3.398404E-4,7.500762E-4,2.0809227E-4,1.9029629E-3,5.7492254E-4,-1.7281004E-3,1.6743317E-4,2.3851097E-3,1.53677E-4,1.7050356E-3,4.0683587E-4,-5.454326E-4,8.992587E-4,-8.815211E-5,-2.153368E-6,-7.3601527E-4,-4.8994203E-4,1.2232362E-3,1.7673404E-4,-4.7202499E-4,-1.1176616E-4,1.0019466E-3,1.5647635E-4,-6.811221E-4,-9.310804E-5,1.5266952E-3,6.362796E-4,-5.018695E-4,1.3130568E-3,3.2121927E-4,1.0244824E-3,-2.105074E-4,8.026764E-4,2.8302527E-3,-2.2101712E-3,-4.4652744E-4,-2.3374955E-4,3.9488616E-4,-8.183718E-5,8.1860996E-4,-7.235004E-4,5.044362E-4,-3.3255634E-5,1.4199542E-3,7.193397E-5,-2.7075345E-3,3.9964236E-4,-7.5085665E-4,-1.9087899E-4,-1.4969939E-3,1.02642254E-4,1.904937E-3],"categories":[],"categories_nodes":[],"categories_segments":[],"categories_sizes":[],"default_left":[1,1,1,1,1,1,1,0,0,1,1,1,1,1,1,1,1,1,1,1,1,0,1,1,1,1,1,1,1,1,1,1,1,1,1,0,1,0,0,1,0,1,1,1,1,1,1,0,1,0,0,0,0,0,0,0,0,0,0,0,0,0,0,0,0,0,0,0,0,0,0,0,0,0,0,0,0,0,0,0,0,0,0],"id":78,"left_children":[1,3,5,7,9,11,13,-1,-1,15,17,19,21,23,25,27,29,31,33,35,37,-1,39,41,43,45,47,49,51,53,55,57,59,61,63,-1,65,-1,-1,67,-1,69,71,73,75,77,79,-1,81,-1,-1,-1,-1,-1,-1,-1,-1,-1,-1,-1,-1,-1,-1,-1,-1,-1,-1,-1,-1,-1,-1,-1,-1,-1,-1,-1,-1,-1,-1,-1,-1,-1,-1],"loss_changes":[9.411593E-6,1.3529096E-5,2.0019324E-5,7.729584E-6,1.2207367E-5,4.221605E-5,2.129906E-5,1.7364952E-7,0E0,8.749418E-6,1.8510047E-5,2.7072427E-5,1.4291893E-5,2.3691122E-5,3.0593685E-5,8.899422E-6,7.687518E-6,8.484298E-6,3.4124547E-5,2.0872532E-5,5.5710157E-6,0E0,4.08287E-6,1.9032528E-5,3.612836E-5,1.949016E-5,2.0771527E-5,5.5783394E-6,2.87366E-6,1.6175422E-6,6.120299E-6,4.2733245E-6,1.9926024E-6,1.0126139E-5,1.9154199E-5,6.803465E-7,1.878298E-5,3.763971E-7,0E0,1.4006162E-6,0E0,6.7073483E-6,1.1207931E-5,3.9377264E-5,2.9128303E-5,1.8951272E-5,3.6634752E-5,6.188677E-7,1.5846581E-5,0E0,0E0,0E0,0E0,0E0,0E0,0E0,0E0,0E0,0E0,0E0,0E0,0E0,0E0,0E0,0E0,0E0,0E0,0E0,0E0,0E0,0E0,0E0,0E0,0E0,0E0,0E0,0E0,0E0,0E0,0E0,0E0,0E0,0E0],"parents":[2147483647,0,0,1,1,2,2,3,3,4,4,5,5,6,6,9,9,10,10,11,11,12,12,13,13,14,14,15,15,16,16,17,17,18,18,19,19,20,20,22,22,23,23,24,24,25,25,26,26,27,27,28,28,29,29,30,30,31,31,32,32,33,33,34,34,36,36,39,39,41,41,42,42,43,43,44,44,45,45,46,46,48,48],"right_children":[2,4,6,8,10,12,14,-1,-1,16,18,20,22,24,26,28,30,32,34,36,38,-1,40,42,44,46,48,50,52,54,56,58,60,62,64,-1,66,-1,-1,68,-1,70,72,74,76,78,80,-1,82,-1,-1,-1,-1,-1,-1,-1,-1,-1,-1,-1,-1,-1,-1,-1,-1,-1,-1,-1,-1,-1,-1,-1,-1,-1,-1,-1,-1,-1,-1,-1,-1,-1,-1],"split_conditions":[-3.3853078E-1,-1.9288564E0,-2.0577681E-1,-5.639276E-2,-7.149245E-2,4.3250138E-1,8.20391E-2,-4.0279378E-5,-5.350618E-4,4.9126416E-1,-1.5674843E-1,6.6152877E-1,-1.0540982E0,-4.5043E-1,4.4748592E-1,6.077491E-1,-1.9990507E-1,3.2961592E-1,-6.615244E-2,-4.3228674E-1,3.8691756E-1,9.809107E-4,1.8589885E0,-2.4691865E-1,8.153089E-2,-2.5698885E-1,-5.8095527E-1,-4.8111963E-1,-6.1022615E-1,2.0105581E-1,-3.025213E-1,-1.0425924E0,-8.055974E-2,-8.717853E-2,-1.531835E-1,1.7247676E-4,3.006212E-1,5.0229955E-5,7.155329E-4,-2.4499953E-1,5.115107E-4,-1.7730147E-1,7.2475576E-1,-1.4568329E-1,1.3502247E0,2.546468E-1,1.5535118E-1,-1.4698261E-4,-3.0415E-1,5.3020216E-5,-1.416075E-4,-3.352985E-5,3.00584E-4,4.6942907E-5,-2.0433664E-4,-2.7932414E-5,4.5800858E-4,1.9088389E-4,-1.5056085E-4,3.9391706E-4,9.636579E-5,3.0734474E-4,-6.315222E-5,2.4080294E-4,8.4907585E-4,-6.630514E-4,-1.3395824E-4,-7.012487E-5,1.18465854E-4,-2.4551155E-5,2.45583E-4,-2.1705012E-4,1.5133087E-4,-9.97669E-6,4.2598628E-4,2.1580192E-5,-8.122604E-4,1.1989271E-4,-2.25257E-4,-5.7263696E-5,-4.490982E-4,3.079268E-5,5.714811E-4],"split_indices":[53,54,53,43,45,56,45,0,0,54,44,31,11,45,29,3,11,37,52,37,3,0,1,8,36,8,14,6,54,33,48,40,1,46,17,0,26,0,0,4,0,12,46,8,37,52,38,0,6,0,0,0,0,0,0,0,0,0,0,0,0,0,0,0,0,0,0,0,0,0,0,0,0,0,0,0,0,0,0,0,0,0,0],"split_type":[0,0,0,0,0,0,0,0,0,0,0,0,0,0,0,0,0,0,0,0,0,0,0,0,0,0,0,0,0,0,0,0,0,0,0,0,0,0,0,0,0,0,0,0,0,0,0,0,0,0,0,0,0,0,0,0,0,0,0,0,0,0,0,0,0,0,0,0,0,0,0,0,0,0,0,0,0,0,0,0,0,0,0],"sum_hessian":[6.57E2,1.87E2,4.7E2,1.1E1,1.76E2,5.4E1,4.16E2,7E0,4E0,9.5E1,8.1E1,3.9E1,1.5E1,2.37E2,1.79E2,7.3E1,2.2E1,3.3E1,4.8E1,3.5E1,4E0,1E0,1.4E1,8.9E1,1.48E2,1.49E2,3E1,6.3E1,1E1,1.1E1,1.1E1,2.4E1,9E0,2.8E1,2E1,4E0,3.1E1,3E0,1E0,1.3E1,1E0,3.2E1,5.7E1,8E1,6.8E1,6.1E1,8.8E1,1E1,2E1,1.8E1,4.5E1,3E0,7E0,9E0,2E0,3E0,8E0,3E0,2.1E1,3E0,6E0,9E0,1.9E1,1E1,1E1,2.2E1,9E0,5E0,8E0,1.5E1,1.7E1,4.9E1,8E0,2.9E1,5.1E1,6.5E1,3E0,4E1,2.1E1,5.2E1,3.6E1,8E0,1.2E1],"tree_param":{"num_deleted":"0","num_feature":"60","num_nodes":"83","size_leaf_vector":"0"}},{"base_weights":[1.0413511E-5,-2.4174014E-5,3.4328995E-4,6.121178E-4,-4.9583647E-5,-6.854919E-5,7.072864E-4,1.8968433E-3,3.2456685E-4,1.5295166E-4,-1.2939883E-4,4.1962243E-4,-4.173093E-4,1.8600508E-3,1.9749766E-4,2.4182599E-3,1.6629696E-4,4.2819013E-4,-1.969738E-4,1.10041634E-4,1.4869005E-3,-3.9373242E-4,-1.0643249E-5,6.8263523E-4,-9.983778E-7,5.3146647E-5,-7.9898874E-4,3.7573278E-4,2.442511E-3,3.6325364E-4,-3.6031255E-4,-9.738847E-6,6.0493324E-4,4.1079894E-4,2.8956532E-3,-1.081518E-4,-9.557371E-4,1.0909568E-4,-4.936136E-4,-1.8746332E-4,-1.1754284E-3,6.4135314E-4,-2.0511022E-4,1.3701177E-4,-4.077837E-4,-3.5197884E-4,1.0123963E-3,-6.0301705E-4,2.961794E-4,-2.7443953E-3,-5.3170923E-4,-3.547125E-4,3.100738E-4,8.947339E-5,-9.2038815E-4],"categories":[],"categories_nodes":[],"categories_segments":[],"categories_sizes":[],"default_left":[1,1,1,1,1,1,1,1,1,1,1,1,1,1,1,0,0,0,0,1,1,1,1,0,0,0,1,0,0,1,0,1,1,0,0,1,1,1,1,0,0,0,0,0,0,0,0,0,0,0,0,0,0,0,0],"id":79,"left_children":[1,3,5,7,9,11,13,15,17,19,21,23,25,27,29,-1,-1,-1,-1,31,33,35,37,-1,-1,-1,39,-1,-1,41,-1,43,45,-1,-1,47,49,51,53,-1,-1,-1,-1,-1,-1,-1,-1,-1,-1,-1,-1,-1,-1,-1,-1],"loss_changes":[7.584097E-6,9.6826125E-6,9.342781E-6,7.881101E-6,9.314893E-6,5.282756E-6,1.9025634E-5,3.207194E-6,1.1652173E-6,9.166465E-6,1.296033E-5,1.438854E-6,3.274604E-6,7.727831E-6,2.349934E-6,0E0,0E0,7.6311176E-7,6.36539E-8,9.43115E-6,6.3902744E-6,2.0440333E-5,1.659333E-5,3.6732627E-7,1.286618E-7,4.557825E-7,2.0816751E-6,1.1155964E-7,0E0,3.1347201E-6,5.683705E-7,7.5911903E-6,1.2443439E-5,4.2199417E-8,0E0,1.7386295E-5,3.1153737E-5,2.1549506E-5,1.4266613E-5,1.5356096E-7,1.891849E-7,6.581531E-7,1.295472E-7,0E0,0E0,0E0,0E0,0E0,0E0,0E0,0E0,0E0,0E0,0E0,0E0],"parents":[2147483647,0,0,1,1,2,2,3,3,4,4,5,5,6,6,7,7,8,8,9,9,10,10,11,11,12,12,13,13,14,14,19,19,20,20,21,21,22,22,26,26,29,29,31,31,32,32,35,35,36,36,37,37,38,38],"right_children":[2,4,6,8,10,12,14,16,18,20,22,24,26,28,30,-1,-1,-1,-1,32,34,36,38,-1,-1,-1,40,-1,-1,42,-1,44,46,-1,-1,48,50,52,54,-1,-1,-1,-1,-1,-1,-1,-1,-1,-1,-1,-1,-1,-1,-1,-1],"split_conditions":[7.888327E-1,-1.7409776E0,-5.549062E-2,-7.9192984E-1,-3.399335E-1,-2.949059E-1,2.4097691E-1,-1.5987682E-1,6.5153575E-1,-3.4674674E-1,-2.609984E-1,7.3777974E-1,-1.8051304E-3,-2.515442E-1,1.1410015E0,7.25478E-4,4.988909E-5,1.2845705E-4,-5.909214E-5,4.9657577E-1,-7.475318E-2,-4.2927697E-1,4.5001012E-1,2.0479057E-4,-2.9951335E-7,1.5943995E-5,-2.8842852E-1,1.1271984E-4,7.3275337E-4,4.8414743E-1,-1.0809377E-4,3.5252014E-1,-6.8552625E-1,1.2323969E-4,8.68696E-4,-2.2654319E-1,-4.5940906E-1,-2.6442418E-1,-1.6563761E-1,-5.6238998E-5,-3.5262853E-4,1.9240595E-4,-6.153307E-5,4.1103533E-5,-1.2233511E-4,-1.0559366E-4,3.037189E-4,-1.8090512E-4,8.885383E-5,-8.233186E-4,-1.5951277E-4,-1.06413754E-4,9.302215E-5,2.6842017E-5,-2.7611645E-4],"split_indices":[11,44,13,58,53,30,13,0,6,53,12,34,5,44,49,0,0,0,0,2,0,12,33,0,0,0,20,0,0,51,0,22,46,0,0,8,17,16,38,0,0,0,0,0,0,0,0,0,0,0,0,0,0,0,0],"split_type":[0,0,0,0,0,0,0,0,0,0,0,0,0,0,0,0,0,0,0,0,0,0,0,0,0,0,0,0,0,0,0,0,0,0,0,0,0,0,0,0,0,0,0,0,0,0,0,0,0,0,0,0,0,0,0],"sum_hessian":[6.57E2,5.96E2,6.1E1,2.2E1,5.74E2,2.9E1,3.2E1,3E0,1.9E1,1.62E2,4.12E2,1.2E1,1.7E1,9E0,2.3E1,2E0,1E0,1.6E1,3E0,1.58E2,4E0,1.27E2,2.85E2,7E0,5E0,8E0,9E0,3E0,6E0,1.8E1,5E0,1.28E2,3E1,3E0,1E0,8.5E1,4.2E1,2.29E2,5.6E1,4E0,5E0,1.2E1,6E0,9.4E1,3.4E1,9E0,2.1E1,3.8E1,4.7E1,7E0,3.5E1,6.9E1,1.6E2,2.4E1,3.2E1],"tree_param":{"num_deleted":"0","num_feature":"60","num_nodes":"55","size_leaf_vector":"0"}},{"base_weights":[9.259381E-6,4.05415E-5,-2.921065E-4,1.5663065E-4,-8.0440506E-5,1.9176183E-5,-7.2385086E-4,-1.4618077E-4,3.3064221E-4,-2.0295666E-3,-4.6440266E-5,2.2501592E-4,-3.3506166E-4,-2.911225E-3,-4.2026863E-4,3.0190844E-4,-4.1934729E-4,2.5617285E-6,6.7250966E-4,-3.5858154E-4,-2.3576673E-3,-2.596187E-4,1.5283588E-4,-7.737772E-5,5.338577E-4,-1.8118984E-5,-7.5463206E-4,-1.4087984E-5,-8.990196E-4,5.5215827E-5,1.2277232E-3,-7.358215E-4,3.045883E-4,-3.5450474E-4,6.758139E-4,1.6510778E-4,1.2822723E-3,-3.783942E-4,9.298336E-4,-4.6805426E-6,7.8305765E-4,-3.4982298E-4,4.918625E-4,4.744962E-4,-4.723356E-4,2.2402778E-4,1.692233E-3,2.007049E-5,-1.1753739E-3,1.3425723E-3,7.003438E-5,-4.6605115E-7,-9.7405305E-4,1.3169084E-3,1.2914762E-4,1.1849023E-3,-4.2520172E-5,-7.560907E-5,1.8103427E-3,1.0658736E-4,-7.01E-4,1.7798096E-3,-7.860899E-4,2.3496747E-3,-6.39947E-5,8.143534E-5,1.3918874E-3],"categories":[],"categories_nodes":[],"categories_segments":[],"categories_sizes":[],"default_left":[1,1,1,1,1,1,1,1,1,1,1,1,1,0,1,1,1,1,1,0,0,1,1,0,0,0,0,1,0,1,1,1,1,1,1,1,1,1,1,1,1,0,0,0,0,0,0,0,0,0,0,0,0,0,0,0,0,0,0,0,0,0,0,0,0,0,0],"id":80,"left_children":[1,3,5,7,9,11,13,15,17,19,21,23,25,-1,27,29,31,33,35,-1,-1,37,39,-1,-1,-1,-1,41,-1,43,45,47,49,51,53,55,57,59,61,63,65,-1,-1,-1,-1,-1,-1,-1,-1,-1,-1,-1,-1,-1,-1,-1,-1,-1,-1,-1,-1,-1,-1,-1,-1,-1,-1],"loss_changes":[6.2150475E-6,8.397284E-6,8.346342E-6,1.6119606E-5,1.9323079E-5,2.7732945E-6,1.6041748E-5,1.3835735E-5,2.1757322E-5,1.8958417E-6,1.2316798E-5,2.2827116E-6,1.8480436E-6,0E0,4.6543596E-6,9.753052E-6,1.6261605E-5,2.4279158E-5,2.9180781E-5,0E0,0E0,2.013073E-5,1.4894207E-5,2.0399753E-7,9.4129973E-7,2.462628E-7,4.78193E-7,2.5501788E-6,8.559846E-7,7.96584E-6,3.816931E-6,1.6304044E-5,5.262164E-6,1.4476254E-5,1.209619E-5,1.1272488E-5,3.0970332E-5,2.0101323E-5,2.0359508E-5,1.7047607E-5,1.2701708E-5,6.434308E-7,5.4869895E-7,0E0,0E0,0E0,0E0,0E0,0E0,0E0,0E0,0E0,0E0,0E0,0E0,0E0,0E0,0E0,0E0,0E0,0E0,0E0,0E0,0E0,0E0,0E0,0E0],"parents":[2147483647,0,0,1,1,2,2,3,3,4,4,5,5,6,6,7,7,8,8,9,9,10,10,11,11,12,12,14,14,15,15,16,16,17,17,18,18,21,21,22,22,27,27,29,29,30,30,31,31,32,32,33,33,34,34,35,35,36,36,37,37,38,38,39,39,40,40],"right_children":[2,4,6,8,10,12,14,16,18,20,22,24,26,-1,28,30,32,34,36,-1,-1,38,40,-1,-1,-1,-1,42,-1,44,46,48,50,52,54,56,58,60,62,64,66,-1,-1,-1,-1,-1,-1,-1,-1,-1,-1,-1,-1,-1,-1,-1,-1,-1,-1,-1,-1,-1,-1,-1,-1,-1,-1],"split_conditions":[8.288346E-1,-2.65393E-2,-4.1365083E-2,-1.9603345E-1,-1.1593932E-2,2.0398459E-1,-9.417891E-1,-2.005279E-1,-3.2956821E-3,-3.6205202E-3,-3.5903372E-2,-1.8104596E-1,2.9160443E-1,-8.7336753E-4,9.836936E-2,-1.8040587E-1,2.0181736E-1,1.8623233E-1,-9.381247E-3,-1.07574466E-4,-7.073002E-4,5.0834E-1,3.8324136E-1,-2.3213317E-5,1.601573E-4,-5.4356956E-6,-2.2638963E-4,5.412072E-1,-2.697059E-4,-4.8935056E-2,-2.7189276E-1,-2.3282862E-1,-1.181169E0,1.9899015E-1,-2.5434065E-1,-7.267941E-1,-4.7319227E-1,-1.8858795E-1,-4.596988E-2,-2.8893631E-2,7.554853E-2,-1.049469E-4,1.4755875E-4,1.4234886E-4,-1.4170069E-4,6.720834E-5,5.0766993E-4,6.0211473E-6,-3.5261217E-4,4.027717E-4,2.1010315E-5,-1.3981536E-7,-2.9221593E-4,3.9507254E-4,3.874429E-5,3.554707E-4,-1.27560525E-5,-2.2682721E-5,5.431028E-4,3.1976208E-5,-2.103E-4,5.339429E-4,-2.3582698E-4,7.0490246E-4,-1.919841E-5,2.4430603E-5,4.1756625E-4],"split_indices":[5,56,36,23,56,26,56,35,35,2,18,27,40,0,17,56,36,57,3,0,0,5,50,0,0,0,0,23,0,9,22,27,52,6,31,54,9,0,50,18,15,0,0,0,0,0,0,0,0,0,0,0,0,0,0,0,0,0,0,0,0,0,0,0,0,0,0],"split_type":[0,0,0,0,0,0,0,0,0,0,0,0,0,0,0,0,0,0,0,0,0,0,0,0,0,0,0,0,0,0,0,0,0,0,0,0,0,0,0,0,0,0,0,0,0,0,0,0,0,0,0,0,0,0,0,0,0,0,0,0,0,0,0,0,0,0,0],"sum_hessian":[6.57E2,5.96E2,6.1E1,3.04E2,2.92E2,3.6E1,2.5E1,1.11E2,1.93E2,4E0,2.88E2,2.3E1,1.3E1,2E0,2.3E1,4.2E1,6.9E1,9.9E1,9.4E1,1E0,3E0,1.39E2,1.49E2,1.2E1,1.1E1,8E0,5E0,1.3E1,1E1,3.4E1,8E0,4.8E1,2.1E1,6.5E1,3.4E1,5.2E1,4.2E1,1.27E2,1.2E1,1.2E2,2.9E1,8E0,5E0,1.9E1,1.5E1,3E0,5E0,1.8E1,3E1,3E0,1.8E1,4.2E1,2.3E1,1.5E1,1.9E1,8E0,4.4E1,1.2E1,3E1,5.1E1,7.6E1,8E0,4E0,2E0,1.18E2,1.4E1,1.5E1],"tree_param":{"num_deleted":"0","num_feature":"60","num_nodes":"67","size_leaf_vector":"0"}},{"base_weights":[7.841201E-6,2.65533E-6,1.7074794E-3,-2.3633642E-4,4.1989097E-5,5.2741E-5,-5.0844526E-4,6.3305575E-5,-5.420503E-4,2.76811E-4,-2.802433E-4,-1.1324544E-4,-9.703521E-4,1.5381748E-3,5.5055734E-5,-1.8699917E-4,-1.9155049E-3,-8.076882E-5,5.9209816E-4,-5.2852166E-4,5.434619E-5,-4.7531392E-4,2.56912E-4,-3.4928322E-4,-1.3734549E-3,1.6277556E-4,-5.6486973E-5,-4.4344863E-4,9.022798E-5,-2.3928753E-3,-2.4169683E-4,-3.186812E-4,2.8956123E-4,9.0527534E-4,2.8272718E-4,1.2515113E-5,-8.427501E-4,-7.547651E-5,5.156379E-4,-6.371687E-4,6.603599E-5,-1.6563386E-4,-1.7192379E-3,-2.5323033E-3,1.8171534E-4,-3.1705285E-4,1.1596386E-4],"categories":[],"categories_nodes":[],"categories_segments":[],"categories_sizes":[],"default_left":[1,1,0,1,1,1,1,1,1,1,1,1,1,0,1,1,1,1,1,0,0,1,1,1,1,1,1,0,0,0,0,0,0,0,0,0,0,0,0,0,0,0,0,0,0,0,0],"id":81,"left_children":[1,3,-1,5,7,9,11,13,15,17,19,21,23,-1,25,27,29,31,33,-1,-1,35,37,39,41,43,45,-1,-1,-1,-1,-1,-1,-1,-1,-1,-1,-1,-1,-1,-1,-1,-1,-1,-1,-1,-1],"loss_changes":[5.7951474E-6,6.1860164E-6,0E0,7.3422443E-6,7.068374E-6,3.5097173E-6,8.652296E-6,6.558735E-6,9.394734E-6,3.2045518E-6,1.6070785E-6,3.7407167E-6,5.028078E-6,0E0,6.5455506E-6,1.2486223E-6,2.6177568E-6,1.3257632E-6,1.1973734E-6,9.912426E-7,2.615437E-7,2.5199915E-6,1.2428841E-6,1.2377196E-6,5.144606E-6,1.4599411E-5,1.2079295E-5,3.7392863E-7,5.2193E-7,0E0,0E0,0E0,0E0,0E0,0E0,0E0,0E0,0E0,0E0,0E0,0E0,0E0,0E0,0E0,0E0,0E0,0E0],"parents":[2147483647,0,0,1,1,3,3,4,4,5,5,6,6,7,7,8,8,9,9,10,10,11,11,12,12,14,14,15,15,16,16,17,17,18,18,21,21,22,22,23,23,24,24,25,25,26,26],"right_children":[2,4,-1,6,8,10,12,14,16,18,20,22,24,-1,26,28,30,32,34,-1,-1,36,38,40,42,44,46,-1,-1,-1,-1,-1,-1,-1,-1,-1,-1,-1,-1,-1,-1,-1,-1,-1,-1,-1,-1],"split_conditions":[5.1434946E0,-7.261265E-1,5.1224383E-4,-1.394831E-1,1.7647736E0,1.9275773E-1,-5.9824497E-2,-2.9645343E0,-4.9007293E-2,-4.5630133E-1,6.3546315E-2,2.0507123E-2,-3.4950197E-1,4.6145247E-4,-2.65393E-2,-1.7831665E-1,3.7707776E-1,2.726169E-2,-2.403886E-1,-1.585565E-4,1.6303859E-5,-3.2723364E-1,-2.6189527E-1,-1.4551379E-1,-5.400003E-1,-2.214581E0,-1.2899116E-1,-1.330346E-4,2.7068394E-5,-7.178626E-4,-7.250905E-5,-9.5604366E-5,8.686837E-5,2.7158263E-4,8.481816E-5,3.754534E-6,-2.5282503E-4,-2.2642955E-5,1.5469138E-4,-1.9115063E-4,1.9810797E-5,-4.969016E-5,-5.157714E-4,-7.5969106E-4,5.4514603E-5,-9.511586E-5,3.4789162E-5],"split_indices":[43,26,0,32,43,41,7,50,39,54,7,53,13,0,56,0,0,10,8,0,0,14,36,51,18,31,18,0,0,0,0,0,0,0,0,0,0,0,0,0,0,0,0,0,0,0,0],"split_type":[0,0,0,0,0,0,0,0,0,0,0,0,0,0,0,0,0,0,0,0,0,0,0,0,0,0,0,0,0,0,0,0,0,0,0,0,0,0,0,0,0,0,0,0,0,0,0],"sum_hessian":[6.57E2,6.56E2,1E0,9.2E1,5.64E2,4.5E1,4.7E1,5.45E2,1.9E1,2.7E1,1.8E1,2.6E1,2.1E1,2E0,5.43E2,1.6E1,3E0,1.3E1,1.4E1,1E1,8E0,1.3E1,1.3E1,9E0,1.2E1,2.76E2,2.67E2,8E0,8E0,2E0,1E0,8E0,5E0,6E0,8E0,6E0,7E0,6E0,7E0,5E0,4E0,3E0,9E0,1E0,2.75E2,1.06E2,1.61E2],"tree_param":{"num_deleted":"0","num_feature":"60","num_nodes":"47","size_leaf_vector":"0"}},{"base_weights":[3.4564982E-6,-2.0913638E-5,2.9391897E-4,2.4903377E-7,-8.0394803E-4,1.3714693E-3,1.979998E-4,-1.9325971E-5,7.5582764E-4,-1.723934E-4,-1.5913193E-3,4.1227596E-4,-7.397546E-5,4.0893E-5,-2.0493571E-4,2.9549599E-3,3.8767818E-4,-1.1438727E-4,6.819624E-4,3.832703E-4,-2.3100481E-4,4.673657E-7,7.382157E-4,6.447979E-4,-3.2565786E-4,-8.6454405E-5,7.5408444E-4,2.041374E-4,9.0386346E-4,1.7471313E-4,-3.6928058E-4,-1.2394214E-4,2.0155401E-4,1.7076139E-3,2.3860385E-4,2.1996729E-3,3.1295902E-4,-4.6859917E-4,2.1052164E-4,1.0830661E-3,2.7469173E-4],"categories":[],"categories_nodes":[],"categories_segments":[],"categories_sizes":[],"default_left":[1,1,1,1,1,0,1,1,1,0,0,1,1,1,1,0,1,0,1,0,1,1,1,1,1,0,0,0,1,0,0,0,0,0,0,0,0,0,0,0,0],"id":82,"left_children":[1,3,5,7,9,-1,11,13,15,-1,-1,17,19,21,23,-1,25,-1,27,-1,29,31,33,35,37,-1,-1,-1,39,-1,-1,-1,-1,-1,-1,-1,-1,-1,-1,-1,-1],"loss_changes":[4.6638725E-6,1.0075429E-5,4.9996947E-6,8.785347E-6,7.681955E-6,0E0,2.8278332E-6,6.479995E-6,1.0998566E-5,7.441801E-7,5.45273E-7,3.9129245E-6,1.6681594E-6,1.2346749E-5,1.4776582E-5,0E0,2.4973458E-6,3.2434613E-7,1.7240254E-6,1.528847E-7,1.0182343E-6,1.0407073E-5,1.1216303E-5,8.599016E-6,9.6789245E-6,2.2917536E-7,4.3274122E-7,8.040965E-8,1.0554813E-6,7.903367E-9,4.3482316E-7,0E0,0E0,0E0,0E0,0E0,0E0,0E0,0E0,0E0,0E0],"parents":[2147483647,0,0,1,1,2,2,3,3,4,4,6,6,7,7,8,8,11,11,12,12,13,13,14,14,16,16,18,18,20,20,21,21,22,22,23,23,24,24,28,28],"right_children":[2,4,6,8,10,-1,12,14,16,-1,-1,18,20,22,24,-1,26,-1,28,-1,30,32,34,36,38,-1,-1,-1,40,-1,-1,-1,-1,-1,-1,-1,-1,-1,-1,-1,-1],"split_conditions":[8.4642804E-1,7.330633E-1,9.203906E-1,6.401671E-1,-1.5121287E-1,4.1144082E-4,2.0218319E-1,3.0160525E-1,6.4660823E-1,-5.171802E-5,-4.773958E-4,-4.353764E-1,-1.0385542E0,2.3650254E-1,-1.2367558E0,8.86488E-4,-9.411441E-2,-3.4316185E-5,-1.9916114E-1,1.1498109E-4,-3.158018E-1,1.6129047E-1,-2.4729267E-1,-1.2949927E0,5.31945E-1,-2.5936322E-5,2.2622534E-4,6.124122E-5,5.7909954E-1,5.2413943E-5,-1.10784174E-4,-3.7182643E-5,6.0466205E-5,5.122842E-4,7.158116E-5,6.599019E-4,9.388771E-5,-1.4057975E-4,6.31565E-5,3.2491985E-4,8.2407525E-5],"split_indices":[1,1,1,1,52,0,3,18,1,0,0,27,34,18,42,0,15,0,32,0,5,29,13,41,10,0,0,0,24,0,0,0,0,0,0,0,0,0,0,0,0],"split_type":[0,0,0,0,0,0,0,0,0,0,0,0,0,0,0,0,0,0,0,0,0,0,0,0,0,0,0,0,0,0,0,0,0,0,0,0,0,0,0,0,0],"sum_hessian":[6.57E2,6.07E2,5E1,5.92E2,1.5E1,3E0,4.7E1,5.78E2,1.4E1,9E0,6E0,2.6E1,2.1E1,4.37E2,1.41E2,1E0,1.3E1,9E0,1.7E1,5E0,1.6E1,4.14E2,2.3E1,1.7E1,1.24E2,6E0,7E0,6E0,1.1E1,4E0,1.2E1,2.56E2,1.58E2,7E0,1.6E1,2E0,1.5E1,9.8E1,2.6E1,8E0,3E0],"tree_param":{"num_deleted":"0","num_feature":"60","num_nodes":"41","size_leaf_vector":"0"}},{"base_weights":[6.5926724E-6,2.1279586E-6,1.4699548E-3,-1.9469045E-4,3.3712346E-5,1.7005801E-3,-2.3464435E-4,2.1601915E-3,2.6138723E-5,-1.18839824E-4,-7.628128E-4,3.747279E-4,-1.6710126E-5,1.2263478E-4,-3.8384384E-4,-1.5962214E-3,-3.519915E-4,-1.8429557E-4,5.4161594E-4,-1.0429482E-4,1.8359197E-4,7.19849E-4,-2.5860627E-5,-1.5723209E-6,-6.270361E-4,-4.4356784E-4,1.753824E-4,3.6949627E-4,1.2464126E-3,-2.493712E-5,-7.4055186E-4,4.922612E-4,-8.638124E-5],"categories":[],"categories_nodes":[],"categories_segments":[],"categories_sizes":[],"default_left":[1,1,0,1,1,0,1,0,1,1,1,1,1,1,1,0,0,1,1,1,1,0,0,0,0,0,0,0,0,0,0,0,0],"id":83,"left_children":[1,3,-1,5,7,-1,9,-1,11,13,15,17,19,21,23,-1,-1,25,27,29,31,-1,-1,-1,-1,-1,-1,-1,-1,-1,-1,-1,-1],"loss_changes":[4.2959105E-6,4.090731E-6,0E0,7.2898647E-6,9.075157E-6,0E0,5.4141337E-6,0E0,8.460403E-6,4.8464535E-6,4.9162554E-6,5.884065E-6,8.878565E-6,3.5659587E-6,3.345771E-6,0E0,4.825258E-7,1.4766118E-6,5.3623044E-6,1.775468E-5,1.2875715E-5,0E0,0E0,0E0,0E0,0E0,0E0,0E0,0E0,0E0,0E0,0E0,0E0],"parents":[2147483647,0,0,1,1,3,3,4,4,6,6,8,8,9,9,10,10,11,11,12,12,13,13,14,14,17,17,18,18,19,19,20,20],"right_children":[2,4,-1,6,8,-1,10,-1,12,14,16,18,20,22,24,-1,-1,26,28,30,32,-1,-1,-1,-1,-1,-1,-1,-1,-1,-1,-1,-1],"split_conditions":[5.1434946E0,-7.266251E-1,4.4098648E-4,-2.7015996E0,-3.4981008E0,5.101741E-4,5.7349485E-1,6.480575E-4,-4.3462402E-1,-1.1467228E0,6.6781473E-1,-6.458305E-1,2.6821598E-1,-7.649966E-1,-5.8197826E-3,-4.7886642E-4,-1.0559746E-4,1.853662E-1,5.406712E-1,1.7356402E-1,5.4320157E-1,2.1595471E-4,-7.758188E-6,-4.716963E-7,-1.8811083E-4,-1.3307035E-4,5.2614723E-5,1.1084889E-4,3.739238E-4,-7.4811364E-6,-2.2216556E-4,1.4767837E-4,-2.5914373E-5],"split_indices":[43,14,0,54,41,0,55,0,14,14,55,24,6,27,42,0,0,59,11,6,6,0,0,0,0,0,0,0,0,0,0,0,0],"split_type":[0,0,0,0,0,0,0,0,0,0,0,0,0,0,0,0,0,0,0,0,0,0,0,0,0,0,0,0,0,0,0,0,0],"sum_hessian":[6.57E2,6.56E2,1E0,9E1,5.66E2,1E0,8.9E1,1E0,5.65E2,7.4E1,1.5E1,6.1E1,5.04E2,3.9E1,3.5E1,4E0,1.1E1,1.4E1,4.7E1,3.51E2,1.53E2,7E0,3.2E1,1.4E1,2.1E1,8E0,6E0,3.9E1,8E0,3.13E2,3.8E1,7.1E1,8.2E1],"tree_param":{"num_deleted":"0","num_feature":"60","num_nodes":"33","size_leaf_vector":"0"}},{"base_weights":[6.640717E-6,2.0478464E-4,-2.390798E-5,-1.1974126E-3,2.5131728E-4,-1.5245208E-4,5.5319484E-5,-1.7836094E-3,-1.2509525E-5,-8.4124265E-5,4.722622E-4,2.6606745E-4,-2.785952E-4,1.5853088E-3,1.081162E-5,-1.0765456E-3,4.255728E-5,9.680511E-5,8.1632234E-4,1.779323E-4,2.3364127E-3,-3.9137285E-5,-5.750012E-4,2.9917718E-3,1.4903831E-4,-8.295944E-5,3.1257686E-4,3.306393E-4,-2.661897E-4,-2.776988E-4,3.114071E-4,7.1578793E-6,1.0471713E-3,2.1110624E-3,9.5397765E-5,2.9182204E-4,-3.2390343E-4,-8.0193963E-4,4.6742458E-5,6.8068504E-4,3.399372E-3,-3.7299716E-4,5.0330535E-4,2.065354E-4,-2.3136845E-4,-1.9359082E-4,6.240433E-4,-1.2485434E-4,5.3083285E-4,1.3283031E-5,-7.341914E-4,2.8515607E-4,-4.585584E-4,1.8958002E-5,1.2174869E-3,9.550393E-4,-2.237906E-6,4.2499523E-5,7.2548026E-4,1.2015624E-5,-8.0435997E-4,-1.2485465E-3,-4.1590378E-4,-3.8226807E-4,6.6123076E-4,1.03403036E-4,1.6331548E-3,-4.65437E-4,1.719081E-4,1.2308017E-4,-5.6068995E-4,1.0633613E-3,-3.3923213E-6],"categories":[],"categories_nodes":[],"categories_segments":[],"categories_sizes":[],"default_left":[1,1,1,1,1,1,1,0,0,1,1,1,1,1,1,0,1,1,1,1,0,1,1,1,1,1,1,1,1,0,0,1,1,0,1,1,1,1,1,0,0,0,0,1,1,1,1,0,0,0,0,0,0,0,0,0,0,0,0,0,0,0,0,0,0,0,0,0,0,0,0,0,0],"id":84,"left_children":[1,3,5,7,9,11,13,-1,-1,15,17,19,21,23,25,-1,27,29,31,33,-1,35,37,39,41,43,45,47,49,-1,-1,51,53,-1,55,57,59,61,63,-1,-1,-1,-1,65,67,69,71,-1,-1,-1,-1,-1,-1,-1,-1,-1,-1,-1,-1,-1,-1,-1,-1,-1,-1,-1,-1,-1,-1,-1,-1,-1,-1],"loss_changes":[3.987795E-6,6.042749E-6,5.823625E-6,2.0614466E-6,6.4135425E-6,1.1583079E-5,2.4089042E-5,0E0,0E0,4.4460658E-6,6.6383254E-6,8.890257E-6,1.1901592E-5,1.9754723E-5,9.788344E-6,6.727173E-7,2.934235E-6,2.1760786E-6,5.035963E-6,7.77611E-6,0E0,8.953648E-6,1.06198E-5,2.3960965E-6,1.2973712E-6,1.1390188E-5,1.3048457E-5,1.6164539E-6,2.1024516E-6,4.806984E-7,7.2205216E-7,1.0370387E-6,3.6544552E-6,0E0,4.114789E-6,4.7264816E-6,8.240786E-6,8.96307E-6,5.7888283E-6,0E0,0E0,0E0,6.85352E-8,1.3072886E-5,1.6599026E-5,3.7889986E-6,1.4061441E-5,0E0,0E0,0E0,0E0,0E0,0E0,0E0,0E0,0E0,0E0,0E0,0E0,0E0,0E0,0E0,0E0,0E0,0E0,0E0,0E0,0E0,0E0,0E0,0E0,0E0,0E0],"parents":[2147483647,0,0,1,1,2,2,3,3,4,4,5,5,6,6,9,9,10,10,11,11,12,12,13,13,14,14,16,16,17,17,18,18,19,19,21,21,22,22,23,23,24,24,25,25,26,26,27,27,28,28,31,31,32,32,34,34,35,35,36,36,37,37,38,38,43,43,44,44,45,45,46,46],"right_children":[2,4,6,8,10,12,14,-1,-1,16,18,20,22,24,26,-1,28,30,32,34,-1,36,38,40,42,44,46,48,50,-1,-1,52,54,-1,56,58,60,62,64,-1,-1,-1,-1,66,68,70,72,-1,-1,-1,-1,-1,-1,-1,-1,-1,-1,-1,-1,-1,-1,-1,-1,-1,-1,-1,-1,-1,-1,-1,-1,-1,-1],"split_conditions":[-7.4928594E-1,-2.366233E0,-1.6283318E-1,1.829309E-1,-4.3524396E-1,-4.549721E-1,-1.4858645E-1,-5.350828E-4,-3.7528575E-6,-1.0737538E0,-1.2549353E0,1.1286747E0,3.7841771E-3,3.6091003E-1,4.300083E-1,-3.229637E-4,-5.237101E-2,-4.0943635E-1,-7.715958E-1,-2.7590804E0,7.0092385E-4,-1.5944926E-2,4.6411657E-1,-6.1508733E-1,-8.971506E-2,-1.756196E-1,-1.5865591E-1,-6.5872854E-1,-3.3629942E-1,-8.330964E-5,9.342213E-5,4.7018462E-1,-7.591971E-1,6.3331873E-4,-9.6806484E-1,7.1916655E-2,-4.0089053E-1,-1.4425504E-1,8.254175E-2,2.0420553E-4,1.0198117E-3,-1.1189916E-4,1.509916E-4,-2.0775531E-1,1.8920289E-1,2.9264703E-2,1.9246295E-1,-3.7456302E-5,1.5924986E-4,3.9849097E-6,-2.2025743E-4,8.5546824E-5,-1.3756753E-4,5.687401E-6,3.652461E-4,2.865118E-4,-6.713718E-7,1.2749858E-5,2.1764409E-4,3.6046872E-6,-2.41308E-4,-3.7456397E-4,-1.2477113E-4,-1.1468043E-4,1.9836923E-4,3.102091E-5,4.8994645E-4,-1.3963111E-4,5.1572435E-5,3.692405E-5,-1.6820699E-4,3.190084E-4,-1.0176965E-6],"split_indices":[13,34,20,0,24,5,20,0,0,9,13,8,40,29,59,0,53,1,17,44,0,36,3,1,9,24,53,43,54,0,0,5,26,0,47,27,20,15,28,0,0,0,0,24,33,41,58,0,0,0,0,0,0,0,0,0,0,0,0,0,0,0,0,0,0,0,0,0,0,0,0,0,0],"split_type":[0,0,0,0,0,0,0,0,0,0,0,0,0,0,0,0,0,0,0,0,0,0,0,0,0,0,0,0,0,0,0,0,0,0,0,0,0,0,0,0,0,0,0,0,0,0,0,0,0,0,0,0,0,0,0,0,0,0,0,0,0,0,0,0,0,0,0,0,0,0,0,0,0],"sum_hessian":[6.57E2,8.7E1,5.7E2,2E0,8.5E1,2.17E2,3.53E2,1E0,1E0,3.4E1,5.1E1,5E1,1.67E2,9E0,3.44E2,3E0,3.1E1,2.5E1,2.6E1,4.9E1,1E0,9.3E1,7.4E1,4E0,5E0,2.63E2,8.1E1,1.6E1,1.5E1,9E0,1.6E1,6E0,2E1,1E0,4.8E1,4.3E1,5E1,5.4E1,2E1,1E0,3E0,2E0,3E0,8.9E1,1.74E2,3.1E1,5E1,5E0,1.1E1,1E1,5E0,4E0,2E0,3E0,1.7E1,4E0,4.4E1,2.8E1,1.5E1,3E1,2E1,2.4E1,3E1,1.2E1,8E0,8.4E1,5E0,1.1E2,6.4E1,1.7E1,1.4E1,2.9E1,2.1E1],"tree_param":{"num_deleted":"0","num_feature":"60","num_nodes":"73","size_leaf_vector":"0"}},{"base_weights":[8.376976E-6,1.113904E-3,3.3084427E-6,5.0008297E-5,1.6208477E-3,-2.1165457E-5,2.3400984E-4,-7.6428483E-7,-4.1861023E-4,8.0776523E-4,9.710457E-5,-4.6269106E-5,2.3117173E-4,-1.0782399E-3,-6.7864916E-5,1.3206775E-4,1.2715395E-3,-4.1472007E-4,1.7287995E-4,-8.5599735E-5,3.2153763E-4,1.7405326E-3,1.256338E-4,-2.9531028E-4,-1.8021073E-3,-3.7759237E-4,2.7962177E-4,-8.9359426E-5,3.7803946E-4,-3.2355965E-5,-4.6271863E-4,-3.2893047E-5,7.096844E-4,4.1969618E-4,2.2960268E-3,3.052319E-4,-3.1437824E-4,-3.899427E-4,1.2561049E-4,1.4564607E-4,5.992293E-4],"categories":[],"categories_nodes":[],"categories_segments":[],"categories_sizes":[],"default_left":[1,1,1,0,0,1,1,1,1,1,1,1,1,1,1,0,0,0,1,1,1,1,1,0,0,0,0,1,1,0,0,0,0,0,0,0,0,0,0,0,0],"id":85,"left_children":[1,3,5,-1,-1,7,9,11,13,15,17,19,21,23,25,-1,-1,-1,27,29,31,33,35,-1,-1,-1,-1,37,39,-1,-1,-1,-1,-1,-1,-1,-1,-1,-1,-1,-1],"loss_changes":[3.6833526E-6,1.5369499E-6,3.708836E-6,0E0,0E0,4.8160337E-6,4.8702213E-6,5.9843774E-6,6.636323E-6,3.592524E-6,2.0884497E-6,6.884441E-6,1.4595747E-5,5.1351917E-6,2.2581064E-6,2.0412621E-8,7.7705226E-7,9.2256744E-7,2.5086229E-6,8.599018E-6,6.351615E-6,3.4386685E-6,7.050187E-6,3.141381E-7,0E0,6.1581864E-7,4.8699053E-7,1.4059243E-6,1.2492039E-6,0E0,0E0,0E0,0E0,0E0,0E0,0E0,0E0,0E0,0E0,0E0,0E0],"parents":[2147483647,0,0,1,1,2,2,5,5,6,6,7,7,8,8,9,9,10,10,11,11,12,12,13,13,14,14,18,18,19,19,20,20,21,21,22,22,27,27,28,28],"right_children":[2,4,6,-1,-1,8,10,12,14,16,18,20,22,24,26,-1,-1,-1,28,30,32,34,36,-1,-1,-1,-1,38,40,-1,-1,-1,-1,-1,-1,-1,-1,-1,-1,-1,-1],"split_conditions":[-3.4981008E0,-4.3272072E-1,7.806678E-1,1.500249E-5,4.8625434E-4,1.1782895E0,9.6080226E-1,4.519217E-1,1.5785978E0,-2.7466014E-1,-1.1442158E0,6.532067E-1,4.6324894E-1,2.056801E-1,-1.1605475E-1,3.962033E-5,3.8146187E-4,-1.2441602E-4,-1.8822028E-1,2.3452696E-1,-1.1527431E-1,-9.3234956E-2,3.9000827E-1,-8.8593086E-5,-5.4063223E-4,-1.1327772E-4,8.388654E-5,8.868928E-2,-1.7280204E-2,-9.70679E-6,-1.388156E-4,-9.867915E-6,2.1290533E-4,1.2590886E-4,6.8880804E-4,9.156957E-5,-9.431347E-5,-1.1698281E-4,3.768315E-5,4.3693824E-5,1.797688E-4],"split_indices":[50,0,11,0,0,25,11,25,25,14,12,31,25,28,46,0,0,0,3,25,49,1,2,0,0,0,0,0,18,0,0,0,0,0,0,0,0,0,0,0,0],"split_type":[0,0,0,0,0,0,0,0,0,0,0,0,0,0,0,0,0,0,0,0,0,0,0,0,0,0,0,0,0,0,0,0,0,0,0,0,0,0,0,0,0],"sum_hessian":[6.57E2,2E0,6.55E2,1E0,1E0,5.93E2,6.2E1,5.65E2,2.8E1,1.1E1,5.1E1,4.73E2,9.2E1,9E0,1.9E1,5E0,6E0,6E0,4.5E1,4.28E2,4.5E1,5E0,8.7E1,5E0,4E0,1E1,9E0,2E1,2.5E1,3.76E2,5.2E1,2.4E1,2.1E1,2E0,3E0,6.2E1,2.5E1,8E0,1.2E1,1.3E1,1.2E1],"tree_param":{"num_deleted":"0","num_feature":"60","num_nodes":"41","size_leaf_vector":"0"}},{"base_weights":[7.6114793E-6,-3.486405E-5,1.2146982E-4,-1.2155022E-5,-5.5656396E-4,3.1118552E-4,-5.7312296E-5,1.1737687E-4,-1.4051786E-4,-9.879965E-4,3.858102E-4,5.502098E-4,1.6576796E-5,-3.4446994E-4,1.21911624E-4,-7.237692E-5,3.0448296E-4,1.337239E-4,-3.0598516E-4,-1.3078504E-3,-1.5068948E-4,-3.290549E-4,5.5979687E-4,2.0065928E-4,1.0731732E-3,-1.5112162E-3,9.450011E-5,-5.615859E-4,2.7619005E-4,2.4001501E-4,-5.47764E-4,1.0247099E-4,-4.437447E-4,-1.0148771E-4,5.114225E-4,2.5100366E-4,-8.061586E-4,-5.7764485E-4,1.60587E-6,3.9898462E-4,-2.3588985E-4,1.1007322E-4,1.7636028E-3,-5.707485E-4,2.3274982E-4,-8.134924E-4,3.261533E-5,-6.9098816E-5,8.1139803E-4,7.9803995E-6,4.9105333E-4,-8.967286E-4,1.1262391E-4,-2.0049613E-4,2.304842E-4,-1.6537924E-4,-1.0098912E-3,2.197477E-4,-7.1376405E-4,-1.4721809E-4,7.00491E-4,-5.9230695E-4,4.1088476E-4,-1.8752282E-3,-8.0096135E-5,5.510986E-4,-7.3514174E-4,1.6813948E-4,-7.2870345E-4,-1.3218261E-5,6.060302E-4,7.7848636E-5,-5.651981E-4,-6.8531685E-5,2.1783586E-3,4.8530885E-4,-1.0267496E-4,-3.096635E-4,-1.4675492E-3,2.5185768E-4,-3.6964632E-4,7.0432195E-4,1.2204498E-4],"categories":[],"categories_nodes":[],"categories_segments":[],"categories_sizes":[],"default_left":[1,1,1,1,1,1,1,1,1,1,1,1,1,1,1,1,1,1,1,0,0,0,0,1,1,0,1,1,1,1,1,1,1,1,1,1,1,1,1,1,1,0,1,0,1,1,0,0,0,1,1,0,0,0,0,0,0,0,0,0,0,0,0,0,0,0,0,0,0,0,0,0,0,0,0,0,0,0,0,0,0,0,0],"id":86,"left_children":[1,3,5,7,9,11,13,15,17,19,21,23,25,27,29,31,33,35,37,-1,-1,-1,-1,39,41,-1,43,45,47,49,51,53,55,57,59,61,63,65,67,69,71,-1,73,-1,75,77,-1,-1,-1,79,81,-1,-1,-1,-1,-1,-1,-1,-1,-1,-1,-1,-1,-1,-1,-1,-1,-1,-1,-1,-1,-1,-1,-1,-1,-1,-1,-1,-1,-1,-1,-1,-1],"loss_changes":[3.1864502E-6,5.679938E-6,6.089117E-6,7.681579E-6,8.512596E-6,6.1173005E-6,4.828288E-6,8.187979E-6,1.0568623E-5,3.5523426E-6,1.0548429E-6,8.559158E-6,4.9048376E-6,5.0062904E-6,4.718747E-6,7.5127523E-6,9.797223E-6,9.902517E-6,1.2117139E-5,4.9136906E-7,4.214486E-7,0E0,1.1688837E-7,2.691479E-6,1.2439979E-5,0E0,3.7196883E-6,4.067979E-6,1.9040804E-6,2.90856E-6,2.1750611E-6,3.1101313E-6,5.664022E-6,8.024242E-6,9.691796E-6,1.0894895E-5,7.6119154E-6,1.4093703E-5,8.514376E-6,1.8002515E-6,1.0771665E-6,6.0878597E-7,8.508054E-6,6.3221637E-7,2.8454092E-6,5.8066753E-6,5.858209E-7,1.2859635E-7,4.7233925E-8,2.579652E-6,1.8027908E-6,0E0,3.4886792E-8,0E0,0E0,0E0,0E0,0E0,0E0,0E0,0E0,0E0,0E0,0E0,0E0,0E0,0E0,0E0,0E0,0E0,0E0,0E0,0E0,0E0,0E0,0E0,0E0,0E0,0E0,0E0,0E0,0E0,0E0],"parents":[2147483647,0,0,1,1,2,2,3,3,4,4,5,5,6,6,7,7,8,8,9,9,10,10,11,11,12,12,13,13,14,14,15,15,16,16,17,17,18,18,23,23,24,24,26,26,27,27,28,28,29,29,30,30,31,31,32,32,33,33,34,34,35,35,36,36,37,37,38,38,39,39,40,40,42,42,44,44,45,45,49,49,50,50],"right_children":[2,4,6,8,10,12,14,16,18,20,22,24,26,28,30,32,34,36,38,-1,-1,-1,-1,40,42,-1,44,46,48,50,52,54,56,58,60,62,64,66,68,70,72,-1,74,-1,76,78,-1,-1,-1,80,82,-1,-1,-1,-1,-1,-1,-1,-1,-1,-1,-1,-1,-1,-1,-1,-1,-1,-1,-1,-1,-1,-1,-1,-1,-1,-1,-1,-1,-1,-1,-1,-1],"split_conditions":[3.1853944E-1,2.709107E-1,-1.1808492E-1,-5.0701484E-2,2.151554E-1,-3.8180724E-2,-2.06299E-1,-6.573062E-2,-1.8701074E-1,4.4529754E-1,-2.15292E-1,-3.1557643E-1,-9.617155E-1,5.072416E-1,7.674063E-1,2.2367111E-1,-2.1169311E-1,9.063326E-1,3.359024E-1,-3.923551E-4,-4.5206845E-5,-9.8716475E-5,1.6793907E-4,1.23721674E-1,-2.2620408E-1,-4.5336486E-4,-1.124109E0,3.6241308E-1,-1.4000943E-1,-3.897595E-2,7.712785E-1,-4.4796038E-1,-4.4727862E-2,8.396346E-2,-4.127269E-1,-5.0657624E-1,2.1055737E-1,-4.0109155E-1,3.8530898E-1,-2.0928746E-1,1.9548135E-1,3.3021966E-5,-5.7702595E-1,-1.7122456E-4,-9.600781E-2,-1.3192943E-1,9.7846E-6,-2.0729645E-5,2.4341942E-4,1.3573714E-1,1.870572E-1,-2.6901858E-4,3.3787175E-5,-6.014884E-5,6.9145266E-5,-4.9613776E-5,-3.0296735E-4,6.5924316E-5,-2.1412922E-4,-4.4165427E-5,2.1014731E-4,-1.776921E-4,1.2326543E-4,-5.625685E-4,-2.4028841E-5,1.6532959E-4,-2.2054253E-4,5.0441846E-5,-2.1861105E-4,-3.9654788E-6,1.8180907E-4,2.3354592E-5,-1.6955943E-4,-2.0559506E-5,6.535076E-4,1.4559265E-4,-3.080249E-5,-9.2899056E-5,-4.402648E-4,7.5557306E-5,-1.108939E-4,2.1129659E-4,3.6613495E-5],"split_indices":[10,10,6,37,37,0,0,41,35,52,3,0,13,52,47,34,34,36,37,0,0,0,0,17,34,0,40,6,26,49,11,55,10,23,18,7,11,2,56,59,40,0,31,0,54,37,0,0,0,12,48,0,0,0,0,0,0,0,0,0,0,0,0,0,0,0,0,0,0,0,0,0,0,0,0,0,0,0,0,0,0,0,0],"split_type":[0,0,0,0,0,0,0,0,0,0,0,0,0,0,0,0,0,0,0,0,0,0,0,0,0,0,0,0,0,0,0,0,0,0,0,0,0,0,0,0,0,0,0,0,0,0,0,0,0,0,0,0,0,0,0,0,0,0,0,0,0,0,0,0,0,0,0,0,0,0,0,0,0,0,0,0,0,0,0,0,0,0,0],"sum_hessian":[6.57E2,4.79E2,1.78E2,4.6E2,1.9E1,8.6E1,9.2E1,2.29E2,2.31E2,1.3E1,6E0,4.7E1,3.9E1,3.5E1,5.7E1,1.14E2,1.15E2,8.7E1,1.44E2,9E0,4E0,1E0,5E0,2.9E1,1.8E1,1E0,3.8E1,2.6E1,9E0,4.9E1,8E0,7.8E1,3.6E1,3.9E1,7.6E1,7.8E1,9E0,7.6E1,6.8E1,2E1,9E0,8E0,1E1,6E0,3.2E1,1.8E1,8E0,6E0,3E0,2.6E1,2.3E1,5E0,3E0,2.3E1,5.5E1,2.5E1,1.1E1,2.6E1,1.3E1,1.7E1,5.9E1,1.2E1,6.6E1,3E0,6E0,9E0,6.7E1,5.6E1,1.2E1,7E0,1.3E1,5E0,4E0,2E0,8E0,1.8E1,1.4E1,1.1E1,7E0,1.6E1,1E1,1.4E1,9E0],"tree_param":{"num_deleted":"0","num_feature":"60","num_nodes":"83","size_leaf_vector":"0"}},{"base_weights":[2.7509025E-6,3.6989263E-4,-8.744537E-6,5.334272E-5,8.380497E-4,-1.10805864E-4,3.0291316E-5,3.6616126E-4,1.5024766E-3,6.2019615E-5,-3.1640174E-4,9.270052E-5,-1.7821688E-4,1.8131414E-4,-1.9781111E-4,1.497798E-4,-5.6551234E-4,-3.2314508E-6,3.1390693E-4,-8.5796416E-4,-9.929485E-5,-1.7808068E-4,3.732269E-4,1.0493683E-4,-5.27738E-4,-8.33433E-5,2.197961E-3,-1.004789E-3,-1.6732515E-4,6.063218E-5,-4.1073665E-4,7.3460804E-5,7.927586E-4,-1.312405E-4,-1.2544862E-3,2.2452869E-4,-2.0883311E-4,5.536207E-5,-4.5900047E-4,5.6790205E-4,3.063098E-5,-8.2350743E-4,5.3167343E-5,2.662473E-4,-2.4455236E-4,9.204298E-5,-1.6275097E-3,-7.3610034E-5,-7.3464215E-4,-1.6036918E-4,1.8830955E-4,6.0129503E-4,-7.991198E-4,2.9943234E-4,-4.3080046E-4,-2.1452669E-4,1.371421E-3,-3.8571547E-5,6.9654814E-4,3.0431728E-4,-2.9511598E-4],"categories":[],"categories_nodes":[],"categories_segments":[],"categories_sizes":[],"default_left":[1,1,1,0,1,1,1,0,0,1,1,1,1,1,1,1,1,1,1,1,1,1,1,0,1,1,0,1,1,1,1,1,1,0,0,1,1,0,0,0,0,0,0,0,0,0,0,0,0,0,0,0,0,0,0,0,0,0,0,0,0],"id":87,"left_children":[1,3,5,-1,7,9,11,-1,-1,13,15,17,19,21,23,25,27,29,31,33,35,37,39,-1,41,43,-1,45,47,49,51,53,55,-1,-1,57,59,-1,-1,-1,-1,-1,-1,-1,-1,-1,-1,-1,-1,-1,-1,-1,-1,-1,-1,-1,-1,-1,-1,-1,-1],"loss_changes":[2.7802942E-6,2.9191979E-6,2.549165E-6,2.6473293E-7,1.9581344E-6,6.3088232E-6,6.041461E-6,4.6945843E-8,0E0,3.042515E-6,9.491296E-6,7.576828E-6,5.6550416E-6,4.6876185E-6,3.1518048E-6,1.4030058E-5,9.102332E-6,6.531094E-6,1.237667E-5,3.0051415E-6,3.487583E-6,1.5992998E-6,2.9171806E-6,6.902891E-7,2.6209946E-6,1.5867552E-6,0E0,1.7225299E-5,1.4877422E-6,6.1532605E-6,1.3844414E-5,8.44725E-6,2.1277818E-5,8.777662E-8,2.1741198E-7,3.131578E-6,3.3219637E-6,0E0,0E0,0E0,0E0,0E0,0E0,0E0,0E0,0E0,0E0,0E0,0E0,0E0,0E0,0E0,0E0,0E0,0E0,0E0,0E0,0E0,0E0,0E0,0E0],"parents":[2147483647,0,0,1,1,2,2,4,4,5,5,6,6,9,9,10,10,11,11,12,12,13,13,14,14,15,15,16,16,17,17,18,18,19,19,20,20,21,21,22,22,24,24,25,25,27,27,28,28,29,29,30,30,31,31,32,32,35,35,36,36],"right_children":[2,4,6,-1,8,10,12,-1,-1,14,16,18,20,22,24,26,28,30,32,34,36,38,40,-1,42,44,-1,46,48,50,52,54,56,-1,-1,58,60,-1,-1,-1,-1,-1,-1,-1,-1,-1,-1,-1,-1,-1,-1,-1,-1,-1,-1,-1,-1,-1,-1,-1,-1],"split_conditions":[-2.068678E0,1.610692E-2,-3.4027046E-1,1.6002816E-5,-6.083002E-2,1.1276899E-2,3.7461516E-1,1.09848384E-4,4.50743E-4,2.477017E-1,-3.4281886E-1,1.0089111E-2,4.0880212E-1,-3.9302045E-1,-4.5347622E-1,-4.356081E-1,3.656196E-2,-8.730674E-2,1.7530349E-1,-4.1546915E-2,-3.4354112E-1,-5.0720644E-1,1.9743538E-1,3.148105E-5,2.3621607E-1,-4.4865924E-1,6.593884E-4,-4.1146034E-1,-3.6236224E-1,-1.8556608E-1,-2.0810007E-1,2.887752E-1,-4.0376997E-1,-3.937215E-5,-3.7634585E-4,-5.91475E-1,-6.14621E-1,1.6608621E-5,-1.3770015E-4,1.7037062E-4,9.189294E-6,-2.4705223E-4,1.5950203E-5,7.98742E-5,-7.336571E-5,2.7612896E-5,-4.8825293E-4,-2.2083012E-5,-2.2039266E-4,-4.8110756E-5,5.6492867E-5,1.8038851E-4,-2.3973595E-4,8.982971E-5,-1.2924014E-4,-6.435801E-5,4.1142633E-4,-1.1571465E-5,2.0896445E-4,9.129519E-5,-8.85348E-5],"split_indices":[44,14,12,0,16,37,57,0,0,44,55,57,57,26,59,55,54,57,26,58,53,37,8,0,39,34,0,19,12,43,48,33,49,0,0,53,43,0,0,0,0,0,0,0,0,0,0,0,0,0,0,0,0,0,0,0,0,0,0,0,0],"split_type":[0,0,0,0,0,0,0,0,0,0,0,0,0,0,0,0,0,0,0,0,0,0,0,0,0,0,0,0,0,0,0,0,0,0,0,0,0,0,0,0,0,0,0,0,0,0,0,0,0,0,0,0,0,0,0,0,0,0,0,0,0],"sum_hessian":[6.57E2,1.9E1,6.38E2,1.2E1,7E0,1.76E2,4.62E2,5E0,2E0,9.6E1,8E1,3.56E2,1.06E2,6.6E1,3E1,2.8E1,5.2E1,2.49E2,1.07E2,1E1,9.6E1,2.3E1,4.3E1,1.6E1,1.4E1,2.6E1,2E0,2.4E1,2.8E1,2.16E2,3.3E1,7.2E1,3.5E1,4E0,6E0,2.4E1,7.2E1,1.3E1,1E1,2.7E1,1.6E1,9E0,5E0,8E0,1.8E1,9E0,1.5E1,2.5E1,3E0,7.9E1,1.37E2,9E0,2.4E1,5E1,2.2E1,1.3E1,2.2E1,1.6E1,8E0,1E1,6.2E1],"tree_param":{"num_deleted":"0","num_feature":"60","num_nodes":"61","size_leaf_vector":"0"}},{"base_weights":[2.5938364E-6,3.957806E-5,-9.9708785E-5,1.2402426E-4,-6.064234E-5,-2.464232E-4,1.7166467E-4,1.02432394E-4,1.2176782E-3,-2.5194002E-4,6.2177816E-5,-1.0004131E-4,-6.3512183E-4,-1.9107049E-4,3.9048464E-4,1.8541701E-4,-1.5868513E-4,2.7471455E-5,-5.809353E-4,4.6613402E-4,-6.659846E-5,1.4208646E-4,-3.1304284E-4,-1.0759037E-3,-1.5464488E-4,-4.4612327E-4,1.509122E-4,3.2219665E-5,7.292254E-4,1.5684598E-4,1.5247576E-3,-3.0503565E-4,3.7532992E-4,-1.9554341E-4,7.128113E-4,-1.5451042E-4,-1.0441148E-3,-7.2385585E-5,8.1979105E-4,4.163014E-4,-1.7251124E-4,-3.054591E-4,3.6888465E-4,-9.31002E-5,-8.4727857E-4,-2.9356612E-4,-1.8215454E-3,1.0328078E-4,-4.2548063E-4,-2.8777073E-4,-1.2523532E-3,-1.6987725E-4,3.565997E-4,1.7128614E-4,1.270036E-3,2.6336533E-4,-1.1714592E-4,1.8633604E-3,2.5447458E-4,-1.9021069E-5,-6.140922E-4,-2.745539E-6,7.537976E-4,-3.2677555E-5,-5.775284E-4,1.4446463E-4,1.2570806E-3,2.2666417E-4,-4.358362E-4,-1.572447E-3,-1.211022E-4,5.399249E-4,1.5514046E-3,1.6047875E-4,1.3355166E-3,6.0899747E-5,-3.9669673E-4,-8.601658E-4,-7.597857E-5,-3.603085E-5,6.49516E-4,4.6475343E-5,-6.18163E-4,-1.3501303E-3,-2.2338703E-4,-1.8550083E-5,-2.076466E-3,7.1027875E-4,-1.7464906E-4,1.4257804E-4,1.7328641E-3],"categories":[],"categories_nodes":[],"categories_segments":[],"categories_sizes":[],"default_left":[1,1,1,1,1,1,1,1,0,1,1,1,1,1,1,1,1,1,1,1,1,1,1,1,1,1,0,1,1,1,1,1,1,1,1,1,1,0,1,1,1,1,1,1,1,0,1,0,0,0,0,0,1,0,1,0,0,0,0,0,0,0,0,0,0,0,0,0,0,0,0,0,0,0,0,0,0,0,0,0,0,0,0,0,0,0,0,0,0,0,0],"id":88,"left_children":[1,3,5,7,9,11,13,15,-1,17,19,21,23,25,27,29,31,33,35,37,39,41,43,45,47,49,-1,51,53,55,57,59,61,63,65,67,69,-1,71,73,75,77,79,81,83,-1,85,-1,-1,-1,-1,-1,87,-1,89,-1,-1,-1,-1,-1,-1,-1,-1,-1,-1,-1,-1,-1,-1,-1,-1,-1,-1,-1,-1,-1,-1,-1,-1,-1,-1,-1,-1,-1,-1,-1,-1,-1,-1,-1,-1],"loss_changes":[2.493544E-6,4.103725E-6,7.009822E-6,6.08576E-6,5.231602E-6,6.4228843E-6,4.9957794E-6,5.6416266E-6,9.149667E-7,8.013439E-6,7.1057602E-6,4.3766604E-6,6.3989683E-6,2.1606927E-6,4.7095036E-6,7.2993166E-6,5.038152E-6,7.475752E-6,7.739126E-6,6.344232E-6,5.390924E-6,4.1727803E-6,5.208674E-6,8.798752E-6,1.1616319E-6,1.4269692E-6,3.3623897E-7,1.3717022E-6,5.817251E-6,5.6928275E-6,1.2463079E-6,4.4080534E-6,2.0053203E-6,2.2829831E-6,3.5304001E-6,2.457942E-6,9.075062E-6,4.1234875E-7,3.2574353E-6,4.2536426E-6,4.5243114E-6,1.7167673E-6,3.0914664E-6,2.4471647E-6,3.7768232E-6,2.5347208E-7,3.638448E-6,5.451856E-7,1.2870487E-9,3.824456E-7,0E0,3.711453E-7,1.627182E-6,5.211455E-7,4.9711216E-6,0E0,0E0,0E0,0E0,0E0,0E0,0E0,0E0,0E0,0E0,0E0,0E0,0E0,0E0,0E0,0E0,0E0,0E0,0E0,0E0,0E0,0E0,0E0,0E0,0E0,0E0,0E0,0E0,0E0,0E0,0E0,0E0,0E0,0E0,0E0,0E0],"parents":[2147483647,0,0,1,1,2,2,3,3,4,4,5,5,6,6,7,7,9,9,10,10,11,11,12,12,13,13,14,14,15,15,16,16,17,17,18,18,19,19,20,20,21,21,22,22,23,23,24,24,25,25,27,27,28,28,29,29,30,30,31,31,32,32,33,33,34,34,35,35,36,36,38,38,39,39,40,40,41,41,42,42,43,43,44,44,46,46,52,52,54,54],"right_children":[2,4,6,8,10,12,14,16,-1,18,20,22,24,26,28,30,32,34,36,38,40,42,44,46,48,50,-1,52,54,56,58,60,62,64,66,68,70,-1,72,74,76,78,80,82,84,-1,86,-1,-1,-1,-1,-1,88,-1,90,-1,-1,-1,-1,-1,-1,-1,-1,-1,-1,-1,-1,-1,-1,-1,-1,-1,-1,-1,-1,-1,-1,-1,-1,-1,-1,-1,-1,-1,-1,-1,-1,-1,-1,-1,-1],"split_conditions":[3.2173234E-1,3.7071824E-2,1.753862E-1,1.7620184E-2,-1.1612941E-1,2.2771393E-1,-2.7276132E-1,3.209316E-1,3.6530348E-4,-1.1394462E-1,-3.693244E-1,-3.4302942E-2,-1.7637582E-2,-2.6121086E-1,-1.20048925E-1,2.9571426E-1,4.9396646E-1,1.7513227E-1,4.349732E-3,-3.9961377E-1,-4.5162076E-1,-3.2657552E-1,2.9776615E-1,2.3987185E-2,-1.3744688E-1,4.9705946E-1,4.527366E-5,2.0319757E-1,-6.2810875E-2,2.3353961E-1,2.0392306E-1,-1.3039267E-1,-7.510723E-1,-1.2579891E-1,-1.8124865E-1,-5.145512E-2,1.6684887E-1,-2.1715676E-5,3.462522E-1,2.191981E-1,-9.245455E-2,3.9466625E-1,-1.3203952E-1,5.494005E-1,-7.1885966E-2,-8.8069835E-5,-2.9262975E-1,3.0984236E-5,-1.2764419E-4,-8.633122E-5,-3.7570597E-4,-5.096318E-5,1.7566146E-1,5.1385843E-5,-3.1156504E-1,7.90096E-5,-3.5143777E-5,5.5900816E-4,7.6342374E-5,-5.7063207E-6,-1.8422767E-4,-8.236617E-7,2.2613928E-4,-9.803267E-6,-1.7325852E-4,4.333939E-5,3.771242E-4,6.799925E-5,-1.3075086E-4,-4.7173412E-4,-3.633066E-5,1.6197747E-4,4.6542138E-4,4.814363E-5,4.00655E-4,1.8269924E-5,-1.19009026E-4,-2.5804975E-4,-2.279357E-5,-1.0809255E-5,1.9485482E-4,1.3942604E-5,-1.854489E-4,-4.050391E-4,-6.701611E-5,-5.5650253E-6,-6.2293984E-4,2.1308364E-4,-5.239472E-5,4.2773412E-5,5.1985926E-4],"split_indices":[4,42,42,42,10,44,37,41,0,50,53,52,5,51,32,41,27,9,17,27,11,7,22,19,53,3,0,0,22,16,0,38,42,46,49,58,47,0,5,4,34,4,14,0,54,0,2,0,0,0,0,0,11,0,41,0,0,0,0,0,0,0,0,0,0,0,0,0,0,0,0,0,0,0,0,0,0,0,0,0,0,0,0,0,0,0,0,0,0,0,0],"split_type":[0,0,0,0,0,0,0,0,0,0,0,0,0,0,0,0,0,0,0,0,0,0,0,0,0,0,0,0,0,0,0,0,0,0,0,0,0,0,0,0,0,0,0,0,0,0,0,0,0,0,0,0,0,0,0,0,0,0,0,0,0,0,0,0,0,0,0,0,0,0,0,0,0,0,0,0,0,0,0,0,0,0,0,0,0,0,0,0,0,0,0],"sum_hessian":[6.57E2,4.83E2,1.74E2,2.62E2,2.21E2,1.13E2,6.1E1,2.58E2,4E0,8.6E1,1.35E2,8.3E1,3E1,2.3E1,3.8E1,1.96E2,6.2E1,4.7E1,3.9E1,3.2E1,1.03E2,3.9E1,4.4E1,1.5E1,1.5E1,1.3E1,1E1,1.9E1,1.9E1,1.93E2,3E0,4.9E1,1.3E1,3.6E1,1.1E1,2.1E1,1.8E1,1.3E1,1.9E1,1.8E1,8.5E1,1.3E1,2.6E1,3.2E1,1.2E1,8E0,7E0,8E0,7E0,1.2E1,1E0,1.2E1,7E0,1E1,9E0,1.39E2,5.4E1,2E0,1E0,2.6E1,2.3E1,7E0,6E0,2.6E1,1E1,6E0,5E0,9E0,1.2E1,1.1E1,7E0,1.5E1,4E0,1.5E1,3E0,4.2E1,4.3E1,3E0,1E1,1.1E1,1.5E1,2.6E1,6E0,6E0,6E0,1E0,6E0,4E0,3E0,3E0,6E0],"tree_param":{"num_deleted":"0","num_feature":"60","num_nodes":"91","size_leaf_vector":"0"}},{"base_weights":[2.501771E-6,-1.0224453E-4,2.8238097E-5,4.043907E-5,-2.9151284E-4,7.764132E-5,-1.043861E-4,1.8302012E-4,-1.678379E-4,-5.55226E-4,8.323913E-5,-1.0101943E-5,2.0568789E-4,-1.5522242E-3,-7.306285E-5,1.6747043E-5,3.5608982E-4,2.4312176E-4,-2.9783123E-4,-1.9244595E-5,-7.874247E-4,2.1054149E-4,-4.4261813E-4,-5.4714925E-5,4.1418057E-4,-1.6539037E-4,3.1350044E-4,6.6230205E-5,-3.0128544E-4,-7.241633E-5,-1.1639347E-3,3.4592154E-5,-3.054037E-4,2.0908315E-4,1.0696951E-3,5.657498E-5,-6.7500025E-4,-6.257682E-5,5.1172316E-4,2.2654287E-5,1.307855E-3,-6.874353E-4,-1.4325022E-5,-1.8067658E-4,-1.3946928E-3,6.586048E-5,-7.5288117E-4,-4.981943E-4,2.9478275E-4,3.580875E-4,-1.4860679E-4,1.6088194E-3,1.7400582E-4,-4.2834785E-5,8.3299476E-4,-1.1614399E-3,-7.6060496E-5,5.560012E-4,-2.1985183E-4,7.971443E-4,2.0637347E-4,6.5133796E-4,-7.6909644E-5,-1.1650457E-3,-6.0492617E-5,-2.2411307E-4,2.7141054E-4],"categories":[],"categories_nodes":[],"categories_segments":[],"categories_sizes":[],"default_left":[1,1,1,1,1,1,1,1,1,1,1,1,1,0,1,0,0,0,0,0,1,0,0,1,1,1,1,1,1,0,1,1,1,1,1,1,1,1,1,1,0,1,1,0,0,0,0,0,0,0,0,0,0,0,0,0,0,0,0,0,0,0,0,0,0,0,0],"id":89,"left_children":[1,3,5,7,9,11,13,15,17,19,21,23,25,-1,27,-1,-1,-1,-1,-1,29,-1,-1,31,33,35,37,39,41,-1,43,45,47,49,51,53,55,57,59,61,-1,63,65,-1,-1,-1,-1,-1,-1,-1,-1,-1,-1,-1,-1,-1,-1,-1,-1,-1,-1,-1,-1,-1,-1,-1,-1],"loss_changes":[1.7767137E-6,3.5225016E-6,3.4741463E-6,2.257944E-6,5.58053E-6,4.338874E-6,6.4171313E-6,1.288994E-6,1.7284914E-6,4.091833E-6,1.6998184E-6,4.376219E-6,6.332931E-6,0E0,4.5341094E-6,6.9386E-7,8.493662E-7,3.0788635E-7,8.89989E-7,3.1835762E-7,6.1074916E-6,8.542061E-7,0E0,4.6897153E-6,2.7341202E-6,4.1103544E-6,9.126765E-6,4.785711E-6,5.973878E-6,3.8830063E-7,3.1514337E-6,3.866145E-6,6.5109275E-6,1.0125666E-6,2.134495E-6,2.0424577E-6,3.116489E-6,4.3055734E-6,6.8077497E-6,5.495791E-6,0E0,6.8165136E-6,1.9790318E-6,0E0,0E0,0E0,0E0,0E0,0E0,0E0,0E0,0E0,0E0,0E0,0E0,0E0,0E0,0E0,0E0,0E0,0E0,0E0,0E0,0E0,0E0,0E0,0E0],"parents":[2147483647,0,0,1,1,2,2,3,3,4,4,5,5,6,6,7,7,8,8,9,9,10,10,11,11,12,12,14,14,20,20,23,23,24,24,25,25,26,26,27,27,28,28,30,30,31,31,32,32,33,33,34,34,35,35,36,36,37,37,38,38,39,39,41,41,42,42],"right_children":[2,4,6,8,10,12,14,16,18,20,22,24,26,-1,28,-1,-1,-1,-1,-1,30,-1,-1,32,34,36,38,40,42,-1,44,46,48,50,52,54,56,58,60,62,-1,64,66,-1,-1,-1,-1,-1,-1,-1,-1,-1,-1,-1,-1,-1,-1,-1,-1,-1,-1,-1,-1,-1,-1,-1,-1],"split_conditions":[-4.7675663E-1,1.0428031E-1,2.7338916E-1,1.4428845E-1,2.1262097E-1,6.3489765E-2,2.8240407E-1,-1.12424195E-1,-3.9289957E-1,-4.026407E-1,5.9388494E-1,8.094202E-1,-4.1713455E-1,-4.6566725E-4,1.1690959E-1,5.024113E-6,1.0682695E-4,7.293653E-5,-8.934937E-5,-5.7733787E-6,-2.1911E-1,6.316245E-5,-1.3278544E-4,2.575618E-1,1.1551933E-1,-5.7164565E-2,-1.7881566E-1,1.0370566E-1,-1.4429839E-1,-2.17249E-5,-3.6431092E-1,1.3179374E0,5.9395504E-1,9.459138E-2,4.2731583E-1,6.454046E-1,6.773506E-2,-1.934059E-1,1.05780125E-1,-7.9875803E-1,3.923565E-4,1.1838156E-1,-5.332666E-2,-5.4202977E-5,-4.1840787E-4,1.9758143E-5,-2.2586437E-4,-1.494583E-4,8.843483E-5,1.07426255E-4,-4.458204E-5,4.8264582E-4,5.2201747E-5,-1.2850436E-5,2.4989844E-4,-3.48432E-4,-2.2818149E-5,1.6680037E-4,-6.595555E-5,2.3914331E-4,6.191205E-5,1.954014E-4,-2.3072895E-5,-3.4951372E-4,-1.8147786E-5,-6.723392E-5,8.142316E-5],"split_indices":[7,26,30,15,30,8,30,16,28,5,53,52,52,0,54,0,0,0,0,0,56,0,0,44,21,39,44,54,51,0,41,32,15,55,2,22,15,16,2,52,0,37,1,0,0,0,0,0,0,0,0,0,0,0,0,0,0,0,0,0,0,0,0,0,0,0,0],"split_type":[0,0,0,0,0,0,0,0,0,0,0,0,0,0,0,0,0,0,0,0,0,0,0,0,0,0,0,0,0,0,0,0,0,0,0,0,0,0,0,0,0,0,0,0,0,0,0,0,0,0,0,0,0,0,0,0,0,0,0,0,0,0,0,0,0,0,0],"sum_hessian":[6.57E2,1.29E2,5.28E2,7.4E1,5.5E1,3.85E2,1.43E2,4.4E1,3E1,3.2E1,2.3E1,2.29E2,1.56E2,2E0,1.41E2,2.3E1,2.1E1,7E0,2.3E1,1E1,2.2E1,1.9E1,4E0,2.08E2,2.1E1,3.5E1,1.21E2,8.8E1,5.3E1,8E0,1.4E1,1.54E2,5.4E1,1.7E1,4E0,2.5E1,1E1,4.2E1,7.9E1,8.6E1,2E0,2.2E1,3.1E1,3E0,1.1E1,1.49E2,5E0,4.1E1,1.3E1,1.2E1,5E0,2E0,2E0,2.3E1,2E0,5E0,5E0,8E0,3.4E1,4E1,3.9E1,1.1E1,7.5E1,1.2E1,1E1,1.8E1,1.3E1],"tree_param":{"num_deleted":"0","num_feature":"60","num_nodes":"67","size_leaf_vector":"0"}},{"base_weights":[1.5538142E-6,-1.5597969E-5,1.3508831E-4,1.958092E-5,-1.9241961E-4,-6.289102E-5,3.401182E-4,3.605469E-5,-3.1504338E-4,3.5624646E-5,-4.1653696E-4,1.3640539E-4,-3.5790494E-4,2.4288893E-6,5.455626E-4,-1.04476865E-4,7.721893E-5,4.858151E-5,-4.7716562E-4,-1.1788488E-4,2.2938111E-4,-5.204562E-4,4.149601E-4,-8.427756E-4,1.7295033E-5,3.8131623E-4,1.2304038E-3,-3.610447E-5,-4.8681506E-4,1.5325793E-4,-6.934963E-5,6.425295E-4,1.0187427E-4,-1.091591E-3,-4.015509E-4,8.881589E-5,5.6891516E-4,1.1838605E-4,-1.3937801E-4,-7.0027326E-4,1.2284759E-4,1.1903072E-4,1.7244399E-3,-1.7364931E-4,2.3593847E-4,-3.0247867E-4,-1.3467402E-3,5.670637E-5,-5.2564306E-4],"categories":[],"categories_nodes":[],"categories_segments":[],"categories_sizes":[],"default_left":[1,1,1,1,1,1,1,1,1,1,1,0,1,0,1,1,1,0,0,0,1,1,0,0,0,1,0,1,1,1,1,0,0,1,1,0,0,0,0,0,0,0,0,0,0,0,0,0,0],"id":90,"left_children":[1,3,5,7,9,11,13,15,17,19,21,-1,23,-1,25,27,29,-1,-1,-1,31,33,-1,-1,-1,35,-1,37,39,41,43,-1,-1,45,47,-1,-1,-1,-1,-1,-1,-1,-1,-1,-1,-1,-1,-1,-1],"loss_changes":[1.5091605E-6,3.636475E-6,3.0657661E-6,2.7014707E-6,4.97238E-6,2.3418336E-6,2.5656013E-6,2.703819E-6,1.3790702E-6,1.4844702E-6,4.4499866E-6,3.6447912E-7,2.9253513E-6,2.230651E-7,2.117929E-6,2.7534097E-6,4.0339473E-6,1.2955849E-7,6.899629E-7,6.289509E-7,1.0934862E-6,2.5497511E-6,8.7371336E-7,9.783407E-7,7.163108E-7,1.0469262E-6,0E0,1.4683856E-6,2.1682265E-6,1.2593707E-5,3.9893102E-6,2.6871976E-7,7.259393E-7,1.0020294E-6,2.1907194E-6,1.8473025E-7,4.9154824E-7,0E0,0E0,0E0,0E0,0E0,0E0,0E0,0E0,0E0,0E0,0E0,0E0],"parents":[2147483647,0,0,1,1,2,2,3,3,4,4,5,5,6,6,7,7,8,8,9,9,10,10,12,12,14,14,15,15,16,16,20,20,21,21,25,25,27,27,28,28,29,29,30,30,33,33,34,34],"right_children":[2,4,6,8,10,12,14,16,18,20,22,-1,24,-1,26,28,30,-1,-1,-1,32,34,-1,-1,-1,36,-1,38,40,42,44,-1,-1,46,48,-1,-1,-1,-1,-1,-1,-1,-1,-1,-1,-1,-1,-1,-1],"split_conditions":[7.0256126E-1,2.7916378E-1,-3.9947532E-2,1.5133456E0,-5.4552443E-3,-1.4183441E-1,-5.2265954E-1,-3.920347E-1,-5.666781E-1,-2.037885E-2,6.8246275E-1,4.092162E-5,-1.5523353E-1,7.286668E-7,1.1172447E0,-4.7381973E-1,1.9366693E-1,1.4574453E-5,-1.431497E-4,-3.5365465E-5,3.8932025E-1,-6.658616E-1,1.2448803E-4,-2.528327E-4,5.18851E-6,-5.575093E-1,3.6912115E-4,-1.4858645E-1,2.4295038E-1,1.8719631E-1,3.176172E-1,1.9275886E-4,3.056228E-5,-1.7052585E-1,-1.9481595E-1,2.6644768E-5,1.7067455E-4,3.5515815E-5,-4.1813404E-5,-2.1008198E-4,3.685428E-5,3.5709218E-5,5.17332E-4,-5.2094798E-5,7.078154E-5,-9.0743604E-5,-4.0402208E-4,1.7011911E-5,-1.5769292E-4],"split_indices":[34,34,36,43,40,8,19,50,57,10,27,0,56,0,53,50,58,0,0,0,34,20,0,0,0,21,0,15,52,58,11,0,0,6,16,0,0,0,0,0,0,0,0,0,0,0,0,0,0],"split_type":[0,0,0,0,0,0,0,0,0,0,0,0,0,0,0,0,0,0,0,0,0,0,0,0,0,0,0,0,0,0,0,0,0,0,0,0,0,0,0,0,0,0,0,0,0,0,0,0,0],"sum_hessian":[6.57E2,5.83E2,7.4E1,4.87E2,9.6E1,3.8E1,3.6E1,4.65E2,2.2E1,4.8E1,4.8E1,2.3E1,1.5E1,1.4E1,2.2E1,1.05E2,3.6E2,7E0,1.5E1,2.7E1,2.1E1,4.3E1,5E0,6E0,9E0,1.9E1,3E0,9E1,1.5E1,2.37E2,1.23E2,4E0,1.7E1,6E0,3.7E1,8E0,1.1E1,3.6E1,5.4E1,1.1E1,4E0,2.33E2,4E0,9.2E1,3.1E1,2E0,4E0,8E0,2.9E1],"tree_param":{"num_deleted":"0","num_feature":"60","num_nodes":"49","size_leaf_vector":"0"}},{"base_weights":[1.5424465E-6,-1.3132425E-5,1.3562446E-4,-7.629831E-5,3.9384257E-5,-1.4316532E-4,2.5388907E-4,4.6400237E-5,-2.1689347E-4,1.4180988E-3,2.2135055E-5,-5.9394042E-5,3.9280648E-4,-1.8197448E-4,1.5435187E-4,9.217824E-5,-3.2309E-4,-9.392402E-5,1.4470621E-4,2.3286293E-4,7.7567744E-4,1.0333024E-5,-4.4210628E-4,2.9313992E-4,-8.6134605E-5,2.5119152E-5,7.5439614E-4,-6.0251612E-5,-5.083708E-4,5.3286305E-5,-2.2501143E-4,-1.282328E-4,2.7723567E-4,2.4814456E-4,1.1480749E-3,-6.3959725E-4,1.603365E-5,4.6047437E-4,2.0372607E-5,4.39462E-6,-5.5460137E-4,3.289569E-4,-1.6783364E-4,-6.0980265E-6,-7.142751E-4,3.5519677E-4,-7.705543E-5,7.042744E-6,-4.5722566E-4,3.1503575E-4,-2.6908927E-4,-1.9034899E-4,4.3158003E-4],"categories":[],"categories_nodes":[],"categories_segments":[],"categories_sizes":[],"default_left":[1,1,1,1,1,0,1,1,1,0,1,0,1,1,1,1,1,1,1,0,1,0,1,1,1,0,0,1,1,1,1,1,1,0,0,0,0,0,0,0,0,0,0,0,0,0,0,0,0,0,0,0,0],"id":91,"left_children":[1,3,5,7,9,-1,11,13,15,-1,17,-1,19,21,23,25,27,29,31,-1,33,-1,35,37,39,-1,-1,41,43,45,47,49,51,-1,-1,-1,-1,-1,-1,-1,-1,-1,-1,-1,-1,-1,-1,-1,-1,-1,-1,-1,-1],"loss_changes":[1.2964858E-6,1.973459E-6,2.1794608E-6,4.667786E-6,7.69767E-6,7.2281057E-7,2.0252724E-6,3.6028348E-6,4.165397E-6,9.566957E-7,4.5942006E-6,6.831198E-7,1.7789812E-6,2.3557573E-6,3.3295375E-6,1.4465054E-6,4.547067E-6,3.2153619E-6,5.7146262E-6,4.1032285E-7,1.4831785E-6,9.4557004E-7,1.8198248E-6,2.866152E-6,1.5716047E-6,6.609907E-7,0E0,1.7300837E-6,5.6837525E-6,3.136141E-6,4.745213E-6,3.3315093E-6,7.732071E-6,1.4517866E-8,0E0,0E0,0E0,0E0,0E0,0E0,0E0,0E0,0E0,0E0,0E0,0E0,0E0,0E0,0E0,0E0,0E0,0E0,0E0],"parents":[2147483647,0,0,1,1,2,2,3,3,4,4,6,6,7,7,8,8,10,10,12,12,13,13,14,14,15,15,16,16,17,17,18,18,20,20,22,22,23,23,24,24,27,27,28,28,29,29,30,30,31,31,32,32],"right_children":[2,4,6,8,10,-1,12,14,16,-1,18,-1,20,22,24,26,28,30,32,-1,34,-1,36,38,40,-1,-1,42,44,46,48,50,52,-1,-1,-1,-1,-1,-1,-1,-1,-1,-1,-1,-1,-1,-1,-1,-1,-1,-1,-1,-1],"split_conditions":[7.5717103E-1,-1.1984411E-1,-4.576834E-1,5.103873E-2,-1.12847626E-1,-4.29496E-5,-3.193415E-1,-3.374192E-1,-3.8518062E-1,4.2542967E-4,-2.0855337E-2,-1.7818213E-5,1.4558098E-1,-4.1802764E-1,2.7320236E-1,-4.121238E-1,-1.630756E-1,-1.2512538E-1,-2.765549E-1,6.9858885E-5,-2.5552264E-1,3.0999074E-6,5.203169E-1,2.4481842E-1,5.7220787E-1,7.535746E-6,2.2631885E-4,-8.062478E-1,-2.2528103E-1,-2.4001986E-1,-4.9007293E-2,-4.313799E-1,-4.438327E-1,7.444337E-5,3.4442247E-4,-1.9187918E-4,4.810095E-6,1.3814232E-4,6.111782E-6,1.3183861E-6,-1.6638041E-4,9.868707E-5,-5.0350096E-5,-1.829408E-6,-2.1428254E-4,1.0655903E-4,-2.311663E-5,2.1128233E-6,-1.371677E-4,9.451073E-5,-8.0726786E-5,-5.71047E-5,1.2947402E-4],"split_indices":[20,16,46,44,16,0,58,36,49,0,44,0,7,16,57,49,50,56,37,0,55,0,47,27,5,0,0,16,2,37,23,9,27,0,0,0,0,0,0,0,0,0,0,0,0,0,0,0,0,0,0,0,0],"split_type":[0,0,0,0,0,0,0,0,0,0,0,0,0,0,0,0,0,0,0,0,0,0,0,0,0,0,0,0,0,0,0,0,0,0,0,0,0,0,0,0,0,0,0,0,0,0,0,0,0,0,0,0,0],"sum_hessian":[6.57E2,5.93E2,6.4E1,2.69E2,3.24E2,1.9E1,4.5E1,1.44E2,1.25E2,3E0,3.21E2,1.4E1,3.1E1,4.6E1,9.8E1,3.2E1,9.3E1,1.65E2,1.56E2,2.3E1,8E0,2.7E1,1.9E1,6.2E1,3.6E1,3E1,2E0,3.9E1,5.4E1,7.8E1,8.7E1,5.1E1,1.05E2,4E0,4E0,1.3E1,6E0,3.8E1,2.4E1,3.1E1,5E0,8E0,3.1E1,1.6E1,3.8E1,2.3E1,5.5E1,4.4E1,4.3E1,1.2E1,3.9E1,2.6E1,7.9E1],"tree_param":{"num_deleted":"0","num_feature":"60","num_nodes":"53","size_leaf_vector":"0"}},{"base_weights":[2.217436E-6,-1.7270313E-5,1.12428774E-4,-8.368049E-5,2.3426923E-5,7.7812147E-4,6.1113955E-5,-2.2196233E-4,3.1678643E-5,7.7400636E-4,5.749321E-6,1.1579783E-3,2.0373426E-4,9.533997E-6,2.911459E-4,-4.080479E-4,-8.980052E-5,5.41611E-4,-1.5830637E-5,1.5445551E-3,2.5973096E-4,6.741596E-5,-1.500659E-4,9.7614154E-4,7.463672E-5,-5.6606616E-5,-6.653477E-4,-2.7823434E-4,6.1383726E-5,1.1951402E-3,9.0792775E-5,1.8268878E-5,-5.104478E-4,-9.6011885E-5,1.4432245E-4,-1.9027163E-4,6.27774E-4,-1.940541E-4,-9.5446117E-4,2.7130006E-4,-8.862689E-5,-2.8447993E-4,9.100029E-5,8.725447E-5,-3.825938E-4,-2.404852E-4,2.1376384E-4,-1.448587E-5,-4.1286612E-4,-3.342827E-5,1.0797182E-3],"categories":[],"categories_nodes":[],"categories_segments":[],"categories_sizes":[],"default_left":[1,1,1,1,1,1,1,1,1,1,1,0,0,0,1,1,1,1,1,0,0,1,1,0,0,0,1,0,1,0,0,1,0,1,1,1,1,0,0,0,0,0,0,0,0,0,0,0,0,0,0],"id":92,"left_children":[1,3,5,7,9,11,13,15,17,19,21,-1,-1,-1,23,25,27,29,31,-1,-1,33,35,-1,-1,-1,37,-1,39,-1,-1,41,-1,43,45,47,49,-1,-1,-1,-1,-1,-1,-1,-1,-1,-1,-1,-1,-1,-1],"loss_changes":[1.4151749E-6,1.5154784E-6,3.334276E-6,3.4048232E-6,4.612969E-6,1.2913742E-6,1.1006729E-6,2.3489174E-6,2.843077E-6,2.7690248E-6,3.2866499E-6,0E0,0E0,9.991485E-7,2.4483772E-6,3.5793678E-6,1.6693959E-6,2.8377187E-6,1.8308756E-6,0E0,3.952782E-7,3.0931787E-6,3.152989E-6,0E0,2.938055E-7,3.299229E-7,2.948701E-6,8.7278113E-7,1.0632039E-6,0E0,2.4959976E-7,2.2718616E-6,4.748017E-7,4.1825283E-6,4.5139104E-6,3.6330111E-6,1.530226E-6,0E0,0E0,0E0,0E0,0E0,0E0,0E0,0E0,0E0,0E0,0E0,0E0,0E0,0E0],"parents":[2147483647,0,0,1,1,2,2,3,3,4,4,5,5,6,6,7,7,8,8,9,9,10,10,14,14,15,15,16,16,17,17,18,18,21,21,22,22,26,26,28,28,31,31,33,33,34,34,35,35,36,36],"right_children":[2,4,6,8,10,12,14,16,18,20,22,-1,-1,-1,24,26,28,30,32,-1,-1,34,36,-1,-1,-1,38,-1,40,-1,-1,42,-1,44,46,48,50,-1,-1,-1,-1,-1,-1,-1,-1,-1,-1,-1,-1,-1,-1],"split_conditions":[5.843079E-1,-1.6170356E-1,6.135657E-1,-1.3457024E-1,-1.4858645E-1,4.5282996E-1,5.344183E-1,-1.00658715E-1,-9.298062E-2,-1.2819804E-1,2.4446282E-1,3.473935E-4,6.1120285E-5,2.8601994E-6,6.1887425E-1,-3.4180754E-1,-1.8001533E-1,-3.1629685E-1,-1.8846259E-1,4.6336654E-4,7.791929E-5,-2.1214703E-1,1.0201379E0,2.9284248E-4,2.2391017E-5,-1.6981985E-5,-1.47911E-1,-8.34703E-5,-2.9898748E-1,3.5854208E-4,2.7237833E-5,-5.0652426E-1,-1.5313434E-4,1.23733535E-1,-4.4984668E-1,-2.6152357E-2,4.9184233E-2,-5.8216232E-5,-2.8633836E-4,8.139002E-5,-2.6588068E-5,-8.5343985E-5,2.730009E-5,2.6176342E-5,-1.14778144E-4,-7.2145565E-5,6.4129155E-5,-4.345761E-6,-1.2385985E-4,-1.00284815E-5,3.2391548E-4],"split_indices":[23,20,23,42,20,22,44,58,42,0,55,0,0,0,44,29,30,44,20,0,0,39,17,0,0,0,48,0,8,0,0,43,0,43,40,34,4,0,0,0,0,0,0,0,0,0,0,0,0,0,0],"split_type":[0,0,0,0,0,0,0,0,0,0,0,0,0,0,0,0,0,0,0,0,0,0,0,0,0,0,0,0,0,0,0,0,0,0,0,0,0,0,0,0,0,0,0,0,0,0,0,0,0,0,0],"sum_hessian":[6.57E2,5.59E2,9.8E1,2.12E2,3.47E2,6E0,9.2E1,9.6E1,1.16E2,7E0,3.4E2,3E0,3E0,7.6E1,1.6E1,3.9E1,5.7E1,9E0,1.07E2,2E0,5E0,2.44E2,9.6E1,3E0,1.3E1,1.7E1,2.2E1,2.5E1,3.2E1,3E0,6E0,1.01E2,6E0,7.8E1,1.66E2,9.2E1,4E0,9E0,1.3E1,1.3E1,1.9E1,1.9E1,8.2E1,4.8E1,3E1,2.5E1,1.41E2,5.2E1,4E1,2E0,2E0],"tree_param":{"num_deleted":"0","num_feature":"60","num_nodes":"51","size_leaf_vector":"0"}},{"base_weights":[3.2845596E-6,5.0684725E-5,-3.882815E-5,-1.6124286E-5,2.9791993E-4,-3.8559243E-4,-8.554151E-6,2.0862266E-4,-6.231668E-5,2.7041544E-5,8.770859E-4,-3.012945E-5,-7.934244E-4,-1.2806721E-4,5.4924603E-5,1.1141608E-4,6.078236E-4,8.300912E-5,-1.388526E-4,-6.461479E-4,8.903494E-5,1.5067987E-3,2.7923472E-4,-2.3972399E-4,4.7892332E-4,-1.4179697E-3,-5.509643E-4,2.9127721E-5,-2.3408064E-4,1.0012325E-4,-2.8535828E-4,-8.906951E-5,1.9713171E-4,-2.326547E-4,7.215803E-5,3.7820637E-4,-1.00535635E-5,2.0968914E-3,4.9732777E-4,-1.8185831E-4,2.3010901E-4,-3.6445458E-4,4.915944E-5,-3.0210396E-5,2.3218319E-4,-5.3240947E-4,-5.321737E-5,1.1967336E-4,-2.6615267E-4,6.72403E-5,-3.379405E-4,-2.2898295E-5,5.3119933E-4,-4.3892363E-4,1.1314771E-4,1.1452973E-4,-2.0790845E-4,-6.296606E-5,4.033364E-4],"categories":[],"categories_nodes":[],"categories_segments":[],"categories_sizes":[],"default_left":[1,1,1,1,1,1,1,1,1,1,1,1,1,1,1,0,0,1,1,0,1,1,0,0,0,0,0,1,1,1,1,1,0,1,0,0,0,0,0,0,1,1,0,1,1,0,0,0,0,0,0,0,0,0,0,0,0,0,0],"id":93,"left_children":[1,3,5,7,9,11,13,15,17,19,21,23,25,27,29,-1,-1,31,33,-1,35,37,-1,-1,-1,-1,-1,39,41,43,45,47,-1,49,-1,-1,-1,-1,-1,-1,51,53,-1,55,57,-1,-1,-1,-1,-1,-1,-1,-1,-1,-1,-1,-1,-1,-1],"loss_changes":[1.3154344E-6,5.125241E-6,3.660483E-6,2.556492E-6,1.0330595E-5,4.035231E-6,2.4499E-6,1.562087E-6,2.2805457E-6,1.9772615E-6,7.485216E-6,1.8219242E-6,1.1873035E-6,1.8732729E-6,3.2738199E-6,6.4731984E-7,2.5680652E-7,1.4118606E-6,2.6690818E-6,4.0107398E-7,1.2359055E-6,4.9139726E-6,4.6194577E-7,4.5231548E-7,1.1847078E-8,0E0,7.214362E-8,1.9924423E-6,2.492034E-6,3.225631E-6,1.405434E-6,1.103832E-6,9.982459E-7,2.9591683E-6,7.312178E-7,7.7230675E-7,7.05262E-7,0E0,5.328502E-9,7.009583E-7,1.8404367E-6,1.6857261E-6,4.46112E-7,2.4672154E-6,4.7233602E-6,4.4485387E-7,9.670701E-8,0E0,0E0,0E0,0E0,0E0,0E0,0E0,0E0,0E0,0E0,0E0,0E0],"parents":[2147483647,0,0,1,1,2,2,3,3,4,4,5,5,6,6,7,7,8,8,9,9,10,10,11,11,12,12,13,13,14,14,17,17,18,18,20,20,21,21,27,27,28,28,29,29,30,30,31,31,33,33,40,40,41,41,43,43,44,44],"right_children":[2,4,6,8,10,12,14,16,18,20,22,24,26,28,30,-1,-1,32,34,-1,36,38,-1,-1,-1,-1,-1,40,42,44,46,48,-1,50,-1,-1,-1,-1,-1,-1,52,54,-1,56,58,-1,-1,-1,-1,-1,-1,-1,-1,-1,-1,-1,-1,-1,-1],"split_conditions":[-8.7501116E-2,-2.1594158E-1,-2.9479068E-2,-7.8538823E-1,3.1838444E-1,-8.838495E-2,-2.7941513E-1,5.128945E-1,-3.6073267E-1,-2.047626E0,3.4325067E-2,3.71655E-1,-1.5220243E-1,-9.723096E-2,5.733766E-1,3.3424825E-5,1.8234708E-4,-3.0844241E-2,4.7141892E-1,-1.9384437E-4,-2.5347936E-1,-1.0837236E-1,8.377042E-5,-7.19172E-5,1.43677E-4,-4.2539093E-4,-1.652893E-4,-5.62858E-1,4.882679E-1,-1.0811722E-1,1.0259991E0,-1.3351938E-1,5.9139515E-5,-4.4012943E-1,2.1647409E-5,1.13461916E-4,-3.0160693E-6,6.290674E-4,1.4919834E-4,-5.4557495E-5,-1.315849E-1,8.105161E-1,1.4747832E-5,1.8398443E-3,-2.0775531E-1,-1.5972284E-4,-1.5965212E-5,3.590201E-5,-7.9845806E-5,2.017209E-5,-1.0138215E-4,-6.869489E-6,1.593598E-4,-1.316771E-4,3.3944314E-5,3.435892E-5,-6.2372535E-5,-1.8889818E-5,1.2100092E-4],"split_indices":[39,39,39,52,50,9,23,30,18,35,36,28,55,22,58,0,0,37,52,0,18,42,0,0,0,0,0,22,9,58,58,50,0,53,0,0,0,0,0,0,44,0,0,9,11,0,0,0,0,0,0,0,0,0,0,0,0,0,0],"split_type":[0,0,0,0,0,0,0,0,0,0,0,0,0,0,0,0,0,0,0,0,0,0,0,0,0,0,0,0,0,0,0,0,0,0,0,0,0,0,0,0,0,0,0,0,0,0,0,0,0,0,0,0,0,0,0,0,0,0,0],"sum_hessian":[6.57E2,3.09E2,3.48E2,2.44E2,6.5E1,2.7E1,3.21E2,4.1E1,2.03E2,4.5E1,2E1,1.5E1,1.2E1,1.11E2,2.1E2,3.4E1,7E0,7E1,1.33E2,3E0,4.2E1,9E0,1.1E1,1.1E1,4E0,2E0,1E1,4.5E1,6.6E1,1.86E2,2.4E1,2.8E1,4.2E1,9.2E1,4.1E1,1E1,3.2E1,5E0,4E0,2.2E1,2.3E1,4.5E1,2.1E1,9.4E1,9.2E1,1.1E1,1.3E1,1.3E1,1.5E1,2.4E1,6.8E1,1.3E1,1E1,3.9E1,6E0,5.2E1,4.2E1,3.4E1,5.8E1],"tree_param":{"num_deleted":"0","num_feature":"60","num_nodes":"59","size_leaf_vector":"0"}},{"base_weights":[2.8237569E-6,-2.4015587E-4,9.253399E-6,-8.752756E-5,-1.3411045E-3,7.181664E-4,5.9159106E-6,5.0820872E-5,-3.3855587E-5,3.1625415E-5,6.700928E-4,-3.903936E-4,-1.6198774E-5,-1.8751258E-5,1.247353E-4,1.3633966E-3,2.7723503E-4,-5.9904554E-4,5.7200592E-5,7.1896284E-5,-7.3067305E-5,-8.606896E-5,2.6376214E-4,-2.5970967E-5,2.4211037E-4,2.6572576E-5,5.5156E-4,2.9302619E-5,-2.06727E-4],"categories":[],"categories_nodes":[],"categories_segments":[],"categories_sizes":[],"default_left":[1,1,1,0,0,0,1,1,1,1,1,1,1,1,1,0,0,0,0,1,1,0,0,0,0,0,0,0,0],"id":94,"left_children":[1,3,5,-1,-1,-1,7,9,11,13,15,17,19,21,23,-1,-1,-1,-1,25,27,-1,-1,-1,-1,-1,-1,-1,-1],"loss_changes":[1.0301972E-6,2.7392273E-6,1.5147164E-6,2.4466752E-7,0E0,6.515105E-7,1.1447206E-6,3.5568569E-6,2.1340866E-6,1.3766751E-6,2.0733469E-6,1.5285284E-6,1.6334501E-6,3.655169E-6,1.828271E-6,0E0,6.496708E-8,4.6829382E-7,6.6942505E-8,2.7680817E-6,2.7152387E-6,0E0,0E0,0E0,0E0,0E0,0E0,0E0,0E0],"parents":[2147483647,0,0,1,1,2,2,6,6,7,7,8,8,9,9,10,10,11,11,12,12,13,13,14,14,19,19,20,20],"right_children":[2,4,6,-1,-1,-1,8,10,12,14,16,18,20,22,24,-1,-1,-1,-1,26,28,-1,-1,-1,-1,-1,-1,-1,-1],"split_conditions":[-2.0598812E0,5.653343E-1,-1.7773163E0,-2.6258269E-5,-4.0233138E-4,2.1544994E-4,-8.7501116E-2,-9.943502E-2,-5.632515E-2,1.3349012E-1,-3.7537965E-1,9.362474E-2,-1.5944844E-1,5.511067E-1,-1.6885218E-1,4.09019E-4,8.317051E-5,-1.7971366E-4,1.7160179E-5,6.604812E-1,-2.0630252E-2,-2.582069E-5,7.9128644E-5,-7.79129E-6,7.263311E-5,7.971773E-6,1.6546801E-4,8.790786E-6,-6.20181E-5],"split_indices":[31,26,31,0,0,0,39,39,39,22,36,28,22,25,34,0,0,0,0,54,50,0,0,0,0,0,0,0,0],"split_type":[0,0,0,0,0,0,0,0,0,0,0,0,0,0,0,0,0,0,0,0,0,0,0,0,0,0,0,0,0],"sum_hessian":[6.57E2,1.6E1,6.41E2,1.5E1,1E0,2E0,6.39E2,3E2,3.39E2,2.92E2,8E0,1.5E1,3.24E2,1.9E2,1.02E2,2E0,6E0,1E1,5E0,1.27E2,1.97E2,1.54E2,3.6E1,4.5E1,5.7E1,1.17E2,1E1,1.12E2,8.5E1],"tree_param":{"num_deleted":"0","num_feature":"60","num_nodes":"29","size_leaf_vector":"0"}},{"base_weights":[2.5150462E-6],"categories":[],"categories_nodes":[],"categories_segments":[],"categories_sizes":[],"default_left":[0],"id":95,"left_children":[-1],"loss_changes":[9.061422E-7],"parents":[2147483647],"right_children":[-1],"split_conditions":[7.545139E-7],"split_indices":[0],"split_type":[0],"sum_hessian":[6.57E2],"tree_param":{"num_deleted":"0","num_feature":"60","num_nodes":"1","size_leaf_vector":"0"}},{"base_weights":[1.7646147E-6],"categories":[],"categories_nodes":[],"categories_segments":[],"categories_sizes":[],"default_left":[0],"id":96,"left_children":[-1],"loss_changes":[9.0662604E-7],"parents":[2147483647],"right_children":[-1],"split_conditions":[5.293844E-7],"split_indices":[0],"split_type":[0],"sum_hessian":[6.57E2],"tree_param":{"num_deleted":"0","num_feature":"60","num_nodes":"1","size_leaf_vector":"0"}},{"base_weights":[1.2406476E-6],"categories":[],"categories_nodes":[],"categories_segments":[],"categories_sizes":[],"default_left":[0],"id":97,"left_children":[-1],"loss_changes":[9.072489E-7],"parents":[2147483647],"right_children":[-1],"split_conditions":[3.721943E-7],"split_indices":[0],"split_type":[0],"sum_hessian":[6.57E2],"tree_param":{"num_deleted":"0","num_feature":"60","num_nodes":"1","size_leaf_vector":"0"}},{"base_weights":[8.7174476E-7],"categories":[],"categories_nodes":[],"categories_segments":[],"categories_sizes":[],"default_left":[0],"id":98,"left_children":[-1],"loss_changes":[9.0766287E-7],"parents":[2147483647],"right_children":[-1],"split_conditions":[2.6152344E-7],"split_indices":[0],"split_type":[0],"sum_hessian":[6.57E2],"tree_param":{"num_deleted":"0","num_feature":"60","num_nodes":"1","size_leaf_vector":"0"}},{"base_weights":[6.1494416E-7],"categories":[],"categories_nodes":[],"categories_segments":[],"categories_sizes":[],"default_left":[0],"id":99,"left_children":[-1],"loss_changes":[9.079611E-7],"parents":[2147483647],"right_children":[-1],"split_conditions":[1.8448326E-7],"split_indices":[0],"split_type":[0],"sum_hessian":[6.57E2],"tree_param":{"num_deleted":"0","num_feature":"60","num_nodes":"1","size_leaf_vector":"0"}}]},"name":"gbtree"},"learner_model_param":{"base_score":"5E-1","num_class":"0","num_feature":"60","num_target":"1"},"objective":{"name":"reg:squarederror","reg_loss_param":{"scale_pos_weight":"1"}}},"version":[1,6,1]}