{"learner":{"attributes":{"best_iteration":"99","best_ntree_limit":"100","scikit_learn":"{\"n_estimators\": 100, \"objective\": \"reg:squarederror\", \"max_depth\": null, \"max_leaves\": null, \"max_bin\": null, \"grow_policy\": null, \"learning_rate\": null, \"verbosity\": null, \"booster\": null, \"tree_method\": null, \"gamma\": null, \"min_child_weight\": null, \"max_delta_step\": null, \"subsample\": null, \"sampling_method\": null, \"colsample_bytree\": null, \"colsample_bylevel\": null, \"colsample_bynode\": null, \"reg_alpha\": null, \"reg_lambda\": null, \"scale_pos_weight\": null, \"base_score\": null, \"missing\": NaN, \"num_parallel_tree\": null, \"random_state\": null, \"n_jobs\": null, \"monotone_constraints\": null, \"interaction_constraints\": null, \"importance_type\": null, \"gpu_id\": null, \"validate_parameters\": null, \"predictor\": null, \"enable_categorical\": false, \"max_cat_to_onehot\": null, \"eval_metric\": null, \"early_stopping_rounds\": null, \"callbacks\": null, \"_estimator_type\": \"regressor\"}"},"feature_names":[],"feature_types":[],"gradient_booster":{"model":{"gbtree_model_param":{"num_parallel_tree":"1","num_trees":"100","size_leaf_vector":"0"},"tree_info":[0,0,0,0,0,0,0,0,0,0,0,0,0,0,0,0,0,0,0,0,0,0,0,0,0,0,0,0,0,0,0,0,0,0,0,0,0,0,0,0,0,0,0,0,0,0,0,0,0,0,0,0,0,0,0,0,0,0,0,0,0,0,0,0,0,0,0,0,0,0,0,0,0,0,0,0,0,0,0,0,0,0,0,0,0,0,0,0,0,0,0,0,0,0,0,0,0,0,0,0],"trees":[{"base_weights":[1.6789253E3,4.405049E2,2.8753662E3,2.896471E2,1.305046E3,2.2218257E3,3.5352454E3,1.9447847E2,4.5195294E2,1.8826896E3,2.4925764E3,3.1521895E3,4.0620684E3,1.4680077E2,2.297223E2,3.841043E2,5.9495776E2,1.3128171E2,1.6500688E2],"categories":[],"categories_nodes":[],"categories_segments":[],"categories_sizes":[],"default_left":[1,1,1,1,0,1,1,1,1,0,0,0,0,1,0,0,0,0,0],"id":0,"left_children":[1,3,5,7,-1,9,11,13,15,-1,-1,-1,-1,17,-1,-1,-1,-1,-1],"loss_changes":[9.751717E8,4.2009404E7,1.3661645E8,4.20621E6,0E0,1.1008704E7,2.0493056E7,2.63698E5,7.61148E5,0E0,0E0,0E0,0E0,3.75875E2,0E0,0E0,0E0,0E0,0E0],"parents":[2147483647,0,0,1,1,2,2,3,3,5,5,6,6,7,7,8,8,13,13],"right_children":[2,4,6,8,-1,10,12,14,16,-1,-1,-1,-1,18,-1,-1,-1,-1,-1],"split_conditions":[1.6786599E3,4.96135E2,2.863835E3,2.9028E2,3.9151382E2,2.15056E3,3.59476E3,1.8798999E2,4.96135E2,5.648069E2,7.4777295E2,9.4565686E2,1.2186206E3,1.5158499E2,6.8916695E1,1.152313E2,1.7848734E2,3.9384514E1,4.9502068E1],"split_indices":[59,16,59,55,0,59,59,59,58,0,0,0,0,59,0,0,0,0,0],"split_type":[0,0,0,0,0,0,0,0,0,0,0,0,0,0,0,0,0,0,0],"sum_hessian":[6.58E2,3.24E2,3.34E2,2.77E2,4.7E1,1.7E2,1.64E2,1.76E2,1.01E2,7.9E1,9.1E1,9.9E1,6.5E1,7.7E1,9.9E1,7.1E1,3E1,4.6E1,3.1E1],"tree_param":{"num_deleted":"0","num_feature":"60","num_nodes":"19","size_leaf_vector":"0"}},{"base_weights":[1.181803E3,2.8180838E2,2.0001116E3,1.9670352E2,8.015065E2,1.5980568E3,2.570474E3,1.3454562E2,3.0226965E2,6.1465894E2,9.0722174E2,1.3419021E3,1.8587687E3,2.3252756E3,2.957584E3,1.0184272E2,1.5685023E2,2.59564E2,3.811095E2,1.3270216E2,1.6712386E2],"categories":[],"categories_nodes":[],"categories_segments":[],"categories_sizes":[],"default_left":[1,1,1,1,1,1,1,1,1,0,0,0,0,0,0,0,1,0,0,0,0],"id":1,"left_children":[1,3,5,7,9,11,13,15,17,-1,-1,-1,-1,-1,-1,-1,19,-1,-1,-1,-1],"loss_changes":[4.847723E8,1.3774426E7,7.500659E7,1.744132E6,3.11484E5,1.1196128E7,6.506368E6,1.1021625E5,2.37769E5,0E0,0E0,0E0,0E0,0E0,0E0,0E0,2.87925E3,0E0,0E0,0E0,0E0],"parents":[2147483647,0,0,1,1,2,2,3,3,4,4,5,5,6,6,7,7,8,8,16,16],"right_children":[2,4,6,8,10,12,14,16,18,-1,-1,-1,-1,-1,-1,-1,20,-1,-1,-1,-1],"split_conditions":[1.573875E3,4.4191E2,3.0117852E3,2.76815E2,1.12921E3,2.319045E3,3.85265E3,1.8136499E2,4.3832E2,1.8439769E2,2.7216653E2,4.0257065E2,5.576306E2,6.975827E2,8.872752E2,3.0552816E1,2.1751001E2,7.78692E1,1.14332855E2,3.981065E1,5.0137157E1],"split_indices":[59,11,59,59,59,59,59,59,59,0,0,0,0,0,0,0,59,0,0,0,0],"split_type":[0,0,0,0,0,0,0,0,0,0,0,0,0,0,0,0,0,0,0,0,0],"sum_hessian":[6.58E2,3.14E2,3.44E2,2.71E2,4.3E1,2.04E2,1.4E2,1.72E2,9.9E1,1.8E1,2.5E1,1.06E2,9.8E1,9E1,5E1,7.2E1,1E2,6.7E1,3.2E1,3.4E1,6.6E1],"tree_param":{"num_deleted":"0","num_feature":"60","num_nodes":"21","size_leaf_vector":"0"}},{"base_weights":[8.322914E2,2.8142725E2,1.498669E3,1.4470975E2,7.3217426E2,1.2598547E3,1.9131893E3,1.0086257E2,2.387319E2,5.2426746E2,8.019708E2,1.0840925E3,1.4208168E3,1.7546084E3,2.189281E3,7.6873955E1,1.23564064E2,1.9988281E2,3.0371625E2,6.188738E1,8.78652E1,1.118342E2,1.4721222E2],"categories":[],"categories_nodes":[],"categories_segments":[],"categories_sizes":[],"default_left":[1,1,1,1,1,1,1,1,1,0,0,0,0,0,0,1,1,0,0,0,0,0,0],"id":2,"left_children":[1,3,5,7,9,11,13,15,17,-1,-1,-1,-1,-1,-1,19,21,-1,-1,-1,-1,-1,-1],"loss_changes":[2.4148624E8,2.22023E7,2.7089664E7,1.1261285E6,7.98488E5,3.891584E6,8.43456E5,9.506E4,1.614555E5,0E0,0E0,0E0,0E0,0E0,0E0,1.03755E4,1.0443375E4,0E0,0E0,0E0,0E0,0E0,0E0],"parents":[2147483647,0,0,1,1,2,2,3,3,4,4,5,5,6,6,7,7,8,8,15,15,16,16],"right_children":[2,4,6,8,10,12,14,16,18,-1,-1,-1,-1,-1,-1,20,22,-1,-1,-1,-1,-1,-1],"split_conditions":[1.86805E3,4.96135E2,3.228255E3,3.62425E2,1.294275E3,2.572385E3,4.08049E3,2.068E2,5.2867505E2,1.5728024E2,2.4059126E2,3.2522778E2,4.2624506E2,5.2638257E2,6.567843E2,1.4695999E2,2.5334E2,5.9964848E1,9.1114876E1,1.8566214E1,2.635956E1,3.3550262E1,4.4163666E1],"split_indices":[59,15,59,59,59,59,57,59,59,0,0,0,0,0,0,59,59,0,0,0,0,0,0],"split_type":[0,0,0,0,0,0,0,0,0,0,0,0,0,0,0,0,0,0,0,0,0,0,0],"sum_hessian":[6.58E2,3.61E2,2.97E2,2.78E2,8.3E1,1.91E2,1.06E2,1.91E2,8.7E1,2.3E1,6E1,9.5E1,9.6E1,7.2E1,3.4E1,9.5E1,9.6E1,5.7E1,3E1,4.3E1,5.2E1,6.8E1,2.8E1],"tree_param":{"num_deleted":"0","num_feature":"60","num_nodes":"23","size_leaf_vector":"0"}},{"base_weights":[5.865588E2,2.1600204E2,1.0811825E3,1.02233734E2,5.312556E2,9.293851E2,1.3946903E3,7.7291176E1,1.8652423E2,3.5677988E2,5.704148E2,8.0972797E2,1.0348198E3,1.2836501E3,1.6465654E3,6.197266E1,1.0665959E2,1.6169875E2,2.3181409E2,8.139866E2,2.0470929E2,4.5111134E1,7.091554E1,8.533097E1,1.15364815E2],"categories":[],"categories_nodes":[],"categories_segments":[],"categories_sizes":[],"default_left":[1,1,1,1,1,1,1,1,1,0,0,1,0,0,0,1,1,0,0,0,0,0,0,0,0],"id":3,"left_children":[1,3,5,7,9,11,13,15,17,-1,-1,19,-1,-1,-1,21,23,-1,-1,-1,-1,-1,-1,-1,-1],"loss_changes":[1.20552E8,1.3502986E7,1.2124096E7,5.7215875E5,4.79722E5,1.59696E6,4.0352E5,9.1014125E4,3.334925E4,0E0,0E0,7.814E4,0E0,0E0,0E0,1.8665562E4,3.70975E3,0E0,0E0,0E0,0E0,0E0,0E0,0E0,0E0],"parents":[2147483647,0,0,1,1,2,2,3,3,4,4,5,5,6,6,7,7,8,8,11,11,15,15,16,16],"right_children":[2,4,6,8,10,12,14,16,18,-1,-1,20,-1,-1,-1,22,24,-1,-1,-1,-1,-1,-1,-1,-1],"split_conditions":[1.95704E3,4.8028E2,3.38605E3,3.8783002E2,1.238275E3,2.66564E3,4.23702E3,2.3915E2,3.9958002E2,1.07033966E2,1.7112445E2,4.151725E3,3.1044595E2,3.8509506E2,4.9396964E2,1.5947E2,2.6563E2,4.8509624E1,6.954423E1,2.4419598E2,6.141279E1,1.353334E1,2.1274664E1,2.5599293E1,3.4609447E1],"split_indices":[59,14,59,59,59,59,58,59,21,0,0,19,0,0,0,59,59,0,0,0,0,0,0,0,0],"split_type":[0,0,0,0,0,0,0,0,0,0,0,0,0,0,0,0,0,0,0,0,0,0,0,0,0],"sum_hessian":[6.58E2,3.77E2,2.81E2,2.78E2,9.9E1,1.92E2,8.9E1,2.16E2,6.2E1,2E1,7.9E1,9.4E1,9.8E1,6.6E1,2.3E1,1.44E2,7.2E1,4.3E1,1.9E1,9.3E1,1E0,5.2E1,9.2E1,2.4E1,4.8E1],"tree_param":{"num_deleted":"0","num_feature":"60","num_nodes":"25","size_leaf_vector":"0"}},{"base_weights":[4.1360532E2,1.5562791E2,7.666045E2,7.1629295E1,3.7654208E2,6.655007E2,1.00851764E3,5.351821E1,1.278669E2,2.7126144E2,4.150375E2,5.242424E2,7.1318866E2,9.1704456E2,1.1837446E3,3.8502914E1,6.789301E1,1.0312907E2,1.5170111E2,2.8502753E2,1.07083435E2,7.158474E2,1.638357E2,2.5831572E1,4.2506645E1,5.8082386E1,7.874185E1,7.1825256E2,1.8475275E2,6.566555E0,2.6301886E1,5.8642235E1,1.2525612E1,8.0096245E1,3.1727213E1,7.205593E2,1.9419269E2],"categories":[],"categories_nodes":[],"categories_segments":[],"categories_sizes":[],"default_left":[1,1,1,1,1,1,1,1,1,1,0,0,1,0,0,1,1,0,0,0,0,1,0,1,0,1,1,1,0,0,0,0,0,0,0,0,0],"id":4,"left_children":[1,3,5,7,9,11,13,15,17,19,-1,-1,21,-1,-1,23,25,-1,-1,-1,-1,27,-1,29,-1,31,33,35,-1,-1,-1,-1,-1,-1,-1,-1,-1],"loss_changes":[5.989307E7,7.061605E6,6.128256E6,2.763065E5,3.12963E5,9.66648E5,1.96736E5,4.3144438E4,2.385875E4,3.954125E4,0E0,0E0,9.5968E4,0E0,0E0,4.2796562E3,6.8149062E3,0E0,0E0,0E0,0E0,5.2512E4,0E0,8.0984375E1,0E0,7.957656E2,5.1521875E2,3.4152E4,0E0,0E0,0E0,0E0,0E0,0E0,0E0,0E0,0E0],"parents":[2147483647,0,0,1,1,2,2,3,3,4,4,5,5,6,6,7,7,8,8,9,9,12,12,15,15,16,16,21,21,23,23,25,25,26,26,27,27],"right_children":[2,4,6,8,10,12,14,16,18,20,-1,-1,22,-1,-1,24,26,-1,-1,-1,-1,28,-1,30,-1,32,34,36,-1,-1,-1,-1,-1,-1,-1,-1,-1],"split_conditions":[1.974195E3,4.96135E2,3.4328052E3,3.856E2,1.439715E3,2.43179E3,4.244865E3,2.16285E2,4.5119E2,1.97724E3,1.2451125E2,1.5727272E2,4.606605E3,2.7511337E2,3.551234E2,1.35025E2,2.5865002E2,3.093872E1,4.5510334E1,8.550826E1,3.212503E1,4.14243E3,4.915071E1,1.6470499E2,1.2751994E1,2.56985E2,4.3595E2,4.059665E3,5.5425827E1,1.9699665E0,7.890566E0,1.759267E1,3.7576838E0,2.4028875E1,9.518165E0,2.161678E2,5.825781E1],"split_indices":[59,16,59,58,59,59,59,59,49,35,0,0,8,0,0,59,59,0,0,0,0,43,0,7,0,35,38,50,0,0,0,0,0,0,0,0,0],"split_type":[0,0,0,0,0,0,0,0,0,0,0,0,0,0,0,0,0,0,0,0,0,0,0,0,0,0,0,0,0,0,0,0,0,0,0,0,0],"sum_hessian":[6.58E2,3.81E2,2.77E2,2.77E2,1.04E2,1.98E2,7.9E1,2.11E2,6.6E1,3E1,7.4E1,5.3E1,1.45E2,5.6E1,2.3E1,1.05E2,1.06E2,3.5E1,3.1E1,2.7E1,3E0,1.44E2,1E0,2.7E1,7.8E1,5.9E1,4.7E1,1.43E2,1E0,1E0,2.6E1,5.8E1,1E0,4.5E1,2E0,1.42E2,1E0],"tree_param":{"num_deleted":"0","num_feature":"60","num_nodes":"37","size_leaf_vector":"0"}},{"base_weights":[2.9189493E2,1.1386998E2,5.47961E2,4.9801537E1,2.6664407E2,4.473911E2,6.7371716E2,3.526063E1,8.261812E1,1.8843703E2,2.9202963E2,4.0018906E2,4.876471E2,6.0914764E2,8.0943506E2,2.5199163E1,4.311191E1,6.3811115E1,9.990581E1,1.9349614E2,7.671993E1,4.0570465E2,1.3074101E2,4.90363E2,1.3926038E2,8.2872473E2,3.2743668E2,1.9258709E1,2.84728E1,3.7676373E1,4.7749084E1,6.5326935E1,2.1824472E1,4.1029202E2,1.6037329E2,9.157061E0,1.9940899E1,3.823527E1,1.5429993E1],"categories":[],"categories_nodes":[],"categories_segments":[],"categories_sizes":[],"default_left":[1,1,1,1,1,1,1,1,1,1,0,1,1,0,1,1,1,1,0,0,0,1,0,0,0,0,0,1,0,1,0,0,0,0,0,0,0,0,0],"id":5,"left_children":[1,3,5,7,9,11,13,15,17,19,-1,21,23,-1,25,27,29,31,-1,-1,-1,33,-1,-1,-1,-1,-1,35,-1,37,-1,-1,-1,-1,-1,-1,-1,-1,-1],"loss_changes":[2.9978876E7,3.80404E6,3.113352E6,1.2878925E5,1.73284E5,9.5574E4,5.40996E5,1.4159719E4,2.093575E4,2.675875E3,0E0,5.9907E4,5.514E3,0E0,5.4062E4,1.1435273E3,8.979844E2,1.3109844E3,0E0,0E0,0E0,1.7482E4,0E0,0E0,0E0,0E0,0E0,5.170215E1,0E0,8.144531E1,0E0,0E0,0E0,0E0,0E0,0E0,0E0,0E0,0E0],"parents":[2147483647,0,0,1,1,2,2,3,3,4,4,5,5,6,6,7,7,8,8,9,9,11,11,12,12,14,14,15,15,16,16,17,17,21,21,27,27,29,29],"right_children":[2,4,6,8,10,12,14,16,18,20,-1,22,24,-1,26,28,30,32,-1,-1,-1,34,-1,-1,-1,-1,-1,36,-1,38,-1,-1,-1,-1,-1,-1,-1,-1,-1],"split_conditions":[2.061675E3,5.2867505E2,3.1645151E3,3.65065E2,1.3993401E3,2.613955E3,4.058275E3,2.00015E2,4.16315E2,2.840675E3,8.7608894E1,4.060685E3,4.2522695E3,1.827443E2,4.3070947E3,1.3985E2,2.3739E2,4.2674E2,2.9971743E1,5.8048843E1,2.301598E1,3.9280698E3,3.9222305E1,1.471089E2,4.1778114E1,2.4861743E2,9.823101E1,1.6878E2,8.541841E0,2.6679498E2,1.4324726E1,1.9598082E1,6.547342E0,1.2308761E2,4.8111988E1,2.7471182E0,5.98227E0,1.1470582E1,4.628998E0],"split_indices":[56,22,59,59,59,59,59,58,59,15,0,22,6,0,22,59,59,38,0,0,0,48,0,0,0,0,0,8,0,37,0,0,0,0,0,0,0,0,0],"split_type":[0,0,0,0,0,0,0,0,0,0,0,0,0,0,0,0,0,0,0,0,0,0,0,0,0,0,0,0,0,0,0,0,0,0,0,0,0,0,0],"sum_hessian":[6.58E2,3.89E2,2.69E2,2.75E2,1.14E2,1.52E2,1.17E2,1.92E2,8.3E1,3E1,8.4E1,7.5E1,7.7E1,8.3E1,3.4E1,8.6E1,1.06E2,4.2E1,4.1E1,2.8E1,2E0,7.3E1,2E0,7.6E1,1E0,3.2E1,2E0,3.3E1,5.3E1,5.3E1,5.3E1,4E1,2E0,7.1E1,2E0,3E0,3E1,5.1E1,2E0],"tree_param":{"num_deleted":"0","num_feature":"60","num_nodes":"39","size_leaf_vector":"0"}},{"base_weights":[2.0614949E2,7.942447E1,3.8729294E2,3.4491016E1,1.848757E2,3.2710242E2,4.9715067E2,2.4525381E1,5.5991184E1,1.3807156E2,2.0590756E2,2.8461267E2,3.6459686E2,4.5169363E2,6.336587E2,1.5631792E1,2.8641607E1,4.516957E1,6.73068E1,1.413316E2,7.0950317E0,4.23183E1,2.0748251E2,2.9829007E2,2.0442123E2,4.273549E2,3.3434982E2,4.5532483E2,9.330859E1,1.7443445E2,6.478982E2,1.601332E1,6.0962906E0,2.4170164E1,3.2231556E1,4.568176E1,1.0804504E1,1.5201947E2,1.0127779E2,2.0966289E2,8.3812256E1,1.7425385E2,3.088052E2,9.812095E1,2.3167792E2,1.5500986E2,3.4341998E2,4.6339145E2,2.0032733E2,1.6149925E1,4.0451393E0,1.33641205E1,4.6102947E1,1.0358921E2,1.6621213E2,1.7058041E2,2.2366898E2,3.470942E2,2.512886E2,1.1915936E2,6.9836426E0,1.5297455E2,3.5051086E2,4.6655823E2,1.2244202E2],"categories":[],"categories_nodes":[],"categories_segments":[],"categories_sizes":[],"default_left":[1,1,1,1,1,1,1,1,1,1,1,1,1,1,1,1,1,1,0,1,0,0,1,1,1,0,1,1,0,0,0,1,0,0,0,1,0,1,0,1,0,0,1,1,0,0,1,1,0,0,0,0,0,0,0,0,0,0,0,0,0,0,0,0,0],"id":6,"left_children":[1,3,5,7,9,11,13,15,17,19,21,23,25,27,29,31,33,35,-1,37,-1,-1,39,41,43,-1,45,47,-1,-1,-1,49,-1,-1,-1,51,-1,53,-1,55,-1,-1,57,59,-1,-1,61,63,-1,-1,-1,-1,-1,-1,-1,-1,-1,-1,-1,-1,-1,-1,-1,-1,-1],"loss_changes":[1.5096852E7,1.8368175E6,1.62934E6,5.7334812E4,8.5758E4,1.79806E5,2.97074E5,6.471203E3,7.49075E3,1.56498125E4,1.1316E4,3.55425E4,2.9855E4,5.3815E4,2.4306E4,1.2793848E2,1.2756484E3,3.336953E2,0E0,8.711875E2,0E0,0E0,3.1905E3,4.14E4,2.3625875E4,0E0,5.4125E4,5.7329E4,0E0,0E0,0E0,3.113086E1,0E0,0E0,0E0,1.00234375E1,0E0,2.0280625E3,0E0,2.901E3,0E0,0E0,5.8128E4,8.754758E3,0E0,0E0,3.01075E4,1.8453E4,0E0,0E0,0E0,0E0,0E0,0E0,0E0,0E0,0E0,0E0,0E0,0E0,0E0,0E0,0E0,0E0,0E0],"parents":[2147483647,0,0,1,1,2,2,3,3,4,4,5,5,6,6,7,7,8,8,9,9,10,10,11,11,12,12,13,13,14,14,15,15,16,16,17,17,19,19,22,22,23,23,24,24,26,26,27,27,31,31,35,35,37,37,39,39,42,42,43,43,46,46,47,47],"right_children":[2,4,6,8,10,12,14,16,18,20,22,24,26,28,30,32,34,36,-1,38,-1,-1,40,42,44,-1,46,48,-1,-1,-1,50,-1,-1,-1,52,-1,54,-1,56,-1,-1,58,60,-1,-1,62,64,-1,-1,-1,-1,-1,-1,-1,-1,-1,-1,-1,-1,-1,-1,-1,-1,-1],"split_conditions":[2.021605E3,4.8028E2,3.3590698E3,3.5377002E2,1.53606E3,2.694155E3,4.29128E3,1.69685E2,4.16315E2,3.088905E3,5.5170996E2,2.608555E3,2.322595E3,4.7701553E3,2.8081748E3,2.6808502E2,2.28435E2,4.54595E2,2.0192041E1,1.798405E3,2.1285095E0,1.269549E1,3.504615E3,1.77109E3,2.5355E3,1.2820647E2,2.55358E3,4.64712E3,2.7992579E1,5.2330338E1,1.9436946E2,2.8388E2,1.8288872E0,7.2510495E0,9.669467E0,2.22935E2,3.2413514E0,4.5840002E2,3.0383337E1,1.594755E3,2.5143679E1,5.2276157E1,2.70563E3,2.3721948E3,6.950338E1,4.650296E1,2.4606099E3,4.7701553E3,6.00982E1,4.844978E0,1.2135419E0,4.0092363E0,1.3830885E1,3.1076765E1,4.986364E1,5.1174126E1,6.710069E1,1.04128265E2,7.538658E1,3.574781E1,2.0950928E0,4.5892365E1,1.0515327E2,1.3996747E2,3.6732605E1],"split_indices":[59,19,58,59,59,59,59,59,59,5,3,58,25,10,4,27,58,40,0,34,0,0,7,34,59,0,35,3,0,0,0,16,0,0,0,19,0,4,0,37,0,0,18,0,0,0,19,50,0,0,0,0,0,0,0,0,0,0,0,0,0,0,0,0,0],"split_type":[0,0,0,0,0,0,0,0,0,0,0,0,0,0,0,0,0,0,0,0,0,0,0,0,0,0,0,0,0,0,0,0,0,0,0,0,0,0,0,0,0,0,0,0,0,0,0,0,0,0,0,0,0,0,0,0,0,0,0,0,0,0,0,0,0],"sum_hessian":[6.58E2,3.88E2,2.7E2,2.73E2,1.15E2,1.77E2,9.3E1,1.88E2,8.5E1,3.8E1,7.7E1,8.7E1,9E1,7.3E1,2E1,6.1E1,1.27E2,4.6E1,3.9E1,3.7E1,1E0,1E0,7.6E1,7.2E1,1.5E1,2.5E1,6.5E1,7.2E1,1E0,1E0,1.9E1,5.8E1,3E0,6E1,6.7E1,4.5E1,1E0,2.7E1,1E1,7.4E1,2E0,7E0,6.5E1,4E0,1.1E1,4E0,6.1E1,6.9E1,3E0,5.7E1,1E0,1E0,4.4E1,8E0,1.9E1,2.3E1,5.1E1,3.6E1,2.9E1,3E0,1E0,3E0,5.8E1,6.8E1,1E0],"tree_param":{"num_deleted":"0","num_feature":"60","num_nodes":"65","size_leaf_vector":"0"}},{"base_weights":[1.4659906E2,4.3661377E1,2.5956033E2,2.3284399E1,1.1337607E2,2.1769902E2,3.5235272E2,1.600808E1,3.54213E1,8.427732E1,1.2551176E2,1.6906837E2,2.4670573E2,3.2650833E2,5.22377E2,1.1069473E1,1.8670332E1,2.9725842E1,4.121137E1,8.864218E1,3.811003E1,1.2954329E2,1.5138509E1,1.7162651E2,4.1937256E1,3.1924072E2,2.2201509E2,2.3284506E2,3.4787735E2,1.2842078E1,8.750626E0,1.8809504E1,1.81987E0,3.0258125E1,1.0590973E1,2.3870995E1,4.364916E1,9.16584E1,3.7981262E1,1.4399046E2,8.10764E1,-3.249872E1,5.5206482E1,2.5028015E1,1.7310909E2,9.927966E1,3.3857187E2,1.1590036E2,2.296507E2,2.8158615E2,-2.0330566E1,3.8435883E2,2.5978928E2,1.33601E1,3.208496E0,1.4868647E0,9.216364E0,1.043337E1,1.919993E1,4.7949112E1,2.7953901E1,1.22973854E2,1.980469E2,2.1133566E1,1.120298E2,1.9570294E2,1.5018295E2,7.833716E1,3.4506824E2,7.260748E1,2.3393588E2,3.024658E2,9.0285805E1,7.098694E1,-7.4432045E1,3.8827454E2,1.0407568E2],"categories":[],"categories_nodes":[],"categories_segments":[],"categories_sizes":[],"default_left":[1,1,1,1,1,1,1,1,1,1,1,1,1,1,0,1,1,1,1,1,0,1,1,1,0,1,1,1,1,1,1,1,0,0,0,0,1,0,0,1,1,0,0,0,1,0,1,0,1,1,1,1,0,0,0,0,0,0,0,0,0,0,0,0,0,0,0,0,0,0,0,0,0,0,0,0,0],"id":7,"left_children":[1,3,5,7,9,11,13,15,17,19,21,23,25,27,-1,29,31,33,35,37,-1,39,41,43,-1,45,47,49,51,53,55,57,-1,-1,-1,-1,59,-1,-1,61,63,-1,-1,-1,65,-1,67,-1,69,71,73,75,-1,-1,-1,-1,-1,-1,-1,-1,-1,-1,-1,-1,-1,-1,-1,-1,-1,-1,-1,-1,-1,-1,-1,-1,-1],"loss_changes":[7.651502E6,4.8887894E5,1.142998E6,2.3188875E4,1.6966562E4,2.67215E5,2.51281E5,2.0284609E3,2.0726719E3,1.8612188E3,2.1622438E4,2.0446E4,1.709E5,9.1127E4,0E0,1.4246875E2,2.2138672E2,2.2953906E2,9.4484375E2,3.3203125E1,0E0,2.40365E4,7.5203213E3,1.370675E4,0E0,1.02454E5,5.76495E4,2.4018588E5,1.186715E5,1.2181738E2,8.7786865E1,1.528711E2,0E0,0E0,0E0,0E0,1.3591875E3,0E0,0E0,1.8816562E4,2.36085E4,0E0,0E0,0E0,1.308375E4,0E0,2.1995E4,0E0,4.76185E4,3.660025E4,2.5045352E4,1.00755E4,0E0,0E0,0E0,0E0,0E0,0E0,0E0,0E0,0E0,0E0,0E0,0E0,0E0,0E0,0E0,0E0,0E0,0E0,0E0,0E0,0E0,0E0,0E0,0E0,0E0],"parents":[2147483647,0,0,1,1,2,2,3,3,4,4,5,5,6,6,7,7,8,8,9,9,10,10,11,11,12,12,13,13,15,15,16,16,17,17,18,18,19,19,21,21,22,22,23,23,25,25,26,26,27,27,28,28,29,29,30,30,31,31,36,36,39,39,40,40,44,44,46,46,48,48,49,49,50,50,51,51],"right_children":[2,4,6,8,10,12,14,16,18,20,22,24,26,28,-1,30,32,34,36,38,-1,40,42,44,-1,46,48,50,52,54,56,58,-1,-1,-1,-1,60,-1,-1,62,64,-1,-1,-1,66,-1,68,-1,70,72,74,76,-1,-1,-1,-1,-1,-1,-1,-1,-1,-1,-1,-1,-1,-1,-1,-1,-1,-1,-1,-1,-1,-1,-1,-1,-1],"split_conditions":[1.80485E3,5.40975E2,3.33077E3,2.6679498E2,1.20936E3,2.39043E3,4.576835E3,1.69685E2,3.86485E2,1.13629E3,1.948815E3,3.934915E3,2.319045E3,2.13235E3,1.567131E2,1.44095E2,2.8388E2,4.35215E2,2.3886E2,2.936835E3,1.143301E1,1.899245E3,1.97987E3,1.24874E3,1.2581178E1,1.813245E3,2.44906E3,3.2450151E3,4.08415E3,2.7140002E2,1.47275E2,1.5526999E2,5.45961E-1,9.077438E0,3.177292E0,7.1612988E0,4.07485E2,2.7497522E1,1.1394379E1,1.69777E3,3.0341099E3,-9.749616E0,1.6561945E1,7.5084047E0,2.18934E3,2.97839E1,1.78478E3,3.477011E1,2.1001802E3,3.93853E3,1.9581001E3,4.7701553E3,7.793678E1,4.00803E0,9.6254885E-1,4.4605944E-1,2.7649093E0,3.130011E0,5.7599792E0,1.4384734E1,8.38617E0,3.689216E1,5.9414074E1,6.3400702E0,3.360894E1,5.8710884E1,4.5054886E1,2.3501148E1,1.0352048E2,2.1782246E1,7.018077E1,9.073974E1,2.7085743E1,2.1296082E1,-2.2329615E1,1.1648237E2,3.1222706E1],"split_indices":[59,35,58,59,58,55,59,59,50,58,56,2,23,1,0,42,48,38,5,2,0,30,0,34,0,32,40,36,15,8,38,48,0,0,0,0,25,0,0,36,0,0,0,0,26,0,13,0,10,55,0,50,0,0,0,0,0,0,0,0,0,0,0,0,0,0,0,0,0,0,0,0,0,0,0,0,0],"split_type":[0,0,0,0,0,0,0,0,0,0,0,0,0,0,0,0,0,0,0,0,0,0,0,0,0,0,0,0,0,0,0,0,0,0,0,0,0,0,0,0,0,0,0,0,0,0,0,0,0,0,0,0,0,0,0,0,0,0,0,0,0,0,0,0,0,0,0,0,0,0,0,0,0,0,0,0,0],"sum_hessian":[6.58E2,3.45E2,3.13E2,2.68E2,7.7E1,2.18E2,9.5E1,1.69E2,9.9E1,2.5E1,5.2E1,8.4E1,1.34E2,8.5E1,1E1,6.1E1,1.08E2,5.3E1,4.6E1,2.2E1,3E0,5E1,2E0,8.2E1,2E0,3.1E1,1.03E2,1.8E1,6.7E1,3.2E1,2.9E1,1.07E2,1E0,5.1E1,2E0,7E0,3.9E1,2E1,2E0,3.7E1,1.3E1,1E0,1E0,1E0,8.1E1,3E0,2.8E1,8E0,9.5E1,1.5E1,3E0,4.5E1,2.2E1,3E1,2E0,2E0,2.7E1,6E0,1.01E2,2.9E1,1E1,2.9E1,8E0,5E0,8E0,3.7E1,4.4E1,1E0,2.7E1,3E0,9.2E1,1.3E1,2E0,1E0,2E0,4.4E1,1E0],"tree_param":{"num_deleted":"0","num_feature":"60","num_nodes":"77","size_leaf_vector":"0"}},{"base_weights":[1.04379196E2,4.0152504E1,1.967645E2,1.788904E1,9.525388E1,1.7236623E2,2.775329E2,1.3666224E1,3.409604E1,7.636578E1,1.05085526E2,1.4708395E2,1.89053E2,1.158042E2,2.8990503E2,9.603533E0,1.7980885E1,2.8256618E1,4.729351E1,7.8831696E1,-1.2368347E1,1.4751521E2,9.5711555E1,1.3949928E2,3.154832E2,1.9364014E1,1.9028517E2,1.7072481E2,-7.9399414E1,3.271333E2,1.9313792E2,5.691096E0,1.0604835E1,1.439438E1,2.1234411E1,2.9413906E1,3.4072368E0,4.8611713E1,1.3760223E1,9.0499504E1,5.2574203E1,7.8668335E1,1.2044955E2,1.4646248E2,7.870814E1,1.9792343E2,1.3846068E2,3.3108606E2,8.8464355E1,6.574805E1,2.0495241E2,8.961868E-2,5.91157E0,1.1181303E1,7.167782E0,1.5115986E1,4.2994413E0,2.7118345E1,1.8497074E1,1.19647875E1,3.1564787E1,6.4125214E0,-1.3016663E0,7.30563E1,1.1284733E2,2.2896778E1,6.128447E1,8.43507E1,2.315813E1,1.2824345E2,2.574235E1,1.5133902E2,6.434647E1,-2.9154175E1,9.240979E1,7.4825134E1,2.0083897E2,2.5566845E1,1.6686125E2,3.3516797E2,9.0028076E1,8.043156E1,2.1699599E2],"categories":[],"categories_nodes":[],"categories_segments":[],"categories_sizes":[],"default_left":[1,1,1,1,1,1,1,1,1,1,1,1,1,1,1,1,1,1,1,1,0,0,1,1,0,0,1,0,0,1,1,1,1,1,1,1,1,0,0,1,1,1,1,1,1,1,1,1,0,0,1,0,0,0,0,0,0,0,0,0,0,0,0,0,0,0,0,0,0,0,0,0,0,0,0,0,0,0,0,0,0,0,0],"id":8,"left_children":[1,3,5,7,9,11,13,15,17,19,21,23,25,27,29,31,33,35,37,39,-1,-1,41,43,-1,-1,45,-1,-1,47,49,51,53,55,57,59,61,-1,-1,63,65,67,69,71,73,75,77,79,-1,-1,81,-1,-1,-1,-1,-1,-1,-1,-1,-1,-1,-1,-1,-1,-1,-1,-1,-1,-1,-1,-1,-1,-1,-1,-1,-1,-1,-1,-1,-1,-1,-1,-1],"loss_changes":[3.902343E6,4.7672762E5,4.84227E5,1.8628562E4,1.2773625E4,6.0788E4,8.84845E4,3.7363164E3,3.0563828E3,1.0165078E4,1.412025E4,6.83885E4,2.2033E4,7.787966E4,1.385565E5,3.9799707E2,9.4290625E2,1.1076133E3,3.8351562E1,7.8030938E3,0E0,0E0,1.62429375E4,2.4876125E4,0E0,0E0,2.0889E4,0E0,0E0,7.50325E3,1.3615625E4,3.1579773E1,1.0213867E2,3.2837598E2,3.681289E2,1.1235742E3,5.0801746E1,0E0,0E0,2.280875E3,2.4742578E3,1.0348328E4,1.3675906E4,2.06955E4,1.8950938E4,2.229775E4,5.6652594E4,7.2165E3,0E0,0E0,6.5415E3,0E0,0E0,0E0,0E0,0E0,0E0,0E0,0E0,0E0,0E0,0E0,0E0,0E0,0E0,0E0,0E0,0E0,0E0,0E0,0E0,0E0,0E0,0E0,0E0,0E0,0E0,0E0,0E0,0E0,0E0,0E0,0E0],"parents":[2147483647,0,0,1,1,2,2,3,3,4,4,5,5,6,6,7,7,8,8,9,9,10,10,11,11,12,12,13,13,14,14,15,15,16,16,17,17,18,18,19,19,22,22,23,23,26,26,29,29,30,30,31,31,32,32,33,33,34,34,35,35,36,36,39,39,40,40,41,41,42,42,43,43,44,44,45,45,46,46,47,47,50,50],"right_children":[2,4,6,8,10,12,14,16,18,20,22,24,26,28,30,32,34,36,38,40,-1,-1,42,44,-1,-1,46,-1,-1,48,50,52,54,56,58,60,62,-1,-1,64,66,68,70,72,74,76,78,80,-1,-1,82,-1,-1,-1,-1,-1,-1,-1,-1,-1,-1,-1,-1,-1,-1,-1,-1,-1,-1,-1,-1,-1,-1,-1,-1,-1,-1,-1,-1,-1,-1,-1,-1],"split_conditions":[2.02762E3,6.2615E2,3.7135898E3,3.9026E2,1.6637E3,2.694155E3,3.22517E3,2.25265E2,4.0297E2,1.944265E3,1.672215E3,3.884545E3,1.58379E3,1.9435701E3,4.234035E3,1.34205E2,2.1513501E2,6.03255E2,6.1171497E2,1.265125E3,-3.7105043E0,4.4254566E1,2.087855E3,2.930795E3,9.464496E1,5.809204E0,3.69275E3,5.1217445E1,-2.3819824E1,4.7701553E3,4.0863599E3,1.41675E2,2.2086E2,2.652E2,2.3836E2,2.4038E2,3.5572498E2,1.4583514E1,4.128067E0,6.00885E2,1.7511951E3,3.06767E3,3.04806E3,3.917105E3,2.747575E3,2.604305E3,3.501895E3,4.76349E3,2.6539309E1,1.9724415E1,3.7678901E3,2.6885606E-2,1.7734711E0,3.354391E0,2.1503346E0,4.5347958E0,1.2898325E0,8.135504E0,5.5491223E0,3.5894363E0,9.469437E0,1.9237565E0,-3.904999E-1,2.191689E1,3.38542E1,6.869034E0,1.8385342E1,2.5305212E1,6.9474397E0,3.8473038E1,7.7227054E0,4.5401707E1,1.9303944E1,-8.746253E0,2.7722939E1,2.244754E1,6.0251694E1,7.670054E0,5.0058376E1,1.0055039E2,2.7008425E1,2.4129469E1,6.50988E1],"split_indices":[58,42,59,59,58,59,51,59,19,54,53,50,6,12,25,59,6,57,40,10,0,0,40,55,0,0,42,0,0,50,20,37,21,47,22,21,0,0,0,4,43,8,30,28,51,57,39,52,0,0,8,0,0,0,0,0,0,0,0,0,0,0,0,0,0,0,0,0,0,0,0,0,0,0,0,0,0,0,0,0,0,0,0],"split_type":[0,0,0,0,0,0,0,0,0,0,0,0,0,0,0,0,0,0,0,0,0,0,0,0,0,0,0,0,0,0,0,0,0,0,0,0,0,0,0,0,0,0,0,0,0,0,0,0,0,0,0,0,0,0,0,0,0,0,0,0,0,0,0,0,0,0,0,0,0,0,0,0,0,0,0,0,0,0,0,0,0,0,0],"sum_hessian":[6.58E2,3.89E2,2.69E2,2.78E2,1.11E2,2.09E2,6E1,2.22E2,5.6E1,4.1E1,7E1,8.7E1,1.22E2,5E0,5.5E1,1.16E2,1.06E2,4.1E1,1.5E1,4E1,1E0,1E1,6E1,8.5E1,2E0,1E0,1.21E2,4E0,1E0,3.8E1,1.7E1,2.5E1,9.1E1,5.3E1,5.3E1,3.9E1,2E0,1.4E1,1E0,2.6E1,1.4E1,3.8E1,2.2E1,7.5E1,1E1,1.03E2,1.8E1,3.7E1,1E0,2E0,1.5E1,1E0,2.4E1,7.6E1,1.5E1,4.9E1,4E0,1.4E1,3.9E1,5E0,3.4E1,1E0,1E0,1.7E1,9E0,4E0,1E1,3.4E1,4E0,2E1,2E0,7E1,5E0,1E0,9E0,3E0,1E2,4E0,1.4E1,3.6E1,1E0,2E0,1.3E1],"tree_param":{"num_deleted":"0","num_feature":"60","num_nodes":"83","size_leaf_vector":"0"}},{"base_weights":[7.439345E1,2.6862991E1,1.3823561E2,1.1806239E1,6.3576267E1,1.1577952E2,1.8780722E2,7.968438E0,1.8149012E1,6.50023E1,-8.95284E0,2.5584903E2,1.11528854E2,1.7076192E2,2.8850137E2,5.409516E0,9.350867E0,1.4766739E1,2.1575964E1,4.9159107E1,7.290061E1,1.1355804E2,-5.4162434E1,3.9857277E1,1.7748083E2,-1.2370453E0,5.651685E0,1.0139168E1,4.488352E0,1.7397839E1,1.04640465E1,9.284241E0,2.2789322E1,5.06017E1,1.4980754E1,9.057021E1,5.5637516E1,9.993607E1,1.5523022E2,-1.375415E1,-6.74895E1,8.552246E0,4.554547E1,9.277933E1,1.8517516E2,5.5983734E-1,-2.4154053E0,3.9219797E0,6.4825015E0,1.0792066E1,5.2911706E0,1.2000364E0,5.75848E0,1.7789999E1,2.6204224E0,7.9553437E0,1.5061746E1,2.1414642E0,1.0284503E1,2.4369806E1,1.1179713E1,3.0127014E1,5.35927E1,6.56604E0,9.299016E1,-4.027649E1,5.931834E1,1.04138466E2,2.4395481E1,9.357954E1,1.7481291E2,1.3240459E2,2.0052917E1,2.0942534E2,1.3799786E2],"categories":[],"categories_nodes":[],"categories_segments":[],"categories_sizes":[],"default_left":[1,1,1,1,1,1,1,1,1,1,0,0,1,1,0,1,1,1,1,1,1,1,1,1,1,1,1,1,1,1,1,1,1,1,0,1,1,1,1,0,0,0,0,1,1,0,0,0,0,0,0,0,0,0,0,0,0,0,0,0,0,0,0,0,0,0,0,0,0,0,0,0,0,0,0],"id":9,"left_children":[1,3,5,7,9,11,13,15,17,19,-1,-1,21,23,-1,25,27,29,31,33,35,37,39,41,43,45,47,49,51,53,55,57,59,61,-1,63,65,67,69,-1,-1,-1,-1,71,73,-1,-1,-1,-1,-1,-1,-1,-1,-1,-1,-1,-1,-1,-1,-1,-1,-1,-1,-1,-1,-1,-1,-1,-1,-1,-1,-1,-1,-1,-1],"loss_changes":[1.995987E6,2.0875403E5,2.91061E5,6.427797E3,1.1959125E4,8.816125E4,9.8342E4,5.507959E2,8.520742E2,9.930781E3,0E0,0E0,7.07045E4,5.977075E4,0E0,1.06786255E2,3.7230176E2,4.2927148E2,5.043047E2,1.1648516E3,1.6313125E4,9.234175E4,6.873115E2,5.008296E2,2.97435E4,7.704358E0,6.0799805E1,2.3726562E2,6.409152E1,1.3882715E2,1.454668E2,2.0844055E1,5.165508E2,6.5128906E2,0E0,6.0978438E3,1.5804758E4,4.3807375E4,3.7969E4,0E0,0E0,0E0,0E0,2.039932E4,4.54635E4,0E0,0E0,0E0,0E0,0E0,0E0,0E0,0E0,0E0,0E0,0E0,0E0,0E0,0E0,0E0,0E0,0E0,0E0,0E0,0E0,0E0,0E0,0E0,0E0,0E0,0E0,0E0,0E0,0E0,0E0],"parents":[2147483647,0,0,1,1,2,2,3,3,4,4,5,5,6,6,7,7,8,8,9,9,12,12,13,13,15,15,16,16,17,17,18,18,19,19,20,20,21,21,22,22,23,23,24,24,25,25,26,26,27,27,28,28,29,29,30,30,31,31,32,32,33,33,35,35,36,36,37,37,38,38,43,43,44,44],"right_children":[2,4,6,8,10,12,14,16,18,20,-1,-1,22,24,-1,26,28,30,32,34,36,38,40,42,44,46,48,50,52,54,56,58,60,62,-1,64,66,68,70,-1,-1,-1,-1,72,74,-1,-1,-1,-1,-1,-1,-1,-1,-1,-1,-1,-1,-1,-1,-1,-1,-1,-1,-1,-1,-1,-1,-1,-1,-1,-1,-1,-1,-1,-1],"split_conditions":[2.00365E3,5.4839E2,3.40551E3,2.6679498E2,1.980845E3,1.6745249E3,4.576835E3,1.6267499E2,3.86485E2,1.45136E3,-2.685852E0,7.6754715E1,3.60051E3,2.32526E3,8.6550415E1,1.4883E2,2.43435E2,3.6453998E2,3.7078E2,3.0658E3,1.792855E3,3.13365E3,2.085775E3,1.62496E3,3.38605E3,1.4403E2,1.35025E2,2.4736499E2,1.6878E2,4.56755E2,4.10625E2,2.39815E2,5.96845E2,5.7969E2,4.4942265E0,5.5170996E2,7.32665E2,3.31673E3,2.553905E3,-4.1262455E0,-2.0246851E1,2.5656738E0,1.3663642E1,3.2501602E3,4.09063E3,1.6795121E-1,-7.246216E-1,1.1765939E0,1.9447505E0,3.2376199E0,1.5873512E0,3.6001092E-1,1.7275441E0,5.337E0,7.8612673E-1,2.386603E0,4.5185237E0,6.424393E-1,3.085351E0,7.310942E0,3.353914E0,9.038105E0,1.607781E1,1.969812E0,2.7897049E1,-1.2082948E1,1.7795504E1,3.124154E1,7.3186445E0,2.8073862E1,5.2443874E1,3.972138E1,6.0158753E0,6.2827602E1,4.139936E1],"split_indices":[49,35,52,59,49,21,59,50,50,58,0,0,55,32,0,0,35,41,59,2,51,59,0,0,49,0,59,50,8,15,43,1,52,37,0,3,7,51,42,0,0,0,0,46,28,0,0,0,0,0,0,0,0,0,0,0,0,0,0,0,0,0,0,0,0,0,0,0,0,0,0,0,0,0,0],"split_type":[0,0,0,0,0,0,0,0,0,0,0,0,0,0,0,0,0,0,0,0,0,0,0,0,0,0,0,0,0,0,0,0,0,0,0,0,0,0,0,0,0,0,0,0,0,0,0,0,0,0,0,0,0,0,0,0,0,0,0,0,0,0,0,0,0,0,0,0,0,0,0,0,0,0,0],"sum_hessian":[6.58E2,3.78E2,2.8E2,2.69E2,1.09E2,1.95E2,8.5E1,1.69E2,1E2,1.07E2,2E0,4E0,1.91E2,7.5E1,1E1,6.1E1,1.08E2,5.3E1,4.7E1,3.8E1,6.9E1,1.89E2,2E0,4E0,7.1E1,2E0,5.9E1,9.2E1,1.6E1,3.1E1,2.2E1,5E0,4.2E1,3.6E1,2E0,3.2E1,3.7E1,1.45E2,4.4E1,1E0,1E0,1E0,3E0,7E0,6.4E1,1E0,1E0,2.1E1,3.8E1,8E1,1.2E1,5E0,1.1E1,3E1,1E0,1.6E1,6E0,1E0,4E0,3.6E1,6E0,6E0,3E1,1E0,3.1E1,1E0,3.6E1,1.37E2,8E0,1.2E1,3.2E1,4E0,3E0,4E1,2.4E1],"tree_param":{"num_deleted":"0","num_feature":"60","num_nodes":"75","size_leaf_vector":"0"}},{"base_weights":[5.2869965E1,2.1938046E1,1.04711205E2,8.979124E0,4.8361584E1,9.474253E1,1.6618347E2,6.3100576E0,1.5656382E1,4.9582813E1,-2.230721E1,2.1397629E2,9.203316E1,2.048445E2,1.1230336E2,4.394615E0,8.318422E0,1.2775748E1,2.2539124E1,5.5889584E1,3.3364666E1,2.4393913E2,6.2043884E1,2.462505E1,9.491458E1,4.5110107E1,2.115871E2,6.1170208E1,1.2998477E2,8.953356E0,4.02789E0,7.0185933E0,1.0739368E1,1.4966819E1,7.0752125E0,6.0382485E0,2.3887299E1,4.6466084E1,7.911095E1,4.8977947E1,9.359763E0,4.3081997E1,-1.3830872E1,1.5761816E2,8.8300644E1,3.227124E1,1.36529E2,1.2081066E1,3.587307E0,1.271402E0,4.289412E0,1.0767742E1,4.8992977E0,1.4450093E1,7.7904296E0,8.887728E0,1.7789766E1,8.051621E0,-4.7618713E0,2.6595154E1,1.5059117E1,5.4183704E1,2.5878128E1,1.2285765E2,5.2842537E1,1.8578756E1,7.32712E1,-4.0892498E1,1.878623E1,5.1161083E1,1.5256185E1,-1.9037598E1,8.946533E-1,2.2423706E1,1.6425174E2,-1.987972E1,8.9591576E1],"categories":[],"categories_nodes":[],"categories_segments":[],"categories_sizes":[],"default_left":[1,1,1,1,1,1,1,1,1,1,0,1,1,1,1,1,1,1,1,1,1,0,0,1,1,0,0,0,1,1,1,1,1,1,1,0,1,1,1,1,1,1,1,1,1,0,0,0,0,0,0,0,0,0,0,0,0,0,0,0,0,0,0,0,0,0,0,0,0,0,0,0,0,0,0,0,0],"id":10,"left_children":[1,3,5,7,9,11,13,15,17,19,-1,21,23,25,27,29,31,33,35,37,39,-1,-1,41,43,-1,-1,-1,45,47,49,51,53,55,57,-1,59,61,63,65,67,69,71,73,75,-1,-1,-1,-1,-1,-1,-1,-1,-1,-1,-1,-1,-1,-1,-1,-1,-1,-1,-1,-1,-1,-1,-1,-1,-1,-1,-1,-1,-1,-1,-1,-1],"loss_changes":[1.0544416E6,1.4132788E5,1.3500325E5,4.8735586E3,1.284325E4,4.94395E4,4.573625E4,7.366714E2,1.2783516E3,1.18413125E4,0E0,3.074375E3,3.86455E4,9.84175E3,6.5145E3,1.3947632E2,2.2986621E2,6.1854297E2,3.4517578E2,1.7112562E4,1.4533391E4,0E0,0E0,7.693651E3,6.985525E4,0E0,0E0,0E0,2.6280938E3,7.414563E1,6.591394E1,4.7165234E2,2.37594E2,5.4548926E2,2.4638184E2,0E0,7.7609375E1,9.720125E3,2.3385953E4,1.6362594E4,8.821138E3,7.9312695E2,3.2371918E2,1.24596875E4,2.7616875E4,0E0,0E0,0E0,0E0,0E0,0E0,0E0,0E0,0E0,0E0,0E0,0E0,0E0,0E0,0E0,0E0,0E0,0E0,0E0,0E0,0E0,0E0,0E0,0E0,0E0,0E0,0E0,0E0,0E0,0E0,0E0,0E0],"parents":[2147483647,0,0,1,1,2,2,3,3,4,4,5,5,6,6,7,7,8,8,9,9,11,11,12,12,13,13,14,14,15,15,16,16,17,17,18,18,19,19,20,20,23,23,24,24,28,28,29,29,30,30,31,31,32,32,33,33,34,34,36,36,37,37,38,38,39,39,40,40,41,41,42,42,43,43,44,44],"right_children":[2,4,6,8,10,12,14,16,18,20,-1,22,24,26,28,30,32,34,36,38,40,-1,-1,42,44,-1,-1,-1,46,48,50,52,54,56,58,-1,60,62,64,66,68,70,72,74,76,-1,-1,-1,-1,-1,-1,-1,-1,-1,-1,-1,-1,-1,-1,-1,-1,-1,-1,-1,-1,-1,-1,-1,-1,-1,-1,-1,-1,-1,-1,-1,-1],"split_conditions":[2.259575E3,6.2615E2,4.0921E3,3.65305E2,3.934915E3,2.29703E3,4.124385E3,2.1513501E2,5.74695E2,2.947165E3,-6.6921635E0,2.699545E3,1.82478E3,2.843815E3,4.287505E3,1.2243E2,2.30685E2,4.1154498E2,3.78995E2,1.93988E3,2.049835E3,7.318174E1,1.8613167E1,1.923265E3,1.905505E3,1.3533032E1,6.347613E1,1.8351063E1,2.99248E3,1.283E2,1.2747E2,2.2348999E2,2.4454001E2,3.51435E2,6.06775E2,1.8114747E0,6.0506E2,1.789755E3,2.65862E3,1.950855E3,2.4400352E3,1.81415E3,1.8608E3,1.62496E3,1.790575E3,9.681373E0,4.0958702E1,3.62432E0,1.0761921E0,3.814206E-1,1.2868236E0,3.2303228E0,1.4697894E0,4.335028E0,2.3371289E0,2.6663184E0,5.3369303E0,2.4154866E0,-1.4285614E0,7.9785466E0,4.5177355E0,1.6255112E1,7.7634387E0,3.6857296E1,1.5852761E1,5.573627E0,2.1981361E1,-1.226775E1,5.635869E0,1.5348326E1,4.5768557E0,-5.7112794E0,2.6839602E-1,6.7271123E0,4.9275524E1,-5.9639163E0,2.6877474E1],"split_indices":[58,42,52,53,18,58,31,58,59,0,0,0,32,4,39,29,11,41,18,50,43,0,0,3,14,0,0,0,2,25,31,48,6,34,57,0,45,52,14,44,27,14,0,19,11,0,0,0,0,0,0,0,0,0,0,0,0,0,0,0,0,0,0,0,0,0,0,0,0,0,0,0,0,0,0,0,0],"split_type":[0,0,0,0,0,0,0,0,0,0,0,0,0,0,0,0,0,0,0,0,0,0,0,0,0,0,0,0,0,0,0,0,0,0,0,0,0,0,0,0,0,0,0,0,0,0,0,0,0,0,0,0,0,0,0,0,0,0,0,0,0,0,0,0,0,0,0,0,0,0,0,0,0,0,0,0,0],"sum_hessian":[6.58E2,4.13E2,2.45E2,2.78E2,1.35E2,2.13E2,3.2E1,2E2,7.8E1,1.33E2,2E0,3E0,2.1E2,1.7E1,1.5E1,1.04E2,9.6E1,5.7E1,2.1E1,9.4E1,3.9E1,2E0,1E0,9E0,2.01E2,1E0,1.6E1,5E0,1E1,6E0,9.8E1,6.5E1,3.1E1,4E1,1.7E1,2E0,1.9E1,6.9E1,2.5E1,2.3E1,1.6E1,6E0,3E0,1.7E1,1.84E2,1E0,9E0,3E0,3E0,9E0,8.9E1,2.2E1,4.3E1,1.2E1,1.9E1,1.4E1,2.6E1,1.6E1,1E0,1.3E1,6E0,4.9E1,2E1,8E0,1.7E1,1.1E1,1.2E1,2E0,1.4E1,4E0,2E0,2E0,1E0,1E0,1.6E1,2E0,1.82E2],"tree_param":{"num_deleted":"0","num_feature":"60","num_nodes":"77","size_leaf_vector":"0"}},{"base_weights":[3.7708817E1,1.6770523E1,7.669038E1,6.6441813E0,3.66282E1,6.901323E1,1.25570915E2,5.165898E0,1.4446412E1,3.8720818E1,-1.0157784E1,1.032986E2,6.0121696E1,1.5126851E2,8.033032E1,3.7525651E0,7.596587E0,2.4022879E1,1.2357138E1,3.1826979E1,5.196647E1,6.7687073E0,-2.454483E1,1.425156E2,6.81158E1,4.0246685E1,7.7217674E1,8.3562325E1,1.7815808E2,8.820696E1,2.4672525E1,-4.4478524E-1,3.9840183E0,8.09985E0,6.1600167E-1,8.422496E0,2.8578533E1,-2.280941E0,1.5630497E1,4.0387897E1,1.1246026E1,6.9999596E1,2.9112171E1,-3.1848145E0,1.1148152E1,-7.3276978E0,-2.7841309E1,4.5351196E1,1.7639796E2,8.6346855E1,2.069987E0,7.3446266E1,2.3827133E1,1.27563255E2,5.8989666E1,4.518512E1,9.869202E1,-2.765808E0,1.9651947E0,2.7922368E0,5.060653E0,-6.752879E-1,8.327669E0,-1.9440511E0,2.028833E0,2.039177E0,-5.280847E0,1.648441E1,5.532013E0,3.43391E1,7.0827255E1,-1.293748E1,2.6743584E1,7.9509735E1,1.9390869E-1,3.7989502E1,-2.033319E1,3.4484253E0,1.3273804E1,2.9060059E0,5.3259033E1,8.100537E1,2.0979408E2,4.1831406E1,1.1777608E2,3.8113647E1,-1.2761475E1,1.1346802E1,8.840379E1,3.782576E1,-2.2155245E1,3.2381042E1,1.4088776E2,1.3026697E1,7.7691185E1],"categories":[],"categories_nodes":[],"categories_segments":[],"categories_sizes":[],"default_left":[1,1,1,1,1,1,1,1,1,1,1,1,1,1,1,1,1,1,1,1,1,1,1,1,1,1,1,0,0,1,0,1,1,1,1,0,0,1,1,1,1,1,1,0,1,0,0,1,1,1,1,1,1,1,1,0,0,0,0,0,0,0,0,0,0,0,0,0,0,0,0,0,0,0,0,0,0,0,0,0,0,0,0,0,0,0,0,0,0,0,0,0,0,0,0],"id":11,"left_children":[1,3,5,7,9,11,13,15,17,19,21,23,25,27,29,31,33,35,37,39,41,43,45,47,49,51,53,-1,-1,55,-1,57,59,61,63,-1,-1,65,67,69,71,73,75,-1,77,-1,-1,79,81,83,85,87,89,91,93,-1,-1,-1,-1,-1,-1,-1,-1,-1,-1,-1,-1,-1,-1,-1,-1,-1,-1,-1,-1,-1,-1,-1,-1,-1,-1,-1,-1,-1,-1,-1,-1,-1,-1,-1,-1,-1,-1,-1,-1],"loss_changes":[5.3659456E5,8.622346E4,7.7644375E4,3.2240693E3,1.45895625E4,5.506425E4,2.2725812E4,8.02853E2,6.035E2,1.1038625E4,1.870792E3,4.5483E4,5.1937062E4,1.7883312E4,3.5228672E3,1.5235278E2,3.0416064E2,2.5678735E2,1.9043643E3,1.6107836E4,1.6920336E4,2.0986841E2,2.3010986E1,5.1259E4,2.751521E4,4.02244E4,7.139725E4,0E0,0E0,5.0253906E2,0E0,5.577792E1,1.7448706E2,1.6955371E2,2.9262613E1,0E0,0E0,1.14448166E2,1.8475049E2,9.719867E3,1.1214768E4,1.658114E4,1.0429189E4,0E0,3.327057E0,0E0,0E0,1.859127E3,2.4420188E4,2.0256797E4,3.6938674E3,2.2218266E4,3.495362E4,2.3339531E4,5.486047E4,0E0,0E0,0E0,0E0,0E0,0E0,0E0,0E0,0E0,0E0,0E0,0E0,0E0,0E0,0E0,0E0,0E0,0E0,0E0,0E0,0E0,0E0,0E0,0E0,0E0,0E0,0E0,0E0,0E0,0E0,0E0,0E0,0E0,0E0,0E0,0E0,0E0,0E0,0E0,0E0],"parents":[2147483647,0,0,1,1,2,2,3,3,4,4,5,5,6,6,7,7,8,8,9,9,10,10,11,11,12,12,13,13,14,14,15,15,16,16,17,17,18,18,19,19,20,20,21,21,22,22,23,23,24,24,25,25,26,26,29,29,31,31,32,32,33,33,34,34,37,37,38,38,39,39,40,40,41,41,42,42,44,44,47,47,48,48,49,49,50,50,51,51,52,52,53,53,54,54],"right_children":[2,4,6,8,10,12,14,16,18,20,22,24,26,28,30,32,34,36,38,40,42,44,46,48,50,52,54,-1,-1,56,-1,58,60,62,64,-1,-1,66,68,70,72,74,76,-1,78,-1,-1,80,82,84,86,88,90,92,94,-1,-1,-1,-1,-1,-1,-1,-1,-1,-1,-1,-1,-1,-1,-1,-1,-1,-1,-1,-1,-1,-1,-1,-1,-1,-1,-1,-1,-1,-1,-1,-1,-1,-1,-1,-1,-1,-1,-1,-1],"split_conditions":[2.37201E3,1.09325E3,4.1392E3,4.1083002E2,3.24288E3,2.319045E3,3.503365E3,2.4373001E2,3.6841998E2,2.061675E3,2.670395E3,3.119865E3,3.100355E3,3.28856E3,4.12174E3,1.3269E2,3.9534E2,2.40495E2,3.8474E2,1.83302E3,3.18045E3,2.278065E3,2.27169E3,1.90948E3,2.1809302E3,2.834585E3,3.268305E3,2.5068699E1,5.3447426E1,3.002725E3,7.4017577E0,1.99275E2,1.70715E2,1.27020004E2,3.48985E2,2.526749E0,8.573561E0,3.5261E2,2.8751548E3,1.80277E3,2.634955E3,2.971775E3,2.236105E3,-9.554444E-1,2.49331E3,-2.1983094E0,-8.352393E0,1.45136E3,2.532365E3,2.36999E3,1.85446E3,2.382665E3,3.203775E3,2.69281E3,3.78352E3,1.3555536E1,2.9607607E1,-8.297425E-1,5.895584E-1,8.376711E-1,1.518196E0,-2.0258638E-1,2.4983008E0,-5.8321536E-1,6.086499E-1,6.117531E-1,-1.5842541E0,4.945323E0,1.659604E0,1.030173E1,2.1248177E1,-3.8812442E0,8.023075E0,2.385292E1,5.817261E-2,1.1396851E1,-6.0999575E0,1.0345277E0,3.9821413E0,8.718018E-1,1.5977711E1,2.4301613E1,6.293823E1,1.2549422E1,3.5332825E1,1.1434094E1,-3.8284426E0,3.4040406E0,2.652114E1,1.1347729E1,-6.6465735E0,9.7143135E0,4.2266327E1,3.9080093E0,2.3307356E1],"split_indices":[54,59,55,45,21,23,16,59,22,38,44,59,7,5,15,5,45,5,21,26,6,0,1,27,8,42,0,0,0,2,0,51,50,0,22,0,0,8,2,32,16,39,59,0,0,0,0,6,54,38,0,12,22,11,18,0,0,0,0,0,0,0,0,0,0,0,0,0,0,0,0,0,0,0,0,0,0,0,0,0,0,0,0,0,0,0,0,0,0,0,0,0,0,0,0],"split_type":[0,0,0,0,0,0,0,0,0,0,0,0,0,0,0,0,0,0,0,0,0,0,0,0,0,0,0,0,0,0,0,0,0,0,0,0,0,0,0,0,0,0,0,0,0,0,0,0,0,0,0,0,0,0,0,0,0,0,0,0,0,0,0,0,0,0,0,0,0,0,0,0,0,0,0,0,0,0,0,0,0,0,0,0,0,0,0,0,0,0,0,0,0,0,0],"sum_hessian":[6.58E2,4.29E2,2.29E2,2.85E2,1.44E2,2E2,2.9E1,2.41E2,4.4E1,1.38E2,6E0,3.9E1,1.61E2,1.7E1,1.2E1,1.54E2,8.7E1,6E0,3.8E1,9.3E1,4.5E1,3E0,3E0,1.7E1,2.2E1,7.6E1,8.5E1,6E0,1.1E1,1E1,2E0,8E0,1.46E2,8.1E1,6E0,2E0,4E0,7E0,3.1E1,6.5E1,2.8E1,2.4E1,2.1E1,1E0,2E0,1E0,2E0,5E0,1.2E1,1.7E1,5E0,2.4E1,5.2E1,2.1E1,6.4E1,3E0,7E0,4E0,4E0,7.1E1,7.5E1,2E0,7.9E1,2E0,4E0,3E0,4E0,2.8E1,3E0,5.6E1,9E0,1.1E1,1.7E1,2.1E1,3E0,1.8E1,3E0,1E0,1E0,1E0,4E0,4E0,8E0,8E0,9E0,1E0,4E0,5E0,1.9E1,4E1,1.2E1,3E0,1.8E1,1.9E1,4.5E1],"tree_param":{"num_deleted":"0","num_feature":"60","num_nodes":"95","size_leaf_vector":"0"}},{"base_weights":[2.7127676E1,1.0960174E1,5.4226128E1,5.0099735E0,2.5843641E1,5.1344227E1,1.3354456E2,3.634466E0,1.0864668E1,8.123068E1,2.3692408E1,1.3841382E2,4.9650913E1,2.6351492E0,5.4827623E0,1.294132E1,-1.4179959E0,3.9827805E0,2.6609024E1,4.0182224E1,6.3527203E1,2.8255787E0,-1.3124037E0,6.380646E0,2.8239985E0,1.0370714E1,3.8625305E1,1.0627808E1,-6.377912E0,1.8796782E1,-4.5158417E1,5.1242363E1,2.0198212E1,1.7316882E2,3.80262E1,3.2437923E1,7.257618E1,2.397847E0,6.0812206E0,1.9986191E0,-2.070924E0,7.0428357E0,1.6985474E0,1.3120761E0,6.889099E0,1.8401777E1,8.663326E0,4.49552E1,9.81781E0,2.2354736E0,1.3706238E1,1.704773E0,-8.009155E0,1.1329679E1,3.9910564E1,-9.309143E0,-5.4005127E1,5.6144794E1,4.746989E0,7.2085757E0,2.8534124E1,4.073486E1,-3.015922E1,6.7449974E1,-5.2772827E0,8.162931E1,2.5209717E1],"categories":[],"categories_nodes":[],"categories_segments":[],"categories_sizes":[],"default_left":[1,1,1,1,1,1,0,1,1,0,1,0,1,1,1,1,1,1,1,1,1,1,1,1,1,1,1,1,1,1,1,1,1,0,1,1,1,0,0,0,0,0,0,0,0,0,0,0,0,0,0,0,0,0,0,0,0,0,0,0,0,0,0,0,0,0,0],"id":12,"left_children":[1,3,5,7,9,11,-1,13,15,-1,17,-1,19,21,23,25,27,29,31,33,35,37,39,41,43,45,47,49,51,53,55,57,59,-1,61,63,65,-1,-1,-1,-1,-1,-1,-1,-1,-1,-1,-1,-1,-1,-1,-1,-1,-1,-1,-1,-1,-1,-1,-1,-1,-1,-1,-1,-1,-1,-1],"loss_changes":[2.8812303E5,3.6534203E4,4.9375812E4,2.3523062E3,1.2135203E4,2.8364938E4,0E0,4.3253418E2,1.4467324E3,0E0,6.50484E3,0E0,2.8455375E4,1.232334E2,1.8251099E2,2.7685513E3,6.054988E2,1.2496477E4,1.4756969E4,3.441636E4,2.4090438E4,1.9708423E2,2.4230812E1,1.8026465E2,1.3232166E2,4.576255E2,2.8803223E2,4.6865723E1,1.0594754E2,1.5973901E3,7.658511E2,4.292289E3,8.565027E3,0E0,2.7454656E4,3.0727145E4,2.8816812E4,0E0,0E0,0E0,0E0,0E0,0E0,0E0,0E0,0E0,0E0,0E0,0E0,0E0,0E0,0E0,0E0,0E0,0E0,0E0,0E0,0E0,0E0,0E0,0E0,0E0,0E0,0E0,0E0,0E0,0E0],"parents":[2147483647,0,0,1,1,2,2,3,3,4,4,5,5,7,7,8,8,10,10,12,12,13,13,14,14,15,15,16,16,17,17,18,18,19,19,20,20,21,21,22,22,23,23,24,24,25,25,26,26,27,27,28,28,29,29,30,30,31,31,32,32,34,34,35,35,36,36],"right_children":[2,4,6,8,10,12,-1,14,16,-1,18,-1,20,22,24,26,28,30,32,34,36,38,40,42,44,46,48,50,52,54,56,58,60,-1,62,64,66,-1,-1,-1,-1,-1,-1,-1,-1,-1,-1,-1,-1,-1,-1,-1,-1,-1,-1,-1,-1,-1,-1,-1,-1,-1,-1,-1,-1,-1,-1],"split_conditions":[2.259575E3,1.25635E3,4.6276396E3,4.1083002E2,5.5696497E2,2.29703E3,4.006337E1,2.4564E2,6.29275E2,2.4369205E1,1.3475249E3,4.1524147E1,3.27748E3,2.652E2,3.84825E2,6.1041E2,1.098985E3,1.15399E3,1.693635E3,1.616095E3,2.2506602E3,2.40815E2,1.4155E2,3.9290997E2,4.4931E2,3.6841998E2,5.2765497E2,1.701575E3,5.7282E2,1.8203401E3,6.19565E2,1.63601E3,1.873385E3,5.195065E1,4.30059E3,1.87777E3,4.2265703E3,7.193541E-1,1.8243662E0,5.995858E-1,-6.212772E-1,2.112851E0,5.095642E-1,3.9362285E-1,2.0667298E0,5.5205336E0,2.598998E0,1.3486561E1,2.945343E0,6.7064214E-1,4.1118717E0,5.1143193E-1,-2.4027467E0,3.3989036E0,1.1973169E1,-2.792743E0,-1.6201538E1,1.684344E1,1.4240967E0,2.1625729E0,8.560238E0,1.2220458E1,-9.047767E0,2.0234993E1,-1.5831848E0,2.4488794E1,7.5629153E0],"split_indices":[58,50,59,45,1,58,0,58,30,0,29,0,59,40,44,23,55,13,26,20,2,47,3,21,55,22,0,0,5,59,0,0,54,0,9,0,1,0,0,0,0,0,0,0,0,0,0,0,0,0,0,0,0,0,0,0,0,0,0,0,0,0,0,0,0,0,0],"split_type":[0,0,0,0,0,0,0,0,0,0,0,0,0,0,0,0,0,0,0,0,0,0,0,0,0,0,0,0,0,0,0,0,0,0,0,0,0,0,0,0,0,0,0,0,0,0,0,0,0,0,0,0,0,0,0,0,0,0,0,0,0,0,0,0,0,0,0],"sum_hessian":[6.58E2,4.13E2,2.45E2,2.96E2,1.17E2,2.38E2,7E0,2.41E2,5.5E1,3E0,1.14E2,3E0,2.35E2,1.58E2,8.3E1,4.7E1,8E0,1.5E1,9.9E1,1.42E2,9.3E1,1.51E2,7E0,6.1E1,2.2E1,4.4E1,3E0,2E0,6E0,1.2E1,3E0,1.9E1,8E1,1E0,1.41E2,2.2E1,7.1E1,1.35E2,1.6E1,1E0,6E0,5.3E1,8E0,1.7E1,5E0,6E0,3.8E1,2E0,1E0,1E0,1E0,1E0,5E0,1E1,2E0,1E0,2E0,1.7E1,2E0,3.2E1,4.8E1,1.36E2,5E0,1.1E1,1.1E1,5.9E1,1.2E1],"tree_param":{"num_deleted":"0","num_feature":"60","num_nodes":"67","size_leaf_vector":"0"}},{"base_weights":[1.940242E1,8.408564E0,4.0009186E1,3.2344563E0,1.8280443E1,3.7721584E1,9.848901E1,2.2466269E0,6.4003124E0,2.0226698E1,-1.4025798E1,6.7061874E1,3.3657784E1,1.7553766E-1,2.5384796E0,1.616523E1,4.9916515E0,1.8146845E1,4.0899567E1,2.1390198E1,-3.529883E1,3.9352024E1,1.2449002E2,-3.5541035E1,3.5644943E1,-3.34256E-1,3.3178635E0,2.6477978E0,-2.057721E0,1.8221405E1,6.6644692E0,9.373266E-1,7.1507154E0,2.1618946E1,2.7712736E-1,6.148607E1,-2.1875E-1,4.240808E1,2.4820964E-1,-1.2878581E1,-4.3289307E1,1.4630859E0,4.9358204E1,1.7075928E2,3.5530945E1,-2.3168423E0,3.841489E1,1.544643E0,-1.6898315E0,2.1543133E0,4.20266E0,-3.4130352E0,-1.6499838E-2,8.1752825E0,-1.9523315E-1,1.1353344E1,5.3100386E0,1.8516207E1,7.127948E1,1.648933E1,-1.22151165E1,1.1308797E1,-1.1673381E1,1.3944092E0,-1.0220947E0,5.470459E0,-3.0319824E0,5.7562443E1,-2.6462402E0,5.515619E1,-2.3005505E1,1.0582212E2,3.6269455E1],"categories":[],"categories_nodes":[],"categories_segments":[],"categories_sizes":[],"default_left":[1,1,1,1,1,1,0,1,1,1,1,1,1,1,1,1,1,1,1,1,1,1,1,0,1,1,0,1,1,0,0,1,1,1,1,0,1,0,1,0,0,1,1,0,0,1,1,0,0,0,0,0,0,0,0,0,0,0,0,0,0,0,0,0,0,0,0,0,0,0,0,0,0],"id":13,"left_children":[1,3,5,7,9,11,-1,13,15,17,19,21,23,25,27,29,31,33,35,37,39,41,43,-1,45,47,-1,49,51,-1,-1,53,55,57,59,-1,61,-1,63,-1,-1,65,67,-1,-1,69,71,-1,-1,-1,-1,-1,-1,-1,-1,-1,-1,-1,-1,-1,-1,-1,-1,-1,-1,-1,-1,-1,-1,-1,-1,-1,-1],"loss_changes":[1.4895862E5,2.1955562E4,2.6920125E4,8.737815E2,9.589371E3,2.4212594E4,0E0,1.313252E2,8.409243E2,5.2773203E3,7.535699E3,3.647553E4,2.8356188E4,4.596327E1,1.01416016E2,3.4845703E1,5.1851025E2,7.997875E3,1.0171236E4,1.7669132E3,5.173867E2,7.131131E3,2.6861328E4,0E0,2.0278203E4,6.628493E1,0E0,1.3443127E2,1.3776165E1,0E0,0E0,1.8193929E2,2.4140479E2,1.5321215E4,4.657009E3,0E0,7.9223083E2,0E0,5.7932854E0,0E0,0E0,1.0665341E2,6.552176E3,0E0,0E0,1.7915457E4,2.2048469E4,0E0,0E0,0E0,0E0,0E0,0E0,0E0,0E0,0E0,0E0,0E0,0E0,0E0,0E0,0E0,0E0,0E0,0E0,0E0,0E0,0E0,0E0,0E0,0E0,0E0,0E0],"parents":[2147483647,0,0,1,1,2,2,3,3,4,4,5,5,7,7,8,8,9,9,10,10,11,11,12,12,13,13,14,14,15,15,16,16,17,17,18,18,19,19,20,20,21,21,22,22,24,24,25,25,27,27,28,28,31,31,32,32,33,33,34,34,36,36,38,38,41,41,42,42,45,45,46,46],"right_children":[2,4,6,8,10,12,-1,14,16,18,20,22,24,26,28,30,32,34,36,38,40,42,44,-1,46,48,-1,50,52,-1,-1,54,56,58,60,-1,62,-1,64,-1,-1,66,68,-1,-1,70,72,-1,-1,-1,-1,-1,-1,-1,-1,-1,-1,-1,-1,-1,-1,-1,-1,-1,-1,-1,-1,-1,-1,-1,-1,-1,-1],"split_conditions":[2.3781E3,5.9921497E2,4.6276396E3,3.47285E2,2.447205E3,2.265255E3,2.9546705E1,1.35025E2,3.53755E2,2.37201E3,1.8286E3,2.12501E3,2.3087349E3,2.30175E2,4.4396E2,3.7460498E2,3.82335E2,2.1249102E3,3.215115E3,1.5283201E3,2.12169E3,2.19905E3,2.7978052E3,-1.0662311E1,2.550925E3,1.4547E2,9.9535906E-1,2.3407501E2,3.30735E2,5.4664216E0,1.9993409E0,3.4746002E2,3.87925E2,2.087855E3,2.455005E3,1.8445822E1,3.1977148E3,1.27224245E1,1.6933E3,-3.8635745E0,-1.2986793E1,1.8555549E3,2.296125E3,5.1227787E1,1.0659284E1,2.69783E3,2.44906E3,4.6339294E-1,-5.069495E-1,6.46294E-1,1.2607981E0,-1.0239106E0,-4.9499515E-3,2.4525847E0,-5.856995E-2,3.4060032E0,1.5930116E0,5.554862E0,2.1383844E1,4.9467993E0,-3.664535E0,3.3926392E0,-3.5020144E0,4.1832277E-1,-3.0662844E-1,1.6411377E0,-9.095948E-1,1.7268734E1,-7.938721E-1,1.6546858E1,-6.901652E0,3.1746637E1,1.08808365E1],"split_indices":[54,26,59,0,56,30,0,59,0,49,0,29,31,43,46,6,4,47,21,0,35,45,56,0,43,42,0,7,0,0,0,14,2,47,25,0,22,0,0,0,0,1,19,0,0,55,52,0,0,0,0,0,0,0,0,0,0,0,0,0,0,0,0,0,0,0,0,0,0,0,0,0,0],"split_type":[0,0,0,0,0,0,0,0,0,0,0,0,0,0,0,0,0,0,0,0,0,0,0,0,0,0,0,0,0,0,0,0,0,0,0,0,0,0,0,0,0,0,0,0,0,0,0,0,0,0,0,0,0,0,0,0,0,0,0,0,0,0,0,0,0,0,0,0,0,0,0,0,0],"sum_hessian":[6.58E2,4.3E2,2.28E2,2.83E2,1.47E2,2.21E2,7E0,2.17E2,6.6E1,1.39E2,8E0,2.5E1,1.96E2,2.7E1,1.9E2,7E0,5.9E1,1.28E2,1.1E1,3E0,5E0,1.8E1,7E0,5E0,1.91E2,2.4E1,3E0,1.86E2,4E0,5E0,2E0,2.1E1,3.8E1,1.07E2,2.1E1,7E0,4E0,1E0,2E0,2E0,3E0,4E0,1.4E1,4E0,3E0,1.3E1,1.78E2,1E1,1.4E1,1.43E2,4.3E1,2E0,2E0,2E0,1.9E1,1E1,2.8E1,1.02E2,5E0,9E0,1.2E1,2E0,2E0,1E0,1E0,2E0,2E0,1.2E1,2E0,3E0,1E1,4E0,1.74E2],"tree_param":{"num_deleted":"0","num_feature":"60","num_nodes":"73","size_leaf_vector":"0"}},{"base_weights":[1.3899567E1,6.4161825E0,3.0441227E1,5.908784E0,1.1838757E2,8.233213E1,2.7638418E1,2.8884473E0,1.3923483E1,-1.2686624E1,3.1293348E1,4.14855E0,-1.5910622E1,3.50344E1,7.686068E0,2.706128E1,-3.6827415E1,9.477238E1,2.8938105E1,2.7589374E0,3.3431126E1,-3.9879898E1,-1.0774187E0,7.433154E0,4.7717457E1,-2.3985853E1,1.0802486E1,-1.05911455E1,4.424048E1,-4.050769E1,-1.2329102E-2,2.4333862E1,1.5709961E2,1.8004204E1,4.169706E1,2.0085447E0,9.650215E0,6.642731E1,1.8393322E1,-1.4558513E1,-4.589394E1,-1.2028185E1,1.55283E1,2.076179E1,-1.7750244E1,6.623718E1,1.97803E1,-2.561206E0,-4.061333E1,-9.423915E0,1.4386264E1,2.7583008E0,-1.864502E1,4.930005E1,1.2001099E1,-2.8484009E1,-5.906828E1,3.1654947E1,1.1853027E0,2.5915215E1,-2.6442936E1,5.0145927E1,9.809529E0],"categories":[],"categories_nodes":[],"categories_segments":[],"categories_sizes":[],"default_left":[1,1,1,1,0,0,1,1,1,1,1,1,1,1,1,1,1,1,1,1,1,1,1,1,1,1,1,1,1,1,0,1,0,1,1,0,0,0,0,0,0,0,0,0,0,0,0,0,0,0,0,0,0,0,0,0,0,0,0,0,0,0,0],"id":14,"left_children":[1,3,5,7,-1,-1,9,11,13,15,17,19,21,23,25,27,29,31,33,35,37,39,41,43,45,47,49,51,53,55,-1,57,-1,59,61,-1,-1,-1,-1,-1,-1,-1,-1,-1,-1,-1,-1,-1,-1,-1,-1,-1,-1,-1,-1,-1,-1,-1,-1,-1,-1,-1,-1],"loss_changes":[8.138072E4,2.51509E4,2.7539703E4,1.0949801E4,0E0,0E0,2.9284516E4,7.9069854E3,1.605874E4,1.7308875E4,2.4169E4,1.2562805E4,7.4233965E3,9.447219E3,9.833294E3,4.9964272E3,1.4898867E3,2.2518582E4,2.3662688E4,1.521624E3,5.724842E3,5.50124E2,2.732612E3,3.7251296E3,8.520191E3,3.102121E3,6.586912E3,3.739728E2,2.2393262E2,5.4916406E2,0E0,6.403696E2,0E0,3.444097E4,2.1061156E4,0E0,0E0,0E0,0E0,0E0,0E0,0E0,0E0,0E0,0E0,0E0,0E0,0E0,0E0,0E0,0E0,0E0,0E0,0E0,0E0,0E0,0E0,0E0,0E0,0E0,0E0,0E0,0E0],"parents":[2147483647,0,0,1,1,2,2,3,3,6,6,7,7,8,8,9,9,10,10,11,11,12,12,13,13,14,14,15,15,16,16,17,17,18,18,19,19,20,20,21,21,22,22,23,23,24,24,25,25,26,26,27,27,28,28,29,29,31,31,33,33,34,34],"right_children":[2,4,6,8,-1,-1,10,12,14,16,18,20,22,24,26,28,30,32,34,36,38,40,42,44,46,48,50,52,54,56,-1,58,-1,60,62,-1,-1,-1,-1,-1,-1,-1,-1,-1,-1,-1,-1,-1,-1,-1,-1,-1,-1,-1,-1,-1,-1,-1,-1,-1,-1,-1,-1],"split_conditions":[2.568085E3,4.059665E3,2.608555E3,1.7090149E3,3.5516273E1,2.469964E1,2.694155E3,1.7454651E3,1.882385E3,2.4609102E3,2.44154E3,7.44295E2,1.777375E3,1.68399E3,2.23878E3,2.427635E3,4.3084746E3,1.60902E3,3.41227E3,4.38805E2,5.871E2,7.3120496E2,1.499325E3,1.80769E3,1.9365701E3,2.22017E3,2.376685E3,1.75427E3,3.081815E3,3.12788E3,-3.6987306E-3,1.5283201E3,4.7129883E1,3.95142E3,4.2947695E3,6.0256344E-1,2.8950646E0,1.9928192E1,5.517997E0,-4.367554E0,-1.3768183E1,-3.6084557E0,4.65849E0,6.228537E0,-5.3250732E0,1.9871155E1,5.93409E0,-7.6836187E-1,-1.2184E1,-2.8271747E0,4.3158793E0,8.2749027E-1,-5.593506E0,1.4790015E1,3.6003296E0,-8.545203E0,-1.7720484E1,9.496485E0,3.5559082E-1,7.7745647E0,-7.932881E0,1.5043778E1,2.942859E0],"split_indices":[58,47,58,36,0,0,59,46,23,21,52,23,44,44,14,24,1,2,52,10,2,4,10,30,46,29,2,0,4,16,0,0,0,3,30,0,0,0,0,0,0,0,0,0,0,0,0,0,0,0,0,0,0,0,0,0,0,0,0,0,0,0,0],"split_type":[0,0,0,0,0,0,0,0,0,0,0,0,0,0,0,0,0,0,0,0,0,0,0,0,0,0,0,0,0,0,0,0,0,0,0,0,0,0,0,0,0,0,0,0,0,0,0,0,0,0,0,0,0,0,0,0,0,0,0,0,0,0,0],"sum_hessian":[6.58E2,4.54E2,2.04E2,4.53E2,1E0,9E0,1.95E2,3.3E2,1.23E2,1.6E1,1.79E2,3.1E2,2E1,2.7E1,9.6E1,6E0,1E1,5E0,1.74E2,2.97E2,1.3E1,7E0,1.3E1,9E0,1.8E1,8E0,8.8E1,2E0,4E0,9E0,1E0,3E0,2E0,9.5E1,7.9E1,2.69E2,2.8E1,3E0,1E1,2E0,5E0,8E0,5E0,6E0,3E0,1E1,8E0,4E0,4E0,1.3E1,7.5E1,1E0,1E0,3E0,1E0,7E0,2E0,2E0,1E0,8.1E1,1.4E1,6.2E1,1.7E1],"tree_param":{"num_deleted":"0","num_feature":"60","num_nodes":"63","size_leaf_vector":"0"}},{"base_weights":[9.956512E0,6.6760573E0,3.1166327E1,4.143139E0,2.4490833E1,5.143851E1,1.0652051E1,6.136627E0,-4.4206764E1,1.6143307E1,9.850488E1,6.1169575E1,2.039154E1,-1.29136505E1,2.2865356E1,4.248333E0,2.946494E1,-1.6769081E1,-8.326715E1,4.11793E1,-1.6032339E0,-2.2788086E0,1.1568197E2,6.3692924E1,-9.788818E0,-7.87251E0,3.550763E1,6.200521E0,-3.2802887E1,3.0657036E1,-3.5444824E1,4.610609E0,-3.7116943E1,5.3241302E1,2.7307265E0,-3.8021393E1,1.4362183E1,-9.217707E1,-1.0448853E1,4.7883636E1,-9.341553E0,9.2996826E1,-9.230179E0,6.780192E1,1.7979492E1,-1.5269694E1,2.1488445E0,1.689795E1,4.3293846E1,-1.4958217E1,5.350407E1,-3.8344807E1,-1.0784749E1,4.142719E1,-6.032994E0,-8.260376E0,-4.175285E1,2.0577385E0,1.1918344E1,9.598284E0,7.2645905E1,2.6758839E1,-2.427059E1,-1.7483236E1,-6.642391E1,4.041577E1,1.0683105E0,1.4298365E1,6.708157E1,4.800293E0,-1.5655599E1,1.613546E1,-2.2051104E1,5.0110394E1,8.572145E1,2.3918945E1,8.0566406E-2,2.6209717E0,6.022949E-1,4.768042E1,1.2873779E1,-2.4624836E0,-1.9464014E1,4.635411E1,8.899231E0,5.501139E0,-1.1746875E1],"categories":[],"categories_nodes":[],"categories_segments":[],"categories_sizes":[],"default_left":[1,1,1,1,1,1,1,1,1,1,1,1,1,1,1,1,1,1,1,1,1,0,0,1,0,1,1,1,1,1,1,1,0,1,1,1,1,0,0,1,1,0,1,1,1,0,1,0,1,1,0,0,0,1,1,0,0,0,0,0,0,0,0,0,0,0,0,0,0,0,0,0,0,0,0,0,0,0,0,0,0,0,0,0,0,0,0],"id":15,"left_children":[1,3,5,7,9,11,13,15,17,19,21,23,25,27,29,31,33,35,37,39,41,-1,-1,43,-1,45,47,49,51,53,55,57,-1,59,61,63,65,-1,-1,67,69,-1,71,73,75,-1,77,-1,79,81,-1,-1,-1,83,85,-1,-1,-1,-1,-1,-1,-1,-1,-1,-1,-1,-1,-1,-1,-1,-1,-1,-1,-1,-1,-1,-1,-1,-1,-1,-1,-1,-1,-1,-1,-1,-1],"loss_changes":[4.5643727E4,2.5709104E4,3.6048555E4,4.865653E4,4.2276035E4,1.2045945E4,1.3246955E4,2.1151318E4,2.0038215E4,2.8945666E4,1.2381805E4,6.5322188E3,5.4064365E3,6.2860557E3,1.4716661E4,6.8846997E3,2.2737734E4,9.147018E3,4.227297E3,9.592445E3,2.8997244E4,0E0,0E0,4.7917188E3,0E0,4.034612E2,4.2761523E2,9.808276E3,5.626426E2,1.0919172E4,3.4102637E2,8.277262E3,0E0,1.5393359E4,1.2327685E4,3.505378E3,2.0349419E3,0E0,0E0,1.4515277E4,4.3232053E2,0E0,1.2388609E4,4.8981562E3,4.2331213E2,0E0,6.1190605E-1,0E0,5.337207E1,3.4619287E2,0E0,0E0,0E0,2.953004E3,5.2595386E2,0E0,0E0,0E0,0E0,0E0,0E0,0E0,0E0,0E0,0E0,0E0,0E0,0E0,0E0,0E0,0E0,0E0,0E0,0E0,0E0,0E0,0E0,0E0,0E0,0E0,0E0,0E0,0E0,0E0,0E0,0E0,0E0],"parents":[2147483647,0,0,1,1,2,2,3,3,4,4,5,5,6,6,7,7,8,8,9,9,10,10,11,11,12,12,13,13,14,14,15,15,16,16,17,17,18,18,19,19,20,20,23,23,25,25,26,26,27,27,28,28,29,29,30,30,31,31,33,33,34,34,35,35,36,36,39,39,40,40,42,42,43,43,44,44,46,46,48,48,49,49,53,53,54,54],"right_children":[2,4,6,8,10,12,14,16,18,20,22,24,26,28,30,32,34,36,38,40,42,-1,-1,44,-1,46,48,50,52,54,56,58,-1,60,62,64,66,-1,-1,68,70,-1,72,74,76,-1,78,-1,80,82,-1,-1,-1,84,86,-1,-1,-1,-1,-1,-1,-1,-1,-1,-1,-1,-1,-1,-1,-1,-1,-1,-1,-1,-1,-1,-1,-1,-1,-1,-1,-1,-1,-1,-1,-1,-1],"split_conditions":[3.4023599E3,3.142385E3,3.922975E3,3.14981E3,3.40201E3,3.927495E3,3.95902E3,2.60145E3,2.9322349E3,3.22517E3,3.20013E3,4.39225E3,3.527295E3,4.041795E3,4.65487E3,3.12029E3,2.6734E3,2.986135E3,4.283455E3,3.050475E3,2.952905E3,-6.836426E-1,3.4704594E1,4.146335E3,-2.9366455E0,2.720415E3,4.24878E3,3.554305E3,4.6738896E3,4.47787E3,4.12234E3,1.7090149E3,-1.1135083E1,2.12501E3,2.7685552E3,2.96024E3,2.458845E3,-2.7653122E1,-3.134656E0,2.109035E3,3.107745E3,2.789905E1,3.128645E3,3.34994E3,3.68057E3,-4.5809083E0,3.364215E3,5.069385E0,3.417725E3,3.677975E3,1.6051222E1,-1.1503443E1,-3.2354248E0,4.621425E3,4.15085E3,-2.478113E0,-1.2525855E1,6.173216E-1,3.575503E0,2.8794851E0,2.1793772E1,8.027652E0,-7.281177E0,-5.2449713E0,-1.9927174E1,1.2124732E1,3.2049316E-1,4.28951E0,2.0124474E1,1.4400879E0,-4.6966796E0,4.840638E0,-6.615331E0,1.5033118E1,2.5716436E1,7.175684E0,2.4169924E-2,7.8629154E-1,1.8068849E-1,1.4304127E1,3.862134E0,-7.387451E-1,-5.8392043E0,1.3906234E1,2.6697693E0,1.6503419E0,-3.5240626E0],"split_indices":[30,54,28,30,17,35,38,54,59,47,1,4,23,33,13,28,26,52,0,0,55,0,0,44,0,0,57,41,2,51,0,36,0,29,48,12,0,0,0,26,0,0,41,37,0,0,0,0,2,32,0,0,0,29,59,0,0,0,0,0,0,0,0,0,0,0,0,0,0,0,0,0,0,0,0,0,0,0,0,0,0,0,0,0,0,0,0],"split_type":[0,0,0,0,0,0,0,0,0,0,0,0,0,0,0,0,0,0,0,0,0,0,0,0,0,0,0,0,0,0,0,0,0,0,0,0,0,0,0,0,0,0,0,0,0,0,0,0,0,0,0,0,0,0,0,0,0,0,0,0,0,0,0,0,0,0,0,0,0,0,0,0,0,0,0,0,0,0,0,0,0,0,0,0,0,0,0],"sum_hessian":[6.58E2,5.71E2,8.7E1,5.01E2,7E1,4.3E1,4.4E1,4.82E2,1.9E1,6.4E1,6E0,3.2E1,1.1E1,1.5E1,2.9E1,4.47E2,3.5E1,1.2E1,7E0,2.6E1,3.8E1,1E0,5E0,3.1E1,1E0,4E0,7E0,8E0,7E0,2.6E1,3E0,4.44E2,3E0,1.8E1,1.7E1,7E0,5E0,6E0,1E0,2.3E1,3E0,2E0,3.6E1,2.8E1,3E0,2E0,2E0,3E0,4E0,6E0,2E0,5E0,2E0,2E1,6E0,1E0,2E0,3.3E2,1.14E2,6E0,1.2E1,9E0,8E0,5E0,2E0,1E0,4E0,9E0,1.4E1,1E0,2E0,1.2E1,2.4E1,1.6E1,1.2E1,2E0,1E0,1E0,1E0,3E0,1E0,2E0,4E0,1.7E1,3E0,2E0,4E0],"tree_param":{"num_deleted":"0","num_feature":"60","num_nodes":"87","size_leaf_vector":"0"}},{"base_weights":[7.1445622E0,4.4540124E0,2.1459957E1,5.4682446E0,-3.520185E1,9.1728905E1,1.7731909E1,3.9069796E0,2.6113821E1,-4.1742958E1,2.491626E1,1.1608588E2,-2.8494873E0,-1.833975E1,2.2859179E1,4.7728653E0,-3.5491776E1,7.288684E1,1.6818308E1,-5.3241264E1,-1.26974125E1,3.3308838E1,-3.0758478E1,4.823029E1,1.1441772E1,3.6593976E0,3.413832E1,3.8590088E0,-5.0730698E1,8.375767E1,9.266357E0,-9.921997E0,2.4399235E1,-1.245695E1,-6.311436E1,-1.6896301E1,2.0490723E0,-1.5675836E1,-6.575358E1,5.4461872E1,-1.2167969E0,1.395999E1,-2.8562378E1,4.205869E0,-4.8987255E1,9.1554855E1,1.1193961E1,-3.6680908E0,7.590739E0,-7.403656E1,-2.1939869E1,2.277417E1,-2.4616415E1,1.3661879E1,4.316292E1,-2.2748632E1,-5.467871E0,5.7498173E1,-7.6865234E0,-5.086914E0,1.7688802E0,5.5097306E-1,2.525663E1,-7.0213623E0,-3.3402264E1],"categories":[],"categories_nodes":[],"categories_segments":[],"categories_sizes":[],"default_left":[1,1,1,1,1,1,1,1,1,1,0,0,0,1,1,1,1,1,1,1,1,0,1,1,1,1,1,1,1,0,0,1,1,0,0,0,0,1,0,1,1,1,1,0,0,0,0,0,0,0,0,0,0,0,0,0,0,0,0,0,0,0,0,0,0],"id":16,"left_children":[1,3,5,7,9,11,13,15,17,19,-1,-1,-1,21,23,25,27,29,31,33,35,-1,37,39,41,43,45,47,49,-1,-1,51,53,-1,-1,-1,-1,55,-1,57,59,61,63,-1,-1,-1,-1,-1,-1,-1,-1,-1,-1,-1,-1,-1,-1,-1,-1,-1,-1,-1,-1,-1,-1],"loss_changes":[2.5286645E4,2.2554953E4,2.5617934E4,1.7400611E4,6.545424E3,1.1849E4,1.8914143E4,1.7431496E4,1.5295777E4,3.6656445E3,0E0,0E0,0E0,9.362855E3,2.4939316E4,1.6093026E4,6.7920703E3,3.3735156E3,6.9317285E3,2.837795E3,3.4421588E2,0E0,4.7752637E3,8.385879E3,6.6445586E3,1.3986809E4,2.268808E4,1.4019994E2,3.7436074E3,0E0,0E0,4.404227E3,4.6485957E3,0E0,0E0,0E0,0E0,5.254031E2,0E0,4.970789E3,5.521782E1,8.923217E3,1.8249463E2,0E0,0E0,0E0,0E0,0E0,0E0,0E0,0E0,0E0,0E0,0E0,0E0,0E0,0E0,0E0,0E0,0E0,0E0,0E0,0E0,0E0,0E0],"parents":[2147483647,0,0,1,1,2,2,3,3,4,4,5,5,6,6,7,7,8,8,9,9,13,13,14,14,15,15,16,16,17,17,18,18,19,19,20,20,22,22,23,23,24,24,25,25,26,26,27,27,28,28,31,31,32,32,37,37,39,39,40,40,41,41,42,42],"right_children":[2,4,6,8,10,12,14,16,18,20,-1,-1,-1,22,24,26,28,30,32,34,36,-1,38,40,42,44,46,48,50,-1,-1,52,54,-1,-1,-1,-1,56,-1,58,60,62,64,-1,-1,-1,-1,-1,-1,-1,-1,-1,-1,-1,-1,-1,-1,-1,-1,-1,-1,-1,-1,-1,-1],"split_conditions":[3.265185E3,3.1916802E3,3.117995E3,3.1457651E3,3.40023E3,3.869315E3,2.6122148E3,2.9892852E3,2.144525E3,3.30357E3,7.4748783E0,3.4825764E1,-8.5484624E-1,2.19838E3,3.35819E3,2.92427E3,2.4511401E3,2.2596099E3,1.9541001E3,3.1977148E3,3.928025E3,9.992652E0,2.643625E3,3.41929E3,4.65487E3,3.09917E3,2.84797E3,2.935975E3,2.647565E3,2.5127302E1,2.7799072E0,2.09392E3,3.50548E3,-3.737085E0,-1.8934309E1,-5.0688906E0,6.147217E-1,2.3154648E3,-1.9726074E1,3.9442002E3,3.68067E3,4.028155E3,4.12234E3,1.2617608E0,-1.46961775E1,2.7466457E1,3.3581884E0,-1.1004273E0,2.2772217E0,-2.2210968E1,-6.581961E0,6.832251E0,-7.384925E0,4.0985637E0,1.2948877E1,-6.82459E0,-1.6403614E0,1.7249453E1,-2.305957E0,-1.5260743E0,5.306641E-1,1.6529192E-1,7.576989E0,-2.1064088E0,-1.0020679E1],"split_indices":[30,30,33,40,31,22,13,37,18,29,0,0,0,9,16,34,23,0,1,31,2,0,5,9,13,28,31,0,23,0,0,12,46,0,0,0,0,7,0,31,0,24,0,0,0,0,0,0,0,0,0,0,0,0,0,0,0,0,0,0,0,0,0,0,0],"split_type":[0,0,0,0,0,0,0,0,0,0,0,0,0,0,0,0,0,0,0,0,0,0,0,0,0,0,0,0,0,0,0,0,0,0,0,0,0,0,0,0,0,0,0,0,0,0,0,0,0,0,0,0,0,0,0,0,0,0,0,0,0,0,0,0,0],"sum_hessian":[6.58E2,5.55E2,1.03E2,5.42E2,1.3E1,4E0,9.9E1,5.05E2,3.7E1,1.2E1,1E0,3E0,1E0,1.2E1,8.7E1,4.95E2,1E1,5E0,3.2E1,8E0,4E0,2E0,1E1,2.6E1,6.1E1,4.78E2,1.7E1,3E0,7E0,4E0,1E0,7E0,2.5E1,2E0,6E0,3E0,1E0,8E0,2E0,2.3E1,3E0,5.8E1,3E0,4.74E2,4E0,4E0,1.3E1,1E0,2E0,3E0,4E0,2E0,5E0,1.7E1,8E0,4E0,4E0,2.2E1,1E0,1E0,2E0,2.7E1,3.1E1,1E0,2E0],"tree_param":{"num_deleted":"0","num_feature":"60","num_nodes":"65","size_leaf_vector":"0"}},{"base_weights":[5.06169E0,3.775408E-1,1.0398569E1,1.2194623E0,-2.3578522E1,4.4652428E1,9.218178E0,4.5328867E-2,1.2555771E1,6.3916016E0,-3.427874E1,9.699707E-2,7.433988E1,-1.1936421E1,1.02992325E1,3.4314784E-1,-1.8190258E1,2.4253208E1,-2.3182046E0,1.1294963E1,-4.1592407E0,-3.692772E1,-6.543457E0,3.5234375E0,-3.3617756E0,5.486241E0,-2.4161112E1,2.4279724E1,7.9841156E0,-1.2230847E-1,1.4132886E1,-1.6856079E0,-2.189502E1,2.9890495E1,-2.9499207E0,-1.7429565E1,2.9120991E0,-7.6723022E0,-4.001102E1,9.354706E0,2.4621582E-1,-3.47583E1,-2.2250519E0,1.53742485E1,5.324589E1,1.0499129E0,1.3964791E1,4.492294E-2,-1.238324E1,1.8151123E1,-1.2933756E0,1.1197815E1,4.4846863E1,-1.2115112E1,1.2272827E1,-2.1669678E1,-2.3546143E0,9.490214E0,-3.1422992E0,1.6514893E0,-7.727051E-1,-7.7042236E0,-3.8628273E1,-8.240967E0,2.527242E0,2.2342873E1,3.9339934E-2,6.728901E1,2.7299805E0,2.9536892E1,-1.3560004E0,3.583978E1,9.263977E0],"categories":[],"categories_nodes":[],"categories_segments":[],"categories_sizes":[],"default_left":[1,1,1,1,1,1,1,1,1,1,1,1,0,1,1,1,1,1,1,0,0,1,0,0,0,1,1,1,1,1,1,0,0,1,1,1,1,0,0,0,1,1,1,1,1,1,1,0,0,0,0,0,0,0,0,0,0,0,0,0,0,0,0,0,0,0,0,0,0,0,0,0,0],"id":17,"left_children":[1,3,5,7,9,11,13,15,17,19,21,23,-1,25,27,29,31,33,35,-1,-1,37,-1,-1,-1,39,41,43,45,47,49,-1,-1,51,53,55,57,-1,-1,-1,59,61,63,65,67,69,71,-1,-1,-1,-1,-1,-1,-1,-1,-1,-1,-1,-1,-1,-1,-1,-1,-1,-1,-1,-1,-1,-1,-1,-1,-1,-1],"loss_changes":[1.647024E4,7.1282847E3,1.2041746E4,4.538256E3,4.0673389E3,1.3220164E4,6.9608555E3,1.6898223E3,5.623821E3,2.5391684E2,4.1959668E2,7.11014E1,0E0,3.3273535E3,9.030596E3,1.9657959E3,2.688224E2,2.8485078E3,1.2363119E3,0E0,0E0,4.146494E2,0E0,0E0,0E0,1.395927E2,2.0148062E3,9.499684E3,1.0187256E4,6.095289E2,6.4333997E2,0E0,0E0,3.6914316E3,7.067643E2,2.0465417E2,5.0773938E2,0E0,0E0,0E0,7.003564E0,3.3058984E2,1.3518451E2,3.4187432E3,6.20091E3,7.92183E3,1.3241574E4,0E0,0E0,0E0,0E0,0E0,0E0,0E0,0E0,0E0,0E0,0E0,0E0,0E0,0E0,0E0,0E0,0E0,0E0,0E0,0E0,0E0,0E0,0E0,0E0,0E0,0E0],"parents":[2147483647,0,0,1,1,2,2,3,3,4,4,5,5,6,6,7,7,8,8,9,9,10,10,11,11,13,13,14,14,15,15,16,16,17,17,18,18,21,21,25,25,26,26,27,27,28,28,29,29,30,30,33,33,34,34,35,35,36,36,40,40,41,41,42,42,43,43,44,44,45,45,46,46],"right_children":[2,4,6,8,10,12,14,16,18,20,22,24,-1,26,28,30,32,34,36,-1,-1,38,-1,-1,-1,40,42,44,46,48,50,-1,-1,52,54,56,58,-1,-1,-1,60,62,64,66,68,70,72,-1,-1,-1,-1,-1,-1,-1,-1,-1,-1,-1,-1,-1,-1,-1,-1,-1,-1,-1,-1,-1,-1,-1,-1,-1,-1],"split_conditions":[1.83141E3,1.8201599E3,1.6745249E3,1.64394E3,1.79777E3,1.265125E3,1.882385E3,1.5531001E3,1.617505E3,2.157005E3,3.99833E3,1.090025E3,2.2301966E1,1.923265E3,2.239555E3,1.243925E3,5.49685E2,1.84153E3,1.7838049E3,3.388489E0,-1.2477722E0,1.1477151E3,-1.9630371E0,1.0570313E0,-1.0085328E0,1.82515E3,1.9025E3,2.15056E3,3.09308E3,1.7511951E3,1.8280549E3,-5.056824E-1,-6.5685062E0,1.2325349E3,1.665405E3,1.30606E3,1.830715E3,-2.3016908E0,-1.2003306E1,2.8064117E0,1.88144E3,1.9365701E3,2.619855E3,2.296125E3,2.40294E3,1.95181E3,3.081815E3,1.3476883E-2,-3.714972E0,5.4453373E0,-3.880127E-1,3.3593447E0,1.345406E1,-3.634534E0,3.6818483E0,-6.5009036E0,-7.063843E-1,2.8470645E0,-9.426898E-1,4.954468E-1,-2.3181154E-1,-2.3112671E0,-1.1588482E1,-2.47229E0,7.5817263E-1,6.7028623E0,1.180198E-2,2.0186703E1,8.1899416E-1,8.861068E0,-4.0680015E-1,1.0751934E1,2.7791932E0],"split_indices":[48,49,21,58,51,9,37,58,26,0,3,9,0,3,30,51,0,55,34,0,0,12,0,0,0,0,36,29,7,33,50,0,0,30,1,0,58,0,0,0,0,3,1,19,26,15,12,0,0,0,0,0,0,0,0,0,0,0,0,0,0,0,0,0,0,0,0,0,0,0,0,0,0],"split_type":[0,0,0,0,0,0,0,0,0,0,0,0,0,0,0,0,0,0,0,0,0,0,0,0,0,0,0,0,0,0,0,0,0,0,0,0,0,0,0,0,0,0,0,0,0,0,0,0,0,0,0,0,0,0,0,0,0,0,0,0,0,0,0,0,0,0,0,0,0,0,0,0,0],"sum_hessian":[6.58E2,3.51E2,3.07E2,3.4E2,1.1E1,9E0,2.98E2,3.09E2,3.1E1,3E0,8E0,4E0,5E0,1.4E1,2.84E2,3.05E2,4E0,1.7E1,1.4E1,2E0,1E0,7E0,1E0,2E0,2E0,6E0,8E0,3.9E1,2.45E2,2.96E2,9E0,1E0,3E0,1.4E1,3E0,3E0,1.1E1,1E0,6E0,3E0,3E0,5E0,3E0,3.1E1,8E0,1.14E2,1.31E2,2.93E2,3E0,7E0,2E0,7E0,7E0,2E0,1E0,2E0,1E0,5E0,6E0,1E0,2E0,1E0,4E0,1E0,2E0,2.1E1,1E1,6E0,2E0,8E0,1.06E2,2.2E1,1.09E2],"tree_param":{"num_deleted":"0","num_feature":"60","num_nodes":"73","size_leaf_vector":"0"}},{"base_weights":[3.6208892E0,1.9519111E0,1.4016797E1,2.8816328E0,-2.6667995E1,5.6006454E1,9.294825E0,1.3997225E0,1.995915E1,-4.2124718E1,1.1266235E1,2.1353516E1,6.2856792E1,1.3325086E1,-9.86403E0,2.0769215E0,-2.9447731E1,-5.492507E0,2.9675163E1,-1.8389069E1,-6.6751465E1,3.0035583E1,-1.7514975E1,1.782727E1,6.73905E1,4.036991E0,2.1248924E1,-2.862169E1,1.5662109E1,1.4940212E0,2.780067E1,-4.9985455E1,5.1946287E0,2.3539454E1,-2.1011095E1,7.637451E1,2.0276167E1,1.3366821E1,-2.483517E1,1.950064E1,-9.932753E0,2.8964304E1,-2.4790282E0,-3.305985E1,-8.725423E0,2.5627247E1,-6.167155E0,2.5558364E0,-1.918514E1,4.1905792E1,-7.359741E0,-1.6942139E0,-5.775163E1,2.556726E1,-6.290344E0,1.2531738E0,2.879773E1,1.1073405E1,-3.176001E1,9.306152E0,9.081506E1,2.5618032E1,-9.420019E0,-2.8267431E1,-1.0836345E1,2.7897623E1,-4.552246E0,-2.8126373E1,4.2019486E0,1.4503332E1,4.7036987E1,-1.0270822E1,1.1776367E1,2.3791504E0,-1.1629883E1],"categories":[],"categories_nodes":[],"categories_segments":[],"categories_sizes":[],"default_left":[1,1,1,1,1,1,1,1,1,1,1,0,1,1,1,1,1,1,1,1,0,0,0,0,0,1,1,1,1,1,1,1,1,1,1,1,1,0,1,1,1,1,1,0,0,0,1,0,0,0,0,0,0,0,0,0,0,0,0,0,0,0,0,0,0,0,0,0,0,0,0,0,0,0,0],"id":18,"left_children":[1,3,5,7,9,11,13,15,17,19,21,-1,23,25,27,29,31,33,35,37,-1,-1,-1,-1,-1,39,41,43,45,47,49,51,53,55,57,59,61,-1,63,65,67,69,71,-1,-1,-1,73,-1,-1,-1,-1,-1,-1,-1,-1,-1,-1,-1,-1,-1,-1,-1,-1,-1,-1,-1,-1,-1,-1,-1,-1,-1,-1,-1,-1],"loss_changes":[1.1406648E4,1.5217113E4,1.7522365E4,1.3941722E4,1.1028687E4,7.942461E2,6.540299E3,1.0694102E4,1.1043689E4,6.371418E3,3.7672998E3,0E0,2.2766602E2,4.9924365E3,7.6304355E3,7.440659E3,8.085882E3,6.3515454E3,1.2497084E4,1.9695806E3,0E0,0E0,0E0,0E0,0E0,7.322462E3,6.8453984E3,5.0626367E2,1.6807684E3,1.0786225E4,5.7637764E3,2.5274238E3,1.3307224E3,5.498484E2,3.4555535E3,3.9973809E3,4.683047E3,0E0,3.0018066E1,3.3585435E3,4.747091E3,6.6355664E3,1.231704E3,0E0,0E0,0E0,1.6772766E2,0E0,0E0,0E0,0E0,0E0,0E0,0E0,0E0,0E0,0E0,0E0,0E0,0E0,0E0,0E0,0E0,0E0,0E0,0E0,0E0,0E0,0E0,0E0,0E0,0E0,0E0,0E0,0E0],"parents":[2147483647,0,0,1,1,2,2,3,3,4,4,5,5,6,6,7,7,8,8,9,9,10,10,12,12,13,13,14,14,15,15,16,16,17,17,18,18,19,19,25,25,26,26,27,27,28,28,29,29,30,30,31,31,32,32,33,33,34,34,35,35,36,36,38,38,39,39,40,40,41,41,42,42,46,46],"right_children":[2,4,6,8,10,12,14,16,18,20,22,-1,24,26,28,30,32,34,36,38,-1,-1,-1,-1,-1,40,42,44,46,48,50,52,54,56,58,60,62,-1,64,66,68,70,72,-1,-1,-1,74,-1,-1,-1,-1,-1,-1,-1,-1,-1,-1,-1,-1,-1,-1,-1,-1,-1,-1,-1,-1,-1,-1,-1,-1,-1,-1,-1,-1],"split_conditions":[3.4023599E3,3.27748E3,3.48463E3,3.142385E3,2.91081E3,3.259385E3,4.43171E3,3.0341099E3,2.11145E3,2.572385E3,3.80717E3,6.406055E0,3.029115E3,3.931125E3,3.95233E3,3.737405E3,3.366335E3,3.144095E3,2.4174248E3,1.68346E3,-2.002544E1,9.010675E0,-5.2544928E0,5.3481812E0,2.0217152E1,3.58118E3,4.31454E3,4.4362197E3,4.561105E3,3.235565E3,3.2748599E3,2.46658E3,2.961815E3,1.875995E3,3.09381E3,2.071135E3,3.285125E3,4.0100465E0,3.0783599E3,3.285125E3,3.45079E3,3.417725E3,4.31711E3,-9.917955E0,-2.617627E0,7.6881742E0,4.418715E3,7.66751E-1,-5.7555423E0,1.2571738E1,-2.2079225E0,-5.082642E-1,-1.7325489E1,7.6701784E0,-1.8871033E0,3.7595215E-1,8.639319E0,3.3220217E0,-9.528004E0,2.7918458E0,2.724452E1,7.68541E0,-2.826006E0,-8.480229E0,-3.2509036E0,8.3692875E0,-1.3656739E0,-8.437912E0,1.2605846E0,4.351E0,1.4111096E1,-3.0812466E0,3.5329103E0,7.137451E-1,-3.488965E0],"split_indices":[43,45,43,54,3,41,7,49,22,26,29,0,45,40,51,26,28,50,36,4,0,0,0,0,0,41,25,18,1,21,35,0,0,3,53,26,2,0,37,25,32,6,45,0,0,0,0,0,0,0,0,0,0,0,0,0,0,0,0,0,0,0,0,0,0,0,0,0,0,0,0,0,0,0,0],"split_type":[0,0,0,0,0,0,0,0,0,0,0,0,0,0,0,0,0,0,0,0,0,0,0,0,0,0,0,0,0,0,0,0,0,0,0,0,0,0,0,0,0,0,0,0,0,0,0,0,0,0,0,0,0,0,0,0,0,0,0,0,0,0,0,0,0,0,0,0,0,0,0,0,0,0,0],"sum_hessian":[6.58E2,5.68E2,9E1,5.51E2,1.7E1,8E0,8.2E1,5.08E2,4.3E1,1.2E1,5E0,2E0,6E0,6.8E1,1.4E1,4.98E2,1E1,1.2E1,3.1E1,7E0,5E0,3E0,2E0,1E0,5E0,3.2E1,3.6E1,8E0,6E0,4.88E2,1E1,6E0,4E0,4E0,8E0,4E0,2.7E1,1E0,6E0,1.5E1,1.7E1,2.7E1,9E0,6E0,2E0,4E0,2E0,4.65E2,2.3E1,7E0,3E0,1E0,5E0,1E0,3E0,1E0,3E0,2E0,6E0,1E0,3E0,2.3E1,4E0,4E0,2E0,1.1E1,4E0,7E0,1E1,1.6E1,1.1E1,6E0,3E0,1E0,1E0],"tree_param":{"num_deleted":"0","num_feature":"60","num_nodes":"75","size_leaf_vector":"0"}},{"base_weights":[2.6106825E0,-3.814498E-1,6.816348E0,1.5093243E-1,-3.4124146E1,7.547998E1,6.0339684E0,-2.7528855E-1,4.0391083E1,-9.533569E0,-3.7135548E1,4.406765E1,5.30187E0,4.338051E-2,-1.334554E1,1.3489624E1,4.8339752E1,-1.9256014E1,6.3283615E0,-4.489183E-1,1.3597197E1,-1.844863E1,-2.3545227E0,-2.7358734E1,1.7634277E0,7.4966316E0,-9.665052E0,1.0132048E-1,-1.7815662E1,-7.2928467E0,1.594577E1,-2.6566975E0,-7.23999E-1,-1.3853577E1,-3.2691113E1,1.1402385E1,-1.3576721E1,4.1094074E0,1.571243E1,-1.8547869E1,1.7139843E1],"categories":[],"categories_nodes":[],"categories_segments":[],"categories_sizes":[],"default_left":[1,1,1,1,1,0,1,1,0,0,0,1,1,1,1,0,0,1,1,1,1,0,1,1,1,1,1,0,0,0,0,0,0,0,0,0,0,0,0,0,0],"id":19,"left_children":[1,3,5,7,9,-1,11,13,-1,-1,-1,15,17,19,21,-1,-1,23,25,27,29,-1,31,33,35,37,39,-1,-1,-1,-1,-1,-1,-1,-1,-1,-1,-1,-1,-1,-1],"loss_changes":[8.295395E3,6.9392583E3,1.4264115E4,6.5457256E3,9.027832E1,0E0,7.340036E3,1.5749811E3,0E0,0E0,0E0,1.0771484E0,6.8777285E3,2.4749395E3,4.613556E2,0E0,0E0,1.9217058E3,4.893089E3,3.4228018E3,7.5409375E2,0E0,4.7367096E-2,1.23228516E2,7.4625916E2,6.64216E3,4.6037607E3,0E0,0E0,0E0,0E0,0E0,0E0,0E0,0E0,0E0,0E0,0E0,0E0,0E0,0E0],"parents":[2147483647,0,0,1,1,2,2,3,3,4,4,6,6,7,7,11,11,12,12,13,13,14,14,17,17,18,18,19,19,20,20,22,22,23,23,24,24,25,25,26,26],"right_children":[2,4,6,8,10,-1,12,14,-1,-1,-1,16,18,20,22,-1,-1,24,26,28,30,-1,32,34,36,38,40,-1,-1,-1,-1,-1,-1,-1,-1,-1,-1,-1,-1,-1,-1],"split_conditions":[2.037385E3,2.84103E3,1.6180449E3,2.3195352E3,2.919795E3,2.2643995E1,1.99849E3,3.06767E3,1.2117326E1,-2.860071E0,-1.1140665E1,2.286E3,2.1390698E3,1.9365701E3,2.99734E3,4.0468874E0,1.4501926E1,2.25655E3,4.4279004E3,1.84899E3,1.59673E3,-5.534589E0,3.3963901E3,2.0756401E3,2.65015E3,3.40551E3,4.39225E3,3.0396147E-2,-5.344699E0,-2.187854E0,4.7837315E0,-7.970093E-1,-2.1719971E-1,-4.156073E0,-9.807334E0,3.4207156E0,-4.0730166E0,1.2328223E0,4.7137294E0,-5.5643606E0,5.141953E0],"split_indices":[52,32,21,45,0,0,53,8,0,0,0,0,53,58,20,0,0,50,4,55,46,0,0,50,1,30,28,0,0,0,0,0,0,0,0,0,0,0,0,0,0],"split_type":[0,0,0,0,0,0,0,0,0,0,0,0,0,0,0,0,0,0,0,0,0,0,0,0,0,0,0,0,0,0,0,0,0,0,0,0,0,0,0,0,0],"sum_hessian":[6.58E2,3.85E2,2.73E2,3.8E2,5E0,2E0,2.71E2,3.77E2,3E0,1E0,4E0,4E0,2.67E2,3.69E2,8E0,1E0,3E0,1E1,2.57E2,3.57E2,1.2E1,5E0,3E0,7E0,3E0,2.4E2,1.7E1,3.47E2,1E1,1E0,1.1E1,2E0,1E0,3E0,4E0,2E0,1E0,1.71E2,6.9E1,1.3E1,4E0],"tree_param":{"num_deleted":"0","num_feature":"60","num_nodes":"41","size_leaf_vector":"0"}},{"base_weights":[1.8592536E0,-1.3671792E0,3.9919806E0,-2.14259E0,-3.0262867E-1,7.295316E0,1.9127874E0,3.84066E0,-2.2888346E0,7.7522117E-1,-2.5084114E0,5.8007665E0,4.294499E1,-3.233613E0,7.4791136E0,8.3831024E-1,4.5620065E0,-2.4358618E0,3.649868E0,2.956589E-1,9.333427E0,-5.1232815E0,-1.0483422E0,4.2159986E0,1.9571306E1,5.4809765E1,-8.189453E0,-1.9813471E0,-2.8366129E1,5.017951E1,3.060748E0,-2.118168E0,-5.8069263E0,5.951805E0,8.986206E-1,-1.5003557E0,1.6570115E0,1.0722188E1,2.5835724E0,1.9161301E0,-7.426718E0,-1.5670404E0,3.2777913E0,5.538913E0,-2.4929321E1,3.724829E1,3.6479492E0,-1.3518567E1,1.5613976E0,-3.8259277E0,-3.2508984E1,9.404028E1,2.1976685E1,-1.1649182E1,6.3319597E0,-2.2675977E0,5.2125955E0,-1.8671163E0,-6.4081764E0,3.5645887E-1,-2.1341465E0,3.936377E0,-3.9708942E-1,3.043579E0,-7.331085E-1,-7.790982E0,-2.074173E0,-2.3348017E0,9.974162E-1,4.1427803E0,2.6137573E1,-3.2111816E0,-3.4985596E1,-1.4174561E1,2.074087E1,-1.93258E0,-4.9655586E1,1.7430061E1,-1.8731427E0,3.4023357E1,-9.44222E0,-2.5732248E0,-2.8136929E1,1.1783797E1,-4.78278E0],"categories":[],"categories_nodes":[],"categories_segments":[],"categories_sizes":[],"default_left":[1,1,1,1,1,1,1,1,1,1,1,1,1,1,1,0,0,1,1,1,1,1,1,1,1,0,0,1,1,1,1,1,1,0,0,1,1,0,0,1,1,1,0,1,1,0,1,1,1,0,0,0,1,1,1,0,0,0,0,0,0,0,0,0,0,0,0,0,0,0,0,0,0,0,0,0,0,0,0,0,0,0,0,0,0],"id":20,"left_children":[1,3,5,7,9,11,13,15,17,19,21,23,25,27,29,-1,-1,31,33,35,37,39,41,43,45,-1,-1,47,49,51,53,55,57,-1,-1,59,61,-1,-1,63,65,67,-1,69,71,-1,73,75,77,-1,-1,-1,79,81,83,-1,-1,-1,-1,-1,-1,-1,-1,-1,-1,-1,-1,-1,-1,-1,-1,-1,-1,-1,-1,-1,-1,-1,-1,-1,-1,-1,-1,-1,-1],"loss_changes":[4.5401025E3,2.1644873E2,2.71275E3,1.4179315E2,2.6822485E2,7.902758E3,7.042588E3,4.838562E0,1.3899005E2,3.0915915E2,1.3589099E2,3.1473071E3,4.0890537E3,3.972289E3,2.2108996E4,0E0,0E0,1.4406091E2,1.9984379E1,1.8097177E2,9.794189E0,2.2502344E2,6.1235367E1,5.3046865E3,4.0862734E3,0E0,0E0,5.048539E3,4.8562207E2,1.1540283E4,5.2706465E3,1.5970343E2,1.6460938E1,0E0,0E0,3.841935E1,1.9820908E2,0E0,0E0,1.41788E1,3.3375244E0,4.7613235E1,0E0,3.6015598E3,1.1980764E3,0E0,3.0357412E3,1.2045846E4,5.2102974E3,0E0,0E0,0E0,3.3492017E3,2.920439E3,5.449382E3,0E0,0E0,0E0,0E0,0E0,0E0,0E0,0E0,0E0,0E0,0E0,0E0,0E0,0E0,0E0,0E0,0E0,0E0,0E0,0E0,0E0,0E0,0E0,0E0,0E0,0E0,0E0,0E0,0E0,0E0],"parents":[2147483647,0,0,1,1,2,2,3,3,4,4,5,5,6,6,7,7,8,8,9,9,10,10,11,11,12,12,13,13,14,14,17,17,18,18,19,19,20,20,21,21,22,22,23,23,24,24,27,27,28,28,29,29,30,30,31,31,32,32,35,35,36,36,39,39,40,40,41,41,43,43,44,44,46,46,47,47,48,48,52,52,53,53,54,54],"right_children":[2,4,6,8,10,12,14,16,18,20,22,24,26,28,30,-1,-1,32,34,36,38,40,42,44,46,-1,-1,48,50,52,54,56,58,-1,-1,60,62,-1,-1,64,66,68,-1,70,72,-1,74,76,78,-1,-1,-1,80,82,84,-1,-1,-1,-1,-1,-1,-1,-1,-1,-1,-1,-1,-1,-1,-1,-1,-1,-1,-1,-1,-1,-1,-1,-1,-1,-1,-1,-1,-1,-1],"split_conditions":[5.94085E2,2.30075E2,2.33237E3,1.18774994E2,3.7078E2,2.3001948E3,3.16051E3,2.51815E2,2.8088E2,3.67175E2,3.75265E2,2.32005E3,2.10669E3,3.360975E3,3.2165498E3,2.514931E-1,1.368602E0,2.24095E2,1.4259E2,2.3407501E2,3.6789E2,3.53195E2,4.8028E2,2.267565E3,2.51154E3,1.644293E1,-2.456836E0,2.55349E3,3.3065352E3,2.74517E3,3.1522349E3,2.8388E2,2.25695E2,1.7855417E0,2.695862E-1,2.3970999E2,3.4997498E2,3.2166564E0,7.7507174E-1,2.54665E2,3.93645E2,4.117E2,9.833374E-1,2.51154E3,1.999815E3,1.1174488E1,2.049225E3,2.930635E3,2.53503E3,-1.1477784E0,-9.752695E0,2.8212086E1,3.0028198E3,3.2501602E3,4.1085254E3,-6.802793E-1,1.5637788E0,-5.6013495E-1,-1.922453E0,1.0693767E-1,-6.4024395E-1,1.1809132E0,-1.19126834E-1,9.130738E-1,-2.1993257E-1,-2.3372946E0,-6.222519E-1,-7.004405E-1,2.9922488E-1,1.2428341E0,7.8412724E0,-9.633545E-1,-1.0495679E1,-4.2523685E0,6.222261E0,-5.79774E-1,-1.4896676E1,5.2290187E0,-5.619428E-1,1.0207007E1,-2.832666E0,-7.719675E-1,-8.441079E0,3.5351393E0,-1.4348341E0],"split_indices":[59,19,23,23,16,23,20,2,43,16,8,31,10,16,21,0,0,18,5,7,0,49,34,30,32,0,0,25,10,37,28,56,21,0,0,18,30,0,0,0,17,4,0,42,15,0,13,57,18,0,0,0,2,0,15,0,0,0,0,0,0,0,0,0,0,0,0,0,0,0,0,0,0,0,0,0,0,0,0,0,0,0,0,0,0],"split_type":[0,0,0,0,0,0,0,0,0,0,0,0,0,0,0,0,0,0,0,0,0,0,0,0,0,0,0,0,0,0,0,0,0,0,0,0,0,0,0,0,0,0,0,0,0,0,0,0,0,0,0,0,0,0,0,0,0,0,0,0,0,0,0,0,0,0,0,0,0,0,0,0,0,0,0,0,0,0,0,0,0,0,0,0,0],"sum_hessian":[6.58E2,2.62E2,3.96E2,1.51E2,1.11E2,1.52E2,2.44E2,3E0,1.48E2,7.5E1,3.6E1,1.47E2,5E0,1.27E2,1.17E2,1E0,2E0,1.45E2,3E0,7.2E1,3E0,1.2E1,2.4E1,1.33E2,1.4E1,4E0,1E0,1.22E2,5E0,1E1,1.07E2,1.34E2,1.1E1,1E0,2E0,3.1E1,4.1E1,2E0,1E0,3E0,9E0,2.2E1,2E0,1.28E2,5E0,6E0,8E0,2.8E1,9.4E1,1E0,4E0,3E0,7E0,1.9E1,8.8E1,1.32E2,2E0,2E0,9E0,8E0,2.3E1,1.9E1,2.2E1,2E0,1E0,8E0,1E0,1.7E1,5E0,1.21E2,7E0,2E0,3E0,4E0,4E0,2.2E1,6E0,1.6E1,7.8E1,5E0,2E0,1.3E1,6E0,5.9E1,2.9E1],"tree_param":{"num_deleted":"0","num_feature":"60","num_nodes":"85","size_leaf_vector":"0"}},{"base_weights":[1.356766E0,5.110668E-1,6.6298E0,1.1298119E0,-1.8492174E1,3.6184433E1,3.3452032E0,7.948369E-1,3.1480062E1,-2.8224083E1,5.675659E0,2.0757853E1,5.02782E1,7.6874404E0,-2.8295062E0,2.0729667E-1,1.3054385E1,6.658179E1,-2.7162476E0,-1.0968628E1,-4.6527344E1,1.8985413E1,-1.3962565E1,1.7435439E0,2.2422642E1,-1.9346344E1,1.9906442E0,5.9354645E-1,-2.1917807E1,3.196102E1,-4.083758E0,-4.5021973E0,1.3208008E0,3.566325E0,-1.6407999E1,2.248226E1,4.2474365E0,1.0903719E1,-8.022393E0,1.0204617E1,3.7012573E1,-2.1587727E0,-2.4715738E1,1.1044405E1,-1.1001404E1,1.3165201E0,-1.1567892E1,1.8491821E1,-2.9280487E1,5.2521486E0,4.4658936E1,-2.2732748E1,8.802653E0,6.824707E0,-1.4752197E0,-4.413208E0,-1.7924316E1,4.5504E0,3.3591064E1,7.614502E0,-1.6475382E1,-1.574707E0,1.635673E1,4.4618946E1,-5.0964355E-1,1.6870117E-1,-3.4068604E0,2.1364136E1,1.6841797E0,-1.5952759E0,-1.3959527E1],"categories":[],"categories_nodes":[],"categories_segments":[],"categories_sizes":[],"default_left":[1,1,1,1,1,1,1,1,1,1,1,0,0,1,1,1,1,0,1,1,0,1,0,1,1,1,1,1,1,1,1,0,0,1,1,0,0,1,1,1,1,1,0,1,1,0,0,0,0,0,0,0,0,0,0,0,0,0,0,0,0,0,0,0,0,0,0,0,0,0,0],"id":21,"left_children":[1,3,5,7,9,11,13,15,17,19,21,-1,-1,23,25,27,29,-1,31,33,-1,35,-1,37,39,41,43,45,47,49,51,-1,-1,53,55,-1,-1,57,59,61,63,65,-1,67,69,-1,-1,-1,-1,-1,-1,-1,-1,-1,-1,-1,-1,-1,-1,-1,-1,-1,-1,-1,-1,-1,-1,-1,-1,-1,-1],"loss_changes":[2.9353567E3,6.7112866E3,8.712785E3,5.5869272E3,4.3937744E3,9.131006E2,2.247152E3,3.937322E3,7.382949E3,3.5954639E3,1.8333646E3,0E0,0E0,4.2525464E3,2.8249893E3,4.482471E3,8.231137E3,0E0,3.478637E1,6.9100433E2,0E0,1.1065381E2,0E0,3.3079507E3,2.1179424E3,6.849392E2,3.415057E3,4.5433154E3,3.2191582E3,3.835209E3,3.564568E3,0E0,0E0,5.9349777E1,3.0023682E1,0E0,0E0,2.5858064E3,2.504665E3,6.779667E2,1.7351875E3,9.289415E0,0E0,1.606134E3,3.116245E2,0E0,0E0,0E0,0E0,0E0,0E0,0E0,0E0,0E0,0E0,0E0,0E0,0E0,0E0,0E0,0E0,0E0,0E0,0E0,0E0,0E0,0E0,0E0,0E0,0E0,0E0],"parents":[2147483647,0,0,1,1,2,2,3,3,4,4,5,5,6,6,7,7,8,8,9,9,10,10,13,13,14,14,15,15,16,16,18,18,19,19,21,21,23,23,24,24,25,25,26,26,27,27,28,28,29,29,30,30,33,33,34,34,37,37,38,38,39,39,40,40,41,41,43,43,44,44],"right_children":[2,4,6,8,10,12,14,16,18,20,22,-1,-1,24,26,28,30,-1,32,34,-1,36,-1,38,40,42,44,46,48,50,52,-1,-1,54,56,-1,-1,58,60,62,64,66,-1,68,70,-1,-1,-1,-1,-1,-1,-1,-1,-1,-1,-1,-1,-1,-1,-1,-1,-1,-1,-1,-1,-1,-1,-1,-1,-1,-1],"split_conditions":[3.4023599E3,3.27748E3,3.48463E3,4.1085254E3,2.91081E3,3.357465E3,3.975855E3,3.16051E3,4.20021E3,2.572385E3,3.80717E3,6.227356E0,1.508346E1,3.961245E3,3.95142E3,3.44479E3,3.48463E3,1.9974537E1,4.195035E3,1.922155E3,-1.3958203E1,4.23242E3,-4.18877E0,3.79708E3,3.417725E3,4.25808E3,4.29129E3,3.53127E3,2.19838E3,2.12029E3,1.967365E3,-1.3506593E0,3.9624026E-1,2.0658E3,2.071135E3,6.744678E0,1.274231E0,4.10707E3,2.9100552E3,4.1493203E3,4.276535E3,4.46601E3,-7.414722E0,4.30873E3,4.2395596E3,3.9495605E-1,-3.4703677E0,5.5475464E0,-8.784146E0,1.5756446E0,1.3397681E1,-6.8198247E0,2.6407962E0,2.0474122E0,-4.4256595E-1,-1.3239625E0,-5.377295E0,1.3651199E0,1.007732E1,2.2843506E0,-4.9426146E0,-4.7241214E-1,4.907019E0,1.3385684E1,-1.5289307E-1,5.0610352E-2,-1.0220581E0,6.409241E0,5.052539E-1,-4.7858277E-1,-4.187858E0],"split_indices":[43,45,43,6,3,44,31,50,3,26,29,0,0,40,42,35,53,0,1,10,0,4,0,45,6,15,49,0,9,18,1,0,0,0,11,0,0,55,17,40,4,0,0,24,45,0,0,0,0,0,0,0,0,0,0,0,0,0,0,0,0,0,0,0,0,0,0,0,0,0,0],"split_type":[0,0,0,0,0,0,0,0,0,0,0,0,0,0,0,0,0,0,0,0,0,0,0,0,0,0,0,0,0,0,0,0,0,0,0,0,0,0,0,0,0,0,0,0,0,0,0,0,0,0,0,0,0,0,0,0,0,0,0,0,0,0,0,0,0,0,0,0,0,0,0],"sum_hessian":[6.58E2,5.68E2,9E1,5.51E2,1.7E1,8E0,8.2E1,5.46E2,5E0,1.2E1,5E0,5E0,3E0,4.8E1,3.4E1,5.22E2,2.4E1,2E0,3E0,7E0,5E0,3E0,2E0,3.5E1,1.3E1,7E0,2.7E1,5.14E2,8E0,1.1E1,1.3E1,2E0,1E0,2E0,5E0,2E0,1E0,1.8E1,1.7E1,8E0,5E0,2E0,5E0,1.6E1,1.1E1,4.86E2,2.8E1,1E0,7E0,4E0,7E0,5E0,8E0,1E0,1E0,1E0,4E0,1.5E1,3E0,6E0,1.1E1,3E0,5E0,4E0,1E0,1E0,1E0,7E0,9E0,3E0,8E0],"tree_param":{"num_deleted":"0","num_feature":"60","num_nodes":"71","size_leaf_vector":"0"}},{"base_weights":[1.0254574E0,-7.670948E-1,3.424604E0,-3.494894E-1,-2.0037659E1,2.8819143E1,2.2874856E0,-1.4556476E0,1.9200929E0,-2.7449219E1,1.464681E0,4.0088096E0,4.596812E1,2.8945892E1,1.8810635E0,-1.3352191E0,-7.0895996E0,4.7665167E0,-2.4177732E0,2.7289429E0,-5.319214E-1,7.822534E0,-7.529907E0,5.8229176E1,1.0210327E1,9.192302E0,4.4103333E1,-8.786833E0,2.6842992E0,-1.6028454E0,1.6085322E0,3.3607428E0,2.8527374E1,-2.8395996E1,1.1796612E0,1.9480387E0,1.1089519E1,-1.3071037E1,1.8419271E1,9.063078E0,1.003994E0,2.797264E0,-1.6745836E0,9.614914E0,-2.6002672E-1,4.2253175E0,-1.2177216E1,-3.317163E1,-1.2563151E1,9.678092E0,-2.6963935E0,-6.5664907E0,-2.7368652E1,2.5541666E0,4.4542816E1,-9.078092E0,3.8412232E0],"categories":[],"categories_nodes":[],"categories_segments":[],"categories_sizes":[],"default_left":[1,1,1,1,1,1,1,1,1,0,1,1,1,1,1,1,0,1,1,0,0,1,0,0,0,0,0,1,1,1,1,1,0,1,1,0,0,1,0,1,1,0,0,0,0,0,0,0,0,0,0,0,0,0,0,0,0],"id":22,"left_children":[1,3,5,7,9,11,13,15,17,-1,19,21,23,25,27,29,-1,31,33,-1,-1,35,-1,-1,-1,-1,-1,37,39,41,43,45,-1,47,49,-1,-1,51,-1,53,55,-1,-1,-1,-1,-1,-1,-1,-1,-1,-1,-1,-1,-1,-1,-1,-1],"loss_changes":[2.8367192E3,3.0349487E3,8.077277E3,9.3419684E2,1.3151318E3,4.921385E3,2.8817183E3,1.6015594E2,1.5179077E3,0E0,9.024268E0,3.2293588E2,2.474458E3,7.922444E2,2.3200352E3,1.963833E2,0E0,2.375904E3,4.6127905E3,0E0,0E0,7.43566E1,0E0,0E0,0E0,0E0,0E0,2.4553325E3,2.6704746E3,7.60224E1,3.1666843E2,1.0052473E3,0E0,3.6931152E1,1.4754727E3,0E0,0E0,1.4012754E3,0E0,1.1894822E4,5.7273037E3,0E0,0E0,0E0,0E0,0E0,0E0,0E0,0E0,0E0,0E0,0E0,0E0,0E0,0E0,0E0,0E0],"parents":[2147483647,0,0,1,1,2,2,3,3,4,4,5,5,6,6,7,7,8,8,10,10,11,11,12,12,13,13,14,14,15,15,17,17,18,18,21,21,27,27,28,28,29,29,30,30,31,31,33,33,34,34,37,37,39,39,40,40],"right_children":[2,4,6,8,10,12,14,16,18,-1,20,22,24,26,28,30,-1,32,34,-1,-1,36,-1,-1,-1,-1,-1,38,40,42,44,46,-1,48,50,-1,-1,52,-1,54,56,-1,-1,-1,-1,-1,-1,-1,-1,-1,-1,-1,-1,-1,-1,-1,-1],"split_conditions":[1.9859E3,2.50828E3,1.975165E3,3.8747998E2,3.0406401E3,1.895615E3,1.780575E3,6.0506E2,1.617505E3,-8.234766E0,3.262635E3,2.4557148E3,2.88658E3,3.25435E3,1.9859E3,4.4921E2,-2.12688E0,1.9473049E3,1.5986799E3,8.186829E-1,-1.5957642E-1,1.817735E3,-2.2589722E0,1.7468754E1,3.0630982E0,2.7576907E0,1.3231E1,3.831895E3,2.6248599E3,1.18774994E2,3.6841998E2,1.80769E3,8.558212E0,1.50914E3,1.617505E3,5.844116E-1,3.3268557E0,2.84103E3,5.5257816E0,2.598815E3,2.8908052E3,8.391793E-1,-5.0237507E-1,2.8844743E0,-7.800802E-2,1.2675953E0,-3.6531649E0,-9.951489E0,-3.7689455E0,2.9034276E0,-8.0891806E-1,-1.9699472E0,-8.210596E0,7.6625E-1,1.3362845E1,-2.7234275E0,1.152367E0],"split_indices":[37,24,34,5,3,33,57,52,40,0,0,0,0,0,54,53,0,58,37,0,0,33,0,0,0,0,0,11,43,23,22,22,0,0,26,0,0,32,0,43,39,0,0,0,0,0,0,0,0,0,0,0,0,0,0,0,0],"split_type":[0,0,0,0,0,0,0,0,0,0,0,0,0,0,0,0,0,0,0,0,0,0,0,0,0,0,0,0,0,0,0,0,0,0,0,0,0,0,0,0,0,0,0,0,0,0,0,0,0,0,0,0,0,0,0,0,0],"sum_hessian":[6.58E2,3.77E2,2.81E2,3.7E2,7E0,1.1E1,2.7E2,2.49E2,1.21E2,5E0,2E0,5E0,6E0,3E0,2.67E2,2.45E2,4E0,7.3E1,4.8E1,1E0,1E0,4E0,1E0,4E0,2E0,2E0,1E0,1.8E1,2.49E2,2.25E2,2E1,7E1,3E0,5E0,4.3E1,2E0,2E0,1.6E1,2E0,5.1E1,1.98E2,3E0,2.22E2,3E0,1.7E1,6.7E1,3E0,3E0,2E0,1.3E1,3E1,1.2E1,4E0,4.4E1,7E0,4.3E1,1.55E2],"tree_param":{"num_deleted":"0","num_feature":"60","num_nodes":"57","size_leaf_vector":"0"}},{"base_weights":[7.6950985E-1,-1.0290964E-1,4.0339775E0,5.473968E-1,-1.3026885E1,2.724449E1,1.2164444E0,4.9950965E-2,2.0648336E1,-2.1002949E1,-4.048753E0,3.7178433E0,4.2515827E1,-1.6503141E1,2.9007833E0,3.3272535E-1,-3.4107544E1,3.8612427E1,2.3007812E0,-6.9726562E0,-2.89003E1,-1.3617391E1,3.6338196E0,8.922485E0,-1.4851074E-1,1.6439697E1,5.2813946E1,1.4616699E0,-2.3422653E1,-1.7152374E1,4.3593435E0,1.800609E-1,3.6958496E1,-4.112679E1,-6.5249023E0,1.4732015E1,-5.6181154E0,8.775635E-1,-1.1117157E1,-3.5931053E1,-1.288678E1,-1.7718689E1,-3.6098633E0,8.417529E0,-3.2542725E0,1.3829346E0,-1.6304525E0,-3.8674316E0,8.724487E0,-2.5233694E1,-5.3726807E0,-3.1573079E0,-2.1291178E1,9.8780365E0,-1.3422761E0,6.349243E-1,-1.158058E1,-7.4122925E0,7.792969E-1,1.4576416E0,-1.4129639E-1,1.044572E1,3.583496E0,2.7947998E-1,1.7949219E0,-4.8913574E0,-9.0979004E-1,-6.019409E0,-2.743284E1,-5.382202E0,6.4624023E-1,-2.8709879E1,1.187588E1,-3.2925732E0,1.842915E1],"categories":[],"categories_nodes":[],"categories_segments":[],"categories_sizes":[],"default_left":[1,1,1,1,1,1,1,1,1,1,1,1,1,1,1,1,1,0,1,1,1,1,1,0,1,0,0,1,1,1,1,1,0,0,0,0,1,1,0,0,0,0,0,1,0,1,0,1,0,1,0,1,0,1,1,0,0,0,0,0,0,0,0,0,0,0,0,0,0,0,0,0,0,0,0],"id":23,"left_children":[1,3,5,7,9,11,13,15,17,19,21,23,25,27,29,31,33,-1,35,37,39,41,43,-1,45,-1,-1,47,49,51,53,55,-1,-1,-1,-1,57,59,-1,-1,-1,-1,-1,61,-1,63,-1,65,-1,67,-1,69,-1,71,73,-1,-1,-1,-1,-1,-1,-1,-1,-1,-1,-1,-1,-1,-1,-1,-1,-1,-1,-1,-1],"loss_changes":[1.8772373E3,4.3858984E3,9.056957E3,4.9685347E3,1.7052178E3,5.2311846E3,3.7785957E3,4.705557E3,3.8663262E3,1.238916E3,1.005136E3,1.42186E2,1.5485703E3,1.4016211E3,3.4383772E3,2.694017E3,5.0608936E2,0E0,7.718577E2,2.0496747E2,4.3766162E2,1.8230115E2,2.90998E2,0E0,1.3602373E1,0E0,0E0,1.8855852E2,1.2594141E2,3.961599E2,3.4115317E3,2.5858044E3,0E0,0E0,0E0,0E0,6.316684E1,1.9790146E0,0E0,0E0,0E0,0E0,0E0,1.1589508E1,0E0,8.621831E-1,0E0,4.635109E0,0E0,1.3065625E2,0E0,2.8865673E1,0E0,4.581049E3,2.142928E3,0E0,0E0,0E0,0E0,0E0,0E0,0E0,0E0,0E0,0E0,0E0,0E0,0E0,0E0,0E0,0E0,0E0,0E0,0E0,0E0],"parents":[2147483647,0,0,1,1,2,2,3,3,4,4,5,5,6,6,7,7,8,8,9,9,10,10,11,11,12,12,13,13,14,14,15,15,16,16,18,18,19,19,20,20,21,21,22,22,24,24,27,27,28,28,29,29,30,30,31,31,36,36,37,37,43,43,45,45,47,47,49,49,51,51,53,53,54,54],"right_children":[2,4,6,8,10,12,14,16,18,20,22,24,26,28,30,32,34,-1,36,38,40,42,44,-1,46,-1,-1,48,50,52,54,56,-1,-1,-1,-1,58,60,-1,-1,-1,-1,-1,62,-1,64,-1,66,-1,68,-1,70,-1,72,74,-1,-1,-1,-1,-1,-1,-1,-1,-1,-1,-1,-1,-1,-1,-1,-1,-1,-1,-1,-1],"split_conditions":[3.0574302E3,3.009235E3,3.156175E3,3.01225E3,3.0066401E3,3.10923E3,2.4851099E3,2.94907E3,3.4347148E3,2.68565E3,3.203475E3,2.084475E3,2.956935E3,3.2859648E3,2.6645498E3,4.059665E3,3.25353E3,1.1583729E1,2.427635E3,2.7476401E3,3.32762E3,2.970095E3,3.2344702E3,2.6767457E0,3.303835E3,4.9319096E0,1.5844184E1,3.2665898E3,4.283455E3,3.081815E3,3.5714E3,3.06374E3,1.1087549E1,-1.23380375E1,-1.9574708E0,4.419605E0,2.930325E3,2.97697E3,-3.3351471E0,-1.0779316E1,-3.866034E0,-5.315607E0,-1.082959E0,3.0795752E3,-9.7628176E-1,3.2269302E3,-4.8913577E-1,2.8841348E3,2.6173463E0,3.33365E3,-1.6118042E0,3.39604E3,-6.3873534E0,2.48915E3,4.62838E3,1.904773E-1,-3.474174E0,-2.223688E0,2.3378907E-1,4.372925E-1,-4.2388916E-2,3.133716E0,1.0750489E0,8.3844E-2,5.384766E-1,-1.4674072E0,-2.7293703E-1,-1.8058228E0,-8.229853E0,-1.6146607E0,1.9387208E-1,-8.612964E0,3.5627642E0,-9.87772E-1,5.528745E0],"split_indices":[13,17,13,21,59,13,45,19,28,43,17,39,9,1,32,47,0,0,2,31,21,12,15,0,0,0,0,0,0,16,37,29,0,0,0,0,14,0,0,0,0,0,0,0,0,0,0,0,0,3,0,0,0,19,18,0,0,0,0,0,0,0,0,0,0,0,0,0,0,0,0,0,0,0,0],"split_type":[0,0,0,0,0,0,0,0,0,0,0,0,0,0,0,0,0,0,0,0,0,0,0,0,0,0,0,0,0,0,0,0,0,0,0,0,0,0,0,0,0,0,0,0,0,0,0,0,0,0,0,0,0,0,0,0,0,0,0,0,0,0,0,0,0,0,0,0,0,0,0,0,0,0,0],"sum_hessian":[6.58E2,5.2E2,1.38E2,4.96E2,2.4E1,1.4E1,1.24E2,4.85E2,1.1E1,1.2E1,1.2E1,6E0,8E0,1E1,1.14E2,4.82E2,3E0,5E0,6E0,5E0,7E0,5E0,7E0,2E0,4E0,3E0,5E0,3E0,7E0,7E0,1.07E2,4.81E2,1E0,2E0,1E0,2E0,4E0,2E0,3E0,4E0,3E0,3E0,2E0,4E0,3E0,2E0,2E0,2E0,1E0,6E0,1E0,2E0,5E0,5.4E1,5.3E1,4.64E2,1.7E1,3E0,1E0,1E0,1E0,2E0,2E0,1E0,1E0,1E0,1E0,1E0,5E0,1E0,1E0,2E0,5.2E1,4.9E1,4E0],"tree_param":{"num_deleted":"0","num_feature":"60","num_nodes":"75","size_leaf_vector":"0"}},{"base_weights":[5.254157E-1,4.1235378E-1,2.511084E1,6.442573E-1,-8.356029E0,1.8423057E-1,9.690454E0,7.9497886E0,-1.1060123E1,4.9490875E-1,-1.5365031E1,2.1890503E1,-3.3683267E-1,-1.5951389E1,-3.1913364E0,2.9713252E-1,2.9889282E1,-1.8171778E1,-8.8753253E-1,-1.3416341E1,2.8893005E1,-7.5260854E0,1.52960205E1,-1.9675503E1,-1.9446615E0,2.0208333E0,-5.6803713E0,1.1724513E-1,1.79965E1,5.493164E-1,-2.0312935E1,1.2528076E0,-2.5841064E0,3.0504217E1,5.584839E0,-1.087677E0,-1.4856282E1,8.275818E0,1.9557617E1,6.1157227E-2,-2.9781494E0,3.7426758E-1,2.6569824E0],"categories":[],"categories_nodes":[],"categories_segments":[],"categories_sizes":[],"default_left":[1,1,0,1,1,1,1,0,1,1,1,1,1,1,1,1,0,1,1,0,1,1,1,0,1,1,0,0,0,0,0,0,0,0,0,0,0,0,0,0,0,0,0],"id":24,"left_children":[1,3,-1,5,7,9,11,-1,13,15,17,19,21,23,25,27,-1,29,31,-1,33,35,37,-1,39,41,-1,-1,-1,-1,-1,-1,-1,-1,-1,-1,-1,-1,-1,-1,-1,-1,-1],"loss_changes":[1.8214515E3,1.3413396E3,0E0,2.665731E3,8.374977E2,2.959233E3,3.7997083E3,0E0,5.264187E2,3.4792239E3,4.7148804E2,3.8489463E3,2.1381128E3,4.3120166E2,1.0229198E2,1.8986744E3,0E0,4.120061E2,1.41311245E1,0E0,2.80292E2,5.973736E2,1.7648438E1,0E0,6.401105E0,2.1479616E0,0E0,0E0,0E0,0E0,0E0,0E0,0E0,0E0,0E0,0E0,0E0,0E0,0E0,0E0,0E0,0E0,0E0],"parents":[2147483647,0,0,1,1,3,3,4,4,5,5,6,6,8,8,9,9,10,10,11,11,12,12,13,13,14,14,15,15,17,17,18,18,20,20,21,21,22,22,24,24,25,25],"right_children":[2,4,-1,6,8,10,12,-1,14,16,18,20,22,24,26,28,-1,30,32,-1,34,36,38,-1,40,42,-1,-1,-1,-1,-1,-1,-1,-1,-1,-1,-1,-1,-1,-1,-1,-1,-1],"split_conditions":[4.67275E3,4.2947695E3,7.5332522E0,3.948085E3,4.0190498E3,3.96972E3,4.16649E3,2.3849366E0,4.195025E3,3.98704E3,4.402995E3,2.4861602E3,3.928935E3,4.29128E3,3.5974448E3,3.8978901E3,8.966785E0,3.638435E3,4.5180303E3,-4.0249023E0,4.30059E3,4.29129E3,4.276545E3,-5.902651E0,4.46601E3,3.481325E3,-1.7041115E0,3.517354E-2,5.39895E0,1.6479492E-1,-6.0938807E0,3.758423E-1,-7.7523196E-1,9.151265E0,1.6754518E0,-3.2630312E-1,-4.456885E0,2.4827454E0,5.8672853E0,1.8347168E-2,-8.9344484E-1,1.1228028E-1,7.9709476E-1],"split_indices":[43,30,0,15,18,2,10,0,48,4,0,45,51,18,1,24,0,6,0,0,4,7,24,0,0,0,0,0,0,0,0,0,0,0,0,0,0,0,0,0,0,0,0],"split_type":[0,0,0,0,0,0,0,0,0,0,0,0,0,0,0,0,0,0,0,0,0,0,0,0,0,0,0,0,0,0,0,0,0,0,0,0,0,0,0,0,0,0,0],"sum_hessian":[6.58E2,6.56E2,2E0,6.4E2,1.6E1,6.1E2,3E1,2E0,1.4E1,5.99E2,1.1E1,1.3E1,1.7E1,8E0,6E0,5.96E2,3E0,9E0,2E0,2E0,1.1E1,1.2E1,5E0,6E0,2E0,2E0,4E0,5.91E2,5E0,1E0,8E0,1E0,1E0,1E1,1E0,7E0,5E0,3E0,2E0,1E0,1E0,1E0,1E0],"tree_param":{"num_deleted":"0","num_feature":"60","num_nodes":"43","size_leaf_vector":"0"}},{"base_weights":[3.9934373E-1,-1.0884048E0,1.7899374E0,-7.629986E-1,-1.5483224E1,4.3605835E1,1.4146051E0,-1.0190194E0,1.0574341E1,-3.3967285E0,-1.6931519E1,3.9231E0,-4.8052287E-1,-6.426796E-1,-6.6897135E0,-2.8523865E0,2.1357483E1,2.8605819E0,3.3313988E1,-9.446118E0,1.4837043E0,-1.1130676E0,1.6018837E1,1.2241943E0,-8.881701E0,-9.303406E0,2.3990886E0,2.4196207E1,6.4206543E0,-4.2538824E0,5.227499E0,4.3730103E1,-4.175232E0,-1.6257545E1,1.9322771E0,2.8992105E1,9.520024E-1,-1.4570647E0,3.012254E-1,2.5313416E1,5.379407E0,-4.124634E0,3.5925598E0,-9.702674E0,-2.3635864E0,2.571519E0,-9.842779E0,3.985906E1,3.495603E0,1.9890747E0,-2.1741203E1,1.5123378E1,-9.851471E0,-2.901062E1,1.3276281E0],"categories":[],"categories_nodes":[],"categories_segments":[],"categories_sizes":[],"default_left":[1,1,1,1,1,0,1,1,1,0,0,1,1,1,1,1,1,1,1,1,1,1,1,1,1,0,0,0,0,1,1,0,0,1,1,0,1,0,0,0,0,0,0,0,0,0,0,0,0,0,0,0,0,0,0],"id":25,"left_children":[1,3,5,7,9,-1,11,13,15,-1,-1,17,19,21,23,25,27,29,31,33,35,37,39,41,43,-1,-1,-1,-1,45,47,-1,-1,49,51,-1,53,-1,-1,-1,-1,-1,-1,-1,-1,-1,-1,-1,-1,-1,-1,-1,-1,-1,-1],"loss_changes":[1.3653228E3,1.4824344E3,5.2902607E3,9.1928754E2,6.502197E1,0E0,1.6134634E3,6.5087177E2,1.074396E3,0E0,0E0,4.4640415E3,3.4304458E3,2.2828328E3,3.4046967E2,1.5782916E2,1.425061E1,2.4134243E3,2.1350435E3,2.7440237E3,2.312603E3,1.3763553E2,6.549409E2,7.81579E1,5.733484E1,0E0,0E0,0E0,0E0,1.3985836E3,6.278342E3,0E0,0E0,2.2445254E3,2.325156E3,0E0,1.8167631E3,0E0,0E0,0E0,0E0,0E0,0E0,0E0,0E0,0E0,0E0,0E0,0E0,0E0,0E0,0E0,0E0,0E0,0E0],"parents":[2147483647,0,0,1,1,2,2,3,3,4,4,6,6,7,7,8,8,11,11,12,12,13,13,14,14,15,15,16,16,17,17,18,18,19,19,20,20,21,21,22,22,23,23,24,24,29,29,30,30,33,33,34,34,36,36],"right_children":[2,4,6,8,10,-1,12,14,16,-1,-1,18,20,22,24,26,28,30,32,34,36,38,40,42,44,-1,-1,-1,-1,46,48,-1,-1,50,52,-1,54,-1,-1,-1,-1,-1,-1,-1,-1,-1,-1,-1,-1,-1,-1,-1,-1,-1,-1],"split_conditions":[1.64315E3,1.5306001E3,5.5696497E2,1.4631699E3,5.49685E2,1.3081751E1,2.700805E3,1.18052E3,1.777375E3,-1.0190187E0,-5.079456E0,2.635815E3,2.8908052E3,5.8798E2,5.8967004E2,7.44295E2,2.13386E3,1.80277E3,3.44317E3,3.228415E3,2.172935E3,3.8891998E2,6.02735E2,4.7928998E2,1.8029299E3,-2.7910218E0,7.197266E-1,7.2588625E0,1.9261963E0,1.55346E3,1.58379E3,1.3119031E1,-1.2525697E0,2.5684102E3,3.267305E3,8.697632E0,1.831145E3,-4.3711945E-1,9.036762E-2,7.594025E0,1.6138221E0,-1.2373902E0,1.077768E0,-2.9108024E0,-7.090759E-1,7.714557E-1,-2.952834E0,1.1957718E1,1.048681E0,5.967224E-1,-6.5223613E0,4.5370135E0,-2.9554415E0,-8.703186E0,3.9828846E-1],"split_indices":[58,58,1,56,0,0,38,56,42,0,0,38,39,23,16,1,0,32,10,17,25,48,22,2,40,0,0,0,0,33,20,0,0,41,20,0,11,0,0,0,0,0,0,0,0,0,0,0,0,0,0,0,0,0,0],"split_type":[0,0,0,0,0,0,0,0,0,0,0,0,0,0,0,0,0,0,0,0,0,0,0,0,0,0,0,0,0,0,0,0,0,0,0,0,0,0,0,0,0,0,0,0,0,0,0,0,0,0,0,0,0,0,0],"sum_hessian":[6.58E2,3.18E2,3.4E2,3.12E2,6E0,2E0,3.38E2,3.06E2,6E0,1E0,5E0,1.45E2,1.93E2,2.88E2,1.8E1,3E0,3E0,1.41E2,4E0,3.4E1,1.59E2,2.81E2,7E0,4E0,1.4E1,1E0,2E0,2E0,1E0,3.5E1,1.06E2,3E0,1E0,2.1E1,1.3E1,2E0,1.57E2,2.26E2,5.5E1,3E0,4E0,1E0,3E0,1.2E1,2E0,1.6E1,1.9E1,4E0,1.02E2,5E0,1.6E1,6E0,7E0,1E0,1.56E2],"tree_param":{"num_deleted":"0","num_feature":"60","num_nodes":"55","size_leaf_vector":"0"}},{"base_weights":[3.3710068E-1,2.4761052E-1,1.982308E1,4.2695197E-1,-6.529182E0,-8.361383E-2,4.9526367E0,6.09432E0,-8.618604E0,6.9228756E-1,-6.5397673E0,1.2355626E1,-6.325298E-1,-1.1304754E1,-9.8535156E-1,3.7464347E-1,2.7629599E1,-1.9487143E1,-4.2607646E0,2.1162808E0,2.108864E1,-1.2253077E1,3.3963666E0,-1.495745E1,-3.9300294E0,1.4521484E0,-3.0944011E0,-3.657495E-2,1.3098999E1,3.8959473E1,3.3132324E0,-8.171916E0,-3.1588196E1,-2.397406E1,-2.6310797E0,-4.509546E0,1.4944677E1,2.979777E1,6.8785224E0,4.903971E0,-1.7155334E1,1.6719273E1,-8.060993E-1,-1.7292286E1,-6.0802407E0,-4.8389893E0,-1.4709473E-1,1.18896484E-1,2.0593262E0],"categories":[],"categories_nodes":[],"categories_segments":[],"categories_sizes":[],"default_left":[1,1,0,1,1,1,1,0,1,1,1,1,1,1,1,1,1,1,1,1,1,1,1,1,1,1,0,0,0,0,0,0,0,0,0,0,0,0,0,0,0,0,0,0,0,0,0,0,0],"id":26,"left_children":[1,3,-1,5,7,9,11,-1,13,15,17,19,21,23,25,27,29,31,33,35,37,39,41,43,45,47,-1,-1,-1,-1,-1,-1,-1,-1,-1,-1,-1,-1,-1,-1,-1,-1,-1,-1,-1,-1,-1,-1,-1],"loss_changes":[1.1442579E3,8.01279E2,0E0,1.4815471E3,5.009135E2,2.894916E3,2.6953652E3,0E0,2.9642175E2,4.4047915E3,1.7464099E3,2.4591401E3,1.820699E3,2.3753076E2,3.019757E1,2.674281E3,1.5239263E3,9.741992E2,1.6717515E3,1.2573759E3,1.6514019E3,9.2521204E2,1.6371602E3,3.994641E1,1.6480888E1,2.1837158E0,0E0,0E0,0E0,0E0,0E0,0E0,0E0,0E0,0E0,0E0,0E0,0E0,0E0,0E0,0E0,0E0,0E0,0E0,0E0,0E0,0E0,0E0,0E0],"parents":[2147483647,0,0,1,1,3,3,4,4,5,5,6,6,8,8,9,9,10,10,11,11,12,12,13,13,14,14,15,15,16,16,17,17,18,18,19,19,20,20,21,21,22,22,23,23,24,24,25,25],"right_children":[2,4,-1,6,8,10,12,-1,14,16,18,20,22,24,26,28,30,32,34,36,38,40,42,44,46,48,-1,-1,-1,-1,-1,-1,-1,-1,-1,-1,-1,-1,-1,-1,-1,-1,-1,-1,-1,-1,-1,-1,-1],"split_conditions":[4.67275E3,4.2947695E3,5.946924E0,3.427065E3,4.0190498E3,3.00405E3,3.86399E3,1.8282961E0,4.30059E3,2.979955E3,3.064025E3,3.3518452E3,3.052665E3,4.29128E3,3.682855E3,2.9397798E3,3.44479E3,2.72458E3,1.88395E3,2.79531E3,3.233975E3,1.705735E3,3.503365E3,4.565295E3,4.71724E3,3.481325E3,-9.2832035E-1,-1.0972485E-2,3.9297E0,1.1687842E1,9.9396974E-1,-2.4515748E0,-9.4764595E0,-7.1922183E0,-7.893239E-1,-1.3528638E0,4.483403E0,8.939331E0,2.063557E0,1.4711914E0,-5.1466007E0,5.015782E0,-2.418298E-1,-5.187686E0,-1.8240722E0,-1.4516969E0,-4.4128418E-2,3.5668947E-2,6.1779785E-1],"split_indices":[43,30,0,49,18,49,53,0,54,49,49,54,28,18,0,47,33,0,7,5,3,9,30,8,7,0,0,0,0,0,0,0,0,0,0,0,0,0,0,0,0,0,0,0,0,0,0,0,0],"split_type":[0,0,0,0,0,0,0,0,0,0,0,0,0,0,0,0,0,0,0,0,0,0,0,0,0,0,0,0,0,0,0,0,0,0,0,0,0,0,0,0,0,0,0,0,0,0,0,0,0],"sum_hessian":[6.58E2,6.56E2,2E0,6.4E2,1.6E1,5.76E2,6.4E1,2E0,1.4E1,5.15E2,6.1E1,2.7E1,3.7E1,1E1,4E0,5.1E2,5E0,8E0,5.3E1,1.3E1,1.4E1,9E0,2.8E1,6E0,4E0,2E0,2E0,4.95E2,1.5E1,3E0,2E0,5E0,3E0,3E0,5E1,9E0,4E0,8E0,6E0,2E0,7E0,6E0,2.2E1,4E0,2E0,3E0,1E0,1E0,1E0],"tree_param":{"num_deleted":"0","num_feature":"60","num_nodes":"49","size_leaf_vector":"0"}},{"base_weights":[2.5253862E-1,1.8089387E-1,1.58585615E1,2.8204408E-1,-9.251918E0,6.976316E-2,1.3882276E1,-1.4248169E1,-1.942688E0,5.973026E-1,-3.1724486E0,2.5798779E1,1.638143E0,-3.3741047E0,1.1757812E0,4.9916945E-2,1.0138395E1,-1.3882963E1,-6.690542E-1,6.741333E0,2.8877808E1,-2.7674968E0,4.532837E0,7.0549023E-1,-7.1178255E0,1.8627634E1,2.5508819E0,-5.951304E0,-2.7432455E1,8.190582E0,-3.0603275E0,-1.25E-1,-4.026245E0,1.3991699E0,5.1110024E0],"categories":[],"categories_nodes":[],"categories_segments":[],"categories_sizes":[],"default_left":[1,1,0,1,1,1,1,0,1,1,1,1,1,0,0,1,1,1,1,0,0,1,1,0,0,0,0,0,0,0,0,0,0,0,0],"id":27,"left_children":[1,3,-1,5,7,9,11,-1,13,15,17,19,21,-1,-1,23,25,27,29,-1,-1,31,33,-1,-1,-1,-1,-1,-1,-1,-1,-1,-1,-1,-1],"loss_changes":[7.339524E2,6.294735E2,0E0,1.8785139E3,2.2795148E2,1.0999683E3,1.4168104E3,0E0,2.1822529E1,2.8876235E3,2.4038496E3,9.8717285E1,8.9062485E1,0E0,0E0,2.4672874E3,1.8848496E3,1.66373E3,1.592816E3,0E0,0E0,9.475433E0,9.5954895E-2,0E0,0E0,0E0,0E0,0E0,0E0,0E0,0E0,0E0,0E0,0E0,0E0],"parents":[2147483647,0,0,1,1,3,3,4,4,5,5,6,6,8,8,9,9,10,10,11,11,12,12,15,15,16,16,17,17,18,18,21,21,22,22],"right_children":[2,4,-1,6,8,10,12,-1,14,16,18,20,22,-1,-1,24,26,28,30,-1,-1,32,34,-1,-1,-1,-1,-1,-1,-1,-1,-1,-1,-1,-1],"split_conditions":[4.67275E3,4.6276396E3,4.757569E0,4.4279004E3,4.276535E3,3.238505E3,4.0652852E3,-4.274451E0,4.6206846E3,3.129025E3,2.636415E3,3.928025E3,4.5032803E3,-1.0122315E0,3.527344E-1,2.92427E3,3.22345E3,2.836835E3,3.27033E3,2.0224E0,8.663342E0,4.329435E3,4.19125E3,2.1164708E-1,-2.1353478E0,5.58829E0,7.652646E-1,-1.7853912E0,-8.229737E0,2.4571748E0,-9.180983E-1,-3.75E-2,-1.2078736E0,4.19751E-1,1.5333008E0],"split_indices":[43,2,0,2,13,22,14,0,0,25,3,10,4,0,0,32,39,53,16,0,0,0,0,0,0,0,0,0,0,0,0,0,0,0,0],"split_type":[0,0,0,0,0,0,0,0,0,0,0,0,0,0,0,0,0,0,0,0,0,0,0,0,0,0,0,0,0,0,0,0,0,0,0],"sum_hessian":[6.58E2,6.56E2,2E0,6.5E2,6E0,6.41E2,9E0,3E0,3E0,5.52E2,8.9E1,4E0,5E0,2E0,1E0,5.23E2,2.9E1,1.6E1,7.3E1,1E0,3E0,2E0,3E0,4.8E2,4.3E1,1.3E1,1.6E1,1.1E1,5E0,1.5E1,5.8E1,1E0,1E0,1E0,2E0],"tree_param":{"num_deleted":"0","num_feature":"60","num_nodes":"35","size_leaf_vector":"0"}},{"base_weights":[1.8764436E-1,-8.797239E-1,1.4836164E0,-4.6984327E-1,-1.1034624E1,2.8096241E1,1.0259744E0,-7.6937246E-1,9.761133E0,-1.2707632E1,5.357239E0,-4.0481567E0,3.714438E1,1.891211E1,6.5108585E-1,-3.4375632E-1,-8.364075E0,2.3427277E1,5.5746025E-1,-1.689209E1,-5.0104165E0,2.2492004E1,7.8348794E0,-1.302921E1,9.8716706E-1,-8.667964E-1,8.070505E0,-2.0690165E1,-2.0317194E0,5.11145E0,-4.135895E0,-1.8278809E1,-3.5925293E0,1.1531576E-1,-7.602112E0,-1.9852295E1,-2.948822E0,1.53588E1,6.204213E-1,-6.053053E-1,-8.520251E0,2.995285E1,2.0955124E0,-4.274048E0,-2.311858E1,-7.510376E0,1.2377251E0,-3.687561E0,-2.009609E1,1.2526855E0,-1.0797119E0,-8.774658E0,-2.0422363E0,1.5820923E0,-4.9864907E0,4.6080565E0,2.8157104E1,9.604395E0,1.05668336E-1],"categories":[],"categories_nodes":[],"categories_segments":[],"categories_sizes":[],"default_left":[1,1,1,1,1,1,1,1,1,1,0,0,0,1,1,1,1,0,1,1,1,0,0,1,1,1,1,1,1,0,0,1,0,1,1,0,1,1,1,0,0,0,0,0,0,0,0,0,0,0,0,0,0,0,0,0,0,0,0],"id":28,"left_children":[1,3,5,7,9,11,13,15,17,19,-1,-1,-1,21,23,25,27,-1,29,31,33,-1,-1,35,37,39,41,43,45,-1,-1,47,-1,49,51,-1,53,55,57,-1,-1,-1,-1,-1,-1,-1,-1,-1,-1,-1,-1,-1,-1,-1,-1,-1,-1,-1,-1],"loss_changes":[9.128863E2,1.5015669E3,3.6005317E3,1.077012E3,4.520099E2,1.6046011E3,1.9590468E3,1.0961501E3,1.2447273E3,3.3407642E2,0E0,0E0,0E0,6.1709717E1,1.3415945E3,1.4285172E3,1.3629208E3,0E0,1.7075485E2,8.1874756E1,8.058264E1,0E0,0E0,4.2291455E2,1.4820894E3,6.052421E2,2.4214236E3,1.4038086E2,2.4215392E2,0E0,0E0,1.1150928E2,0E0,5.4301043E0,8.156937E0,0E0,4.4819107E1,8.333894E2,1.279979E3,0E0,0E0,0E0,0E0,0E0,0E0,0E0,0E0,0E0,0E0,0E0,0E0,0E0,0E0,0E0,0E0,0E0,0E0,0E0,0E0],"parents":[2147483647,0,0,1,1,2,2,3,3,4,4,5,5,6,6,7,7,8,8,9,9,13,13,14,14,15,15,16,16,18,18,19,19,20,20,23,23,24,24,25,25,26,26,27,27,28,28,31,31,33,33,34,34,36,36,37,37,38,38],"right_children":[2,4,6,8,10,12,14,16,18,20,-1,-1,-1,22,24,26,28,-1,30,32,34,-1,-1,36,38,40,42,44,46,-1,-1,48,-1,50,52,-1,54,56,58,-1,-1,-1,-1,-1,-1,-1,-1,-1,-1,-1,-1,-1,-1,-1,-1,-1,-1,-1,-1],"split_conditions":[1.88546E3,1.92086E3,1.6745249E3,1.825565E3,2.7529648E3,1.10845E3,1.942265E3,1.64315E3,1.5525701E3,2.365895E3,1.6071717E0,-1.214447E0,1.1143314E1,2.920415E3,1.847495E3,1.386005E3,1.69449E3,7.0281835E0,1.917675E3,2.67677E3,1.851845E3,6.7476015E0,2.3504639E0,3.0248198E3,1.961845E3,1.14921E3,6.09945E2,7.3045496E2,1.46994E3,1.5334351E0,-1.2407684E0,1.14023E3,-1.0777588E0,2.2809E3,2.362375E3,-5.9556885E0,3.07013E3,2.37201E3,1.968095E3,-1.815916E-1,-2.5560756E0,8.985855E0,6.2865376E-1,-1.2822144E0,-6.935574E0,-2.2531128E0,3.7131757E-1,-1.1062684E0,-6.028827E0,3.7580568E-1,-3.2391357E-1,-2.6323977E0,-6.126709E-1,4.746277E-1,-1.4959472E0,1.382417E0,8.447132E0,2.8813186E0,3.1700503E-2],"split_indices":[40,45,21,43,6,1,40,40,26,56,0,0,0,0,45,45,41,0,43,8,19,0,0,0,42,37,0,4,21,0,0,0,0,0,2,0,1,33,34,0,0,0,0,0,0,0,0,0,0,0,0,0,0,0,0,0,0,0,0],"split_type":[0,0,0,0,0,0,0,0,0,0,0,0,0,0,0,0,0,0,0,0,0,0,0,0,0,0,0,0,0,0,0,0,0,0,0,0,0,0,0,0,0,0,0,0,0,0,0,0,0,0,0,0,0,0,0,0,0,0,0],"sum_hessian":[6.58E2,3.61E2,2.97E2,3.48E2,1.3E1,4E0,2.93E2,3.39E2,9E0,1.2E1,1E0,1E0,3E0,5E0,2.88E2,3.22E2,1.7E1,3E0,6E0,7E0,5E0,3E0,2E0,6E0,2.82E2,3.04E2,1.8E1,5E0,1.2E1,3E0,3E0,6E0,1E0,2E0,3E0,3E0,3E0,6E0,2.76E2,2.95E2,9E0,3E0,1.5E1,1E0,4E0,4E0,8E0,1E0,5E0,1E0,1E0,2E0,1E0,1E0,2E0,4E0,2E0,1.4E1,2.62E2],"tree_param":{"num_deleted":"0","num_feature":"60","num_nodes":"59","size_leaf_vector":"0"}},{"base_weights":[1.6030572E-1,-5.206703E-1,1.6817017E0,-2.9975387E-1,-1.2854523E1,3.0899862E1,7.9230136E-1,-4.3687156E-1,1.1963672E1,-2.041831E1,-1.8615723E-1,4.3990967E1,1.3356567E1,2.3962341E1,3.1540105E-1,-2.569483E-1,-1.165822E1,1.4655151E1,5.9887695E-1,-2.319987E0,3.107666E0,-8.568807E0,8.899691E-1,-3.679339E-1,1.5995605E1,8.388672E-1,-1.3880879E1,6.1961265E0,-1.2141406E1,2.028772E1,2.3843315E-1,-1.1177127E-1,-5.997629E0,-1.5143707E1,-8.8134766E-2,4.024821E0,2.7412964E1,-8.594343E0,9.7747767E-1],"categories":[],"categories_nodes":[],"categories_segments":[],"categories_sizes":[],"default_left":[1,1,1,1,1,1,1,1,1,0,1,0,0,0,1,1,1,0,0,0,0,1,1,1,0,0,0,0,1,1,1,0,0,0,0,0,0,0,0],"id":29,"left_children":[1,3,5,7,9,11,13,15,17,-1,19,-1,-1,-1,21,23,25,-1,-1,-1,-1,27,29,31,-1,-1,-1,-1,33,35,37,-1,-1,-1,-1,-1,-1,-1,-1],"loss_changes":[6.8362213E2,1.2386333E3,5.2767925E3,7.6023474E2,7.6276575E2,7.9039844E2,2.191352E3,8.954513E2,1.4416394E2,0E0,3.5323578E1,0E0,0E0,0E0,1.00812415E3,7.977534E2,2.0608148E2,0E0,0E0,0E0,0E0,7.082199E2,2.3332542E3,6.2953503E2,0E0,0E0,0E0,0E0,3.6054077E2,5.8493066E2,1.1834075E3,0E0,0E0,0E0,0E0,0E0,0E0,0E0,0E0],"parents":[2147483647,0,0,1,1,2,2,3,3,4,4,5,5,6,6,7,7,8,8,10,10,14,14,15,15,16,16,21,21,22,22,23,23,28,28,29,29,30,30],"right_children":[2,4,6,8,10,12,14,16,18,-1,20,-1,-1,-1,22,24,26,-1,-1,-1,-1,28,30,32,-1,-1,-1,-1,34,36,38,-1,-1,-1,-1,-1,-1,-1,-1],"split_conditions":[2.59073E3,2.613955E3,2.5503398E3,2.714945E3,2.7154648E3,2.49494E3,2.508135E3,2.531625E3,3.0824849E3,-6.1254935E0,2.85585E3,1.319729E1,4.0069704E0,7.1887026E0,1.80896E3,2.6640952E3,2.278065E3,4.3965454E0,1.7966309E-1,-6.9599617E-1,9.3229985E-1,1.6745249E3,1.813915E3,2.322595E3,4.7986817E0,2.5166017E-1,-4.164264E0,1.858838E0,1.822255E3,1.7906E3,2.11351E3,-3.3531383E-2,-1.7992889E0,-4.5431123E0,-2.644043E-2,1.2074463E0,8.223889E0,-2.578303E0,2.9324332E-1],"split_indices":[54,55,53,57,55,50,55,53,8,0,0,0,0,0,2,51,3,0,0,0,0,4,4,52,0,0,0,0,1,1,1,0,0,0,0,0,0,0,0],"split_type":[0,0,0,0,0,0,0,0,0,0,0,0,0,0,0,0,0,0,0,0,0,0,0,0,0,0,0,0,0,0,0,0,0,0,0,0,0,0,0],"sum_hessian":[6.58E2,4.55E2,2.03E2,4.48E2,7E0,5E0,1.98E2,4.44E2,4E0,4E0,3E0,2E0,3E0,3E0,1.95E2,4.38E2,6E0,3E0,1E0,2E0,1E0,1.1E1,1.84E2,4.36E2,2E0,1E0,5E0,2E0,9E0,5E0,1.79E2,4.18E2,1.8E1,7E0,2E0,2E0,3E0,1.3E1,1.66E2],"tree_param":{"num_deleted":"0","num_feature":"60","num_nodes":"39","size_leaf_vector":"0"}},{"base_weights":[1.5253285E-1,-6.5856034E-1,1.239202E0,-4.1978386E-1,-1.838733E1,1.5655426E1,5.9627247E-1,-1.8883604E-1,-5.5754395E0,3.7272137E-2,2.6805925E1,-1.7653473E1,8.6643183E-1,-4.1194448E-1,1.1089181E1,4.7266846E0,-9.403371E0,4.92218E0,-6.488363E0,9.236816E0,3.7673553E1,8.286275E0,1.3605359E-1,-1.4973761E-1,-6.750401E0,1.7099274E1,2.3067932E0,9.285889E0,-1.408081E0,-1.3905326E1,-2.5838623E0,1.0230713E0,5.8808594E0,-1.0074463E0,-8.725098E0,-2.3857055E0,1.4848511E1,-5.4086175E0,9.9444836E-1,-3.914741E-1,1.3372172E1,-1.5258077E1,-3.285726E-1,-1.3878174E0,4.000936E0,8.654785E-1,-2.9776E0,-1.5922546E1,-9.01001E-1,-3.6452637E0,1.3615723E0,5.122528E-1,-9.318359E0,6.1878257E0,2.3862461E1,1.5666992E1,-7.273721E0,1.3272095E1,-1.3816428E-1],"categories":[],"categories_nodes":[],"categories_segments":[],"categories_sizes":[],"default_left":[1,1,1,1,0,1,1,1,1,1,1,0,1,1,1,1,1,1,1,0,0,1,1,1,1,0,1,0,1,1,1,0,0,0,0,1,1,1,1,0,0,0,0,0,0,0,0,0,0,0,0,0,0,0,0,0,0,0,0],"id":30,"left_children":[1,3,5,7,-1,9,11,13,15,17,19,-1,21,23,25,27,29,31,33,-1,-1,35,37,39,41,-1,43,-1,45,47,49,-1,-1,-1,-1,51,53,55,57,-1,-1,-1,-1,-1,-1,-1,-1,-1,-1,-1,-1,-1,-1,-1,-1,-1,-1,-1,-1],"loss_changes":[5.8165204E2,1.5924359E3,2.6044148E3,4.4426428E2,0E0,2.0888032E3,1.3514176E3,9.078915E2,6.7542004E2,2.2319965E2,9.885581E2,0E0,1.4512429E3,5.8567053E2,3.3003625E2,1.5292355E2,3.32484E2,8.935448E0,2.7987999E1,0E0,0E0,1.7161935E3,1.1714602E3,1.116606E3,7.598744E2,0E0,3.058936E1,0E0,1.3282234E1,1.6928198E2,3.0089424E1,0E0,0E0,0E0,0E0,2.0567876E2,1.0233479E3,1.4111277E3,2.9637727E3,0E0,0E0,0E0,0E0,0E0,0E0,0E0,0E0,0E0,0E0,0E0,0E0,0E0,0E0,0E0,0E0,0E0,0E0,0E0,0E0],"parents":[2147483647,0,0,1,1,2,2,3,3,5,5,6,6,7,7,8,8,9,9,10,10,12,12,13,13,14,14,15,15,16,16,17,17,18,18,21,21,22,22,23,23,24,24,26,26,28,28,29,29,30,30,35,35,36,36,37,37,38,38],"right_children":[2,4,6,8,-1,10,12,14,16,18,20,-1,22,24,26,28,30,32,34,-1,-1,36,38,40,42,-1,44,-1,46,48,50,-1,-1,-1,-1,52,54,56,58,-1,-1,-1,-1,-1,-1,-1,-1,-1,-1,-1,-1,-1,-1,-1,-1,-1,-1,-1,-1],"split_conditions":[1.9859E3,2.061675E3,1.975165E3,1.895615E3,-5.516199E0,1.895615E3,1.950185E3,2.1335898E3,1.7966951E3,2.303685E3,2.11823E3,-5.296042E0,2.265255E3,1.92794E3,2.3340752E3,2.833105E3,1.96102E3,1.45136E3,2.3199648E3,2.771045E0,1.1302067E1,1.957975E3,2.5442651E3,1.84036E3,1.6269099E3,5.129782E0,2.482095E3,2.7857666E0,2.975225E3,1.99533E3,3.044915E3,3.069214E-1,1.7642579E0,-3.022339E-1,-2.6175294E0,2.2145498E3,2.470155E3,1.80197E3,2.6248599E3,-1.17442235E-1,4.011652E0,-4.577423E0,-9.8571785E-2,-4.1634524E-1,1.2002809E0,2.5964355E-1,-8.932801E-1,-4.776764E0,-2.703003E-1,-1.0935792E0,4.084717E-1,1.5367585E-1,-2.795508E0,1.8563478E0,7.1587386E0,4.700098E0,-2.1821165E0,3.9816287E0,-4.1449286E-2],"split_indices":[37,39,34,38,0,33,39,49,54,2,39,0,39,56,7,10,41,2,0,0,0,53,42,59,37,0,1,0,0,36,6,0,0,0,0,38,10,3,43,0,0,0,0,0,0,0,0,0,0,0,0,0,0,0,0,0,0,0,0],"split_type":[0,0,0,0,0,0,0,0,0,0,0,0,0,0,0,0,0,0,0,0,0,0,0,0,0,0,0,0,0,0,0,0,0,0,0,0,0,0,0,0,0,0,0,0,0,0,0,0,0,0,0,0,0,0,0,0,0,0,0],"sum_hessian":[6.58E2,3.77E2,2.81E2,3.73E2,4E0,1.1E1,2.7E2,3.58E2,1.5E1,5E0,6E0,3E0,2.67E2,3.52E2,6E0,4E0,1.1E1,3E0,2E0,3E0,3E0,2.3E1,2.44E2,3.39E2,1.3E1,3E0,3E0,2E0,2E0,6E0,5E0,1E0,2E0,1E0,1E0,9E0,1.4E1,3.2E1,2.12E2,3.34E2,5E0,5E0,8E0,1E0,2E0,1E0,1E0,5E0,1E0,4E0,1E0,7E0,2E0,8E0,6E0,2E0,3E1,1.7E1,1.95E2],"tree_param":{"num_deleted":"0","num_feature":"60","num_nodes":"59","size_leaf_vector":"0"}},{"base_weights":[1.3227311E-1,-2.8683442E-1,1.8564112E0,1.1381619E-1,-1.1089304E1,8.741136E0,-1.3877098E-1,-1.9168842E-1,2.222482E1,-2.061023E1,-3.8179119E0,2.8924255E0,1.4801008E1,-1.3349343E1,1.4596363E0,2.669044E-1,-1.5251327E1,2.684851E1,-2.758667E0,-3.0753582E0,-2.5942627E1,9.303223E0,-9.225315E0,1.4576782E1,-9.252554E-1,2.1830051E1,1.7906088E0,-2.1956194E1,1.3701172E0,1.2697288E1,-8.448471E-2,5.2085187E-2,1.5174055E1,-6.3500977E-1,-2.0508623E1,-4.455078E0,-1.5795898E-1,-2.87521E1,-5.947632E0,1.2874756E1,-7.056885E-1,-1.2354736E0,-1.0069611E1,-4.9632325E0,9.401001E0,9.51123E0,2.6404257E1,-4.8275146E0,1.0017903E1,-6.5238037E0,-2.3440958E1,-2.9949543E0,5.278483E0,1.8981934E0,1.6509674E1,6.353668E0,-1.6439689E0,-3.0466235E-1,7.606279E0,2.1709625E1,4.8449707E0,-3.7491863E0,2.6908367E0,-2.3794258E1,-3.815511E0,-1.850586E-1,-6.9845843E0,2.2872314E0,1.1009847E1,-1.3753662E0,-5.5197754E0,-3.6594238E0,-8.330078E-1,-3.419515E0,8.925659E0,4.0543213E0,1.7709822E1,1.4083374E1,1.5598588E0,-5.2792897E0,2.1513302E0],"categories":[],"categories_nodes":[],"categories_segments":[],"categories_sizes":[],"default_left":[1,1,1,1,1,1,1,1,1,1,1,1,1,1,1,1,1,0,0,1,1,1,1,0,1,1,1,1,1,1,1,1,1,1,1,0,0,0,0,0,0,0,0,1,1,0,0,1,0,0,0,1,0,1,1,1,1,0,0,0,0,0,0,0,0,0,0,0,0,0,0,0,0,0,0,0,0,0,0,0,0],"id":31,"left_children":[1,3,5,7,9,11,13,15,17,19,21,23,25,27,29,31,33,-1,-1,35,37,39,41,-1,43,45,47,49,51,53,55,57,59,61,63,-1,-1,-1,-1,-1,-1,-1,-1,65,67,-1,-1,69,-1,-1,-1,71,-1,73,75,77,79,-1,-1,-1,-1,-1,-1,-1,-1,-1,-1,-1,-1,-1,-1,-1,-1,-1,-1,-1,-1,-1,-1,-1,-1],"loss_changes":[4.767254E2,2.2994387E3,1.7731931E3,3.4695818E3,1.2366892E3,9.850198E2,2.1521885E3,3.5055354E3,8.82678E2,6.682405E2,9.372403E2,7.2720154E2,1.24122E3,1.4236527E3,1.5801313E3,1.5779644E3,1.1396113E3,0E0,0E0,1.1371864E1,1.6604517E2,1.5207422E2,4.8271362E1,0E0,5.887228E2,2.5600244E2,3.7505713E2,7.470215E0,1.011103E2,4.2153503E2,8.237013E2,1.314753E3,3.673628E2,6.1874813E1,5.1253467E2,0E0,0E0,0E0,0E0,0E0,0E0,0E0,0E0,9.529117E1,2.0597778E1,0E0,0E0,1.9674377E0,0E0,0E0,0E0,1.2613144E0,0E0,1.8000148E2,4.7784668E1,5.709078E2,9.219681E2,0E0,0E0,0E0,0E0,0E0,0E0,0E0,0E0,0E0,0E0,0E0,0E0,0E0,0E0,0E0,0E0,0E0,0E0,0E0,0E0,0E0,0E0,0E0,0E0],"parents":[2147483647,0,0,1,1,2,2,3,3,4,4,5,5,6,6,7,7,8,8,9,9,10,10,11,11,12,12,13,13,14,14,15,15,16,16,19,19,20,20,21,21,22,22,24,24,25,25,26,26,27,27,28,28,29,29,30,30,31,31,32,32,33,33,34,34,43,43,44,44,47,47,51,51,53,53,54,54,55,55,56,56],"right_children":[2,4,6,8,10,12,14,16,18,20,22,24,26,28,30,32,34,-1,-1,36,38,40,42,-1,44,46,48,50,52,54,56,58,60,62,64,-1,-1,-1,-1,-1,-1,-1,-1,66,68,-1,-1,70,-1,-1,-1,72,-1,74,76,78,80,-1,-1,-1,-1,-1,-1,-1,-1,-1,-1,-1,-1,-1,-1,-1,-1,-1,-1,-1,-1,-1,-1,-1,-1],"split_conditions":[3.1457651E3,2.9982349E3,2.939045E3,2.985125E3,3.0574302E3,3.228415E3,3.10645E3,2.8908052E3,3.6731602E3,2.9839E3,2.82183E3,2.60418E3,3.8070151E3,3.6386401E3,3.081815E3,2.8417651E3,2.81724E3,8.054554E0,-8.276001E-1,2.71701E3,3.42538E3,3.423245E3,2.0866401E3,4.373035E0,3.48463E3,3.254125E3,3.4667852E3,2.175455E3,3.610195E3,3.2834302E3,3.052665E3,2.9064102E3,2.869065E3,2.845775E3,3.32879E3,-1.3365235E0,-4.7387697E-2,-8.62563E0,-1.7842896E0,3.862427E0,-2.1170655E-1,-3.706421E-1,-3.0208833E0,2.021965E3,1.94371E3,2.8533692E0,7.9212775E0,1.692925E3,3.005371E0,-1.9571412E0,-7.0322876E0,2.920965E3,1.583545E0,3.993655E3,3.01662E3,3.42965E3,4.0392148E3,-9.139871E-2,2.2818837E0,6.512888E0,1.4534912E0,-1.124756E0,8.0725104E-1,-7.1382775E0,-1.1446533E0,-5.551758E-2,-2.0953753E0,6.8616945E-1,3.3029542E0,-4.1260988E-1,-1.6559327E0,-1.0978272E0,-2.4990235E-1,-1.0258545E0,2.677698E0,1.2162964E0,5.312947E0,4.2250123E0,4.6795765E-1,-1.583787E0,6.453991E-1],"split_indices":[40,39,26,40,39,51,25,40,19,38,55,29,49,46,45,40,43,0,0,0,26,0,0,0,35,41,5,13,2,30,15,34,37,0,56,0,0,0,0,0,0,0,0,9,0,0,0,2,0,0,0,0,0,2,0,55,22,0,0,0,0,0,0,0,0,0,0,0,0,0,0,0,0,0,0,0,0,0,0,0,0],"split_type":[0,0,0,0,0,0,0,0,0,0,0,0,0,0,0,0,0,0,0,0,0,0,0,0,0,0,0,0,0,0,0,0,0,0,0,0,0,0,0,0,0,0,0,0,0,0,0,0,0,0,0,0,0,0,0,0,0,0,0,0,0,0,0,0,0,0,0,0,0,0,0,0,0,0,0,0,0,0,0,0,0],"sum_hessian":[6.58E2,5.3E2,1.28E2,5.12E2,1.8E1,2.8E1,1E2,5.06E2,6E0,7E0,1.1E1,1.5E1,1.3E1,1E1,9E1,4.92E2,1.4E1,5E0,1E0,2E0,5E0,3E0,8E0,3E0,1.2E1,8E0,5E0,6E0,4E0,1E1,8E1,4.86E2,6E0,4E0,1E1,1E0,1E0,4E0,1E0,2E0,1E0,1E0,7E0,9E0,3E0,3E0,5E0,3E0,2E0,1E0,5E0,2E0,2E0,3E0,7E0,1.5E1,6.5E1,4.65E2,2.1E1,3E0,3E0,2E0,2E0,8E0,2E0,3E0,6E0,1E0,2E0,1E0,2E0,1E0,1E0,2E0,1E0,1E0,6E0,5E0,1E1,3.3E1,3.2E1],"tree_param":{"num_deleted":"0","num_feature":"60","num_nodes":"81","size_leaf_vector":"0"}},{"base_weights":[1.2042844E-1,6.230014E-2,1.2810384E1,1.923802E-1,-4.8461485E0,4.5643136E-2,8.592263E0,-6.7513776E0,3.0336914E0,4.0208885E-1,-2.4500546E0,1.2798279E1,-1.9678345E0,-8.089742E0,8.5253906E-1,9.5458984E-2,3.9812825E0,1.5097026E-2,8.245535E0,-9.415276E0,-5.316608E-1,2.354004E0,1.588737E1,5.520833E-1,-4.763794E0,-1.0669922E1,-3.731242E0,1.8494873E0,-5.706787E-1,-1.731718E-1,7.48676E0,3.0289185E1,4.053355E0,-1.411589E1,-6.835589E-1,2.4966526E0,-4.937209E0,2.9960938E0,5.349121E-1,4.173218E0,1.7395557E1,1.1173096E0,-2.8918457E-1,-1.1443278E1,-3.0148926E0],"categories":[],"categories_nodes":[],"categories_segments":[],"categories_sizes":[],"default_left":[1,1,0,1,1,1,1,1,1,1,1,1,1,1,1,0,0,1,1,1,1,1,1,1,0,1,0,0,0,0,0,0,0,0,0,0,0,0,0,0,0,0,0,0,0],"id":32,"left_children":[1,3,-1,5,7,9,11,13,15,17,19,21,23,25,27,-1,-1,29,31,33,35,37,39,41,-1,43,-1,-1,-1,-1,-1,-1,-1,-1,-1,-1,-1,-1,-1,-1,-1,-1,-1,-1,-1],"loss_changes":[4.8531033E2,4.204211E2,0E0,7.8968787E2,2.7570087E2,5.6231067E2,5.1376025E2,1.493722E2,1.07569275E1,1.678424E3,1.0505952E3,2.2070764E2,3.0812363E1,9.5136536E1,5.312086E0,0E0,0E0,7.440242E2,2.2799116E3,6.881061E2,8.528335E2,1.9014149E0,3.340735E1,1.7496288E0,0E0,6.9401855E0,0E0,0E0,0E0,0E0,0E0,0E0,0E0,0E0,0E0,0E0,0E0,0E0,0E0,0E0,0E0,0E0,0E0,0E0,0E0],"parents":[2147483647,0,0,1,1,3,3,4,4,5,5,6,6,7,7,8,8,9,9,10,10,11,11,12,12,13,13,14,14,17,17,18,18,19,19,20,20,21,21,22,22,23,23,25,25],"right_children":[2,4,-1,6,8,10,12,14,16,18,20,22,24,26,28,-1,-1,30,32,34,36,38,40,42,-1,44,-1,-1,-1,-1,-1,-1,-1,-1,-1,-1,-1,-1,-1,-1,-1,-1,-1,-1,-1],"split_conditions":[4.67275E3,4.2947695E3,3.8431153E0,4.32292E3,4.4407197E3,3.238505E3,3.96212E3,4.679415E3,3.48129E3,3.10645E3,2.636415E3,4.2089854E3,4.169505E3,4.303615E3,4.3033203E3,2.8637696E-2,1.1943848E0,3.113725E3,3.13198E3,3.5508E3,3.91104E3,4.4617695E3,4.002165E3,4.004E3,-1.4291382E0,4.71838E3,-1.1193726E0,5.548462E-1,-1.7120361E-1,-5.1951542E-2,2.2460282E0,9.086756E0,1.2160066E0,-4.234767E0,-2.0506768E-1,7.489958E-1,-1.4811628E0,8.9882815E-1,1.6047364E-1,1.2519654E0,5.2186675E0,3.351929E-1,-8.675537E-2,-3.4329836E0,-9.044678E-1],"split_indices":[43,30,0,19,54,22,56,8,0,21,3,8,1,18,0,0,0,24,21,25,7,0,2,0,0,2,0,0,0,0,0,0,0,0,0,0,0,0,0,0,0,0,0,0,0],"split_type":[0,0,0,0,0,0,0,0,0,0,0,0,0,0,0,0,0,0,0,0,0,0,0,0,0,0,0,0,0,0,0,0,0,0,0,0,0,0,0,0,0,0,0,0,0],"sum_hessian":[6.58E2,6.56E2,2E0,6.4E2,1.6E1,6.3E2,1E1,1.3E1,3E0,5.52E2,7.8E1,7E0,3E0,1.1E1,2E0,1E0,2E0,5.27E2,2.5E1,1.6E1,6.2E1,2E0,5E0,2E0,1E0,6E0,5E0,1E0,1E0,5.15E2,1.2E1,3E0,2.2E1,1E1,6E0,3.7E1,2.5E1,1E0,1E0,1E0,4E0,1E0,1E0,5E0,1E0],"tree_param":{"num_deleted":"0","num_feature":"60","num_nodes":"45","size_leaf_vector":"0"}},{"base_weights":[1.05052724E-1,5.857704E-2,1.024821E1,4.929083E-1,-1.2395071E0,2.0966525E-1,1.2885043E1,-7.255657E0,3.7732306E-1,3.831498E-1,-1.164202E1,1.8134277E0,1.895262E1,-1.5795462E0,-1.0537925E1,7.362157E0,-8.004572E-1,2.2271316E-1,1.2940308E1,-1.5647558E1,-1.0854492E0,-5.60083E0,8.62321E0,-6.8509655E0,6.590841E0,-5.2009125E0,-1.2681804E1,1.0554588E1,-7.248108E0,-9.735708E0,3.5755E-1,3.7085503E-2,1.0984482E1,1.9279114E1,1.751302E-1,-7.972819E-1,-8.466692E0,8.342725E0,-1.0842896E0,-7.7396445E0,1.6101888E0,-1.3393084E1,-1.3619385E0,1.9784008E1,5.8294473E0,-1.2177124E0,-1.2169336E1,1.1980408E1,-6.3543314E-1],"categories":[],"categories_nodes":[],"categories_segments":[],"categories_sizes":[],"default_left":[1,1,0,1,1,1,1,1,1,1,1,1,0,1,1,1,1,1,1,0,0,0,0,1,1,1,1,1,0,1,1,0,0,0,0,0,0,0,0,0,0,0,0,0,0,0,0,0,0],"id":33,"left_children":[1,3,-1,5,7,9,11,13,15,17,19,21,-1,23,25,27,29,31,33,-1,-1,-1,-1,35,37,39,41,43,-1,45,47,-1,-1,-1,-1,-1,-1,-1,-1,-1,-1,-1,-1,-1,-1,-1,-1,-1,-1],"loss_changes":[3.1005896E2,3.710266E2,0E0,1.7277216E3,1.6077081E3,9.975494E2,7.045873E2,6.3542285E2,1.0835775E3,9.580957E2,2.790086E2,3.0074454E2,0E0,6.4812714E2,1.8576514E2,9.62704E2,1.1727015E3,9.4249854E2,4.8211963E2,0E0,0E0,0E0,0E0,8.127954E1,8.972159E1,1.5079478E2,1.0253345E2,5.8243506E2,0E0,2.5466638E2,1.1732842E3,0E0,0E0,0E0,0E0,0E0,0E0,0E0,0E0,0E0,0E0,0E0,0E0,0E0,0E0,0E0,0E0,0E0,0E0],"parents":[2147483647,0,0,1,1,3,3,4,4,5,5,6,6,7,7,8,8,9,9,10,10,11,11,13,13,14,14,15,15,16,16,17,17,18,18,23,23,24,24,25,25,26,26,27,27,29,29,30,30],"right_children":[2,4,-1,6,8,10,12,14,16,18,20,22,-1,24,26,28,30,32,34,-1,-1,-1,-1,36,38,40,42,44,-1,46,48,-1,-1,-1,-1,-1,-1,-1,-1,-1,-1,-1,-1,-1,-1,-1,-1,-1,-1],"split_conditions":[4.67275E3,2.853495E3,3.0744631E0,2.856895E3,2.99734E3,2.7766401E3,3.121145E3,3.129025E3,2.658005E3,2.799575E3,2.85024E3,2.601565E3,5.6857862E0,2.929835E3,2.991525E3,3.31673E3,2.83379E3,3.1031602E3,3.0455552E3,-4.6942677E0,-3.2563478E-1,-1.6802491E0,2.5869632E0,2.67733E3,3.20921E3,3.11535E3,4.10312E3,2.44906E3,-2.1744325E0,2.44154E3,3.0037E3,1.1125651E-2,3.2953446E0,5.7837343E0,5.253906E-2,-2.3918459E-1,-2.5400076E0,2.5028176E0,-3.2528687E-1,-2.3218935E0,4.8305666E-1,-4.0179253E0,-4.0858155E-1,5.9352026E0,1.7488343E0,-3.6531374E-1,-3.650801E0,3.5941224E0,-1.9062994E-1],"split_indices":[43,26,0,27,33,27,4,5,52,28,19,23,0,2,23,42,50,21,0,0,0,0,0,43,3,11,0,49,0,44,39,0,0,0,0,0,0,0,0,0,0,0,0,0,0,0,0,0,0],"split_type":[0,0,0,0,0,0,0,0,0,0,0,0,0,0,0,0,0,0,0,0,0,0,0,0,0,0,0,0,0,0,0,0,0,0,0,0,0,0,0,0,0,0,0,0,0,0,0,0,0],"sum_hessian":[6.58E2,6.56E2,2E0,4.92E2,1.64E2,4.82E2,1E1,3.4E1,1.3E2,4.76E2,6E0,4E0,6E0,1.3E1,2.1E1,1.8E1,1.12E2,4.71E2,5E0,4E0,2E0,2E0,2E0,8E0,5E0,7E0,1.4E1,1.5E1,3E0,1.2E1,1E2,4.64E2,7E0,3E0,2E0,2E0,6E0,4E0,1E0,5E0,2E0,1.3E1,1E0,4E0,1.1E1,3E0,9E0,7E0,9.3E1],"tree_param":{"num_deleted":"0","num_feature":"60","num_nodes":"49","size_leaf_vector":"0"}},{"base_weights":[9.1455474E-2,-7.7276343E-1,5.412758E-1,-3.8729393E-1,-1.7215835E0,1.674117E0,-7.0910615E-1,-6.569201E-1,4.885124E0,-2.2668934E0,6.340332E-1,1.3338236E0,2.0397095E1,-1.119281E1,-1.760448E-1,-1.2360238E0,7.0008475E-1,6.6932015E0,-3.5940552E-1,-2.52188E0,2.8235066E0,2.8967285E0,-6.9346786E-1,1.5540494E0,-1.1222168E1,2.3895264E1,4.951294E0,-6.7343597E0,-1.9351074E1,1.0042432E1,-7.1577346E-1,-2.908532E-1,-2.4311187E0,9.153969E0,-8.4361166E-2,-1.1315918E0,5.924835E-1,-2.1528778E0,-4.9305825E0,3.4089355E0,8.2632446E-1,7.158432E-1,-1.5174307E0,1.2094094E0,1.37595215E1,-5.439453E-1,-1.4600261E1,-6.998291E-1,-7.49646E0,-1.4792603E1,1.4445502E1,-8.020103E0,1.00004494E-1,2.148702E0,-8.5916317E-1,-4.405019E0,-1.6507903E0,-9.206615E-1,3.794073E0,-6.8094177E0,-1.8980788E0,-1.3888702E0,-5.361151E0,5.340576E-3,9.508972E-1,-1.1540222E-1,-1.7747558E0,1.9544715E0,-2.590888E0,4.8287354E0,1.8449097E1,-3.2335043E0,-2.0775879E1,-9.446675E0,4.4446278E-1],"categories":[],"categories_nodes":[],"categories_segments":[],"categories_sizes":[],"default_left":[1,1,1,1,1,1,1,1,1,1,1,1,1,1,1,1,1,0,1,1,1,0,1,1,1,0,0,1,0,1,1,1,1,0,1,0,0,1,1,0,0,1,1,1,0,0,0,0,0,0,1,1,1,0,0,0,0,0,0,0,0,0,0,0,0,0,0,0,0,0,0,0,0,0,0],"id":34,"left_children":[1,3,5,7,9,11,13,15,17,19,21,23,25,27,29,31,33,-1,35,37,39,-1,41,43,45,-1,-1,47,-1,49,51,53,55,-1,57,-1,-1,59,61,-1,-1,63,65,67,-1,-1,-1,-1,-1,-1,69,71,73,-1,-1,-1,-1,-1,-1,-1,-1,-1,-1,-1,-1,-1,-1,-1,-1,-1,-1,-1,-1,-1,-1],"loss_changes":[2.566001E2,8.199075E1,6.159413E2,2.3350537E2,8.493248E1,1.4254517E3,1.1548401E3,1.2267154E2,7.82657E1,7.5913635E1,4.1057285E1,6.395995E2,9.7815674E1,2.3341516E2,1.0991986E3,1.2241589E2,3.1245813E2,0E0,2.8755565E0,3.471469E1,6.907368E-1,0E0,1.1537222E1,9.1720074E2,1.3634631E2,0E0,0E0,3.1545105E1,0E0,1.3071907E3,1.1269985E3,8.7804344E1,6.666217E1,0E0,1.4620863E2,0E0,0E0,4.1653366E1,1.7037506E0,0E0,0E0,6.629474E-1,1.9598522E0,6.194901E2,0E0,0E0,0E0,0E0,0E0,0E0,2.5742883E2,1.0929E3,5.665208E2,0E0,0E0,0E0,0E0,0E0,0E0,0E0,0E0,0E0,0E0,0E0,0E0,0E0,0E0,0E0,0E0,0E0,0E0,0E0,0E0,0E0,0E0],"parents":[2147483647,0,0,1,1,2,2,3,3,4,4,5,5,6,6,7,7,8,8,9,9,10,10,11,11,12,12,13,13,14,14,15,15,16,16,18,18,19,19,20,20,22,22,23,23,24,24,27,27,29,29,30,30,31,31,32,32,34,34,37,37,38,38,41,41,42,42,43,43,50,50,51,51,52,52],"right_children":[2,4,6,8,10,12,14,16,18,20,22,24,26,28,30,32,34,-1,36,38,40,-1,42,44,46,-1,-1,48,-1,50,52,54,56,-1,58,-1,-1,60,62,-1,-1,64,66,68,-1,-1,-1,-1,-1,-1,70,72,74,-1,-1,-1,-1,-1,-1,-1,-1,-1,-1,-1,-1,-1,-1,-1,-1,-1,-1,-1,-1,-1,-1],"split_conditions":[3.8783002E2,2.3929001E2,2.5850898E3,2.7722498E2,3.9290997E2,2.807145E3,2.580425E3,2.01755E2,2.2903E2,4.3297E2,3.79445E2,3.9442002E3,2.44751E3,2.77115E3,2.6161401E3,1.66215E2,1.4339E2,2.0079606E0,2.3431E2,4.0729498E2,2.4235E2,8.690186E-1,3.5214502E2,3.8045151E3,1.83584E3,7.1685796E0,1.4853883E0,1.937505E3,-5.8053226E0,2.370585E3,2.622045E3,1.3170999E2,1.41E2,2.7461908E0,2.0519E2,-3.3947754E-1,1.7774506E-1,2.2779999E2,3.9688E2,1.0226808E0,2.4789734E-1,3.84305E2,3.85055E2,3.04098E3,4.1278567E0,-1.631836E-1,-4.3800783E0,-2.0994873E-1,-2.248938E0,-4.437781E0,2.25655E3,2.608E3,2.774045E3,6.446106E-1,-2.5774896E-1,-1.3215057E0,-4.952371E-1,-2.7619848E-1,1.138222E0,-2.0428255E0,-5.694237E-1,-4.1666108E-1,-1.6083454E0,1.602173E-3,2.8526917E-1,-3.462067E-2,-5.324268E-1,5.8634144E-1,-7.7726644E-1,1.4486207E0,5.534729E0,-9.7005135E-1,-6.232764E0,-2.8340027E0,1.3333884E-1],"split_indices":[50,36,0,57,8,4,2,30,23,26,19,58,0,6,4,23,3,0,0,3,0,0,54,58,0,0,0,15,0,12,10,4,5,0,0,0,0,35,0,0,0,2,1,55,0,0,0,0,0,0,32,12,4,0,0,0,0,0,0,0,0,0,0,0,0,0,0,0,0,0,0,0,0,0,0],"split_type":[0,0,0,0,0,0,0,0,0,0,0,0,0,0,0,0,0,0,0,0,0,0,0,0,0,0,0,0,0,0,0,0,0,0,0,0,0,0,0,0,0,0,0,0,0,0,0,0,0,0,0,0,0,0,0,0,0,0,0,0,0,0,0,0,0,0,0,0,0,0,0,0,0,0,0],"sum_hessian":[6.58E2,2.25E2,4.33E2,1.61E2,6.4E1,2.27E2,2.06E2,1.54E2,7E0,5.2E1,1.2E1,2.24E2,3E0,9E0,1.97E2,1.08E2,4.6E1,5E0,2E0,5E1,2E0,4E0,8E0,2.21E2,3E0,2E0,1E0,7E0,2E0,9E0,1.88E2,6.1E1,4.7E1,3E0,4.3E1,1E0,1E0,4.5E1,5E0,1E0,1E0,3E0,5E0,2.16E2,5E0,1E0,2E0,1E0,6E0,1E0,8E0,1.8E1,1.7E2,1.1E1,5E1,1.2E1,3.5E1,3.6E1,7E0,1E0,4.4E1,1E0,4E0,1E0,2E0,1E0,4E0,1.81E2,3.5E1,3E0,5E0,1.4E1,4E0,5E0,1.65E2],"tree_param":{"num_deleted":"0","num_feature":"60","num_nodes":"75","size_leaf_vector":"0"}},{"base_weights":[5.4424305E-2,1.1702582E-1,-5.793178E0,6.7705666E-3,7.205762E0,-7.753955E0,-5.941569E-1,8.704748E-2,-5.6668835E0,8.107829E0,-4.564209E-1,-1.3746338E0,4.8339844E-1,-8.866633E-2,7.900094E0,-6.775421E0,1.600708E0,3.0888672E0,9.100551E0,1.0161372E-1,-7.3137665E0,2.0788147E1,2.4953392E0,-1.4169108E0,-8.325439E0,-7.98827E-2,3.266472E0,-1.9788992E0,-1.0316797E1,-6.845093E-2,6.9990845E0,-2.0029297E0,-1.2243652E-1,-8.990527E0,-2.5E0],"categories":[],"categories_nodes":[],"categories_segments":[],"categories_sizes":[],"default_left":[1,1,1,1,1,0,1,1,1,1,0,0,0,1,1,1,0,0,0,1,1,0,1,1,1,0,0,0,0,0,0,0,0,0,0],"id":35,"left_children":[1,3,5,7,9,-1,11,13,15,17,-1,-1,-1,19,21,23,-1,-1,-1,25,27,-1,29,31,33,-1,-1,-1,-1,-1,-1,-1,-1,-1,-1],"loss_changes":[2.4191727E2,5.103167E2,6.6751816E1,2.9381177E2,7.281854E1,0E0,3.1875167E0,8.738395E2,8.335306E1,1.6731567E1,0E0,0E0,0E0,8.572389E2,9.2332135E2,5.4649933E1,0E0,0E0,0E0,3.495025E2,2.359165E2,0E0,1.2749233E2,2.0305276E0,7.702637E-1,0E0,0E0,0E0,0E0,0E0,0E0,0E0,0E0,0E0,0E0],"parents":[2147483647,0,0,1,1,2,2,3,3,4,4,6,6,7,7,8,8,9,9,13,13,14,14,15,15,19,19,20,20,22,22,23,23,24,24],"right_children":[2,4,6,8,10,-1,12,14,16,18,-1,-1,-1,20,22,24,-1,-1,-1,26,28,-1,30,32,34,-1,-1,-1,-1,-1,-1,-1,-1,-1,-1],"split_conditions":[4.6276396E3,4.37988E3,4.3170996E3,4.43171E3,4.76349E3,-2.3261867E0,4.6206846E3,4.100465E3,4.55737E3,4.09063E3,-1.3692628E-1,-4.1239014E-1,1.4501953E-1,3.948085E3,4.076465E3,4.27769E3,4.8021242E-1,9.266602E-1,2.7301652E0,3.43012E3,3.867205E3,6.2364445E0,4.3716553E3,4.432145E3,4.55737E3,-2.3964813E-2,9.7994167E-1,-5.936698E-1,-3.0950394E0,-2.0535279E-2,2.0997255E0,-6.0087895E-1,-3.673096E-2,-2.6971583E0,-7.5E-1],"split_indices":[2,1,13,7,7,0,0,6,2,3,0,0,0,3,9,1,0,0,0,4,5,0,11,0,3,0,0,0,0,0,0,0,0,0,0],"split_type":[0,0,0,0,0,0,0,0,0,0,0,0,0,0,0,0,0,0,0,0,0,0,0,0,0,0,0,0,0,0,0,0,0,0,0],"sum_hessian":[6.58E2,6.52E2,6E0,6.43E2,9E0,4E0,2E0,6.35E2,8E0,8E0,1E0,1E0,1E0,6.22E2,1.3E1,7E0,1E0,2E0,6E0,6.07E2,1.5E1,3E0,1E1,2E0,5E0,5.75E2,3.2E1,6E0,9E0,7E0,3E0,1E0,1E0,4E0,1E0],"tree_param":{"num_deleted":"0","num_feature":"60","num_nodes":"35","size_leaf_vector":"0"}},{"base_weights":[4.2486977E-2,8.2952656E-2,-8.833659E0,3.7003742E-3,5.210205E0,7.014158E-2,-6.0904365E0,9.167806E0,-5.8095706E-1,-1.5004343E-1,1.9940296E0,-7.9595947E0,-2.6986694E0,9.990918E0,2.526123E0,-3.6208496E0,1.0842285E0,-4.5782505E-3,-1.3992717E1,9.813141E0,9.0001404E-1,-3.803711E-1,1.6992188E0,-1.2979859E-1,7.843072E0,-1.639712E1,-9.8535156E-1,1.1046805E1,5.887451E-1,1.2503784E1,5.5101667E-2],"categories":[],"categories_nodes":[],"categories_segments":[],"categories_sizes":[],"default_left":[1,1,0,1,1,1,1,1,1,1,1,0,0,0,0,0,1,1,1,1,1,0,0,0,0,0,0,0,0,0,0],"id":36,"left_children":[1,3,-1,5,7,9,11,13,15,17,19,-1,-1,-1,-1,-1,21,23,25,27,29,-1,-1,-1,-1,-1,-1,-1,-1,-1,-1],"loss_changes":[2.374319E2,2.6695035E2,0E0,2.628036E2,2.3451718E2,2.7225766E2,2.2897919E1,7.5628357E0,2.9235754E1,1.1617987E3,5.557472E2,0E0,0E0,0E0,0E0,0E0,4.2491913E0,5.631141E2,1.714928E2,8.453467E1,5.77757E2,0E0,0E0,0E0,0E0,0E0,0E0,0E0,0E0,0E0,0E0],"parents":[2147483647,0,0,1,1,3,3,4,4,5,5,6,6,7,7,8,8,9,9,10,10,16,16,17,17,18,18,19,19,20,20],"right_children":[2,4,-1,6,8,10,12,14,16,18,20,-1,-1,-1,-1,-1,22,24,26,28,30,-1,-1,-1,-1,-1,-1,-1,-1,-1,-1],"split_conditions":[4.69223E3,4.38324E3,-2.6500978E0,4.28691E3,4.2947695E3,3.427065E3,4.28691E3,4.096285E3,3.47817E3,3.4234648E3,3.48463E3,-2.3878784E0,-8.096009E-1,2.9972756E0,7.5783694E-1,-1.086255E0,3.481325E3,3.41097E3,3.10951E3,3.16702E3,2.76726E3,-1.14111334E-1,5.097656E-1,-3.893958E-2,2.3529217E0,-4.919136E0,-2.9560548E-1,3.3140419E0,1.7662354E-1,3.7511353E0,1.65305E-2],"split_indices":[47,38,0,38,28,49,18,0,5,50,49,0,0,0,0,0,0,52,0,17,55,0,0,0,0,0,0,0,0,0,0],"split_type":[0,0,0,0,0,0,0,0,0,0,0,0,0,0,0,0,0,0,0,0,0,0,0,0,0,0,0,0,0,0,0],"sum_hessian":[6.58E2,6.56E2,2E0,6.47E2,9E0,6.41E2,6E0,5E0,4E0,5.76E2,6.5E1,3E0,3E0,4E0,1E0,1E0,3E0,5.71E2,5E0,7E0,5.8E1,1E0,2E0,5.63E2,8E0,4E0,1E0,6E0,1E0,3E0,5.5E1],"tree_param":{"num_deleted":"0","num_feature":"60","num_nodes":"31","size_leaf_vector":"0"}},{"base_weights":[3.209303E-2,3.3131747E-3,9.484619E0,3.2778382E-1,-9.603455E-1,2.9763937E-2,6.4164615E0,-5.128512E0,1.5212551E-1,2.8931418E-1,-7.369278E0,-2.7751667E0,1.5073384E1,9.855957E0,-5.8591127E0,5.279657E0,-7.0379746E-1,1.06154405E-1,7.6893086E0,-1.4305466E1,-3.849691E-1,-4.669135E0,2.1800537E0,2.1364048E1,5.222046E0,-4.3859863E-1,-7.248187E0,7.331604E0,-4.248047E0,-7.469808E0,9.1308594E-2,2.977337E-1,-9.229167E0,1.3608224E0,1.5011328E1,-1.6688616E1,1.1882935E0,-4.176758E0,3.4838135E0,4.9283853E-1,-6.2143903E0,3.2017822E0,-4.4256592E-1,2.5261524E1,7.7469077E0,-2.4579265E0,9.676514E0,3.176717E0,-2.1731567E0,-5.4734583E0,-1.1536918E1,1.3750659E1,4.0460305E0,-4.8168945E0,-1.270752E0,-2.6503208E0,-1.1847575E1,4.0655465E0,-1.038306E0],"categories":[],"categories_nodes":[],"categories_segments":[],"categories_sizes":[],"default_left":[1,1,0,1,1,1,1,1,1,1,1,1,1,0,1,1,1,1,1,1,1,1,1,1,1,1,1,1,1,1,1,0,0,0,0,0,0,0,0,0,0,0,0,0,0,0,0,0,0,0,0,0,0,0,0,0,0,0,0],"id":37,"left_children":[1,3,-1,5,7,9,11,13,15,17,19,21,23,-1,25,27,29,31,33,35,37,39,41,43,45,47,49,51,53,55,57,-1,-1,-1,-1,-1,-1,-1,-1,-1,-1,-1,-1,-1,-1,-1,-1,-1,-1,-1,-1,-1,-1,-1,-1,-1,-1,-1,-1],"loss_changes":[1.7924448E2,2.0605756E2,0E0,8.9438074E2,7.705163E2,9.0665137E2,1.8719694E3,4.4091547E2,5.830337E2,6.172377E2,7.696045E2,1.2279935E2,6.320935E2,0E0,2.5282373E2,4.0260156E2,6.139674E2,8.0039844E2,4.8928253E2,3.1522266E2,1.465775E2,7.485179E1,1.2135422E1,1.758086E2,2.290453E2,5.7071304E1,1.4235913E2,2.8180884E2,6.5343475E-1,2.2178326E2,4.6662506E2,0E0,0E0,0E0,0E0,0E0,0E0,0E0,0E0,0E0,0E0,0E0,0E0,0E0,0E0,0E0,0E0,0E0,0E0,0E0,0E0,0E0,0E0,0E0,0E0,0E0,0E0,0E0,0E0],"parents":[2147483647,0,0,1,1,3,3,4,4,5,5,6,6,7,7,8,8,9,9,10,10,11,11,12,12,14,14,15,15,16,16,17,17,18,18,19,19,20,20,21,21,22,22,23,23,24,24,25,25,26,26,27,27,28,28,29,29,30,30],"right_children":[2,4,-1,6,8,10,12,14,16,18,20,22,24,-1,26,28,30,32,34,36,38,40,42,44,46,48,50,52,54,56,58,-1,-1,-1,-1,-1,-1,-1,-1,-1,-1,-1,-1,-1,-1,-1,-1,-1,-1,-1,-1,-1,-1,-1,-1,-1,-1,-1,-1],"split_conditions":[4.7701553E3,2.853495E3,2.8453858E0,2.77405E3,2.99734E3,2.69898E3,2.567795E3,2.4921401E3,2.658005E3,2.7299448E3,2.54515E3,2.758295E3,2.890645E3,2.956787E0,2.5355E3,3.31673E3,2.80729E3,2.702385E3,3.1103599E3,2.62276E3,2.6119648E3,1.989885E3,3.18045E3,3.24183E3,2.92321E3,3.0192148E3,3.4364849E3,2.44906E3,4.326995E3,2.836835E3,3.296385E3,8.932011E-2,-2.7687502E0,4.0824676E-1,4.5033984E0,-5.006585E0,3.5648805E-1,-1.2530274E0,1.0451441E0,1.4785157E-1,-1.8643172E0,9.605347E-1,-1.3276978E-1,7.5784574E0,2.3240724E0,-7.37378E-1,2.902954E0,9.5301515E-1,-6.51947E-1,-1.6420375E0,-3.4610755E0,4.125198E0,1.2138093E0,-1.4450684E0,-3.8122562E-1,-7.950963E-1,-3.5542727E0,1.219664E0,-3.1149182E-1],"split_indices":[59,26,0,23,33,21,35,9,52,19,25,26,37,0,32,42,54,17,7,24,26,38,3,15,19,14,6,49,2,53,32,0,0,0,0,0,0,0,0,0,0,0,0,0,0,0,0,0,0,0,0,0,0,0,0,0,0,0,0],"split_type":[0,0,0,0,0,0,0,0,0,0,0,0,0,0,0,0,0,0,0,0,0,0,0,0,0,0,0,0,0,0,0,0,0,0,0,0,0,0,0,0,0,0,0,0,0,0,0,0,0,0,0,0,0,0,0,0,0,0,0],"sum_hessian":[6.58E2,6.57E2,1E0,4.92E2,1.65E2,4.7E2,2.2E1,3.4E1,1.31E2,4.55E2,1.5E1,1.1E1,1.1E1,1E0,3.3E1,1.8E1,1.13E2,4.45E2,1E1,7E0,8E0,8E0,3E0,6E0,5E0,7E0,2.6E1,1.5E1,3E0,1.1E1,1.02E2,4.37E2,8E0,6E0,4E0,6E0,1E0,4E0,4E0,2E0,6E0,2E0,1E0,4E0,2E0,2E0,3E0,2E0,5E0,2E1,6E0,4E0,1.1E1,2E0,1E0,6E0,5E0,2.2E1,8E1],"tree_param":{"num_deleted":"0","num_feature":"60","num_nodes":"59","size_leaf_vector":"0"}},{"base_weights":[3.706478E-2,-5.1511836E-1,4.5404068E-1,-4.240632E-1,-5.511182E0,1.9005459E1,-8.96288E-4,-2.584044E-1,-1.656164E0,-1.557251E0,-6.1103516E0,4.9557395E0,3.5328674E1,-7.8823E0,3.3306402E-1,-4.54369E-1,3.6334305E0,-2.934548E0,7.3533125E-2,-4.19399E0,1.0579102E1,-3.6944246E0,-1.5519165E1,5.9266253E0,-5.5444926E-2,-2.8983358E-1,-3.267146E0,1.7400615E-1,6.07959E0,1.2036133E-1,-3.5148659E0,-5.1385266E-1,2.5943604E0,-5.1364746E0,-1.1545105E0,-6.275687E0,6.5822756E-1,1.7594421E0,2.5280884E1,6.667371E0,-2.6340997E-1,-4.9234608E-1,3.345792E0,-8.267415E-1,-4.6890564E0,-1.5257645E0,2.382365E0,7.927536E0,2.7117462E0,4.982605E-1,-5.066681E-1,-2.066179E0,-4.7052803E0,2.3509724E-1,-1.7591919E0,-6.8762207E0,-1.3362427E0,-1.8742676E0,1.7599182E0,5.0086265E0,-6.656759E0,1.0265939E1,-1.2969666E0,-8.012617E0,8.7403916E-2],"categories":[],"categories_nodes":[],"categories_segments":[],"categories_sizes":[],"default_left":[1,1,1,1,1,1,1,1,1,0,0,1,0,1,1,1,1,1,1,1,0,1,0,1,1,1,1,1,1,1,1,1,0,0,0,1,1,1,0,1,1,0,0,0,0,0,0,0,0,0,0,0,0,0,0,0,0,0,0,0,0,0,0,0,0],"id":38,"left_children":[1,3,5,7,9,11,13,15,17,-1,-1,19,-1,21,23,25,27,29,31,33,-1,35,-1,37,39,41,43,45,47,49,51,53,-1,-1,-1,55,57,59,-1,61,63,-1,-1,-1,-1,-1,-1,-1,-1,-1,-1,-1,-1,-1,-1,-1,-1,-1,-1,-1,-1,-1,-1,-1,-1],"loss_changes":[1.519667E2,1.2685939E2,3.1733542E3,5.6722385E1,2.3300323E0,1.8889495E3,9.7122925E2,1.9079108E2,7.318593E1,0E0,0E0,3.530821E2,0E0,4.223991E2,7.696232E2,1.0873702E2,1.0048976E2,3.410663E1,2.354359E1,2.6638756E0,0E0,1.2771953E2,0E0,1.810533E3,4.65929E2,1.673057E2,4.123384E1,2.6157146E1,2.2067688E1,1.2002683E0,1.7870636E1,1.2538638E1,0E0,0E0,0E0,1.1575806E1,1.724869E1,5.8025696E2,0E0,2.9991672E2,8.7878534E2,0E0,0E0,0E0,0E0,0E0,0E0,0E0,0E0,0E0,0E0,0E0,0E0,0E0,0E0,0E0,0E0,0E0,0E0,0E0,0E0,0E0,0E0,0E0,0E0],"parents":[2147483647,0,0,1,1,2,2,3,3,4,4,5,5,6,6,7,7,8,8,11,11,13,13,14,14,15,15,16,16,17,17,18,18,19,19,21,21,23,23,24,24,25,25,26,26,27,27,28,28,29,29,30,30,31,31,35,35,36,36,37,37,39,39,40,40],"right_children":[2,4,6,8,10,12,14,16,18,-1,-1,20,-1,22,24,26,28,30,32,34,-1,36,-1,38,40,42,44,46,48,50,52,54,-1,-1,-1,56,58,60,-1,62,64,-1,-1,-1,-1,-1,-1,-1,-1,-1,-1,-1,-1,-1,-1,-1,-1,-1,-1,-1,-1,-1,-1,-1,-1],"split_conditions":[5.9921497E2,5.8541003E2,5.5696497E2,3.881E2,4.595E2,5.98125E2,1.093285E3,4.0828497E2,4.31605E2,-4.671753E-1,-1.8331056E0,4.7384E2,1.0598602E1,1.37148E3,1.5907051E3,3.881E2,3.5632E2,3.84865E2,5.8315E2,3.9536E2,3.1737306E0,5.9404004E2,-4.65575E0,1.9473049E3,1.692925E3,4.05565E2,3.8333002E2,3.7918E2,3.6952E2,3.78845E2,4.73325E2,4.0160498E2,7.7830815E-1,-1.5409424E0,-3.4635317E-1,6.29275E2,5.60365E2,1.916185E3,7.584265E0,1.923265E3,1.79695E3,-1.4770383E-1,1.0037377E0,-2.4802247E-1,-1.406717E0,-4.5772937E-1,7.147095E-1,2.3782609E0,8.135239E-1,1.4947815E-1,-1.5200043E-1,-6.1985373E-1,-1.4115841E0,7.052918E-2,-5.277576E-1,-2.0628662E0,-4.0087283E-1,-5.622803E-1,5.279755E-1,1.502588E0,-1.9970278E0,3.0797818E0,-3.8908997E-1,-2.4037852E0,2.6221177E-2],"split_indices":[26,26,1,12,0,17,18,28,12,0,0,15,0,42,21,30,5,16,20,0,0,6,0,50,26,47,59,13,2,0,40,2,0,0,0,0,0,53,0,21,27,0,0,0,0,0,0,0,0,0,0,0,0,0,0,0,0,0,0,0,0,0,0,0,0],"split_type":[0,0,0,0,0,0,0,0,0,0,0,0,0,0,0,0,0,0,0,0,0,0,0,0,0,0,0,0,0,0,0,0,0,0,0,0,0,0,0,0,0,0,0,0,0,0,0,0,0,0,0,0,0,0,0,0,0,0,0,0,0,0,0,0,0],"sum_hessian":[6.58E2,2.83E2,3.75E2,2.79E2,4E0,8E0,3.67E2,2.47E2,3.2E1,1E0,3E0,5E0,3E0,1.4E1,3.53E2,2.36E2,1.1E1,1.8E1,1.4E1,2E0,3E0,1E1,4E0,2.2E1,3.31E2,2.24E2,1.2E1,5E0,6E0,3E0,1.5E1,1.2E1,2E0,1E0,1E0,6E0,4E0,1.9E1,3E0,9E0,3.22E2,2.13E2,1.1E1,5E0,7E0,3E0,2E0,3E0,3E0,2E0,1E0,8E0,7E0,8E0,4E0,5E0,1E0,1E0,3E0,1.4E1,5E0,6E0,3E0,1.3E1,3.09E2],"tree_param":{"num_deleted":"0","num_feature":"60","num_nodes":"65","size_leaf_vector":"0"}},{"base_weights":[4.2314313E-2,7.384474E-2,-6.876953E0,-1.6383289E-1,1.2318639E0,3.8209848E-2,-6.8588867E0,1.1796997E1,8.3285105E-1,1.6903909E-1,-6.7948976E0,-1.1347123E1,2.5126953E0,5.8799233E0,2.0634367E-1,-1.610731E-2,8.0391035E0,-1.3895801E1,2.5500488E-1,-1.4338867E1,-6.464193E0,-1.0900065E0,4.586548E0,9.805637E0,-4.4229126E0,-3.1517446E0,1.1631176E0,3.4042612E-1,-3.0397406E0,1.1418549E1,1.0241699E0,4.419596E0,-2.93219E0,-1.623794E1,-2.421753E0,-2.229004E0,5.9399414E-1,3.934733E-1,1.2438616E1,5.3938804E0,-5.9824505E0,7.8908286E0,5.8632064E-1],"categories":[],"categories_nodes":[],"categories_segments":[],"categories_sizes":[],"default_left":[1,1,0,1,1,1,1,0,1,1,1,1,1,1,1,1,1,0,1,1,0,1,0,1,0,1,1,0,0,0,0,0,0,0,0,0,0,0,0,0,0,0,0],"id":39,"left_children":[1,3,-1,5,7,9,11,-1,13,15,17,19,21,23,25,27,29,-1,31,33,-1,35,-1,37,-1,39,41,-1,-1,-1,-1,-1,-1,-1,-1,-1,-1,-1,-1,-1,-1,-1,-1],"loss_changes":[1.4428017E2,1.8103136E2,0E0,7.388292E2,4.6232474E2,4.758468E2,7.0150195E2,0E0,3.4344778E2,7.6074304E2,5.0415018E2,6.800403E1,4.9828194E1,5.2872125E2,3.1853314E2,5.519063E2,2.727845E2,0E0,9.259928E1,9.646448E1,0E0,7.078232E0,0E0,2.1814404E2,0E0,5.6445197E2,2.9417374E2,0E0,0E0,0E0,0E0,0E0,0E0,0E0,0E0,0E0,0E0,0E0,0E0,0E0,0E0,0E0,0E0],"parents":[2147483647,0,0,1,1,3,3,4,4,5,5,6,6,8,8,9,9,10,10,11,11,12,12,13,13,14,14,15,15,16,16,18,18,19,19,21,21,23,23,25,25,26,26],"right_children":[2,4,-1,6,8,10,12,-1,14,16,18,20,22,24,26,28,30,-1,32,34,-1,36,-1,38,-1,40,42,-1,-1,-1,-1,-1,-1,-1,-1,-1,-1,-1,-1,-1,-1,-1,-1],"split_conditions":[4.69223E3,3.22345E3,-2.063086E0,3.1374E3,3.119865E3,3.520705E3,3.2482852E3,3.5390992E0,2.92706E3,3.17202E3,3.48463E3,3.2338198E3,2.511085E3,3.8070151E3,2.9236602E3,2.99477E3,3.15275E3,-4.1687403E0,1.68346E3,3.98877E3,-1.939258E0,2.298915E3,1.3759644E0,1.9790249E3,-1.3268738E0,2.073665E3,3.081815E3,1.0212784E-1,-9.119222E-1,3.4255648E0,3.0725098E-1,1.3258789E0,-8.7965703E-1,-4.871382E0,-7.265259E-1,-6.687012E-1,1.7819825E-1,1.1804199E-1,3.7315848E0,1.6181642E0,-1.7947352E0,2.3672488E0,1.758962E-1],"split_indices":[47,40,0,41,41,52,41,0,32,50,50,52,21,49,14,17,46,0,4,0,0,0,0,9,0,6,45,0,0,0,0,0,0,0,0,0,0,0,0,0,0,0,0],"split_type":[0,0,0,0,0,0,0,0,0,0,0,0,0,0,0,0,0,0,0,0,0,0,0,0,0,0,0,0,0,0,0,0,0,0,0,0,0,0,0,0,0,0,0],"sum_hessian":[6.58E2,6.56E2,2E0,5.45E2,1.11E2,5.3E2,1.5E1,3E0,1.08E2,5.21E2,9E0,1E1,5E0,1.1E1,9.7E1,5.1E2,1.1E1,4E0,5E0,5E0,5E0,2E0,3E0,8E0,3E0,2.1E1,7.6E1,4.57E2,5.3E1,7E0,4E0,2E0,3E0,4E0,1E0,1E0,1E0,2E0,6E0,5E0,1.6E1,5E0,7.1E1],"tree_param":{"num_deleted":"0","num_feature":"60","num_nodes":"43","size_leaf_vector":"0"}},{"base_weights":[2.7981587E-2,-4.3224043E-1,5.350161E-1,-8.7969944E-2,-6.352687E0,1.6719702E1,2.7224693E-1,-2.9729792E-1,8.322311E0,-1.5669983E1,-3.62632E0,1.9156586E1,3.486084E0,4.697006E0,-9.871639E-2,-6.519031E-2,-6.8325863E0,1.2670313E1,8.067322E-1,-1.4422044E0,-9.818115E0,1.5843506E0,1.3770915E1,-7.1953125E0,7.841845E-2,-3.302871E-1,1.1494768E1,-9.6744995E0,-2.8519084E0,-9.5196533E-1,1.7102865E0,-2.8936646E0,2.546997E0,6.2900796E0,-2.4098234E0,2.4569092E0,1.5542334E1,-1.2651123E1,-4.17749E0,-2.6390646E0,6.077651E-1,-1.6349468E-1,-5.234314E0,1.7424286E1,2.6915588E0,-3.8295655E0,1.0181885E0,1.1998698E0,-4.067032E0,1.0714722E0,6.8084717E0,-4.123888E0,3.5356445E0,-4.58938E0,-1.059021E0,-1.1439638E0,-7.907031E0,8.90569E0,1.6250786E-1],"categories":[],"categories_nodes":[],"categories_segments":[],"categories_sizes":[],"default_left":[1,1,1,1,1,1,1,1,1,0,1,0,0,1,1,1,1,0,1,1,0,1,1,1,1,1,1,0,1,0,0,1,0,1,1,0,0,0,1,1,1,0,0,0,0,0,0,0,0,0,0,0,0,0,0,0,0,0,0],"id":40,"left_children":[1,3,5,7,9,11,13,15,17,-1,19,-1,-1,21,23,25,27,-1,29,31,-1,33,35,37,39,41,43,-1,45,-1,-1,47,-1,49,51,-1,-1,-1,53,55,57,-1,-1,-1,-1,-1,-1,-1,-1,-1,-1,-1,-1,-1,-1,-1,-1,-1,-1],"loss_changes":[1.5400789E2,7.046704E2,1.3308389E3,5.799206E2,4.2582074E2,9.44624E1,5.0930493E2,4.864763E2,2.5120044E2,0E0,2.022178E2,0E0,0E0,6.560369E2,3.6133887E2,9.568586E2,9.6849365E1,0E0,7.984448E0,8.264233E1,0E0,3.722725E2,8.206482E1,6.240274E1,4.0581973E2,2.4862036E2,3.1849298E2,0E0,2.6600986E1,0E0,0E0,5.29121E1,0E0,1.705246E1,1.2668068E2,0E0,0E0,0E0,2.8465424E0,3.5325714E2,8.705046E2,0E0,0E0,0E0,0E0,0E0,0E0,0E0,0E0,0E0,0E0,0E0,0E0,0E0,0E0,0E0,0E0,0E0,0E0],"parents":[2147483647,0,0,1,1,2,2,3,3,4,4,5,5,6,6,7,7,8,8,10,10,13,13,14,14,15,15,16,16,18,18,19,19,21,21,22,22,23,23,24,24,25,25,26,26,28,28,31,31,33,33,34,34,38,38,39,39,40,40],"right_children":[2,4,6,8,10,12,14,16,18,-1,20,-1,-1,22,24,26,28,-1,30,32,-1,34,36,38,40,42,44,-1,46,-1,-1,48,-1,50,52,-1,-1,-1,54,56,58,-1,-1,-1,-1,-1,-1,-1,-1,-1,-1,-1,-1,-1,-1,-1,-1,-1,-1],"split_conditions":[1.80277E3,1.81927E3,1.5986799E3,1.82948E3,1.603645E3,1.83673E3,1.817735E3,1.548E3,1.7932849E3,-4.700995E0,1.81415E3,5.746976E0,1.0458252E0,1.784505E3,1.792225E3,1.386005E3,1.80561E3,3.801094E0,1.64394E3,1.8089199E3,-2.9454346E0,2.427635E3,1.80561E3,2.7533198E3,2.2993398E3,5.85925E2,6.22015E2,-2.90235E0,1.32112E3,-2.855896E-1,5.1308596E-1,7.3420996E2,7.640992E-1,1.184705E3,2.370135E3,7.3707277E-1,4.6627E0,-3.795337E0,3.0416099E3,2.32005E3,2.165E3,-4.9048405E-2,-1.5702943E0,5.227286E0,8.074677E-1,-1.1488698E0,3.0545655E-1,3.5996094E-1,-1.2201096E0,3.2144165E-1,2.0425415E0,-1.2371664E0,1.0606934E0,-1.376814E0,-3.1770632E-1,-3.4318915E-1,-2.3721094E0,2.6717072E0,4.875236E-2],"split_indices":[32,54,21,43,41,13,4,41,41,0,14,0,0,4,46,45,48,0,26,4,0,45,5,0,2,5,0,0,0,0,0,3,0,2,26,0,0,0,0,7,20,0,0,0,0,0,0,0,0,0,0,0,0,0,0,0,0,0,0],"split_type":[0,0,0,0,0,0,0,0,0,0,0,0,0,0,0,0,0,0,0,0,0,0,0,0,0,0,0,0,0,0,0,0,0,0,0,0,0,0,0,0,0,0,0,0,0,0,0,0,0,0,0,0,0,0,0,0,0,0,0],"sum_hessian":[6.58E2,3.45E2,3.13E2,3.27E2,1.8E1,4E0,3.09E2,3.2E2,7E0,3E0,1.5E1,3E0,1E0,2.3E1,2.86E2,3.1E2,1E1,4E0,3E0,1.2E1,3E0,1.8E1,5E0,6E0,2.8E2,3.04E2,6E0,5E0,5E0,1E0,2E0,9E0,3E0,8E0,1E1,1E0,4E0,1E0,5E0,4.5E1,2.35E2,2.95E2,9E0,3E0,3E0,4E0,1E0,2E0,7E0,1E0,7E0,8E0,2E0,4E0,1E0,3.6E1,9E0,1.1E1,2.24E2],"tree_param":{"num_deleted":"0","num_feature":"60","num_nodes":"59","size_leaf_vector":"0"}},{"base_weights":[2.8451553E-2,-3.5223972E-2,3.4645588E0,4.8165716E-2,-5.360303E0,7.7126465E0,1.191569E0,-2.8479606E-2,4.0552573E0,-6.6648765E0,3.1904297E0,-1.1497396E0,2.0247629E0,6.44827E-2,-3.5883179E0,5.63938E0,-2.5769043E0,-7.7168665E0,-1.9886068E0,3.191732E-1,2.6431642E0,-2.4999496E-2,6.07251E0,-4.8762555E0,3.618164E0,1.5619628E0,8.097331E0,4.4555664E-1,3.3203125E-2,-8.639435E-2,6.1186523E0,7.571533E0,5.5061847E-1,6.6186523E-1,-5.3531775E0,2.262268E0,-6.196289E-1],"categories":[],"categories_nodes":[],"categories_segments":[],"categories_sizes":[],"default_left":[1,1,1,1,1,0,1,1,1,1,0,0,1,1,1,1,0,0,0,1,0,1,1,1,0,1,0,0,0,0,0,0,0,0,0,0,0],"id":41,"left_children":[1,3,5,7,9,-1,11,13,15,17,-1,-1,19,21,23,25,-1,-1,-1,27,-1,29,31,33,-1,35,-1,-1,-1,-1,-1,-1,-1,-1,-1,-1,-1],"loss_changes":[1.4430856E2,2.8800693E2,1.06680176E2,1.9636826E2,1.3281442E2,0E0,1.9884823E1,2.080559E2,1.4060603E2,2.892871E1,0E0,0E0,6.539543E0,3.2970764E2,1.6614711E2,8.757318E1,0E0,0E0,0E0,9.3631774E-2,0E0,2.2872772E2,7.032797E1,4.05206E1,0E0,9.040667E0,0E0,0E0,0E0,0E0,0E0,0E0,0E0,0E0,0E0,0E0,0E0],"parents":[2147483647,0,0,1,1,2,2,3,3,4,4,6,6,7,7,8,8,9,9,12,12,13,13,14,14,15,15,19,19,21,21,22,22,23,23,25,25],"right_children":[2,4,6,8,10,-1,12,14,16,18,-1,-1,20,22,24,26,-1,-1,-1,28,-1,30,32,34,-1,36,-1,-1,-1,-1,-1,-1,-1,-1,-1,-1,-1],"split_conditions":[4.49612E3,4.28691E3,4.5881846E3,4.1362803E3,4.7701553E3,2.3137941E0,3.464745E3,3.9442002E3,3.7302002E3,3.68604E3,9.5712894E-1,-3.449219E-1,2.88802E3,3.80798E3,4.69223E3,3.4193901E3,-7.7307135E-1,-2.3150601E0,-5.9658206E-1,3.483895E3,7.9294926E-1,3.96972E3,3.9471E3,3.7653901E3,1.0854492E0,3.689745E3,2.4291995E0,1.3366699E-1,9.960938E-3,-2.5918305E-2,1.8355957E0,2.27146E0,1.6518554E-1,1.9855958E-1,-1.6059533E0,6.786804E-1,-1.8588868E-1],"split_indices":[55,53,55,55,30,0,21,58,12,1,0,0,12,58,14,12,0,0,0,0,0,40,5,55,0,0,0,0,0,0,0,0,0,0,0,0,0],"split_type":[0,0,0,0,0,0,0,0,0,0,0,0,0,0,0,0,0,0,0,0,0,0,0,0,0,0,0,0,0,0,0,0,0,0,0,0,0],"sum_hessian":[6.58E2,6.47E2,1.1E1,6.38E2,9E0,3E0,8E0,6.27E2,1.1E1,8E0,1E0,2E0,6E0,6.12E2,1.5E1,9E0,2E0,6E0,2E0,2E0,4E0,6.04E2,8E0,1.3E1,2E0,4E0,5E0,1E0,1E0,5.99E2,5E0,6E0,2E0,1E0,1.2E1,3E0,1E0],"tree_param":{"num_deleted":"0","num_feature":"60","num_nodes":"37","size_leaf_vector":"0"}},{"base_weights":[3.0554347E-2,5.8636203E-2,-6.129557E0,-9.6844725E-2,1.231049E0,1.9993871E-1,-2.7764597E0,7.1039124E0,5.422782E-1,-2.975302E-1,1.5665501E0,-3.4615014E0,7.336975E0,-2.0690918E0,1.0506429E1,2.4938476E0,-5.3014606E-1,-1.1513297E-1,-6.4885697E0,8.982853E0,6.7122394E-1,-8.278114E0,-8.9455104E-1,1.0999756E0,9.049316E0,-2.902588E0,-2.010498E-1,1.7746582E0,1.1897852E1,6.823088E-3,8.888079E0,-5.7270236E0,7.146446E-1,-3.3645097E-2,-1.0208415E1,-1.0522746E1,-1.3729655E0,1.8127417E1,4.00961E0,-5.1752462E0,1.3320388E0,-4.456881E0,-1.4192103E1,-7.2137628E0,5.6122416E-1,-3.899414E0,1.3084472E0,1.0611084E1,3.053711E0,-6.5644183E0,-1.8640951E0,-2.9131028E-1,3.5604491E0],"categories":[],"categories_nodes":[],"categories_segments":[],"categories_sizes":[],"default_left":[1,1,0,1,1,1,1,1,1,1,1,1,1,1,1,1,1,1,1,1,1,1,1,0,0,0,0,0,0,1,1,1,1,0,0,0,0,0,0,0,0,0,0,0,0,0,0,0,0,0,0,0,0],"id":42,"left_children":[1,3,-1,5,7,9,11,13,15,17,19,21,23,25,27,29,31,33,35,37,39,41,43,-1,-1,-1,-1,-1,-1,45,47,49,51,-1,-1,-1,-1,-1,-1,-1,-1,-1,-1,-1,-1,-1,-1,-1,-1,-1,-1,-1,-1],"loss_changes":[1.143581E2,1.19882324E2,0E0,4.626043E2,3.076171E2,3.5670578E2,4.2722806E2,2.7142917E2,1.4782584E2,4.3400595E2,9.2357184E2,6.726151E2,3.2765457E1,4.087453E0,5.1782898E1,3.975046E2,3.016679E2,3.0808658E2,2.1256235E2,6.0948816E2,4.9368628E2,3.661234E2,3.4442456E2,0E0,0E0,0E0,0E0,0E0,0E0,1.0170678E2,3.7965332E1,1.6876465E1,1.0982173E2,0E0,0E0,0E0,0E0,0E0,0E0,0E0,0E0,0E0,0E0,0E0,0E0,0E0,0E0,0E0,0E0,0E0,0E0,0E0,0E0],"parents":[2147483647,0,0,1,1,3,3,4,4,5,5,6,6,7,7,8,8,9,9,10,10,11,11,12,12,13,13,14,14,15,15,16,16,17,17,18,18,19,19,20,20,21,21,22,22,29,29,30,30,31,31,32,32],"right_children":[2,4,-1,6,8,10,12,14,16,18,20,22,24,26,28,30,32,34,36,38,40,42,44,-1,-1,-1,-1,-1,-1,46,48,50,52,-1,-1,-1,-1,-1,-1,-1,-1,-1,-1,-1,-1,-1,-1,-1,-1,-1,-1,-1,-1],"split_conditions":[4.698895E3,3.44949E3,-1.8388672E0,3.065895E3,3.5577598E3,2.0280701E3,4.05496E3,3.0303901E3,3.69275E3,2.50828E3,2.1335898E3,2.93498E3,3.867205E3,3.209305E3,2.877875E3,3.7657148E3,3.90997E3,2.12897E3,2.764835E3,1.988285E3,2.252115E3,2.836835E3,2.92513E3,3.2999268E-1,2.714795E0,-8.707764E-1,-6.0314942E-2,5.323975E-1,3.5693557E0,2.6013599E3,4.29128E3,3.98704E3,4.329435E3,-1.009353E-2,-3.0625246E0,-3.1568239E0,-4.1188964E-1,5.4382253E0,1.2028831E0,-1.5525739E0,3.9961165E-1,-1.3370644E0,-4.2576313E0,-2.164129E0,1.6836725E-1,-1.1698242E0,3.925342E-1,3.1833253E0,9.161133E-1,-1.9693255E0,-5.5922854E-1,-8.739309E-2,1.0681348E0],"split_indices":[0,29,0,29,30,37,9,44,42,24,37,57,0,0,16,34,42,39,21,34,37,53,41,0,0,0,0,0,0,48,0,50,11,0,0,0,0,0,0,0,0,0,0,0,0,0,0,0,0,0,0,0,0],"split_type":[0,0,0,0,0,0,0,0,0,0,0,0,0,0,0,0,0,0,0,0,0,0,0,0,0,0,0,0,0,0,0,0,0,0,0,0,0,0,0,0,0,0,0,0,0,0,0,0,0,0,0,0,0],"sum_hessian":[6.58E2,6.56E2,2E0,5.8E2,7.6E1,5.23E2,5.7E1,7E0,6.9E1,3.84E2,1.39E2,5.4E1,3E0,2E0,5E0,2.4E1,4.5E1,3.74E2,1E1,1.4E1,1.25E2,1.8E1,3.6E1,1E0,2E0,1E0,1E0,1E0,4E0,1.8E1,6E0,8E0,3.7E1,3.72E2,2E0,5E0,5E0,4E0,1E1,1.2E1,1.13E2,1.2E1,6E0,6E0,3E1,4E0,1.4E1,4E0,2E0,6E0,2E0,2.8E1,9E0],"tree_param":{"num_deleted":"0","num_feature":"60","num_nodes":"53","size_leaf_vector":"0"}},{"base_weights":[1.7442254E-2,-1.0864981E0,1.4421676E-1,4.5022202E-1,-1.8819379E0,4.679765E-1,-5.2240366E-1,-1.8277414E-1,3.6608963E0,4.8072205E0,-2.1432192E0,2.124611E-1,7.4794745E0,-2.6502197E0,5.455228E-1,1.3290253E0,-8.760956E-1,-1.4491106E0,-4.0938077E0,1.0776233E-1,5.8657575E0,1.2123223E1,-7.3272705E-1,-9.173035E0,-1.1516272E0,5.169027E0,7.4702926E-2,-3.0265808E-1,2.0422301E0,1.1771066E-1,-1.551712E0,-2.165008E0,1.1481819E0,-4.6475134E0,-1.962944E0,2.2536328E-1,-6.190883E0,1.08125E1,-5.474243E-1,1.7565634E1,9.288025E-1,-3.9550781E0,7.027588E-1,-3.3900452E0,-1.6591211E1,-5.9260254E0,6.6756284E-1,6.90682E0,-3.326416E-2,-7.229126E0,3.259151E-1,5.8148193E-1,2.2620468E0,-6.916046E-1,8.9759827E-1,-2.0593019E0,-7.337799E-1,-2.3268886E0,1.0219421E0,-1.8624878E-1,1.9860901E0,-1.3027878E0,-4.939219E0,-5.013809E-1,-2.2830048E0,3.3394083E-1,-3.760254E0,-2.5709534E0,-8.263092E0,-2.0078125E0,1.9168701E0,2.6168213E0,-2.067627E0,-1.6015625E-1,9.585266E-1,1.7375488E0,-4.37078E0,-1.2409261E0,-8.144483E0,3.4498534E0,-3.721489E0,2.6394043E0,7.7490234E0,1.7391764E0,-2.675293E0,-9.834554E0,2.935791E-1,3.823575E0,-4.0124282E-2],"categories":[],"categories_nodes":[],"categories_segments":[],"categories_sizes":[],"default_left":[1,1,1,1,1,1,1,1,0,0,1,1,1,1,1,1,1,1,1,1,1,1,1,1,1,1,1,0,1,1,1,1,1,1,1,1,1,0,1,0,1,0,1,1,0,1,1,1,1,1,1,0,0,0,0,0,0,0,0,0,0,0,0,0,0,0,0,0,0,0,0,0,0,0,0,0,0,0,0,0,0,0,0,0,0,0,0,0,0],"id":43,"left_children":[1,3,5,7,9,11,13,15,-1,-1,17,19,21,23,25,27,29,31,33,35,37,39,41,43,45,47,49,-1,51,53,55,57,59,61,63,65,67,-1,69,-1,71,-1,73,75,-1,77,79,81,83,85,87,-1,-1,-1,-1,-1,-1,-1,-1,-1,-1,-1,-1,-1,-1,-1,-1,-1,-1,-1,-1,-1,-1,-1,-1,-1,-1,-1,-1,-1,-1,-1,-1,-1,-1,-1,-1,-1,-1],"loss_changes":[9.2384735E1,8.396832E1,1.280128E2,4.9445385E1,8.895177E1,7.132378E2,4.422819E2,2.3175774E1,0E0,0E0,5.364012E1,2.2783867E2,5.427785E2,6.2481384E2,2.8260275E2,8.76417E0,1.025413E1,6.570525E1,3.855774E0,2.8287134E2,2.2798955E2,5.320067E2,3.0533302E1,4.5854584E2,4.7297504E2,1.0871582E2,2.2069856E2,0E0,2.9014397E-1,5.0390077E0,2.2254925E0,1.630738E1,9.314949E0,1.3706512E0,7.265024E-1,1.6310367E2,3.126471E1,0E0,1.824402E1,0E0,2.5642725E1,0E0,1.2570436E0,4.7824913E1,0E0,1.4579865E2,5.0130328E2,1.1893463E1,2.3384161E1,8.128668E1,1.4866605E2,0E0,0E0,0E0,0E0,0E0,0E0,0E0,0E0,0E0,0E0,0E0,0E0,0E0,0E0,0E0,0E0,0E0,0E0,0E0,0E0,0E0,0E0,0E0,0E0,0E0,0E0,0E0,0E0,0E0,0E0,0E0,0E0,0E0,0E0,0E0,0E0,0E0,0E0],"parents":[2147483647,0,0,1,1,2,2,3,3,4,4,5,5,6,6,7,7,10,10,11,11,12,12,13,13,14,14,15,15,16,16,17,17,18,18,19,19,20,20,21,21,22,22,23,23,24,24,25,25,26,26,28,28,29,29,30,30,31,31,32,32,33,33,34,34,35,35,36,36,38,38,40,40,42,42,43,43,45,45,46,46,47,47,48,48,49,49,50,50],"right_children":[2,4,6,8,10,12,14,16,-1,-1,18,20,22,24,26,28,30,32,34,36,38,40,42,44,46,48,50,-1,52,54,56,58,60,62,64,66,68,-1,70,-1,72,-1,74,76,-1,78,80,82,84,86,88,-1,-1,-1,-1,-1,-1,-1,-1,-1,-1,-1,-1,-1,-1,-1,-1,-1,-1,-1,-1,-1,-1,-1,-1,-1,-1,-1,-1,-1,-1,-1,-1,-1,-1,-1,-1,-1,-1],"split_conditions":[1.68675E2,1.33105E2,2.700805E3,1.4345001E2,1.25035E2,2.622045E3,3.14333E3,1.29965E2,1.098269E0,1.4421662E0,1.5104999E2,3.13377E3,2.908145E3,2.5481401E3,3.10775E3,1.5014E2,1.29565E2,1.4927E2,1.7059E2,2.764835E3,3.4655352E3,3.197955E3,2.225275E3,2.4257349E3,2.795685E3,3.44479E3,3.17707E3,-9.0797424E-2,1.52065E2,1.3486E2,2.27275E2,1.5058499E2,1.4893E2,1.27369995E2,1.8164E2,2.87648E3,3.19785E3,3.24375E0,3.9176748E3,5.2696905E0,2.54519E3,-1.1865234E0,2.7699E3,1.58379E3,-4.9773636E0,2.687705E3,3.215115E3,2.14772E3,4.570735E3,2.84912E3,2.625055E3,1.7444459E-1,6.786141E-1,-2.074814E-1,2.6927948E-1,-6.177906E-1,-2.2013398E-1,-6.980666E-1,3.0658266E-1,-5.5874635E-2,5.9582704E-1,-3.9083636E-1,-1.4817657E0,-1.5041429E-1,-6.849015E-1,1.0018226E-1,-1.1280762E0,-7.712861E-1,-2.4789276E0,-6.023438E-1,5.750611E-1,7.850464E-1,-6.2028813E-1,-4.8046876E-2,2.87558E-1,5.212647E-1,-1.311234E0,-3.7227786E-1,-2.4433448E0,1.0349561E0,-1.1164467E0,7.918213E-1,2.324707E0,5.2175295E-1,-8.025879E-1,-2.9503663E0,8.807373E-2,1.1470726E0,-1.2037286E-2],"split_indices":[45,42,38,48,8,37,40,50,0,0,43,31,26,25,41,17,39,46,41,32,20,13,0,21,37,31,40,0,18,52,13,43,45,19,5,45,5,0,2,0,0,0,0,3,0,31,21,8,2,0,55,0,0,0,0,0,0,0,0,0,0,0,0,0,0,0,0,0,0,0,0,0,0,0,0,0,0,0,0,0,0,0,0,0,0,0,0,0,0],"split_type":[0,0,0,0,0,0,0,0,0,0,0,0,0,0,0,0,0,0,0,0,0,0,0,0,0,0,0,0,0,0,0,0,0,0,0,0,0,0,0,0,0,0,0,0,0,0,0,0,0,0,0,0,0,0,0,0,0,0,0,0,0,0,0,0,0,0,0,0,0,0,0,0,0,0,0,0,0,0,0,0,0,0,0,0,0,0,0,0,0],"sum_hessian":[6.58E2,6.7E1,5.91E2,2.3E1,4.4E1,3.98E2,1.93E2,2E1,3E0,1E0,4.3E1,3.85E2,1.3E1,6.4E1,1.29E2,6E0,1.4E1,3.3E1,1E1,3.79E2,6E0,8E0,5E0,1.1E1,5.3E1,1.1E1,1.18E2,2E0,4E0,6E0,8E0,2.6E1,7E0,7E0,3E0,3.73E2,6E0,3E0,3E0,5E0,3E0,1E0,4E0,7E0,4E0,1.4E1,3.9E1,8E0,3E0,3E0,1.15E2,1E0,3E0,3E0,3E0,4E0,4E0,2.5E1,1E0,3E0,4E0,1E0,6E0,1E0,2E0,3.64E2,9E0,3E0,3E0,2E0,1E0,2E0,1E0,1E0,3E0,1E0,6E0,5E0,9E0,2.4E1,1.5E1,2E0,6E0,2E0,1E0,2E0,1E0,1E1,1.05E2],"tree_param":{"num_deleted":"0","num_feature":"60","num_nodes":"89","size_leaf_vector":"0"}},{"base_weights":[5.897881E-3,1.7543897E-1,-7.976308E-1,7.292166E-2,4.7228394E0,-7.8790283E0,-4.7146305E-1,1.1661567E-1,-7.6997886E0,8.401566E0,-2.1076903E0,1.440979E0,-1.0569275E1,9.94281E0,-6.5652746E-1,-2.8699976E-1,9.4869226E-1,8.962977E0,2.2358398E0,2.3311768E0,-3.8002014E0,-4.273015E0,-1.7009003E-1,2.8321987E-2,-2.7333567E0,7.279814E0,2.614912E-1,2.6152344E0,9.585063E0,-4.4778237E0,-8.83667E-1,-1.0001636E1,-6.156684E-1,1.5461707E0,-1.2828248E0,-3.7013012E-1,3.7420104E0,-1.5138387E1,-1.7090375E0,2.8478656E0,2.097168E1,-2.7877343E0,7.236089E-1,2.1624146E0,-2.3651123E0,6.5183103E-1,7.4973145E0,-5.654541E0,-5.987388E-1],"categories":[],"categories_nodes":[],"categories_segments":[],"categories_sizes":[],"default_left":[1,1,1,1,1,1,1,1,0,1,1,0,0,0,1,1,1,1,0,0,1,1,1,1,1,1,1,0,0,0,0,0,1,1,1,0,0,0,0,0,0,0,0,0,0,0,0,0,0],"id":44,"left_children":[1,3,5,7,9,11,13,15,-1,17,19,-1,-1,-1,21,23,25,27,-1,-1,29,31,33,35,37,39,41,-1,-1,-1,-1,-1,43,45,47,-1,-1,-1,-1,-1,-1,-1,-1,-1,-1,-1,-1,-1,-1],"loss_changes":[8.991625E1,2.5372765E2,2.6190353E2,1.8225543E2,3.192397E2,1.4059567E2,2.2045926E2,1.7893858E2,0E0,7.6523438E0,4.6423103E1,0E0,0E0,0E0,1.9278464E2,2.7700626E2,7.5512744E2,2.574646E0,0E0,0E0,3.94833E0,2.6621246E2,1.8913828E2,4.7341794E2,4.9510303E2,9.718633E2,2.2465521E2,0E0,0E0,0E0,0E0,0E0,4.885526E1,2.0268445E2,1.760522E2,0E0,0E0,0E0,0E0,0E0,0E0,0E0,0E0,0E0,0E0,0E0,0E0,0E0,0E0],"parents":[2147483647,0,0,1,1,2,2,3,3,4,4,5,5,6,6,7,7,9,9,10,10,14,14,15,15,16,16,17,17,20,20,21,21,22,22,23,23,24,24,25,25,26,26,32,32,33,33,34,34],"right_children":[2,4,6,8,10,12,14,16,-1,18,20,-1,-1,-1,22,24,26,28,-1,-1,30,32,34,36,38,40,42,-1,-1,-1,-1,-1,44,46,48,-1,-1,-1,-1,-1,-1,-1,-1,-1,-1,-1,-1,-1,-1],"split_conditions":[3.2331E3,3.386775E3,2.43177E3,3.3218E3,3.82093E3,2.9815898E3,1.759745E3,1.895615E3,-2.3099368E0,3.216165E3,3.501895E3,4.322937E-1,-3.1707826E0,2.9828432E0,2.1316602E3,1.25635E3,1.970685E3,2.9375752E3,6.70752E-1,6.9935304E-1,3.088215E3,2.9839E3,3.14587E3,5.8878503E2,1.4504651E3,2.11823E3,2.1355898E3,7.8457034E-1,2.875519E0,-1.3433472E0,-2.6510012E-1,-3.000491E0,2.8134E3,3.0858398E3,3.415975E3,-1.1103904E-1,1.1226032E0,-4.5415163E0,-5.127113E-1,8.543597E-1,6.2915044E0,-8.3632034E-1,2.1708268E-1,6.487244E-1,-7.095337E-1,1.9554932E-1,2.2491944E0,-1.6963624E0,-1.7962164E-1],"split_indices":[0,6,24,2,12,1,57,33,0,0,8,0,0,0,53,15,34,1,0,0,0,15,52,17,32,39,36,0,0,0,0,0,27,53,33,0,0,0,0,0,0,0,0,0,0,0,0,0,0],"split_type":[0,0,0,0,0,0,0,0,0,0,0,0,0,0,0,0,0,0,0,0,0,0,0,0,0,0,0,0,0,0,0,0,0,0,0,0,0,0,0,0,0,0,0,0,0,0,0,0,0],"sum_hessian":[6.58E2,5.44E2,1.14E2,5.33E2,1.1E1,4E0,1.1E2,5.31E2,2E0,7E0,4E0,1E0,3E0,1E0,1.09E2,3.58E2,1.73E2,6E0,1E0,1E0,3E0,1.2E1,9.7E1,3.18E2,4E1,1.6E1,1.57E2,1E0,5E0,2E0,1E0,4E0,8E0,3.8E1,5.9E1,2.88E2,3E1,2E0,3.8E1,1.3E1,3E0,2E1,1.37E2,3E0,5E0,3.4E1,4E0,7E0,5.2E1],"tree_param":{"num_deleted":"0","num_feature":"60","num_nodes":"49","size_leaf_vector":"0"}},{"base_weights":[6.1879833E-3,4.0365458E-2,-3.182966E0,-1.1394998E-2,3.369702E0,-4.7678223E0,-8.0236816E-1,2.3125077E-2,-4.4276857E0,7.402344E-2,5.554484E0,-1.4601237E0,5.854492E-1,-9.074923E-2,1.0494118E0,-1.2788086E0,-4.8952026E0,1.1017252E0,-9.7835284E-1,1.5892334E0,6.0296874E0,4.890132E-3,-5.012274E0,6.472412E0,3.7681842E-1,4.192132E-2,-6.9709473E0,1.2132813E0,-8.743059E0,7.125122E0,1.2780762E0,-2.088379E0,9.339091E-1],"categories":[],"categories_nodes":[],"categories_segments":[],"categories_sizes":[],"default_left":[1,1,1,1,1,0,1,1,1,1,1,0,0,1,1,0,0,0,0,0,0,1,1,1,1,0,0,0,0,0,0,0,0],"id":45,"left_children":[1,3,5,7,9,-1,11,13,15,17,19,-1,-1,21,23,-1,-1,-1,-1,-1,-1,25,27,29,31,-1,-1,-1,-1,-1,-1,-1,-1],"loss_changes":[7.195766E1,1.12568565E2,2.2584793E1,9.828063E1,7.159223E1,0E0,4.5062065E0,7.489055E1,1.1007462E0,6.4855213E0,1.7232361E0,0E0,0E0,2.7161346E2,2.3099942E2,0E0,0E0,0E0,0E0,0E0,0E0,1.4676169E2,2.6609613E2,1.4626312E1,8.160398E1,0E0,0E0,0E0,0E0,0E0,0E0,0E0,0E0],"parents":[2147483647,0,0,1,1,2,2,3,3,4,4,6,6,7,7,8,8,9,9,10,10,13,13,14,14,21,21,22,22,23,23,24,24],"right_children":[2,4,6,8,10,-1,12,14,16,18,20,-1,-1,22,24,-1,-1,-1,-1,-1,-1,26,28,30,32,-1,-1,-1,-1,-1,-1,-1,-1],"split_conditions":[4.6276396E3,4.4279004E3,4.276535E3,4.33106E3,4.3435146E3,-1.4303467E0,4.6206846E3,3.473335E3,3.996615E3,4.3033203E3,3.928025E3,-4.3803713E-1,1.7563477E-1,3.4001602E3,3.5436948E3,-3.8364258E-1,-1.4685608E0,3.305176E-1,-2.9350588E-1,4.7677004E-1,1.8089063E0,4.01265E3,2.969835E3,3.573485E3,3.105935E3,1.2576397E-2,-2.0912843E0,3.639844E-1,-2.622918E0,2.1375368E0,3.8342288E-1,-6.265137E-1,2.8017274E-1],"split_indices":[2,2,13,2,0,0,0,32,6,0,10,0,0,32,32,0,0,0,0,0,0,42,52,0,19,0,0,0,0,0,0,0,0],"split_type":[0,0,0,0,0,0,0,0,0,0,0,0,0,0,0,0,0,0,0,0,0,0,0,0,0,0,0,0,0,0,0,0,0],"sum_hessian":[6.58E2,6.52E2,6E0,6.43E2,9E0,3E0,3E0,6.39E2,4E0,4E0,5E0,2E0,1E0,5.76E2,6.3E1,1E0,3E0,2E0,2E0,1E0,4E0,5.66E2,1E1,6E0,5.7E1,5.64E2,2E0,4E0,6E0,5E0,1E0,1E1,4.7E1],"tree_param":{"num_deleted":"0","num_feature":"60","num_nodes":"33","size_leaf_vector":"0"}},{"base_weights":[-8.431928E-4,2.245275E-2,-3.821167E0,4.20452E-2,-4.256185E0,-4.3200684E-1,-4.806885E0,-3.3858325E-2,1.6790645E0,1.8583922E-2,-3.6311307E0,4.7355413E0,2.8919038E-1,6.1687663E-2,-3.2757874E0,-4.670166E0,-1.1647949E0,6.365674E0,2.1583009E0,-2.089447E0,1.6277553E0,-6.3094445E-2,1.6711093E0,-6.225891E0,-2.6054686E-1,3.7817383E-1,2.508789E0,-2.5438058E0,5.455322E-1,2.1624098E0,-2.661377E0],"categories":[],"categories_nodes":[],"categories_segments":[],"categories_sizes":[],"default_left":[1,1,1,1,0,0,0,1,1,1,1,1,1,1,1,0,0,0,1,1,1,0,0,0,0,0,0,0,0,0,0],"id":46,"left_children":[1,3,5,7,-1,-1,-1,9,11,13,15,17,19,21,23,-1,-1,-1,25,27,29,-1,-1,-1,-1,-1,-1,-1,-1,-1,-1],"loss_changes":[5.8735508E1,5.517076E1,1.1286411E1,8.131996E1,0E0,0E0,0E0,1.1816178E2,1.2182596E2,8.795791E1,1.7623703E1,2.4072159E1,7.026428E1,1.22810745E2,6.954003E1,0E0,0E0,0E0,2.1708107E0,1.0965534E1,3.785984E1,0E0,0E0,0E0,0E0,0E0,0E0,0E0,0E0,0E0,0E0],"parents":[2147483647,0,0,1,1,2,2,3,3,7,7,8,8,9,9,10,10,11,11,12,12,13,13,14,14,18,18,19,19,20,20],"right_children":[2,4,6,8,-1,-1,-1,10,12,14,16,18,20,22,24,-1,-1,-1,26,28,30,-1,-1,-1,-1,-1,-1,-1,-1,-1,-1],"split_conditions":[4.6295195E3,4.69223E3,3.85792E3,4.08767E3,-1.2768556E0,-1.2960206E-1,-1.4420655E0,4.041795E3,4.0190498E3,4.060685E3,4.272165E3,4.3867695E3,4.29129E3,3.4023599E3,3.27628E3,-1.4010499E0,-3.494385E-1,1.9097023E0,3.0648901E3,4.59662E3,4.7701553E3,-1.8928334E-2,5.013328E-1,-1.8677675E0,-7.816406E-2,1.1345215E-1,7.5263673E-1,-7.631418E-1,1.6365968E-1,6.4872295E-1,-7.984131E-1],"split_indices":[32,47,5,38,0,0,0,33,27,42,13,56,34,43,0,0,0,0,3,3,34,0,0,0,0,0,0,0,0,0,0],"split_type":[0,0,0,0,0,0,0,0,0,0,0,0,0,0,0,0,0,0,0,0,0,0,0,0,0,0,0,0,0,0,0],"sum_hessian":[6.58E2,6.55E2,3E0,6.53E2,2E0,1E0,2E0,6.25E2,2.8E1,6.17E2,8E0,8E0,2E1,6.1E2,7E0,5E0,3E0,4E0,4E0,7E0,1.3E1,5.67E2,4.3E1,3E0,4E0,1E0,3E0,6E0,1E0,1.2E1,1E0],"tree_param":{"num_deleted":"0","num_feature":"60","num_nodes":"31","size_leaf_vector":"0"}},{"base_weights":[-6.6858158E-3,2.08234E-1,-5.22902E-1,1.0482602E-1,9.721484E0,-2.858252E0,-8.776093E-3,-1.7912742E-1,1.5050471E0,1.2693176E1,-1.0826416E0,-5.52435E0,1.0648357E0,7.875244E0,-2.0958695E-1,-8.9275554E-2,-6.9900146E0,6.120003E0,3.9990044E-1,-7.7640686E0,-2.284253E0,2.6336365E0,-3.9077759E0,9.406087E0,1.6413574E0,-3.415741E0,2.565918E-1,-1.7009902E-1,7.570862E0,-8.672852E0,-1.293335E-1,8.825989E0,5.9002686E-1,4.543343E0,-8.5113037E-1,-1.0680222E1,-1.5454102E0,2.5441082E0,-3.8093567E0,1.8662517E-1,4.3548408E0,-1.0567856E0,-1.028125E1,3.3777668E0,-3.0104607E-1,1.318978E-2,-2.7586646E0,2.162557E0,1.505691E1,-1.4189047E0,1.9492188E0,-3.2307944E-1,1.0151123E1,-3.4829268E0,1.1747541E0,-1.1300345E1,-3.1696777E0,8.4399414E-1,-3.4196777E0,-1.5564779E0,-4.3009033E0,1.8603516E0,-5.201904E-1,6.6112876E0,2.130005E0,-3.3592377E0,1.1072592E0,2.8972834E-1,6.1587358E0,-4.453125E0,9.1497746E-4],"categories":[],"categories_nodes":[],"categories_segments":[],"categories_sizes":[],"default_left":[1,1,1,1,1,1,1,1,1,0,0,1,1,1,1,1,1,1,1,1,1,1,0,0,0,1,1,1,0,0,0,1,1,1,1,1,1,0,1,1,1,1,0,1,1,0,0,0,0,0,0,0,0,0,0,0,0,0,0,0,0,0,0,0,0,0,0,0,0,0,0],"id":47,"left_children":[1,3,5,7,9,11,13,15,17,-1,-1,19,21,23,25,27,29,31,33,35,37,39,-1,-1,-1,41,43,45,-1,-1,-1,47,49,51,53,55,57,-1,59,61,63,65,-1,67,69,-1,-1,-1,-1,-1,-1,-1,-1,-1,-1,-1,-1,-1,-1,-1,-1,-1,-1,-1,-1,-1,-1,-1,-1,-1,-1],"loss_changes":[7.32217E1,4.5740656E2,2.3290375E2,1.8395967E2,1.7427487E2,3.719593E2,2.5496204E2,2.349848E2,3.953685E2,0E0,0E0,1.3465991E2,1.2730721E2,2.2733673E1,2.3553508E2,2.371721E2,5.660533E1,2.1925299E2,3.3561575E2,2.0110938E2,8.332893E1,4.972895E1,0E0,0E0,0E0,3.130435E2,2.4120387E2,1.793804E2,0E0,0E0,0E0,3.8263177E2,1.9148895E1,4.1262704E2,2.7067737E2,1.4412842E0,2.5278103E1,0E0,2.1649017E0,8.065832E0,2.1059494E1,8.34413E1,0E0,1.7855815E2,1.4794847E2,0E0,0E0,0E0,0E0,0E0,0E0,0E0,0E0,0E0,0E0,0E0,0E0,0E0,0E0,0E0,0E0,0E0,0E0,0E0,0E0,0E0,0E0,0E0,0E0,0E0,0E0],"parents":[2147483647,0,0,1,1,2,2,3,3,4,4,5,5,6,6,7,7,8,8,11,11,12,12,13,13,14,14,15,15,16,16,17,17,18,18,19,19,20,20,21,21,25,25,26,26,27,27,31,31,32,32,33,33,34,34,35,35,36,36,38,38,39,39,40,40,41,41,43,43,44,44],"right_children":[2,4,6,8,10,12,14,16,18,-1,-1,20,22,24,26,28,30,32,34,36,38,40,-1,-1,-1,42,44,46,-1,-1,-1,48,50,52,54,56,58,-1,60,62,64,66,-1,68,70,-1,-1,-1,-1,-1,-1,-1,-1,-1,-1,-1,-1,-1,-1,-1,-1,-1,-1,-1,-1,-1,-1,-1,-1,-1,-1],"split_conditions":[2.700805E3,2.635815E3,2.8908052E3,2.0280701E3,3.44317E3,3.0384849E3,2.92427E3,2.12897E3,2.1335898E3,3.8079531E0,-3.247925E-1,3.0145698E3,3.28102E3,3.27946E3,2.92513E3,2.352805E3,2.856025E3,2.12501E3,1.9859E3,3.4311E3,2.90044E3,2.7476401E3,-1.1723328E0,2.8218262E0,4.9240723E-1,2.8711602E3,3.132405E3,1.82771E3,2.2712586E0,-2.6018555E0,-3.880005E-2,2.095085E3,2.05196E3,1.976365E3,2.5318252E3,3.0384849E3,2.914475E3,7.6323247E-1,3.31385E3,2.382665E3,3.18045E3,3.262715E3,-3.0843751E0,2.87275E3,3.17737E3,3.956934E-3,-8.275994E-1,6.487671E-1,4.517073E0,-4.2567143E-1,5.847657E-1,-9.6923836E-2,3.045337E0,-1.0448781E0,3.5242626E-1,-3.3901038E0,-9.5090336E-1,2.5319827E-1,-1.0259033E0,-4.6694338E-1,-1.290271E0,5.5810547E-1,-1.5605713E-1,1.9833864E0,6.390015E-1,-1.0077714E0,3.3217776E-1,8.69185E-2,1.8476208E0,-1.3359375E0,2.7449324E-4],"split_indices":[38,38,39,37,10,26,39,39,37,0,0,15,0,0,45,48,0,33,51,54,21,40,0,0,0,45,41,41,0,0,0,29,38,54,42,18,40,0,10,4,14,6,0,56,40,0,0,0,0,0,0,0,0,0,0,0,0,0,0,0,0,0,0,0,0,0,0,0,0,0,0],"split_type":[0,0,0,0,0,0,0,0,0,0,0,0,0,0,0,0,0,0,0,0,0,0,0,0,0,0,0,0,0,0,0,0,0,0,0,0,0,0,0,0,0,0,0,0,0,0,0,0,0,0,0,0,0,0,0,0,0,0,0,0,0,0,0,0,0,0,0,0,0,0,0],"sum_hessian":[6.58E2,4.65E2,1.93E2,4.61E2,4E0,3.4E1,1.59E2,3.84E2,7.7E1,3E0,1E0,2E1,1.4E1,3E0,1.56E2,3.8E2,4E0,1.4E1,6.3E1,1.1E1,9E0,1.1E1,3E0,2E0,1E0,1.9E1,1.37E2,3.77E2,3E0,3E0,1E0,9E0,5E0,1.4E1,4.9E1,7E0,4E0,2E0,7E0,5E0,6E0,1.5E1,4E0,2E1,1.17E2,3.53E2,2.4E1,5E0,4E0,2E0,3E0,8E0,6E0,2.1E1,2.8E1,6E0,1E0,2E0,2E0,2E0,5E0,1E0,4E0,2E0,4E0,7E0,8E0,1E1,1E1,7E0,1.1E2],"tree_param":{"num_deleted":"0","num_feature":"60","num_nodes":"71","size_leaf_vector":"0"}},{"base_weights":[4.0707625E-3,1.7422692E-1,-5.064224E-1,7.754084E-2,8.041219E0,-3.908196E0,-1.1490175E-1,-2.9939575E-2,3.2635193E0,2.2269287E0,8.758692E0,-4.6349664E0,-3.8745117E-1,7.83667E0,-2.7639708E-1,1.015974E-2,-6.342285E0,5.0587254E0,-3.3867798E0,-1.6722168E0,-5.6528444E0,5.324707E-1,-8.7158203E-1,-9.911377E0,-7.514648E-2,8.72327E-2,-2.3489501E0,1.9437662E0,9.653906E0,-2.0704956E0,-3.955078E-2,-6.0430503E0,-1.0704956E0,6.3816733E0,-2.1007875E-1,1.4009825E-2,4.813337E0,1.737793E0,-3.5154521E0,4.7892456E0,-2.77181E-1,1.0590332E1,2.9541016E0,-7.405957E0,-3.4715333E0,-1.5837708E0,3.2028434E-1],"categories":[],"categories_nodes":[],"categories_segments":[],"categories_sizes":[],"default_left":[1,1,1,1,1,1,1,1,1,0,0,1,1,0,1,1,0,1,0,1,1,0,0,0,1,1,1,1,1,0,0,1,0,0,1,0,0,0,0,0,0,0,0,0,0,0,0],"id":48,"left_children":[1,3,5,7,9,11,13,15,17,-1,-1,19,21,-1,23,25,-1,27,-1,29,31,-1,-1,-1,33,35,37,39,41,-1,-1,43,-1,-1,45,-1,-1,-1,-1,-1,-1,-1,-1,-1,-1,-1,-1],"loss_changes":[5.733131E1,3.7588766E2,2.193086E2,1.6788855E2,5.5245667E0,4.170331E1,1.9350314E2,1.2029678E2,2.0815128E2,0E0,0E0,3.2767242E1,2.2455423E0,0E0,2.842949E2,8.6207466E1,0E0,1.6731448E2,0E0,3.1693907E0,1.141156E1,0E0,0E0,0E0,1.2766948E2,1.5877362E2,7.7617035E1,5.8204426E1,8.444214E-2,0E0,0E0,5.832611E0,0E0,0E0,1.046907E2,0E0,0E0,0E0,0E0,0E0,0E0,0E0,0E0,0E0,0E0,0E0,0E0],"parents":[2147483647,0,0,1,1,2,2,3,3,4,4,5,5,6,6,7,7,8,8,11,11,12,12,14,14,15,15,17,17,19,19,20,20,24,24,25,25,26,26,27,27,28,28,31,31,34,34],"right_children":[2,4,6,8,10,12,14,16,18,-1,-1,20,22,-1,24,26,-1,28,-1,30,32,-1,-1,-1,34,36,38,40,42,-1,-1,44,-1,-1,46,-1,-1,-1,-1,-1,-1,-1,-1,-1,-1,-1,-1],"split_conditions":[2.880045E3,2.92535E3,2.941845E3,3.059225E3,2.749295E3,3.3072148E3,2.2637852E3,3.24142E3,3.6532598E3,6.6807866E-1,2.6276076E0,2.475595E3,2.533545E3,2.351001E0,2.7409102E3,2.635815E3,-1.9026856E0,2.50258E3,-1.016034E0,2.741595E3,3.28843E3,1.5974122E-1,-2.614746E-1,-2.9734132E0,2.2868052E3,2.941845E3,2.48915E3,1.847155E3,3.12823E3,-6.211487E-1,-1.1865235E-2,3.39315E3,-3.211487E-1,1.914502E0,2.58269E3,4.2029475E-3,1.4440011E0,5.213379E-1,-1.0546356E0,1.4367738E0,-8.3154306E-2,3.1770997E0,8.862305E-1,-2.2217872E0,-1.04146E0,-4.7513124E-1,9.60853E-2],"split_indices":[48,49,47,58,0,21,35,59,22,0,0,11,0,0,43,50,0,39,0,0,11,0,0,0,59,58,39,11,13,0,0,59,0,0,11,0,0,0,0,0,0,0,0,0,0,0,0],"split_type":[0,0,0,0,0,0,0,0,0,0,0,0,0,0,0,0,0,0,0,0,0,0,0,0,0,0,0,0,0,0,0,0,0,0,0,0,0,0,0,0,0,0,0,0,0,0,0],"sum_hessian":[6.58E2,4.94E2,1.64E2,4.89E2,5E0,1.6E1,1.48E2,4.74E2,1.5E1,1E0,4E0,1.3E1,3E0,2E0,1.46E2,4.72E2,2E0,1.2E1,3E0,4E0,9E0,1E0,2E0,2E0,1.44E2,4.58E2,1.4E1,8E0,4E0,3E0,1E0,8E0,1E0,2E0,1.42E2,4.52E2,6E0,3E0,1.1E1,3E0,5E0,3E0,1E0,4E0,4E0,3.9E1,1.03E2],"tree_param":{"num_deleted":"0","num_feature":"60","num_nodes":"47","size_leaf_vector":"0"}},{"base_weights":[7.857292E-3,-3.2709808E0,3.2874595E-2,-3.7822723E0,-6.129074E-1,2.4048767E0,-7.6291226E-3,4.156324E0,-5.28125E-1,-2.0649247E0,6.1508216E-2,1.1418304E0,5.1337557E0,-2.131602E0,1.2513937E0,1.4282532E0,-2.507799E0,3.1344628E0,-3.7608186E-3,-6.08551E-1,-2.588852E0,9.674072E-2,1.7803497E0,-1.4853668E-1,2.2909164E0,-4.1413345E0,-1.2097918E0,1.20309E0,7.1792793E0,-3.1724548E0,3.807633E-2,9.2523193E-1,-1.7293198E0,2.147478E0,-1.7163086E0,-1.6600227E0,-3.7479095E0,4.7713265E0,1.450377E-2],"categories":[],"categories_nodes":[],"categories_segments":[],"categories_sizes":[],"default_left":[1,1,1,0,0,1,1,1,1,1,1,0,0,1,1,1,1,1,1,0,0,0,0,0,0,0,1,1,0,1,1,0,0,0,0,0,0,0,0],"id":49,"left_children":[1,3,5,-1,-1,7,9,11,13,15,17,-1,-1,19,21,23,25,27,29,-1,-1,-1,-1,-1,-1,-1,31,33,-1,35,37,-1,-1,-1,-1,-1,-1,-1,-1],"loss_changes":[5.416378E1,4.47707E0,6.2947407E1,0E0,0E0,5.8702034E1,9.186919E1,1.4763344E1,1.6934559E1,3.6069572E1,1.2536727E2,0E0,0E0,5.1379585E-1,1.6600499E0,4.4210014E0,3.527633E1,9.291933E1,8.138567E1,0E0,0E0,0E0,0E0,0E0,0E0,0E0,1.4910475E1,3.1256191E1,0E0,7.4108124E-1,6.754515E1,0E0,0E0,0E0,0E0,0E0,0E0,0E0,0E0],"parents":[2147483647,0,0,1,1,2,2,5,5,6,6,7,7,8,8,9,9,10,10,13,13,14,14,15,15,16,16,17,17,18,18,26,26,27,27,29,29,30,30],"right_children":[2,4,6,-1,-1,8,10,12,14,16,18,-1,-1,20,22,24,26,28,30,-1,-1,-1,-1,-1,-1,-1,32,34,-1,36,38,-1,-1,-1,-1,-1,-1,-1,-1],"split_conditions":[1.2243E2,2.3457E2,1.30875E2,-1.1346817E0,-1.8387222E-1,1.6878E2,1.35895E2,1.2709E2,1.8439E2,1.26125E2,1.4273999E2,3.4254915E-1,1.5401268E0,1.4366501E2,2.2794E2,1.61605E2,1.64605E2,1.84145E2,1.4259E2,-1.8256532E-1,-7.766556E-1,2.9022219E-2,5.3410494E-1,-4.4561006E-2,6.8727493E-1,-1.2424004E0,1.3428E2,2.6021002E2,2.1537838E0,2.1751001E2,1.45215E2,2.775696E-1,-5.1879597E-1,6.442435E-1,-5.148926E-1,-4.9800685E-1,-1.124373E0,1.431398E0,4.351131E-3],"split_indices":[12,0,12,0,0,37,6,14,0,14,3,0,0,0,0,0,28,24,0,0,0,0,0,0,0,0,11,45,0,57,8,0,0,0,0,0,0,0,0],"split_type":[0,0,0,0,0,0,0,0,0,0,0,0,0,0,0,0,0,0,0,0,0,0,0,0,0,0,0,0,0,0,0,0,0,0,0,0,0,0,0],"sum_hessian":[6.58E2,4E0,6.54E2,3E0,1E0,1E1,6.44E2,6E0,4E0,2E1,6.24E2,2E0,4E0,2E0,2E0,2E0,1.8E1,1.2E1,6.12E2,1E0,1E0,1E0,1E0,1E0,1E0,7E0,1.1E1,9E0,3E0,7E0,6.05E2,2E0,9E0,7E0,2E0,3E0,4E0,2E0,6.03E2],"tree_param":{"num_deleted":"0","num_feature":"60","num_nodes":"39","size_leaf_vector":"0"}},{"base_weights":[7.6352875E-3,1.2369652E-1,-6.20071E-1,5.2342217E-2,4.462565E0,-2.9310088E0,-1.6138116E-1,1.2051506E-1,-2.7677472E0,6.803955E0,1.2286621E0,-4.445048E0,5.855713E-1,1.7109026E0,-5.134162E-1,-1.2019796E-2,1.7241569E0,5.128174E0,-4.6695666E0,-1.0821533E0,2.0769043E0,-7.810547E-1,-6.179413E0,2.2918293E0,-8.4051514E-1,-8.961995E-1,3.2588704E0,-7.199306E-1,2.4804688E0,1.7753336E-1,-1.2972393E0,4.1752543E0,-3.7562627E-1,1.2365723E0,-5.3838377E0,-1.2015381E0,4.5043945E-1,-1.5983887E0,-6.6055036E0,-2.891439E-1,-1.2473145E0,2.6180014E-1,-1.5406494E0,4.543799E0,1.322168E0,-3.600019E-1,-2.4295857E0,1.542155E-1,3.9798992E0,5.5920873E-2,6.646408E0,-3.8648732E0,2.3740591E-1,6.0463343E0,-8.864746E-1,-2.4000688E0,1.3662579E0,-6.5165253E0,-5.687256E-1,-1.3614095E0,-3.609619E-1,-7.1492515E0,-1.6715088E0,-1.9885254E-1,5.9155273E-1,6.8115234E-2,1.6186523E0,-1.3552986E0,8.698052E-1,-3.7615967E0,-9.4077843E-1,-4.5043945E-1,6.817627E-1],"categories":[],"categories_nodes":[],"categories_segments":[],"categories_sizes":[],"default_left":[1,1,1,1,1,1,1,1,1,0,1,1,1,1,1,1,1,0,1,0,0,1,1,0,1,1,1,1,1,1,1,1,1,0,1,1,0,0,1,0,0,1,0,0,1,1,1,1,0,0,0,0,0,0,0,0,0,0,0,0,0,0,0,0,0,0,0,0,0,0,0,0,0],"id":50,"left_children":[1,3,5,7,9,11,13,15,17,-1,19,21,23,25,27,29,31,-1,33,-1,-1,35,37,-1,39,41,43,45,47,49,51,53,55,-1,57,59,-1,-1,61,-1,-1,63,-1,-1,65,67,69,71,-1,-1,-1,-1,-1,-1,-1,-1,-1,-1,-1,-1,-1,-1,-1,-1,-1,-1,-1,-1,-1,-1,-1,-1,-1],"loss_changes":[4.8086407E1,1.7221193E2,1.0870737E2,1.05880745E2,5.9786682E1,9.3114975E1,5.8220932E1,1.1415387E2,2.1916238E2,0E0,1.2048184E1,7.142995E1,1.6525948E1,5.942054E1,4.7538513E1,1.2130815E2,2.1258603E2,0E0,5.306195E1,0E0,0E0,3.1303341E0,5.0572815E0,0E0,5.365362E-1,4.880979E0,1.6389046E1,4.2200127E1,1.6826511E1,3.4105435E2,2.531036E2,1.85307E2,8.438503E1,0E0,5.0834045E1,4.611969E-2,0E0,0E0,6.8299255E0,0E0,0E0,5.73336E-1,0E0,0E0,1.7487803E0,7.3396194E1,2.0258461E1,1.2640449E0,0E0,0E0,0E0,0E0,0E0,0E0,0E0,0E0,0E0,0E0,0E0,0E0,0E0,0E0,0E0,0E0,0E0,0E0,0E0,0E0,0E0,0E0,0E0,0E0,0E0],"parents":[2147483647,0,0,1,1,2,2,3,3,4,4,5,5,6,6,7,7,8,8,10,10,11,11,12,12,13,13,14,14,15,15,16,16,18,18,21,21,22,22,24,24,25,25,26,26,27,27,28,28,29,29,30,30,31,31,32,32,34,34,35,35,38,38,41,41,44,44,45,45,46,46,47,47],"right_children":[2,4,6,8,10,12,14,16,18,-1,20,22,24,26,28,30,32,-1,34,-1,-1,36,38,-1,40,42,44,46,48,50,52,54,56,-1,58,60,-1,-1,62,-1,-1,64,-1,-1,66,68,70,72,-1,-1,-1,-1,-1,-1,-1,-1,-1,-1,-1,-1,-1,-1,-1,-1,-1,-1,-1,-1,-1,-1,-1,-1,-1],"split_conditions":[3.260865E3,3.283665E3,3.4001602E3,3.504615E3,3.2165498E3,3.303315E3,3.43907E3,2.9397798E3,2.3323599E3,2.0411866E0,2.8908052E3,2.8908052E3,3.2543901E3,3.3027798E3,4.62838E3,2.688225E3,3.000355E3,1.5384523E0,3.2859648E3,-3.24646E-1,6.230713E-1,2.395155E3,3.1386602E3,6.875488E-1,4.05496E3,3.38106E3,3.1319102E3,4.4279004E3,4.1493203E3,2.7002852E3,2.7451E3,3.0499302E3,3.169565E3,3.7097168E-1,3.092225E3,2.225275E3,1.3513184E-1,-4.7951663E-1,3.297365E3,-8.674317E-2,-3.7419435E-1,2.858815E3,-4.6219483E-1,1.3631397E0,3.287415E3,3.948085E3,4.492725E3,4.13668E3,1.1939698E0,1.6776262E-2,1.9939225E0,-1.159462E0,7.122178E-2,1.8139004E0,-2.659424E-1,-7.2002065E-1,4.098774E-1,-1.9549576E0,-1.7061768E-1,-4.084229E-1,-1.0828858E-1,-2.1447756E0,-5.014527E-1,-5.9655763E-2,1.7746583E-1,2.0434571E-2,4.8559573E-1,-4.065896E-1,2.6094157E-1,-1.128479E0,-2.8223354E-1,-1.3513184E-1,2.0452882E-1],"split_indices":[22,20,21,7,21,2,19,21,22,0,6,14,0,19,18,0,17,0,1,0,0,0,21,0,1,20,0,23,1,1,11,43,18,0,22,0,0,0,0,0,0,0,0,0,0,22,26,0,0,0,0,0,0,0,0,0,0,0,0,0,0,0,0,0,0,0,0,0,0,0,0,0,0],"split_type":[0,0,0,0,0,0,0,0,0,0,0,0,0,0,0,0,0,0,0,0,0,0,0,0,0,0,0,0,0,0,0,0,0,0,0,0,0,0,0,0,0,0,0,0,0,0,0,0,0,0,0,0,0,0,0,0,0,0,0,0,0,0,0,0,0,0,0,0,0,0,0,0,0],"sum_hessian":[6.58E2,5.56E2,1.02E2,5.48E2,8E0,1.6E1,8.6E1,5.36E2,1.2E1,4E0,4E0,1.1E1,5E0,1.3E1,7.3E1,4.96E2,4E1,2E0,1E1,1E0,3E0,4E0,7E0,2E0,3E0,5E0,8E0,6.9E1,4E0,4.33E2,6.3E1,1.8E1,2.2E1,1E0,9E0,3E0,1E0,1E0,6E0,2E0,1E0,2E0,3E0,4E0,4E0,5.8E1,1.1E1,2E0,2E0,4.26E2,7E0,2.3E1,4E1,1.3E1,5E0,1E1,1.2E1,7E0,2E0,2E0,1E0,5E0,1E0,1E0,1E0,1E0,3E0,3.2E1,2.6E1,5E0,6E0,1E0,1E0],"tree_param":{"num_deleted":"0","num_feature":"60","num_nodes":"73","size_leaf_vector":"0"}},{"base_weights":[8.7270085E-3,-2.9032496E-1,2.3598324E-1,-1.6949774E-1,-3.2846124E0,1.2942952E1,-7.627482E-2,-2.4430177E-1,3.9187806E0,-4.0609264E0,1.3920085E-1,2.6720378E0,2.5113586E1,-4.4564633E0,2.1595883E-1,-1.013729E-1,-1.7810403E0,4.5373917E0,7.2216797E-1,-2.2088623E0,-5.1008058E0,-4.3164062E-1,6.404419E-1,-1.807373E0,7.7539062E0,-1.4270241E0,-6.67703E0,5.201861E0,5.0594835E-3,-2.5437987E-1,2.3024943E0,-6.286265E-1,-2.7850342E0,-1.4025879E-1,-3.404358E0,-3.8968506E0,2.3161378E0,-1.0923401E1,-4.3107786E0,9.8898655E-1,1.0654195E1,8.997742E0,-4.929225E-2,-1.3089758E-1,-4.9454703E0,-1.587204E0,3.4071858E0,2.1031189E-1,-1.2579128E0,-3.3638916E0,7.283529E-2,1.8737793E-1,-3.977661E-1,2.1838379E-1,-4.61912E0,3.6621094E-4,2.894989E0,-4.9920197E0,-1.0572103E0,4.781543E0,-3.001367E0,1.1514673E1,3.1759033E0,-2.8434856E0,1.1104141E-1],"categories":[],"categories_nodes":[],"categories_segments":[],"categories_sizes":[],"default_left":[1,1,1,1,1,1,1,1,1,1,1,1,0,1,1,1,1,0,0,0,0,0,0,1,0,1,1,1,1,1,1,1,1,1,0,1,1,0,1,1,1,0,1,0,0,0,0,0,0,0,0,0,0,0,0,0,0,0,0,0,0,0,0,0,0],"id":51,"left_children":[1,3,5,7,9,11,13,15,17,19,21,23,-1,25,27,29,31,-1,-1,-1,-1,-1,-1,33,-1,35,37,39,41,43,45,47,49,51,-1,53,55,-1,57,59,61,-1,63,-1,-1,-1,-1,-1,-1,-1,-1,-1,-1,-1,-1,-1,-1,-1,-1,-1,-1,-1,-1,-1,-1],"loss_changes":[4.485509E1,1.02553825E2,1.4889323E3,8.5057785E1,2.9802788E1,1.0579272E3,4.7073654E2,5.9343063E1,6.6105423E0,6.06633E0,1.1348282E0,1.5059686E2,0E0,1.4519437E2,3.6274927E2,9.2170006E1,2.4860634E1,0E0,0E0,0E0,0E0,0E0,0E0,1.0171934E1,0E0,1.107202E2,8.35354E1,3.1104312E2,1.6271446E2,1.3548027E2,6.986165E1,6.5997434E0,2.0096596E1,3.2763916E-1,0E0,2.181491E1,6.701376E0,0E0,1.6887009E1,1.5055392E2,2.039978E0,0E0,1.4860483E2,0E0,0E0,0E0,0E0,0E0,0E0,0E0,0E0,0E0,0E0,0E0,0E0,0E0,0E0,0E0,0E0,0E0,0E0,0E0,0E0,0E0,0E0],"parents":[2147483647,0,0,1,1,2,2,3,3,4,4,5,5,6,6,7,7,8,8,9,9,10,10,11,11,13,13,14,14,15,15,16,16,23,23,25,25,26,26,27,27,28,28,29,29,30,30,31,31,32,32,33,33,35,35,36,36,38,38,39,39,40,40,42,42],"right_children":[2,4,6,8,10,12,14,16,18,20,22,24,-1,26,28,30,32,-1,-1,-1,-1,-1,-1,34,-1,36,38,40,42,44,46,48,50,52,-1,54,56,-1,58,60,62,-1,64,-1,-1,-1,-1,-1,-1,-1,-1,-1,-1,-1,-1,-1,-1,-1,-1,-1,-1,-1,-1,-1,-1],"split_conditions":[5.88495E2,4.7591498E2,5.5696497E2,4.4931E2,6.06775E2,5.98125E2,1.243435E3,3.89485E2,3.99345E2,5.94085E2,4.32385E2,5.8378503E2,7.534076E0,1.24664E3,1.5907051E3,4.6164E2,3.8482E2,1.3612175E0,2.166504E-1,-6.626587E-1,-1.5302418E0,-1.294922E-1,1.9213258E-1,4.89785E2,2.3261719E0,6.06775E2,1.19273E3,1.781115E3,1.579865E3,4.53125E2,3.47285E2,3.6017E2,4.1154498E2,4.2878003E2,-1.0213075E0,5.37385E2,5.8842004E2,-3.2770205E0,1.378775E3,1.7843E3,1.83673E3,2.6993227E0,1.784505E3,-3.9269276E-2,-1.4836411E0,-4.761612E-1,1.0221558E0,6.309357E-2,-3.7737384E-1,-1.0091676E0,2.1850588E-2,5.6213383E-2,-1.1932984E-1,6.551514E-2,-1.3857361E0,1.09863286E-4,8.684967E-1,-1.4976059E0,-3.171631E-1,1.4344629E0,-9.004102E-1,3.4544022E0,9.52771E-1,-8.530457E-1,3.3312425E-2],"split_indices":[23,16,1,10,18,17,18,12,0,35,0,13,0,32,21,48,56,0,0,0,0,0,0,0,0,1,21,45,24,52,0,37,8,0,0,2,8,0,26,41,13,0,34,0,0,0,0,0,0,0,0,0,0,0,0,0,0,0,0,0,0,0,0,0,0],"split_type":[0,0,0,0,0,0,0,0,0,0,0,0,0,0,0,0,0,0,0,0,0,0,0,0,0,0,0,0,0,0,0,0,0,0,0,0,0,0,0,0,0,0,0,0,0,0,0,0,0,0,0,0,0,0,0,0,0,0,0,0,0,0,0,0,0],"sum_hessian":[6.58E2,2.84E2,3.74E2,2.74E2,1E1,8E0,3.66E2,2.7E2,4E0,8E0,2E0,5E0,3E0,2.2E1,3.44E2,2.48E2,2.2E1,3E0,1E0,4E0,4E0,1E0,1E0,3E0,2E0,1E1,1.2E1,1.3E1,3.31E2,2.34E2,1.4E1,1.1E1,1.1E1,2E0,1E0,6E0,4E0,3E0,9E0,8E0,5E0,1E0,3.3E2,2.29E2,5E0,3E0,1.1E1,5E0,6E0,9E0,2E0,1E0,1E0,1E0,5E0,1E0,3E0,7E0,2E0,4E0,4E0,4E0,1E0,1.7E1,3.13E2],"tree_param":{"num_deleted":"0","num_feature":"60","num_nodes":"65","size_leaf_vector":"0"}},{"base_weights":[1.711074E-2,1.6124892E-1,-4.1540748E-1,3.83395E-2,3.2384355E0,-2.9063778E0,-5.1781386E-2,1.372315E-1,-1.7551172E0,5.6032605E0,-1.1732314E-2,-1.758825E0,-6.2267823E0,3.8820434E0,-3.4065247E-1,6.298495E-3,3.1276855E0,-4.7481446E0,2.4858398E0,8.391113E-1,9.433533E0,1.1448975E0,-2.7066243E0,1.6476806E0,-2.933725E0,-1.3400879E0,-7.113434E0,-5.0151367E0,5.4278564E0,-2.6171176E0,-7.877307E-2,-2.3275262E-2,6.4206543E0,8.869324E0,1.4967957E0,-6.5990987E0,2.7358398E-1,-4.764811E-1,5.033854E0,-8.3099365E-1,2.786214E0,3.1340332E0,2.9103598E-1,3.5700684E0,-8.239339E-1,7.095947E-1,-3.296468E0,1.3309631E0,7.254476E0,-3.7525392E0,1.7714843E-1,1.5991821E0,-5.23141E-1,2.1691274E-2,-3.8857422E0,-9.4517934E-1,5.7242837E0,-9.173991E0,-2.9243572E0,7.8063965E-1,-4.8339844E-2,-2.6048992E0,1.2389526E0,-2.4829102E-1,-1.2895508E0,6.3161623E-1,-7.059326E-1,-1.4499512E0,2.140503E-1,-3.901062E0,-1.6698242E0,1.2634277E-2,1.7661947E0,-1.6428223E0,-4.0746155E0,-7.451782E-1,1.9332275E0,-2.1713257E-1,2.9456217E0,-3.2736468E0,-6.396197E-2],"categories":[],"categories_nodes":[],"categories_segments":[],"categories_sizes":[],"default_left":[1,1,1,1,1,1,1,1,1,1,1,1,1,1,1,1,1,1,1,1,0,1,0,1,1,0,0,0,1,1,1,1,0,0,1,1,1,1,0,1,0,0,1,0,1,0,1,1,0,1,1,1,1,0,0,0,0,0,0,0,0,0,0,0,0,0,0,0,0,0,0,0,0,0,0,0,0,0,0,0,0],"id":52,"left_children":[1,3,5,7,9,11,13,15,17,19,21,23,25,27,29,31,33,35,37,39,-1,41,-1,43,45,-1,-1,-1,47,49,51,53,-1,-1,55,57,59,61,-1,63,-1,-1,65,-1,67,-1,69,71,-1,73,75,77,79,-1,-1,-1,-1,-1,-1,-1,-1,-1,-1,-1,-1,-1,-1,-1,-1,-1,-1,-1,-1,-1,-1,-1,-1,-1,-1,-1,-1],"loss_changes":[4.115062E1,1.8709238E2,1.4930351E2,8.484087E1,1.4610121E2,6.906532E1,1.6609583E2,1.7735207E2,3.2913562E2,1.928121E2,3.1151737E1,7.287302E1,1.2131348E1,1.647552E2,8.087151E1,8.266746E1,1.6464003E2,1.4123026E2,8.542693E1,2.1826523E1,0E0,1.0977009E1,0E0,2.669851E1,1.9519806E1,0E0,0E0,0E0,5.769574E1,4.5082123E1,9.254904E1,7.5462166E1,0E0,0E0,1.7058519E2,7.725464E1,8.5390246E-1,2.5134308E1,0E0,7.48626E-1,0E0,0E0,2.4831653E0,0E0,2.2597506E0,0E0,5.2874146E0,2.2727985E0,0E0,1.0102844E-1,9.538992E0,6.4224106E1,1.23562126E2,0E0,0E0,0E0,0E0,0E0,0E0,0E0,0E0,0E0,0E0,0E0,0E0,0E0,0E0,0E0,0E0,0E0,0E0,0E0,0E0,0E0,0E0,0E0,0E0,0E0,0E0,0E0,0E0],"parents":[2147483647,0,0,1,1,2,2,3,3,4,4,5,5,6,6,7,7,8,8,9,9,10,10,11,11,12,12,13,13,14,14,15,15,16,16,17,17,18,18,19,19,21,21,23,23,24,24,28,28,29,29,30,30,31,31,34,34,35,35,36,36,37,37,39,39,42,42,44,44,46,46,47,47,49,49,50,50,51,51,52,52],"right_children":[2,4,6,8,10,12,14,16,18,20,22,24,26,28,30,32,34,36,38,40,-1,42,-1,44,46,-1,-1,-1,48,50,52,54,-1,-1,56,58,60,62,-1,64,-1,-1,66,-1,68,-1,70,72,-1,74,76,78,80,-1,-1,-1,-1,-1,-1,-1,-1,-1,-1,-1,-1,-1,-1,-1,-1,-1,-1,-1,-1,-1,-1,-1,-1,-1,-1,-1,-1],"split_conditions":[2.926565E3,2.780585E3,3.0136E3,3.1977148E3,2.849315E3,3.385885E3,3.081815E3,2.941845E3,3.39315E3,2.44362E3,2.96877E3,2.83006E3,3.183875E3,2.9839E3,2.601555E3,3.506995E3,1.882385E3,2.87648E3,2.3775E3,2.267925E3,2.83006E0,3.0690698E3,-8.1198734E-1,3.1760151E3,2.524125E3,-4.0202639E-1,-2.1340303E0,-1.504541E0,3.0574302E3,3.7755E3,2.969835E3,2.7957E3,1.9261963E0,2.660797E0,3.131225E3,3.27004E3,2.3195352E3,1.77953E3,1.5101563E0,2.34504E3,8.3586425E-1,9.4021E-1,3.4205E3,1.0710206E0,2.856095E3,2.1287842E-1,3.24288E3,2.764165E3,2.176343E0,2.399995E3,4.01397E3,3.17218E3,3.10923E3,6.5073823E-3,-1.1657227E0,-2.835538E-1,1.7172852E0,-2.7521975E0,-8.773072E-1,2.3419191E-1,-1.45019535E-2,-7.8146976E-1,3.716858E-1,-7.4487306E-2,-3.8686526E-1,1.8948488E-1,-2.1177979E-1,-4.3498537E-1,6.4215094E-2,-1.1703186E0,-5.009473E-1,3.7902833E-3,5.298584E-1,-4.928467E-1,-1.2223847E0,-2.2355348E-1,5.799683E-1,-6.513977E-2,8.8368654E-1,-9.820941E-1,-1.918859E-2],"split_indices":[32,33,33,59,26,2,33,58,57,0,34,37,4,32,47,41,11,38,38,1,0,0,0,17,27,0,0,0,31,26,52,57,0,0,47,58,5,4,0,0,0,0,0,0,0,0,19,0,0,12,3,37,53,0,0,0,0,0,0,0,0,0,0,0,0,0,0,0,0,0,0,0,0,0,0,0,0,0,0,0,0],"split_type":[0,0,0,0,0,0,0,0,0,0,0,0,0,0,0,0,0,0,0,0,0,0,0,0,0,0,0,0,0,0,0,0,0,0,0,0,0,0,0,0,0,0,0,0,0,0,0,0,0,0,0,0,0,0,0,0,0,0,0,0,0,0,0,0,0,0,0,0,0,0,0,0,0,0,0,0,0,0,0,0,0],"sum_hessian":[6.58E2,4.94E2,1.64E2,4.76E2,1.8E1,2E1,1.44E2,4.52E2,2.4E1,1E1,8E0,1.6E1,4E0,9E0,1.35E2,4.34E2,1.8E1,1.4E1,1E1,5E0,5E0,6E0,2E0,4E0,1.2E1,1E0,3E0,1E0,8E0,1.3E1,1.22E2,4.33E2,1E0,3E0,1.5E1,1E1,4E0,5E0,5E0,3E0,2E0,1E0,5E0,2E0,2E0,1E0,1.1E1,3E0,5E0,9E0,4E0,2.5E1,9.7E1,4.29E2,4E0,1E1,5E0,5E0,5E0,1E0,3E0,2E0,3E0,2E0,1E0,4E0,1E0,1E0,1E0,7E0,4E0,1E0,2E0,2E0,7E0,3E0,1E0,1.1E1,1.4E1,1.3E1,8.4E1],"tree_param":{"num_deleted":"0","num_feature":"60","num_nodes":"81","size_leaf_vector":"0"}},{"base_weights":[1.5366342E-2,3.41852E-2,-3.074768E0,1.1201236E-2,3.777771E0,6.2098425E-2,-1.5235189E0,4.853109E0,2.758789E-1,1.7442329E-2,1.6791992E0,-3.0954812E0,1.8694514E-1,3.9421666E-2,-2.680713E0,2.1139975E0,-1.0545248E0,-3.828186E0,-8.562012E-1,-7.07428E-1,1.9289551E0,-7.014533E-1,1.22564465E-1,-3.65625E0,-1.5227661E0,1.1635742E0,3.7821288E0,-1.1538086E0,4.2114258E-1],"categories":[],"categories_nodes":[],"categories_segments":[],"categories_sizes":[],"default_left":[1,1,0,1,1,1,1,0,0,1,1,1,1,1,1,1,0,0,0,1,0,0,0,0,0,0,0,0,0],"id":53,"left_children":[1,3,-1,5,7,9,11,-1,-1,13,15,17,19,21,23,25,-1,-1,-1,27,-1,-1,-1,-1,-1,-1,-1,-1,-1],"loss_changes":[3.842781E1,5.6401527E1,0E0,5.1102356E1,1.3723995E1,4.56818E1,5.7043163E1,0E0,0E0,3.6696037E1,2.2435772E1,1.4770348E1,1.8502672E1,3.7845802E1,8.049011E-2,1.9380676E1,0E0,0E0,0E0,4.5160937E0,0E0,0E0,0E0,0E0,0E0,0E0,0E0,0E0,0E0],"parents":[2147483647,0,0,1,1,3,3,4,4,5,5,6,6,9,9,10,10,11,11,12,12,13,13,14,14,15,15,19,19],"right_children":[2,4,-1,6,8,10,12,-1,-1,14,16,18,20,22,24,26,-1,-1,-1,28,-1,-1,-1,-1,-1,-1,-1,-1,-1],"split_conditions":[4.65487E3,4.6276396E3,-9.2243046E-1,4.145575E3,4.456285E3,3.94751E3,4.459385E3,1.4559327E0,8.276367E-2,4.193745E3,4.62838E3,4.5970195E3,4.3758047E3,1.6267499E2,2.92513E3,4.0676602E3,-3.1635743E-1,-1.1484559E0,-2.5686038E-1,4.28691E3,5.7868654E-1,-2.10436E-1,3.676934E-2,-1.0968751E0,-4.5682985E-1,3.4907228E-1,1.1346387E0,-3.461426E-1,1.2634277E-1],"split_indices":[13,13,0,15,2,24,21,0,0,36,2,7,34,50,0,15,0,0,0,7,0,0,0,0,0,0,0,0,0],"split_type":[0,0,0,0,0,0,0,0,0,0,0,0,0,0,0,0,0,0,0,0,0,0,0,0,0,0,0,0,0],"sum_hessian":[6.58E2,6.55E2,3E0,6.52E2,3E0,6.32E2,2E1,2E0,1E0,6.16E2,1.6E1,1E1,1E1,6.12E2,4E0,1.4E1,2E0,7E0,3E0,7E0,3E0,6.1E1,5.51E2,1E0,3E0,1E1,4E0,5E0,2E0],"tree_param":{"num_deleted":"0","num_feature":"60","num_nodes":"29","size_leaf_vector":"0"}},{"base_weights":[9.234126E-3,-2.520572E0,2.8531525E-2,-2.8850365E0,-5.313568E-1,1.4085312E0,-1.4909552E-2,-7.4464226E-1,2.6252124E0,-7.768083E-1,7.616958E-2,1.1598091E0,-2.1192749E0,-3.6919785E-1,3.5604553E0,7.554508E-1,-1.3023741E0,4.4716063E0,3.71371E-2,5.444692E-1,1.5029144E0,-1.0653076E0,2.1794128E-1,-4.2343903E-1,4.050159E0,1.030426E-1,2.4311035E0,-1.5216051E0,1.018872E0,1.0424042E-1,5.537388E0,2.1260562E0,-1.591001E-2,1.1494802E0,4.714713E0,1.047542E0,-7.362747E-1,1.5357971E-1,2.9620895E0,-1.6988773E0,3.072571E-1,1.6160965E0,-6.850128E-1,-1.55356275E-2,3.734192E0,-1.9013219E0,1.076351E-1],"categories":[],"categories_nodes":[],"categories_segments":[],"categories_sizes":[],"default_left":[1,1,1,0,0,1,1,1,1,1,1,1,0,1,1,1,1,1,1,0,0,0,0,0,1,1,1,1,1,0,0,1,1,0,0,0,0,0,0,0,0,0,0,0,0,0,0],"id":54,"left_children":[1,3,5,-1,-1,7,9,11,13,15,17,19,-1,21,23,25,27,29,31,-1,-1,-1,-1,-1,33,35,37,39,41,-1,-1,43,45,-1,-1,-1,-1,-1,-1,-1,-1,-1,-1,-1,-1,-1,-1],"loss_changes":[3.2243423E1,2.0920086E0,3.928738E1,0E0,0E0,5.434936E1,4.419317E1,2.3401321E1,3.7721016E1,5.574448E1,9.745432E1,2.6215076E-2,0E0,1.8670275E0,2.1224274E1,1.9427265E1,2.750367E1,2.2696068E1,6.2642105E1,0E0,0E0,0E0,0E0,0E0,1.1929443E1,1.1869565E1,5.591749E0,1.5759697E1,6.1950545E0,0E0,0E0,4.8273594E1,1.2878389E2,0E0,0E0,0E0,0E0,0E0,0E0,0E0,0E0,0E0,0E0,0E0,0E0,0E0,0E0],"parents":[2147483647,0,0,1,1,2,2,5,5,6,6,7,7,8,8,9,9,10,10,11,11,13,13,14,14,15,15,16,16,17,17,18,18,24,24,25,25,26,26,27,27,28,28,31,31,32,32],"right_children":[2,4,6,-1,-1,8,10,12,14,16,18,20,-1,22,24,26,28,30,32,-1,-1,-1,-1,-1,34,36,38,40,42,-1,-1,44,46,-1,-1,-1,-1,-1,-1,-1,-1,-1,-1,-1,-1,-1,-1],"split_conditions":[1.2243E2,2.3457E2,1.34275E2,-8.65511E-1,-1.5940705E-1,1.6228E2,1.8641E2,1.3170999E2,1.2985E2,1.3435501E2,1.5839E2,1.9327E2,-6.357825E-1,1.48805E2,1.20274994E2,1.4345001E2,2.65505E2,1.34175E2,1.992E2,1.6334076E-1,4.5087436E-1,-3.195923E-1,6.538239E-2,-1.2703171E-1,1.2747E2,1.30245E2,1.6389E2,2.1497E2,1.2989E2,3.127213E-2,1.6612164E0,1.8244E2,2.25695E2,3.4484407E-1,1.4144139E0,3.142626E-1,-2.2088243E-1,4.6073914E-2,8.886269E-1,-5.096632E-1,9.217713E-2,4.8482898E-1,-2.0550385E-1,-4.6606883E-3,1.1202576E0,-5.703966E-1,3.2290533E-2],"split_indices":[12,0,19,0,0,44,29,25,26,42,11,0,0,1,0,48,55,1,28,0,0,0,0,0,20,39,0,37,0,0,0,24,27,0,0,0,0,0,0,0,0,0,0,0,0,0,0],"split_type":[0,0,0,0,0,0,0,0,0,0,0,0,0,0,0,0,0,0,0,0,0,0,0,0,0,0,0,0,0,0,0,0,0,0,0,0,0,0,0,0,0,0,0,0,0,0,0],"sum_hessian":[6.58E2,4E0,6.54E2,3E0,1E0,1.9E1,6.35E2,7E0,1.2E1,6.7E1,5.68E2,3E0,4E0,3E0,9E0,1.7E1,5E1,4E0,5.64E2,2E0,1E0,1E0,2E0,1E0,8E0,1.3E1,4E0,4.6E1,4E0,1E0,3E0,1.3E1,5.51E2,2E0,6E0,6E0,7E0,1E0,3E0,4.2E1,4E0,3E0,1E0,6E0,7E0,3.3E1,5.18E2],"tree_param":{"num_deleted":"0","num_feature":"60","num_nodes":"47","size_leaf_vector":"0"}},{"base_weights":[1.1778534E-2,1.7161867E-1,-3.3807343E-1,-1.1184759E-1,1.4001766E0,-3.1135986E0,-1.2060737E-1,3.2361348E-3,-4.2436767E0,-4.8779297E0,1.6893504E0,-3.9775188E0,2.5656128E-1,1.4487183E0,-3.002965E-1,-9.982789E-2,3.000412E0,-5.4625244E0,4.2114258E-1,-8.549438E0,-8.042806E-1,2.8169847E0,4.9300924E-1,-7.2152915E0,-2.6084352E0,-1.1838989E0,1.1313477E0,-2.488322E0,2.0244074E0,-2.194983E0,-5.388341E-2,8.3321586E-2,-3.116803E0,3.8594239E0,-8.6309814E-1,-5.839844E-1,-6.076032E0,-2.0422363E-1,8.359375E-1,1.0707357E0,6.630099E0,-8.109428E-3,4.1026855E0,1.508667E0,1.8835449E-1,2.797583E0,-1.3811035E0,-1.1779282E0,-5.9687195E0,1.9150594E0,-4.114648E-1,-3.4876976E-2,5.5423236E0,-5.87084E0,1.7481079E0,1.7414795E0,4.98114E0,-6.58787E0,-1.5025024E0,3.8539374E0,-5.13562E-1,8.041492E0,-7.550456E-1,2.392444E0,-8.651603E-1,1.0089111E0,3.8779297E0,-2.4609375E-1,-1.6774088E0,-1.835795E0,3.341268E-1,2.757361E0,-1.8371582E0,-3.051602E0,5.351987E-3],"categories":[],"categories_nodes":[],"categories_segments":[],"categories_sizes":[],"default_left":[1,1,1,1,1,1,1,1,1,1,1,1,1,1,1,1,1,1,1,0,0,1,1,0,0,0,1,0,1,1,1,1,1,1,0,0,1,0,0,1,1,1,0,0,0,1,1,1,0,1,1,0,0,0,0,0,0,0,0,0,0,0,0,0,0,0,0,0,0,0,0,0,0,0,0],"id":55,"left_children":[1,3,5,7,9,11,13,15,17,19,21,23,25,27,29,31,33,35,37,-1,-1,39,41,-1,-1,-1,43,-1,45,47,49,51,53,55,-1,-1,57,-1,-1,59,61,63,-1,-1,-1,65,67,69,-1,71,73,-1,-1,-1,-1,-1,-1,-1,-1,-1,-1,-1,-1,-1,-1,-1,-1,-1,-1,-1,-1,-1,-1,-1,-1],"loss_changes":[3.690955E1,1.57916E2,1.2456607E2,1.7547554E2,1.6255492E2,4.4693695E1,5.4859257E1,1.1150389E2,5.9157547E1,5.29496E1,1.092321E2,3.4372772E1,6.3797812E0,5.036759E1,8.111806E1,1.9310223E2,4.3156677E1,2.0395874E1,9.4891435E-1,0E0,0E0,2.7256406E2,7.419719E1,0E0,0E0,0E0,7.832644E-1,0E0,5.1258797E1,6.973121E1,1.0991687E2,2.1312456E2,2.7822577E2,1.5082779E1,0E0,0E0,6.488037E0,0E0,0E0,1.3426184E2,1.415752E2,7.8193504E1,0E0,0E0,0E0,2.5073296E1,9.324379E-1,1.7523813E1,0E0,8.091766E1,1.4527618E2,0E0,0E0,0E0,0E0,0E0,0E0,0E0,0E0,0E0,0E0,0E0,0E0,0E0,0E0,0E0,0E0,0E0,0E0,0E0,0E0,0E0,0E0,0E0,0E0],"parents":[2147483647,0,0,1,1,2,2,3,3,4,4,5,5,6,6,7,7,8,8,9,9,10,10,11,11,12,12,13,13,14,14,15,15,16,16,17,17,18,18,21,21,22,22,26,26,28,28,29,29,30,30,31,31,32,32,33,33,36,36,39,39,40,40,41,41,45,45,46,46,47,47,49,49,50,50],"right_children":[2,4,6,8,10,12,14,16,18,20,22,24,26,28,30,32,34,36,38,-1,-1,40,42,-1,-1,-1,44,-1,46,48,50,52,54,56,-1,-1,58,-1,-1,60,62,64,-1,-1,-1,66,68,70,-1,72,74,-1,-1,-1,-1,-1,-1,-1,-1,-1,-1,-1,-1,-1,-1,-1,-1,-1,-1,-1,-1,-1,-1,-1,-1],"split_conditions":[2.58024E3,1.961845E3,2.6423599E3,2.21176E3,1.78742E3,3.720885E3,2.8134E3,1.8601951E3,2.84103E3,2.834625E3,2.74027E3,2.531625E3,2.711585E3,2.299615E3,2.8908052E3,1.81927E3,2.9416948E3,2.256415E3,3.22551E3,-2.5648317E0,-2.4128418E-1,2.44688E3,3.95902E3,-2.1645875E0,-7.825306E-1,-3.5516968E-1,3.350885E3,-7.464966E-1,3.2839302E3,2.866255E3,2.92706E3,1.82948E3,1.7912051E3,1.64394E3,-2.5892946E-1,-1.7519532E-1,3.01431E3,-6.1267093E-2,2.5078127E-1,1.80211E3,2.70369E3,1.80978E3,1.2308056E0,4.5260012E-1,5.650635E-2,2.755935E3,2.33412E3,3.0805352E3,-1.7906159E0,3.8070151E3,3.129025E3,-1.0463093E-2,1.6626972E0,-1.761252E0,5.244324E-1,5.224439E-1,1.4943421E0,-1.9763612E0,-4.5075074E-1,1.1561812E0,-1.5406862E-1,2.412448E0,-2.2651368E-1,7.177332E-1,-2.595481E-1,3.0267334E-1,1.163379E0,-7.382813E-2,-5.0322264E-1,-5.507385E-1,1.0023805E-1,8.2720834E-1,-5.5114746E-1,-9.154806E-1,1.6055963E-3],"split_indices":[41,36,41,24,46,12,41,33,17,0,7,42,0,37,39,54,3,8,0,0,0,5,4,0,0,0,0,0,33,39,32,43,0,16,0,0,3,0,0,8,8,58,0,0,0,42,5,26,0,49,34,0,0,0,0,0,0,0,0,0,0,0,0,0,0,0,0,0,0,0,0,0,0,0,0],"split_type":[0,0,0,0,0,0,0,0,0,0,0,0,0,0,0,0,0,0,0,0,0,0,0,0,0,0,0,0,0,0,0,0,0,0,0,0,0,0,0,0,0,0,0,0,0,0,0,0,0,0,0,0,0,0,0,0,0,0,0,0,0,0,0,0,0,0,0,0,0,0,0,0,0,0,0],"sum_hessian":[6.58E2,4.52E2,2.06E2,3.68E2,8.4E1,1.4E1,1.92E2,3.59E2,9E0,3E0,8.1E1,1.1E1,3E0,1.9E1,1.73E2,3.48E2,1.1E1,7E0,2E0,1E0,2E0,4.1E1,4E1,2E0,9E0,1E0,2E0,2E0,1.7E1,1.9E1,1.54E2,3.29E2,1.9E1,9E0,2E0,1E0,6E0,1E0,1E0,2.9E1,1.2E1,3.6E1,4E0,1E0,1E0,1.4E1,3E0,1.6E1,3E0,2.3E1,1.31E2,3.23E2,6E0,1.2E1,7E0,4E0,5E0,5E0,1E0,1E1,1.9E1,1E1,2E0,9E0,2.7E1,6E0,8E0,1E0,2E0,1.1E1,5E0,1.9E1,4E0,1.7E1,1.14E2],"tree_param":{"num_deleted":"0","num_feature":"60","num_nodes":"75","size_leaf_vector":"0"}},{"base_weights":[2.628506E-3,8.514808E-2,-4.6500897E-1,5.791812E-2,5.130615E0,-3.2600403E0,-2.1690834E-1,1.0864525E-1,-2.7378662E0,-4.865674E0,-4.3798828E-1,-1.3510277E0,1.16889104E-1,2.986348E-2,2.0917735E0,-1.047933E0,-4.218213E0,7.055664E-1,-1.0543619E0,-9.300232E-2,-4.480591E0,1.5835693E0,-4.3878058E-1,5.3318847E-2,-4.108236E0,3.6348674E0,3.0883789E-2,-6.543666E-1,2.5576985E0,6.632487E-3,2.1087728E0,-1.9808431E0,1.6557117E-1,2.735446E-2,3.447815E0,-5.2075195E-1,5.077935E0,-1.4350992E0,1.7838867E0,1.884847E0,-1.2346395E0,-6.631673E-1,5.073242E-1,-9.1955566E-1,2.3907645E0,-2.3882213E0,4.4474283E-1,4.138977E0,-2.8051758E-1],"categories":[],"categories_nodes":[],"categories_segments":[],"categories_sizes":[],"default_left":[1,1,1,1,0,1,1,1,1,0,1,1,1,1,1,0,0,0,0,1,0,1,1,1,0,1,1,1,0,1,1,1,1,0,0,0,0,0,0,0,0,0,0,0,0,0,0,0,0],"id":56,"left_children":[1,3,5,7,-1,9,11,13,15,-1,17,19,21,23,25,-1,-1,-1,-1,27,-1,29,31,33,-1,35,37,39,-1,41,43,45,47,-1,-1,-1,-1,-1,-1,-1,-1,-1,-1,-1,-1,-1,-1,-1,-1],"loss_changes":[2.5469908E1,7.677744E1,6.7944336E1,7.9576035E1,0E0,3.411834E1,3.4986008E1,8.586644E1,2.0596466E1,0E0,3.5633507E0,8.226176E1,5.93741E1,5.1661182E1,6.6670815E1,0E0,0E0,0E0,0E0,2.5481813E1,0E0,1.6550274E1,4.9721222E1,4.6441505E1,0E0,7.460643E1,2.825878E1,2.295522E1,0E0,2.3486202E0,1.5007889E1,1.5884106E1,7.028823E1,0E0,0E0,0E0,0E0,0E0,0E0,0E0,0E0,0E0,0E0,0E0,0E0,0E0,0E0,0E0,0E0],"parents":[2147483647,0,0,1,1,2,2,3,3,5,5,6,6,7,7,8,8,10,10,11,11,12,12,13,13,14,14,19,19,21,21,22,22,23,23,25,25,26,26,27,27,29,29,30,30,31,31,32,32],"right_children":[2,4,6,8,-1,10,12,14,16,-1,18,20,22,24,26,-1,-1,-1,-1,28,-1,30,32,34,-1,36,38,40,-1,42,44,46,48,-1,-1,-1,-1,-1,-1,-1,-1,-1,-1,-1,-1,-1,-1,-1,-1],"split_conditions":[3.3085E3,3.948085E3,3.28201E3,3.581145E3,1.5391847E0,3.742575E3,3.068145E3,3.19358E3,3.1600352E3,-1.4597023E0,2.10469E3,2.9502002E3,3.7554248E3,3.18177E3,3.303775E3,-3.143799E-1,-1.265464E0,2.1166994E-1,-3.163086E-1,4.0150698E3,-1.3441772E0,3.00623E3,3.93244E3,3.936325E3,-1.2324708E0,2.532365E3,3.4665E3,2.319045E3,7.673096E-1,3.364215E3,3.297585E3,4.425325E3,3.91104E3,8.206339E-3,1.0343446E0,-1.5622559E-1,1.5233806E0,-4.305298E-1,5.35166E-1,5.654541E-1,-3.7039188E-1,-1.989502E-1,1.5219727E-1,-2.7586672E-1,7.1722937E-1,-7.164664E-1,1.3342285E-1,1.2416931E0,-8.415528E-2],"split_indices":[35,47,34,45,0,40,19,38,35,0,4,19,22,37,42,0,0,0,0,40,0,11,22,56,0,19,40,14,0,0,36,5,23,0,0,0,0,0,0,0,0,0,0,0,0,0,0,0,0],"split_type":[0,0,0,0,0,0,0,0,0,0,0,0,0,0,0,0,0,0,0,0,0,0,0,0,0,0,0,0,0,0,0,0,0,0,0,0,0,0,0,0,0,0,0,0,0,0,0,0,0],"sum_hessian":[6.58E2,5.6E2,9.8E1,5.58E2,2E0,7E0,9.1E1,5.49E2,9E0,4E0,3E0,2E1,7.1E1,5.29E2,2E1,5E0,4E0,1E0,2E0,1.5E1,5E0,1.9E1,5.2E1,5.27E2,2E0,1.1E1,9E0,1.3E1,2E0,5E0,1.4E1,1.4E1,3.8E1,5.24E2,3E0,3E0,8E0,5E0,4E0,2E0,1.1E1,2E0,3E0,1E0,1.3E1,1.2E1,2E0,3E0,3.5E1],"tree_param":{"num_deleted":"0","num_feature":"60","num_nodes":"49","size_leaf_vector":"0"}},{"base_weights":[2.2262202E-3,1.6860647E-2,-2.3983765E0,-1.7949448E0,3.3533417E-2,-4.3286133E-1,-2.909261E0,-6.310069E-1,-2.219162E0,1.4719127E0,8.797525E-3,-8.273201E-1,2.43754E0,-2.281433E0,2.6760407E-2,4.9913535E-1,3.0004857E0,2.861781E0,1.3324467E-2,-1.8913879E0,2.839616E-2],"categories":[],"categories_nodes":[],"categories_segments":[],"categories_sizes":[],"default_left":[1,1,1,1,1,0,0,0,0,1,1,0,1,0,1,0,0,0,1,0,0],"id":57,"left_children":[1,3,5,7,9,-1,-1,-1,-1,11,13,-1,15,-1,17,-1,-1,-1,19,-1,-1],"loss_changes":[2.3192062E1,1.9876513E1,2.7572994E0,1.5622692E0,2.3149368E1,0E0,0E0,0E0,0E0,2.643885E1,2.643124E1,0E0,7.2320824E0,0E0,2.422594E1,0E0,0E0,0E0,1.8282804E1,0E0,0E0],"parents":[2147483647,0,0,1,1,2,2,3,3,4,4,9,9,10,10,12,12,14,14,18,18],"right_children":[2,4,6,8,10,-1,-1,-1,-1,12,14,-1,16,-1,18,-1,-1,-1,20,-1,-1],"split_conditions":[4.6295195E3,1.24795E2,3.85792E3,1.4164499E2,1.2810501E2,-1.298584E-1,-8.7277836E-1,-1.8930207E-1,-6.657486E-1,1.25935E2,1.27545E2,-2.4819604E-1,2.0211499E2,-6.8442994E-1,1.30125E2,1.497406E-1,9.001457E-1,8.585343E-1,1.221E2,-5.674164E-1,8.518849E-3],"split_indices":[32,5,5,0,10,0,0,0,0,11,16,0,58,0,16,0,0,0,50,0,0],"split_type":[0,0,0,0,0,0,0,0,0,0,0,0,0,0,0,0,0,0,0,0,0],"sum_hessian":[6.58E2,6.55E2,3E0,5E0,6.5E2,1E0,2E0,2E0,3E0,1E1,6.4E2,3E0,7E0,4E0,6.36E2,2E0,5E0,2E0,6.34E2,4E0,6.3E2],"tree_param":{"num_deleted":"0","num_feature":"60","num_nodes":"21","size_leaf_vector":"0"}},{"base_weights":[-6.3145685E-4,1.2361677E-2,-2.1313477E0,-4.297499E-3,2.7288818E0,1.1043619E-1,-2.6285502E-1,7.763672E-1,4.293213E0,7.602613E-3,2.4589715E0,-2.3814616E0,-9.1507696E-2,5.9408147E-2,-1.6786546E0,4.4792705E0,-2.835015E-1,-3.0453289E0,2.0550537E-1,8.5925674E-1,-2.859497E-1,-4.957945E-2,1.8733927E0,5.039876E-1,-3.1058044E0,1.0434164E0,7.168579E0,-2.069057E0,3.977295E0,-5.7834473E0,-1.9193604E0,-1.0146484E0,9.5043945E-1,3.0479273E-1,4.6643066E0,-1.3380276E0,8.837049E-2],"categories":[],"categories_nodes":[],"categories_segments":[],"categories_sizes":[],"default_left":[1,1,0,1,1,1,1,0,0,1,1,1,1,1,1,1,1,1,1,1,1,0,0,0,0,0,0,0,0,0,0,0,0,0,0,0,0],"id":58,"left_children":[1,3,-1,5,7,9,11,-1,-1,13,15,17,19,21,23,25,27,29,31,33,35,-1,-1,-1,-1,-1,-1,-1,-1,-1,-1,-1,-1,-1,-1,-1,-1],"loss_changes":[1.8270552E1,2.9699E1,0E0,1.9400444E1,8.884409E0,1.0938457E2,7.274861E1,0E0,0E0,3.810022E1,1.06541565E2,2.6386871E1,3.4816124E1,8.372075E1,4.2059727E1,9.416098E1,7.670024E1,2.5895905E1,4.6000986E0,6.6090775E1,6.1553226E1,0E0,0E0,0E0,0E0,0E0,0E0,0E0,0E0,0E0,0E0,0E0,0E0,0E0,0E0,0E0,0E0],"parents":[2147483647,0,0,1,1,3,3,4,4,5,5,6,6,9,9,10,10,11,11,12,12,13,13,14,14,15,15,16,16,17,17,18,18,19,19,20,20],"right_children":[2,4,-1,6,8,10,12,-1,-1,14,16,18,20,22,24,26,28,30,32,34,36,-1,-1,-1,-1,-1,-1,-1,-1,-1,-1,-1,-1,-1,-1,-1,-1],"split_conditions":[4.65487E3,4.6276396E3,-6.394043E-1,2.58024E3,4.287505E3,2.511685E3,2.6423599E3,2.3291017E-1,1.2879639E0,3.059225E3,3.1252651E3,3.720885E3,2.60593E3,2.1390698E3,1.80896E3,2.64693E3,3.320005E3,2.531625E3,2.711585E3,2.667685E3,2.9768052E3,-1.4873835E-2,5.6201786E-1,1.5119629E-1,-9.3174136E-1,3.1302494E-1,2.1505737E0,-6.207171E-1,1.1931885E0,-1.7350342E0,-5.7580817E-1,-3.0439454E-1,2.8513184E-1,9.1437824E-2,1.399292E0,-4.0140828E-1,2.6511148E-2],"split_indices":[13,13,0,41,0,42,41,0,0,59,57,12,55,42,14,54,56,42,0,56,57,0,0,0,0,0,0,0,0,0,0,0,0,0,0,0,0],"split_type":[0,0,0,0,0,0,0,0,0,0,0,0,0,0,0,0,0,0,0,0,0,0,0,0,0,0,0,0,0,0,0,0,0,0,0,0,0],"sum_hessian":[6.58E2,6.55E2,3E0,6.52E2,3E0,4.52E2,2E2,2E0,1E0,4.34E2,1.8E1,1.4E1,1.86E2,4.22E2,1.2E1,1E1,8E0,1.1E1,3E0,3.1E1,1.55E2,3.99E2,2.3E1,5E0,7E0,5E0,5E0,6E0,2E0,2E0,9E0,1E0,2E0,2.8E1,3E0,4E1,1.15E2],"tree_param":{"num_deleted":"0","num_feature":"60","num_nodes":"37","size_leaf_vector":"0"}},{"base_weights":[3.2990358E-3,1.1056101E-1,-2.620506E-1,4.5159042E-2,5.160787E0,-3.5289612E0,-1.1780285E-1,-3.2295838E-2,1.2551619E0,7.6854553E0,7.430013E-2,-9.33667E-1,-5.8908386E0,1.9781827E0,-2.5039268E-1,5.7132453E-2,-3.5089333E0,1.8337402E0,-7.4253625E-1,8.681926E0,2.3480225E0,1.2023315E0,-1.0908813E0,3.1536052E0,4.7306314E-1,-6.5594077E0,-1.3824391E-1,1.2380474E-2,3.840674E0,6.413574E-1,-4.502482E0,9.680447E-1,4.583496E0,3.5654297E-1,-2.326823E0,7.1899414E-1,-3.782959E-1,-2.8237102E0,-4.0346075E-2,7.58442E-2,-1.7231201E0,5.0494995E0,-4.9731445E-1,-1.3439941E-1,1.0964355E0,-1.374939E0,-5.837097E0,1.3957345E0,-4.230957E-1,5.227051E0,1.0046387E0,-1.0778809E0,9.8461914E-1,-6.8621826E-1,-3.1139648E0,2.228533E0,-1.3935737E-1],"categories":[],"categories_nodes":[],"categories_segments":[],"categories_sizes":[],"default_left":[1,1,1,1,1,1,1,1,1,1,1,0,0,1,1,1,1,1,1,0,0,0,0,0,1,0,1,1,1,1,1,1,1,1,0,0,0,1,1,0,0,0,0,0,0,0,0,0,0,0,0,0,0,0,0,0,0],"id":59,"left_children":[1,3,5,7,9,11,13,15,17,19,21,-1,-1,23,25,27,29,31,33,-1,-1,-1,-1,-1,35,-1,37,39,41,43,45,47,49,51,-1,-1,-1,53,55,-1,-1,-1,-1,-1,-1,-1,-1,-1,-1,-1,-1,-1,-1,-1,-1,-1,-1],"loss_changes":[1.8785381E1,1.5500546E2,8.912072E1,4.362063E1,7.647911E1,4.3538063E1,5.1352184E1,1.3637895E2,3.3724716E1,8.8900757E-1,5.254685E0,0E0,0E0,1.7968807E1,1.2149904E2,7.242182E1,4.8246384E1,4.79329E1,1.3018409E1,0E0,0E0,0E0,0E0,0E0,1.5282459E0,0E0,4.48422E1,4.6830616E1,2.8730553E1,1.20645E0,2.954094E1,1.1300108E1,6.264656E0,5.565939E0,0E0,0E0,0E0,1.5856438E0,3.760158E1,0E0,0E0,0E0,0E0,0E0,0E0,0E0,0E0,0E0,0E0,0E0,0E0,0E0,0E0,0E0,0E0,0E0,0E0],"parents":[2147483647,0,0,1,1,2,2,3,3,4,4,5,5,6,6,7,7,8,8,9,9,10,10,13,13,14,14,15,15,16,16,17,17,18,18,24,24,26,26,27,27,28,28,29,29,30,30,31,31,32,32,33,33,37,37,38,38],"right_children":[2,4,6,8,10,12,14,16,18,20,22,-1,-1,24,26,28,30,32,34,-1,-1,-1,-1,-1,36,-1,38,40,42,44,46,48,50,52,-1,-1,-1,54,56,-1,-1,-1,-1,-1,-1,-1,-1,-1,-1,-1,-1,-1,-1,-1,-1,-1,-1],"split_conditions":[2.734605E3,2.84562E3,2.515065E3,2.526155E3,2.74027E3,2.55749E3,2.6291401E3,2.444905E3,3.03828E3,2.85601E3,3.319455E3,-2.801001E-1,-1.7672516E0,2.708245E3,2.736025E3,2.4510352E3,1.96102E3,3.088905E3,3.3216152E3,2.6045778E0,7.0440674E-1,3.6069947E-1,-3.2726443E-1,9.460816E-1,3.34865E3,-1.9678224E0,2.44906E3,2.3215898E3,2.37201E3,2.856895E3,2.56823E3,2.628335E3,2.91081E3,2.71012E3,-6.980469E-1,2.1569826E-1,-1.1348877E-1,3.00699E3,2.515505E3,2.2753261E-2,-5.1693606E-1,1.5148499E0,-1.4919434E-1,-4.0319826E-2,3.2893068E-1,-4.124817E-1,-1.7511293E0,4.187204E-1,-1.2692872E-1,1.5681154E0,3.013916E-1,-3.2336426E-1,2.9538575E-1,-2.0586549E-1,-9.341895E-1,6.685599E-1,-4.1807212E-2],"split_indices":[6,4,10,7,7,11,12,6,59,0,0,0,0,28,10,5,23,47,47,0,0,0,0,0,2,0,17,12,7,0,5,5,0,10,0,0,0,1,18,0,0,0,0,0,0,0,0,0,0,0,0,0,0,0,0,0,0],"split_type":[0,0,0,0,0,0,0,0,0,0,0,0,0,0,0,0,0,0,0,0,0,0,0,0,0,0,0,0,0,0,0,0,0,0,0,0,0,0,0,0,0,0,0,0,0,0,0,0,0,0,0,0,0,0,0,0,0],"sum_hessian":[6.58E2,4.69E2,1.89E2,4.64E2,5E0,7E0,1.82E2,4.37E2,2.7E1,3E0,2E0,4E0,3E0,1E1,1.72E2,4.27E2,1E1,2.1E1,6E0,2E0,1E0,1E0,1E0,5E0,5E0,2E0,1.7E2,4.23E2,4E0,2E0,8E0,1.7E1,4E0,4E0,2E0,4E0,1E0,5E0,1.65E2,4.09E2,1.4E1,3E0,1E0,1E0,1E0,3E0,5E0,1.3E1,4E0,3E0,1E0,1E0,3E0,1E0,4E0,6E0,1.59E2],"tree_param":{"num_deleted":"0","num_feature":"60","num_nodes":"57","size_leaf_vector":"0"}},{"base_weights":[2.7605789E-3,-1.3972759E0,1.9934706E-2,-3.405037E-1,-1.9632385E0,2.0641754E0,4.1304813E-3,5.0102234E-1,2.329708E0,-3.914561E-1,6.6175915E-2,1.046435E-1,-1.4043705E0,1.2134132E0,-5.590478E-2,7.54953E-1,-5.280639E-1,-8.999854E-1,-3.6454225E0,6.0385114E-1,3.5413513E0,-1.3190905E0,6.971606E-2,-1.5914398E0,1.1771457E0,1.5738525E0,-8.977497E-1,-1.4525701E0,7.284568E-1,-1.631073E0,-4.444631E0,2.6031835E0,-2.2724795E-1,6.82421E-1,6.8355837E0,1.6666832E0,-1.5661603E0,3.0664062E0,-3.205154E-3],"categories":[],"categories_nodes":[],"categories_segments":[],"categories_sizes":[],"default_left":[1,1,1,0,0,1,1,0,0,1,1,1,1,1,1,1,1,1,1,1,1,1,1,0,0,0,0,0,0,0,0,0,0,0,0,0,0,0,0],"id":60,"left_children":[1,3,5,-1,-1,7,9,-1,-1,11,13,15,17,19,21,23,25,27,29,31,33,35,37,-1,-1,-1,-1,-1,-1,-1,-1,-1,-1,-1,-1,-1,-1,-1,-1],"loss_changes":[1.5873118E1,4.1162596E0,2.1056055E1,0E0,0E0,9.0810585E-1,1.5930637E1,0E0,0E0,4.4367527E1,7.863899E1,2.5085999E1,2.9499413E1,7.4488785E1,8.0702644E1,3.1592255E1,2.5501438E1,2.3554443E1,7.999115E-1,7.370388E1,9.893303E1,3.6544243E1,1.0118564E2,0E0,0E0,0E0,0E0,0E0,0E0,0E0,0E0,0E0,0E0,0E0,0E0,0E0,0E0,0E0,0E0],"parents":[2147483647,0,0,1,1,2,2,5,5,6,6,9,9,10,10,11,11,12,12,13,13,14,14,15,15,16,16,17,17,18,18,19,19,20,20,21,21,22,22],"right_children":[2,4,6,-1,-1,8,10,-1,-1,12,14,16,18,20,22,24,26,28,30,32,34,36,38,-1,-1,-1,-1,-1,-1,-1,-1,-1,-1,-1,-1,-1,-1,-1,-1],"split_conditions":[1.2468E2,1.2316E2,1.2243E2,-1.0215111E-1,-5.8897156E-1,2.18525E2,1.87825E2,1.503067E-1,6.9891244E-1,1.66215E2,2.3312E2,1.5E2,2.3932E2,2.0519E2,2.4102E2,1.2747E2,1.2747E2,1.8839499E2,1.272E2,1.698E2,2.3025E2,1.5467499E2,3.4096997E2,-4.7743198E-1,3.5314372E-1,4.7215578E-1,-2.6932493E-1,-4.3577105E-1,2.1853705E-1,-4.8932192E-1,-1.3333894E0,7.809551E-1,-6.817439E-2,2.0472632E-1,2.0506752E0,5.00005E-1,-4.6984813E-1,9.1992193E-1,-9.6154626E-4],"split_indices":[34,32,29,0,0,0,28,0,0,23,38,3,59,0,5,15,52,22,0,5,39,6,14,0,0,0,0,0,0,0,0,0,0,0,0,0,0,0,0],"split_type":[0,0,0,0,0,0,0,0,0,0,0,0,0,0,0,0,0,0,0,0,0,0,0,0,0,0,0,0,0,0,0,0,0,0,0,0,0,0,0],"sum_hessian":[6.58E2,7E0,6.51E2,3E0,4E0,4E0,6.47E2,1E0,3E0,8.7E1,5.6E2,5.9E1,2.8E1,5.3E1,5.07E2,2.9E1,3E1,2.4E1,4E0,4.3E1,1E1,4.5E1,4.62E2,4E0,2.5E1,4E0,2.6E1,1.8E1,6E0,2E0,2E0,1.2E1,3.1E1,6E0,4E0,3E0,4.2E1,1E1,4.52E2],"tree_param":{"num_deleted":"0","num_feature":"60","num_nodes":"39","size_leaf_vector":"0"}},{"base_weights":[5.150258E-3,-5.2737696E-3,2.2862957E0,1.330037E-2,-1.5137634E0,-8.419084E-3,1.5611436E0,-5.673421E-1,-2.9020183E0,3.276148E-2,-8.211315E-1,3.3422852E-1,2.1188965E0,3.6010742E-1,-8.2485354E-1,-9.10689E-3,1.9626276E0,-2.4372864E0,-2.4819946E-1,-9.106445E-2,5.0634766E-1,2.1601243E-2,-1.8230469E0,1.7574055E-1,3.0574646E0,7.071533E-1,-2.987514E0,2.4941677E-1,-1.492327E0],"categories":[],"categories_nodes":[],"categories_segments":[],"categories_sizes":[],"default_left":[1,1,0,1,1,1,1,1,0,1,1,1,0,0,0,1,1,1,1,0,0,0,0,0,0,0,0,0,0],"id":61,"left_children":[1,3,-1,5,7,9,11,13,-1,15,17,19,-1,-1,-1,21,23,25,27,-1,-1,-1,-1,-1,-1,-1,-1,-1,-1],"loss_changes":[1.5682236E1,1.842855E1,0E0,2.1865047E1,8.864553E0,2.151333E1,5.4506416E0,1.7300086E0,0E0,4.9467693E1,2.809942E1,3.389145E-1,0E0,0E0,0E0,3.3461006E1,2.4895233E1,1.5953888E1,1.5230564E1,0E0,0E0,0E0,0E0,0E0,0E0,0E0,0E0,0E0,0E0],"parents":[2147483647,0,0,1,1,3,3,4,4,5,5,6,6,7,7,9,9,10,10,11,11,15,15,16,16,17,17,18,18],"right_children":[2,4,-1,6,8,10,12,14,-1,16,18,20,-1,-1,-1,22,24,26,28,-1,-1,-1,-1,-1,-1,-1,-1,-1,-1],"split_conditions":[4.67275E3,4.521425E3,6.858887E-1,4.30873E3,4.352455E3,3.924045E3,4.3033203E3,2.7854048E3,-8.706055E-1,3.80798E3,2.9236602E3,3.60051E3,6.35669E-1,1.08032234E-1,-2.4745607E-1,3.7419E3,3.01162E3,1.6745249E3,4.32292E3,-2.7319336E-2,1.519043E-1,6.480373E-3,-5.469141E-1,5.2722167E-2,9.172394E-1,2.12146E-1,-8.9625424E-1,7.482503E-2,-4.4769812E-1],"split_indices":[43,46,0,45,34,53,47,4,0,52,14,1,0,0,0,49,27,4,40,0,0,0,0,0,0,0,0,0,0],"split_type":[0,0,0,0,0,0,0,0,0,0,0,0,0,0,0,0,0,0,0,0,0,0,0,0,0,0,0,0,0],"sum_hessian":[6.58E2,6.56E2,2E0,6.49E2,7E0,6.41E2,8E0,5E0,2E0,6.11E2,3E1,3E0,5E0,1E0,4E0,5.99E2,1.2E1,7E0,2.3E1,1E0,2E0,5.9E2,9E0,5E0,7E0,1E0,6E0,1.7E1,6E0],"tree_param":{"num_deleted":"0","num_feature":"60","num_nodes":"29","size_leaf_vector":"0"}},{"base_weights":[3.2871228E-3,-1.6504887E-1,1.3121371E-1,6.609071E-2,-1.3674065E0,9.950636E0,-1.099471E-1,-6.731025E-2,2.6063182E0,-3.071955E0,-8.085887E-1,-1.6075897E0,1.5997681E1,-3.6278937E0,6.075102E-2,3.6465824E-2,-2.9386826E0,6.3808975E0,6.3913643E-1,-1.3185068E0,-4.3134103E0,-2.8315617E-2,-2.5793624E0,-1.8263753E-1,-2.9412231E0,6.13973E0,1.9391724E1,-2.232381E0,-9.396159E0,2.8174298E0,-4.514153E-2,-4.0052634E-2,2.7978058E0,-4.43999E0,-3.2737732E-1,-9.9557495E-1,2.1460204E0,8.029175E-2,-2.0379791E0,-1.2830658E0,-4.662866E0,-7.107544E-1,1.9255545E0,-3.1708646E0,5.493164E-2,1.1166382E-1,-3.8562012E-1,-4.0582275E0,-1.2748718E-1,4.35791E0,-1.7381287E0,-4.7619324E0,6.865205E-2,3.8318012E-3,-3.171753E0,1.1932373E-1,4.107216E0,-5.449626E-1,1.6268921E-1,-1.3219681E0,1.5499878E-1,3.5944214E0,-1.7720541E-2,2.8923035E-1,-1.6879272E-1,8.4251404E-1,-1.0344203E0,2.3200886E0,-2.208252E-1,-1.7548584E0,-3.9526978E0,-4.144287E-1,4.9682617E-1,-4.5365396E-1,-5.184143E0,9.0354E-1,-1.3843994E0,3.8517252E-1,5.302948E0,-2.250407E0,-1.0064697E-1,-5.472046E0,-1.7543945E0,2.723078E0,-2.2240302E-2],"categories":[],"categories_nodes":[],"categories_segments":[],"categories_sizes":[],"default_left":[1,1,1,1,1,1,1,1,1,1,1,1,1,1,1,1,1,0,1,1,1,1,1,1,0,0,0,1,0,1,1,1,1,0,1,1,1,1,0,0,0,1,1,1,1,0,0,1,1,1,1,1,1,0,0,0,0,0,0,0,0,0,0,0,0,0,0,0,0,0,0,0,0,0,0,0,0,0,0,0,0,0,0,0,0],"id":62,"left_children":[1,3,5,7,9,11,13,15,17,19,21,23,25,27,29,31,33,-1,35,37,39,41,43,45,-1,-1,-1,47,-1,49,51,53,55,-1,57,59,61,63,-1,-1,-1,65,67,69,71,-1,-1,73,75,77,79,81,83,-1,-1,-1,-1,-1,-1,-1,-1,-1,-1,-1,-1,-1,-1,-1,-1,-1,-1,-1,-1,-1,-1,-1,-1,-1,-1,-1,-1,-1,-1,-1,-1],"loss_changes":[1.4212989E1,7.929542E1,8.8911646E2,8.150394E1,4.133252E1,6.547557E2,2.2060641E2,6.834452E1,8.502514E1,1.8257843E1,4.9667694E1,7.0642786E0,8.168994E1,1.1586885E2,1.025882E2,4.7019215E1,2.9909431E1,0E0,2.4306408E1,6.202014E0,3.7107086E-1,3.603691E1,1.7314278E1,2.2227398E-1,0E0,0E0,0E0,5.713083E1,0E0,9.8805336E1,1.8228195E2,2.9835093E1,2.0553303E1,0E0,5.151845E-1,2.0826006E0,1.5733517E1,2.0495006E-1,0E0,0E0,0E0,1.0926312E1,6.440075E0,3.0273056E0,8.281223E-1,0E0,0E0,3.0115738E1,1.1618146E1,3.5501328E1,3.128889E0,7.4854126E0,8.016121E1,0E0,0E0,0E0,0E0,0E0,0E0,0E0,0E0,0E0,0E0,0E0,0E0,0E0,0E0,0E0,0E0,0E0,0E0,0E0,0E0,0E0,0E0,0E0,0E0,0E0,0E0,0E0,0E0,0E0,0E0,0E0,0E0],"parents":[2147483647,0,0,1,1,2,2,3,3,4,4,5,5,6,6,7,7,8,8,9,9,10,10,11,11,12,12,13,13,14,14,15,15,16,16,18,18,19,19,20,20,21,21,22,22,23,23,27,27,29,29,30,30,31,31,32,32,34,34,35,35,36,36,37,37,41,41,42,42,43,43,44,44,47,47,48,48,49,49,50,50,51,51,52,52],"right_children":[2,4,6,8,10,12,14,16,18,20,22,24,26,28,30,32,34,-1,36,38,40,42,44,46,-1,-1,-1,48,-1,50,52,54,56,-1,58,60,62,64,-1,-1,-1,66,68,70,72,-1,-1,74,76,78,80,82,84,-1,-1,-1,-1,-1,-1,-1,-1,-1,-1,-1,-1,-1,-1,-1,-1,-1,-1,-1,-1,-1,-1,-1,-1,-1,-1,-1,-1,-1,-1,-1,-1],"split_conditions":[5.88495E2,3.862E2,5.5696497E2,4.53125E2,3.84825E2,5.4839E2,1.25635E3,4.2674E2,3.76135E2,3.881E2,4.7384E2,4.89785E2,5.98125E2,7.44295E2,1.55346E3,4.0991998E2,3.86225E2,1.9142693E0,3.78995E2,3.89055E2,2.9508E2,5.85775E2,6.06775E2,4.2878003E2,-8.8236696E-1,1.8419191E0,5.8175173E0,5.94085E2,-2.818848E0,1.87663E3,1.645735E3,4.38805E2,2.40495E2,-1.331997E0,3.69175E2,3.56875E2,5.7587E2,3.3960498E2,-6.1139375E-1,-3.8491976E-1,-1.3988599E0,3.8441498E2,4.53125E2,5.94085E2,4.32385E2,3.3499148E-2,-1.1568604E-1,1.120425E3,1.24874E3,1.7549551E3,7.3120496E2,1.309265E3,1.5907051E3,1.1495404E-3,-9.515259E-1,3.579712E-2,1.2321649E0,-1.6348878E-1,4.8806764E-2,-3.9659044E-1,4.6499636E-2,1.0783265E0,-5.3161625E-3,8.6769104E-2,-5.063782E-2,2.527542E-1,-3.103261E-1,6.960266E-1,-6.624756E-2,-5.2645755E-1,-1.1858094E0,-1.2432862E-1,1.4904785E-1,-1.360962E-1,-1.555243E0,2.7106202E-1,-4.1531983E-1,1.1555176E-1,1.5908844E0,-6.7512214E-1,-3.0194093E-2,-1.6416138E0,-5.263184E-1,8.1692344E-1,-6.672091E-3],"split_indices":[23,15,1,48,21,14,28,51,22,31,16,0,17,5,33,45,24,0,18,5,0,46,18,0,0,0,0,1,0,53,34,3,5,0,0,0,51,0,0,0,0,23,7,35,0,0,0,41,32,50,0,0,21,0,0,0,0,0,0,0,0,0,0,0,0,0,0,0,0,0,0,0,0,0,0,0,0,0,0,0,0,0,0,0,0],"split_type":[0,0,0,0,0,0,0,0,0,0,0,0,0,0,0,0,0,0,0,0,0,0,0,0,0,0,0,0,0,0,0,0,0,0,0,0,0,0,0,0,0,0,0,0,0,0,0,0,0,0,0,0,0,0,0,0,0,0,0,0,0,0,0,0,0,0,0,0,0,0,0,0,0,0,0,0,0,0,0,0,0,0,0,0,0],"sum_hessian":[6.58E2,2.84E2,3.74E2,2.39E2,4.5E1,8E0,3.66E2,2.28E2,1.1E1,1E1,3.5E1,3E0,5E0,1.6E1,3.5E2,2.21E2,7E0,3E0,8E0,5E0,5E0,2.5E1,1E1,2E0,1E0,2E0,3E0,1.4E1,2E0,1.2E1,3.38E2,2.16E2,5E0,4E0,3E0,4E0,4E0,2E0,3E0,1E0,4E0,1.9E1,6E0,8E0,2E0,1E0,1E0,7E0,7E0,9E0,3E0,7E0,3.31E2,2.14E2,2E0,2E0,3E0,2E0,1E0,3E0,1E0,2E0,2E0,1E0,1E0,3E0,1.6E1,5E0,1E0,4E0,4E0,1E0,1E0,2E0,5E0,4E0,3E0,2E0,7E0,2E0,1E0,5E0,2E0,1E1,3.21E2],"tree_param":{"num_deleted":"0","num_feature":"60","num_nodes":"85","size_leaf_vector":"0"}},{"base_weights":[1.8563046E-3,-8.0144244E-1,2.437581E-2,2.9045978E-1,-1.3715986E0,1.843626E0,1.4177337E-3,1.1526031E0,-2.8491822E-1,-4.9489084E-1,-1.9271196E0,2.4583526E0,6.143112E-1,-9.3600804E-1,2.8719103E-2,-4.5620728E-1,-1.8656412E-2,-6.926727E-2,-5.661621E-1,-2.0911663E0,-4.714203E-1,-4.9293327E-1,-2.9870708E0,3.372921E0,6.9214986E-3,7.086182E-2,-9.8846436E-2,9.0557355E-1,-7.574038E-1,-1.5646769E0,2.2368496E-2,-9.5799E-1,2.9740906E-1,1.525116E-1,-2.461399E0,9.9419326E-1,-1.0556823E-2],"categories":[],"categories_nodes":[],"categories_segments":[],"categories_sizes":[],"default_left":[1,1,1,1,1,1,1,0,1,1,1,0,0,1,1,0,1,0,0,0,0,1,0,0,1,0,0,0,1,1,1,0,0,0,0,0,0],"id":63,"left_children":[1,3,5,7,9,11,13,-1,15,17,19,-1,-1,21,23,-1,25,-1,-1,-1,-1,27,-1,-1,29,-1,-1,-1,31,33,35,-1,-1,-1,-1,-1,-1],"loss_changes":[1.1940774E1,1.160438E1,2.6811468E1,3.800806E0,4.8906403E0,4.535347E0,1.627844E1,0E0,2.1952748E-1,1.4279175E-1,6.8579865E-1,0E0,0E0,1.4885508E1,4.502613E1,0E0,2.8539844E-2,0E0,0E0,0E0,0E0,6.6037064E0,0E0,0E0,1.4965034E1,0E0,0E0,0E0,3.2470474E0,9.614437E0,1.9529057E1,0E0,0E0,0E0,0E0,0E0,0E0],"parents":[2147483647,0,0,1,1,2,2,3,3,4,4,5,5,6,6,8,8,9,9,10,10,13,13,14,14,16,16,21,21,24,24,28,28,29,29,30,30],"right_children":[2,4,6,8,10,12,14,-1,16,18,20,-1,-1,22,24,-1,26,-1,-1,-1,-1,28,-1,-1,30,-1,-1,-1,32,34,36,-1,-1,-1,-1,-1,-1],"split_conditions":[1.31825E2,1.3091E2,1.34275E2,1.27950005E2,1.28175E2,2.1069E2,1.4384E2,3.4578097E-1,1.31275E2,1.17399994E2,1.33505E2,7.375058E-1,1.8429337E-1,1.71595E2,1.4569E2,-1.3686219E-1,1.3061499E2,-2.0780183E-2,-1.6984864E-1,-6.273499E-1,-1.4142609E-1,1.25845E2,-8.9612126E-1,1.0118763E0,1.45125E2,2.1258546E-2,-2.9653931E-2,2.7167207E-1,2.6229498E2,1.272E2,1.5737E2,-2.87397E-1,8.922272E-2,4.575348E-2,-7.384198E-1,2.9825798E-1,-3.167047E-3],"split_indices":[2,9,2,4,3,41,4,0,5,1,5,0,0,18,4,0,0,0,0,0,0,6,0,0,7,0,0,0,38,23,11,0,0,0,0,0,0],"split_type":[0,0,0,0,0,0,0,0,0,0,0,0,0,0,0,0,0,0,0,0,0,0,0,0,0,0,0,0,0,0,0,0,0,0,0,0,0],"sum_hessian":[6.58E2,1.7E1,6.41E2,6E0,1.1E1,7E0,6.34E2,2E0,4E0,5E0,6E0,4E0,3E0,1.7E1,6.17E2,2E0,2E0,1E0,4E0,5E0,1E0,1.5E1,2E0,3E0,6.14E2,1E0,1E0,2E0,1.3E1,5E0,6.09E2,1.1E1,2E0,2E0,3E0,1.9E1,5.9E2],"tree_param":{"num_deleted":"0","num_feature":"60","num_nodes":"37","size_leaf_vector":"0"}},{"base_weights":[1.2245236E-3,8.284943E-3,-2.3222656E0,-4.8890514E-3,1.4406738E0,7.9742074E-2,-2.2103982E-1,1.6965821E0,8.0566406E-2,2.6751544E-2,4.173218E0,-1.7379067E0,-1.4953239E-2,2.3043407E-3,3.7908528E0,6.210266E0,6.608073E-2,-2.666584E0,6.3305664E-1,1.5377634E0,-1.5977377E-1,-6.396509E-2,9.609253E-1,1.0241699E0,-9.250488E-1,6.6616213E-1,-3.8330128E0,4.121216E0,-6.3517255E-1,5.1060267E-2,2.646408E0,-1.4882035E0,6.801871E-2],"categories":[],"categories_nodes":[],"categories_segments":[],"categories_sizes":[],"default_left":[1,1,0,1,1,1,1,0,0,1,1,1,1,1,0,0,1,1,1,1,1,0,0,0,0,0,0,0,0,0,0,0,0],"id":64,"left_children":[1,3,-1,5,7,9,11,-1,-1,13,15,17,19,21,-1,-1,23,25,27,29,31,-1,-1,-1,-1,-1,-1,-1,-1,-1,-1,-1,-1],"loss_changes":[1.0830012E1,1.242369E1,0E0,1.1963009E1,1.9516878E0,1.01838615E2,5.74935E1,0E0,0E0,4.278138E1,4.9788254E1,5.0129013E1,3.6898727E1,2.9474588E1,0E0,0E0,3.7961786E0,6.475198E1,3.3584183E1,2.294003E1,4.5492176E1,0E0,0E0,0E0,0E0,0E0,0E0,0E0,0E0,0E0,0E0,0E0,0E0],"parents":[2147483647,0,0,1,1,3,3,4,4,5,5,6,6,9,9,10,10,11,11,12,12,13,13,16,16,17,17,18,18,19,19,20,20],"right_children":[2,4,-1,6,8,10,12,-1,-1,14,16,18,20,22,-1,-1,24,26,28,30,32,-1,-1,-1,-1,-1,-1,-1,-1,-1,-1,-1,-1],"split_conditions":[4.7701553E3,4.561105E3,-6.966797E-1,2.734605E3,3.223565E3,2.84562E3,2.9247651E3,5.089747E-1,2.4169924E-2,3.948085E3,2.74027E3,2.972915E3,2.9816602E3,2.56283E3,1.1372559E0,1.8630799E0,3.319455E3,2.622375E3,2.47765E3,2.872475E3,2.688225E3,-1.9189527E-2,2.882776E-1,3.0725098E-1,-2.7751467E-1,1.9984865E-1,-1.1499039E0,1.2363648E0,-1.9055177E-1,1.5318081E-2,7.939225E-1,-4.4646108E-1,2.0405615E-2],"split_indices":[44,43,0,6,0,4,7,0,0,47,7,9,6,9,0,0,0,12,1,2,28,0,0,0,0,0,0,0,0,0,0,0,0],"split_type":[0,0,0,0,0,0,0,0,0,0,0,0,0,0,0,0,0,0,0,0,0,0,0,0,0,0,0,0,0,0,0,0,0],"sum_hessian":[6.58E2,6.57E2,1E0,6.52E2,5E0,4.69E2,1.83E2,4E0,1E0,4.64E2,5E0,2.1E1,1.62E2,4.62E2,2E0,3E0,2E0,1.5E1,6E0,1.3E1,1.49E2,4.33E2,2.9E1,1E0,1E0,4E0,1.1E1,1E0,5E0,6E0,7E0,2.1E1,1.28E2],"tree_param":{"num_deleted":"0","num_feature":"60","num_nodes":"33","size_leaf_vector":"0"}},{"base_weights":[6.337086E-3,2.8221691E-2,-6.942871E-1,2.1365944E-4,1.4939575E0,-1.7784598E0,-1.02608815E-1,2.5127387E-2,-9.5586395E-1,2.7552795E0,-8.2294923E-1,9.4082034E-1,-6.140625E-1,8.783056E-3,2.515442E0,-1.4587266E0,-2.706604E-1,3.5924072E0,1.6259766E-1,-1.4143677E0,7.713623E-1,-1.965332E-2,1.185852E0,-1.1047363E0,-1.0282389E-1,1.9240994E-2,-2.1171062E0,-6.113037E-1,-2.0144043E0,9.7070314E-2,-6.626587E-1,2.2265625E-1,2.1240234E-2,-6.0687256E-1,-1.5480957E0,5.7861328E-2,-4.53125E-1,3.277415E-2,-1.6221192E0,-2.7844238E0,-3.9123535E-1,-1.1393229E-1,2.7571616E-1,1.2792969E-1,-3.149414E-2],"categories":[],"categories_nodes":[],"categories_segments":[],"categories_sizes":[],"default_left":[1,1,1,1,1,0,1,1,1,1,1,1,1,1,0,1,1,0,1,0,0,0,0,1,1,1,1,0,0,1,0,0,0,0,0,1,0,0,0,0,0,0,0,0,0],"id":65,"left_children":[1,3,5,7,9,-1,11,13,15,17,19,21,23,25,-1,27,29,-1,31,-1,-1,-1,-1,33,35,37,39,-1,-1,41,-1,-1,-1,-1,-1,43,-1,-1,-1,-1,-1,-1,-1,-1,-1],"loss_changes":[1.0123964E1,2.6273201E1,1.2647144E1,1.5006456E1,3.7335842E1,0E0,8.049042E0,2.4969255E1,5.1181927E0,1.6779129E1,5.805516E0,1.2000384E0,2.3949208E0,1.36247425E1,0E0,3.0066338E0,1.2175229E0,0E0,2.0739913E-2,0E0,0E0,0E0,0E0,1.641655E-1,3.639477E-1,1.35807495E1,2.3657475E0,0E0,0E0,2.1988665E-1,0E0,0E0,0E0,0E0,0E0,3.533399E-2,0E0,0E0,0E0,0E0,0E0,0E0,0E0,0E0,0E0],"parents":[2147483647,0,0,1,1,2,2,3,3,4,4,6,6,7,7,8,8,9,9,10,10,11,11,12,12,13,13,15,15,16,16,18,18,23,23,24,24,25,25,26,26,29,29,35,35],"right_children":[2,4,6,8,10,-1,12,14,16,18,20,22,24,26,-1,28,30,-1,32,-1,-1,-1,-1,34,36,38,40,-1,-1,42,-1,-1,-1,-1,-1,44,-1,-1,-1,-1,-1,-1,-1,-1,-1],"split_conditions":[4.3435146E3,4.13076E3,4.0747651E3,4.05496E3,4.1178203E3,-5.33538E-1,3.867205E3,4.02569E3,4.10627E3,4.30059E3,4.352455E3,4.1679897E3,3.95233E3,4.14243E3,7.546326E-1,4.06603E3,4.64598E3,1.0777222E0,4.255245E3,-4.2431033E-1,2.314087E-1,-5.8959965E-3,3.5575563E-1,4.7701553E3,4.71724E3,3.931125E3,3.5177651E3,-1.8339111E-1,-6.043213E-1,4.4292695E3,-1.9879761E-1,6.679688E-2,6.3720704E-3,-1.8206178E-1,-4.6442872E-1,4.4499E3,-1.3593751E-1,9.832245E-3,-4.8663577E-1,-8.353272E-1,-1.1737061E-1,-3.4179688E-2,8.271485E-2,3.837891E-2,-9.448242E-3],"split_indices":[4,4,28,18,27,0,40,21,48,4,1,1,41,9,0,20,28,0,0,0,0,0,0,0,7,19,0,0,0,44,0,0,0,0,0,0,0,0,0,0,0,0,0,0,0],"split_type":[0,0,0,0,0,0,0,0,0,0,0,0,0,0,0,0,0,0,0,0,0,0,0,0,0,0,0,0,0,0,0,0,0,0,0,0,0,0,0,0,0,0,0,0,0],"sum_hessian":[6.58E2,6.39E2,1.9E1,6.28E2,1.1E1,6E0,1.3E1,6.13E2,1.5E1,7E0,4E0,4E0,9E0,6.1E2,3E0,8E0,7E0,5E0,2E0,3E0,1E0,1E0,3E0,4E0,5E0,6.08E2,2E0,4E0,4E0,4E0,3E0,1E0,1E0,3E0,1E0,4E0,1E0,6.04E2,4E0,1E0,1E0,2E0,2E0,2E0,2E0],"tree_param":{"num_deleted":"0","num_feature":"60","num_nodes":"45","size_leaf_vector":"0"}},{"base_weights":[2.0362958E-3,1.5831757E0,-7.607902E-3,-9.141327E-1,1.3584434E-2,2.0868683E-1,-1.2122282E0,1.8350716E0,2.161065E-3,2.6592508E-1,1.8486023E-2,-7.222328E-1,-1.753775E0,2.6742198E0,-3.4118652E-1,-2.5010097E-1,6.8332046E-2,-1.2451172E-1,-9.0072125E-1,4.6571378E-2,-1.4728129E0,1.5235367E0,-3.968042E-3,-2.0136261E-1,1.4595032E-2,-6.748024E-2,2.4095306E0,-1.8721218E0,2.2125957E0,4.758784E-1,3.999867E0,-3.0369976E0,1.4917967E-2],"categories":[],"categories_nodes":[],"categories_segments":[],"categories_sizes":[],"default_left":[1,0,1,1,1,1,1,1,1,0,0,1,0,0,0,1,1,1,0,1,1,1,1,0,0,0,0,0,0,0,0,0,0],"id":66,"left_children":[1,-1,3,5,7,9,11,13,15,-1,-1,17,-1,-1,-1,19,21,23,-1,25,27,29,31,-1,-1,-1,-1,-1,-1,-1,-1,-1,-1],"loss_changes":[1.0061018E1,0E0,1.2615082E1,5.2735863E0,1.3354462E1,3.8631156E-2,1.917633E0,8.217219E0,1.068355E1,0E0,0E0,7.413397E-1,0E0,0E0,0E0,4.8313656E1,5.3348236E1,3.501033E-2,0E0,2.9268522E1,4.2404274E1,6.0360905E1,2.7769709E1,0E0,0E0,0E0,0E0,0E0,0E0,0E0,0E0,0E0,0E0],"parents":[2147483647,0,0,2,2,3,3,4,4,5,5,6,6,7,7,8,8,11,11,15,15,16,16,17,17,19,19,20,20,21,21,22,22],"right_children":[2,-1,4,6,8,10,12,14,16,-1,-1,18,-1,-1,-1,20,22,24,-1,26,28,30,32,-1,-1,-1,-1,-1,-1,-1,-1,-1,-1],"split_conditions":[1.18774994E2,4.7495273E-1,1.3007E2,1.26285E2,1.2765E2,1.87315E2,1.3638E2,1.8758499E2,2.30075E2,7.9777524E-2,5.545807E-3,1.5001E2,-5.261325E-1,8.02266E-1,-1.02355964E-1,2.09075E2,2.33695E2,1.53205E2,-2.7021638E-1,2.0692E2,3.1982E2,2.3756E2,2.36505E2,-6.0408786E-2,4.3785097E-3,-2.0244071E-2,7.228592E-1,-5.6163657E-1,6.637787E-1,1.4276353E-1,1.1999601E0,-9.110993E-1,4.47539E-3],"split_indices":[23,0,26,19,24,0,36,0,19,0,0,3,0,0,0,17,29,0,0,15,48,44,21,0,0,0,0,0,0,0,0,0,0],"split_type":[0,0,0,0,0,0,0,0,0,0,0,0,0,0,0,0,0,0,0,0,0,0,0,0,0,0,0,0,0,0,0,0,0],"sum_hessian":[6.58E2,3E0,6.55E2,1.4E1,6.41E2,3E0,1.1E1,3E0,6.38E2,2E0,1E0,7E0,4E0,2E0,1E0,1.32E2,5.06E2,2E0,5E0,1.07E2,2.5E1,2.3E1,4.83E2,1E0,1E0,1.03E2,4E0,2.3E1,2E0,1.7E1,6E0,2E0,4.81E2],"tree_param":{"num_deleted":"0","num_feature":"60","num_nodes":"33","size_leaf_vector":"0"}},{"base_weights":[3.9533693E-3,1.4367294E-1,-1.06921814E-1,-7.901442E-2,1.0771606E1,-2.4754028E0,5.8151998E-2,6.763973E-2,-8.106391E-1,1.3924365E1,-2.4960938E0,-1.8761146E0,-8.129517E0,3.485338E0,-3.3547785E-2,-3.6617562E-2,2.0515797E0,-1.2762725E0,1.0863953E0,-2.593951E0,1.3521902E-1,4.8985944E0,-9.7403973E-1,-2.1855469E0,6.6494115E-2,3.849497E-2,-2.116413E0,4.951248E0,5.34885E-1,-7.717661E-1,-2.6621642E0,-5.899048E-2,3.7786255E0,1.0594889E0,-3.151709E0,-9.251221E-1,1.8573812E0,1.777832E0,5.791333E0,-2.322998E-1,-5.0767007E0,4.8180666E0,-8.190382E-3,-4.7839254E-2,1.6988914E0,-3.5915604E0,-5.130127E-1,-7.604736E-1,1.7232666E0,-1.9117523E0,-1.9216482E-1,-3.5310931E0,-4.7599792E-1,7.159058E-1,-1.0128632E0,1.3791504E0,2.1008301E-1,-3.5021503E0,-5.8256024E-1,-1.3601888E0,-1.8168132E-1,1.7338257E0,6.3722534E0,-1.755127E0,1.6415527E0,-5.75603E0,-8.4002686E-1,5.811096E0,4.2297363E-1,2.1601684E0,-7.811102E-2],"categories":[],"categories_nodes":[],"categories_segments":[],"categories_sizes":[],"default_left":[1,1,1,1,1,1,1,1,1,0,0,1,0,1,1,1,1,1,1,1,1,1,0,1,1,1,1,0,1,1,1,1,0,1,1,1,0,0,1,1,1,1,1,0,0,0,0,0,0,0,0,0,0,0,0,0,0,0,0,0,0,0,0,0,0,0,0,0,0,0,0],"id":67,"left_children":[1,3,5,7,9,11,13,15,17,-1,-1,19,-1,21,23,25,27,29,31,33,35,37,-1,39,41,43,45,-1,47,49,51,53,-1,55,57,59,-1,-1,61,63,65,67,69,-1,-1,-1,-1,-1,-1,-1,-1,-1,-1,-1,-1,-1,-1,-1,-1,-1,-1,-1,-1,-1,-1,-1,-1,-1,-1,-1,-1],"loss_changes":[1.0224216E1,6.919294E2,1.4402246E2,3.0848724E1,2.8573572E2,6.6070755E1,1.0854084E2,4.9716774E1,4.3786026E1,0E0,0E0,3.355835E1,0E0,6.1491623E1,7.269808E1,3.5855556E1,5.01266E1,2.5213886E1,3.1059322E1,3.7980698E1,1.4500859E1,9.2061615E0,0E0,8.352774E1,1.1466209E2,3.190476E1,1.7079498E1,0E0,1.5164922E1,1.9454754E1,1.7315437E1,6.6383333E0,0E0,5.248308E-1,1.14648285E1,1.3701105E0,0E0,0E0,7.3706055E-1,3.141667E1,1.2433365E1,1.9364365E1,4.853329E1,0E0,0E0,0E0,0E0,0E0,0E0,0E0,0E0,0E0,0E0,0E0,0E0,0E0,0E0,0E0,0E0,0E0,0E0,0E0,0E0,0E0,0E0,0E0,0E0,0E0,0E0,0E0,0E0],"parents":[2147483647,0,0,1,1,2,2,3,3,4,4,5,5,6,6,7,7,8,8,11,11,13,13,14,14,15,15,16,16,17,17,18,18,19,19,20,20,21,21,23,23,24,24,25,25,26,26,28,28,29,29,30,30,31,31,33,33,34,34,35,35,38,38,39,39,40,40,41,41,42,42],"right_children":[2,4,6,8,10,12,14,16,18,-1,-1,20,-1,22,24,26,28,30,32,34,36,38,-1,40,42,44,46,-1,48,50,52,54,-1,56,58,60,-1,-1,62,64,66,68,70,-1,-1,-1,-1,-1,-1,-1,-1,-1,-1,-1,-1,-1,-1,-1,-1,-1,-1,-1,-1,-1,-1,-1,-1,-1,-1,-1,-1],"split_conditions":[5.5696497E2,6.1041E2,1.243435E3,3.862E2,5.74695E2,1.9473049E3,1.513005E3,4.53125E2,5.9404004E2,4.1773095E0,-7.488282E-1,1.773355E3,-2.4388552E0,1.7955449E3,1.75344E3,4.2674E2,3.76135E2,6.0506E2,5.8247E2,5.8996E2,7.3045496E2,1.709115E3,-2.9221192E-1,1.7090149E3,1.5907051E3,3.7915E2,3.82315E2,1.4853745E0,3.78995E2,3.84825E2,6.03255E2,5.8439E2,1.1335877E0,5.90635E2,1.378775E3,6.4044E2,5.572144E-1,5.3334963E-1,1.2330249E3,1.6269099E3,2.297355E3,1.782435E3,1.80277E3,-1.4351777E-2,5.0966746E-1,-1.0774682E0,-1.5390381E-1,-2.281421E-1,5.1698E-1,-5.735257E-1,-5.764945E-2,-1.059328E0,-1.4279938E-1,2.1477175E-1,-3.0385897E-1,4.1374514E-1,6.302491E-2,-1.0506451E0,-1.7476808E-1,-4.0805668E-1,-5.45044E-2,5.2014774E-1,1.911676E0,-5.2653813E-1,4.9246582E-1,-1.7268091E0,-2.5200808E-1,1.7433289E0,1.2689209E-1,6.4805055E-1,-2.3433307E-2],"split_indices":[1,23,18,15,2,56,26,48,32,0,0,58,0,47,28,51,22,57,25,16,8,47,0,26,21,35,24,0,18,21,25,19,0,0,26,2,0,0,17,25,0,3,29,0,0,0,0,0,0,0,0,0,0,0,0,0,0,0,0,0,0,0,0,0,0,0,0,0,0,0,0],"split_type":[0,0,0,0,0,0,0,0,0,0,0,0,0,0,0,0,0,0,0,0,0,0,0,0,0,0,0,0,0,0,0,0,0,0,0,0,0,0,0,0,0,0,0,0,0,0,0,0,0,0,0,0,0,0,0,0,0,0,0,0,0,0,0,0,0,0,0,0,0,0,0],"sum_hessian":[6.58E2,2.91E2,3.67E2,2.86E2,5E0,2.3E1,3.44E2,2.39E2,4.7E1,4E0,1E0,2.2E1,1E0,8E0,3.36E2,2.28E2,1.1E1,3.8E1,9E0,1.6E1,6E0,6E0,2E0,1.4E1,3.22E2,2.21E2,7E0,3E0,8E0,2.9E1,9E0,7E0,2E0,2E0,1.4E1,4E0,2E0,2E0,4E0,9E0,5E0,4E0,3.18E2,2.11E2,1E1,3E0,4E0,4E0,4E0,9E0,2E1,6E0,3E0,4E0,3E0,1E0,1E0,1.2E1,2E0,2E0,2E0,1E0,3E0,5E0,4E0,4E0,1E0,3E0,1E0,9E0,3.09E2],"tree_param":{"num_deleted":"0","num_feature":"60","num_nodes":"71","size_leaf_vector":"0"}},{"base_weights":[8.446712E-3,4.394732E-2,-3.2809788E-1,-2.0262422E-2,1.2581868E0,-1.8082682E0,-7.9922765E-2,3.364581E-2,-1.7695025E0,2.0646398E0,1.8905203E-1,-3.7231445E-1,-2.165353E0,-1.8343099E0,2.0890146E-2,-5.787213E-3,1.8086141E0,1.5002441E-1,-2.5818074E0,7.1107066E-1,3.8967285E0,8.012207E-1,-1.0730957E0,-5.0512695E-1,-2.246338E0,1.2501221E0,-1.9334345E-1,3.7857816E-2,-2.327124E0,3.1583078E0,-6.7464195E-2,-8.0755615E-1,1.3767904E0,-1.00851E0,-3.9870198E0,1.5208914E0,-5.648926E-1,1.6819662E0,4.4462404E0,1.5025112E-1,1.7401123E0,-1.1868286E0,-3.0908203E-1,1.973938E0,4.2104492E-1,-5.3963494E-1,3.7531197E-1,1.47917345E-2,2.4660645E0,-4.1729493E0,-4.0108237E-1,3.421753E0,7.8881836E-1,-8.730469E-1,5.5358887E-1,-1.3417562E0,4.954834E-1,-1.1804199E0,2.389323E-1,4.3660483E-1,-5.1611327E-2,-5.6884766E-2,5.5474854E-1,-1.2288086E0,1.8551432E-1,1.2229309E0,-2.7525747E-1],"categories":[],"categories_nodes":[],"categories_segments":[],"categories_sizes":[],"default_left":[1,1,1,1,1,1,1,1,1,1,1,0,0,1,1,1,1,1,1,1,1,1,1,0,0,1,1,1,1,1,1,0,0,1,0,0,1,0,0,1,0,0,0,0,1,1,1,0,0,0,0,0,0,0,0,0,0,0,0,0,0,0,0,0,0,0,0],"id":68,"left_children":[1,3,5,7,9,11,13,15,17,19,21,-1,-1,23,25,27,29,31,33,35,37,39,41,-1,-1,43,45,47,49,51,53,-1,-1,55,-1,-1,57,-1,-1,59,-1,-1,-1,-1,61,63,65,-1,-1,-1,-1,-1,-1,-1,-1,-1,-1,-1,-1,-1,-1,-1,-1,-1,-1,-1,-1],"loss_changes":[7.887846E0,4.6571198E1,2.2997988E1,5.362105E1,2.547588E1,3.8086243E0,9.765887E0,3.8646255E1,2.6894428E1,3.938675E1,1.1676848E1,0E0,0E0,5.08296E-1,1.419887E1,5.4899414E1,3.059864E1,8.160198E0,2.2508858E1,1.2225458E1,1.0408401E0,5.850445E0,6.7640305E-2,0E0,0E0,3.969677E0,9.260877E0,2.9760424E1,3.3877666E1,1.6704712E0,3.4851665E0,0E0,0E0,4.1732183E0,0E0,0E0,2.7559214E0,0E0,0E0,4.2716217E-1,0E0,0E0,0E0,0E0,3.5106134E-1,1.4720821E1,1.026245E1,0E0,0E0,0E0,0E0,0E0,0E0,0E0,0E0,0E0,0E0,0E0,0E0,0E0,0E0,0E0,0E0,0E0,0E0,0E0,0E0],"parents":[2147483647,0,0,1,1,2,2,3,3,4,4,5,5,6,6,7,7,8,8,9,9,10,10,13,13,14,14,15,15,16,16,17,17,18,18,19,19,20,20,21,21,22,22,25,25,26,26,27,27,28,28,29,29,30,30,33,33,36,36,39,39,44,44,45,45,46,46],"right_children":[2,4,6,8,10,12,14,16,18,20,22,-1,-1,24,26,28,30,32,34,36,38,40,42,-1,-1,44,46,48,50,52,54,-1,-1,56,-1,-1,58,-1,-1,60,-1,-1,-1,-1,62,64,66,-1,-1,-1,-1,-1,-1,-1,-1,-1,-1,-1,-1,-1,-1,-1,-1,-1,-1,-1,-1],"split_conditions":[3.731435E3,3.4001602E3,3.78832E3,3.279135E3,3.360975E3,2.70563E3,1.879915E3,3.16556E3,2.50258E3,3.183875E3,3.0299902E3,-1.1169434E-1,-6.4960593E-1,1.8286E3,3.503365E3,3.160185E3,2.549925E3,2.0369199E3,3.211015E3,3.01952E3,3.4400698E3,3.40201E3,3.251545E3,-1.5153809E-1,-6.739014E-1,3.0765552E3,4.287505E3,3.1522349E3,3.3218E3,2.25655E3,3.153685E3,-2.4226685E-1,4.1303715E-1,4.570735E3,-1.196106E0,4.5626745E-1,3.88047E3,5.0458986E-1,1.3338722E0,1.6775449E3,5.220337E-1,-3.5604858E-1,-9.2724614E-2,5.9218144E-1,2.107175E3,4.28691E3,4.263835E3,4.4375206E-3,7.3981935E-1,-1.2518848E0,-1.20324716E-1,1.026526E0,2.3664552E-1,-2.6191407E-1,1.6607666E-1,-4.025269E-1,1.4864503E-1,-3.5412598E-1,7.167969E-2,1.3098146E-1,-1.5483399E-2,-1.706543E-2,1.6642457E-1,-3.686426E-1,5.56543E-2,3.6687928E-1,-8.257724E-2],"split_indices":[42,43,41,45,53,59,0,45,24,51,30,0,0,0,30,43,18,14,52,56,43,17,3,0,0,20,26,44,42,0,33,0,0,0,0,0,29,0,0,2,0,0,0,0,0,52,30,0,0,0,0,0,0,0,0,0,0,0,0,0,0,0,0,0,0,0,0],"split_type":[0,0,0,0,0,0,0,0,0,0,0,0,0,0,0,0,0,0,0,0,0,0,0,0,0,0,0,0,0,0,0,0,0,0,0,0,0,0,0,0,0,0,0,0,0,0,0,0,0,0,0,0,0,0,0,0,0,0,0,0,0,0,0,0,0,0,0],"sum_hessian":[6.58E2,5.96E2,6.2E1,5.67E2,2.9E1,8E0,5.4E1,5.51E2,1.6E1,1.6E1,1.3E1,2E0,6E0,2E0,5.2E1,5.4E2,1.1E1,5E0,1.1E1,1E1,6E0,9E0,4E0,1E0,1E0,7E0,4.5E1,5.31E2,9E0,6E0,5E0,3E0,2E0,6E0,5E0,6E0,4E0,2E0,4E0,6E0,3E0,3E0,1E0,3E0,4E0,2.8E1,1.7E1,5.27E2,4E0,4E0,5E0,5E0,1E0,2E0,3E0,5E0,1E0,2E0,2E0,2E0,4E0,1E0,3E0,1.4E1,1.4E1,7E0,1E1],"tree_param":{"num_deleted":"0","num_feature":"60","num_nodes":"67","size_leaf_vector":"0"}},{"base_weights":[6.816198E-3,5.616023E-1,-1.4129843E-2,8.169321E-3,1.1143545E0,-7.1714664E-1,1.4611251E-2,-5.26574E-1,9.690735E-1,-7.4337006E-2,1.5188446E0,1.115036E0,-9.2494667E-1,4.6286544E-1,-2.7838897E-2,-9.0457916E-2,-7.295558E-1,1.5284729E-1,1.4622751E0,9.629059E-2,-1.6330974E-1,1.9578348E0,4.8064804E-1,5.9146117E-2,-1.1352371E0,1.0779365E-1,3.2262955E0,-7.9927766E-1,5.102683E-2,1.0534668E-1,-3.3893585E-1,2.9052734E-2,2.002182E-1,5.583089E-1,1.238327E-1,-3.002472E-1,3.9882407E-1,-1.3161469E0,2.683309E-1,-9.493442E-2,1.1333008E0,3.655896E0,5.391464E-1,-4.2389014E-1,-3.6066005E0,2.5790286E0,5.5117733E-3,-5.2772522E-2,-1.3918095E0,6.2655145E-1,-7.4651545E-1,1.5318197E0,-4.1503906E-2,-8.480571E-1,1.0413888E0,-5.307241E0,-1.4294701E0,-1.2588654E0,3.2161236E0,-2.9226825E-1,7.8650005E-2],"categories":[],"categories_nodes":[],"categories_segments":[],"categories_sizes":[],"default_left":[1,1,1,1,1,1,1,1,1,1,1,0,1,1,1,1,0,1,0,0,0,0,1,1,1,1,1,1,1,0,0,0,0,0,0,0,0,1,0,1,1,0,0,1,1,1,1,0,0,0,0,0,0,0,0,0,0,0,0,0,0],"id":69,"left_children":[1,3,5,7,9,11,13,15,17,19,21,-1,23,25,27,29,-1,31,-1,-1,-1,-1,33,35,37,39,41,43,45,-1,-1,-1,-1,-1,-1,-1,-1,47,-1,49,51,-1,-1,53,55,57,59,-1,-1,-1,-1,-1,-1,-1,-1,-1,-1,-1,-1,-1,-1],"loss_changes":[7.665892E0,7.332767E0,1.2861157E1,7.1901717E0,5.882675E0,1.054954E1,1.16583E1,7.307184E-1,1.7893162E0,7.6450005E-2,3.1607933E0,0E0,4.826885E0,5.1656677E1,3.411123E1,2.3031826E-1,0E0,1.1775896E-2,0E0,0E0,0E0,0E0,4.170549E-2,7.301357E-1,5.1776295E0,1.0086745E1,4.955345E0,5.3270565E1,5.8552418E1,0E0,0E0,0E0,0E0,0E0,0E0,0E0,0E0,1.5515823E0,0E0,1.9742096E1,3.8090315E0,0E0,0E0,3.0094734E1,1.4628548E1,2.6054592E1,1.0934319E1,0E0,0E0,0E0,0E0,0E0,0E0,0E0,0E0,0E0,0E0,0E0,0E0,0E0,0E0],"parents":[2147483647,0,0,1,1,2,2,3,3,4,4,5,5,6,6,7,7,8,8,9,9,10,10,12,12,13,13,14,14,15,15,17,17,22,22,23,23,24,24,25,25,26,26,27,27,28,28,37,37,39,39,40,40,43,43,44,44,45,45,46,46],"right_children":[2,4,6,8,10,12,14,16,18,20,22,-1,24,26,28,30,-1,32,-1,-1,-1,-1,34,36,38,40,42,44,46,-1,-1,-1,-1,-1,-1,-1,-1,48,-1,50,52,-1,-1,54,56,58,60,-1,-1,-1,-1,-1,-1,-1,-1,-1,-1,-1,-1,-1,-1],"split_conditions":[1.33105E2,1.3145999E2,1.4647E2,1.3726001E2,1.2243E2,1.25335E2,2.0017499E2,1.27925E2,1.893E2,1.86685E2,1.3420999E2,3.345108E-1,1.3014E2,1.92685E2,2.25695E2,1.96345E2,-2.1886675E-1,1.86715E2,4.3868256E-1,2.8887177E-2,-4.8992924E-2,5.873505E-1,2.3543E2,1.5128E2,2.6563E2,2.1260501E2,1.6572E2,2.14745E2,2.30685E2,3.1604007E-2,-1.0168076E-1,8.7158205E-3,6.0065463E-2,1.6749267E-1,3.7149813E-2,-9.007416E-2,1.1964723E-1,1.25935E2,8.049928E-2,1.6736499E2,1.3014E2,1.0967689E0,1.6174394E-1,2.0187E2,2.2829501E2,1.9916E2,3.9290997E2,-1.5831757E-2,-4.1754285E-1,1.8796544E-1,-2.2395465E-1,4.5954594E-1,-1.2451173E-2,-2.5441715E-1,3.1241664E-1,-1.5921724E0,-4.2884102E-1,-3.7765962E-1,9.6483713E-1,-8.7680474E-2,2.3595003E-2],"split_indices":[42,41,47,37,42,56,43,40,1,0,41,0,28,27,27,0,0,0,0,0,0,0,0,1,12,52,0,17,29,0,0,0,0,0,0,0,0,56,0,47,4,0,0,21,30,0,6,0,0,0,0,0,0,0,0,0,0,0,0,0,0],"split_type":[0,0,0,0,0,0,0,0,0,0,0,0,0,0,0,0,0,0,0,0,0,0,0,0,0,0,0,0,0,0,0,0,0,0,0,0,0,0,0,0,0,0,0,0,0,0,0,0,0,0,0,0,0,0,0,0,0,0,0,0,0],"sum_hessian":[6.58E2,2.3E1,6.35E2,1.2E1,1.1E1,2.4E1,6.11E2,8E0,4E0,3E0,8E0,2E0,2.2E1,5.2E1,5.59E2,3E0,5E0,2E0,2E0,1E0,2E0,5E0,3E0,4E0,1.8E1,4.7E1,5E0,5.1E1,5.08E2,2E0,1E0,1E0,1E0,2E0,1E0,2E0,2E0,1.6E1,2E0,4E1,7E0,4E0,1E0,4.6E1,5E0,8E0,5E2,1E0,1.5E1,1.9E1,2.1E1,5E0,2E0,3.6E1,1E1,2E0,3E0,1E0,7E0,9.8E1,4.02E2],"tree_param":{"num_deleted":"0","num_feature":"60","num_nodes":"61","size_leaf_vector":"0"}},{"base_weights":[6.6221524E-3,1.2639017E-1,-1.1835756E-1,-9.906646E-3,1.6308768E0,-5.482422E0,-5.093689E-2,5.7696603E-2,-1.558819E0,1.0167439E1,5.831627E-1,-1.4141846E0,-6.367106E0,-3.2811482E0,1.0752651E-2,-4.907015E-2,1.7212389E0,-2.1384685E0,2.6984863E0,-2.2817926E0,1.9832425E0,8.7091064E-1,-4.2857423E0,2.241618E0,-7.734319E-2,8.320442E-2,-8.7198424E-1,6.601074E0,3.052002E-1,-2.2901168E0,-2.3516846E-1,-2.8215158E0,-2.6184082E-1,4.1464233E-1,2.9437478E0,9.1574436E-1,4.6644287E0,-1.1965607E0,4.9565893E-2,-5.841987E-2,1.3779602E0,-2.340973E0,-6.8454146E-1,7.2368914E-1,-1.6099854E0,-5.3570557E-1,-2.4119873E0,-1.6552734E-1,-3.2365925E0,1.54599E0,-5.7336426E-1,4.2933526E0,4.6555176E-1,-5.2545166E-1,1.7239176E0,-8.1044513E-1,-6.3900146E0,4.419336E0,-3.153935E-2],"categories":[],"categories_nodes":[],"categories_segments":[],"categories_sizes":[],"default_left":[1,1,1,1,1,1,1,1,1,0,1,0,0,1,1,1,1,1,0,1,1,0,0,1,1,1,1,0,1,1,0,1,0,1,1,1,0,1,1,0,0,0,0,0,0,0,0,0,0,0,0,0,0,0,0,0,0,0,0],"id":70,"left_children":[1,3,5,7,9,11,13,15,17,-1,19,-1,-1,21,23,25,27,29,-1,31,33,-1,-1,35,37,39,41,-1,43,45,-1,47,-1,49,51,53,-1,55,57,-1,-1,-1,-1,-1,-1,-1,-1,-1,-1,-1,-1,-1,-1,-1,-1,-1,-1,-1,-1],"loss_changes":[9.879249E0,6.9120285E1,1.1653331E2,3.255051E1,2.4449927E2,5.392166E0,6.3801765E1,5.301254E1,3.7851303E1,0E0,1.0881567E2,0E0,0E0,2.8759293E1,6.2080307E1,3.0659573E1,1.2236598E2,2.9250221E0,0E0,9.073143E0,2.589907E1,0E0,0E0,3.427666E1,4.3239124E1,4.4639137E1,9.136204E0,0E0,1.3187389E1,1.059803E0,0E0,7.1813316E0,0E0,9.828647E0,3.4791656E1,1.138846E1,0E0,5.698473E1,9.724807E1,0E0,0E0,0E0,0E0,0E0,0E0,0E0,0E0,0E0,0E0,0E0,0E0,0E0,0E0,0E0,0E0,0E0,0E0,0E0,0E0],"parents":[2147483647,0,0,1,1,2,2,3,3,4,4,5,5,6,6,7,7,8,8,10,10,13,13,14,14,15,15,16,16,17,17,19,19,20,20,23,23,24,24,25,25,26,26,28,28,29,29,31,31,33,33,34,34,35,35,37,37,38,38],"right_children":[2,4,6,8,10,12,14,16,18,-1,20,-1,-1,22,24,26,28,30,-1,32,34,-1,-1,36,38,40,42,-1,44,46,-1,48,-1,50,52,54,-1,56,58,-1,-1,-1,-1,-1,-1,-1,-1,-1,-1,-1,-1,-1,-1,-1,-1,-1,-1,-1,-1],"split_conditions":[1.79777E3,1.637265E3,1.229725E3,1.267225E3,5.5696497E2,6.19565E2,1.7790349E3,5.8695E2,1.124925E3,3.050232E0,1.5687749E3,-4.242554E-1,-1.9101318E0,1.2325349E3,1.6745249E3,3.87065E2,6.0093E2,1.603645E3,8.0954593E-1,1.2301399E3,1.45136E3,2.612732E-1,-1.2857227E0,1.81585E3,1.99205E3,3.53235E2,3.53195E2,1.9803224E0,1.986925E3,5.4839E2,-7.055054E-2,6.36815E2,-7.8552246E-2,6.4007E2,2.75213E3,1.1884751E3,1.3993287E0,2.54505E3,1.98889E3,-1.7525962E-2,4.1338807E-1,-7.022919E-1,-2.0536245E-1,2.1710674E-1,-4.8299563E-1,-1.6071168E-1,-7.235962E-1,-4.9658205E-2,-9.709778E-1,4.63797E-1,-1.7200929E-1,1.2880058E0,1.3966553E-1,-1.5763551E-1,5.171753E-1,-2.4313354E-1,-1.9170045E0,1.3258008E0,-9.461805E-3],"split_indices":[51,58,22,59,1,0,50,25,0,0,48,0,0,1,21,13,25,58,0,2,28,0,0,27,23,11,22,0,29,10,0,7,0,0,0,14,0,10,22,0,0,0,0,0,0,0,0,0,0,0,0,0,0,0,0,0,0,0,0],"split_type":[0,0,0,0,0,0,0,0,0,0,0,0,0,0,0,0,0,0,0,0,0,0,0,0,0,0,0,0,0,0,0,0,0,0,0,0,0,0,0,0,0,0,0,0,0,0,0,0,0,0,0,0,0,0,0,0,0,0,0],"sum_hessian":[6.58E2,3.36E2,3.22E2,3.09E2,2.7E1,3E0,3.19E2,2.97E2,1.2E1,2E0,2.5E1,1E0,2E0,5E0,3.14E2,2.8E2,1.7E1,1.1E1,1E0,8E0,1.7E1,1E0,4E0,1.1E1,3.03E2,2.42E2,3.8E1,3E0,1.4E1,1E1,1E0,6E0,2E0,7E0,1E1,8E0,3E0,3E1,2.73E2,2.19E2,2.3E1,3E0,3.5E1,1.2E1,2E0,1E0,9E0,1E0,5E0,3E0,4E0,6E0,4E0,3E0,5E0,2.9E1,1E0,4E0,2.69E2],"tree_param":{"num_deleted":"0","num_feature":"60","num_nodes":"59","size_leaf_vector":"0"}},{"base_weights":[8.11661E-3,7.1915135E-2,-1.8332815E-1,3.4866014E-3,1.8850776E0,-4.013977E0,-8.761258E-2,6.0762353E-2,-7.2319686E-1,2.4935222E0,-8.678589E-1,-1.3944353E0,3.5764143E-2,-4.6102818E-2,7.199333E-1,-1.4896312E0,6.232011E-4,4.0113E0,1.0359701E0,-1.3306478E0,2.602539E-1,-7.381037E-1,-2.8507385E0,2.7124836E0,-1.910608E-2,1.0250347E-1,-1.1106607E0,4.167578E0,4.1030988E-1,-2.3481445E0,7.2265625E-2,4.2010498E-1,-9.782715E-1,3.701172E-1,4.556478E0,-2.7947998E-1,1.740275E0,6.25E-2,-1.0461426E0,-3.3184407E0,-7.238159E-1,-7.415584E-1,1.3501577E-1,-1.0067918E-2,1.2140168E0,-1.3515068E0,4.984131E0,5.6365967E0,-8.5424805E-1,-1.6016388E0,7.178644E-1,-2.4804444E0,-5.1257324E-1,-1.1913248E0,8.159668E-1,-7.170003E-1,1.1314969E0,-1.1063477E0,-1.6894531E-1,8.166504E-2,-4.2708334E-1,7.2753906E-1,2.0647583E0,2.323405E-1,-2.2351074E-1,-3.0578613E-1,-1.108224E0,6.826172E-2,-1.692037E0,1.5661784E0,-6.5006964E-2],"categories":[],"categories_nodes":[],"categories_segments":[],"categories_sizes":[],"default_left":[1,1,1,1,1,0,1,1,1,1,1,1,1,1,1,1,1,1,1,0,0,1,1,0,1,1,1,1,1,1,1,1,1,0,0,1,1,1,1,0,0,1,1,0,0,0,0,0,0,0,0,0,0,0,0,0,0,0,0,0,0,0,0,0,0,0,0,0,0,0,0],"id":71,"left_children":[1,3,5,7,9,-1,11,13,15,17,19,21,23,25,27,29,31,33,35,-1,-1,37,39,-1,41,43,45,47,49,51,53,55,57,-1,-1,59,61,63,65,-1,-1,67,69,-1,-1,-1,-1,-1,-1,-1,-1,-1,-1,-1,-1,-1,-1,-1,-1,-1,-1,-1,-1,-1,-1,-1,-1,-1,-1,-1,-1],"loss_changes":[8.06214E0,6.140909E1,6.014603E1,1.9938944E1,3.2314198E1,0E0,2.6169376E1,3.1309626E1,1.9417547E1,2.9028015E1,2.4346185E0,1.12773075E1,2.1935783E1,6.070444E1,6.4473236E1,2.2965149E1,8.212917E0,1.2209213E1,8.8246765E0,0E0,0E0,2.778171E0,1.5771255E0,0E0,1.6467937E1,4.2179214E1,7.572772E1,4.1700836E1,3.7039223E1,1.3998947E0,7.5502176E0,1.2136268E1,4.3501997E-1,0E0,0E0,2.4810266E-1,4.695015E-1,2.4623543E-1,2.8820992E-2,0E0,0E0,2.0128136E1,3.502615E1,0E0,0E0,0E0,0E0,0E0,0E0,0E0,0E0,0E0,0E0,0E0,0E0,0E0,0E0,0E0,0E0,0E0,0E0,0E0,0E0,0E0,0E0,0E0,0E0,0E0,0E0,0E0,0E0],"parents":[2147483647,0,0,1,1,2,2,3,3,4,4,6,6,7,7,8,8,9,9,10,10,11,11,12,12,13,13,14,14,15,15,16,16,17,17,18,18,21,21,22,22,24,24,25,25,26,26,27,27,28,28,29,29,30,30,31,31,32,32,35,35,36,36,37,37,38,38,41,41,42,42],"right_children":[2,4,6,8,10,-1,12,14,16,18,20,22,24,26,28,30,32,34,36,-1,-1,38,40,-1,42,44,46,48,50,52,54,56,58,-1,-1,60,62,64,66,-1,-1,68,70,-1,-1,-1,-1,-1,-1,-1,-1,-1,-1,-1,-1,-1,-1,-1,-1,-1,-1,-1,-1,-1,-1,-1,-1,-1,-1,-1,-1],"split_conditions":[2.880045E3,2.7685552E3,2.52335E3,2.7451E3,3.150145E3,-1.2041931E0,2.9313901E3,2.0241101E3,3.03127E3,3.0248198E3,3.1841401E3,3.266825E3,2.26449E3,1.79777E3,1.81834E3,2.77398E3,3.928025E3,2.578995E3,3.10645E3,-3.9919436E-1,7.807618E-2,2.8933848E3,3.1882998E3,8.1374514E-1,3.021105E3,1.386005E3,2.58131E3,3.3448052E3,1.882385E3,3.80669E3,2.614345E3,2.7476401E3,4.39225E3,1.1103516E-1,1.3669435E0,2.565885E3,2.902865E3,3.30549E3,2.2040698E3,-9.955322E-1,-2.1714479E-1,2.8908052E3,3.132405E3,-3.0203757E-3,3.6420506E-1,-4.0545207E-1,1.4952393E0,1.6909791E0,-2.5627443E-1,-4.8049167E-1,2.1535933E-1,-7.4413335E-1,-1.5377198E-1,-3.5739747E-1,2.4479005E-1,-2.151001E-1,3.3944908E-1,-3.3190432E-1,-5.0683595E-2,2.4499513E-2,-1.2812501E-1,2.1826173E-1,6.194275E-1,6.9702156E-2,-6.705323E-2,-9.173584E-2,-3.3246723E-1,2.0478517E-2,-5.076111E-1,4.6985355E-1,-1.950209E-2],"split_indices":[48,49,42,38,52,0,47,44,26,29,1,17,35,51,59,53,4,38,10,0,0,52,10,0,40,45,58,6,37,1,45,40,1,0,0,0,0,0,0,0,0,40,41,0,0,0,0,0,0,0,0,0,0,0,0,0,0,0,0,0,0,0,0,0,0,0,0,0,0,0,0],"split_type":[0,0,0,0,0,0,0,0,0,0,0,0,0,0,0,0,0,0,0,0,0,0,0,0,0,0,0,0,0,0,0,0,0,0,0,0,0,0,0,0,0,0,0,0,0,0,0,0,0,0,0,0,0,0,0,0,0,0,0,0,0,0,0,0,0,0,0,0,0,0,0],"sum_hessian":[6.58E2,4.94E2,1.64E2,4.77E2,1.7E1,3E0,1.61E2,4.43E2,3.4E1,1.4E1,3E0,1.3E1,1.48E2,3.82E2,6.1E1,1.6E1,1.8E1,6E0,8E0,2E0,1E0,1E1,3E0,2E0,1.46E2,3.36E2,4.6E1,4E0,5.7E1,1E1,6E0,1.3E1,5E0,1E0,5E0,3E0,5E0,3E0,7E0,2E0,1E0,2.5E1,1.21E2,3.06E2,3E1,4.5E1,1E0,3E0,1E0,7E0,5E1,9E0,1E0,2E0,4E0,5E0,8E0,4E0,1E0,1E0,2E0,2E0,3E0,2E0,1E0,1E0,6E0,1.4E1,1.1E1,1.4E1,1.07E2],"tree_param":{"num_deleted":"0","num_feature":"60","num_nodes":"71","size_leaf_vector":"0"}},{"base_weights":[7.4738893E-3,1.9566537E-1,-4.8369702E-2,4.6930626E-2,2.0843866E0,-1.15855E0,1.1368019E-2,1.8630156E-1,-8.055786E-1,-2.2393036E-1,4.0453057E0,-3.4961364E0,-5.7461894E-1,1.2988319E0,-2.1318948E-2,-1.2871669E-2,1.2667075E0,2.7105078E-1,-2.1515758E0,-8.7807924E-1,1.523407E0,-1.4442505E0,1.3852985E-1,-1.0147349E-1,2.3135464E0,-1.254503E0,2.7406124E-2,9.3021005E-2,-1.4935303E0,1.7836456E0,-1.5059917E-1,1.2858696E0,-2.1009657E-1,-7.9536945E-1,-2.4254391E0,-1.0374489E0,-1.2030029E-1,-1.6440446E0,1.7694855E-1,1.324707E0,-3.49794E-1,-4.902153E-1,4.5067343E-1,4.8436737E-1,2.5376816E0,-8.874512E-2,-1.8299866E0,1.0611097E0,-3.247812E-2,3.0723812E-2,1.549324E0,-2.0680451E0,-3.816223E-2,2.7946515E0,6.760597E-1,5.117747E-1,-6.0972977E-1,1.4637247E0,3.7615204E-1,5.8695984E-1,-5.216784E-1,-1.9223226E0,-8.156166E-1,6.338501E-2,-1.3350067E0,-5.879262E-1,-9.854126E-2,1.553711E-1,-4.6602377E-1,-2.4017072E0,-8.579814E-1,-6.589569E-1,2.0698318E0,-1.766716E0,1.7030984E-2],"categories":[],"categories_nodes":[],"categories_segments":[],"categories_sizes":[],"default_left":[1,1,1,1,1,1,1,1,1,1,0,0,1,1,1,1,1,1,1,1,0,1,1,1,1,1,1,1,1,1,1,1,1,0,0,0,0,1,0,0,1,1,0,0,0,1,1,1,1,0,0,0,0,0,0,0,0,0,0,0,0,0,0,0,0,0,0,0,0,0,0,0,0,0,0],"id":72,"left_children":[1,3,5,7,9,11,13,15,17,19,-1,-1,21,23,25,27,29,31,33,35,-1,37,39,41,43,45,47,49,51,53,55,57,59,-1,-1,-1,-1,61,-1,-1,63,65,-1,-1,-1,67,69,71,73,-1,-1,-1,-1,-1,-1,-1,-1,-1,-1,-1,-1,-1,-1,-1,-1,-1,-1,-1,-1,-1,-1,-1,-1,-1,-1],"loss_changes":[6.9350853E0,4.232087E1,3.3769867E1,1.6902996E1,5.0696518E1,3.3480778E1,2.0396002E1,2.6269236E1,2.9565987E1,8.195785E0,0E0,0E0,1.384396E1,1.7285686E1,2.8455523E1,1.6445183E1,1.4189154E1,6.129485E0,1.4136162E0,4.7902942E-1,0E0,3.529972E0,7.9934764E0,1.5087826E0,1.6407127E0,1.191334E1,2.8262028E1,8.84331E0,5.7739935E0,1.378751E1,2.1367407E0,9.6609116E-2,2.5413387E0,0E0,0E0,0E0,0E0,5.0692177E-1,0E0,0E0,4.1553116E0,9.5148385E-2,0E0,0E0,0E0,7.1710545E-1,4.6079636E0,4.474066E1,3.7121853E1,0E0,0E0,0E0,0E0,0E0,0E0,0E0,0E0,0E0,0E0,0E0,0E0,0E0,0E0,0E0,0E0,0E0,0E0,0E0,0E0,0E0,0E0,0E0,0E0,0E0,0E0],"parents":[2147483647,0,0,1,1,2,2,3,3,4,4,5,5,6,6,7,7,8,8,9,9,12,12,13,13,14,14,15,15,16,16,17,17,18,18,19,19,21,21,22,22,23,23,24,24,25,25,26,26,27,27,28,28,29,29,30,30,31,31,32,32,37,37,40,40,41,41,45,45,46,46,47,47,48,48],"right_children":[2,4,6,8,10,12,14,16,18,20,-1,-1,22,24,26,28,30,32,34,36,-1,38,40,42,44,46,48,50,52,54,56,58,60,-1,-1,-1,-1,62,-1,-1,64,66,-1,-1,-1,68,70,72,74,-1,-1,-1,-1,-1,-1,-1,-1,-1,-1,-1,-1,-1,-1,-1,-1,-1,-1,-1,-1,-1,-1,-1,-1,-1,-1],"split_conditions":[2.3312E2,2.3025E2,2.5412E2,2.3747E2,2.01015E2,2.26935E2,2.33625E2,2.3932E2,2.3783E2,2.6229498E2,1.2135918E0,-1.048841E0,2.3152E2,2.4098999E2,3.4991E2,2.2311E2,2.1069E2,2.4064499E2,1.272E2,1.87015E2,4.570221E-1,2.14405E2,2.3152E2,2.4419E2,1.43475E2,2.39815E2,3.7738E2,2.1513501E2,2.0704001E2,2.4409E2,2.4064499E2,2.0867E2,1.3118E2,-2.3861085E-1,-7.2763175E-1,-3.1123468E-1,-3.609009E-2,2.091E2,5.3084567E-2,3.9741212E-1,2.3957E2,2.3686E2,1.3520204E-1,1.4531022E-1,7.613045E-1,2.451E2,4.04655E2,3.5360498E2,3.8441498E2,9.217144E-3,4.6479723E-1,-6.2041354E-1,-1.144867E-2,8.383955E-1,2.0281793E-1,1.5353242E-1,-1.8291894E-1,4.3911743E-1,1.12845615E-1,1.7608796E-1,-1.5650353E-1,-5.766968E-1,-2.44685E-1,1.9015504E-2,-4.0050203E-1,-1.7637786E-1,-2.9562378E-2,4.661133E-2,-1.3980713E-1,-7.2051215E-1,-2.5739443E-1,-1.9768707E-1,6.2094957E-1,-5.300148E-1,5.1092952E-3],"split_indices":[38,39,48,48,7,33,16,58,59,20,0,0,43,37,24,59,31,52,0,0,0,3,44,38,0,18,22,58,53,56,59,0,0,0,0,0,0,15,0,0,52,0,0,0,0,2,58,21,21,0,0,0,0,0,0,0,0,0,0,0,0,0,0,0,0,0,0,0,0,0,0,0,0,0,0],"split_type":[0,0,0,0,0,0,0,0,0,0,0,0,0,0,0,0,0,0,0,0,0,0,0,0,0,0,0,0,0,0,0,0,0,0,0,0,0,0,0,0,0,0,0,0,0,0,0,0,0,0,0,0,0,0,0,0,0,0,0,0,0,0,0,0,0,0,0,0,0,0,0,0,0,0,0],"sum_hessian":[6.58E2,1.5E2,5.08E2,1.4E2,1E1,2.5E1,4.83E2,1.21E2,1.9E1,5E0,5E0,4E0,2.1E1,1.1E1,4.72E2,1.03E2,1.8E1,1.1E1,8E0,4E0,1E0,9E0,1.2E1,5E0,6E0,1.7E1,4.55E2,9.7E1,6E0,1.3E1,5E0,3E0,8E0,2E0,6E0,3E0,1E0,8E0,1E0,3E0,9E0,3E0,2E0,1E0,5E0,6E0,1.1E1,2.4E1,4.31E2,9.4E1,3E0,4E0,2E0,6E0,7E0,2E0,3E0,2E0,1E0,2E0,6E0,5E0,3E0,7E0,2E0,2E0,1E0,4E0,2E0,6E0,5E0,9E0,1.5E1,1.1E1,4.2E2],"tree_param":{"num_deleted":"0","num_feature":"60","num_nodes":"75","size_leaf_vector":"0"}},{"base_weights":[4.694312E-3,1.0125969E-2,-1.784668E0,9.883805E-2,-8.6785406E-2,-1.1253668E-2,1.4457773E0,-2.596045E0,-4.4998466E-3,2.7697627E-2,-1.7513254E0,8.010173E0,5.649872E-1,-1.2083282E0,-5.4312744E0,1.9042358E0,-8.212808E-2,2.5753991E-3,2.6228027E0,-2.3168702E0,-2.2497559E-1,-1.9247175E0,1.5018175E0,-9.710693E-2,-1.8556397E0,2.7572699E0,-4.911499E-1,-2.0359564E0,-2.0572038E-2,6.571496E-2,-6.9205886E-1,-3.742513E0,-4.4909668E-1,2.4337492E0,3.2684326E-2,-1.6101074E-1,-2.2135416E-2,1.7548131E0,4.177246E0,-1.6549072E0,4.4840494E-1,-1.1999861E0,-3.307902E0,3.4088135E0,-5.659865E-2],"categories":[],"categories_nodes":[],"categories_segments":[],"categories_sizes":[],"default_left":[1,1,0,1,1,1,1,1,1,1,1,0,1,1,0,1,1,1,0,0,0,1,1,1,0,1,1,1,1,0,0,0,0,0,0,0,0,0,0,0,0,0,0,0,0],"id":73,"left_children":[1,3,-1,5,7,9,11,13,15,17,19,-1,21,23,-1,25,27,29,-1,-1,-1,31,33,35,-1,37,39,41,43,-1,-1,-1,-1,-1,-1,-1,-1,-1,-1,-1,-1,-1,-1,-1,-1],"loss_changes":[6.4230256E0,5.665542E0,0E0,5.102695E1,6.50282E1,2.1669703E1,1.4580257E2,3.278219E1,4.5496956E1,2.0399225E1,5.5212955E0,0E0,5.8868916E1,5.574256E0,0E0,2.5874378E1,3.5437748E1,1.3685598E1,0E0,0E0,0E0,1.7095886E1,2.456482E1,1.5599821E-2,0E0,5.4809036E0,5.115724E0,5.6003456E0,3.565154E1,0E0,0E0,0E0,0E0,0E0,0E0,0E0,0E0,0E0,0E0,0E0,0E0,0E0,0E0,0E0,0E0],"parents":[2147483647,0,0,1,1,3,3,4,4,5,5,6,6,7,7,8,8,9,9,10,10,12,12,13,13,15,15,16,16,17,17,21,21,22,22,23,23,25,25,26,26,27,27,28,28],"right_children":[2,4,-1,6,8,10,12,14,16,18,20,-1,22,24,-1,26,28,30,-1,-1,-1,32,34,36,-1,38,40,42,44,-1,-1,-1,-1,-1,-1,-1,-1,-1,-1,-1,-1,-1,-1,-1,-1],"split_conditions":[4.7701553E3,1.80561E3,-5.354004E-1,1.64315E3,1.78401E3,1.5306001E3,5.5696497E2,1.81888E3,1.6786599E3,1.94845E3,1.603645E3,2.4030519E0,1.45136E3,1.816455E3,-1.6293824E0,1.83673E3,1.83141E3,5.8746497E2,7.8684086E-1,-6.950611E-1,-6.749268E-2,1.6380549E3,1.809715E3,6.48105E2,-5.5669194E-1,1.874065E3,1.665405E3,1.822255E3,1.797425E3,1.971449E-2,-2.0761767E-1,-1.122754E0,-1.3472901E-1,7.301248E-1,9.805298E-3,-4.8303224E-2,-6.640625E-3,5.2644396E-1,1.2531738E0,-4.9647218E-1,1.3452148E-1,-3.5999584E-1,-9.9237067E-1,1.022644E0,-1.6979596E-2],"split_indices":[44,57,0,58,53,58,1,54,21,44,58,0,30,58,0,13,48,24,0,0,0,56,56,2,0,9,1,48,45,0,0,0,0,0,0,0,0,0,0,0,0,0,0,0,0],"split_type":[0,0,0,0,0,0,0,0,0,0,0,0,0,0,0,0,0,0,0,0,0,0,0,0,0,0,0,0,0,0,0,0,0,0,0,0,0,0,0,0,0,0,0,0,0],"sum_hessian":[6.58E2,6.57E2,1E0,3.43E2,3.14E2,3.18E2,2.5E1,9E0,3.05E2,3.12E2,6E0,2E0,2.3E1,7E0,2E0,1.1E1,2.94E2,3.1E2,2E0,4E0,2E0,6E0,1.7E1,3E0,4E0,8E0,3E0,8E0,2.86E2,2.85E2,2.5E1,2E0,4E0,1E1,7E0,1E0,2E0,6E0,2E0,1E0,2E0,6E0,2E0,2E0,2.84E2],"tree_param":{"num_deleted":"0","num_feature":"60","num_nodes":"45","size_leaf_vector":"0"}},{"base_weights":[3.3544097E-3,-1.1503563E0,1.0384117E-2,-1.4705862E0,-9.4833374E-2,1.0024465E0,1.2247346E-3,1.6310501E0,-1.698405E-1,-1.1383324E0,8.257148E-3,1.2846375E-1,-3.832245E-1,-1.6130117E0,1.4285278E-1,1.1446136E0,-5.7831756E-4,-6.9267553E-1,1.14305895E-2,-3.232956E-2,-9.3626404E-1,1.388073E0,2.6857404E-3],"categories":[],"categories_nodes":[],"categories_segments":[],"categories_sizes":[],"default_left":[1,1,1,0,0,1,1,0,1,1,1,0,0,0,0,0,1,1,1,0,0,0,0],"id":74,"left_children":[1,3,5,-1,-1,7,9,-1,11,13,15,-1,-1,-1,-1,-1,17,19,21,-1,-1,-1,-1],"loss_changes":[5.3565993E0,1.2125793E0,5.959634E0,0E0,0E0,4.698442E0,5.2264066E0,0E0,2.4019048E-1,2.6630316E0,6.5067368E0,0E0,0E0,0E0,0E0,0E0,5.360415E0,1.739111E0,7.6287003E0,0E0,0E0,0E0,0E0],"parents":[2147483647,0,0,1,1,2,2,5,5,6,6,8,8,9,9,10,10,16,16,17,17,18,18],"right_children":[2,4,6,-1,-1,8,10,-1,12,14,16,-1,-1,-1,-1,-1,18,20,22,-1,-1,-1,-1],"split_conditions":[1.221E2,2.3457E2,1.2305E2,-4.4117588E-1,-2.8450014E-2,2.2408499E2,1.221E2,4.8931506E-1,2.2585E2,1.6544E2,1.25335E2,3.8539127E-2,-1.1496735E-1,-4.8390353E-1,4.2855836E-2,3.433841E-1,1.27955E2,1.26840004E2,1.2243E2,-9.698868E-3,-2.8087923E-1,4.1642192E-1,8.0572214E-4],"split_indices":[12,0,14,0,0,1,56,0,0,1,56,0,0,0,0,0,58,51,59,0,0,0,0],"split_type":[0,0,0,0,0,0,0,0,0,0,0,0,0,0,0,0,0,0,0,0,0,0,0],"sum_hessian":[6.58E2,3E0,6.55E2,2E0,1E0,5E0,6.5E2,3E0,2E0,3E0,6.47E2,1E0,1E0,2E0,1E0,4E0,6.43E2,1E1,6.33E2,3E0,7E0,3E0,6.3E2],"tree_param":{"num_deleted":"0","num_feature":"60","num_nodes":"23","size_leaf_vector":"0"}},{"base_weights":[2.3168817E-3,1.281962E0,-3.5297736E-3,-5.698395E-1,9.686673E-3,1.2053299E-1,-7.52477E-1,7.6800257E-1,-3.5063154E-3,-2.0812988E-2,1.7458598E-1,-3.0257875E-1,-9.396038E-1,-4.6404266E-1,9.376114E-1,-1.1844978E0,3.997609E-3,-3.3761597E-1,-8.1214905E-2,4.924905E-1,1.4821701E0,1.0042324E-2,-1.2626953E0,5.265071E-1,1.4419556E-1,1.1050008E-3,9.3636066E-1,-1.517334E0,-3.7670898E-1],"categories":[],"categories_nodes":[],"categories_segments":[],"categories_sizes":[],"default_left":[1,0,1,1,1,1,1,1,1,0,0,1,0,0,1,0,1,0,0,1,0,1,1,0,0,0,0,0,0],"id":75,"left_children":[1,-1,3,5,7,9,11,13,15,-1,-1,17,-1,-1,19,-1,21,-1,-1,23,-1,25,27,-1,-1,-1,-1,-1,-1],"loss_changes":[4.9349284E0,0E0,4.9229035E0,1.9820166E0,6.4355564E0,3.4194343E-2,7.2595215E-1,2.733714E0,5.614426E0,0E0,0E0,1.1360437E-2,0E0,0E0,1.6939898E0,0E0,4.836463E0,0E0,0E0,7.014632E-3,0E0,5.1980557E0,1.0522556E-1,0E0,0E0,0E0,0E0,0E0,0E0],"parents":[2147483647,0,0,2,2,3,3,4,4,5,5,6,6,7,7,8,8,11,11,14,14,16,16,19,19,21,21,22,22],"right_children":[2,-1,4,6,8,10,12,14,16,-1,-1,18,-1,-1,20,-1,22,-1,-1,24,-1,26,28,-1,-1,-1,-1,-1,-1],"split_conditions":[1.13345E2,3.8458863E-1,1.3007E2,1.26285E2,1.32755E2,1.4893E2,1.32125E2,1.2094E2,1.25335E2,-6.2438967E-3,5.2375797E-2,1.53595E2,-2.8188115E-1,-1.392128E-1,1.6544E2,-3.5534936E-1,4.69223E3,-1.01284795E-1,-2.4364473E-2,2.75335E2,4.4465104E-1,4.5539453E3,2.999325E3,1.5795213E-1,4.3258667E-2,3.3150025E-4,2.809082E-1,-4.5520023E-1,-1.130127E-1],"split_indices":[23,0,26,19,28,0,33,11,13,0,0,0,0,0,50,0,47,0,0,1,0,43,0,0,0,0,0,0,0],"split_type":[0,0,0,0,0,0,0,0,0,0,0,0,0,0,0,0,0,0,0,0,0,0,0,0,0,0,0,0,0],"sum_hessian":[6.58E2,2E0,6.56E2,1.4E1,6.42E2,3E0,1.1E1,1E1,6.32E2,1E0,2E0,4E0,7E0,1E0,9E0,3E0,6.29E2,3E0,1E0,6E0,3E0,6.27E2,2E0,5E0,1E0,6.22E2,5E0,1E0,1E0],"tree_param":{"num_deleted":"0","num_feature":"60","num_nodes":"29","size_leaf_vector":"0"}},{"base_weights":[1.4706787E-3,4.0317073E-2,-1.8459602E-1,-1.7390003E-2,8.583171E-1,-4.2302246E0,-7.458278E-2,3.213166E-2,-1.2347534E0,2.5876465E0,3.5166353E-1,-2.6516926E0,-3.6199396E-3,6.4494237E-3,1.4096951E0,3.4222412E0,-1.6599764E0,7.6523435E-1,4.21875E0,7.734042E-1,-8.520813E-1,-3.8414307E0,-1.361084E-1,-6.705394E-1,1.1703166E-1,4.392812E-2,-6.295392E-1,2.4016113E0,-4.3060303E-1,-2.4611273E0,-8.535822E-1,9.503174E-1,1.2451172E-2,1.4855957E-1,1.659451E0,-1.2412516E0,2.1028645E-1,5.645752E-1,-9.755336E-1,1.3726562E0,-1.1986084E-1,6.778346E-2,-1.5027205E0,-5.2232666E0,-2.519625E-1,-4.711914E-2,2.9007812E0,-1.0830078E0,1.4786784E-1,-3.009905E0,-3.6027017E-1,3.5766602E-1,-1.1624892E0,4.9189898E-1,-8.327637E-1,-5.6762695E-1,2.008789E0,-4.358724E-1,-1.5349731E0,4.6020508E-1,-1.4477539E-1,9.0966797E-1,1.4632161E-1,-1.9346924E0,-5.3806376E-1,-2.8035482E-2,2.0758057E0,-1.0265625E0,8.802379E-2],"categories":[],"categories_nodes":[],"categories_segments":[],"categories_sizes":[],"default_left":[1,1,1,1,1,0,1,1,1,1,1,1,1,1,1,0,1,1,0,1,1,0,0,1,1,1,1,1,1,1,1,0,0,1,1,1,1,1,1,1,1,0,0,0,0,0,0,0,0,0,0,0,0,0,0,0,0,0,0,0,0,0,0,0,0,0,0,0,0],"id":76,"left_children":[1,3,5,7,9,-1,11,13,15,17,19,21,23,25,27,-1,29,31,-1,33,35,-1,-1,37,39,41,43,45,47,49,51,-1,-1,53,55,57,59,61,63,65,67,-1,-1,-1,-1,-1,-1,-1,-1,-1,-1,-1,-1,-1,-1,-1,-1,-1,-1,-1,-1,-1,-1,-1,-1,-1,-1,-1,-1],"loss_changes":[4.7707076E0,2.5788523E1,5.0422783E1,3.0845749E1,3.063217E1,0E0,2.0472855E1,1.7397331E1,4.528606E1,2.055201E1,1.538138E1,8.455807E0,8.929614E0,1.1564291E1,1.7462936E1,0E0,1.0174053E1,6.848042E-1,0E0,1.1933586E1,3.5685544E0,0E0,0E0,6.95471E0,2.8124645E1,1.7000145E1,4.551501E1,7.4706764E0,1.6697307E0,9.291756E0,4.531575E0,0E0,0E0,5.1266127E0,8.142273E0,7.502899E-1,3.328361E-1,4.4424117E-1,4.833454E0,1.4831629E1,1.516951E1,0E0,0E0,0E0,0E0,0E0,0E0,0E0,0E0,0E0,0E0,0E0,0E0,0E0,0E0,0E0,0E0,0E0,0E0,0E0,0E0,0E0,0E0,0E0,0E0,0E0,0E0,0E0,0E0],"parents":[2147483647,0,0,1,1,2,2,3,3,4,4,6,6,7,7,8,8,9,9,10,10,11,11,12,12,13,13,14,14,16,16,17,17,19,19,20,20,23,23,24,24,25,25,26,26,27,27,28,28,29,29,30,30,33,33,34,34,35,35,36,36,37,37,38,38,39,39,40,40],"right_children":[2,4,6,8,10,-1,12,14,16,18,20,22,24,26,28,-1,30,32,-1,34,36,-1,-1,38,40,42,44,46,48,50,52,-1,-1,54,56,58,60,62,64,66,68,-1,-1,-1,-1,-1,-1,-1,-1,-1,-1,-1,-1,-1,-1,-1,-1,-1,-1,-1,-1,-1,-1,-1,-1,-1,-1,-1,-1],"split_conditions":[3.195815E3,2.991525E3,1.887925E3,2.878035E3,2.9816602E3,-1.2690674E0,3.2059502E3,2.80602E3,1.677985E3,2.929835E3,3.260865E3,3.9024102E3,2.941845E3,2.59894E3,3.1235698E3,1.0266724E0,2.94488E3,3.956045E3,1.265625E0,3.31487E3,3.48463E3,-1.1524292E0,-4.083252E-2,2.02005E3,3.22517E3,2.608555E3,1.88395E3,2.51118E3,2.587865E3,3.27004E3,2.5764849E3,2.850952E-1,3.7353516E-3,3.19785E3,2.92141E3,2.03764E3,3.20588E3,1.77597E3,2.50258E3,3.394135E3,3.23706E3,2.033504E-2,-4.5081615E-1,-1.56698E0,-7.5588755E-2,-1.4135743E-2,8.702344E-1,-3.2490236E-1,4.4360355E-2,-9.0297157E-1,-1.0808106E-1,1.0729981E-1,-3.4874678E-1,1.475697E-1,-2.4982911E-1,-1.7028809E-1,6.0263675E-1,-1.3076173E-1,-4.6049196E-1,1.3806152E-1,-4.343262E-2,2.729004E-1,4.3896485E-2,-5.8040774E-1,-1.6141914E-1,-8.410645E-3,6.227417E-1,-3.0796874E-1,2.6407138E-2],"split_indices":[59,57,24,58,53,0,59,59,0,55,57,0,47,59,22,0,18,1,0,53,46,0,0,27,47,58,42,1,8,40,42,0,0,51,56,2,0,0,36,57,43,0,0,0,0,0,0,0,0,0,0,0,0,0,0,0,0,0,0,0,0,0,0,0,0,0,0,0,0],"split_type":[0,0,0,0,0,0,0,0,0,0,0,0,0,0,0,0,0,0,0,0,0,0,0,0,0,0,0,0,0,0,0,0,0,0,0,0,0,0,0,0,0,0,0,0,0,0,0,0,0,0,0,0,0,0,0,0,0,0,0,0,0,0,0,0,0,0,0,0,0],"sum_hessian":[6.58E2,5.45E2,1.13E2,5.1E2,3.5E1,2E0,1.11E2,4.91E2,1.9E1,7E0,2.8E1,2E0,1.09E2,4.83E2,8E0,1E0,1.8E1,4E0,3E0,2.1E1,7E0,1E0,1E0,1.6E1,9.3E1,4.57E2,2.6E1,5E0,3E0,8E0,1E1,3E0,1E0,1.3E1,8E0,5E0,2E0,3E0,1.3E1,1.4E1,7.9E1,4.51E2,6E0,1E0,2.5E1,1E0,4E0,1E0,2E0,6E0,2E0,2E0,8E0,1E1,3E0,1E0,7E0,2E0,3E0,1E0,1E0,1E0,2E0,3E0,1E1,5E0,9E0,1.4E1,6.5E1],"tree_param":{"num_deleted":"0","num_feature":"60","num_nodes":"69","size_leaf_vector":"0"}},{"base_weights":[-3.3521869E-3,-9.4663084E-1,3.8535316E-3,1.8867493E-1,-1.277626E0,4.0380392E-2,-1.7359707E-1,1.516253E-2,1.385498E0,-1.4987793E0,-5.724863E-2,5.3468555E-2,-4.4768244E-1,2.4571707E0,-8.363037E-1,-2.480489E0,3.4848022E-1,-2.080485E0,2.819585E-3,6.441293E-3,1.170044E0,-1.1997594E0,-5.565534E-2,2.9444823E0,8.2592773E-1,-7.3101807E-1,-2.6841798E0,-1.2191772E0,1.2774252E0,1.0371982E0,-1.2088676E-1,5.373958E-2,-7.2445786E-1,2.0395265E0,2.7323774E-1,-2.5287597E0,-4.152832E-1,1.4007568E0,-2.8645507E-1,-8.8494873E-1,1.8686218E0,-1.616984E0,-1.6318135E-2],"categories":[],"categories_nodes":[],"categories_segments":[],"categories_sizes":[],"default_left":[1,1,1,0,0,1,1,1,1,1,1,1,1,1,0,1,1,0,1,1,1,1,1,0,0,0,0,0,0,1,1,0,0,0,0,0,0,0,0,0,0,0,0],"id":77,"left_children":[1,3,5,-1,-1,7,9,11,13,15,17,19,21,23,-1,25,27,-1,29,31,33,35,37,-1,-1,-1,-1,-1,-1,39,41,-1,-1,-1,-1,-1,-1,-1,-1,-1,-1,-1,-1],"loss_changes":[4.482871E0,2.1199598E0,4.252532E0,0E0,0E0,1.8432013E1,1.718268E1,9.509354E0,2.5865383E1,1.7185656E1,1.2645215E1,2.5984657E1,1.2021443E1,3.1325378E0,0E0,1.7591858E-1,7.3824773E0,0E0,1.3177221E1,1.6494385E1,1.503787E1,1.3545816E1,9.813162E0,0E0,0E0,0E0,0E0,0E0,0E0,1.9232939E1,1.4366539E1,0E0,0E0,0E0,0E0,0E0,0E0,0E0,0E0,0E0,0E0,0E0,0E0],"parents":[2147483647,0,0,1,1,2,2,5,5,6,6,7,7,8,8,9,9,10,10,11,11,12,12,13,13,15,15,16,16,18,18,19,19,20,20,21,21,22,22,29,29,30,30],"right_children":[2,4,6,-1,-1,8,10,12,14,16,18,20,22,24,-1,26,28,-1,30,32,34,36,38,-1,-1,-1,-1,-1,-1,40,42,-1,-1,-1,-1,-1,-1,-1,-1,-1,-1,-1,-1],"split_conditions":[1.221E2,1.67965E2,3.2388599E3,5.660248E-2,-3.8328782E-1,3.24097E3,2.601555E3,3.234325E3,3.5432349E3,2.82678E3,2.76726E3,3.0416099E3,3.251525E3,3.251085E3,-2.5089112E-1,2.807845E3,2.8757651E3,-6.2414557E-1,2.776565E3,3.1977148E3,3.05263E3,3.13133E3,2.07128E3,8.833447E-1,2.4777833E-1,-2.1930543E-1,-8.05254E-1,-3.6575317E-1,3.8322756E-1,3.33646E3,2.021605E3,1.6121875E-2,-2.1733737E-1,6.1185795E-1,8.1971325E-2,-7.5862795E-1,-1.24584965E-1,4.2022708E-1,-8.5936524E-2,-2.6548463E-1,5.605866E-1,-4.8509523E-1,-4.895441E-3],"split_indices":[50,0,8,0,0,9,26,36,35,23,10,35,41,10,0,0,0,0,26,59,32,25,6,0,0,0,0,0,0,8,52,0,0,0,0,0,0,0,0,0,0,0,0],"split_type":[0,0,0,0,0,0,0,0,0,0,0,0,0,0,0,0,0,0,0,0,0,0,0,0,0,0,0,0,0,0,0,0,0,0,0,0,0,0,0,0,0,0,0],"sum_hessian":[6.58E2,4E0,6.54E2,1E0,3E0,5.43E2,1.11E2,5.34E2,9E0,8E0,1.03E2,4.94E2,4E1,6E0,3E0,5E0,3E0,2E0,1.01E2,4.75E2,1.9E1,1.3E1,2.7E1,4E0,2E0,1E0,4E0,1E0,2E0,1E1,9.1E1,4.47E2,2.8E1,9E0,1E1,4E0,9E0,3E0,2.4E1,3E0,7E0,5E0,8.6E1],"tree_param":{"num_deleted":"0","num_feature":"60","num_nodes":"43","size_leaf_vector":"0"}},{"base_weights":[-4.366283E-3,-1.12783566E-1,6.175247E-2,-6.0998313E-2,-2.6380615E0,9.855964E-1,-4.6364494E-2,1.2953337E-2,-7.15249E-1,-3.3746507E-2,5.44944E0,-1.588558E0,1.911366E-2,-5.2892614E-2,2.0429208E0,-2.3068123E0,3.1848483E-2,2.8681335E0,-2.888022E-1,1.8933227E0,8.532227E0,-7.288724E-1,-4.7843423E0,-1.5133754E0,4.9884666E-2,1.1578546E-2,-1.3821564E0,3.5803223E0,-5.2108765E-3,-2.8034484E0,-1.109314E0,1.02291E0,-5.4892474E-1,5.0136023E-5,-1.4029541E0,-2.340393E-1,2.483673E0,7.732747E-1,-1.0722878E0,-1.7200724E0,-1.3659668E-1,9.35376E-1,-1.8594248E-2,-1.8918367E-2,2.0916748E0,-6.5825546E-1,-2.303444E0,-2.4952698E-1,1.5940349E-1,-5.126953E-2,1.4628357E0,-1.1421858E0,2.3470052E-1,-8.213152E-1,2.6139137E-1,-1.5991211E0,-1.12976074E-1,1.0199585E0,1.3995361E-1,-1.7988281E0,-5.749817E-1,3.0503173E0,3.872768E-1,-2.5838134E0,2.154541E-2],"categories":[],"categories_nodes":[],"categories_segments":[],"categories_sizes":[],"default_left":[1,1,1,1,0,1,1,1,1,1,1,1,1,1,1,1,1,0,1,1,0,1,0,1,1,1,1,0,1,0,0,1,1,1,1,0,0,1,1,0,0,1,1,0,0,0,0,0,0,0,0,0,0,0,0,0,0,0,0,0,0,0,0,0,0],"id":78,"left_children":[1,3,5,7,-1,9,11,13,15,17,19,21,23,25,27,29,31,-1,33,35,-1,37,-1,39,41,43,45,-1,47,-1,-1,49,51,53,55,-1,-1,57,59,-1,-1,61,63,-1,-1,-1,-1,-1,-1,-1,-1,-1,-1,-1,-1,-1,-1,-1,-1,-1,-1,-1,-1,-1,-1],"loss_changes":[4.730951E0,3.2532124E1,4.099781E1,1.1911463E1,0E0,1.9584195E2,3.7190994E1,2.9781717E1,2.9799793E1,2.74734E1,7.154773E1,3.7723373E1,1.67688E1,1.8527027E1,2.2060259E1,1.6478615E0,1.0921976E1,0E0,1.0942133E1,6.8607216E0,0E0,7.535359E0,0E0,1.7570763E0,2.1119236E1,1.317093E1,5.152954E0,0E0,2.0064722E-1,0E0,0E0,3.382913E0,5.8468037E0,6.225071E0,1.5906954E0,0E0,0E0,3.2594335E-1,2.9401493E0,0E0,0E0,2.7798628E1,3.341698E1,0E0,0E0,0E0,0E0,0E0,0E0,0E0,0E0,0E0,0E0,0E0,0E0,0E0,0E0,0E0,0E0,0E0,0E0,0E0,0E0,0E0,0E0],"parents":[2147483647,0,0,1,1,2,2,3,3,5,5,6,6,7,7,8,8,9,9,10,10,11,11,12,12,13,13,14,14,15,15,16,16,18,18,19,19,21,21,23,23,24,24,25,25,26,26,28,28,31,31,32,32,33,33,34,34,37,37,38,38,41,41,42,42],"right_children":[2,4,6,8,-1,10,12,14,16,18,20,22,24,26,28,30,32,-1,34,36,-1,38,-1,40,42,44,46,-1,48,-1,-1,50,52,54,56,-1,-1,58,60,-1,-1,62,64,-1,-1,-1,-1,-1,-1,-1,-1,-1,-1,-1,-1,-1,-1,-1,-1,-1,-1,-1,-1,-1,-1],"split_conditions":[3.8747998E2,4.5510498E2,5.5696497E2,3.7078E2,-7.914185E-1,5.9921497E2,1.093285E3,4.53125E2,3.9388E2,3.7282E2,5.98125E2,1.23212E3,1.507545E3,4.20615E2,3.94595E2,3.69325E2,3.8679498E2,8.604401E-1,6.06775E2,4.7384E2,2.559668E0,5.8996E2,-1.4353027E0,2.840675E3,1.7889551E3,4.2244E2,4.20615E2,1.0740967E0,2.9549E2,-8.410346E-1,-3.327942E-1,3.9584003E2,4.10605E2,3.84265E2,6.0506E2,-7.02118E-2,7.451019E-1,5.90635E2,6.31635E2,-5.160217E-1,-4.0979005E-2,1.624325E3,1.549085E3,-5.6755105E-3,6.2750244E-1,-1.9747664E-1,-6.910332E-1,-7.48581E-2,4.782105E-2,-1.538086E-2,4.3885073E-1,-3.4265575E-1,7.0410155E-2,-2.4639457E-1,7.841741E-2,-4.7973636E-1,-3.3892825E-2,3.0598757E-1,4.1986085E-2,-5.396485E-1,-1.7249452E-1,9.150952E-1,1.1618304E-1,-7.7514404E-1,6.463623E-3],"split_indices":[5,25,1,16,0,26,18,48,29,2,17,28,48,52,32,7,23,0,38,15,0,16,0,0,47,53,48,0,0,0,0,32,23,10,9,0,0,0,16,0,0,54,37,0,0,0,0,0,0,0,0,0,0,0,0,0,0,0,0,0,0,0,0,0,0],"split_type":[0,0,0,0,0,0,0,0,0,0,0,0,0,0,0,0,0,0,0,0,0,0,0,0,0,0,0,0,0,0,0,0,0,0,0,0,0,0,0,0,0,0,0,0,0,0,0,0,0,0,0,0,0,0,0,0,0,0,0,0,0,0,0,0,0],"sum_hessian":[6.58E2,2.49E2,4.09E2,2.45E2,4E0,4.2E1,3.67E2,2.21E2,2.4E1,3.5E1,7E0,1.4E1,3.53E2,2.15E2,6E0,7E0,1.7E1,2E0,3.3E1,4E0,3E0,1.2E1,2E0,6E0,3.47E2,2.06E2,9E0,3E0,3E0,4E0,3E0,6E0,1.1E1,2.7E1,6E0,1E0,3E0,2E0,1E1,5E0,1E0,2.4E1,3.23E2,2.04E2,2E0,6E0,3E0,1E0,2E0,2E0,4E0,6E0,5E0,6E0,2.1E1,5E0,1E0,1E0,1E0,3E0,7E0,4E0,2E1,4E0,3.19E2],"tree_param":{"num_deleted":"0","num_feature":"60","num_nodes":"65","size_leaf_vector":"0"}},{"base_weights":[-2.5774154E-3,3.3546542E-3,-9.747925E-1,-2.9129796E-2,2.3760681E-1,-2.581787E-1,-1.1276041E0,-9.643608E-3,-1.881958E0,1.6921793E0,1.1807292E-1,8.054861E-3,-1.4393137E0,-2.4769897E0,-4.6126303E-1,7.5439453E-1,2.3784993E0,1.8682861E0,1.9198947E-2,-1.408475E-2,7.238626E-1,-1.8785156E0,-2.2753906E-1,-6.3183594E-1,-2.881429E0,3.9709473E-1,2.2263184E0,-4.7349146E-1,1.9219744E-1,2.3320928E-2,-4.2442787E-1,9.7537434E-1,-7.749837E-1,-3.272705E-1,-1.4038086E-2,2.7038574E-2,-1.1651001E0,1.8244222E0,-1.1589206E-2],"categories":[],"categories_nodes":[],"categories_segments":[],"categories_sizes":[],"default_left":[1,1,1,1,1,0,0,1,1,1,1,1,1,1,0,0,0,1,1,1,1,0,1,0,0,0,0,1,1,0,0,0,0,0,0,0,0,0,0],"id":79,"left_children":[1,3,5,7,9,-1,-1,11,13,15,17,19,21,23,-1,-1,-1,25,27,29,31,-1,33,-1,-1,-1,-1,35,37,-1,-1,-1,-1,-1,-1,-1,-1,-1,-1],"loss_changes":[3.8038862E0,4.998788E0,1.4690423E-1,2.081418E1,1.3709858E1,0E0,0E0,1.4484892E1,3.9296074E0,2.0673962E0,1.294292E1,8.979997E0,3.2980614E0,1.1644211E0,0E0,0E0,0E0,1.2228765E0,6.2279024E0,8.451938E0,7.1645164E0,0E0,5.928403E-2,0E0,0E0,0E0,0E0,6.6087494E0,1.7982925E1,0E0,0E0,0E0,0E0,0E0,0E0,0E0,0E0,0E0,0E0],"parents":[2147483647,0,0,1,1,2,2,3,3,4,4,7,7,8,8,9,9,10,10,11,11,12,12,13,13,17,17,18,18,19,19,20,20,22,22,27,27,28,28],"right_children":[2,4,6,8,10,-1,-1,12,14,16,18,20,22,24,-1,-1,-1,26,28,30,32,-1,34,-1,-1,-1,-1,36,38,-1,-1,-1,-1,-1,-1,-1,-1,-1,-1],"split_conditions":[4.6295195E3,3.427065E3,3.85792E3,3.4234648E3,2.073665E3,-7.745361E-2,-3.3828124E-1,3.4667852E3,2.969895E3,1.79604E3,3.218025E3,3.251255E3,3.7755E3,1.93984E3,-1.3837892E-1,2.2631837E-1,7.135498E-1,3.0874302E3,3.11743E3,2.94907E3,3.8692651E3,-5.635547E-1,3.05575E3,-1.8955079E-1,-8.644287E-1,1.1912842E-1,6.6789556E-1,3.0299902E3,3.19925E3,6.9962787E-3,-1.2732837E-1,2.926123E-1,-2.3249511E-1,-9.818116E-2,-4.211426E-3,8.111573E-3,-3.4953004E-1,5.473267E-1,-3.476762E-3],"split_indices":[32,49,5,50,15,0,0,47,8,4,52,46,46,0,0,0,0,18,28,46,36,0,0,0,0,0,0,30,26,0,0,0,0,0,0,0,0,0,0],"split_type":[0,0,0,0,0,0,0,0,0,0,0,0,0,0,0,0,0,0,0,0,0,0,0,0,0,0,0,0,0,0,0,0,0,0,0,0,0,0,0],"sum_hessian":[6.58E2,6.55E2,3E0,5.76E2,7.9E1,1E0,2E0,5.71E2,5E0,5E0,7.4E1,5.65E2,6E0,3E0,2E0,3E0,2E0,3E0,7.1E1,5.49E2,1.6E1,4E0,2E0,1E0,2E0,1E0,2E0,1.8E1,5.3E1,5.04E2,4.5E1,1.4E1,2E0,1E0,1E0,1.1E1,7E0,5E0,4.8E1],"tree_param":{"num_deleted":"0","num_feature":"60","num_nodes":"39","size_leaf_vector":"0"}},{"base_weights":[-2.427305E-3,-7.172933E-2,8.545887E-2,1.5153874E-2,-1.3213068E0,1.9082816E0,-6.6453675E-3,-2.5641324E-2,2.8025146E0,-5.782004E-1,-2.7352448E0,4.866028E-2,3.7609515E0,-2.625183E0,3.146662E-2,3.461633E-2,-8.628938E-1,3.3841858E0,2.3791504E-1,-9.255676E-1,7.82135E-1,-3.4881349E0,-1.110321E0,5.897461E-1,-6.3986206E-1,-4.45459E0,-5.305176E-1,3.6971436E0,4.5950115E-3,-6.279541E-2,9.132843E-1,-3.1529052E0,-2.1484375E-1,-1.4486573E0,3.057251E-1,-9.0409344E-1,7.6416016E-2,-6.0058594E-2,-7.357178E-1,-1.3066134E0,4.8941936E-2,-2.7897341E-2,-1.2851028E0,3.8463657E0,8.848219E-2,-3.6444092E-1,-3.7589111E0,-7.7499825E-1,1.1279907E0,-6.753337E-1,-2.086914E0,5.4870605E-1,-3.9164227E-2,-3.0702427E-1,-3.2034504E0,1.4758301E0,4.679205E-3],"categories":[],"categories_nodes":[],"categories_segments":[],"categories_sizes":[],"default_left":[1,1,1,1,1,1,1,1,1,1,1,1,0,1,1,1,1,0,0,1,0,0,0,0,1,0,1,0,1,1,1,1,1,1,1,0,0,0,0,1,1,0,0,0,0,0,0,0,0,0,0,0,0,0,0,0,0],"id":80,"left_children":[1,3,5,7,9,11,13,15,17,19,21,23,-1,25,27,29,31,-1,-1,33,-1,-1,-1,-1,35,-1,37,-1,39,41,43,45,47,49,51,-1,-1,-1,-1,53,55,-1,-1,-1,-1,-1,-1,-1,-1,-1,-1,-1,-1,-1,-1,-1,-1],"loss_changes":[4.0198946E0,4.008136E1,4.886858E1,3.9415844E1,2.3635437E1,4.8050694E1,2.7826359E1,1.7284067E1,6.653618E0,8.75703E0,5.9141655E0,3.3577535E0,0E0,1.2964741E1,2.7071236E1,2.7446972E1,3.345559E1,0E0,0E0,9.459961E0,0E0,0E0,0E0,0E0,8.261399E-1,0E0,2.4542862E-1,0E0,1.5996517E1,1.2291782E1,7.707445E1,7.0792236E0,1.5165892E1,3.5264263E0,4.4049737E-1,0E0,0E0,0E0,0E0,1.6080982E1,1.6793112E1,0E0,0E0,0E0,0E0,0E0,0E0,0E0,0E0,0E0,0E0,0E0,0E0,0E0,0E0,0E0,0E0],"parents":[2147483647,0,0,1,1,2,2,3,3,4,4,5,5,6,6,7,7,8,8,9,9,10,10,11,11,13,13,14,14,15,15,16,16,19,19,24,24,26,26,28,28,29,29,30,30,31,31,32,32,33,33,34,34,39,39,40,40],"right_children":[2,4,6,8,10,12,14,16,18,20,22,24,-1,26,28,30,32,-1,-1,34,-1,-1,-1,-1,36,-1,38,-1,40,42,44,46,48,50,52,-1,-1,-1,-1,54,56,-1,-1,-1,-1,-1,-1,-1,-1,-1,-1,-1,-1,-1,-1,-1,-1],"split_conditions":[1.961845E3,1.80746E3,1.97156E3,1.82838E3,1.970685E3,1.905505E3,1.78913E3,1.6380549E3,1.822255E3,1.8917051E3,2.818245E3,2.252115E3,1.1282855E0,2.834625E3,1.789125E3,5.8878503E2,1.58379E3,1.0152558E0,7.137451E-2,1.947575E3,2.3464051E-1,-1.0464405E0,-3.3309633E-1,1.7692384E-1,2.708525E3,-1.336377E0,3.01765E3,1.1091431E0,1.87777E3,6.0864E2,5.5696497E2,7.4054E2,1.81484E3,1.825565E3,2.505875E3,-2.7122805E-1,2.2924805E-2,-1.8017579E-2,-2.2071534E-1,1.81278E3,1.9541001E3,-8.369203E-3,-3.8553086E-1,1.1539098E0,2.6544658E-2,-1.0933228E-1,-1.1276734E0,-2.3249948E-1,3.3839723E-1,-2.026001E-1,-6.2607425E-1,1.6461182E-1,-1.17492685E-2,-9.210728E-2,-9.610352E-1,4.4274905E-1,1.4037616E-3],"split_indices":[36,36,34,37,39,33,46,40,35,40,3,15,0,0,45,17,37,0,0,34,0,0,0,0,1,0,0,0,24,33,1,5,28,30,4,0,0,0,0,24,22,0,0,0,0,0,0,0,0,0,0,0,0,0,0,0,0],"split_type":[0,0,0,0,0,0,0,0,0,0,0,0,0,0,0,0,0,0,0,0,0,0,0,0,0,0,0,0,0,0,0,0,0,0,0,0,0,0,0,0,0,0,0,0,0,0,0,0,0,0,0,0,0,0,0,0,0],"sum_hessian":[6.58E2,3.68E2,2.9E2,3.45E2,2.3E1,1.3E1,2.77E2,3.41E2,4E0,1.6E1,7E0,7E0,6E0,3E0,2.74E2,3.19E2,2.2E1,3E0,1E0,1.3E1,3E0,4E0,3E0,4E0,3E0,1E0,2E0,1E0,2.73E2,2.88E2,3.1E1,4E0,1.8E1,9E0,4E0,2E0,1E0,1E0,1E0,8E0,2.65E2,2.81E2,7E0,6E0,2.5E1,1E0,3E0,1.3E1,5E0,5E0,4E0,2E0,2E0,6E0,2E0,7E0,2.58E2],"tree_param":{"num_deleted":"0","num_feature":"60","num_nodes":"57","size_leaf_vector":"0"}},{"base_weights":[-3.383677E-3,1.6077468E-3,-1.0953776E0,-1.0920049E-2,5.385254E-1,-1.3027344E0,-3.4033203E-1,4.7384836E-3,-7.14774E-1,1.6916505E-1,1.0643717E0,-2.3708222E-3,1.4913737E0,-1.269694E0,-2.6540798E-1,4.8699078E-1,-4.293213E-1,1.2851562E0,-1.977539E-2,8.139156E-3,-1.0932617E0,1.9248047E0,3.1225586E-1,-4.8378906E-1,6.0546873E-3,5.6279296E-1,1.9832356E-1,-5.4025776E-3,1.0498352E0,-1.3680013E-1,-1.5372925E0,1.175944E-1,-1.0750326E-1],"categories":[],"categories_nodes":[],"categories_segments":[],"categories_sizes":[],"default_left":[1,1,1,1,1,0,0,1,1,1,1,1,1,0,1,1,0,0,0,1,1,0,0,0,1,0,0,0,0,0,0,0,0],"id":81,"left_children":[1,3,5,7,9,-1,-1,11,13,15,17,19,21,-1,23,25,-1,-1,-1,27,29,-1,-1,-1,31,-1,-1,-1,-1,-1,-1,-1,-1],"loss_changes":[3.5937095E0,4.425122E0,2.6329279E-2,7.0900955E0,2.7333474E0,0E0,0E0,6.661971E0,3.1540833E0,2.1112192E0,1.4615917E0,7.2090683E0,9.3216705E-1,0E0,5.3647E-1,4.155612E-2,0E0,0E0,0E0,8.793941E0,2.3378882E0,0E0,0E0,0E0,7.597288E-2,0E0,0E0,0E0,0E0,0E0,0E0,0E0,0E0],"parents":[2147483647,0,0,1,1,2,2,3,3,4,4,7,7,8,8,9,9,10,10,11,11,12,12,14,14,15,15,19,19,20,20,24,24],"right_children":[2,4,6,8,10,-1,-1,12,14,16,18,20,22,-1,24,26,-1,-1,-1,28,30,-1,-1,-1,32,-1,-1,-1,-1,-1,-1,-1,-1],"split_conditions":[4.6883047E3,4.307105E3,2.92513E3,4.14856E3,4.2478896E3,-3.9082032E-1,-1.0209961E-1,4.170285E3,4.11858E3,4.193745E3,4.5320654E3,4.072945E3,2.494975E3,-3.8090822E-1,4.2970996E3,3.52396E3,-1.287964E-1,3.855469E-1,-5.9326175E-3,4.1362803E3,3.96212E3,5.7744145E-1,9.367676E-2,-1.4513673E-1,4.06421E3,1.6883789E-1,5.949707E-2,-1.6207733E-3,3.149506E-1,-4.104004E-2,-4.6118775E-1,3.527832E-2,-3.2250978E-2],"split_indices":[45,45,0,42,32,0,0,47,43,36,27,47,0,0,43,0,0,0,0,55,44,0,0,0,24,0,0,0,0,0,0,0,0],"split_type":[0,0,0,0,0,0,0,0,0,0,0,0,0,0,0,0,0,0,0,0,0,0,0,0,0,0,0,0,0,0,0,0,0],"sum_hessian":[6.58E2,6.56E2,2E0,6.42E2,1.4E1,1E0,1E0,6.29E2,1.3E1,9E0,5E0,6.27E2,2E0,5E0,8E0,6E0,3E0,4E0,1E0,6.22E2,5E0,1E0,1E0,4E0,4E0,4E0,2E0,6.15E2,7E0,2E0,3E0,2E0,2E0],"tree_param":{"num_deleted":"0","num_feature":"60","num_nodes":"33","size_leaf_vector":"0"}},{"base_weights":[-2.4305005E-3,3.6062875E-1,-1.612703E-2,-2.9049214E-2,7.527275E-1,-4.2933106E-1,5.755048E-3,-3.711785E-1,5.925934E-1,-8.243561E-2,1.0402747E0,8.698883E-1,-4.9930227E-1,1.166159E0,-3.9084717E-3,5.382538E-2,-4.3103218E-1,1.05031334E-1,8.826243E-1,6.3179016E-2,-1.520335E-1,2.8607178E-1,1.3696976E0,3.0153465E-1,-5.958753E-1,-1.7880249E-1,3.39048E-2,-5.026812E-1,3.5255432E-2,6.0272217E-3,1.5151978E-1,3.740921E-1,1.320343E-1,6.2525433E-1,-3.3481216E-1,-7.3911387E-1,5.2518208E-2,-6.1409596E-2,-2.1446812E0,2.3841922E0,1.9126534E-4,1.6469574E-1,7.7318573E-1,-8.3711606E-1,1.932729E-1,-1.9734192E-1,2.2678375E-1,7.192325E-2,-9.046391E-1,-1.1191254E0,-3.6362305E0,2.9645264E0,6.2223816E-1,-2.4348047E-1,4.353626E-2],"categories":[],"categories_nodes":[],"categories_segments":[],"categories_sizes":[],"default_left":[1,1,1,1,1,1,1,1,1,1,1,0,1,0,1,0,1,1,0,0,0,1,0,1,1,1,1,0,0,0,0,0,0,1,0,1,1,1,1,1,1,0,0,0,0,0,0,0,0,0,0,0,0,0,0],"id":82,"left_children":[1,3,5,7,9,11,13,15,17,19,21,-1,23,-1,25,-1,27,29,-1,-1,-1,31,-1,33,35,37,39,-1,-1,-1,-1,-1,-1,41,-1,43,45,47,49,51,53,-1,-1,-1,-1,-1,-1,-1,-1,-1,-1,-1,-1,-1,-1],"loss_changes":[3.282793E0,3.68888E0,5.7530317E0,2.984826E0,2.9675422E0,3.3433924E0,6.788778E0,2.5214267E-1,6.1433697E-1,5.0143205E-2,1.8442326E0,0E0,2.5771942E0,0E0,3.9806645E0,0E0,2.849946E-1,1.2894396E-2,0E0,0E0,0E0,4.8407316E-3,0E0,1.0333347E0,2.6393147E0,2.4561779E1,3.922161E1,0E0,0E0,0E0,0E0,0E0,0E0,7.705283E-2,0E0,2.2634392E0,3.06006E-1,1.1532944E1,5.1086025E0,5.313011E0,5.1753936E0,0E0,0E0,0E0,0E0,0E0,0E0,0E0,0E0,0E0,0E0,0E0,0E0,0E0,0E0],"parents":[2147483647,0,0,1,1,2,2,3,3,4,4,5,5,6,6,7,7,8,8,9,9,10,10,12,12,14,14,16,16,17,17,21,21,23,23,24,24,25,25,26,26,33,33,35,35,36,36,37,37,38,38,39,39,40,40],"right_children":[2,4,6,8,10,12,14,16,18,20,22,-1,24,-1,26,-1,28,30,-1,-1,-1,32,-1,34,36,38,40,-1,-1,-1,-1,-1,-1,42,-1,44,46,48,50,52,54,-1,-1,-1,-1,-1,-1,-1,-1,-1,-1,-1,-1,-1,-1],"split_conditions":[1.33105E2,1.3145999E2,1.5E2,1.3726001E2,1.2243E2,1.23729996E2,1.5543E2,1.5014E2,1.893E2,1.86685E2,1.3454001E2,2.609665E-1,1.27369995E2,3.4984773E-1,2.33245E2,1.6147614E-2,2.75015E2,1.86715E2,2.6478732E-1,1.8953705E-2,-4.5610048E-2,1.7707E2,4.109093E-1,1.82965E2,1.64925E2,2.3907E2,2.33695E2,-1.5080437E-1,1.057663E-2,1.8081666E-3,4.5455933E-2,1.1222763E-1,3.9610293E-2,1.75495E2,-1.00443654E-1,2.6563E2,1.5128E2,2.43435E2,2.4297E2,2.40565E2,3.83145E2,4.9408723E-2,2.3195572E-1,-2.5113484E-1,5.7981875E-2,-5.9202578E-2,6.8035126E-2,2.1576975E-2,-2.7139175E-1,-3.3573762E-1,-1.0908692E0,8.89358E-1,1.8667145E-1,-7.304414E-2,1.3060879E-2],"split_indices":[42,41,46,37,42,59,46,8,1,0,30,0,52,0,25,0,10,0,0,0,0,0,0,1,53,9,29,0,0,0,0,0,0,0,0,12,1,35,1,24,5,0,0,0,0,0,0,0,0,0,0,0,0,0,0],"split_type":[0,0,0,0,0,0,0,0,0,0,0,0,0,0,0,0,0,0,0,0,0,0,0,0,0,0,0,0,0,0,0,0,0,0,0,0,0,0,0,0,0,0,0,0,0,0,0,0,0,0,0,0,0,0,0],"sum_hessian":[6.58E2,2.3E1,6.35E2,1.2E1,1.1E1,3.1E1,6.04E2,8E0,4E0,3E0,8E0,1E0,3E1,4E0,6E2,1E0,7E0,2E0,2E0,1E0,2E0,3E0,5E0,3E0,2.7E1,1.06E2,4.94E2,6E0,1E0,1E0,1E0,1E0,2E0,2E0,1E0,2.2E1,5E0,1.01E2,5E0,6E0,4.88E2,1E0,1E0,2E1,2E0,2E0,3E0,8.8E1,1.3E1,4E0,1E0,4E0,2E0,7.3E1,4.15E2],"tree_param":{"num_deleted":"0","num_feature":"60","num_nodes":"55","size_leaf_vector":"0"}},{"base_weights":[-6.446781E-4,-4.3310207E-1,1.14813E-2,-1.2917386E-1,-1.0194296E0,8.469445E-1,-7.1323193E-3,-3.2624513E-1,3.9579773E-1,-1.3840065E0,-1.9351704E-1,1.1472889E0,-1.9073868E-1,-7.3627126E-1,5.8364375E-3,4.3331146E-2,-4.9082512E-1,1.5197754E-1,5.6362915E-1,5.460859E-1,1.7595154E0,-4.792328E-1,6.517029E-2,-2.255215E-1,-2.0230968E0,9.3024516E-1,-1.0870184E-2,5.126953E-2,9.757996E-3,-3.694153E-2,6.4941406E-1,9.390259E-2,3.8528442E-3,-4.216374E-1,3.0725607E-1,1.9900992E0,-7.395996E-1,-4.3506056E-1,1.18599925E-2,1.7868805E-1,7.0782167E-1,-5.8794403E-1,2.881012E-1,8.429718E-2,3.765869E-1,2.3415883E0,-5.9417725E-2,-1.3101196E0,7.745361E-2,6.324907E-2,-1.4878356E0,1.6819572E0,2.4150478E-4],"categories":[],"categories_nodes":[],"categories_segments":[],"categories_sizes":[],"default_left":[1,1,1,1,1,1,1,1,1,0,0,1,1,1,1,1,0,0,0,1,0,0,1,1,0,1,1,0,0,0,1,0,0,1,1,1,1,1,1,0,0,0,0,0,0,0,0,0,0,0,0,0,0],"id":83,"left_children":[1,3,5,7,9,11,13,15,17,-1,-1,19,21,23,25,27,-1,-1,-1,29,-1,-1,31,33,-1,35,37,-1,-1,-1,39,-1,-1,41,43,45,47,49,51,-1,-1,-1,-1,-1,-1,-1,-1,-1,-1,-1,-1,-1,-1],"loss_changes":[3.460748E0,3.0759425E0,9.989779E0,1.4740655E0,1.5388231E0,4.5821047E0,5.9521375E0,6.295166E-1,7.802379E-2,0E0,0E0,3.0879498E0,3.2654467E-1,6.773452E0,9.569791E0,5.6577846E-4,0E0,0E0,0E0,4.4569254E-1,0E0,0E0,4.923581E-3,1.0699259E0,0E0,2.0939587E1,5.8770905E0,0E0,0E0,0E0,3.8484573E-2,0E0,0E0,9.9562705E-1,1.4628589E-2,5.1818123E0,2.4322E0,1.635695E1,1.1234512E1,0E0,0E0,0E0,0E0,0E0,0E0,0E0,0E0,0E0,0E0,0E0,0E0,0E0,0E0],"parents":[2147483647,0,0,1,1,2,2,3,3,4,4,5,5,6,6,7,7,8,8,11,11,12,12,13,13,14,14,15,15,19,19,22,22,23,23,25,25,26,26,30,30,33,33,34,34,35,35,36,36,37,37,38,38],"right_children":[2,4,6,8,10,12,14,16,18,-1,-1,20,22,24,26,28,-1,-1,-1,30,-1,-1,32,34,-1,36,38,-1,-1,-1,40,-1,-1,42,44,46,48,50,52,-1,-1,-1,-1,-1,-1,-1,-1,-1,-1,-1,-1,-1,-1],"split_conditions":[1.31825E2,2.14275E2,1.3841E2,2.19125E2,1.2985E2,2.5256E2,1.43095E2,2.02015E2,1.27995E2,-4.1520196E-1,-5.8055114E-2,2.0718E2,1.27240005E2,1.7009E2,1.45625E2,1.3594E2,-1.4724754E-1,4.559326E-2,1.6908875E-1,1.2774E2,5.278546E-1,-1.4376985E-1,1.2948001E2,1.5939001E2,-6.0692906E-1,1.5839E2,1.71265E2,1.538086E-2,2.9273988E-3,-1.1082459E-2,1.2898999E2,2.8170777E-2,1.1558533E-3,1.87075E2,1.3908499E2,1.4961E2,1.6703E2,1.66595E2,1.60365E2,5.3606417E-2,2.1234651E-1,-1.7638321E-1,8.643036E-2,2.5289156E-2,1.1297608E-1,7.024765E-1,-1.7825319E-2,-3.9303592E-1,2.3236085E-2,1.8974721E-2,-4.4635072E-1,5.045872E-1,7.245144E-5],"split_indices":[2,44,3,50,0,54,4,56,1,0,0,54,0,16,1,0,0,0,0,5,0,0,0,9,0,11,5,0,0,0,1,0,0,0,0,0,8,4,2,0,0,0,0,0,0,0,0,0,0,0,0,0,0],"split_type":[0,0,0,0,0,0,0,0,0,0,0,0,0,0,0,0,0,0,0,0,0,0,0,0,0,0,0,0,0,0,0,0,0,0,0,0,0,0,0,0,0,0,0,0,0,0,0,0,0,0,0,0,0],"sum_hessian":[6.58E2,1.7E1,6.41E2,1.2E1,5E0,1.3E1,6.28E2,9E0,3E0,3E0,2E0,1E1,3E0,1E1,6.18E2,3E0,6E0,2E0,1E0,6E0,4E0,1E0,2E0,8E0,2E0,1E1,6.08E2,2E0,1E0,1E0,5E0,1E0,1E0,6E0,2E0,6E0,4E0,3E1,5.78E2,1E0,4E0,5E0,1E0,1E0,1E0,5E0,1E0,2E0,2E0,2.1E1,9E0,3E0,5.75E2],"tree_param":{"num_deleted":"0","num_feature":"60","num_nodes":"53","size_leaf_vector":"0"}},{"base_weights":[-2.5596097E-4,4.5379493E-2,-1.12312354E-1,-2.4293328E-2,1.0657349E0,-9.011377E-1,6.4477976E-3,1.8058795E-2,-1.6776677E0,3.0462646E0,4.436747E-1,-1.1494619E0,1.3030599E0,1.02948E0,-8.6596996E-2,-1.2707146E-2,1.311499E0,-3.7919922E0,-1.0870361E0,4.703003E0,6.279602E-1,-1.4340576E0,8.909241E-1,-4.323073E-1,-1.8925115E0,1.5566406E0,3.9794922E-1,1.6626112E0,-9.1796875E-2,-5.060498E-1,1.13967165E-1,4.367692E-4,-1.8442383E0,-5.661011E-1,2.1970563E0,-5.2579755E-1,-1.5431153E0,9.724935E-2,1.1100464E0,-5.0024414E-1,-1.8898519E0,3.9560372E-1,1.7542899E0,4.6051025E-1,-7.462036E-1,8.154297E-2,-2.3402507E0,6.7265624E-1,2.320044E0,-3.7457275E-1,3.1583658E-1,1.06997535E-1,-9.1831464E-1,2.6462097E0,1.3546214E-2,-9.963752E-3,1.4459635E0,-7.3876953E-1,-2.4047852E-2,-9.655762E-2,2.4243164E-1,9.430629E-1,-1.3287354E-1,2.3569946E0,7.130127E-1,6.8377686E-1,1.5816243E-1,-1.0306549E0,2.6106772E-1,-2.644357E0,-8.5058594E-1,9.753418E-2,7.920532E-1,-4.558018E-1,1.0785217E0,-3.8401166E-1,-1.5015172E0,-7.0110726E-1,1.5465741E-1],"categories":[],"categories_nodes":[],"categories_segments":[],"categories_sizes":[],"default_left":[1,1,1,1,1,1,1,1,1,1,1,1,1,1,1,1,1,0,1,0,1,1,1,1,1,0,0,1,1,1,1,1,0,1,0,0,0,1,0,0,0,1,1,1,1,0,1,1,0,0,0,1,1,0,1,0,0,0,0,0,0,0,0,0,0,0,0,0,0,0,0,0,0,0,0,0,0,0,0],"id":84,"left_children":[1,3,5,7,9,11,13,15,17,19,21,23,25,27,29,31,33,-1,35,-1,37,39,41,43,45,-1,-1,47,49,51,53,55,-1,57,-1,-1,-1,59,-1,-1,-1,61,63,65,67,-1,69,71,-1,-1,-1,73,75,-1,77,-1,-1,-1,-1,-1,-1,-1,-1,-1,-1,-1,-1,-1,-1,-1,-1,-1,-1,-1,-1,-1,-1,-1,-1],"loss_changes":[3.3750541E0,3.3367584E1,1.7898886E1,3.0840822E1,3.560871E1,1.5181704E1,1.5985516E1,1.7128044E1,9.614624E0,2.5092186E1,2.1433186E1,1.1438126E1,6.90918E-2,1.0091438E1,1.3013263E1,1.0135745E1,1.7870985E1,0E0,1.7483253E0,0E0,9.154422E-1,1.1827469E0,7.8588505E0,3.9869123E0,9.913307E0,0E0,0E0,4.2968674E0,8.099172E-1,1.2735148E1,2.6664625E1,6.31375E0,0E0,3.5661614E-1,0E0,0E0,0E0,1.0782064E-1,0E0,0E0,0E0,4.175784E0,2.712511E0,1.6186893E-1,3.1342669E0,0E0,1.8278961E0,2.6608682E-1,0E0,0E0,0E0,1.1973829E1,8.771605E0,0E0,1.0394684E1,0E0,0E0,0E0,0E0,0E0,0E0,0E0,0E0,0E0,0E0,0E0,0E0,0E0,0E0,0E0,0E0,0E0,0E0,0E0,0E0,0E0,0E0,0E0,0E0],"parents":[2147483647,0,0,1,1,2,2,3,3,4,4,5,5,6,6,7,7,8,8,9,9,10,10,11,11,12,12,13,13,14,14,15,15,16,16,18,18,20,20,21,21,22,22,23,23,24,24,27,27,28,28,29,29,30,30,31,31,33,33,37,37,41,41,42,42,43,43,44,44,46,46,47,47,51,51,52,52,54,54],"right_children":[2,4,6,8,10,12,14,16,18,20,22,24,26,28,30,32,34,-1,36,-1,38,40,42,44,46,-1,-1,48,50,52,54,56,-1,58,-1,-1,-1,60,-1,-1,-1,62,64,66,68,-1,70,72,-1,-1,-1,74,76,-1,78,-1,-1,-1,-1,-1,-1,-1,-1,-1,-1,-1,-1,-1,-1,-1,-1,-1,-1,-1,-1,-1,-1,-1,-1],"split_conditions":[2.734605E3,2.556275E3,2.880045E3,2.509185E3,2.566415E3,2.96988E3,2.956615E3,2.492565E3,2.39146E3,2.66984E3,2.52082E3,2.601555E3,2.873155E3,3.22376E3,2.951515E3,2.562155E3,1.955385E3,-1.1375977E0,2.59799E3,1.410901E0,3.1317349E3,2.61022E3,2.6291401E3,2.574455E3,2.61726E3,4.669922E-1,1.1938477E-1,2.9302852E3,2.9687202E3,2.641885E3,1.9915049E3,3.948085E3,-5.5327153E-1,2.840675E3,6.591169E-1,-1.5773927E-1,-4.6293458E-1,2.4262148E3,3.3301392E-1,-1.5007325E-1,-5.669556E-1,2.810795E3,2.660755E3,2.326135E3,2.799705E3,2.4462892E-2,3.4347148E3,2.92427E3,6.960132E-1,-1.1237183E-1,9.475098E-2,3.2740151E3,3.389125E3,7.9386294E-1,2.57206E3,-2.9891257E-3,4.3378907E-1,-2.2163087E-1,-7.2143557E-3,-2.8967286E-2,7.27295E-2,2.8291887E-1,-3.9862063E-2,7.070984E-1,2.1390381E-1,2.0513307E-1,4.7448732E-2,-3.0919647E-1,7.832032E-2,-7.933071E-1,-2.551758E-1,2.9260255E-2,2.3761597E-1,-1.3674055E-1,3.2355654E-1,-1.152035E-1,-4.5045516E-1,-2.1033219E-1,4.6397224E-2],"split_indices":[7,9,3,9,8,4,3,1,8,10,7,0,0,25,22,5,24,0,12,0,0,0,5,45,5,0,0,2,5,22,50,47,0,0,0,0,0,0,0,0,0,55,4,0,5,0,15,0,0,0,0,6,1,0,54,0,0,0,0,0,0,0,0,0,0,0,0,0,0,0,0,0,0,0,0,0,0,0,0],"split_type":[0,0,0,0,0,0,0,0,0,0,0,0,0,0,0,0,0,0,0,0,0,0,0,0,0,0,0,0,0,0,0,0,0,0,0,0,0,0,0,0,0,0,0,0,0,0,0,0,0,0,0,0,0,0,0,0,0,0,0,0,0,0,0,0,0,0,0,0,0,0,0,0,0,0,0,0,0,0,0],"sum_hessian":[6.58E2,4.68E2,1.9E2,4.39E2,2.9E1,2.4E1,1.66E2,4.29E2,1E1,6E0,2.3E1,2.2E1,2E0,1.3E1,1.53E2,4.2E2,9E0,1E0,9E0,3E0,3E0,4E0,1.9E1,1.2E1,1E1,1E0,1E0,8E0,5E0,4.9E1,1.04E2,4.18E2,2E0,3E0,6E0,5E0,4E0,2E0,1E0,2E0,2E0,1.3E1,6E0,3E0,9E0,2E0,8E0,4E0,4E0,3E0,2E0,2E1,2.9E1,3E0,1.01E2,4.16E2,2E0,2E0,1E0,1E0,1E0,6E0,7E0,3E0,3E0,1E0,2E0,7E0,2E0,6E0,2E0,1E0,3E0,1.3E1,7E0,1.6E1,1.3E1,1.6E1,8.5E1],"tree_param":{"num_deleted":"0","num_feature":"60","num_nodes":"79","size_leaf_vector":"0"}},{"base_weights":[2.1856306E-3,1.3137045E-2,-3.8853624E-1,-2.9726555E-3,1.0315673E0,-1.03667E0,-1.2930734E-1,1.3382999E-2,-3.8532904E-1,1.58095E0,-1.8774414E-1,-1.2236938E0,-1.4428711E-1,2.2600447E-1,-4.2404175E-1,-1.5115992E-3,1.0048692E0,-8.4516907E-1,3.1855914E-1,1.9046386E0,5.1448566E-1,4.8828125E-3,-3.828125E-1,-9.179687E-3,5.4264325E-1,7.3958226E-3,-1.3305664E0,1.324585E0,-7.609049E-2,-9.647624E-1,-3.8911134E-1,1.6772461E0,1.496582E-2,-4.663086E-2,5.3955078E-2,1.1149088E-1,-1.2679036E-1,1.36633115E-2,-1.8640137E0,-1.8034668E0,4.4067383E-2,-1.986084E-1,8.4472656E-2,-2.7408853E-1,-1.0754883E0,-5.5096436E-1,3.362165E-1,-3.857422E-2,-1.5161133E-1],"categories":[],"categories_nodes":[],"categories_segments":[],"categories_sizes":[],"default_left":[1,1,1,1,1,1,1,1,1,1,1,0,0,1,0,1,1,1,1,0,0,1,0,1,0,1,1,0,1,1,0,0,1,0,0,0,1,0,0,0,0,0,0,0,0,0,0,0,0],"id":85,"left_children":[1,3,5,7,9,11,13,15,17,19,21,-1,-1,23,-1,25,27,29,31,-1,-1,33,-1,35,-1,37,39,-1,41,43,-1,-1,45,-1,-1,-1,47,-1,-1,-1,-1,-1,-1,-1,-1,-1,-1,-1,-1],"loss_changes":[2.8249369E0,1.0536108E1,2.8902209E0,3.963742E0,6.9954996E0,6.579213E-1,1.5619519E0,8.980336E0,8.684812E0,1.4365082E0,1.521709E-1,0E0,0E0,5.2626026E-1,0E0,7.1129117E0,3.2111864E0,4.9726295E-1,4.5122695E0,0E0,0E0,1.0099649E-2,0E0,8.509671E-2,0E0,7.027704E0,2.6797342E0,0E0,7.579256E-2,6.229267E-1,0E0,0E0,2.003298E0,0E0,0E0,0E0,7.205419E-4,0E0,0E0,0E0,0E0,0E0,0E0,0E0,0E0,0E0,0E0,0E0,0E0],"parents":[2147483647,0,0,1,1,2,2,3,3,4,4,5,5,6,6,7,7,8,8,9,9,10,10,13,13,15,15,16,16,17,17,18,18,21,21,23,23,25,25,26,26,28,28,29,29,32,32,36,36],"right_children":[2,4,6,8,10,12,14,16,18,20,22,-1,-1,24,-1,26,28,30,32,-1,-1,34,-1,36,-1,38,40,-1,42,44,-1,-1,46,-1,-1,-1,48,-1,-1,-1,-1,-1,-1,-1,-1,-1,-1,-1,-1],"split_conditions":[4.2947695E3,4.0921E3,4.23702E3,3.872205E3,4.25808E3,4.6738896E3,4.326995E3,3.81051E3,4.2947695E3,4.282355E3,4.2715254E3,-3.6710817E-1,-4.3286134E-2,4.43855E3,-1.2721252E-1,4.030255E3,3.80798E3,4.0327202E3,3.9695698E3,5.7139164E-1,1.543457E-1,3.89763E3,-1.14843756E-1,4.25226E3,1.6279298E-1,4.14243E3,3.934435E3,3.973755E-1,3.44612E3,3.2459502E3,-1.1673341E-1,5.031738E-1,4.16649E3,-1.3989259E-2,1.6186524E-2,3.3447266E-2,4.394965E3,4.0989937E-3,-5.592041E-1,-5.4104006E-1,1.3220215E-2,-5.958252E-2,2.5341798E-2,-8.222656E-2,-3.226465E-1,-1.6528931E-1,1.00864954E-1,-1.1572266E-2,-4.54834E-2],"split_indices":[22,22,18,19,38,2,30,16,1,4,0,0,0,11,0,5,19,22,4,0,0,0,0,9,0,9,0,0,0,8,0,0,6,0,0,0,0,0,0,0,0,0,0,0,0,0,0,0,0],"split_type":[0,0,0,0,0,0,0,0,0,0,0,0,0,0,0,0,0,0,0,0,0,0,0,0,0,0,0,0,0,0,0,0,0,0,0,0,0,0,0,0,0,0,0,0,0,0,0,0,0],"sum_hessian":[6.58E2,6.41E2,1.7E1,6.32E2,9E0,4E0,1.3E1,6.07E2,2.5E1,6E0,3E0,3E0,1E0,6E0,7E0,5.99E2,8E0,1.5E1,1E1,4E0,2E0,2E0,1E0,4E0,2E0,5.96E2,3E0,6E0,2E0,1.1E1,4E0,1E0,9E0,1E0,1E0,2E0,2E0,5.95E2,1E0,2E0,1E0,1E0,1E0,2E0,9E0,3E0,6E0,1E0,1E0],"tree_param":{"num_deleted":"0","num_feature":"60","num_nodes":"49","size_leaf_vector":"0"}},{"base_weights":[6.247768E-4,-8.060951E-1,5.5428483E-3,-1.0040842E0,-1.0606384E-1,1.1970053E-1,-2.7372293E-2,4.6094116E-2,1.8417689E0,-6.1602E-1,2.1323964E-2,3.9930483E-3,1.1988647E0,7.675743E-1,2.6601055E0,4.252777E-1,-8.570938E-1,1.2272983E0,-2.113737E-3,6.696081E-2,-1.0276031E0,1.5337219E0,4.64386E-1,8.4176636E-1,1.4615376E-1,-2.0596662E0,-5.003592E-1,-2.5557455E-1,1.6874869E0,-8.313024E-1,2.935573E-2,2.6660228E-2,1.0772034E0,-2.6027933E-1,-1.2399979E0,1.3633728E-2,1.6993102E-1,-2.8682976E0,-7.361183E-1,-3.340565E-2,-7.9011726E-1,4.3302917E-1,1.8243917E0,-6.8629675E-2,-1.2410667E0,1.4509103E0,6.776007E-3],"categories":[],"categories_nodes":[],"categories_segments":[],"categories_sizes":[],"default_left":[1,1,1,0,0,1,1,1,1,1,1,1,1,0,0,1,1,1,1,1,1,0,0,0,1,1,1,0,1,1,1,0,0,0,0,0,0,0,0,0,0,0,0,0,0,0,0],"id":86,"left_children":[1,3,5,-1,-1,7,9,11,13,15,17,19,21,-1,-1,23,25,27,29,31,33,-1,-1,-1,35,37,39,-1,41,43,45,-1,-1,-1,-1,-1,-1,-1,-1,-1,-1,-1,-1,-1,-1,-1,-1],"loss_changes":[2.6190546E0,4.4789743E-1,2.4682071E0,0E0,0E0,1.854813E1,1.4632256E1,6.8868804E0,3.2324867E0,1.0154657E1,1.3343801E1,9.032917E0,5.174885E-1,0E0,0E0,8.0698836E-1,1.2697401E1,6.5728893E0,1.2132078E1,5.304732E0,9.8105717E-1,0E0,0E0,0E0,1.6588986E-2,5.38043E0,3.4914985E0,0E0,4.1217422E-1,5.227598E0,1.4370211E1,0E0,0E0,0E0,0E0,0E0,0E0,0E0,0E0,0E0,0E0,0E0,0E0,0E0,0E0,0E0,0E0],"parents":[2147483647,0,0,1,1,2,2,5,5,6,6,7,7,8,8,9,9,10,10,11,11,12,12,15,15,16,16,17,17,18,18,19,19,20,20,24,24,25,25,26,26,28,28,29,29,30,30],"right_children":[2,4,6,-1,-1,8,10,12,14,16,18,20,22,-1,-1,24,26,28,30,32,34,-1,-1,-1,36,38,40,-1,42,44,46,-1,-1,-1,-1,-1,-1,-1,-1,-1,-1,-1,-1,-1,-1,-1,-1],"split_conditions":[1.221E2,2.3457E2,2.4085E2,-3.0122527E-1,-3.1819154E-2,2.3861E2,3.52825E2,2.4409E2,2.0459E2,2.2908499E2,2.33625E2,2.3232E2,1.6211499E2,2.3027231E-1,7.980317E-1,2.36145E2,2.34745E2,3.81305E2,3.4765E2,2.47225E2,1.9189E2,4.601166E-1,1.393158E-1,2.5252992E-1,2.0704001E2,2.2191501E2,2.36705E2,-7.667237E-2,2.3152E2,2.39815E2,3.4096997E2,7.998069E-3,3.2316104E-1,-7.80838E-2,-3.7199938E-1,4.0901187E-3,5.097931E-2,-8.604893E-1,-2.208355E-1,-1.0021696E-2,-2.3703519E-1,1.2990876E-1,5.4731756E-1,-2.0588903E-2,-3.7232003E-1,4.352731E-1,2.0328022E-3],"split_indices":[12,0,52,0,0,52,58,53,4,48,16,52,1,0,0,53,47,57,24,48,7,0,0,0,46,27,59,0,5,18,14,0,0,0,0,0,0,0,0,0,0,0,0,0,0,0,0],"split_type":[0,0,0,0,0,0,0,0,0,0,0,0,0,0,0,0,0,0,0,0,0,0,0,0,0,0,0,0,0,0,0,0,0,0,0,0,0,0,0,0,0,0,0,0,0,0,0],"sum_hessian":[6.58E2,3E0,6.55E2,2E0,1E0,1.46E2,5.09E2,1.41E2,5E0,3.8E1,4.71E2,1.37E2,4E0,3E0,2E0,7E0,3.1E1,8E0,4.63E2,1.3E2,7E0,2E0,2E0,2E0,5E0,6E0,2.5E1,2E0,6E0,1.6E1,4.47E2,1.26E2,4E0,2E0,5E0,1E0,4E0,3E0,3E0,1E1,1.5E1,1E0,5E0,6E0,1E1,6E0,4.41E2],"tree_param":{"num_deleted":"0","num_feature":"60","num_nodes":"47","size_leaf_vector":"0"}},{"base_weights":[1.6767766E-3,8.567454E-1,-2.2301986E-3,-3.7604028E-1,7.6871207E-3,-5.034812E-1,1.6401291E-1,6.1052895E-1,6.8159134E-5,-2.5532022E-1,-7.918091E-1,3.0507407E-1,1.0179291E0,-5.989132E-1,7.7105556E-3,-7.433065E-2,-2.964129E-1,3.380707E-1,7.004547E-2,3.989665E-2,-8.1849927E-1,3.862874E-1,-8.652748E-3,-3.2852173E-2,9.269714E-2,-1.9039917E-1,-9.060394E-1,-8.123525E-2,7.3455304E-1,-1.9477348E-1,2.7043626E-2],"categories":[],"categories_nodes":[],"categories_segments":[],"categories_sizes":[],"default_left":[1,0,1,1,1,1,0,1,1,1,0,1,0,1,1,0,0,0,0,1,1,1,1,0,0,0,0,0,0,0,0],"id":87,"left_children":[1,-1,3,5,7,9,-1,11,13,15,-1,17,-1,19,21,-1,-1,-1,-1,23,25,27,29,-1,-1,-1,-1,-1,-1,-1,-1],"loss_changes":[2.203453E0,0E0,2.438517E0,1.2526002E0,2.94409E0,7.995591E-1,0E0,6.849952E-1,2.90685E0,4.4903517E-2,0E0,2.2850573E-2,0E0,1.154845E0,3.887462E0,0E0,0E0,0E0,0E0,1.4568822E-2,1.5739441E-1,4.2930455E0,4.0048566E0,0E0,0E0,0E0,0E0,0E0,0E0,0E0,0E0],"parents":[2147483647,0,0,2,2,3,3,4,4,5,5,7,7,8,8,9,9,11,11,13,13,14,14,19,19,20,20,21,21,22,22],"right_children":[2,-1,4,6,8,10,-1,12,14,16,-1,18,-1,20,22,-1,-1,-1,-1,24,26,28,30,-1,-1,-1,-1,-1,-1,-1,-1],"split_conditions":[1.13345E2,2.5702363E-1,1.3145999E2,1.73625E2,1.3175E2,1.67945E2,4.9203876E-2,1.6544E2,1.2992E2,1.47425E2,-2.3754273E-1,2.75335E2,3.0537874E-1,1.2316E2,1.4641501E2,-2.2299197E-2,-8.892387E-2,1.01421215E-1,2.1013642E-2,2.3259E2,1.7927E2,1.3170999E2,2.3167001E2,-9.855652E-3,2.7809145E-2,-5.7119753E-2,-2.7181184E-1,-2.4370577E-2,2.2036593E-1,-5.8432046E-2,8.113088E-3],"split_indices":[23,0,26,51,28,47,0,50,34,2,0,1,0,32,42,0,0,0,0,0,0,53,32,0,0,0,0,0,0,0,0],"split_type":[0,0,0,0,0,0,0,0,0,0,0,0,0,0,0,0,0,0,0,0,0,0,0,0,0,0,0,0,0,0,0],"sum_hessian":[6.58E2,2E0,6.56E2,1.6E1,6.4E2,1.3E1,3E0,7E0,6.33E2,8E0,5E0,5E0,2E0,7E0,6.26E2,2E0,6E0,4E0,1E0,2E0,5E0,2.5E1,6.01E2,1E0,1E0,1E0,4E0,1.1E1,1.4E1,9.6E1,5.05E2],"tree_param":{"num_deleted":"0","num_feature":"60","num_nodes":"31","size_leaf_vector":"0"}},{"base_weights":[1.5267241E-3,6.49826E-2,-5.071465E-2,-1.9236432E-2,2.2640824E0,-1.8836792E0,1.354358E-3,2.0170715E-2,-9.272817E-1,5.0740232E0,-6.645857E-2,-2.3825073E-1,-2.554827E0,8.963705E-1,-3.825212E-2,-1.0787429E-2,1.2158116E0,-1.7934936E0,-2.69989E-1,6.6981606E0,1.7585449E0,7.569987E-1,-5.472412E-1,-2.9423013E-1,-3.515625E-2,-3.3218262E0,-4.2488608E-1,1.4017944E0,-8.4399414E-1,-1.2816894E0,1.9254996E-2,4.072149E-2,-7.8278667E-1,2.0258942E0,1.0177612E-1,3.572184E-1,-5.3859454E-1,-6.843872E-1,4.7058105E-2,-1.4632161E-1,1.7260498E0,-2.298584E-1,-1.3432007E0,-1.6706167E0,8.308919E-1,5.757782E-1,-5.8647744E-2,-3.541738E-3,1.2509766E0,-2.1365204E0,-3.4009224E-1,-2.0077515E-1,2.695516E-1,4.6722412E-1,6.8603516E-2,-1.5814209E-1,-5.830566E-1,1.0614014E-1,-3.2562256E-1,2.2808228E0,7.151123E-1,-3.2122803E-1,-2.355957E-2,-4.727539E-1,-2.150472E0,1.0155029E0,2.3083496E-1,2.0857508E-1,2.2770822E0,-8.362671E-1,1.5776424E-2],"categories":[],"categories_nodes":[],"categories_segments":[],"categories_sizes":[],"default_left":[1,1,1,1,1,1,1,1,1,1,1,1,1,1,1,1,1,0,1,0,0,0,0,0,0,0,1,1,1,1,1,1,1,0,1,1,1,0,0,1,1,1,0,1,1,1,1,0,0,0,0,0,0,0,0,0,0,0,0,0,0,0,0,0,0,0,0,0,0,0,0],"id":88,"left_children":[1,3,5,7,9,11,13,15,17,19,21,23,25,27,29,31,33,-1,35,-1,-1,-1,-1,-1,-1,-1,37,39,41,43,45,47,49,-1,51,53,55,-1,-1,57,59,61,-1,63,65,67,69,-1,-1,-1,-1,-1,-1,-1,-1,-1,-1,-1,-1,-1,-1,-1,-1,-1,-1,-1,-1,-1,-1,-1,-1],"loss_changes":[2.187895E0,5.523496E1,3.4552063E1,1.0324345E1,7.237273E1,1.043457E1,1.2547585E1,1.0266221E1,6.348034E0,1.5144928E1,3.1855888E0,3.513241E-2,1.0024242E1,1.4377437E1,2.426538E1,1.0808149E1,6.1110373E0,0E0,1.5401671E0,0E0,0E0,0E0,0E0,0E0,0E0,0E0,3.9961612E-1,6.2763767E0,9.1757655E-1,1.37127075E1,1.4124039E1,1.3664728E1,9.461321E0,0E0,2.5716197E-1,6.319463E-2,9.28843E-3,0E0,0E0,1.7036149E-1,3.9773655E0,4.898034E-2,0E0,6.4557686E0,9.7917795E-2,2.4514023E1,1.6565063E1,0E0,0E0,0E0,0E0,0E0,0E0,0E0,0E0,0E0,0E0,0E0,0E0,0E0,0E0,0E0,0E0,0E0,0E0,0E0,0E0,0E0,0E0,0E0,0E0],"parents":[2147483647,0,0,1,1,2,2,3,3,4,4,5,5,6,6,7,7,8,8,9,9,10,10,11,11,12,12,13,13,14,14,15,15,16,16,18,18,26,26,27,27,28,28,29,29,30,30,31,31,32,32,34,34,35,35,36,36,39,39,40,40,41,41,43,43,44,44,45,45,46,46],"right_children":[2,4,6,8,10,12,14,16,18,20,22,24,26,28,30,32,34,-1,36,-1,-1,-1,-1,-1,-1,-1,38,40,42,44,46,48,50,-1,52,54,56,-1,-1,58,60,62,-1,64,66,68,70,-1,-1,-1,-1,-1,-1,-1,-1,-1,-1,-1,-1,-1,-1,-1,-1,-1,-1,-1,-1,-1,-1,-1,-1],"split_conditions":[5.8967004E2,6.1041E2,1.098985E3,5.96845E2,5.5696497E2,1.257515E3,1.55346E3,5.9375E2,4.1306E2,5.9707E2,5.81895E2,5.8695E2,1.1967E3,1.923265E3,1.767615E3,4.53125E2,5.8798E2,-5.380481E-1,5.49685E2,2.0094483E0,5.275635E-1,2.2709963E-1,-1.6417237E-1,-8.826904E-2,-1.0546875E-2,-9.965479E-1,6.27505E2,1.7549551E3,7.4129E2,2.109795E3,1.968095E3,4.53125E2,3.8481E2,6.077683E-1,3.8913E2,4.6205E2,4.52435E2,-2.0531617E-1,1.4117432E-2,9.745E2,1.7838049E3,7.0776E2,-4.029602E-1,1.45298E3,1.8917051E3,2.12501E3,2.1355898E3,-1.0625215E-3,3.75293E-1,-6.4095616E-1,-1.0202768E-1,-6.0232546E-2,8.086549E-2,1.4016724E-1,2.0581055E-2,-4.744263E-2,-1.74917E-1,3.184204E-2,-9.7686775E-2,6.8424684E-1,2.145337E-1,-9.636841E-2,-7.0678713E-3,-1.4182618E-1,-6.451416E-1,3.046509E-1,6.9250494E-2,6.257253E-2,6.8312466E-1,-2.5088015E-1,4.7329273E-3],"split_indices":[5,23,18,39,1,43,33,37,0,13,10,0,21,53,34,40,44,0,21,0,0,0,0,0,0,0,0,50,0,44,34,48,18,0,4,0,1,0,0,0,47,0,0,12,0,29,36,0,0,0,0,0,0,0,0,0,0,0,0,0,0,0,0,0,0,0,0,0,0,0,0],"split_type":[0,0,0,0,0,0,0,0,0,0,0,0,0,0,0,0,0,0,0,0,0,0,0,0,0,0,0,0,0,0,0,0,0,0,0,0,0,0,0,0,0,0,0,0,0,0,0,0,0,0,0,0,0,0,0,0,0,0,0,0,0,0,0,0,0,0,0,0,0,0,0],"sum_hessian":[6.58E2,2.97E2,3.61E2,2.87E2,1E1,9E0,3.52E2,2.76E2,1.1E1,4E0,6E0,3E0,6E0,1.4E1,3.38E2,2.7E2,6E0,4E0,7E0,2E0,2E0,2E0,4E0,2E0,1E0,4E0,2E0,1.1E1,3E0,1.4E1,3.24E2,2.54E2,1.6E1,3E0,3E0,2E0,5E0,1E0,1E0,2E0,9E0,2E0,1E0,1.2E1,2E0,3.9E1,2.85E2,2.46E2,8E0,3E0,1.3E1,1E0,2E0,1E0,1E0,1E0,4E0,1E0,1E0,5E0,4E0,1E0,1E0,4E0,8E0,1E0,1E0,3.3E1,6E0,2.4E1,2.61E2],"tree_param":{"num_deleted":"0","num_feature":"60","num_nodes":"71","size_leaf_vector":"0"}},{"base_weights":[3.197214E-3,5.9688187E-1,-2.2543229E-3,-4.1021347E-1,8.803436E-1,-5.3147125E-1,3.4660057E-3,2.3855591E-1,9.811516E-1,5.0486248E-2,-7.743515E-1,3.6212765E-2,-9.2612155E-2,-5.0567627E-2,1.26297E-1,-8.5632133E-1,-2.2323608E-1,1.6996317E-2,1.5642904E0,-1.8428345E0,-4.882511E-2,-3.067806E-3,5.977936E-1,3.0004883E-1,2.121399E0,-5.513916E-1,-2.0895183E0,-8.3222306E-1,2.5110437E-2,6.4123906E-3,-1.4619955E0,8.484584E-1,-7.7124023E-1,-4.5694247E-1,-1.656189E0,5.886963E-1,-6.1788235E-2],"categories":[],"categories_nodes":[],"categories_segments":[],"categories_sizes":[],"default_left":[1,1,1,0,1,1,1,0,0,1,1,1,1,0,0,0,0,1,1,1,1,1,1,0,0,0,0,1,1,0,0,0,0,0,0,0,0],"id":89,"left_children":[1,3,5,-1,7,9,11,-1,-1,13,15,17,19,-1,-1,-1,-1,21,23,25,27,29,31,-1,-1,-1,-1,33,35,-1,-1,-1,-1,-1,-1,-1,-1],"loss_changes":[2.1341949E0,2.0739667E0,1.9816929E0,0E0,8.9426994E-2,1.0285159E0,2.0421226E0,0E0,0E0,2.9369451E-2,3.4712315E-2,1.4185698E1,1.255514E1,0E0,0E0,0E0,0E0,5.5837107E0,3.5893955E0,1.2216854E-1,9.404093E0,6.426922E0,6.145063E0,0E0,0E0,0E0,0E0,3.5722742E0,7.3336287E0,0E0,0E0,0E0,0E0,0E0,0E0,0E0,0E0],"parents":[2147483647,0,0,1,1,2,2,4,4,5,5,6,6,9,9,10,10,11,11,12,12,17,17,18,18,19,19,20,20,21,21,22,22,27,27,28,28],"right_children":[2,4,6,-1,8,10,12,-1,-1,14,16,18,20,-1,-1,-1,-1,22,24,26,28,30,32,-1,-1,-1,-1,34,36,-1,-1,-1,-1,-1,-1,-1,-1],"split_conditions":[1.2243E2,1.6470499E2,1.24795E2,-1.2306405E-1,1.53195E2,1.84145E2,2.880045E3,7.1566775E-2,2.943455E-1,1.66015E2,1.8875E2,2.92535E3,2.52335E3,-1.5170288E-2,3.78891E-2,-2.568964E-1,-6.6970825E-2,3.059225E3,3.32804E3,1.86369E3,2.9313901E3,3.24142E3,2.985125E3,9.001465E-2,6.364197E-1,-1.6541749E-1,-6.268555E-1,3.266825E3,2.0280701E3,1.9237172E-3,-4.3859866E-1,2.5453752E-1,-2.3137207E-1,-1.3708274E-1,-4.9685672E-1,1.7660889E-1,-1.853647E-2],"split_indices":[59,7,53,0,0,8,48,0,0,0,0,49,42,0,0,0,0,58,16,0,47,59,50,0,0,0,0,17,6,0,0,0,0,0,0,0,0],"split_type":[0,0,0,0,0,0,0,0,0,0,0,0,0,0,0,0,0,0,0,0,0,0,0,0,0,0,0,0,0,0,0,0,0,0,0,0,0],"sum_hessian":[6.58E2,5E0,6.53E2,1E0,4E0,6E0,6.47E2,1E0,3E0,2E0,4E0,4.83E2,1.64E2,1E0,1E0,3E0,1E0,4.78E2,5E0,3E0,1.61E2,4.63E2,1.5E1,2E0,3E0,1E0,2E0,1.3E1,1.48E2,4.61E2,2E0,1.3E1,2E0,1E1,3E0,1.9E1,1.29E2],"tree_param":{"num_deleted":"0","num_feature":"60","num_nodes":"37","size_leaf_vector":"0"}},{"base_weights":[6.934066E-4,4.3543436E-2,-6.7801885E-2,1.1302729E-2,2.19104E0,-1.8136684E0,-1.8250003E-2,3.0060468E-2,-1.4803222E0,6.7529297E-1,2.7800903E0,-1.7488606E-1,-2.434204E0,-6.59317E-1,5.021159E-2,-2.4280744E-3,1.2876098E0,-5.694173E-1,-1.8977865E0,-2.8428955E0,-3.9971924E-1,2.1674262E-1,-1.1108932E0,1.1445662E0,1.5002943E-2,-1.7765904E-2,8.3492607E-1,2.8286438E0,2.2307478E-1,5.9033203E-1,-3.9782715E-1,-1.3582107E0,-2.9388428E-2,3.824951E-1,2.0331624E0,5.458577E-1,-5.007623E-2,2.6669234E-2,-6.029934E-1,-3.2796225E-1,1.3656738E0,8.623047E-1,3.1966553E0,1.135376E0,-1.1820475E-1,8.125E-1,9.733073E-2,-5.6315106E-1,4.9072266E-2,-1.8682556E0,-4.5178223E-1,-5.1745605E-1,3.0578613E-1,-4.292806E-2,6.804199E-1,9.9308777E-1,-3.098687E-1,-7.334671E-1,1.0610675E-2],"categories":[],"categories_nodes":[],"categories_segments":[],"categories_sizes":[],"default_left":[1,1,1,1,1,1,1,1,1,0,0,0,1,1,1,1,1,0,0,0,0,1,1,1,1,1,1,1,1,1,1,1,1,1,0,1,1,0,0,0,0,0,0,0,0,0,0,0,0,0,0,0,0,0,0,0,0,0,0],"id":90,"left_children":[1,3,5,7,9,11,13,15,17,-1,-1,-1,19,21,23,25,27,-1,-1,-1,-1,29,31,33,35,37,39,41,43,45,47,49,51,53,-1,55,57,-1,-1,-1,-1,-1,-1,-1,-1,-1,-1,-1,-1,-1,-1,-1,-1,-1,-1,-1,-1,-1,-1],"loss_changes":[1.937134E0,2.8085377E1,2.194069E1,1.1264283E1,3.4797344E0,6.692751E0,1.0917446E1,1.6222937E1,8.2071877E-1,0E0,0E0,0E0,3.0210228E0,9.735362E0,8.652245E0,4.997993E0,1.5773846E1,0E0,0E0,0E0,0E0,2.301221E0,4.239683E0,3.9625397E0,7.593257E0,9.949864E0,4.768292E0,1.3805008E-1,2.313655E0,5.780933E-1,3.2316768E-1,5.166107E0,8.1258225E-1,6.629298E-1,0E0,9.492685E0,8.136467E0,0E0,0E0,0E0,0E0,0E0,0E0,0E0,0E0,0E0,0E0,0E0,0E0,0E0,0E0,0E0,0E0,0E0,0E0,0E0,0E0,0E0,0E0],"parents":[2147483647,0,0,1,1,2,2,3,3,4,4,5,5,6,6,7,7,8,8,12,12,13,13,14,14,15,15,16,16,21,21,22,22,23,23,24,24,25,25,26,26,27,27,28,28,29,29,30,30,31,31,32,32,33,33,35,35,36,36],"right_children":[2,4,6,8,10,12,14,16,18,-1,-1,-1,20,22,24,26,28,-1,-1,-1,-1,30,32,34,36,38,40,42,44,46,48,50,52,54,-1,56,58,-1,-1,-1,-1,-1,-1,-1,-1,-1,-1,-1,-1,-1,-1,-1,-1,-1,-1,-1,-1,-1,-1],"split_conditions":[2.228315E3,2.165E3,1.937095E3,3.160405E3,1.954515E3,2.49123E3,2.4121401E3,2.322595E3,1.9344E3,2.025879E-1,8.340271E-1,-5.2465823E-2,4.0104448E3,2.01308E3,1.967645E3,2.402795E3,2.17504E3,-1.708252E-1,-5.69336E-1,-8.528687E-1,-1.19915776E-1,2.51154E3,2.73742E3,2.049835E3,2.53503E3,1.855485E3,1.86605E3,1.513005E3,1.9541001E3,2.24449E3,2.13587E3,3.6143901E3,2.9743198E3,3.0406401E3,6.0994875E-1,3.283165E3,2.63808E3,8.000771E-3,-1.8089804E-1,-9.838868E-2,4.0970215E-1,2.5869143E-1,9.589966E-1,3.406128E-1,-3.5461426E-2,2.4375E-1,2.9199218E-2,-1.6894533E-1,1.472168E-2,-5.604767E-1,-1.3553467E-1,-1.5523683E-1,9.173584E-2,-1.2878418E-2,2.0412599E-1,2.9792634E-1,-9.296061E-2,-2.2004014E-1,3.1832028E-3],"split_indices":[30,30,44,52,19,11,26,43,2,0,0,0,1,15,42,49,38,0,0,0,0,32,17,44,18,41,34,0,22,27,0,47,0,8,0,42,17,0,0,0,0,0,0,0,0,0,0,0,0,0,0,0,0,0,0,0,0,0,0],"split_type":[0,0,0,0,0,0,0,0,0,0,0,0,0,0,0,0,0,0,0,0,0,0,0,0,0,0,0,0,0,0,0,0,0,0,0,0,0,0,0,0,0,0,0,0,0,0,0,0,0,0,0,0,0,0,0,0,0,0,0],"sum_hessian":[6.58E2,4.05E2,2.53E2,4E2,5E0,6E0,2.47E2,3.96E2,4E0,2E0,3E0,2E0,4E0,2.3E1,2.24E2,3.87E2,9E0,2E0,2E0,3E0,1E0,8E0,1.5E1,6E0,2.18E2,3.81E2,6E0,3E0,6E0,5E0,3E0,1.2E1,3E0,4E0,2E0,2.3E1,1.95E2,3.55E2,2.6E1,2E0,4E0,1E0,2E0,1E0,5E0,3E0,2E0,2E0,1E0,7E0,5E0,1E0,2E0,2E0,2E0,1.5E1,8E0,1.5E1,1.8E2],"tree_param":{"num_deleted":"0","num_feature":"60","num_nodes":"59","size_leaf_vector":"0"}},{"base_weights":[2.1135043E-3,2.5123721E-2,-1.10491075E-1,-9.578081E-4,6.205046E-1,-8.781128E-1,-1.8194519E-2,1.4187737E-2,-7.8388673E-1,9.5253617E-1,-2.7450126E-1,-1.2848816E0,-5.1660158E-2,1.3839111E0,-6.0498785E-2,-2.4212822E-2,2.4081787E-1,-2.0860596E0,-1.9758606E-1,1.7740682E0,4.6239218E-1,1.8847656E-1,-4.973877E-1,-5.538737E-1,-1.4362386E0,-3.5677084E-1,2.7067056E-1,-1.2200928E0,1.1693051E-3,5.8504418E-3,-1.2054111E0,1.934239E0,6.553141E-2,2.5341797E-1,-2.9821777E-1,1.8103027E-1,2.0564697E0,-6.9335937E-3,6.9792175E-1,2.3364258E-1,4.9072266E-2,-1.20035805E-1,-7.0894367E-1,-1.9423828E0,-9.110514E-2,-8.954468E-1,4.0139902E-2,-5.7708705E-3,8.338623E-1,-1.1747233E-1,-2.092448E0,3.0157166E0,3.6920166E-1,-9.6918947E-1,1.4411715E-1,-3.523763E-2,-3.963623E-1,-1.02376305E-1,9.082031E-2,8.53007E-1,1.5511067E-1,-4.5166016E-2,-1.1638184E0,9.254674E-1,-3.2388378E-2],"categories":[],"categories_nodes":[],"categories_segments":[],"categories_sizes":[],"default_left":[1,1,1,1,1,1,1,1,1,1,1,1,1,0,1,1,1,0,1,1,1,1,1,0,0,0,0,1,1,1,1,1,1,0,1,0,0,1,1,0,0,0,0,0,0,1,1,0,0,0,0,0,0,0,0,0,0,0,0,0,0,0,0,0,0],"id":91,"left_children":[1,3,5,7,9,11,13,15,17,19,21,23,25,-1,27,29,31,-1,33,35,37,39,41,-1,-1,-1,-1,43,45,47,49,51,53,-1,55,-1,-1,57,59,-1,-1,-1,-1,-1,-1,61,63,-1,-1,-1,-1,-1,-1,-1,-1,-1,-1,-1,-1,-1,-1,-1,-1,-1,-1],"loss_changes":[1.7102817E0,8.510181E0,7.919093E0,6.248369E0,7.096387E0,3.9677248E0,6.074546E0,4.5051394E0,7.222471E0,6.025057E0,8.1608623E-1,8.9650154E-2,5.883001E-1,0E0,7.0809116E0,1.5738281E1,2.213578E1,0E0,4.386562E-1,2.3269749E0,1.33132E0,7.4236393E-3,3.1405663E-1,0E0,0E0,0E0,0E0,3.9003215E0,3.3554013E0,4.171391E0,1.0369654E1,1.0734461E1,5.7503633E0,0E0,1.6670352E-1,0E0,0E0,5.5947334E-2,5.411453E-1,0E0,0E0,0E0,0E0,0E0,0E0,8.6019945E-1,5.937412E0,0E0,0E0,0E0,0E0,0E0,0E0,0E0,0E0,0E0,0E0,0E0,0E0,0E0,0E0,0E0,0E0,0E0,0E0],"parents":[2147483647,0,0,1,1,2,2,3,3,4,4,5,5,6,6,7,7,8,8,9,9,10,10,11,11,12,12,14,14,15,15,16,16,18,18,19,19,20,20,21,21,22,22,27,27,28,28,29,29,30,30,31,31,32,32,34,34,37,37,38,38,45,45,46,46],"right_children":[2,4,6,8,10,12,14,16,18,20,22,24,26,-1,28,30,32,-1,34,36,38,40,42,-1,-1,-1,-1,44,46,48,50,52,54,-1,56,-1,-1,58,60,-1,-1,-1,-1,-1,-1,62,64,-1,-1,-1,-1,-1,-1,-1,-1,-1,-1,-1,-1,-1,-1,-1,-1,-1,-1],"split_conditions":[3.2388599E3,3.12029E3,3.239365E3,3.171685E3,3.251525E3,2.999325E3,1.937095E3,2.556275E3,3.22548E3,2.8134E3,3.0739502E3,2.65878E3,3.2464702E3,4.1517335E-1,1.9788301E3,2.53807E3,2.566415E3,-6.258179E-1,2.76726E3,2.895005E3,3.0888252E3,3.78883E3,3.383045E3,-1.6616212E-1,-4.308716E-1,-1.07031256E-1,8.120117E-2,2.83346E3,2.437585E3,2.44906E3,2.558705E3,2.66984E3,2.52082E3,7.60254E-2,3.20456E3,5.4309085E-2,6.169409E-1,3.1612E3,3.5950151E3,7.0092775E-2,1.472168E-2,-3.6010742E-2,-2.1268311E-1,-5.8271486E-1,-2.7331544E-2,3.917105E3,3.081815E3,-1.7312613E-3,2.501587E-1,-3.52417E-2,-6.277344E-1,9.04715E-1,1.107605E-1,-2.9075685E-1,4.3235146E-2,-1.0571289E-2,-1.18908696E-1,-3.0712893E-2,2.7246095E-2,2.559021E-1,4.6533205E-2,-1.3549806E-2,-3.4914553E-1,2.7764022E-1,-9.716514E-3],"split_indices":[8,7,7,5,7,41,56,9,4,26,8,31,1,0,52,11,8,0,7,4,10,0,0,0,0,0,0,30,34,10,5,10,7,0,1,0,0,0,29,0,0,0,0,0,0,0,12,0,0,0,0,0,0,0,0,0,0,0,0,0,0,0,0,0,0],"split_type":[0,0,0,0,0,0,0,0,0,0,0,0,0,0,0,0,0,0,0,0,0,0,0,0,0,0,0,0,0,0,0,0,0,0,0,0,0,0,0,0,0,0,0,0,0,0,0,0,0,0,0,0,0,0,0,0,0,0,0,0,0,0,0,0,0],"sum_hessian":[6.58E2,5.47E2,1.11E2,5.25E2,2.2E1,1.1E1,1E2,5.16E2,9E0,1.6E1,6E0,7E0,4E0,2E0,9.8E1,4.42E2,7.4E1,2E0,7E0,5E0,1.1E1,2E0,4E0,2E0,5E0,2E0,2E0,4E0,9.4E1,4.32E2,1E1,6E0,6.8E1,1E0,6E0,1E0,4E0,4E0,7E0,1E0,1E0,2E0,2E0,2E0,2E0,3E0,9.1E1,4.27E2,5E0,5E0,5E0,3E0,3E0,4E0,6.4E1,2E0,4E0,2E0,2E0,5E0,2E0,1E0,2E0,6E0,8.5E1],"tree_param":{"num_deleted":"0","num_feature":"60","num_nodes":"65","size_leaf_vector":"0"}},{"base_weights":[8.227706E-4,-8.2371235E-3,2.9069823E-1,4.471045E-3,-5.0413513E-1,1.3733886E0,-6.581116E-2,-2.1154096E-3,6.843262E-1,-1.0464565E0,-7.409668E-2,8.105469E-2,1.6762085E0,-4.4415283E-1,2.778049E-1,1.2641709E-2,-2.0550247E-1,1.1372681E0,-1.4770508E-1,-2.8214517E-1,1.9038086E-1,-1.7333984E-2,-5.026507E-1,-3.769531E-2,5.3774416E-1,-1.7940521E-3,4.1621095E-1,-1.1809082E0,-1.0131836E-2,3.5095215E-1,1.2823893E0,-3.466797E-2,-1.8688965E-1,-4.1577148E-1,-1.7226562E-1,5.1818848E-2,3.7231445E-1,-1.5698242E-1,9.41569E-2,1.3818035E-2,-5.6995445E-1,1.0586853E0,-1.1174128E-2,-2.5439453E-1,-1.2929281E0,7.2802734E-1,-7.496554E-2,8.748373E-2,-2.758789E-2],"categories":[],"categories_nodes":[],"categories_segments":[],"categories_sizes":[],"default_left":[1,1,1,1,1,1,1,1,1,0,1,0,0,1,1,1,1,1,1,1,1,0,0,1,0,1,1,1,1,0,0,0,0,0,0,1,0,0,0,0,0,0,0,0,0,0,0,0,0],"id":92,"left_children":[1,3,5,7,9,11,13,15,17,-1,19,-1,-1,21,23,25,27,29,31,33,35,-1,-1,37,-1,39,41,43,45,-1,-1,-1,-1,-1,-1,47,-1,-1,-1,-1,-1,-1,-1,-1,-1,-1,-1,-1,-1],"loss_changes":[1.7330874E0,4.035506E0,7.810171E0,2.8000946E0,3.6539655E0,1.820857E0,2.2034562E0,1.8634701E0,2.429151E0,0E0,6.039566E-1,0E0,0E0,1.9103098E-1,7.583684E-1,3.3739016E0,7.9917917E0,6.3872337E-3,6.808847E-3,1.647368E-2,1.067525E-1,0E0,0E0,9.342233E-2,0E0,4.9751706E0,5.5035086E0,3.9760113E-1,1.7774501E0,0E0,0E0,0E0,0E0,0E0,0E0,1.3741618E-2,0E0,0E0,0E0,0E0,0E0,0E0,0E0,0E0,0E0,0E0,0E0,0E0,0E0],"parents":[2147483647,0,0,1,1,2,2,3,3,4,4,5,5,6,6,7,7,8,8,10,10,13,13,14,14,15,15,16,16,17,17,18,18,19,19,20,20,23,23,25,25,26,26,27,27,28,28,35,35],"right_children":[2,4,6,8,10,12,14,16,18,-1,20,-1,-1,22,24,26,28,30,32,34,36,-1,-1,38,-1,40,42,44,46,-1,-1,-1,-1,-1,-1,48,-1,-1,-1,-1,-1,-1,-1,-1,-1,-1,-1,-1,-1],"split_conditions":[4.37988E3,4.08767E3,4.163505E3,4.10312E3,3.970815E3,4.163505E3,3.95902E3,3.46737E3,4.0643452E3,-3.1393695E-1,4.191425E3,2.4316408E-2,5.028626E-1,4.278285E3,4.572455E3,3.473335E3,3.53319E3,2.894085E3,3.682855E3,3.4528398E3,4.110055E3,-5.2001956E-3,-1.507952E-1,4.287505E3,1.6132325E-1,3.3870352E3,3.44949E3,2.427635E3,2.27169E3,1.0528565E-1,3.847168E-1,-1.0400391E-2,-5.6066897E-2,-1.2473145E-1,-5.167969E-2,4.047095E3,1.1169434E-1,-4.709473E-2,2.8247071E-2,4.145411E-3,-1.7098634E-1,3.176056E-1,-3.3522386E-3,-7.631836E-2,-3.8787845E-1,2.1840821E-1,-2.2489661E-2,2.6245119E-2,-8.276368E-3],"split_indices":[8,13,10,17,32,4,48,24,18,0,8,0,0,2,10,32,24,0,0,0,1,0,0,10,0,36,30,3,5,0,0,0,0,0,0,1,0,0,0,0,0,0,0,0,0,0,0,0,0],"split_type":[0,0,0,0,0,0,0,0,0,0,0,0,0,0,0,0,0,0,0,0,0,0,0,0,0,0,0,0,0,0,0,0,0,0,0,0,0,0,0,0,0,0,0,0,0,0,0,0,0],"sum_hessian":[6.58E2,6.39E2,1.9E1,6.24E2,1.5E1,4E0,1.5E1,6.19E2,5E0,6E0,9E0,1E0,3E0,7E0,8E0,5.78E2,4.1E1,3E0,2E0,5E0,4E0,1E0,6E0,4E0,4E0,5.59E2,1.9E1,6E0,3.5E1,1E0,2E0,1E0,1E0,1E0,4E0,3E0,1E0,2E0,2E0,5.45E2,1.4E1,7E0,1.2E1,1E0,5E0,2E0,3.3E1,2E0,1E0],"tree_param":{"num_deleted":"0","num_feature":"60","num_nodes":"49","size_leaf_vector":"0"}},{"base_weights":[1.2628095E-3,-5.466522E-1,5.443439E-3,-2.17158E-1,-6.93929E-1,1.0954197E-1,-2.4631074E-2,2.3142738E-2,1.1756467E0,-7.8499377E-1,1.6382926E-3,1.2073931E-1,-2.880931E-1,-1.3925426E-1,2.2946064E0,-1.8300912E0,-4.8568726E-2,6.950977E-1,-1.710726E-2,-8.525848E-3,7.4599457E-1,-3.945031E-1,3.867035E-1,-4.4171143E-1,6.865158E-1,-2.7174606E0,-4.8519897E-1,7.60259E-1,-3.1278145E-1,6.566366E-2,1.080286E0,-5.823746E-1,9.964454E-3,4.9310196E-2,-1.6636505E0,1.3459111E0,-1.7214012E-1,-1.5347502E-1,-7.2317E-1,-4.8194885E-2,5.074768E-1,-5.1659393E-1,-7.10907E-2,1.8153381E-1,9.588547E-1,-5.001548E-1,2.2868347E-1,2.1765137E-1,-1.5887451E-1,1.2786509E0,3.234609E-1,-7.378532E-1,3.0174255E-1,4.8825318E-1,-1.7483212E-2],"categories":[],"categories_nodes":[],"categories_segments":[],"categories_sizes":[],"default_left":[1,1,1,0,0,1,1,1,1,1,1,1,1,1,0,1,1,1,1,1,1,1,1,1,0,0,0,1,1,1,1,1,1,0,0,0,0,0,0,0,0,0,0,0,0,0,0,0,0,0,0,0,0,0,0],"id":93,"left_children":[1,3,5,-1,-1,7,9,11,13,15,17,19,21,23,-1,25,27,29,31,33,35,37,39,41,-1,-1,-1,43,45,47,49,51,53,-1,-1,-1,-1,-1,-1,-1,-1,-1,-1,-1,-1,-1,-1,-1,-1,-1,-1,-1,-1,-1,-1],"loss_changes":[1.5125006E0,9.194207E-2,2.0533147E0,0E0,0E0,1.3513055E1,1.0168177E1,4.196235E0,1.6504066E1,1.29949255E1,6.420536E0,8.49285E0,2.5221238E0,1.8018023E0,0E0,7.0354023E0,2.5885234E0,3.080923E0,7.366428E0,8.505911E0,1.0146163E1,2.1863322E0,2.8707838E-1,1.0204005E-1,0E0,0E0,0E0,1.7073238E-1,1.0274818E0,2.3934153E-1,7.8742695E-1,3.246791E0,6.0473747E0,0E0,0E0,0E0,0E0,0E0,0E0,0E0,0E0,0E0,0E0,0E0,0E0,0E0,0E0,0E0,0E0,0E0,0E0,0E0,0E0,0E0,0E0],"parents":[2147483647,0,0,1,1,2,2,5,5,6,6,7,7,8,8,9,9,10,10,11,11,12,12,13,13,15,15,16,16,17,17,18,18,19,19,20,20,21,21,22,22,23,23,27,27,28,28,29,29,30,30,31,31,32,32],"right_children":[2,4,6,-1,-1,8,10,12,14,16,18,20,22,24,-1,26,28,30,32,34,36,38,40,42,-1,-1,-1,44,46,48,50,52,54,-1,-1,-1,-1,-1,-1,-1,-1,-1,-1,-1,-1,-1,-1,-1,-1,-1,-1,-1,-1,-1,-1],"split_conditions":[1.2414E2,1.32165E2,2.3312E2,-6.514741E-2,-2.0817871E-1,2.3025E2,2.33435E2,2.09075E2,2.01015E2,2.4161499E2,2.4177E2,2.0718E2,2.4548E2,2.6229498E2,6.8838197E-1,2.3308E2,1.4155E2,2.2883E2,3.5214502E2,2.1295999E2,2.4548E2,2.3997E2,1.8106E2,1.87015E2,2.0595475E-1,-8.1523824E-1,-1.455597E-1,1.43475E2,2.1238501E2,2.2401001E2,2.4373001E2,3.84265E2,3.8271E2,1.479306E-2,-4.9909517E-1,4.0377337E-1,-5.1642038E-2,-4.6042506E-2,-2.16951E-1,-1.4458466E-2,1.5224305E-1,-1.5497819E-1,-2.132721E-2,5.4460146E-2,2.8765643E-1,-1.5004644E-1,6.860504E-2,6.529541E-2,-4.7662355E-2,3.835953E-1,9.703828E-2,-2.2135597E-1,9.0522766E-2,1.4647596E-1,-5.244964E-3],"split_indices":[5,2,38,0,0,39,32,43,7,44,31,50,19,20,0,15,2,29,39,47,59,56,0,0,0,0,0,0,8,0,25,10,36,0,0,0,0,0,0,0,0,0,0,0,0,0,0,0,0,0,0,0,0,0,0],"split_type":[0,0,0,0,0,0,0,0,0,0,0,0,0,0,0,0,0,0,0,0,0,0,0,0,0,0,0,0,0,0,0,0,0,0,0,0,0,0,0,0,0,0,0,0,0,0,0,0,0,0,0,0,0,0,0],"sum_hessian":[6.58E2,4E0,6.54E2,2E0,2E0,1.46E2,5.08E2,1.36E2,1E1,1.6E1,4.92E2,1.04E2,3.2E1,5E0,5E0,6E0,1E1,1.2E1,4.8E2,8.7E1,1.7E1,2.8E1,4E0,4E0,1E0,3E0,3E0,2E0,8E0,5E0,7E0,2.1E1,4.59E2,8.5E1,2E0,1E1,7E0,1.7E1,1.1E1,1E0,3E0,3E0,1E0,1E0,1E0,6E0,2E0,3E0,2E0,5E0,2E0,1.8E1,3E0,2.4E1,4.35E2],"tree_param":{"num_deleted":"0","num_feature":"60","num_nodes":"55","size_leaf_vector":"0"}},{"base_weights":[8.4304233E-4,-2.7272567E-1,9.390747E-3,-1.1462784E-1,-7.240936E-1,2.799264E-1,-7.1973484E-3,-2.8556976E-1,1.4595032E-1,-7.974701E-1,-2.1529388E-1,-1.1273914E-1,6.193291E-1,-7.5741905E-1,1.5965465E-3,-8.885702E-2,-3.2364082E-1,2.8547287E-1,-3.0059814E-2,4.351705E-1,-2.08426E-1,6.529236E-2,9.12634E-1,-5.831909E-2,-8.6421585E-1,1.9574055E-1,-1.8823758E-2,-7.108561E-2,4.650879E-2,5.294037E-1,1.2335205E-1,2.2404263E-2,-3.4916458E-1,-8.7228395E-2,2.3962021E-1,3.5298665E-3,1.0776048E0,-9.751297E-1,-1.548233E-1,4.7254103E-1,-8.780959E-2,-1.3596191E0,-3.8077498E-3,-8.385925E-2,1.9204204E-1,-4.4207382E-1,1.4981587E-2,2.6885986E-2,-1.22478485E-1,1.000824E-1,3.2911682E-1,1.4513397E-1,-1.3983917E-1,1.807357E-1,1.363824E0,-1.8560283E-1,8.215993E-1,-1.6236725E0,-1.9676208E-2,-3.0143914E-1,1.9461652E-2],"categories":[],"categories_nodes":[],"categories_segments":[],"categories_sizes":[],"default_left":[1,1,1,1,1,1,1,1,1,0,0,1,1,1,1,0,0,0,1,1,1,1,1,0,1,1,1,0,0,0,0,1,1,1,1,1,0,0,0,1,1,1,1,0,0,0,0,0,0,0,0,0,0,0,0,0,0,0,0,0,0],"id":94,"left_children":[1,3,5,7,9,11,13,15,17,-1,-1,19,21,23,25,-1,-1,-1,27,29,31,33,35,-1,37,39,41,-1,-1,-1,-1,43,45,47,49,51,-1,-1,-1,53,55,57,59,-1,-1,-1,-1,-1,-1,-1,-1,-1,-1,-1,-1,-1,-1,-1,-1,-1,-1],"loss_changes":[1.5435567E0,1.3442048E0,2.8741245E0,7.5437874E-1,1.4979124E-2,5.000877E0,3.9860213E0,4.6132863E-2,1.8048292E-1,0E0,0E0,1.0344003E0,3.1904464E0,4.722309E-1,2.3744435E0,0E0,0E0,0E0,1.5871257E-2,2.284789E-2,5.2761036E-1,2.336106E-1,1.945879E0,0E0,3.2111645E-1,4.5152416E0,1.0907122E1,0E0,0E0,0E0,0E0,1.4228864E-1,3.449484E-1,2.3405667E-2,1.7013848E-2,8.1200354E-2,0E0,0E0,0E0,7.2958603E0,2.7315784E0,2.090951E0,3.7249699E0,0E0,0E0,0E0,0E0,0E0,0E0,0E0,0E0,0E0,0E0,0E0,0E0,0E0,0E0,0E0,0E0,0E0,0E0],"parents":[2147483647,0,0,1,1,2,2,3,3,4,4,5,5,6,6,7,7,8,8,11,11,12,12,13,13,14,14,18,18,19,19,20,20,21,21,22,22,24,24,25,25,26,26,31,31,32,32,33,33,34,34,35,35,39,39,40,40,41,41,42,42],"right_children":[2,4,6,8,10,12,14,16,18,-1,-1,20,22,24,26,-1,-1,-1,28,30,32,34,36,-1,38,40,42,-1,-1,-1,-1,44,46,48,50,52,-1,-1,-1,54,56,58,60,-1,-1,-1,-1,-1,-1,-1,-1,-1,-1,-1,-1,-1,-1,-1,-1,-1,-1],"split_conditions":[1.3313E2,1.3735E2,1.50725E2,1.32755E2,2.4676498E2,1.34275E2,1.5704999E2,1.2747E2,1.43295E2,-2.3924103E-1,-6.458817E-2,1.2395E2,1.3342E2,1.4762E2,1.698E2,-2.6657106E-2,-9.709225E-2,8.564186E-2,2.75015E2,1.8641E2,1.2810501E2,1.3808E2,1.27775E2,-1.7495729E-2,1.8710501E2,2.0861E2,1.71555E2,-2.1325683E-2,1.3952637E-2,1.588211E-1,3.700562E-2,1.87335E2,1.5265E2,1.6782E2,2.7011E2,2.05325E2,3.2328144E-1,-2.9253894E-1,-4.6446994E-2,2.01435E2,2.7854498E2,1.7018E2,2.3167001E2,-2.5157776E-2,5.7612613E-2,-1.3262215E-1,4.4944766E-3,8.065796E-3,-3.6743548E-2,3.002472E-2,9.873505E-2,4.3540195E-2,-4.1951753E-2,5.4220714E-2,4.0914723E-1,-5.5680852E-2,2.464798E-1,-4.8710176E-1,-5.9028626E-3,-9.043174E-2,5.8384957E-3],"split_indices":[31,28,40,26,0,53,37,34,25,0,0,48,34,0,5,0,0,0,1,0,49,42,20,0,9,43,5,0,0,0,0,6,36,0,1,0,0,0,0,35,43,0,32,0,0,0,0,0,0,0,0,0,0,0,0,0,0,0,0,0,0],"split_type":[0,0,0,0,0,0,0,0,0,0,0,0,0,0,0,0,0,0,0,0,0,0,0,0,0,0,0,0,0,0,0,0,0,0,0,0,0,0,0,0,0,0,0,0,0,0,0,0,0,0,0,0,0,0,0,0,0,0,0,0,0],"sum_hessian":[6.58E2,1.9E1,6.39E2,1.5E1,4E0,3.6E1,6.03E2,9E0,6E0,3E0,1E0,1.7E1,1.9E1,6E0,5.97E2,2E0,7E0,3E0,3E0,2E0,1.5E1,7E0,1.2E1,1E0,5E0,5.6E1,5.41E2,2E0,1E0,1E0,1E0,6E0,9E0,4E0,3E0,2E0,1E1,4E0,1E0,2.8E1,2.8E1,5E0,5.36E2,4E0,2E0,7E0,2E0,1E0,3E0,2E0,1E0,1E0,1E0,2.2E1,6E0,2.6E1,2E0,4E0,1E0,3.8E1,4.98E2],"tree_param":{"num_deleted":"0","num_feature":"60","num_nodes":"61","size_leaf_vector":"0"}},{"base_weights":[4.202303E-4,2.136602E-2,-9.990277E-2,-3.590492E-3,3.550897E-1,-9.9662274E-1,5.5393847E-3,7.606703E-3,-1.1337891E0,5.576566E-1,-4.7424316E-1,-1.6085379E0,-1.16617836E-1,4.5310757E-1,-6.414388E-2,1.2602942E-2,-1.255249E0,1.0913086E0,1.6317588E-1,-6.4054364E-1,1.6438803E-2,-4.3707275E-1,-2.3778687E0,2.0788574E-1,-5.104167E-1,-1.23095706E-1,1.5148926E0,-6.884223E-1,5.1567266E-3,-7.4794674E-3,3.4179688E-1,-3.5864258E-1,1.2420248E0,3.0000575E-2,8.6344403E-1,-1.3342285E-1,-7.152832E-1,1.22802734E-1,-9.814453E-2,-5.939128E-1,1.6723633E-2,3.1036377E-1,-3.5320172E-1,2.9504395E-1,1.7460938E0,-1.8229167E-1,-8.069894E-1,4.1325378E-1,-9.2376254E-2,1.7736582E-2,-5.286532E-1,7.3738605E-1,-6.19222E-1,3.112793E-1,1.5176866E0,3.8500977E-1,-1.5000407E-1,3.8704428E-1,4.0161133E-2,-6.0998535E-1,-8.117676E-3,-2.2363281E-1,-4.9804688E-2,-3.955078E-1,-1.0167236E0,8.3414716E-1,-1.1190796E-1,-1.0006714E0,3.0269368E-2],"categories":[],"categories_nodes":[],"categories_segments":[],"categories_sizes":[],"default_left":[1,1,1,1,1,1,1,1,0,1,1,1,1,1,1,1,0,1,1,1,1,1,0,0,0,1,1,1,1,1,1,0,1,1,0,0,0,0,0,0,0,1,1,0,0,1,1,1,1,0,0,0,0,0,0,0,0,0,0,0,0,0,0,0,0,0,0,0,0],"id":95,"left_children":[1,3,5,7,9,11,13,15,-1,17,19,21,23,25,27,29,-1,31,33,35,37,39,-1,-1,-1,41,43,45,47,49,51,-1,53,55,-1,-1,-1,-1,-1,-1,-1,57,59,-1,-1,61,63,65,67,-1,-1,-1,-1,-1,-1,-1,-1,-1,-1,-1,-1,-1,-1,-1,-1,-1,-1,-1,-1],"loss_changes":[1.3869207E0,4.548679E0,1.0784459E1,6.4500465E0,6.648289E0,6.2742767E0,3.2414293E0,3.2021322E0,0E0,6.3479023E0,6.633347E-1,5.2694054E0,8.728431E-1,8.751733E0,3.8972087E0,3.3345041E0,0E0,3.2863474E0,1.746006E0,1.3197684E-1,4.861502E-2,2.9462612E-1,0E0,0E0,0E0,1.1070374E0,8.9497757E-1,3.9298677E-1,3.3020144E0,6.2649417E0,1.1481498E1,0E0,2.6064281E0,1.1441091E0,0E0,0E0,0E0,0E0,0E0,0E0,0E0,6.733298E-2,6.1533177E-1,0E0,0E0,5.2935258E-3,2.0199013E-1,3.629941E0,7.4939837E0,0E0,0E0,0E0,0E0,0E0,0E0,0E0,0E0,0E0,0E0,0E0,0E0,0E0,0E0,0E0,0E0,0E0,0E0,0E0,0E0],"parents":[2147483647,0,0,1,1,2,2,3,3,4,4,5,5,6,6,7,7,9,9,10,10,11,11,12,12,13,13,14,14,15,15,17,17,18,18,19,19,20,20,21,21,25,25,26,26,27,27,28,28,29,29,30,30,32,32,33,33,41,41,42,42,45,45,46,46,47,47,48,48],"right_children":[2,4,6,8,10,12,14,16,-1,18,20,22,24,26,28,30,-1,32,34,36,38,40,-1,-1,-1,42,44,46,48,50,52,-1,54,56,-1,-1,-1,-1,-1,-1,-1,58,60,-1,-1,62,64,66,68,-1,-1,-1,-1,-1,-1,-1,-1,-1,-1,-1,-1,-1,-1,-1,-1,-1,-1,-1,-1],"split_conditions":[3.195815E3,2.9768052E3,3.2178652E3,3.047685E3,3.260865E3,2.70079E3,3.32733E3,2.963585E3,-3.4013674E-1,2.90015E3,3.48463E3,2.51154E3,3.120955E3,3.27748E3,3.386775E3,2.7090698E3,-3.7657472E-1,1.92371E3,3.917905E3,2.1249102E3,3.20588E3,2.370585E3,-7.133606E-1,6.2365726E-2,-1.5312502E-1,2.236105E3,1.8426799E3,2.69281E3,3.241745E3,2.606815E3,3.02359E3,-1.0759278E-1,3.0008599E3,3.032995E3,2.5903323E-1,-4.002686E-2,-2.1458498E-1,3.6840823E-2,-2.944336E-2,-1.7817384E-1,5.01709E-3,2.15973E3,3.32804E3,8.851319E-2,5.2382815E-1,2.50168E3,2.90015E3,3.1347148E3,2.8860898E3,5.3209746E-3,-1.5859596E-1,2.2121583E-1,-1.8576661E-1,9.338379E-2,4.55306E-1,1.1550293E-1,-4.5001224E-2,1.1611329E-1,1.204834E-2,-1.8299562E-1,-2.4353028E-3,-6.708985E-2,-1.4941406E-2,-1.1865235E-1,-3.050171E-1,2.5024417E-1,-3.357239E-2,-3.0020142E-1,9.0808105E-3],"split_indices":[59,57,57,59,57,22,59,57,0,31,46,41,57,59,57,57,0,2,39,19,0,1,0,0,0,3,0,18,50,59,49,0,56,57,0,0,0,0,0,0,0,0,54,0,0,0,47,38,22,0,0,0,0,0,0,0,0,0,0,0,0,0,0,0,0,0,0,0,0],"split_type":[0,0,0,0,0,0,0,0,0,0,0,0,0,0,0,0,0,0,0,0,0,0,0,0,0,0,0,0,0,0,0,0,0,0,0,0,0,0,0,0,0,0,0,0,0,0,0,0,0,0,0,0,0,0,0,0,0,0,0,0,0,0,0,0,0,0,0,0,0],"sum_hessian":[6.58E2,5.45E2,1.13E2,5.08E2,3.7E1,1.1E1,1.02E2,5.04E2,4E0,3E1,7E0,6E0,5E0,1.3E1,8.9E1,5.03E2,1E0,1.2E1,1.8E1,5E0,2E0,3E0,3E0,3E0,2E0,9E0,4E0,8E0,8.1E1,4.75E2,2.8E1,1E0,1.1E1,1.6E1,2E0,1E0,4E0,1E0,1E0,2E0,1E0,3E0,6E0,1E0,3E0,2E0,6E0,1.5E1,6.6E1,4.54E2,2.1E1,2E1,8E0,3E0,8E0,5E0,1.1E1,2E0,1E0,3E0,3E0,1E0,1E0,3E0,3E0,8E0,7E0,7E0,5.9E1],"tree_param":{"num_deleted":"0","num_feature":"60","num_nodes":"69","size_leaf_vector":"0"}},{"base_weights":[-1.7133605E-3,4.525744E-1,-5.8785183E-3,-2.1802902E-1,6.303009E-1,-6.2377963E-2,2.659563E-2,-2.8544487E-2,-1.6400757E0,2.2988434E0,4.5239907E-3,8.904995E-3,-7.9196167E-1,-4.863688E-1,-2.2470906E0,3.9512634E-1,-2.8208468E-2,-3.6070243E-2,8.102214E-1,-1.3033333E0,4.2877197E-1,-5.958294E-2,3.592987E0,-7.149251E-1,1.7778741E-2,1.8406896E-2,-8.7978655E-1,2.709676E0,1.593628E-1,-1.6915894E0,-4.9217987E-1,5.713399E-1,5.340576E-4,-3.0713168E-1,6.2862396E-1,4.148722E0,9.628906E-1,-3.6718196E-1,-3.0267334E0,3.4151E0,-1.2503683E-3],"categories":[],"categories_nodes":[],"categories_segments":[],"categories_sizes":[],"default_left":[1,1,1,0,0,1,1,1,1,0,1,1,1,0,0,1,1,1,1,1,1,1,1,1,1,0,0,0,0,0,0,0,0,0,0,0,0,0,0,0,0],"id":96,"left_children":[1,3,5,-1,-1,7,9,11,13,-1,15,17,19,-1,-1,21,23,25,27,29,31,33,35,37,39,-1,-1,-1,-1,-1,-1,-1,-1,-1,-1,-1,-1,-1,-1,-1,-1],"loss_changes":[1.2496073E0,8.52528E-1,1.2015994E0,0E0,0E0,1.2710765E1,2.0852928E1,6.7256036E0,2.4086723E0,0E0,5.291506E0,8.138089E0,7.425566E0,0E0,0E0,4.6745186E1,1.207634E1,9.85233E0,1.4403496E1,1.6869154E0,2.4390692E-1,5.133648E0,1.8517838E0,1.8182611E1,2.3212902E1,0E0,0E0,0E0,0E0,0E0,0E0,0E0,0E0,0E0,0E0,0E0,0E0,0E0,0E0,0E0,0E0],"parents":[2147483647,0,0,1,1,2,2,5,5,6,6,7,7,8,8,10,10,11,11,12,12,15,15,16,16,17,17,18,18,19,19,20,20,21,21,22,22,23,23,24,24],"right_children":[2,4,6,-1,-1,8,10,12,14,-1,16,18,20,-1,-1,22,24,26,28,30,32,34,36,38,40,-1,-1,-1,-1,-1,-1,-1,-1,-1,-1,-1,-1,-1,-1,-1,-1],"split_conditions":[1.2243E2,1.6470499E2,3.83145E2,-6.540871E-2,1.8909027E-1,6.03255E2,3.5236E2,3.726E2,3.5570502E2,6.8965304E-1,5.8247E2,4.53125E2,4.1306E2,-1.4591065E-1,-6.741272E-1,5.9641003E2,1.120425E3,3.1982E2,3.80065E2,3.8768E2,3.95715E2,4.345E2,4.42775E2,6.5594E2,5.56235E2,5.522069E-3,-2.6393598E-1,8.1290287E-1,4.780884E-2,-5.074768E-1,-1.4765397E-1,1.7140198E-1,1.6021729E-4,-9.2139505E-2,1.885872E-1,1.2446167E0,2.888672E-1,-1.1015459E-1,-9.080201E-1,1.02453E0,-3.751105E-4],"split_indices":[59,7,5,0,0,58,18,2,0,0,31,48,12,0,0,26,27,7,26,17,3,20,0,11,1,0,0,0,0,0,0,0,0,0,0,0,0,0,0,0,0],"split_type":[0,0,0,0,0,0,0,0,0,0,0,0,0,0,0,0,0,0,0,0,0,0,0,0,0,0,0,0,0,0,0,0,0,0,0,0,0,0,0,0,0],"sum_hessian":[6.58E2,5E0,6.53E2,1E0,4E0,2.38E2,4.15E2,2.34E2,4E0,3E0,4.12E2,2.24E2,1E1,2E0,2E0,3.1E1,3.81E2,2.13E2,1.1E1,7E0,3E0,2.8E1,3E0,2.3E1,3.58E2,2.01E2,1.2E1,2E0,9E0,4E0,3E0,2E0,1E0,2.1E1,7E0,2E0,1E0,2.1E1,2E0,1E0,3.57E2],"tree_param":{"num_deleted":"0","num_feature":"60","num_nodes":"41","size_leaf_vector":"0"}},{"base_weights":[1.496137E-3,4.3560592E-3,-6.253255E-1,-3.270096E-1,9.463004E-3,-4.7571754E-1,1.7854817E-1,4.5038396E-1,1.8460862E-3,-5.2825928E-2,-5.2858406E-1,5.5870056E-2,2.1195221E-1,1.2701416E-2,6.986738E-1,-3.0909157E-1,9.828681E-3,1.09375E-1,-8.820597E-2,9.4073105E-1,2.819481E-1,4.6228027E-1,-5.226605E-1,9.5209247E-1,5.2608545E-3,1.9849141E-1,6.268234E-1,-2.970001E-1,-9.5614624E-1,3.31043E-1,-3.9020507E-3],"categories":[],"categories_nodes":[],"categories_segments":[],"categories_sizes":[],"default_left":[1,1,0,1,1,1,1,1,1,0,0,0,0,1,1,1,1,0,0,0,0,1,1,0,1,0,0,0,0,0,0],"id":97,"left_children":[1,3,-1,5,7,9,11,13,15,-1,-1,-1,-1,17,19,21,23,-1,-1,-1,-1,25,27,-1,29,-1,-1,-1,-1,-1,-1],"loss_changes":[1.1840878E0,1.1149132E0,0E0,8.3674324E-1,2.1754498E0,1.5093148E-1,4.5204163E-4,1.1865191E0,1.5866108E0,0E0,0E0,0E0,0E0,5.8422923E-2,4.408629E-1,2.8774724E0,2.6764436E0,0E0,0E0,0E0,0E0,4.919958E-2,9.8769164E-1,0E0,1.8550458E0,0E0,0E0,0E0,0E0,0E0,0E0],"parents":[2147483647,0,0,1,1,3,3,4,4,5,5,6,6,7,7,8,8,13,13,14,14,15,15,16,16,21,21,22,22,24,24],"right_children":[2,4,-1,6,8,10,12,14,16,-1,-1,-1,-1,18,20,22,24,-1,-1,-1,-1,26,28,-1,30,-1,-1,-1,-1,-1,-1],"split_conditions":[4.6883047E3,1.2747E2,-1.8759766E-1,2.2408499E2,1.31695E2,1.2221E2,2.2794E2,1.6575E2,1.4183E2,-1.584778E-2,-1.5857522E-1,1.6761018E-2,6.358567E-2,1.37275E2,1.33105E2,1.2815E2,1.4034E2,3.2812502E-2,-2.6461793E-2,2.8221932E-1,8.458443E-2,1.4638E2,1.7041E2,2.8562775E-1,1.4273999E2,5.9547424E-2,1.8804704E-1,-8.910003E-2,-2.868439E-1,9.931291E-2,-1.1706152E-3],"split_indices":[45,15,0,2,9,7,0,32,12,0,0,0,0,0,0,15,13,0,0,0,0,0,31,0,3,0,0,0,0,0,0],"split_type":[0,0,0,0,0,0,0,0,0,0,0,0,0,0,0,0,0,0,0,0,0,0,0,0,0,0,0,0,0,0,0],"sum_hessian":[6.58E2,6.56E2,2E0,9E0,6.47E2,7E0,2E0,1E1,6.37E2,1E0,6E0,1E0,1E0,4E0,6E0,1.5E1,6.22E2,2E0,2E0,3E0,3E0,3E0,1.2E1,2E0,6.2E2,2E0,1E0,9E0,3E0,1.6E1,6.04E2],"tree_param":{"num_deleted":"0","num_feature":"60","num_nodes":"31","size_leaf_vector":"0"}},{"base_weights":[1.5896347E-3,-1.0750943E-3,5.8463544E-1,5.868022E-3,-3.4547776E-1,1.3040551E-3,5.8979493E-1,-5.536804E-1,-1.0294597E-2,-1.10144215E-2,1.8184309E-1,1.3029785E0,8.5754395E-2,-2.1868896E-1,-7.109375E-1,-1.373047E-1,3.1237793E-1,1.6364083E-2,-2.67616E-1,6.5158916E-1,9.293095E-3,2.8019205E-1,-2.487793E-1,-4.0771484E-2,-1.8806966E-1,6.6861873E-3,5.3249514E-1,-5.804349E-1,-1.3043028E-2,9.226074E-1,-5.3344727E-2,-2.578648E-1,2.165663E-1],"categories":[],"categories_nodes":[],"categories_segments":[],"categories_sizes":[],"default_left":[1,1,0,1,1,1,1,1,1,1,1,0,1,0,0,1,0,1,1,1,1,0,0,0,0,0,0,0,0,0,0,0,0],"id":98,"left_children":[1,3,-1,5,7,9,11,13,15,17,19,-1,21,-1,-1,23,-1,25,27,29,31,-1,-1,-1,-1,-1,-1,-1,-1,-1,-1,-1,-1],"loss_changes":[1.0244899E0,1.573064E0,0E0,1.7181705E0,9.0151834E-1,1.4275649E0,1.685631E0,2.6596403E-1,2.8878695E-1,4.2266254E0,3.3171866E0,0E0,3.2988977E-1,0E0,0E0,1.6834654E-2,0E0,2.7137537E0,4.611274E0,2.150766E0,1.7724597E0,0E0,0E0,0E0,0E0,0E0,0E0,0E0,0E0,0E0,0E0,0E0,0E0],"parents":[2147483647,0,0,1,1,3,3,4,4,5,5,6,6,7,7,8,8,9,9,10,10,12,12,15,15,17,17,18,18,19,19,20,20],"right_children":[2,4,-1,6,8,10,12,14,16,18,20,-1,22,-1,-1,24,-1,26,28,30,32,-1,-1,-1,-1,-1,-1,-1,-1,-1,-1,-1,-1],"split_conditions":[4.67275E3,4.33106E3,1.7539063E-1,4.6276396E3,4.356825E3,3.80798E3,4.1420547E3,4.0763052E3,4.110055E3,3.195815E3,3.922975E3,3.9089358E-1,4.3049453E3,-6.560669E-2,-2.1328126E-1,3.987495E3,9.371338E-2,3.417725E3,3.386775E3,3.747375E3,3.838405E3,8.4057614E-2,-7.463379E-2,-1.2231446E-2,-5.64209E-2,2.0058563E-3,1.5974855E-1,-1.7413048E-1,-3.9129085E-3,2.7678224E-1,-1.6003419E-2,-7.7359445E-2,6.496989E-2],"split_indices":[43,40,0,13,23,52,1,55,1,59,53,0,0,0,0,7,0,52,57,12,35,0,0,0,0,0,0,0,0,0,0,0,0],"split_type":[0,0,0,0,0,0,0,0,0,0,0,0,0,0,0,0,0,0,0,0,0,0,0,0,0,0,0,0,0,0,0,0,0],"sum_hessian":[6.58E2,6.56E2,2E0,6.44E2,1.2E1,6.4E2,4E0,7E0,5E0,6E2,4E1,1E0,3E0,3E0,4E0,4E0,1E0,5.43E2,5.7E1,1E1,3E1,2E0,1E0,2E0,2E0,5.34E2,9E0,2.5E1,3.2E1,7E0,3E0,1.3E1,1.7E1],"tree_param":{"num_deleted":"0","num_feature":"60","num_nodes":"33","size_leaf_vector":"0"}},{"base_weights":[1.970896E-3,-3.4191154E-2,4.3292552E-2,-5.141836E-3,-1.2826691E0,1.1591034E0,1.3492622E-2,2.8305264E-2,-5.225307E-1,-2.609904E0,-4.0527344E-1,5.899658E-1,1.5807495E0,9.789917E-1,-1.9618623E-2,1.3217102E-2,2.458435E0,-1.1818237E0,7.04244E-2,3.9029947E-1,-9.0063477E-1,3.8337055E-1,1.7765808E0,-8.955189E-1,1.4617271E-2,-3.3438E-2,3.8738674E-1,-4.8034668E-1,-1.5694174E0,1.157308E0,-2.626831E-1,-2.2607422E-1,6.723633E-1,1.1832682E-1,-1.1339654E0,-2.2886963E0,3.0958943E-2,-4.730252E-3,-6.957143E-1,3.1723633E0,-5.9871674E-2,-6.829834E-2,-5.662842E-1,-5.453644E-1,5.7869464E-1,-2.9711914E-1,-4.1992188E-2,-1.03759766E-1,2.8125E-1,-1.5871338E0,-4.540039E-1,1.7617188E0,1.2237658E-2],"categories":[],"categories_nodes":[],"categories_segments":[],"categories_sizes":[],"default_left":[1,1,1,1,1,1,1,1,1,0,1,0,0,1,1,1,0,1,1,0,0,1,0,1,1,1,1,1,0,0,1,1,0,1,1,0,1,0,0,0,0,0,0,0,0,0,0,0,0,0,0,0,0],"id":99,"left_children":[1,3,5,7,9,11,13,15,17,-1,19,-1,-1,21,23,25,-1,27,29,-1,-1,31,-1,33,35,37,39,41,-1,-1,43,45,-1,47,49,-1,51,-1,-1,-1,-1,-1,-1,-1,-1,-1,-1,-1,-1,-1,-1,-1,-1],"loss_changes":[9.86208E-1,1.2759541E1,1.0225695E1,5.9850693E0,8.258355E0,9.872093E-1,9.641838E0,1.188402E1,8.292784E0,0E0,2.7160935E0,0E0,0E0,4.06952E0,8.769361E0,5.6689963E0,0E0,1.9650154E0,4.648594E0,0E0,0E0,1.3848798E0,0E0,2.7934065E0,1.0685334E1,5.49131E0,4.5031685E1,1.3837564E-1,0E0,0E0,2.694017E0,2.6757598E-2,0E0,1.377316E-1,2.0526686E0,0E0,9.083416E0,0E0,0E0,0E0,0E0,0E0,0E0,0E0,0E0,0E0,0E0,0E0,0E0,0E0,0E0,0E0,0E0],"parents":[2147483647,0,0,1,1,2,2,3,3,4,4,5,5,6,6,7,7,8,8,10,10,13,13,14,14,15,15,17,17,18,18,21,21,23,23,24,24,25,25,26,26,27,27,30,30,31,31,33,33,34,34,36,36],"right_children":[2,4,6,8,10,12,14,16,18,-1,20,-1,-1,22,24,26,-1,28,30,-1,-1,32,-1,34,36,38,40,42,-1,-1,44,46,-1,48,50,-1,52,-1,-1,-1,-1,-1,-1,-1,-1,-1,-1,-1,-1,-1,-1,-1,-1],"split_conditions":[1.83141E3,1.83363E3,1.692925E3,1.79777E3,9.92885E2,1.78062E3,1.92652E3,1.9473049E3,1.9365701E3,-7.8297126E-1,3.0008599E3,1.7698975E-1,4.7422487E-1,1.896685E3,1.817735E3,6.1407996E2,7.375305E-1,1.80012E3,1.759745E3,1.17089845E-1,-2.7019045E-1,2.48726E3,5.3297424E-1,1.58379E3,1.789125E3,6.5594E2,1.1639451E3,1.7482E3,-4.7082523E-1,3.471924E-1,1.989095E3,2.108645E3,2.0170899E-1,1.33122E3,2.230155E3,-6.866089E-1,1.85295E3,-1.4190756E-3,-2.0871429E-1,9.5170903E-1,-1.7961502E-2,-2.0489503E-2,-1.6988526E-1,-1.6360933E-1,1.7360839E-1,-8.913574E-2,-1.2597657E-2,-3.1127932E-2,8.4375E-2,-4.7614014E-1,-1.3620117E-1,5.2851564E-1,3.6712976E-3],"split_indices":[48,49,39,30,0,2,48,20,31,0,0,0,0,52,35,23,0,54,36,0,0,17,0,31,46,52,42,25,0,0,44,0,0,0,56,0,35,0,0,0,0,0,0,0,0,0,0,0,0,0,0,0,0],"split_type":[0,0,0,0,0,0,0,0,0,0,0,0,0,0,0,0,0,0,0,0,0,0,0,0,0,0,0,0,0,0,0,0,0,0,0,0,0,0,0,0,0,0,0,0,0,0,0,0,0,0,0,0,0],"sum_hessian":[6.58E2,3.51E2,3.07E2,3.44E2,7E0,7E0,3E2,3.24E2,2E1,2E0,5E0,4E0,3E0,9E0,2.91E2,3.23E2,1E0,9E0,1.1E1,2E0,3E0,6E0,3E0,1E1,2.81E2,2.88E2,3.5E1,4E0,5E0,2E0,9E0,2E0,4E0,2E0,8E0,1E0,2.8E2,2.77E2,1.1E1,4E0,3.1E1,1E0,3E0,7E0,2E0,1E0,1E0,1E0,1E0,4E0,4E0,2E0,2.78E2],"tree_param":{"num_deleted":"0","num_feature":"60","num_nodes":"53","size_leaf_vector":"0"}}]},"name":"gbtree"},"learner_model_param":{"base_score":"5E-1","num_class":"0","num_feature":"60","num_target":"1"},"objective":{"name":"reg:squarederror","reg_loss_param":{"scale_pos_weight":"1"}}},"version":[1,6,1]}