{"learner":{"attributes":{"best_iteration":"99","best_ntree_limit":"100","scikit_learn":"{\"n_estimators\": 100, \"objective\": \"reg:squarederror\", \"max_depth\": null, \"max_leaves\": null, \"max_bin\": null, \"grow_policy\": null, \"learning_rate\": null, \"verbosity\": null, \"booster\": null, \"tree_method\": null, \"gamma\": null, \"min_child_weight\": null, \"max_delta_step\": null, \"subsample\": null, \"sampling_method\": null, \"colsample_bytree\": null, \"colsample_bylevel\": null, \"colsample_bynode\": null, \"reg_alpha\": null, \"reg_lambda\": null, \"scale_pos_weight\": null, \"base_score\": null, \"missing\": NaN, \"num_parallel_tree\": null, \"random_state\": null, \"n_jobs\": null, \"monotone_constraints\": null, \"interaction_constraints\": null, \"importance_type\": null, \"gpu_id\": null, \"validate_parameters\": null, \"predictor\": null, \"enable_categorical\": false, \"max_cat_to_onehot\": null, \"eval_metric\": null, \"early_stopping_rounds\": null, \"callbacks\": null, \"_estimator_type\": \"regressor\"}"},"feature_names":[],"feature_types":[],"gradient_booster":{"model":{"gbtree_model_param":{"num_parallel_tree":"1","num_trees":"100","size_leaf_vector":"0"},"tree_info":[0,0,0,0,0,0,0,0,0,0,0,0,0,0,0,0,0,0,0,0,0,0,0,0,0,0,0,0,0,0,0,0,0,0,0,0,0,0,0,0,0,0,0,0,0,0,0,0,0,0,0,0,0,0,0,0,0,0,0,0,0,0,0,0,0,0,0,0,0,0,0,0,0,0,0,0,0,0,0,0,0,0,0,0,0,0,0,0,0,0,0,0,0,0,0,0,0,0,0,0],"trees":[{"base_weights":[-3.033283E-1,-1.4927389E1,-1.9105975E-1,-2.2548443E1,-7.3850155E0,1.2916443E1,-2.3091266E-1,-5.763351E0,-1.4464667E-1,1.8646291E0,-9.298861E0,-4.8147973E-1,1.1170641E0,2.1921568E0,4.410231E-1,-2.4962668E0,-1.00165825E1,6.261391E0,-5.607967E-1,1.5129943E0,-3.519687E0,-1.3765897E0,8.064305E0,-7.6120335E-1,1.8481857E0,1.7671078E-2,3.008037E0,9.887987E-1,-4.631439E0],"categories":[],"categories_nodes":[],"categories_segments":[],"categories_sizes":[],"default_left":[1,1,1,0,0,0,1,1,1,1,1,1,1,0,0,0,0,1,1,1,1,0,0,0,0,0,0,0,0],"id":0,"left_children":[1,3,5,-1,-1,-1,7,9,11,13,15,17,19,-1,-1,-1,-1,21,23,25,27,-1,-1,-1,-1,-1,-1,-1,-1],"loss_changes":[1.077467E3,1.20883545E2,3.446139E2,0E0,0E0,0E0,3.1081793E2,2.870269E2,2.7422876E2,8.982897E-1,9.172546E0,2.7573676E2,2.5499806E2,0E0,0E0,0E0,0E0,9.3724976E1,2.4472604E2,2.816289E2,5.9715073E1,0E0,0E0,0E0,0E0,0E0,0E0,0E0,0E0],"parents":[2147483647,0,0,1,1,2,2,6,6,7,7,8,8,9,9,10,10,11,11,12,12,17,17,18,18,19,19,20,20],"right_children":[2,4,6,-1,-1,-1,8,10,12,14,16,18,20,-1,-1,-1,-1,22,24,26,28,-1,-1,-1,-1,-1,-1,-1,-1],"split_conditions":[-1.5808245E1,-8.86689E-1,-2.1709892E1,-6.764533E0,-2.2155046E0,3.874933E0,-1.0850426E1,-2.5666273E0,3.666325E0,4.2062483E0,-2.4490602E0,-1.3276716E1,7.7154427E0,6.576471E-1,1.3230693E-1,-7.488801E-1,-3.0049748E0,-5.2263293E0,6.5249023E0,6.080084E-1,-1.9400158E0,-4.1297692E-1,2.4192917E0,-2.2836101E-1,5.544557E-1,5.3013237E-3,9.0241116E-1,2.9663962E-1,-1.3894318E0],"split_indices":[56,1,55,0,0,0,27,10,4,0,1,35,59,0,0,0,0,0,20,42,8,0,0,0,0,0,0,0,0],"split_type":[0,0,0,0,0,0,0,0,0,0,0,0,0,0,0,0,0,0,0,0,0,0,0,0,0,0,0,0,0],"sum_hessian":[6.57E2,4E0,6.53E2,1E0,3E0,1E0,6.52E2,9E0,6.43E2,3E0,6E0,5.08E2,1.35E2,2E0,1E0,1E0,5E0,5E0,5.03E2,1.25E2,1E1,1E0,4E0,4.65E2,3.8E1,6.3E1,6.2E1,2E0,8E0],"tree_param":{"num_deleted":"0","num_feature":"60","num_nodes":"29","size_leaf_vector":"0"}},{"base_weights":[-2.2132932E-1,-1.224518E1,-1.2906542E-1,-1.9166176E1,-5.723387E0,-1.8331476E-1,6.9491606E0,1.540491E-1,-1.2174544E0,1.1145783E1,4.3615082E-1,-2.5945133E-1,1.1621442E0,-1.0408205E1,-9.150749E-1,-2.4203344E-1,8.9625967E-1,2.04282E0,-4.823697E-1,7.2494614E-1,6.9043837E0,-2.9353077E0,-1.1542603E1,-4.5840612E-1,-3.997502E0,5.0196347E0,-1.0146469E-1,-1.7810134E0,-1.4945123E-1,3.1308658E0,1.1675376E-1,1.1815282E1,3.111816E0,2.393981E0,-1.0548875E0,-1.585101E0,-1.0917685E1],"categories":[],"categories_nodes":[],"categories_segments":[],"categories_sizes":[],"default_left":[1,1,1,0,0,1,1,1,1,0,1,1,1,1,1,0,0,1,1,1,1,0,0,1,1,0,0,0,0,0,0,0,0,0,0,0,0],"id":1,"left_children":[1,3,5,-1,-1,7,9,11,13,-1,15,17,19,21,23,-1,-1,25,27,29,31,-1,-1,33,35,-1,-1,-1,-1,-1,-1,-1,-1,-1,-1,-1,-1],"loss_changes":[7.283832E2,1.1599109E2,2.5240271E2,0E0,0E0,2.2696042E2,1.3180197E2,2.0497377E2,4.3513092E2,0E0,1.1530404E0,1.8009868E2,3.5399567E2,8.505066E0,2.1776067E2,0E0,0E0,1.9838661E2,1.3765108E2,1.9571158E2,1.4948221E2,0E0,0E0,2.3561662E2,3.1657947E2,0E0,0E0,0E0,0E0,0E0,0E0,0E0,0E0,0E0,0E0,0E0,0E0],"parents":[2147483647,0,0,1,1,2,2,5,5,6,6,7,7,8,8,10,10,11,11,12,12,13,13,14,14,17,17,18,18,19,19,20,20,23,23,24,24],"right_children":[2,4,6,-1,-1,8,10,12,14,-1,16,18,20,22,24,-1,-1,26,28,30,32,-1,-1,34,36,-1,-1,-1,-1,-1,-1,-1,-1,-1,-1,-1,-1],"split_conditions":[-1.5808245E1,-8.86689E-1,1.5862345E1,-5.749853E0,-1.7170161E0,2.8582025E0,4.5494473E-1,2.5739074E0,-8.194006E0,3.3437352E0,2.0055997E0,-5.2075324E0,7.5664344E0,-4.6632373E-1,4.964385E0,-7.2610036E-2,2.6887792E-1,-2.3193655E0,-3.823934E0,-2.2627118E0,7.9160273E-1,-8.8059235E-1,-3.462781E0,-3.4371629E0,2.030103E0,1.5058905E0,-3.0439408E-2,-5.34304E-1,-4.483537E-2,9.3925977E-1,3.502613E-2,3.5445848E0,9.335448E-1,7.181943E-1,-3.1646627E-1,-4.7553033E-1,-3.2753055E0],"split_indices":[56,1,39,0,0,52,0,24,53,0,0,19,19,0,55,0,0,34,52,10,8,0,0,59,30,0,0,0,0,0,0,0,0,0,0,0,0],"split_type":[0,0,0,0,0,0,0,0,0,0,0,0,0,0,0,0,0,0,0,0,0,0,0,0,0,0,0,0,0,0,0,0,0,0,0,0,0],"sum_hessian":[6.57E2,4E0,6.53E2,1E0,3E0,6.49E2,4E0,4.9E2,1.59E2,2E0,2E0,3.48E2,1.42E2,4E0,1.55E2,1E0,1E0,3E1,3.18E2,1.33E2,9E0,1E0,3E0,1.36E2,1.9E1,1.2E1,1.8E1,6.4E1,2.54E2,2.6E1,1.07E2,3E0,6E0,2.3E1,1.13E2,1.5E1,4E0],"tree_param":{"num_deleted":"0","num_feature":"60","num_nodes":"37","size_leaf_vector":"0"}},{"base_weights":[-1.629406E-1,-1.0065E1,-8.6987644E-2,-1.629125E1,-4.4356246E0,-1.293514E-1,6.8294625E0,-2.0011857E0,2.2969045E-2,-7.2436213E0,-1.3742222E0,7.690976E-2,-6.4437227E0,1.3504305E0,-2.191278E0,2.4454515E0,-6.1077517E-2,5.8303034E-1,-8.3461685E0,2.2658677E0,-2.0126759E-1,-3.9759047E0,-6.7796424E-2,8.507345E-1,8.247152E0,2.3297608E-1,-1.4707114E0],"categories":[],"categories_nodes":[],"categories_segments":[],"categories_sizes":[],"default_left":[1,1,1,0,0,1,0,1,1,0,1,1,1,1,1,1,1,0,0,0,0,0,0,0,0,0,0],"id":2,"left_children":[1,3,5,-1,-1,7,-1,9,11,-1,13,15,17,19,21,23,25,-1,-1,-1,-1,-1,-1,-1,-1,-1,-1],"loss_changes":[4.9400015E2,1.029877E2,1.9250992E2,0E0,0E0,1.8565822E2,0E0,1.5109967E2,2.1083282E2,0E0,1.0313788E2,1.9591971E2,7.170613E1,1.6081345E1,1.3236722E2,2.9830222E2,2.3536862E2,0E0,0E0,0E0,0E0,0E0,0E0,0E0,0E0,0E0,0E0],"parents":[2147483647,0,0,1,1,2,2,5,5,7,7,8,8,10,10,11,11,12,12,13,13,14,14,15,15,16,16],"right_children":[2,4,6,-1,-1,8,-1,10,12,-1,14,16,18,20,22,24,26,-1,-1,-1,-1,-1,-1,-1,-1,-1,-1],"split_conditions":[-1.5808245E1,-8.86689E-1,1.7718575E1,-4.8873754E0,-1.3306874E0,-5.8685217E0,2.0488389E0,-5.1409426E0,1.5862345E1,-2.1730864E0,-2.728343E0,-7.4522243E0,-3.933048E0,1.8996916E0,7.6120615E-1,3.3396935E0,4.316963E0,1.7490911E-1,-2.5038507E0,6.7976034E-1,-6.0380276E-2,-1.1927714E0,-2.0338928E-2,2.5522035E-1,2.474146E0,6.989282E-2,-4.4121343E-1],"split_indices":[56,1,50,0,0,43,0,20,42,0,38,48,1,53,53,31,40,0,0,0,0,0,0,0,0,0,0],"split_type":[0,0,0,0,0,0,0,0,0,0,0,0,0,0,0,0,0,0,0,0,0,0,0,0,0,0,0],"sum_hessian":[6.57E2,4E0,6.53E2,1E0,3E0,6.5E2,3E0,4.8E1,6.02E2,4E0,4.4E1,5.98E2,4E0,1E1,3.4E1,3.2E1,5.66E2,1E0,3E0,6E0,4E0,1.8E1,1.6E1,2.6E1,6E0,4.69E2,9.7E1],"tree_param":{"num_deleted":"0","num_feature":"60","num_nodes":"27","size_leaf_vector":"0"}},{"base_weights":[-1.2455528E-1,-8.289112E0,-6.194467E-2,-1.3847562E1,-3.437609E0,-2.5252143E-1,1.270524E0,-6.9000022E-3,-1.7024925E0,2.0250971E0,-1.1699073E0,-5.786067E-1,8.2082915E-1,-2.3840098E0,2.1506011E0,7.237547E-1,3.5258517E0,4.524608E-1,-4.2475142E0,-8.677496E-1,2.6742635E0,3.4228155E-1,3.2466993E0,-3.7596667E-1,-3.6828294E0,-1.8944407E-1,2.593286E0,-3.358498E0,1.211419E0,4.293314E0,-1.3164061E-1,-1.2843311E0,2.3727286E0,3.5760903E-1,-5.074636E0,5.943203E-1,-1.4285098E0,2.584737E-1,6.67186E0,8.312051E-1,-2.5071666E0,6.365109E-1,5.6659055E0,5.632607E0,-1.0296613E0,-2.6382663E0,-7.335816E0,-4.6007627E-1,1.7591017E-1,2.8322017E0,1.02064505E-1,2.7832606E0,-1.6575003E-1,2.3085134E0,5.3302937E0,-1.8862078E0,1.217195E0,-2.2516687E0,-2.535949E-1,3.4138408E0,7.384342E-1],"categories":[],"categories_nodes":[],"categories_segments":[],"categories_sizes":[],"default_left":[1,1,1,0,0,1,1,1,1,1,1,1,1,1,1,1,1,1,1,1,1,1,1,1,1,1,1,0,1,1,1,1,1,0,0,0,0,0,0,0,0,0,0,0,0,0,0,0,0,0,0,0,0,0,0,0,0,0,0,0,0],"id":3,"left_children":[1,3,5,-1,-1,7,9,11,13,15,17,19,21,23,25,27,29,31,33,35,37,39,41,43,45,47,49,-1,51,53,55,57,59,-1,-1,-1,-1,-1,-1,-1,-1,-1,-1,-1,-1,-1,-1,-1,-1,-1,-1,-1,-1,-1,-1,-1,-1,-1,-1,-1,-1],"loss_changes":[3.3584814E2,8.723169E1,1.66396E2,0E0,0E0,2.0405875E2,1.5337083E2,2.3282513E2,2.2308089E2,1.2048688E2,1.0178205E2,2.7601892E2,2.322285E2,1.8378943E2,1.3958019E1,7.374546E1,8.1967834E1,4.9738846E1,2.8477722E1,2.2057433E2,2.3005199E2,2.3752841E2,2.0477487E2,1.1970508E2,1.4472449E2,3.77562E-1,6.2580414E0,0E0,6.973145E1,3.7091675E1,1.6495619E1,7.405547E0,9.389492E0,0E0,0E0,0E0,0E0,0E0,0E0,0E0,0E0,0E0,0E0,0E0,0E0,0E0,0E0,0E0,0E0,0E0,0E0,0E0,0E0,0E0,0E0,0E0,0E0,0E0,0E0,0E0,0E0],"parents":[2147483647,0,0,1,1,2,2,5,5,6,6,7,7,8,8,9,9,10,10,11,11,12,12,13,13,14,14,15,15,16,16,17,17,18,18,19,19,20,20,21,21,22,22,23,23,24,24,25,25,26,26,28,28,29,29,30,30,31,31,32,32],"right_children":[2,4,6,-1,-1,8,10,12,14,16,18,20,22,24,26,28,30,32,34,36,38,40,42,44,46,48,50,-1,52,54,56,58,60,-1,-1,-1,-1,-1,-1,-1,-1,-1,-1,-1,-1,-1,-1,-1,-1,-1,-1,-1,-1,-1,-1,-1,-1,-1,-1,-1,-1],"split_conditions":[-1.5808245E1,-8.86689E-1,5.0946093E0,-4.1542687E0,-1.0312828E0,3.011838E0,3.8987155E0,1.0273983E0,4.8034525E0,8.917279E-1,3.5354567E0,7.2095847E0,4.36324E0,-3.2189202E-1,-3.3533738E0,-6.349127E0,2.9485517E0,-2.3721276E-1,6.482105E-1,-1.5214894E0,2.4283326E-1,5.027631E0,-3.8243482E-1,-4.871103E0,2.881191E0,-6.9096994E-1,7.436633E0,-1.0075495E0,-2.2468208E-1,7.618208E-1,-2.5924903E-1,2.3529394E0,-9.33638E-1,1.0728271E-1,-1.5223908E0,1.7829609E-1,-4.2855296E-1,7.754211E-2,2.001558E0,2.4936154E-1,-7.5215E-1,1.9095328E-1,1.6997718E0,1.6897821E0,-3.088984E-1,-7.9147995E-1,-2.2007449E0,-1.3802288E-1,5.2773055E-2,8.496606E-1,3.0619353E-2,8.349782E-1,-4.972501E-2,6.9255406E-1,1.5990882E0,-5.6586236E-1,3.6515853E-1,-6.7550063E-1,-7.6078475E-2,1.0241523E0,2.2153027E-1],"split_indices":[56,1,30,0,0,30,15,27,31,20,39,36,20,10,7,56,10,37,0,11,56,15,21,42,8,0,0,0,50,26,1,16,4,0,0,0,0,0,0,0,0,0,0,0,0,0,0,0,0,0,0,0,0,0,0,0,0,0,0,0,0],"split_type":[0,0,0,0,0,0,0,0,0,0,0,0,0,0,0,0,0,0,0,0,0,0,0,0,0,0,0,0,0,0,0,0,0,0,0,0,0,0,0,0,0,0,0,0,0,0,0,0,0,0,0,0,0,0,0,0,0,0,0,0,0],"sum_hessian":[6.57E2,4E0,6.53E2,1E0,3E0,5.72E2,8.1E1,4.9E2,8.2E1,6.2E1,1.9E1,2.9E2,2E2,7E1,1.2E1,3.4E1,2.8E1,1.3E1,6E0,2.67E2,2.3E1,1.68E2,3.2E1,2.8E1,4.2E1,2E0,1E1,3E0,3.1E1,2.3E1,5E0,7E0,6E0,1E0,5E0,7.4E1,1.93E2,1.5E1,8E0,1.44E2,2.4E1,1.6E1,1.6E1,2E0,2.6E1,3.4E1,8E0,1E0,1E0,9E0,1E0,1.4E1,1.7E1,9E0,1.4E1,2E0,3E0,3E0,4E0,3E0,3E0],"tree_param":{"num_deleted":"0","num_feature":"60","num_nodes":"61","size_leaf_vector":"0"}},{"base_weights":[-8.998117E-2,-6.8394885E0,-3.824184E-2,-1.1770428E1,-2.664147E0,-3.872741E0,2.1267045E-2,9.4467616E-1,-6.072302E0,-3.05807E-2,4.7511873E0,-3.1195376E0,-7.506991E0,-4.4557357E0,3.258408E-2,9.529735E-1,7.361604E0,-5.1231065E0,4.4161546E-1,-1.1908805E0,2.462887E-1,1.5500793E0,-4.1917208E-1,-5.7484436E0,-2.16473E0,-7.083605E-1,-9.638065E0,-3.845306E0,3.074685E-1],"categories":[],"categories_nodes":[],"categories_segments":[],"categories_sizes":[],"default_left":[1,1,1,0,0,1,1,0,1,1,1,0,0,1,1,1,0,1,0,1,1,0,0,0,0,0,0,0,0],"id":4,"left_children":[1,3,5,-1,-1,7,9,-1,11,13,15,-1,-1,17,19,21,-1,23,-1,25,27,-1,-1,-1,-1,-1,-1,-1,-1],"loss_changes":[2.2952188E2,7.158363E1,1.4931651E2,0E0,0E0,1.1169838E2,1.5832231E2,0E0,6.2357483E0,1.787546E2,6.2389038E1,0E0,0E0,3.1677582E1,1.6527457E2,3.9270148E0,0E0,2.356018E0,0E0,3.763107E2,1.3585602E2,0E0,0E0,0E0,0E0,0E0,0E0,0E0,0E0],"parents":[2147483647,0,0,1,1,2,2,5,5,6,6,8,8,9,9,10,10,13,13,14,14,15,15,17,17,19,19,20,20],"right_children":[2,4,6,-1,-1,8,10,-1,12,14,16,-1,-1,18,20,22,-1,24,-1,26,28,-1,-1,-1,-1,-1,-1,-1,-1],"split_conditions":[-1.5808245E1,-8.86689E-1,-1.0850426E1,-3.5311284E0,-7.992441E-1,-2.5666273E0,1.3106099E1,2.8340286E-1,-4.0815616E-1,-1.2364861E1,1.8790107E0,-9.358613E-1,-2.2520974E0,2.2564545E0,-3.9067893E0,5.2931385E0,2.2084813E0,5.0094385E0,1.3248464E-1,7.7374706E0,-1.3131353E1,4.6502382E-1,-1.2575163E-1,-1.7245332E0,-6.4941907E-1,-2.1250816E-1,-2.8914196E0,-1.1535919E0,9.224056E-2],"split_indices":[56,1,27,0,0,10,56,0,5,50,7,0,0,0,18,0,0,15,0,49,58,0,0,0,0,0,0,0,0],"split_type":[0,0,0,0,0,0,0,0,0,0,0,0,0,0,0,0,0,0,0,0,0,0,0,0,0,0,0,0,0],"sum_hessian":[6.57E2,4E0,6.53E2,1E0,3E0,9E0,6.44E2,3E0,6E0,6.38E2,6E0,3E0,3E0,8E0,6.3E2,3E0,3E0,7E0,1E0,9.3E1,5.37E2,2E0,1E0,5E0,2E0,8.9E1,4E0,7E0,5.3E2],"tree_param":{"num_deleted":"0","num_feature":"60","num_nodes":"29","size_leaf_vector":"0"}},{"base_weights":[-7.9846874E-2,-5.6537166E0,-3.71111E-2,-1.0004864E1,-2.064714E0,5.6649826E-2,-1.8613595E0,-1.3517101E-1,9.8295563E-1,-1.0289896E1,-9.564605E-1,3.3111736E-1,-7.2304076E-1,7.0740156E-2,3.0263863E0,-3.7898785E-1,-4.615286E0,1.9971597E-1,4.3969703E0,-4.977832E-1,-2.718922E0,3.1058088E-1,-5.7889643E0,5.8269534E0,9.1466963E-1,4.2619663E-1,-1.5889105E0,-5.241701E0,-1.3680202E0,-2.1652217E-1,1.5324247E0,6.9623356E0,-5.503206E-1,-2.9956214E0,-2.7285632E-1,-5.212568E-1,-5.068988E0,-4.190291E-1,2.137188E0,1.0076082E1,3.1196938E0,-1.381897E0,1.9976194E0,9.03579E-1,-1.3511907E0,-3.0983347E-1,-2.603169E0],"categories":[],"categories_nodes":[],"categories_segments":[],"categories_sizes":[],"default_left":[1,1,1,0,0,1,1,1,1,0,1,1,1,1,1,1,1,1,1,1,1,1,0,1,1,1,1,0,0,0,0,0,0,0,0,0,0,0,0,0,0,0,0,0,0,0,0],"id":5,"left_children":[1,3,5,-1,-1,7,9,11,13,-1,15,17,19,21,23,25,27,29,31,33,35,37,-1,39,41,43,45,-1,-1,-1,-1,-1,-1,-1,-1,-1,-1,-1,-1,-1,-1,-1,-1,-1,-1,-1,-1],"loss_changes":[1.5652817E2,5.742421E1,1.1196771E2,0E0,0E0,1.1083047E2,2.3422128E2,1.4195781E2,1.9923915E2,0E0,6.1637012E1,1.5352263E2,1.0160204E2,1.0720263E2,1.8983243E2,2.6980883E1,9.657898E-1,1.5620929E2,1.18056E2,1.1548164E2,1.1614491E2,9.818342E1,0E0,1.2961465E2,5.2501827E1,1.5645293E1,1.3463913E1,0E0,0E0,0E0,0E0,0E0,0E0,0E0,0E0,0E0,0E0,0E0,0E0,0E0,0E0,0E0,0E0,0E0,0E0,0E0,0E0],"parents":[2147483647,0,0,1,1,2,2,5,5,6,6,7,7,8,8,10,10,11,11,12,12,13,13,14,14,15,15,16,16,17,17,18,18,19,19,20,20,21,21,23,23,24,24,25,25,26,26],"right_children":[2,4,6,-1,-1,8,10,12,14,-1,16,18,20,22,24,26,28,30,32,34,36,38,-1,40,42,44,46,-1,-1,-1,-1,-1,-1,-1,-1,-1,-1,-1,-1,-1,-1,-1,-1,-1,-1,-1,-1],"split_conditions":[-1.5808245E1,-8.86689E-1,8.347448E0,-3.0014594E0,-6.194142E-1,4.4396343E0,8.630169E0,8.8698596E-1,2.776795E0,-3.086969E0,5.57638E0,9.177748E0,5.6715727E0,1.0164249E1,-1.7281851E-1,7.564757E-1,5.167779E0,3.106062E0,5.4002557E0,-5.9631586E0,1.0049851E0,1.6467149E0,-1.7366893E0,-1.9089421E0,-1.9781456E0,6.471033E0,6.952287E-1,-1.5725104E0,-4.1040608E-1,-6.495666E-2,4.5972744E-1,2.0887008E0,-1.650962E-1,-8.9868647E-1,-8.18569E-2,-1.5637705E-1,-1.5206964E0,-1.2570873E-1,6.4115644E-1,3.0228248E0,9.3590814E-1,-4.145691E-1,5.9928584E-1,2.710737E-1,-4.053572E-1,-9.2950046E-2,-7.809507E-1],"split_indices":[56,1,13,0,0,31,13,44,54,0,9,36,46,4,58,21,0,37,30,49,18,30,0,30,1,19,5,0,0,0,0,0,0,0,0,0,0,0,0,0,0,0,0,0,0,0,0],"split_type":[0,0,0,0,0,0,0,0,0,0,0,0,0,0,0,0,0,0,0,0,0,0,0,0,0,0,0,0,0,0,0,0,0,0,0,0,0,0,0,0,0,0,0,0,0,0,0],"sum_hessian":[6.57E2,4E0,6.53E2,1E0,3E0,6.22E2,3.1E1,5.16E2,1.06E2,2E0,2.9E1,2.88E2,2.28E2,7.4E1,3.2E1,2.6E1,3E0,2.8E2,8E0,2.06E2,2.2E1,7.2E1,2E0,1.3E1,1.9E1,1.6E1,1E1,2E0,1E0,2.14E2,6.6E1,5E0,3E0,1.6E1,1.9E2,1.2E1,1E1,5.2E1,2E1,4E0,9E0,6E0,1.3E1,1.3E1,3E0,5E0,5E0],"tree_param":{"num_deleted":"0","num_feature":"60","num_nodes":"47","size_leaf_vector":"0"}},{"base_weights":[-6.6707365E-2,-1.4096244E-1,2.1924088E0,-4.681776E0,-1.0492926E-1,3.7216341E0,-7.577868E-1,-8.504134E0,-1.6001531E0,1.7168242E-1,-7.5223064E-1,4.6875305E0,1.3501082E-1,-2.663232E0,1.8134663E0,2.554663E-1,-2.6321716E0,-5.462745E-1,-6.058474E0,2.0363474E0,5.427181E0,4.875192E-1,-1.4499837E-1,-7.501396E-1,-3.6885803E0,5.1474046E-2,1.9297117E0,-3.6942961E0,6.8118215E-1,-1.2854955E0,3.110413E-1,-1.971995E0,-8.630335E0,2.7983665E-2,-2.4548122E-1,-3.1483693E0,1.2732396E-1,6.6169667E0,1.2141583E0,-4.9722314E0,-2.0136337E0,1.6033147E-1,8.0135524E-1,9.3928474E-1,-1.6939597E0,-2.506564E0,7.577109E-1,-4.0082917E-1,-2.3621073E0],"categories":[],"categories_nodes":[],"categories_segments":[],"categories_sizes":[],"default_left":[1,1,1,1,1,1,1,0,0,1,1,1,1,1,0,1,1,1,1,0,0,0,1,0,0,1,1,1,1,1,1,1,0,0,0,0,0,0,0,0,0,0,0,0,0,0,0,0,0],"id":6,"left_children":[1,3,5,7,9,11,13,-1,-1,15,17,19,21,23,-1,25,27,29,31,-1,-1,-1,33,-1,-1,35,37,39,41,43,45,47,-1,-1,-1,-1,-1,-1,-1,-1,-1,-1,-1,-1,-1,-1,-1,-1,-1],"loss_changes":[1.1068909E2,1.03898254E2,9.7562004E1,4.5287415E1,1.1364755E2,4.7867416E1,4.402474E1,0E0,0E0,1.0521084E2,2.0433258E2,1.0518784E1,4.6551186E-1,7.0409813E0,0E0,1.477845E2,4.8266E1,1.17009094E2,5.6549988E1,0E0,0E0,0E0,5.901465E-2,0E0,0E0,9.43288E1,1.4960309E2,1.146553E1,1.2188649E-1,9.155667E1,1.1013357E2,1.5049229E0,0E0,0E0,0E0,0E0,0E0,0E0,0E0,0E0,0E0,0E0,0E0,0E0,0E0,0E0,0E0,0E0,0E0],"parents":[2147483647,0,0,1,1,2,2,3,3,4,4,5,5,6,6,9,9,10,10,11,11,12,12,13,13,15,15,16,16,17,17,18,18,22,22,25,25,26,26,27,27,28,28,29,29,30,30,31,31],"right_children":[2,4,6,8,10,12,14,-1,-1,16,18,20,22,24,-1,26,28,30,32,-1,-1,-1,34,-1,-1,36,38,40,42,44,46,48,-1,-1,-1,-1,-1,-1,-1,-1,-1,-1,-1,-1,-1,-1,-1,-1,-1],"split_conditions":[1.0363089E1,-1.5808245E1,2.3926907E0,-8.86689E-1,2.1177564E0,4.125011E0,1.4246259E0,-2.5512404E0,-4.8004594E-1,9.3828335E0,8.905919E0,-2.0421743E0,-2.2924228E0,3.416871E0,5.440399E-1,6.0282793E0,4.2186255E0,4.1363528E-1,-1.4303803E0,6.109042E-1,1.6281543E0,1.4625576E-1,1.4441086E0,-2.2504188E-1,-1.1065742E0,-9.255912E0,-5.112975E0,6.76167E-1,-1.5858251E0,-3.298814E0,-5.3151083E0,-2.7384632E0,-2.5891006E0,8.3951E-3,-7.364437E-2,-9.445108E-1,3.819719E-2,1.9850901E0,3.642475E-1,-1.4916694E0,-6.0409015E-1,4.8099443E-2,2.4040659E-1,2.8178543E-1,-5.0818795E-1,-7.519692E-1,2.2731327E-1,-1.2024876E-1,-7.0863223E-1],"split_indices":[58,56,12,1,52,22,2,0,0,59,37,29,1,3,0,53,19,49,3,0,0,0,0,0,0,4,49,49,0,15,47,2,0,0,0,0,0,0,0,0,0,0,0,0,0,0,0,0,0],"split_type":[0,0,0,0,0,0,0,0,0,0,0,0,0,0,0,0,0,0,0,0,0,0,0,0,0,0,0,0,0,0,0,0,0,0,0,0,0,0,0,0,0,0,0,0,0,0,0,0,0],"sum_hessian":[6.57E2,6.37E2,2E1,4E0,6.33E2,1.3E1,7E0,1E0,3E0,4.44E2,1.89E2,1E1,3E0,4E0,3E0,4.32E2,1.2E1,1.83E2,6E0,3E0,7E0,1E0,2E0,2E0,2E0,3.86E2,4.6E1,9E0,3E0,9.8E1,8.5E1,3E0,3E0,1E0,1E0,8E0,3.78E2,5E0,4.1E1,4E0,5E0,1E0,2E0,1.5E1,8.3E1,1.1E1,7.4E1,1E0,2E0],"tree_param":{"num_deleted":"0","num_feature":"60","num_nodes":"49","size_leaf_vector":"0"}},{"base_weights":[-5.5862427E-2,-9.386229E-2,3.4915335E0,-6.242302E-2,-5.171418E0,4.89283E0,-7.8048506E-3,-1.1856849E0,6.677247E-2,-7.809955E0,-1.6885872E0,5.3743844E0,1.4833056E0,4.5135126E-1,-4.6305853E-1,-6.636871E-1,-3.5228674E0,1.4324416E-2,3.0706134E0,2.673446E-1,-2.4908197E0,-2.996452E-1,-5.097023E0,-1.0109191E-1,1.4786714E0,2.921183E-1,3.7287223E0,1.9682643E0,-6.9586426E-1,-5.642233E-1,-3.3366163E0,7.020337E-1,-2.1531804E0,-5.8725924E0,-1.846876E0,4.0694237E-2,-1.5680869E0,5.9997106E0,7.055659E-1,2.3786128E-2,4.1439134E-1],"categories":[],"categories_nodes":[],"categories_segments":[],"categories_sizes":[],"default_left":[1,1,1,1,1,1,1,1,1,0,0,0,0,0,0,1,1,1,1,1,1,1,1,1,1,1,0,0,0,0,0,0,0,0,0,0,0,0,0,0,0],"id":7,"left_children":[1,3,5,7,9,11,13,15,17,-1,-1,-1,-1,-1,-1,19,21,23,25,27,29,31,33,35,37,39,-1,-1,-1,-1,-1,-1,-1,-1,-1,-1,-1,-1,-1,-1,-1],"loss_changes":[8.902649E1,1.03758965E2,3.4363457E1,9.426229E1,2.3570534E1,2.3750305E-1,8.360996E-1,7.940219E1,9.18051E1,0E0,0E0,0E0,0E0,0E0,0E0,9.5928535E1,5.9358932E1,9.716097E1,1.7196297E1,6.3626602E1,2.9078064E1,1.079484E1,9.319763E0,1.1092757E2,1.425669E2,8.857259E-2,0E0,0E0,0E0,0E0,0E0,0E0,0E0,0E0,0E0,0E0,0E0,0E0,0E0,0E0,0E0],"parents":[2147483647,0,0,1,1,2,2,3,3,4,4,5,5,6,6,7,7,8,8,15,15,16,16,17,17,18,18,19,19,20,20,21,21,22,22,23,23,24,24,25,25],"right_children":[2,4,6,8,10,12,14,16,18,-1,-1,-1,-1,-1,-1,20,22,24,26,28,30,32,34,36,38,40,-1,-1,-1,-1,-1,-1,-1,-1,-1,-1,-1,-1,-1,-1,-1],"split_conditions":[1.3468542E1,1.2326204E1,2.5465584E0,-5.2086678E0,-7.842249E-2,4.425504E0,1.6555398E0,5.2237024E0,1.1675824E1,-2.3429866E0,-5.065762E-1,1.6123154E0,4.4499168E-1,1.3540538E-1,-1.3891757E-1,3.525427E0,-4.8801032E-1,7.0995855E0,-8.661386E-1,-4.5307267E-1,-1.8660249E0,5.517095E0,3.5024446E-1,4.6923614E0,-5.6616507E0,1.0833951E0,1.1186167E0,5.904793E-1,-2.087593E-1,-1.69267E-1,-1.0009849E0,2.1061012E-1,-6.4595413E-1,-1.7617778E0,-5.5406284E-1,1.2208272E-2,-4.7042608E-1,1.7999133E0,2.1166979E-1,7.1358387E-3,1.2431741E-1],"split_indices":[49,49,4,50,1,0,0,53,58,0,0,0,0,0,0,28,48,19,10,37,0,1,15,19,21,0,0,0,0,0,0,0,0,0,0,0,0,0,0,0,0],"split_type":[0,0,0,0,0,0,0,0,0,0,0,0,0,0,0,0,0,0,0,0,0,0,0,0,0,0,0,0,0,0,0,0,0,0,0,0,0,0,0,0,0],"sum_hessian":[6.57E2,6.51E2,6E0,6.48E2,3E0,4E0,2E0,6.6E1,5.82E2,1E0,2E0,3E0,1E0,1E0,1E0,5.5E1,1.1E1,5.73E2,9E0,3.7E1,1.8E1,4E0,7E0,5.32E2,4.1E1,2E0,7E0,1.3E1,2.4E1,6E0,1.2E1,3E0,1E0,5E0,2E0,4.86E2,4.6E1,5E0,3.6E1,1E0,1E0],"tree_param":{"num_deleted":"0","num_feature":"60","num_nodes":"41","size_leaf_vector":"0"}},{"base_weights":[-4.1432034E-2,-2.5185368E0,4.5752125E-3,-3.7789595E0,9.4704866E-1,-5.4018146E-1,2.2887681E-1,3.4004426E-1,-4.3363404E0,1.1608727E0,1.527884E-1,1.05311856E-1,-1.3837558E0,3.4768027E-1,-1.9389226E0,-6.147529E-1,1.5625179E0,-3.513783E0,-8.1414646E-1,4.1134077E-1,-3.109573E0,-2.739686E0,9.199813E-1,-2.2929886E-1,-3.7179046E0,5.2345257E0,8.0140287E-1,-6.08828E0,-5.488655E-1,-1.1200349E0,1.2475957E0,-1.5954304E-1,8.1295174E-1,-6.0975814E0,-1.0973065E0,1.560051E-1,-3.0895321E0,2.2091524E-1,1.0156115E0,3.0459597E0,-5.476965E-1,-1.4705515E0,-5.59762E0,1.8561376E0,6.4596853E0,-1.3065243E0,1.5914003E0,-7.280669E0,-2.7776265E0,-1.4169593E0,8.9049155E-1,-8.2400215E-1,-4.0931826E0,2.1102536E0,-1.181138E0,8.1687814E-1,-7.422277E-1,-3.18929E-1,1.2853007E0,1.9745894E-1,-1.794054E0,6.276074E-1,-3.9359975E-1,-4.301215E0,-2.0375948E0],"categories":[],"categories_nodes":[],"categories_segments":[],"categories_sizes":[],"default_left":[1,1,1,1,1,1,1,0,0,0,0,1,1,1,1,1,1,1,1,1,1,1,1,1,1,1,1,1,1,1,1,1,1,0,1,1,1,0,0,0,0,0,0,0,0,0,0,0,0,0,0,0,0,0,0,0,0,0,0,0,0,0,0,0,0],"id":8,"left_children":[1,3,5,7,9,11,13,-1,-1,-1,-1,15,17,19,21,23,25,27,29,31,33,35,37,39,41,43,45,47,49,51,53,55,57,-1,59,61,63,-1,-1,-1,-1,-1,-1,-1,-1,-1,-1,-1,-1,-1,-1,-1,-1,-1,-1,-1,-1,-1,-1,-1,-1,-1,-1,-1,-1],"loss_changes":[7.5000336E1,5.5996086E1,7.918043E1,2.2137238E1,5.019593E-1,1.0306032E2,1.18885956E2,0E0,0E0,0E0,0E0,1.1428309E2,9.6628494E1,9.72385E1,5.7463768E1,8.6464424E1,9.641856E1,1.2642224E2,4.3021122E1,9.8487915E1,4.141044E1,1.9729874E1,1.7674685E-1,7.049534E1,2.5563492E1,1.284433E1,5.3702175E1,1.5305328E1,1.2507263E1,4.7675865E1,2.1348999E1,1.0187863E2,1.3513983E2,0E0,5.7669992E0,1.0246108E0,1.2904327E1,0E0,0E0,0E0,0E0,0E0,0E0,0E0,0E0,0E0,0E0,0E0,0E0,0E0,0E0,0E0,0E0,0E0,0E0,0E0,0E0,0E0,0E0,0E0,0E0,0E0,0E0,0E0,0E0],"parents":[2147483647,0,0,1,1,2,2,3,3,4,4,5,5,6,6,11,11,12,12,13,13,14,14,15,15,16,16,17,17,18,18,19,19,20,20,21,21,22,22,23,23,24,24,25,25,26,26,27,27,28,28,29,29,30,30,31,31,32,32,34,34,35,35,36,36],"right_children":[2,4,6,8,10,12,14,-1,-1,-1,-1,16,18,20,22,24,26,28,30,32,34,36,38,40,42,44,46,48,50,52,54,56,58,-1,60,62,64,-1,-1,-1,-1,-1,-1,-1,-1,-1,-1,-1,-1,-1,-1,-1,-1,-1,-1,-1,-1,-1,-1,-1,-1,-1,-1,-1,-1],"split_conditions":[-1.0621939E1,1.3025656E0,-1.632679E0,-4.7974925E0,4.2062483E0,5.901027E-1,8.628765E0,1.0201328E-1,-1.3009021E0,3.4826183E-1,4.5836523E-2,2.0348282E0,-3.138346E0,1.2061053E1,2.2018967E0,6.358535E0,2.654524E0,1.0028062E0,5.666494E0,-4.148543E-1,-1.701231E0,-4.006148E0,-1.9766171E0,-6.6909814E0,2.7005749E0,-8.6471933E-1,-3.1701655E0,2.3961134E0,1.581469E0,3.882494E0,1.0702386E0,-9.6278036E-1,-1.9175123E0,-1.8292745E0,-9.336071E0,1.8341628E0,-1.0769566E0,6.6274576E-2,3.0468348E-1,9.1378796E-1,-1.6430895E-1,-4.4116548E-1,-1.6792861E0,5.568413E-1,1.9379057E0,-3.919573E-1,4.774201E-1,-2.1842008E0,-8.33288E-1,-4.250878E-1,2.6714748E-1,-2.4720065E-1,-1.2279549E0,6.330761E-1,-3.5434142E-1,2.4506345E-1,-2.226683E-1,-9.56787E-2,3.8559023E-1,5.9237685E-2,-5.3821623E-1,1.8828224E-1,-1.1807993E-1,-1.2903646E0,-6.112785E-1],"split_indices":[27,47,4,0,0,14,59,0,0,0,0,41,36,6,55,49,41,20,40,50,11,28,0,3,6,2,59,22,30,52,2,41,42,0,3,0,2,0,0,0,0,0,0,0,0,0,0,0,0,0,0,0,0,0,0,0,0,0,0,0,0,0,0,0,0],"split_type":[0,0,0,0,0,0,0,0,0,0,0,0,0,0,0,0,0,0,0,0,0,0,0,0,0,0,0,0,0,0,0,0,0,0,0,0,0,0,0,0,0,0,0,0,0,0,0,0,0,0,0,0,0,0,0,0,0,0,0,0,0,0,0,0,0],"sum_hessian":[6.57E2,1.1E1,6.46E2,8E0,3E0,1.88E2,4.58E2,1E0,7E0,2E0,1E0,1.07E2,8.1E1,4.35E2,2.3E1,7.2E1,3.5E1,1.6E1,6.5E1,4.28E2,7E0,1.8E1,5E0,6.5E1,7E0,5E0,3E1,8E0,8E0,5.7E1,8E0,1.77E2,2.51E2,2E0,5E0,2E0,1.6E1,1E0,4E0,5E0,6E1,4E0,3E0,2E0,3E0,8E0,2.2E1,5E0,3E0,5E0,3E0,5.3E1,4E0,6E0,2E0,6.6E1,1.11E2,7.4E1,1.77E2,2E0,3E0,1E0,1E0,6E0,1E1],"tree_param":{"num_deleted":"0","num_feature":"60","num_nodes":"65","size_leaf_vector":"0"}},{"base_weights":[-4.0284835E-2,-4.0519824E0,-9.552768E-3,-7.427413E0,-1.3512714E0,-1.6672875E0,4.8077114E-2,7.753735E-1,-1.9503223E0,1.0257101E-1,-1.4700292E0,-2.2923036E0,-4.6591774E-1,-1.0521838E-1,6.138343E-1,-4.300721E0,-6.0205764E-1,-4.5100504E-1,-2.5231314E0,-8.5685045E-2,-6.908445E-1,-1.1919696E0,4.183691E-2,1.6436719E0,-1.9557732E-1,-1.0289739E0,1.8755155E0,-7.008116E-1,-2.6094012E0,-1.761119E-2,-1.10916376E-1,-2.6441882E0,1.472244E-1,-1.9519141E-1,1.0241566E0,1.2926583E0,5.6403904E0,2.9582126E0,-6.186099E-1,-4.9346748E-1,-2.1083949E0,2.372197E0,4.4107622E-1],"categories":[],"categories_nodes":[],"categories_segments":[],"categories_sizes":[],"default_left":[1,1,1,0,0,1,1,0,1,1,1,1,1,1,1,0,1,0,1,1,0,1,1,1,1,1,1,0,0,0,0,0,0,0,0,0,0,0,0,0,0,0,0],"id":9,"left_children":[1,3,5,-1,-1,7,9,-1,11,13,15,17,19,21,23,-1,25,-1,27,29,-1,31,33,35,37,39,41,-1,-1,-1,-1,-1,-1,-1,-1,-1,-1,-1,-1,-1,-1,-1,-1],"loss_changes":[8.108464E1,3.5543854E1,6.2560085E1,0E0,0E0,1.6722103E1,5.2517307E1,0E0,9.084747E0,6.508045E1,5.1463844E1,5.662422E0,3.6842752E-1,6.972813E1,1.4786201E2,0E0,2.0968754E1,0E0,3.7226105E-1,3.1994116E-3,0E0,1.0151903E2,8.984238E1,1.02135254E2,1.3524557E2,8.208164E0,1.0910587E0,0E0,0E0,0E0,0E0,0E0,0E0,0E0,0E0,0E0,0E0,0E0,0E0,0E0,0E0,0E0,0E0],"parents":[2147483647,0,0,1,1,2,2,5,5,6,6,8,8,9,9,10,10,11,11,12,12,13,13,14,14,16,16,18,18,19,19,21,21,22,22,23,23,24,24,25,25,26,26],"right_children":[2,4,6,-1,-1,8,10,-1,12,14,16,18,20,22,24,-1,26,-1,28,30,-1,32,34,36,38,40,42,-1,-1,-1,-1,-1,-1,-1,-1,-1,-1,-1,-1,-1,-1,-1,-1],"split_conditions":[-1.5808245E1,-8.86689E-1,-8.571026E0,-2.228224E0,-4.0538144E-1,-7.2400646E0,9.352903E0,2.3261206E-1,2.8687494E0,2.4930735E0,-7.401992E-1,-6.344701E0,-2.7472222E0,-4.261204E0,-6.2315834E-1,-1.2902164E0,5.495365E0,-1.3530152E-1,-6.349373E0,1.8782396E0,-2.0725335E-1,-1.4987054E0,4.0060453E0,6.7951274E0,-6.038499E0,1.916686E0,1.02232E0,-2.102435E-1,-7.828204E-1,-5.2833576E-3,-3.3274915E-2,-7.9325646E-1,4.416732E-2,-5.8557425E-2,3.0724698E-1,3.877975E-1,1.6921172E0,8.874638E-1,-1.8558298E-1,-1.4804025E-1,-6.325185E-1,7.116591E-1,1.3232288E-1],"split_indices":[56,1,7,0,0,50,25,0,59,56,0,24,3,18,49,0,54,0,8,0,0,56,49,19,31,40,0,0,0,0,0,0,0,0,0,0,0,0,0,0,0,0,0],"split_type":[0,0,0,0,0,0,0,0,0,0,0,0,0,0,0,0,0,0,0,0,0,0,0,0,0,0,0,0,0,0,0,0,0,0,0,0,0,0,0,0,0,0,0],"sum_hessian":[6.57E2,4E0,6.53E2,1E0,3E0,2.1E1,6.32E2,2E0,1.9E1,6.11E2,2.1E1,1.5E1,4E0,4.35E2,1.76E2,4E0,1.7E1,2E0,1.3E1,2E0,2E0,5.1E1,3.84E2,7.7E1,9.9E1,1.5E1,2E0,1E0,1.2E1,1E0,1E0,2.4E1,2.7E1,3.1E2,7.4E1,7.2E1,5E0,1.1E1,8.8E1,1.1E1,4E0,1E0,1E0],"tree_param":{"num_deleted":"0","num_feature":"60","num_nodes":"43","size_leaf_vector":"0"}},{"base_weights":[-3.233399E-2,-3.3631089E0,-6.819908E-3,-6.313301E0,-1.0472355E0,-2.3768583E-1,3.0047786E-1,8.680077E-2,-1.1915654E0,-1.3584818E0,4.5363504E-1,5.048995E-1,-6.82702E-1,-1.2452614E-3,-2.5141158E0,-4.0176168E-1,-3.62455E0,2.1899751E-1,1.6217297E0,2.6497667E0,3.1038815E-1,-1.5605968E0,7.0792073E-1,2.6883955E0,-4.1960615E-1,7.27124E-2,-3.255287E0,5.4712456E-1,-1.4114395E0,-4.5195727E0,-9.246626E-1,-1.3234946E-1,1.2013925E0,3.7736423E0,9.411164E-1,7.193142E0,9.1449445E-1,1.0100109E-1,2.0496693E0,-1.1749777E0,-4.8996096E0,1.8908471E0,-6.367832E-1,3.630274E-1,3.0154524E0,-1.1965344E0,9.304248E-1,-7.3578596E-1,2.47397E0,-4.8498607E0,-2.0925906E0,8.5453284E-1,-4.5500562E-1,-2.1507335E0,-3.8985777E-1,-6.72717E-1,6.4745754E-1,1.6530944E0,-2.9135888E0,5.020331E0,6.485268E-1,2.1726508E0,-1.4549765E-1],"categories":[],"categories_nodes":[],"categories_segments":[],"categories_sizes":[],"default_left":[1,1,1,0,0,1,1,1,1,1,1,1,1,1,1,1,1,1,1,1,1,1,1,1,1,1,1,1,1,0,0,1,1,1,1,0,0,0,0,0,0,0,0,0,0,0,0,0,0,0,0,0,0,0,0,0,0,0,0,0,0,0,0],"id":10,"left_children":[1,3,5,-1,-1,7,9,11,13,15,17,19,21,23,25,27,29,31,33,35,37,39,41,43,45,47,49,51,53,-1,-1,55,57,59,61,-1,-1,-1,-1,-1,-1,-1,-1,-1,-1,-1,-1,-1,-1,-1,-1,-1,-1,-1,-1,-1,-1,-1,-1,-1,-1,-1,-1],"loss_changes":[5.5894993E1,2.7549843E1,4.6469177E1,0E0,0E0,1.15864334E2,7.201318E1,9.0428566E1,1.495514E2,5.057563E1,7.035719E1,7.510813E1,1.21966E2,5.851533E1,8.6514435E1,1.8017483E1,1.2736137E1,7.47139E1,5.9427246E1,1.1168181E2,6.0975716E1,7.2785904E1,6.32408E1,4.229E0,4.831276E1,2.3175854E1,5.4741425E1,3.4694483E0,5.958761E0,0E0,0E0,6.7856735E1,1.1076488E2,3.570462E1,4.5815002E1,0E0,0E0,0E0,0E0,0E0,0E0,0E0,0E0,0E0,0E0,0E0,0E0,0E0,0E0,0E0,0E0,0E0,0E0,0E0,0E0,0E0,0E0,0E0,0E0,0E0,0E0,0E0,0E0],"parents":[2147483647,0,0,1,1,2,2,5,5,6,6,7,7,8,8,9,9,10,10,11,11,12,12,13,13,14,14,15,15,16,16,17,17,18,18,19,19,20,20,21,21,22,22,23,23,24,24,25,25,26,26,27,27,28,28,31,31,32,32,33,33,34,34],"right_children":[2,4,6,-1,-1,8,10,12,14,16,18,20,22,24,26,28,30,32,34,36,38,40,42,44,46,48,50,52,54,-1,-1,56,58,60,62,-1,-1,-1,-1,-1,-1,-1,-1,-1,-1,-1,-1,-1,-1,-1,-1,-1,-1,-1,-1,-1,-1,-1,-1,-1,-1,-1,-1],"split_conditions":[-1.5808245E1,-8.86689E-1,1.1269778E0,-1.8939904E0,-3.1417066E-1,-2.4386519E-1,-6.0199194E0,1.5379645E0,6.708735E-1,4.6118655E0,3.7939425E0,-5.4699554E0,1.8590271E0,-4.023689E0,-3.559341E0,-1.7952902E0,2.0866394E0,2.4594016E0,-2.379106E0,-2.0738473E0,6.6325245E0,5.718867E0,-3.478915E-1,-4.1840053E0,1.6667621E0,8.3788025E-1,-1.2855953E0,7.2303033E0,-2.5441557E-2,-1.3558719E0,-2.773988E-1,6.836002E-1,9.479126E0,1.314011E0,-1.2467499E0,2.1579428E0,2.7434835E-1,3.0300329E-2,6.149008E-1,-3.5249332E-1,-1.469883E0,5.672541E-1,-1.9103496E-1,1.0890822E-1,9.046357E-1,-3.5896033E-1,2.7912745E-1,-2.207358E-1,7.42191E-1,-1.4549582E0,-6.277772E-1,2.5635988E-1,-1.3650168E-1,-6.4522004E-1,-1.1695734E-1,-2.018151E-1,1.9423728E-1,4.9592835E-1,-8.7407666E-1,1.5060993E0,1.9455804E-1,6.5179527E-1,-4.3649297E-2],"split_indices":[56,1,53,0,0,53,36,21,32,3,37,6,34,11,47,57,0,50,44,29,32,9,55,0,37,5,45,7,24,0,0,19,53,31,36,0,0,0,0,0,0,0,0,0,0,0,0,0,0,0,0,0,0,0,0,0,0,0,0,0,0,0,0],"split_type":[0,0,0,0,0,0,0,0,0,0,0,0,0,0,0,0,0,0,0,0,0,0,0,0,0,0,0,0,0,0,0,0,0,0,0,0,0,0,0,0,0,0,0,0,0,0,0,0,0,0,0,0,0,0,0,0,0,0,0,0,0,0,0],"sum_hessian":[6.57E2,4E0,6.53E2,1E0,3E0,3.73E2,2.8E2,2.79E2,9.4E1,2.3E1,2.57E2,1.81E2,9.8E1,5E1,4.4E1,1.7E1,6E0,2.15E2,4.2E1,1.4E1,1.67E2,6E1,3.8E1,6E0,4.4E1,1E1,3.4E1,9E0,8E0,4E0,2E0,1.59E2,5.6E1,9E0,3.3E1,3E0,1.1E1,1.5E2,1.7E1,5.5E1,5E0,2E1,1.8E1,1E0,5E0,2.8E1,1.6E1,8E0,2E0,1.3E1,2.1E1,7E0,2E0,4E0,4E0,9.4E1,6.5E1,5.1E1,5E0,6E0,3E0,1.5E1,1.8E1],"tree_param":{"num_deleted":"0","num_feature":"60","num_nodes":"63","size_leaf_vector":"0"}},{"base_weights":[-2.499992E-2,-1.6451253E-1,4.7412506E-1,-7.699369E-2,-1.6285527E0,-1.894747E-1,1.1403564E0,-4.3643177E-2,-4.0931573E0,-4.818171E0,-7.632917E-1,-1.6041527E0,5.361666E-1,1.5435894E0,-1.2360799E0,1.9453043E0,-1.0702737E-1,-5.6859746E0,3.426473E-1,5.076599E-1,-5.9848695E0,-2.5378318E0,-1.6273737E-1,6.798141E-1,-2.5301294E0,2.4656765E0,4.038496E-2,2.2711952E0,4.487813E-1,-3.2208666E-1,-3.5660331E0,2.9707637E0,6.76682E-1,-1.3995838E-1,2.9835484E0,-2.939017E0,-2.6595306E-1,1.002943E0,-1.1016816E0,1.5518794E0,-1.2909212E0,-3.247763E0,-1.4730084E-2,-2.6974574E-1,3.1832504E0,2.013401E0,-2.9900023E-1,1.8327507E0,5.430176E0,1.7565783E0,-3.4690994E-1,-6.046605E-1,9.6925205E-1,1.0262375E0,3.4478993E0,1.3246865E0,2.2941982E-2,6.7642465E-2,-6.046467E-1,3.2856677E0,8.875358E-1,1.3416015E0,-1.2157407E-1,5.6173407E-2,-1.5428989E0,6.8520737E-1,1.8139136E0,-4.3687396E0,-2.1395824E0,-4.4054323E-1,8.442613E-1,-3.7990284E-1,-2.4715751E-2,2.551174E0,6.2523705E-1,1.7872667E0,-5.5043983E-1,3.0584676E0,7.041073E-1,2.8039281E0,1.4844292E-1,-1.725873E0,3.714807E-1,-9.89543E-1,-1.758224E-1],"categories":[],"categories_nodes":[],"categories_segments":[],"categories_sizes":[],"default_left":[1,1,1,1,1,1,1,1,1,1,1,1,1,1,1,1,1,0,0,0,0,1,1,1,1,1,1,1,1,1,0,1,1,1,1,0,0,1,1,1,0,1,1,1,0,1,1,1,0,1,1,1,0,0,0,0,0,0,0,0,0,0,0,0,0,0,0,0,0,0,0,0,0,0,0,0,0,0,0,0,0,0,0,0,0],"id":11,"left_children":[1,3,5,7,9,11,13,15,17,19,21,23,25,27,29,31,33,-1,-1,-1,-1,35,37,39,41,43,45,47,49,51,-1,53,55,57,59,-1,-1,61,63,65,-1,67,69,71,-1,73,75,77,-1,79,81,83,-1,-1,-1,-1,-1,-1,-1,-1,-1,-1,-1,-1,-1,-1,-1,-1,-1,-1,-1,-1,-1,-1,-1,-1,-1,-1,-1,-1,-1,-1,-1,-1,-1],"loss_changes":[4.5897324E1,6.586212E1,6.3880047E1,6.505069E1,7.635805E1,7.579816E1,7.090254E1,6.122503E1,3.021E1,4.0320114E1,2.5163986E1,5.4592514E1,4.6774593E1,4.8369247E1,2.2276608E1,1.7503544E1,4.8252197E1,0E0,0E0,0E0,0E0,4.687023E0,2.1900597E1,1.5752232E1,3.2444588E1,2.0487339E1,2.7386507E1,4.129425E1,2.7665045E1,3.8701556E0,0E0,3.8840637E0,3.3586206E0,4.499577E1,2.500801E-1,0E0,0E0,3.5905485E0,5.706192E0,1.1967945E-1,0E0,8.044144E0,2.2007828E0,7.1585804E-2,0E0,2.8840122E0,1.934374E1,4.488201E1,0E0,1.6426579E1,1.7481909E1,1.1464343E0,0E0,0E0,0E0,0E0,0E0,0E0,0E0,0E0,0E0,0E0,0E0,0E0,0E0,0E0,0E0,0E0,0E0,0E0,0E0,0E0,0E0,0E0,0E0,0E0,0E0,0E0,0E0,0E0,0E0,0E0,0E0,0E0,0E0],"parents":[2147483647,0,0,1,1,2,2,3,3,4,4,5,5,6,6,7,7,8,8,9,9,10,10,11,11,12,12,13,13,14,14,15,15,16,16,21,21,22,22,23,23,24,24,25,25,26,26,27,27,28,28,29,29,31,31,32,32,33,33,34,34,37,37,38,38,39,39,41,41,42,42,43,43,45,45,46,46,47,47,49,49,50,50,51,51],"right_children":[2,4,6,8,10,12,14,16,18,20,22,24,26,28,30,32,34,-1,-1,-1,-1,36,38,40,42,44,46,48,50,52,-1,54,56,58,60,-1,-1,62,64,66,-1,68,70,72,-1,74,76,78,-1,80,82,84,-1,-1,-1,-1,-1,-1,-1,-1,-1,-1,-1,-1,-1,-1,-1,-1,-1,-1,-1,-1,-1,-1,-1,-1,-1,-1,-1,-1,-1,-1,-1,-1,-1],"split_conditions":[3.5205379E0,2.8667808E0,1.4419848E-1,1.4441267E1,-2.812366E0,-9.380441E-1,4.8486238E0,-8.646336E0,3.5550966E0,-3.9677112E0,-1.8429968E0,-8.127618E-1,-4.099705E0,8.782442E-1,6.795533E0,4.230654E0,1.3468542E1,-1.7057924E0,1.027942E-1,1.5229797E-1,-1.7954609E0,2.8153615E0,-9.9066186E-1,3.540217E0,4.5640707E0,-2.2861207E0,-6.5286446E0,6.8870754E0,-2.351224E0,4.319237E0,-1.06981E0,2.3731456E0,-2.3914158E0,2.159267E0,4.425504E0,-8.8170516E-1,-7.978592E-2,3.7966208E0,-1.7850616E0,-5.796151E0,-3.8727638E-1,2.9012609E0,7.3191595E0,-5.3052545E0,9.549752E-1,7.4052687E0,-4.5284218E-1,1.0410402E0,1.6290528E0,7.985883E-1,-1.2286499E0,-1.362172E0,2.9077563E-1,3.0787125E-1,1.0343698E0,3.9740598E-1,6.882595E-3,2.029274E-2,-1.8139401E-1,9.857003E-1,2.6626074E-1,4.0248045E-1,-3.647222E-2,1.6852023E-2,-4.6286967E-1,2.0556222E-1,5.441741E-1,-1.310622E0,-6.4187473E-1,-1.3216297E-1,2.532784E-1,-1.1397085E-1,-7.4147256E-3,7.653522E-1,1.8757112E-1,5.3618E-1,-1.6513196E-1,9.175403E-1,2.112322E-1,8.411785E-1,4.453288E-2,-5.1776195E-1,1.1144421E-1,-2.9686293E-1,-5.2746724E-2],"split_indices":[4,4,1,2,59,33,13,23,0,3,13,9,51,22,10,1,49,0,0,0,0,0,36,14,9,24,52,53,11,6,0,3,4,42,0,0,0,21,23,3,0,19,3,0,0,0,33,9,0,41,44,9,0,0,0,0,0,0,0,0,0,0,0,0,0,0,0,0,0,0,0,0,0,0,0,0,0,0,0,0,0,0,0,0,0],"split_type":[0,0,0,0,0,0,0,0,0,0,0,0,0,0,0,0,0,0,0,0,0,0,0,0,0,0,0,0,0,0,0,0,0,0,0,0,0,0,0,0,0,0,0,0,0,0,0,0,0,0,0,0,0,0,0,0,0,0,0,0,0,0,0,0,0,0,0,0,0,0,0,0,0,0,0,0,0,0,0,0,0,0,0,0,0],"sum_hessian":[6.57E2,5.14E2,1.43E2,4.86E2,2.8E1,7.2E1,7.1E1,4.83E2,3E0,5E0,2.3E1,2.4E1,4.8E1,6.1E1,1E1,1.4E1,4.69E2,2E0,1E0,1E0,4E0,5E0,1.8E1,7E0,1.7E1,9E0,3.9E1,3.6E1,2.5E1,8E0,2E0,7E0,7E0,4.65E2,4E0,4E0,1E0,8E0,1E1,5E0,2E0,1.3E1,4E0,2E0,7E0,5E0,3.4E1,3.3E1,3E0,9E0,1.6E1,7E0,1E0,2E0,5E0,3E0,4E0,3.22E2,1.43E2,3E0,1E0,6E0,2E0,3E0,7E0,2E0,3E0,5E0,8E0,3E0,1E0,1E0,1E0,3E0,2E0,3E0,3.1E1,1.5E1,1.8E1,5E0,4E0,5E0,1.1E1,3E0,4E0],"tree_param":{"num_deleted":"0","num_feature":"60","num_nodes":"85","size_leaf_vector":"0"}},{"base_weights":[-1.5452915E-2,2.304316E0,-4.033471E-2,3.450222E0,5.8233124E-1,-1.0755445E0,1.8358942E-2,-1.8160628E0,1.6495164E-1,2.0784405E-1,-3.75786E-1,-7.5597894E-1,-3.0125654E0,1.1038773E0,-9.3167084E-1,-1.1821678E-1,7.6185834E-1,2.1227112E0,-5.039588E-1,-1.4258573E0,-2.9982665E-1,-3.8871164E0,-1.360591E0,-5.6641996E-3,1.7707351E0,-1.1383612E0,1.5423578E-1,1.6671434E-1,-1.1795094E0,1.2743387E-1,1.7642398E0,4.402295E-1,3.1709938E0,-9.866954E-1,1.6975048E-1,-3.5811424E-1,-1.6032645E0,5.656898E-2,-4.0973523E-1,-2.3334578E-1,-1.5840659E0,-4.328909E-1,2.8104165E-1,-1.4588286E0,-6.1342037E-1,1.3815461E0,-1.201091E-1,-2.503502E0,-2.4917592E-1,2.1999693E0,-2.8352913E-1,3.3717802E0,9.370436E-1,-2.010779E-1,9.347938E-1,3.4538398E0,8.783821E-1,-1.9701545E0,-4.1296592E-1,-1.9157941E0,5.96631E-1],"categories":[],"categories_nodes":[],"categories_segments":[],"categories_sizes":[],"default_left":[1,1,1,0,0,1,1,1,1,1,1,1,1,1,1,1,1,1,1,1,1,0,1,1,0,1,0,1,1,1,1,1,1,1,1,0,0,0,0,0,0,0,0,0,0,0,0,0,0,0,0,0,0,0,0,0,0,0,0,0,0],"id":12,"left_children":[1,3,5,-1,-1,7,9,11,13,15,17,19,21,23,25,27,29,31,33,35,37,-1,39,41,-1,43,-1,45,47,49,51,53,55,57,59,-1,-1,-1,-1,-1,-1,-1,-1,-1,-1,-1,-1,-1,-1,-1,-1,-1,-1,-1,-1,-1,-1,-1,-1,-1,-1],"loss_changes":[3.8072712E1,1.1803455E1,3.9635426E1,0E0,0E0,3.2450916E1,4.6233185E1,2.5627213E1,1.5443508E1,7.5598564E1,6.543789E1,3.5448542E0,9.158585E0,5.929281E0,1.7467012E0,8.0029E1,9.834515E1,1.62412E1,6.2610523E1,3.7297535E-1,3.757168E-1,0E0,8.899193E-1,6.11614E-1,0E0,1.1448336E-1,0E0,7.2990364E1,6.835445E1,8.239035E1,7.662558E1,1.7738049E0,8.5694504E-1,6.2381226E1,7.325557E1,0E0,0E0,0E0,0E0,0E0,0E0,0E0,0E0,0E0,0E0,0E0,0E0,0E0,0E0,0E0,0E0,0E0,0E0,0E0,0E0,0E0,0E0,0E0,0E0,0E0,0E0],"parents":[2147483647,0,0,1,1,2,2,5,5,6,6,7,7,8,8,9,9,10,10,11,11,12,12,13,13,14,14,15,15,16,16,17,17,18,18,19,19,20,20,22,22,23,23,25,25,27,27,28,28,29,29,30,30,31,31,32,32,33,33,34,34],"right_children":[2,4,6,-1,-1,8,10,12,14,16,18,20,22,24,26,28,30,32,34,36,38,-1,40,42,-1,44,-1,46,48,50,52,54,56,58,60,-1,-1,-1,-1,-1,-1,-1,-1,-1,-1,-1,-1,-1,-1,-1,-1,-1,-1,-1,-1,-1,-1,-1,-1,-1,-1],"split_conditions":[-1.3276716E1,1.0654724E0,-7.4522243E0,1.0350666E0,1.7469938E-1,2.5504065E0,2.0369682E0,-8.521656E0,3.2409396E0,1.1406522E0,-7.9188576E0,-1.8609174E0,-1.8405766E0,-5.2191526E-1,4.9819007E0,3.3628278E0,8.856821E-1,2.2449562E-1,1.2658074E0,-4.122756E0,-5.55161E0,-1.166135E0,-6.4209783E-1,-7.9148173E0,5.3122056E-1,7.647103E0,4.6270736E-2,-3.0412362E0,-2.4059772E-1,-5.0891304E0,-1.425694E0,2.0928419E-1,3.8144243E-1,-9.1363287E-1,-2.5869362E0,-1.0743428E-1,-4.8097935E-1,1.6970694E-2,-1.2292057E-1,-7.000373E-2,-4.752198E-1,-1.2986727E-1,8.43125E-2,-4.376486E-1,-1.8402612E-1,4.1446385E-1,-3.6032733E-2,-7.510506E-1,-7.475278E-2,6.599908E-1,-8.505874E-2,1.0115341E0,2.811131E-1,-6.032337E-2,2.8043815E-1,1.036152E0,2.6351464E-1,-5.910464E-1,-1.2388978E-1,-5.7473826E-1,1.789893E-1],"split_indices":[35,7,31,0,0,40,40,31,0,50,48,46,18,1,4,38,34,15,33,1,12,0,0,0,0,0,0,31,3,27,25,0,0,17,55,0,0,0,0,0,0,0,0,0,0,0,0,0,0,0,0,0,0,0,0,0,0,0,0,0,0],"split_type":[0,0,0,0,0,0,0,0,0,0,0,0,0,0,0,0,0,0,0,0,0,0,0,0,0,0,0,0,0,0,0,0,0,0,0,0,0,0,0,0,0,0,0,0,0,0,0,0,0,0,0,0,0,0,0,0,0,0,0,0,0],"sum_hessian":[6.57E2,6E0,6.51E2,3E0,3E0,3.4E1,6.17E2,2.1E1,1.3E1,4.17E2,2E2,1.2E1,9E0,7E0,6E0,2.63E2,1.54E2,9E0,1.91E2,4E0,8E0,5E0,4E0,3E0,4E0,5E0,1E0,2.08E2,5.5E1,9.5E1,5.9E1,4E0,5E0,1.11E2,8E1,1E0,3E0,2E0,6E0,1E0,3E0,1E0,2E0,2E0,3E0,3.9E1,1.69E2,2.2E1,3.3E1,1.5E1,8E1,1.9E1,4E1,2E0,2E0,4E0,1E0,4E1,7.1E1,1.3E1,6.7E1],"tree_param":{"num_deleted":"0","num_feature":"60","num_nodes":"61","size_leaf_vector":"0"}},{"base_weights":[-9.990908E-3,2.9573947E-1,-1.7718618E-1,-1.5798599E0,4.2285475E-1,-9.59579E-1,4.7224976E-2,-2.0786951E-1,-2.7543676E0,5.610793E-1,-1.4944044E0,-2.8427176E0,-5.127062E-1,-5.994966E-2,1.560138E0,-6.194994E-1,6.8468004E-1,-1.628886E0,-4.0872087E0,3.9260873E-1,2.5266E0,2.2132447E0,-2.2350616E0,-4.239627E0,-4.1913457E-2,1.5413386E-1,-1.5847882E0,-1.3308793E0,6.556436E-2,-3.0617794E-1,1.9918847E0,-7.2405887E-1,-4.835096E-2,1.2263415E0,5.2550554E-2,4.2190266E0,7.414873E-1,3.0154967E0,3.0437022E-1,-3.0196114E0,-3.758594E-1,-1.0367149E0,-5.192074E0,1.0955349E0,-7.1599984E-1,-3.861695E-1,2.0557425E0,-4.0366438E-1,-2.4642556E0,1.4415356E0,-1.8530124E0,-1.5385497E-1,9.0494066E-1,-8.6166614E-1,3.513696E-1,8.6354554E-1,2.4840922E0,-2.586842E0,1.4960798E0,5.069579E-1,-6.686337E-1,5.2583213E0,2.5437858E0,-1.2510147E0,1.48949E0,-5.038831E-1,6.811777E-2,1.4766309E-1,-1.4807285E0,2.2227347E-1,1.421029E0,-8.914351E-3,-8.905426E-1,7.0403117E-1,-1.17518E0,3.024633E0,7.4422854E-1,4.093867E-1,-1.9490336E0,-3.38722E0,-1.002518E0,1.717448E0,1.6894299E-1,-6.491793E-1,-2.8217037E0,9.0141326E-1,-3.3895996E-1,1.4403095E0,-9.1876686E-1,4.0670717E-1,1.1044976E0,9.945483E-1,2.6825461E0],"categories":[],"categories_nodes":[],"categories_segments":[],"categories_sizes":[],"default_left":[1,1,1,1,1,1,1,1,1,1,1,1,1,1,1,1,0,0,0,1,1,1,1,1,1,1,1,1,1,1,1,0,0,1,1,1,1,0,0,0,1,1,0,1,1,1,1,1,1,1,1,1,1,0,0,1,1,0,0,0,0,0,0,0,0,0,0,0,0,0,0,0,0,0,0,0,0,0,0,0,0,0,0,0,0,0,0,0,0,0,0,0,0],"id":13,"left_children":[1,3,5,7,9,11,13,15,17,19,21,23,25,27,29,31,-1,-1,-1,33,35,37,39,41,43,45,47,49,51,53,55,-1,-1,57,59,61,63,-1,-1,-1,65,67,-1,69,71,73,75,77,79,81,83,85,87,-1,-1,89,91,-1,-1,-1,-1,-1,-1,-1,-1,-1,-1,-1,-1,-1,-1,-1,-1,-1,-1,-1,-1,-1,-1,-1,-1,-1,-1,-1,-1,-1,-1,-1,-1,-1,-1,-1,-1],"loss_changes":[3.3687172E1,5.621929E1,7.484141E1,2.3598648E1,5.8876167E1,7.8487236E1,5.392597E1,3.3633595E0,5.343109E0,6.6890175E1,4.6138195E1,7.024675E1,5.600704E1,4.969782E1,1.833694E1,3.233049E-1,0E0,0E0,0E0,5.3803913E1,4.5210396E1,3.6763678E0,1.7827324E1,3.1224548E1,6.1515718E0,5.11387E1,3.016806E1,4.3203136E1,5.2445038E1,2.129063E0,7.8516617E0,0E0,0E0,6.0441E1,4.490772E1,5.525055E-1,1.5276947E1,0E0,0E0,0E0,3.185215E-1,2.3221688E0,0E0,5.368674E-1,6.091449E-1,3.4374374E1,1.172683E1,1.8388405E1,1.953949E1,1.4654694E0,2.6155632E1,4.445135E1,5.892832E1,0E0,0E0,3.2132578E-1,8.7934875E-1,0E0,0E0,0E0,0E0,0E0,0E0,0E0,0E0,0E0,0E0,0E0,0E0,0E0,0E0,0E0,0E0,0E0,0E0,0E0,0E0,0E0,0E0,0E0,0E0,0E0,0E0,0E0,0E0,0E0,0E0,0E0,0E0,0E0,0E0,0E0,0E0],"parents":[2147483647,0,0,1,1,2,2,3,3,4,4,5,5,6,6,7,7,8,8,9,9,10,10,11,11,12,12,13,13,14,14,15,15,19,19,20,20,21,21,22,22,23,23,24,24,25,25,26,26,27,27,28,28,29,29,30,30,33,33,34,34,35,35,36,36,40,40,41,41,43,43,44,44,45,45,46,46,47,47,48,48,49,49,50,50,51,51,52,52,55,55,56,56],"right_children":[2,4,6,8,10,12,14,16,18,20,22,24,26,28,30,32,-1,-1,-1,34,36,38,40,42,44,46,48,50,52,54,56,-1,-1,58,60,62,64,-1,-1,-1,66,68,-1,70,72,74,76,78,80,82,84,86,88,-1,-1,90,92,-1,-1,-1,-1,-1,-1,-1,-1,-1,-1,-1,-1,-1,-1,-1,-1,-1,-1,-1,-1,-1,-1,-1,-1,-1,-1,-1,-1,-1,-1,-1,-1,-1,-1,-1,-1],"split_conditions":[-1.2938092E0,-6.933118E0,1.5515514E-1,-6.895545E-2,7.3976827E0,-4.0387983E0,7.1734657E0,7.2705135E0,7.403058E-1,6.0020623E0,-6.858007E-1,4.7904053E0,2.2386882E0,-6.55126E0,-6.974827E0,3.3209865E0,2.0540403E-1,-4.8866582E-1,-1.2261627E0,-1.5941904E0,8.470566E0,2.744642E0,3.9689124E0,-2.728343E0,-7.806446E-2,4.4061893E-1,4.9176365E-1,-1.3276716E1,3.6007524E0,-1.199847E0,3.681961E0,-2.1721767E-1,-1.4505289E-2,-5.4183087E0,8.6112505E-1,3.1867194E0,-3.9920337E0,9.046491E-1,9.131107E-2,-9.0588343E-1,5.2462616E0,1.6172111E0,-1.5576222E0,-1.7562444E0,-3.425895E0,-1.856981E-1,-1.5887022E0,-2.1723396E-1,7.7405274E-1,1.6112384E0,-4.923588E-1,-3.838739E0,2.4463022E0,-2.5849986E-1,1.0541088E-1,3.3979616E0,-3.7339368E0,-7.7605265E-1,4.4882396E-1,1.5208738E-1,-2.0059012E-1,1.5774964E0,7.631358E-1,-3.7530443E-1,4.4684702E-1,-1.5116495E-1,2.0435331E-2,4.429893E-2,-4.4421858E-1,6.668204E-2,4.2630872E-1,-2.6743056E-3,-2.671628E-1,2.1120936E-1,-3.52554E-1,9.0738994E-1,2.2326857E-1,1.2281601E-1,-5.847101E-1,-1.016166E0,-3.0075544E-1,5.152344E-1,5.06829E-2,-1.947538E-1,-8.465111E-1,2.7042398E-1,-1.0168799E-1,4.3209288E-1,-2.7563006E-1,1.2201215E-1,3.3134928E-1,2.9836452E-1,8.0476385E-1],"split_indices":[34,44,34,3,41,56,31,2,2,53,13,11,18,42,12,10,0,0,0,0,53,0,47,51,3,18,27,42,20,1,8,0,0,12,11,49,1,0,0,0,1,0,0,0,0,9,40,34,25,1,4,44,45,0,0,4,52,0,0,0,0,0,0,0,0,0,0,0,0,0,0,0,0,0,0,0,0,0,0,0,0,0,0,0,0,0,0,0,0,0,0,0,0],"split_type":[0,0,0,0,0,0,0,0,0,0,0,0,0,0,0,0,0,0,0,0,0,0,0,0,0,0,0,0,0,0,0,0,0,0,0,0,0,0,0,0,0,0,0,0,0,0,0,0,0,0,0,0,0,0,0,0,0,0,0,0,0,0,0,0,0,0,0,0,0,0,0,0,0,0,0,0,0,0,0,0,0,0,0,0,0,0,0,0,0,0,0,0,0],"sum_hessian":[6.57E2,2.32E2,4.25E2,1.4E1,2.18E2,9.4E1,3.31E2,7E0,7E0,2.04E2,1.4E1,1.7E1,7.7E1,3.1E2,2.1E1,5E0,2E0,5E0,2E0,1.89E2,1.5E1,2E0,1.2E1,1.1E1,6E0,4.8E1,2.9E1,2.7E1,2.83E2,4E0,1.7E1,4E0,1E0,5.4E1,1.35E2,7E0,8E0,1E0,1E0,8E0,4E0,3E0,8E0,2E0,4E0,3.8E1,1E1,1.3E1,1.6E1,4E0,2.3E1,2.25E2,5.8E1,2E0,2E0,6E0,1.1E1,3E0,5.1E1,8.3E1,5.2E1,3E0,4E0,2E0,6E0,3E0,1E0,1E0,2E0,1E0,1E0,1E0,3E0,1.6E1,2.2E1,5E0,5E0,9E0,4E0,9E0,7E0,3E0,1E0,1.1E1,1.2E1,3.3E1,1.92E2,4.5E1,1.3E1,3E0,3E0,2E0,9E0],"tree_param":{"num_deleted":"0","num_feature":"60","num_nodes":"93","size_leaf_vector":"0"}},{"base_weights":[-8.537698E-3,-6.510971E-1,5.820807E-2,-1.2843107E0,5.58578E-1,8.204806E-1,-4.7894977E-2,-3.6252195E-1,-2.4420118E0,1.8259177E0,7.84241E-2,1.38859E0,-3.258332E-1,1.169013E-1,-5.5993426E-1,-1.0483942E0,5.4336286E-1,-1.5389997E0,-4.4820433E0,7.896142E-1,2.146666E0,-6.2564325E-1,9.4870526E-1,4.6153154E0,1.0778185E0,9.0754277E-1,-9.596303E-1,4.6715666E-2,1.5144614E0,-2.3094569E-1,-1.5000241E0,-1.5346495E0,5.509064E-1,9.920829E-2,8.969569E-1,-2.0511415E0,-7.338377E-1,-6.3806427E-1,-5.283522E0,-9.6531045E-1,-2.3831338E-1,1.8380423E-1,1.370885E0,5.5635595E-1,5.7828503E0,6.008455E-1,2.3791714E0,1.7937596E0,-1.6018263E-1,-8.2088195E-2,-1.5657009E0,-6.482713E-1,1.97554E-1,6.178187E-1,3.901497E0,1.7960639E0,-4.6128073E-1,-1.505631E-1,-2.4864395E0,-1.9593948E0,-6.330761E-1,2.1957785E-2,7.1990335E-1,3.217896E-1,-9.252976E-2,2.6526016E-1,9.702442E-1,-8.6933863E-1,-2.300186E0,-3.9143306E-1,-8.927829E-1,-3.091361E-1,5.79001E-2,-1.6282925E-1,3.5362515E-1,1.406403E-1,1.3688358E0,1.030383E0,2.7142806E0,1.6711311E-1,-4.3408415E-1,-7.958338E-1,5.05326E-1,-8.503682E-1,-2.11096E0,-1.0712415E0,4.2041925E-1,1.6077614E-1,3.9443417E0,1.7265519E0,-8.9595515E-1,9.6772283E-1,4.3930097E0,2.961879E0,3.7872814E-2,3.3159208E-1,-8.6343426E-1,9.3785965E-1,-1.5284548E0,-7.7591896E-1,-3.2162244E0],"categories":[],"categories_nodes":[],"categories_segments":[],"categories_sizes":[],"default_left":[1,1,1,1,1,1,1,1,1,1,1,1,1,1,1,1,1,1,1,0,0,1,1,1,1,1,1,1,1,1,1,1,1,1,1,1,1,0,0,0,1,1,0,0,0,1,1,0,1,1,1,1,1,1,1,1,1,1,1,0,0,0,0,0,0,0,0,0,0,0,0,0,0,0,0,0,0,0,0,0,0,0,0,0,0,0,0,0,0,0,0,0,0,0,0,0,0,0,0,0,0],"id":14,"left_children":[1,3,5,7,9,11,13,15,17,19,21,23,25,27,29,31,33,35,37,-1,-1,39,41,43,45,47,49,51,53,55,57,59,61,63,65,67,69,-1,-1,-1,71,73,-1,-1,-1,75,77,-1,79,81,83,85,87,89,91,93,95,97,99,-1,-1,-1,-1,-1,-1,-1,-1,-1,-1,-1,-1,-1,-1,-1,-1,-1,-1,-1,-1,-1,-1,-1,-1,-1,-1,-1,-1,-1,-1,-1,-1,-1,-1,-1,-1,-1,-1,-1,-1,-1,-1],"loss_changes":[2.8258286E1,4.8208317E1,4.8324318E1,4.2868103E1,1.3244202E1,4.7992367E1,4.4366093E1,1.5481368E1,2.6261253E1,2.993183E-1,1.1010072E1,4.4161476E1,2.0413658E1,3.8968533E1,3.9241264E1,1.1732805E1,1.6385694E0,4.2677956E0,1.2033119E1,0E0,0E0,1.0855861E0,2.3314314E0,1.5738579E1,2.712315E1,8.803455E0,8.912967E0,3.9963726E1,3.8255623E1,4.5650063E1,4.3552895E1,2.9718838E0,3.4175527E-1,2.858389E-1,2.0405293E-2,3.5493088E-1,3.15001E-2,0E0,0E0,0E0,1.4377087E-1,2.93043E-1,0E0,0E0,0E0,1.2177647E1,2.6271515E0,0E0,5.207751E-1,3.7562697E0,2.105322E0,3.118802E1,4.2496887E1,2.6722483E1,2.958725E0,2.0385086E1,2.802683E1,2.3929407E1,2.1222397E1,0E0,0E0,0E0,0E0,0E0,0E0,0E0,0E0,0E0,0E0,0E0,0E0,0E0,0E0,0E0,0E0,0E0,0E0,0E0,0E0,0E0,0E0,0E0,0E0,0E0,0E0,0E0,0E0,0E0,0E0,0E0,0E0,0E0,0E0,0E0,0E0,0E0,0E0,0E0,0E0,0E0,0E0],"parents":[2147483647,0,0,1,1,2,2,3,3,4,4,5,5,6,6,7,7,8,8,9,9,10,10,11,11,12,12,13,13,14,14,15,15,16,16,17,17,18,18,21,21,22,22,23,23,24,24,25,25,26,26,27,27,28,28,29,29,30,30,31,31,32,32,33,33,34,34,35,35,36,36,40,40,41,41,45,45,46,46,48,48,49,49,50,50,51,51,52,52,53,53,54,54,55,55,56,56,57,57,58,58],"right_children":[2,4,6,8,10,12,14,16,18,20,22,24,26,28,30,32,34,36,38,-1,-1,40,42,44,46,48,50,52,54,56,58,60,62,64,66,68,70,-1,-1,-1,72,74,-1,-1,-1,76,78,-1,80,82,84,86,88,90,92,94,96,98,100,-1,-1,-1,-1,-1,-1,-1,-1,-1,-1,-1,-1,-1,-1,-1,-1,-1,-1,-1,-1,-1,-1,-1,-1,-1,-1,-1,-1,-1,-1,-1,-1,-1,-1,-1,-1,-1,-1,-1,-1,-1,-1],"split_conditions":[-5.86399E0,3.4496799E0,-3.0679553E0,9.7242725E-1,4.662298E0,2.5689182E0,2.8582025E0,1.93524E0,9.3663514E-1,-1.7030954E0,4.784486E-1,-7.105318E0,-1.4169859E0,8.115709E0,2.487582E0,2.9391913E0,2.8975947E0,2.1181579E0,-4.4666605E0,2.3688427E-1,6.439998E-1,-7.159755E-1,1.9057679E0,-5.526354E0,2.4850745E0,1.4258587E0,2.2070852E-1,-3.4578674E0,4.3396E0,-4.484623E0,-5.194015E-1,-6.758867E-1,-2.7663388E0,1.27687305E-2,-1.5141004E1,-1.4468737E0,1.0233633E-1,-1.9141929E-1,-1.5850567E0,-2.8959316E-1,5.451371E0,1.399121E0,4.1126552E-1,1.6690679E-1,1.7348552E0,3.0468786E0,-3.5437586E0,5.381279E-1,4.7783795E-1,-2.637474E-1,1.737953E0,2.159267E0,1.193428E1,2.81598E0,-6.5784824E-1,1.9244263E0,-9.6848935E-1,1.6168846E0,-2.044446E0,-5.8781844E-1,-1.8992282E-1,6.587336E-3,2.1597101E-1,9.653688E-2,-2.7758928E-2,7.957805E-2,2.910733E-1,-2.608016E-1,-6.900558E-1,-1.1742992E-1,-2.678349E-1,-9.2740834E-2,1.737003E-2,-4.8848778E-2,1.0608755E-1,4.2192094E-2,4.1065076E-1,3.091149E-1,8.142842E-1,5.0133936E-2,-1.3022526E-1,-2.3875016E-1,1.515978E-1,-2.5511047E-1,-6.33288E-1,-3.2137245E-1,1.2612578E-1,4.8232842E-2,1.1833025E0,5.179656E-1,-2.6878655E-1,2.9031685E-1,1.3179029E0,8.8856375E-1,1.1361845E-2,9.947763E-2,-2.5903028E-1,2.813579E-1,-4.5853645E-1,-2.327757E-1,-9.6486735E-1],"split_indices":[38,20,38,30,20,16,52,6,20,1,21,7,59,16,9,34,6,24,0,0,0,25,2,0,25,37,11,17,13,59,51,11,0,1,1,4,14,0,0,0,0,1,0,0,0,34,31,0,7,12,12,56,6,26,1,8,25,3,16,0,0,0,0,0,0,0,0,0,0,0,0,0,0,0,0,0,0,0,0,0,0,0,0,0,0,0,0,0,0,0,0,0,0,0,0,0,0,0,0,0,0],"split_type":[0,0,0,0,0,0,0,0,0,0,0,0,0,0,0,0,0,0,0,0,0,0,0,0,0,0,0,0,0,0,0,0,0,0,0,0,0,0,0,0,0,0,0,0,0,0,0,0,0,0,0,0,0,0,0,0,0,0,0,0,0,0,0,0,0,0,0,0,0,0,0,0,0,0,0,0,0,0,0,0,0,0,0,0,0,0,0,0,0,0,0,0,0,0,0,0,0,0,0,0,0],"sum_hessian":[6.57E2,6.1E1,5.96E2,4E1,2.1E1,7.2E1,5.24E2,2.3E1,1.7E1,5E0,1.6E1,4.8E1,2.4E1,3.97E2,1.27E2,1.3E1,1E1,1.3E1,4E0,2E0,3E0,9E0,7E0,3E0,4.5E1,8E0,1.6E1,3.79E2,1.8E1,9.5E1,3.2E1,1E1,3E0,5E0,5E0,7E0,6E0,1E0,3E0,4E0,5E0,3E0,4E0,1E0,2E0,3.4E1,1.1E1,4E0,4E0,7E0,9E0,6.7E1,3.12E2,1.4E1,4E0,9E0,8.6E1,1.4E1,1.8E1,6E0,4E0,1E0,2E0,2E0,3E0,1E0,4E0,2E0,5E0,3E0,3E0,4E0,1E0,1E0,2E0,2.2E1,1.2E1,3E0,8E0,2E0,2E0,3E0,4E0,5E0,4E0,4.8E1,1.9E1,3.1E2,2E0,8E0,6E0,1E0,3E0,5E0,4E0,2.9E1,5.7E1,8E0,6E0,6E0,1.2E1],"tree_param":{"num_deleted":"0","num_feature":"60","num_nodes":"101","size_leaf_vector":"0"}},{"base_weights":[-1.4538998E-3,3.3983644E-2,-9.390117E-1,-2.5926492E-1,1.5604043E-1,-1.596669E0,1.4137542E-1,-4.3583098E-1,6.4332E-1,-6.6604584E-1,2.4474919E-1,-6.116459E-1,-2.1853902E0,-4.8898962E-1,1.2091703E0,1.8161163E0,-5.218563E-1,-3.4584068E-2,2.070377E0,-2.190053E0,-2.6103973E-2,3.1682837E-1,-9.6930116E-1,-3.1129494E-1,-7.5908536E-1,-8.9087665E-1,-2.4279833E0,-7.836501E-1,-2.1439539E-1,2.5496755E0,2.3266537E-1,-9.1103005E-1,-8.821586E-2,-5.0480723E-1,1.303479E0,-1.03630655E-1,3.016899E0,-3.339676E-1,-3.3083606E0,-5.4616016E-1,7.759904E-1,8.8857186E-1,1.2581038E-1,-1.3437263E0,7.8488514E-2,-2.9260176E-1,4.921508E-2,-9.5893264E-2,4.4489133E-1,6.9277585E-1,-1.0988525E0,-1.5293602E0,2.495214E-1,-7.916654E-1,1.0977526E0,4.716672E-1,1.6014681E0,2.8381643E-1,-6.3298595E-1,7.5382245E-1,3.2684414E0,-9.193704E-1,5.57892E-1,-1.1668819E0,-3.8277063E0,2.9939643E-1,-8.479721E-1,1.4210692E-1,1.2990181E0,-1.5038133E-1,1.4871578E0,-1.2148704E-1,4.7509998E-1,-1.9822828E0,-5.558668E-1,3.5032314E-1,-1.0030997E-1],"categories":[],"categories_nodes":[],"categories_segments":[],"categories_sizes":[],"default_left":[1,1,1,1,1,1,1,1,1,1,1,1,1,1,0,1,1,1,1,1,1,1,1,0,0,0,0,0,1,0,1,1,1,1,1,1,1,1,1,1,1,1,1,1,1,0,0,0,0,0,0,0,0,0,0,0,0,0,0,0,0,0,0,0,0,0,0,0,0,0,0,0,0,0,0,0,0],"id":15,"left_children":[1,3,5,7,9,11,13,15,17,19,21,23,25,27,-1,29,31,33,35,37,39,41,43,-1,-1,-1,-1,-1,45,-1,47,49,51,53,55,57,59,61,63,65,67,69,71,73,75,-1,-1,-1,-1,-1,-1,-1,-1,-1,-1,-1,-1,-1,-1,-1,-1,-1,-1,-1,-1,-1,-1,-1,-1,-1,-1,-1,-1,-1,-1,-1,-1],"loss_changes":[2.1893795E1,2.2768997E1,1.7278316E1,3.0081793E1,3.2906902E1,7.3618774E0,7.322278E0,3.1362505E1,3.0061245E1,4.2854973E1,3.583525E1,7.368541E-2,6.6332626E-1,3.983736E-1,0E0,6.3761063E0,2.5571377E1,1.4500148E1,2.0890102E1,2.5878876E1,1.3772107E1,4.182611E1,9.128798E0,0E0,0E0,0E0,0E0,0E0,1.1748053E-1,0E0,2.518481E-1,2.4859726E1,3.591276E1,8.684077E0,7.318659E-1,1.0000404E0,1.5209923E0,3.6454926E0,4.4308624E0,5.357862E0,4.1254025E0,5.9926308E1,2.502108E1,7.450693E0,3.753662E-1,0E0,0E0,0E0,0E0,0E0,0E0,0E0,0E0,0E0,0E0,0E0,0E0,0E0,0E0,0E0,0E0,0E0,0E0,0E0,0E0,0E0,0E0,0E0,0E0,0E0,0E0,0E0,0E0,0E0,0E0,0E0,0E0],"parents":[2147483647,0,0,1,1,2,2,3,3,4,4,5,5,6,6,7,7,8,8,9,9,10,10,11,11,12,12,13,13,15,15,16,16,17,17,18,18,19,19,20,20,21,21,22,22,28,28,30,30,31,31,32,32,33,33,34,34,35,35,36,36,37,37,38,38,39,39,40,40,41,41,42,42,43,43,44,44],"right_children":[2,4,6,8,10,12,14,16,18,20,22,24,26,28,-1,30,32,34,36,38,40,42,44,-1,-1,-1,-1,-1,46,-1,48,50,52,54,56,58,60,62,64,66,68,70,72,74,76,-1,-1,-1,-1,-1,-1,-1,-1,-1,-1,-1,-1,-1,-1,-1,-1,-1,-1,-1,-1,-1,-1,-1,-1,-1,-1,-1,-1,-1,-1,-1,-1],"split_conditions":[9.211116E0,-1.632679E0,1.4292898E0,4.257745E0,-5.9236507E0,2.5995014E0,3.1005478E0,-1.0431869E1,2.0369682E0,-1.0956608E0,8.628765E0,-5.163187E-1,-2.1096775E-1,3.5575593E-1,3.6275113E-1,5.729942E0,1.0050967E0,5.6583514E0,-4.4747458E0,-1.2501628E0,2.629025E0,2.0454729E-1,1.8655913E0,-9.338848E-2,-2.2772561E-1,-2.67263E-1,-7.28395E-1,-2.3509504E-1,5.9457645E0,7.6490265E-1,-1.2686304E1,-5.695475E0,-3.897612E0,5.5165396E0,-2.0028818E-1,-4.353141E0,7.100147E-1,-3.0887213E0,-1.319544E0,-1.5923324E0,-8.409971E0,-9.7152436E-1,3.5205379E0,-5.224078E-1,1.2220532E-1,-8.7780535E-2,1.4764524E-2,-2.876798E-2,1.334674E-1,2.0783277E-1,-3.2965577E-1,-4.5880806E-1,7.485642E-2,-2.3749962E-1,3.293258E-1,1.4150016E-1,4.8044044E-1,8.514493E-2,-1.898958E-1,2.2614674E-1,9.8053247E-1,-2.7581114E-1,1.673676E-1,-3.5006458E-1,-1.148312E0,8.981893E-2,-2.5439164E-1,4.2632077E-2,3.8970545E-1,-4.5114398E-2,4.4614735E-1,-3.6446113E-2,1.4253E-1,-5.9468484E-1,-1.6676004E-1,1.0509694E-1,-3.0092992E-2],"split_indices":[25,4,43,12,38,56,39,0,15,1,59,7,11,1,0,3,54,55,23,27,31,4,55,0,0,0,0,0,0,0,0,29,16,8,5,4,0,1,2,26,38,37,4,32,16,0,0,0,0,0,0,0,0,0,0,0,0,0,0,0,0,0,0,0,0,0,0,0,0,0,0,0,0,0,0,0,0],"split_type":[0,0,0,0,0,0,0,0,0,0,0,0,0,0,0,0,0,0,0,0,0,0,0,0,0,0,0,0,0,0,0,0,0,0,0,0,0,0,0,0,0,0,0,0,0,0,0,0,0,0,0,0,0,0,0,0,0,0,0,0,0,0,0,0,0,0,0,0,0,0,0,0,0,0,0,0,0],"sum_hessian":[6.57E2,6.34E2,2.3E1,1.86E2,4.48E2,1.4E1,9E0,1.56E2,3E1,4.3E1,4.05E2,6E0,8E0,6E0,3E0,5E0,1.51E2,2.1E1,9E0,1.2E1,3.1E1,3.83E2,2.2E1,3E0,3E0,2E0,6E0,2E0,4E0,3E0,2E0,7.9E1,7.2E1,1.6E1,5E0,3E0,6E0,5E0,7E0,1.9E1,1.2E1,9.5E1,2.88E2,1.6E1,6E0,3E0,1E0,1E0,1E0,8E0,7.1E1,1.3E1,5.9E1,1.4E1,2E0,2E0,3E0,2E0,1E0,1E0,5E0,3E0,2E0,2E0,5E0,5E0,1.4E1,6E0,6E0,3.5E1,6E1,1.69E2,1.19E2,8E0,8E0,2E0,4E0],"tree_param":{"num_deleted":"0","num_feature":"60","num_nodes":"77","size_leaf_vector":"0"}},{"base_weights":[-1.9310954E-3,-2.9451182E-1,9.111343E-2,-5.817042E-2,-1.5589749E0,3.3105376E-1,-1.722986E-1,-2.2430974E-1,1.6634501E0,-6.494039E-1,-3.103834E0,2.076031E0,2.607738E-1,-6.9081926E-1,8.320099E-2,-3.3660594E-1,1.4460607E0,-2.8628144E-1,2.3451698E0,4.680454E-1,-1.3014714E0,-4.26997E0,-1.3169308E0,8.366966E-2,3.390327E0,5.476546E-1,-1.4880735E-1,-3.74605E-1,-2.1321995E0,-1.1454298E0,2.4586383E-1,1.416507E0,-4.2751727E-1,9.090597E-2,1.6266676E0,-4.344672E-1,7.913792E-2,2.8817346E0,3.1146184E-1,-3.2084912E-2,8.511644E-1,3.7511453E-1,-1.7157254E0,7.071598E-1,-1.2051455E0,7.4143246E-2,1.2892994E0,-8.232591E-1,3.3223596E-1,1.8089391E0,-5.832388E-1,-2.8562932E0,-2.5757244E-1,4.2927E-1,-1.9052353E0,-4.9382624E-1,5.087163E-1,2.582553E0,6.667872E-1,-5.7920665E-1,5.920209E-1,8.7605834E-1,1.9706099E0,5.7192713E-1,-1.0473436E-1,1.0206491E-1,-1.10823154E-1,-1.9072305E0,-6.9697165E-1,-1.7278357E-1,1.4622201E0,-7.884399E-1,1.5899389E0,-1.0424709E0,1.6294771E0,-2.7736184E-1,9.124015E-1,3.2015923E-1,2.042663E0,-1.0189768E0,8.49831E-2,-1.4631861E0,-3.2443125E0,-6.8465984E-1,2.5537243E-1,8.0866563E-1,-5.7443112E-2,-5.509873E-1,-2.4459023E0,6.578989E-1,-9.2865306E-1,-7.2652483E-1,7.696352E-1],"categories":[],"categories_nodes":[],"categories_segments":[],"categories_sizes":[],"default_left":[1,1,1,1,1,1,1,1,1,1,1,1,1,1,1,1,1,1,1,1,1,0,0,1,0,1,1,1,1,1,1,1,1,0,1,0,0,0,1,1,0,0,1,0,0,1,1,1,1,1,1,1,1,1,1,1,1,0,0,0,0,0,0,0,0,0,0,0,0,0,0,0,0,0,0,0,0,0,0,0,0,0,0,0,0,0,0,0,0,0,0,0,0],"id":16,"left_children":[1,3,5,7,9,11,13,15,17,19,21,23,25,27,29,31,33,35,37,39,41,-1,-1,43,-1,45,47,49,51,53,55,57,59,-1,61,-1,-1,-1,63,65,-1,-1,67,-1,-1,69,71,73,75,77,79,81,83,85,87,89,91,-1,-1,-1,-1,-1,-1,-1,-1,-1,-1,-1,-1,-1,-1,-1,-1,-1,-1,-1,-1,-1,-1,-1,-1,-1,-1,-1,-1,-1,-1,-1,-1,-1,-1,-1,-1],"loss_changes":[1.7939592E1,4.7425667E1,3.1658623E1,3.8987026E1,3.311333E1,3.1589497E1,3.172063E1,2.3746204E1,1.6621422E1,1.2996239E1,1.3130692E1,2.590186E1,2.9809244E1,3.520829E1,3.245789E1,1.9252792E1,1.8101292E0,2.509826E-1,8.923393E0,1.3685753E0,8.283449E0,0E0,0E0,4.870048E0,0E0,5.2229816E1,3.433977E1,3.1122074E1,1.8267975E1,2.3550701E1,2.8054611E1,3.5232334E0,1.766405E1,0E0,8.079338E-2,0E0,0E0,0E0,3.851144E-1,5.3562038E-2,0E0,0E0,4.2658424E-1,0E0,0E0,3.1785961E1,3.74833E1,2.5356115E1,2.2180458E1,1.4338036E0,1.7847948E1,6.584854E-1,1.2702048E0,1.33905E0,8.170906E0,1.9641397E1,3.4722725E1,0E0,0E0,0E0,0E0,0E0,0E0,0E0,0E0,0E0,0E0,0E0,0E0,0E0,0E0,0E0,0E0,0E0,0E0,0E0,0E0,0E0,0E0,0E0,0E0,0E0,0E0,0E0,0E0,0E0,0E0,0E0,0E0,0E0,0E0,0E0,0E0],"parents":[2147483647,0,0,1,1,2,2,3,3,4,4,5,5,6,6,7,7,8,8,9,9,10,10,11,11,12,12,13,13,14,14,15,15,16,16,17,17,18,18,19,19,20,20,23,23,25,25,26,26,27,27,28,28,29,29,30,30,31,31,32,32,34,34,38,38,39,39,42,42,45,45,46,46,47,47,48,48,49,49,50,50,51,51,52,52,53,53,54,54,55,55,56,56],"right_children":[2,4,6,8,10,12,14,16,18,20,22,24,26,28,30,32,34,36,38,40,42,-1,-1,44,-1,46,48,50,52,54,56,58,60,-1,62,-1,-1,-1,64,66,-1,-1,68,-1,-1,70,72,74,76,78,80,82,84,86,88,90,92,-1,-1,-1,-1,-1,-1,-1,-1,-1,-1,-1,-1,-1,-1,-1,-1,-1,-1,-1,-1,-1,-1,-1,-1,-1,-1,-1,-1,-1,-1,-1,-1,-1,-1,-1,-1],"split_conditions":[-2.1472678E0,4.952271E0,1.844564E0,6.825543E0,3.4246423E0,-7.099523E0,-1.8247917E0,1.0313236E1,-5.2073565E0,-6.899433E-1,9.9919003E-1,-4.7296536E-1,7.8363985E-1,-2.4556098E0,-5.3619123E0,-7.287386E0,-4.177978E-1,3.370997E0,7.6678886E0,-2.5151844E0,-1.9433382E0,-1.2809911E0,-3.9507926E-1,4.132755E0,1.0170982E0,-1.0976722E0,-2.1856019E-1,-6.892046E0,2.214913E0,-1.0774897E0,-1.8959643E0,-6.3142805E0,5.79729E0,2.7271792E-2,1.7160014E0,-1.3034016E-1,2.3741378E-2,8.6452043E-1,3.7970526E0,-6.532604E0,2.5534934E-1,1.1253437E-1,3.8260775E0,2.1214795E-1,-3.6154366E-1,3.786905E0,-5.0286493E0,5.831964E0,6.144353E-1,8.7907946E-1,1.1931419E0,-7.860203E-1,2.8442717E-1,-1.0342247E0,-2.185924E0,-4.475555E0,-3.9095883E0,7.747659E-1,2.0003617E-1,-1.73762E-1,1.7760628E-1,2.628175E-1,5.91183E-1,1.7157814E-1,-3.142031E-2,3.0619474E-2,-3.324695E-2,-5.721692E-1,-2.090915E-1,-5.183507E-2,4.3866605E-1,-2.3653199E-1,4.7698167E-1,-3.1274128E-1,4.8884317E-1,-8.320855E-2,2.7372047E-1,9.6047774E-2,6.127989E-1,-3.0569306E-1,2.5494931E-2,-4.3895587E-1,-9.732938E-1,-2.0539796E-1,7.6611735E-2,2.425997E-1,-1.7232934E-2,-1.652962E-1,-7.337707E-1,1.9736968E-1,-2.7859592E-1,-2.1795745E-1,2.3089057E-1],"split_indices":[28,46,28,32,31,59,29,58,8,1,2,16,16,29,50,0,0,1,38,2,50,0,0,0,0,16,10,21,56,43,15,1,3,0,10,0,0,0,0,1,0,0,1,0,0,32,38,23,12,0,19,6,0,6,34,15,0,0,0,0,0,0,0,0,0,0,0,0,0,0,0,0,0,0,0,0,0,0,0,0,0,0,0,0,0,0,0,0,0,0,0,0,0],"split_type":[0,0,0,0,0,0,0,0,0,0,0,0,0,0,0,0,0,0,0,0,0,0,0,0,0,0,0,0,0,0,0,0,0,0,0,0,0,0,0,0,0,0,0,0,0,0,0,0,0,0,0,0,0,0,0,0,0,0,0,0,0,0,0,0,0,0,0,0,0,0,0,0,0,0,0,0,0,0,0,0,0,0,0,0,0,0,0,0,0,0,0,0,0],"sum_hessian":[6.57E2,1.58E2,4.99E2,1.34E2,2.4E1,2.61E2,2.38E2,1.23E2,1.1E1,1.6E1,8E0,9E0,2.52E2,7.8E1,1.6E2,1.16E2,7E0,3E0,8E0,6E0,1E1,4E0,4E0,4E0,5E0,1.48E2,1.04E2,6.5E1,1.3E1,1.8E1,1.42E2,5E0,1.11E2,1E0,6E0,2E0,1E0,6E0,2E0,3E0,3E0,2E0,8E0,3E0,1E0,9.1E1,5.7E1,4.3E1,6.1E1,5E0,6E1,9E0,4E0,6E0,1.2E1,3.7E1,1.05E2,1E0,4E0,9.7E1,1.4E1,3E0,3E0,1E0,1E0,1E0,2E0,6E0,2E0,7.8E1,1.3E1,7E0,5E1,4E1,3E0,3E1,3.1E1,1E0,4E0,3.6E1,2.4E1,3E0,6E0,2E0,2E0,3E0,3E0,4E0,8E0,1E1,2.7E1,1.8E1,8.7E1],"tree_param":{"num_deleted":"0","num_feature":"60","num_nodes":"93","size_leaf_vector":"0"}},{"base_weights":[-3.2875166E-4,2.0894183E-1,-1.1478818E-1,1.2649035E-1,1.5945445E0,-5.539949E-1,4.505271E-3,2.0837544E-1,-1.1996996E0,4.8091975E-1,2.4803772E0,-1.5451412E0,-2.3457758E-1,-1.745979E-1,4.1135615E-1,1.0214766E-1,1.3298953E0,-1.6954125E0,-6.747673E-2,-2.7625808E-1,6.531591E-1,3.0261583E0,7.439493E-1,-2.0812993E0,2.314971E-1,4.1056454E-2,-1.1674085E0,4.7034135E-1,-3.1404275E-1,-1.7336872E0,5.858248E-1,5.584654E-1,-1.5259486E-1,3.9310408E-1,2.745838E0,-2.4669435E0,-1.1225545E0,-2.602394E-1,1.4777818E-1,7.190424E-1,1.6187108E-1,-3.5188246E0,-1.1890951E0,6.31042E-1,-3.7839517E-1,-8.915028E-1,5.9941894E-1,-1.9774929E0,-1.1013742E-1,-5.075604E-1,1.0324186E0,-2.3497882E-1,-1.9043517E0,-4.6411613E-1,-2.887229E0,1.5551984E-1,1.4415747E0,2.4965337E-1,2.3554912E0,-3.7039936E-1,9.985085E-1,1.0282552E0,-7.017586E-1,2.698794E-2,1.9467933E-1,4.716561E-1,-1.568411E0,1.4175081E-1,7.468888E-1,3.8696554E-1,-1.2150816E0,1.0243671E0,-5.653881E-1,-5.099395E-1,-2.3239453E0,-4.9522316E-1,3.9875412E-1,-1.1861895E0,1.2226615E0,2.4986379E-1,1.7412293E0,6.831072E-2,-5.925937E-1,-5.5412436E-1,-2.2109704E0,-7.786343E-1,5.107403E-3,2.9835686E-1,-2.097334E0,-7.695739E-1,1.8795494E0],"categories":[],"categories_nodes":[],"categories_segments":[],"categories_sizes":[],"default_left":[1,1,1,1,1,1,1,1,1,1,1,1,1,1,1,1,1,1,1,0,1,0,0,1,1,1,1,1,1,1,1,1,1,1,0,0,0,0,1,0,0,0,1,1,0,1,1,1,1,1,1,1,1,1,0,1,1,0,0,0,0,0,0,0,0,0,0,0,0,0,0,0,0,0,0,0,0,0,0,0,0,0,0,0,0,0,0,0,0,0,0],"id":17,"left_children":[1,3,5,7,9,11,13,15,17,19,21,23,25,27,29,31,33,35,37,-1,39,-1,-1,41,43,45,47,49,51,53,55,57,59,61,-1,-1,-1,-1,63,-1,-1,-1,65,67,-1,69,71,73,75,77,79,81,83,85,-1,87,89,-1,-1,-1,-1,-1,-1,-1,-1,-1,-1,-1,-1,-1,-1,-1,-1,-1,-1,-1,-1,-1,-1,-1,-1,-1,-1,-1,-1,-1,-1,-1,-1,-1,-1],"loss_changes":[1.5785052E1,2.6417385E1,2.2322548E1,2.4249523E1,1.1631447E1,2.8447172E1,2.4555565E1,2.476369E1,7.181946E0,1.0933509E0,4.38266E0,2.1438114E1,1.8046326E1,2.1192133E1,3.9562645E1,2.2403978E1,2.2796564E1,1.208519E0,2.4592325E-1,0E0,7.78141E-2,0E0,0E0,1.7619415E1,1.7008593E0,2.917322E1,1.3485863E1,2.3609581E1,2.3819574E1,1.0376019E1,3.512622E1,3.7703026E1,3.1458569E1,9.066427E0,0E0,0E0,0E0,0E0,1.1741608E-2,0E0,0E0,0E0,8.299143E0,1.20859265E-1,0E0,9.157585E0,1.7903553E1,3.3908653E0,1.7652073E0,2.0237171E1,1.4541376E1,2.010574E1,2.5008926E0,7.4187326E-1,0E0,2.1542162E1,3.243612E1,0E0,0E0,0E0,0E0,0E0,0E0,0E0,0E0,0E0,0E0,0E0,0E0,0E0,0E0,0E0,0E0,0E0,0E0,0E0,0E0,0E0,0E0,0E0,0E0,0E0,0E0,0E0,0E0,0E0,0E0,0E0,0E0,0E0,0E0],"parents":[2147483647,0,0,1,1,2,2,3,3,4,4,5,5,6,6,7,7,8,8,9,9,10,10,11,11,12,12,13,13,14,14,15,15,16,16,17,17,18,18,20,20,23,23,24,24,25,25,26,26,27,27,28,28,29,29,30,30,31,31,32,32,33,33,38,38,42,42,43,43,45,45,46,46,47,47,48,48,49,49,50,50,51,51,52,52,53,53,55,55,56,56],"right_children":[2,4,6,8,10,12,14,16,18,20,22,24,26,28,30,32,34,36,38,-1,40,-1,-1,42,44,46,48,50,52,54,56,58,60,62,-1,-1,-1,-1,64,-1,-1,-1,66,68,-1,70,72,74,76,78,80,82,84,86,-1,88,90,-1,-1,-1,-1,-1,-1,-1,-1,-1,-1,-1,-1,-1,-1,-1,-1,-1,-1,-1,-1,-1,-1,-1,-1,-1,-1,-1,-1,-1,-1,-1,-1,-1,-1],"split_conditions":[-1.2938092E0,-1.5379694E0,5.4641224E-2,7.5841436E0,-1.7432342E0,-3.2365918E0,2.2698736E0,5.704073E0,1.04128E1,-6.9940214E0,9.1131985E-1,5.547887E0,3.6842456E0,-3.8494315E0,-5.864732E0,-7.6523256E-1,3.6967506E0,1.1327734E0,4.895817E0,-8.287743E-2,1.4247177E0,9.078475E-1,2.231848E-1,2.8951392E-2,8.779579E-1,-1.0387192E0,7.9163814E-1,1.5908467E0,1.8573315E0,1.3841324E0,2.680214E0,5.6103773E0,4.4175158E0,3.1343226E0,8.237514E-1,-7.400831E-1,-3.3676636E-1,-7.807182E-2,6.8731394E0,2.1571274E-1,4.8561323E-2,-1.0556474E0,-3.284958E0,-4.8856683E0,-1.1351856E-1,-1.2809963E0,3.32798E0,-1.0384759E0,1.5132142E0,4.7592745E0,-5.0665416E-2,5.567516E-1,-4.120914E0,5.1245916E-1,-8.6616874E-1,7.6224103E0,-5.359062E0,7.4896015E-2,7.066474E-1,-1.11119814E-1,2.9955256E-1,3.0847657E-1,-2.105276E-1,8.096382E-3,5.84038E-2,1.4149684E-1,-4.7052333E-1,4.2525247E-2,2.2406666E-1,1.16089664E-1,-3.6452448E-1,3.0731013E-1,-1.6961643E-1,-1.5298185E-1,-6.971836E-1,-1.4856696E-1,1.1962624E-1,-3.5585687E-1,3.6679846E-1,7.495914E-2,5.223688E-1,2.0493217E-2,-1.7777812E-1,-1.6623731E-1,-6.6329116E-1,-2.335903E-1,1.5322209E-3,8.950706E-2,-6.292002E-1,-2.3087218E-1,5.638648E-1],"split_indices":[34,34,34,41,40,56,41,53,41,1,0,11,39,3,31,8,25,21,1,0,0,0,0,0,3,39,21,34,41,1,50,57,49,12,0,0,0,0,0,0,0,0,6,0,0,10,13,51,25,40,15,11,16,2,0,6,23,0,0,0,0,0,0,0,0,0,0,0,0,0,0,0,0,0,0,0,0,0,0,0,0,0,0,0,0,0,0,0,0,0,0],"split_type":[0,0,0,0,0,0,0,0,0,0,0,0,0,0,0,0,0,0,0,0,0,0,0,0,0,0,0,0,0,0,0,0,0,0,0,0,0,0,0,0,0,0,0,0,0,0,0,0,0,0,0,0,0,0,0,0,0,0,0,0,0,0,0,0,0,0,0,0,0,0,0,0,0,0,0,0,0,0,0,0,0,0,0,0,0,0,0,0,0,0,0],"sum_hessian":[6.57E2,2.32E2,4.25E2,2.2E2,1.2E1,9E1,3.35E2,2.08E2,1.2E1,6E0,6E0,2.1E1,6.9E1,2.33E2,1.02E2,1.91E2,1.7E1,8E0,4E0,1E0,5E0,4E0,2E0,1.6E1,5E0,5.4E1,1.5E1,4.1E1,1.92E2,7E0,9.5E1,6.8E1,1.23E2,1.1E1,6E0,2E0,6E0,2E0,2E0,4E0,1E0,5E0,1.1E1,3E0,2E0,2E1,3.4E1,8E0,7E0,1.5E1,2.6E1,1.84E2,8E0,4E0,3E0,6.4E1,3.1E1,5.9E1,9E0,1.04E2,1.9E1,7E0,4E0,1E0,1E0,2E0,9E0,1E0,2E0,4E0,1.6E1,2.5E1,9E0,2E0,6E0,4E0,3E0,1.1E1,4E0,1.3E1,1.3E1,1E2,8.4E1,2E0,6E0,2E0,2E0,6.1E1,3E0,5E0,2.6E1],"tree_param":{"num_deleted":"0","num_feature":"60","num_nodes":"91","size_leaf_vector":"0"}},{"base_weights":[-2.9493312E-3,-8.808465E-1,2.0301761E-2,-2.3707028E-1,-1.7666596E0,4.4595193E-2,-8.7546235E-1,-6.1081904E-1,3.3359203E-1,-2.0348577E0,-7.873553E-2,1.6386415E-1,-1.6146728E-1,-1.8739088E-1,-1.4662602E0,-7.5740606E-1,-1.6290095E-1,1.3067585E-1,5.726284E-1,3.838276E-1,-1.2611032E-1,-4.62473E-1,9.9573664E-2,5.8367896E-1,-3.5673448E-1,-1.6540599E0,1.806879E-2,1.6376093E-1,8.5225135E-1,-5.3289247E-1,2.0920673E-1,1.7958248E-1,-8.186714E-1,2.6155663E-1,-9.3535185E-1,-4.8703545E-1,-1.0467464E-1,-1.1978102E0,2.460084E-1,1.0950953E0,-5.9398305E-1,-7.4141324E-1,4.7330335E-1,-9.286596E-1,4.341649E-1,1.0672804E0,-3.0531573E-1,-1.3627593E-1,-1.2032989E0,-9.8301256E-1,4.8868838E-1,-2.2313046E0,-3.6495838E-1,-1.22898184E-1,-2.5002003E-2],"categories":[],"categories_nodes":[],"categories_segments":[],"categories_sizes":[],"default_left":[1,1,1,1,1,1,1,1,1,0,0,1,1,1,1,0,0,0,0,1,1,1,1,0,1,0,0,1,1,1,1,1,1,1,1,0,1,0,0,0,0,0,0,0,0,0,0,0,0,0,0,0,0,0,0],"id":18,"left_children":[1,3,5,7,9,11,13,15,17,-1,-1,19,21,23,25,-1,-1,-1,-1,27,29,31,33,-1,35,-1,-1,37,39,41,43,45,47,49,51,-1,53,-1,-1,-1,-1,-1,-1,-1,-1,-1,-1,-1,-1,-1,-1,-1,-1,-1,-1],"loss_changes":[1.3449022E1,9.275689E0,1.4009721E1,2.549892E0,3.008669E0,1.54115715E1,6.6359253E0,3.3623075E-1,1.6769302E-1,0E0,0E0,2.5370567E1,1.811826E1,1.3834002E0,2.5386963E0,0E0,0E0,0E0,0E0,2.315752E1,2.3572456E1,2.4617828E1,2.1032043E1,0E0,2.1176898E-1,0E0,0E0,1.7652466E1,2.5937538E1,1.6716307E1,2.4720566E1,1.711314E1,1.7946316E1,3.1009956E1,1.1752117E1,0E0,2.7349703E-3,0E0,0E0,0E0,0E0,0E0,0E0,0E0,0E0,0E0,0E0,0E0,0E0,0E0,0E0,0E0,0E0,0E0,0E0],"parents":[2147483647,0,0,1,1,2,2,3,3,4,4,5,5,6,6,7,7,8,8,11,11,12,12,13,13,14,14,19,19,20,20,21,21,22,22,24,24,27,27,28,28,29,29,30,30,31,31,32,32,33,33,34,34,36,36],"right_children":[2,4,6,8,10,12,14,16,18,-1,-1,20,22,24,26,-1,-1,-1,-1,28,30,32,34,-1,36,-1,-1,38,40,42,44,46,48,50,52,-1,54,-1,-1,-1,-1,-1,-1,-1,-1,-1,-1,-1,-1,-1,-1,-1,-1,-1,-1],"split_conditions":[-9.187811E0,-1.179702E1,1.1031639E1,2.4650161E0,3.288498E0,1.7900106E0,7.3112E-1,3.9872086E0,1.3445365E1,-6.1045736E-1,-2.362066E-2,1.0173538E0,-5.0265543E-2,-5.138036E0,1.9850557E1,-2.2722183E-1,-4.8870288E-2,3.9202757E-2,1.7178851E-1,-5.732888E-1,-9.973885E-2,-4.962562E-2,4.7984734E0,1.751037E-1,1.3025267E1,-4.96218E-1,5.4206373E-3,-8.120024E0,4.838887E0,6.4043274E0,-2.6776326E0,-1.2573347E0,-6.633523E-1,-5.1968107E0,-3.8536177E0,-1.4611064E-1,1.5862345E1,-3.5934305E-1,7.380252E-2,3.2852858E-1,-1.7819493E-1,-2.2242399E-1,1.41991E-1,-2.785979E-1,1.3024949E-1,3.2018414E-1,-9.1594726E-2,-4.088278E-2,-3.609897E-1,-2.9490378E-1,1.4660652E-1,-6.693914E-1,-1.0948752E-1,-3.6869455E-2,-7.500601E-3],"split_indices":[28,28,0,30,0,51,40,24,0,0,0,30,29,10,0,0,0,0,0,30,38,42,6,0,0,0,0,58,15,30,12,34,57,54,46,0,0,0,0,0,0,0,0,0,0,0,0,0,0,0,0,0,0,0,0],"split_type":[0,0,0,0,0,0,0,0,0,0,0,0,0,0,0,0,0,0,0,0,0,0,0,0,0,0,0,0,0,0,0,0,0,0,0,0,0,0,0,0,0,0,0,0,0,0,0,0,0,0,0,0,0,0,0],"sum_hessian":[6.57E2,1.6E1,6.41E2,1E1,6E0,6.25E2,1.6E1,6E0,4E0,5E0,1E0,3.96E2,2.29E2,8E0,8E0,4E0,2E0,3E0,1E0,2.25E2,1.71E2,1.06E2,1.23E2,1E0,7E0,7E0,1E0,1.54E2,7.1E1,7.7E1,9.4E1,3.8E1,6.8E1,1.07E2,1.6E1,4E0,3E0,8E0,1.46E2,6.1E1,1E1,6.4E1,1.3E1,1.5E1,7.9E1,1.3E1,2.5E1,2.5E1,4.3E1,1.6E1,9.1E1,4E0,1.2E1,2E0,1E0],"tree_param":{"num_deleted":"0","num_feature":"60","num_nodes":"55","size_leaf_vector":"0"}},{"base_weights":[-6.1219693E-3,4.0556479E-1,-4.8866455E-2,-6.5099604E-2,1.1047521E0,-4.158573E-1,6.276146E-3,1.3854201E0,-3.2685775E-1,3.174966E-1,3.0837667E0,-7.4903005E-1,2.7929708E-1,-6.016981E-1,5.0047386E-2,-9.747307E-2,-1.5919173E0,7.836457E-1,-1.1444501E0,3.6917696E0,-2.8212512E-1,-1.2429569E0,-2.2736137E-1,-2.0943844E-1,1.2257351E0,2.0869823E-1,-1.090055E0,1.7889495E-1,-1.6240294E-1,-6.933775E-1,2.0535281E-1,-2.7128938E-1,-1.854252E0,1.6371998E0,3.2442605E-1,-4.772996E-1,-1.4301171E0,-1.7095071E0,3.342592E-1,9.920848E-1,-5.49603E-1,-6.0561717E-1,2.540311E-1,1.4071065E-2,2.1922522E0,-1.6634387E-1,1.1878895E0,-7.484976E-2,-1.3114978E0,-1.4864859E-1,3.9747417E-1,-3.5277718E-1,4.7005165E-1,-9.3954784E-1,-8.92351E-2,-6.3288724E-1,4.5446828E-1,-7.082952E-2,8.1289864E-1,-2.4975345E-1,-1.9389242E0,6.92892E-1,-1.0793841E-1,1.6661388E0,-2.3734868E-1,5.1025146E-1,-8.134735E-1,-7.983394E-1,-1.1694898E-1,3.909388E-1,-1.500972E-1,-1.5970655E-1,1.8315832E-1,6.342075E-1,2.4232113E0,2.860742E-1,-5.910379E-1,-3.3308783E-1,2.0833825E-1,-6.781592E-1,-1.7503527E0,-8.973424E-1,9.44639E-2,2.3453566E-1,1.2152114E0,4.158224E-1,-6.2757725E-1,9.5518214E-1,-1.3560754E-1],"categories":[],"categories_nodes":[],"categories_segments":[],"categories_sizes":[],"default_left":[1,1,1,1,1,1,1,0,1,1,1,1,1,1,1,1,1,1,1,0,0,1,1,1,1,1,1,1,1,1,1,0,0,0,1,0,0,1,1,1,1,1,1,1,1,1,0,1,1,1,1,1,1,0,0,0,0,0,0,0,0,0,0,0,0,0,0,0,0,0,0,0,0,0,0,0,0,0,0,0,0,0,0,0,0,0,0,0,0],"id":19,"left_children":[1,3,5,7,9,11,13,-1,15,17,19,21,23,25,27,29,31,33,35,-1,-1,37,39,41,43,45,47,49,51,53,55,-1,-1,-1,57,-1,-1,59,61,63,65,67,69,71,73,75,-1,77,79,81,83,85,87,-1,-1,-1,-1,-1,-1,-1,-1,-1,-1,-1,-1,-1,-1,-1,-1,-1,-1,-1,-1,-1,-1,-1,-1,-1,-1,-1,-1,-1,-1,-1,-1,-1,-1,-1,-1],"loss_changes":[1.1598866E1,2.0475039E1,1.2083997E1,1.4880879E1,3.797067E1,1.827451E1,1.3868243E1,0E0,9.420946E0,1.384506E1,1.5366837E1,1.3373707E1,1.2283221E1,1.4079185E1,1.3332674E1,5.3755903E0,1.2291927E0,5.348382E0,2.7031994E-1,0E0,0E0,2.0439384E1,1.1155073E1,3.4589477E0,1.0508997E1,5.338929E0,4.8476543E0,2.175213E1,2.2319988E1,1.403379E0,4.463999E0,0E0,0E0,0E0,2.1813636E0,0E0,0E0,6.5484886E0,1.1848958E0,5.3676834E0,6.5676913E0,8.4840775E-1,5.5663323E-1,1.7616948E-1,2.624054E-1,2.2826128E0,0E0,4.3504456E-1,3.8159695E0,2.2290815E1,2.3964827E1,3.0252954E1,1.276395E1,0E0,0E0,0E0,0E0,0E0,0E0,0E0,0E0,0E0,0E0,0E0,0E0,0E0,0E0,0E0,0E0,0E0,0E0,0E0,0E0,0E0,0E0,0E0,0E0,0E0,0E0,0E0,0E0,0E0,0E0,0E0,0E0,0E0,0E0,0E0,0E0],"parents":[2147483647,0,0,1,1,2,2,3,3,4,4,5,5,6,6,8,8,9,9,10,10,11,11,12,12,13,13,14,14,15,15,16,16,17,17,18,18,21,21,22,22,23,23,24,24,25,25,26,26,27,27,28,28,29,29,30,30,34,34,37,37,38,38,39,39,40,40,41,41,42,42,43,43,44,44,45,45,47,47,48,48,49,49,50,50,51,51,52,52],"right_children":[2,4,6,8,10,12,14,-1,16,18,20,22,24,26,28,30,32,34,36,-1,-1,38,40,42,44,46,48,50,52,54,56,-1,-1,-1,58,-1,-1,60,62,64,66,68,70,72,74,76,-1,78,80,82,84,86,88,-1,-1,-1,-1,-1,-1,-1,-1,-1,-1,-1,-1,-1,-1,-1,-1,-1,-1,-1,-1,-1,-1,-1,-1,-1,-1,-1,-1,-1,-1,-1,-1,-1,-1,-1,-1],"split_conditions":[-5.4842396E0,-2.1386564E-2,-4.4038925E0,-6.645332E0,2.0820184E0,2.2228265E0,-6.5502253E0,4.1562605E-1,5.7581253E0,6.655944E-1,5.3389444E0,1.1613729E0,2.0053792E0,-2.2321465E0,1.5059233E0,-2.4639595E0,-4.856653E0,-1.3537238E0,-1.0812296E0,1.107531E0,-8.463754E-2,5.2429914E0,-4.2171926E0,-8.784415E-2,4.5654058E-1,2.0623083E0,-2.079423E0,-7.5383824E-1,3.2683487E0,-2.4015026E0,-4.8303156E0,-8.138682E-2,-5.562756E-1,4.9115995E-1,2.1041713E0,-1.4318989E-1,-4.2903516E-1,-2.5726347E0,1.3460474E0,2.3879085E0,-1.888385E0,1.1019516E0,5.329375E0,2.1355586E0,-1.7760596E0,2.4892998E0,3.5636684E-1,-2.7477765E-1,-8.1488323E-1,-1.3300285E0,4.024299E0,-6.048618E-1,5.9020348E0,-2.8186437E-1,-2.677053E-2,-1.8986619E-1,1.3634048E-1,-2.1248857E-2,2.438696E-1,-7.492603E-2,-5.8167726E-1,2.0786761E-1,-3.2381523E-2,4.9984166E-1,-7.12046E-2,1.5307544E-1,-2.4404207E-1,-2.3950183E-1,-3.5084695E-2,1.1728164E-1,-4.5029163E-2,-4.7911968E-2,5.49475E-2,1.9026226E-1,7.269634E-1,8.582226E-2,-1.7731139E-1,-9.992635E-2,6.2501475E-2,-2.0344776E-1,-5.2510583E-1,-2.6920274E-1,2.8339172E-2,7.0360705E-2,3.6456344E-1,1.2474672E-1,-1.8827318E-1,2.8655466E-1,-4.0682264E-2],"split_indices":[6,12,46,33,10,57,7,0,29,46,0,24,39,18,13,50,2,55,1,0,0,26,59,15,40,58,26,38,5,9,13,0,0,0,37,0,0,14,8,0,20,5,23,2,1,19,0,2,33,55,49,46,5,0,0,0,0,0,0,0,0,0,0,0,0,0,0,0,0,0,0,0,0,0,0,0,0,0,0,0,0,0,0,0,0,0,0,0,0],"split_type":[0,0,0,0,0,0,0,0,0,0,0,0,0,0,0,0,0,0,0,0,0,0,0,0,0,0,0,0,0,0,0,0,0,0,0,0,0,0,0,0,0,0,0,0,0,0,0,0,0,0,0,0,0,0,0,0,0,0,0,0,0,0,0,0,0,0,0,0,0,0,0,0,0,0,0,0,0,0,0,0,0,0,0,0,0,0,0,0,0],"sum_hessian":[6.57E2,6.1E1,5.96E2,3.7E1,2.4E1,7.7E1,5.19E2,5E0,3.2E1,1.8E1,6E0,5.2E1,2.5E1,3.4E1,4.85E2,2.8E1,4E0,1.4E1,4E0,5E0,1E0,2.6E1,2.6E1,1.7E1,8E0,1.3E1,2.1E1,3.02E2,1.83E2,9E0,1.9E1,1E0,3E0,4E0,1E1,2E0,2E0,2E1,6E0,5E0,2.1E1,9E0,8E0,4E0,4E0,1E1,3E0,4E0,1.7E1,1.21E2,1.81E2,1.41E2,4.2E1,6E0,3E0,4E0,1.5E1,6E0,4E0,3E0,1.7E1,3E0,3E0,3E0,2E0,4E0,1.7E1,6E0,3E0,6E0,2E0,2E0,2E0,1E0,3E0,5E0,5E0,2E0,2E0,8E0,9E0,2.9E1,9.2E1,1.52E2,2.9E1,3.7E1,1.04E2,2.3E1,1.9E1],"tree_param":{"num_deleted":"0","num_feature":"60","num_nodes":"89","size_leaf_vector":"0"}},{"base_weights":[-2.7138935E-3,-1.5403697E-1,9.280615E-2,-1.1613549E0,-6.801835E-2,1.9815087E0,6.896535E-2,2.0959169E-1,-1.9156793E0,-1.3646284E-1,9.494946E-1,2.5089931E0,7.9352134E-1,1.9341729E0,4.5240603E-2,-1.9055706E-1,6.573797E-1,-2.5658393E0,-7.295194E-1,-4.7540662E-1,7.730088E-2,1.468026E0,3.1227642E-1,1.3930272E-1,3.0843186E0,4.2445228E-1,-6.1329257E-2,-7.1729675E-2,-3.329333E-1,-6.9981897E-1,-2.7324395E0,-1.1551415E0,-1.9365215E-1,3.0890328E-1,-4.3617657E-1,1.9004575E0,5.6048006E-1,5.3178054E-1,-6.121261E-1,-1.7760468E-1,3.8655874E-1,-8.9168794E-2,1.2676252E0,3.1236437E-1,-2.4878243E-1,-8.674889E-2,-1.3336003E-2,-8.757127E-2,-1.5654426E0,1.0266174E0,-3.4272778E-1,1.2625097E-1,1.3566595E0,2.1840625E-1,-7.271093E-1,5.691042E-1,1.5391923E-1,-2.0037384E0,5.9820566E-2,7.94617E-1,2.6464486E0,7.0283026E-1,2.6390087E-3,8.4278274E-1,-3.1434366E-1],"categories":[],"categories_nodes":[],"categories_segments":[],"categories_sizes":[],"default_left":[1,1,1,1,1,1,1,1,1,1,1,0,0,1,1,1,0,1,0,1,1,1,1,1,0,1,1,1,0,0,0,1,1,1,1,0,0,1,0,0,0,1,1,1,1,0,0,0,0,0,0,0,0,0,0,0,0,0,0,0,0,0,0,0,0],"id":20,"left_children":[1,3,5,7,9,11,13,15,17,19,21,-1,-1,23,25,27,-1,29,-1,31,33,35,37,39,-1,41,43,45,-1,-1,-1,47,49,51,53,-1,-1,55,-1,-1,-1,57,59,61,63,-1,-1,-1,-1,-1,-1,-1,-1,-1,-1,-1,-1,-1,-1,-1,-1,-1,-1,-1,-1],"loss_changes":[9.525282E0,2.2016272E1,1.8054728E1,2.1084278E1,1.6565355E1,1.1422844E0,1.761313E1,1.5587227E0,8.15369E0,1.6121511E1,4.497834E0,0E0,0E0,9.8921585E0,1.6029396E1,6.070979E-2,0E0,5.748215E-1,0E0,1.6246883E1,1.6427134E1,2.0744438E0,1.948798E0,3.0372643E-1,0E0,3.779024E1,2.1793228E1,2.3512263E-3,0E0,0E0,0E0,1.0813541E1,1.1630423E1,1.8009357E1,8.347706E0,0E0,0E0,1.1126041E-2,0E0,0E0,0E0,1.5808641E1,1.9419514E1,1.2575612E1,1.5078741E1,0E0,0E0,0E0,0E0,0E0,0E0,0E0,0E0,0E0,0E0,0E0,0E0,0E0,0E0,0E0,0E0,0E0,0E0,0E0,0E0],"parents":[2147483647,0,0,1,1,2,2,3,3,4,4,5,5,6,6,7,7,8,8,9,9,10,10,13,13,14,14,15,15,17,17,19,19,20,20,21,21,22,22,23,23,25,25,26,26,27,27,31,31,32,32,33,33,34,34,37,37,41,41,42,42,43,43,44,44],"right_children":[2,4,6,8,10,12,14,16,18,20,22,-1,-1,24,26,28,-1,30,-1,32,34,36,38,40,-1,42,44,46,-1,-1,-1,48,50,52,54,-1,-1,56,-1,-1,-1,58,60,62,64,-1,-1,-1,-1,-1,-1,-1,-1,-1,-1,-1,-1,-1,-1,-1,-1,-1,-1,-1,-1],"split_conditions":[-8.865967E-1,-6.5502253E0,-8.291817E-1,-2.747492E0,8.183422E0,-3.6474655E0,-8.68275E0,-1.8706148E0,1.3829379E0,-9.41973E-1,3.3554416E0,7.52698E-1,2.380564E-1,-2.8821087E-1,-2.3981798E0,5.5685506E0,1.9721392E-1,-5.7733736E0,-2.1885584E-1,-2.1176631E0,3.131324E0,1.9704601E-1,5.8198485E0,3.2239532E0,9.2529565E-1,1.0028296E0,-1.2631924E0,2.2622685E0,-9.9879995E-2,-2.099457E-1,-8.197319E-1,-8.441683E-1,-4.2449145E0,5.093633E0,-9.590306E-1,5.7013726E-1,1.6814402E-1,6.058901E0,-1.8363784E-1,-5.3281404E-2,1.15967624E-1,-6.8621273E0,-3.1721752E0,-2.7380726E-1,-7.068738E0,-2.6024668E-2,-4.000801E-3,-2.6271382E-2,-4.6963277E-1,3.0798525E-1,-1.0281834E-1,3.787529E-2,4.069979E-1,6.552187E-2,-2.1813281E-1,1.7073126E-1,4.617577E-2,-6.0112154E-1,1.794617E-2,2.3838511E-1,7.9393464E-1,2.1084909E-1,7.9170265E-4,2.5283483E-1,-9.43031E-2],"split_indices":[39,57,39,51,46,9,22,14,7,15,15,0,0,2,0,0,0,1,0,52,38,10,0,0,0,43,3,2,0,0,0,35,18,43,58,0,0,2,0,0,0,55,0,43,58,0,0,0,0,0,0,0,0,0,0,0,0,0,0,0,0,0,0,0,0],"split_type":[0,0,0,0,0,0,0,0,0,0,0,0,0,0,0,0,0,0,0,0,0,0,0,0,0,0,0,0,0,0,0,0,0,0,0,0,0,0,0,0,0,0,0,0,0,0,0,0,0,0,0,0,0,0,0,0,0,0,0,0,0,0,0,0,0],"sum_hessian":[6.57E2,2.54E2,4.03E2,1.9E1,2.35E2,4E0,3.99E2,7E0,1.2E1,2.21E2,1.4E1,2E0,2E0,4E0,3.95E2,4E0,3E0,7E0,5E0,8.5E1,1.36E2,7E0,7E0,2E0,2E0,8.6E1,3.09E2,3E0,1E0,1E0,6E0,2.4E1,6.1E1,9.4E1,4.2E1,4E0,3E0,6E0,1E0,1E0,1E0,5.4E1,3.2E1,1.03E2,2.06E2,2E0,1E0,7E0,1.7E1,6E0,5.5E1,8.1E1,1.3E1,1.3E1,2.9E1,5E0,1E0,3E0,5.1E1,2.5E1,7E0,4.5E1,5.8E1,1.1E1,1.95E2],"tree_param":{"num_deleted":"0","num_feature":"60","num_nodes":"65","size_leaf_vector":"0"}},{"base_weights":[1.7323594E-3,2.3353944E-2,-5.704109E-1,1.18038215E-1,-9.558785E-2,4.321022E-1,-1.3173561E0,3.6507774E-2,7.395631E-1,-1.599744E-2,-7.6361406E-1,1.0105397E-1,9.861731E-1,-7.4766797E-1,-1.952329E0,-2.9784283E-1,1.7217472E-1,9.095795E-1,-1.7171708E0,-9.4821244E-2,4.467259E-1,-1.0111008E0,1.0978248E0,-1.6957912E-1,2.9734963E-1,-1.3668877E-1,-8.0695426E-1,-4.0116668E-1,-2.1823282E0,-7.593945E-1,9.5817454E-2,6.2033E-1,6.534588E-2,1.0778395E-1,1.3063318E0,2.811952E-1,-2.3053458E-1,3.6445033E-2,1.0460415E0,-1.5435454E0,-4.822421E-1,3.2506967E-1,1.2470533E0,-1.4414778E0,-1.3326155E-1,-2.1691038E-1,6.1747396E-1,3.9588726E-1,1.7180514E0,-8.977786E-3,8.9341456E-1,-2.0578316E-1,9.4314754E-1,2.5910587E0,1.026104E0,7.2695047E-1,-2.2236225E-1,-4.6755338E-1,5.834474E-2,7.462646E-1,-3.9187637E-1,1.8132645E-1,1.2471098E0,-1.9330252E0,-1.8395922E-1,-7.9938656E-1,3.1192404E-1],"categories":[],"categories_nodes":[],"categories_segments":[],"categories_sizes":[],"default_left":[1,1,1,1,1,1,1,1,1,1,1,1,0,1,1,1,1,1,0,1,1,1,1,0,0,0,0,0,0,1,1,1,1,1,1,1,1,1,1,1,1,0,0,0,0,0,0,0,0,0,0,0,0,0,0,0,0,0,0,0,0,0,0,0,0,0,0],"id":21,"left_children":[1,3,5,7,9,11,13,15,17,19,21,23,-1,25,27,29,31,33,-1,35,37,39,41,-1,-1,-1,-1,-1,-1,43,45,47,49,51,53,55,57,59,61,63,65,-1,-1,-1,-1,-1,-1,-1,-1,-1,-1,-1,-1,-1,-1,-1,-1,-1,-1,-1,-1,-1,-1,-1,-1,-1,-1],"loss_changes":[8.153205E0,7.162601E0,1.854097E1,1.7911314E1,1.4981295E1,1.9180095E0,3.604618E0,1.4294424E1,1.8686989E1,9.2701845E0,1.4930452E1,4.754171E-1,0E0,2.1570301E-1,1.2651176E0,1.6606972E1,1.0683667E1,1.2265652E1,0E0,1.1138431E1,9.059723E0,6.858511E0,5.588913E-2,0E0,0E0,0E0,0E0,0E0,0E0,1.7745047E1,8.290761E0,9.913994E0,1.120923E1,3.861279E0,6.701725E0,1.3180521E1,1.0982453E1,7.2851543E0,2.3818684E0,6.5283127E0,4.0273285E0,0E0,0E0,0E0,0E0,0E0,0E0,0E0,0E0,0E0,0E0,0E0,0E0,0E0,0E0,0E0,0E0,0E0,0E0,0E0,0E0,0E0,0E0,0E0,0E0,0E0,0E0],"parents":[2147483647,0,0,1,1,2,2,3,3,4,4,5,5,6,6,7,7,8,8,9,9,10,10,11,11,13,13,14,14,15,15,16,16,17,17,19,19,20,20,21,21,22,22,29,29,30,30,31,31,32,32,33,33,34,34,35,35,36,36,37,37,38,38,39,39,40,40],"right_children":[2,4,6,8,10,12,14,16,18,20,22,24,-1,26,28,30,32,34,-1,36,38,40,42,-1,-1,-1,-1,-1,-1,44,46,48,50,52,54,56,58,60,62,64,66,-1,-1,-1,-1,-1,-1,-1,-1,-1,-1,-1,-1,-1,-1,-1,-1,-1,-1,-1,-1,-1,-1,-1,-1,-1,-1],"split_conditions":[9.352903E0,8.76513E-1,2.2994229E-1,2.3603332E-1,5.6715727E0,4.904171E0,2.7098274E0,-2.1204605E0,1.1240819E1,5.4273124E0,4.7810626E0,-1.3887887E0,2.9585195E-1,1.5202537E0,-2.0806565E0,-8.2304895E-1,-3.3271937E0,-1.616791E0,-5.1515126E-1,-1.6559799E0,1.0198066E-1,9.813785E-1,-3.177331E0,-5.0873738E-2,8.920489E-2,-4.1006632E-2,-2.4208629E-1,-1.2035001E-1,-6.546985E-1,4.3220878E-1,2.4708364E0,3.7486129E0,5.8148885E0,3.6044455E0,3.077132E-1,2.4256094E-1,5.6161064E-1,6.2324486E0,-2.304381E0,2.8760273E0,4.3410773E0,9.75209E-2,3.74116E-1,-4.3244335E-1,-3.9978467E-2,-6.507312E-2,1.8524219E-1,1.1876618E-1,5.1541543E-1,-2.6933358E-3,2.6802438E-1,-6.173495E-2,2.8294426E-1,7.7731764E-1,3.078312E-1,2.1808515E-1,-6.670868E-2,-1.4026602E-1,1.7503424E-2,2.2387938E-1,-1.1756291E-1,5.4397937E-2,3.7413293E-1,-5.799076E-1,-5.5187766E-2,-2.3981598E-1,9.357721E-2],"split_indices":[40,44,2,44,46,23,51,35,53,48,30,51,0,2,0,51,5,43,0,32,56,7,1,0,0,0,0,0,0,9,17,33,34,25,44,6,7,48,57,43,51,0,0,0,0,0,0,0,0,0,0,0,0,0,0,0,0,0,0,0,0,0,0,0,0,0,0],"split_type":[0,0,0,0,0,0,0,0,0,0,0,0,0,0,0,0,0,0,0,0,0,0,0,0,0,0,0,0,0,0,0,0,0,0,0,0,0,0,0,0,0,0,0,0,0,0,0,0,0,0,0,0,0,0,0,0,0,0,0,0,0,0,0,0,0,0,0],"sum_hessian":[6.57E2,6.34E2,2.3E1,3.53E2,2.81E2,1E1,1.3E1,3.13E2,4E1,2.52E2,2.9E1,7E0,3E0,8E0,5E0,9E1,2.23E2,3.8E1,2E0,2.16E2,3.6E1,2.6E1,3E0,3E0,4E0,1E0,7E0,1E0,4E0,4.1E1,4.9E1,4.2E1,1.81E2,1.3E1,2.5E1,5.7E1,1.59E2,2.2E1,1.4E1,1.2E1,1.4E1,1E0,2E0,1.9E1,2.2E1,3.1E1,1.8E1,3.6E1,6E0,1.67E2,1.4E1,1E1,3E0,3E0,2.2E1,3E1,2.7E1,8.7E1,7.2E1,8E0,1.4E1,3E0,1.1E1,9E0,3E0,1E1,4E0],"tree_param":{"num_deleted":"0","num_feature":"60","num_nodes":"67","size_leaf_vector":"0"}},{"base_weights":[2.5322023E-3,-1.0821801E0,1.0821238E-2,-1.4049841E0,-3.9864936E-1,1.9809347E-1,-4.3391045E-2,-1.6703619E-2,4.7691944E-1,-3.2678115E-1,2.6868245E-2,-2.1534824E-1,3.6746198E-1,-2.4824212E-1,7.886153E-1,-4.9883577E-1,4.9429503E-1,1.649629E-1,-1.7544423E-1,-2.5385914E-2,-5.839388E-1,7.2112495E-1,-1.0698441E-2,3.3345264E-1,-7.5448805E-1,2.853268E-1,1.2171041E0,9.516979E-1,-6.026885E-1,9.3275154E-1,-4.780055E-2,2.1761002E-1,-7.832253E-1,1.5259886E0,-2.3776194E-1,-2.3275171E-1,2.4446312E-1,-1.0463663E-1,-1.004847E0,9.359945E-1,1.0418697E-1,-1.7569068E-1,3.5442418E-1,7.020732E-2,9.242893E-1,-9.948649E-2,-1.1145624E0,-3.226436E-1,5.3348094E-1,1.6062579E0,2.3801412E-1,1.5645801E0,-1.8271096E-1,-7.630852E-1,3.564498E-1,1.5368466E-1,1.1083077E0,4.1841644E-1,-5.044574E-1,1.5941833E-1,1.6352919E0,-1.9359922E0,-5.5774167E-2,4.4209403E-1,2.4625185E0,-3.471177E-1,5.0780576E-1],"categories":[],"categories_nodes":[],"categories_segments":[],"categories_sizes":[],"default_left":[1,1,1,0,0,1,1,1,1,1,1,1,1,1,1,1,1,1,1,1,1,1,1,1,1,1,1,1,1,1,1,1,1,1,1,0,0,0,0,0,0,0,0,0,0,0,0,0,0,0,0,0,0,0,0,0,0,0,0,0,0,0,0,0,0,0,0],"id":22,"left_children":[1,3,5,-1,-1,7,9,11,13,15,17,19,21,23,25,27,29,31,33,35,37,39,41,43,45,47,49,51,53,55,57,59,61,63,65,-1,-1,-1,-1,-1,-1,-1,-1,-1,-1,-1,-1,-1,-1,-1,-1,-1,-1,-1,-1,-1,-1,-1,-1,-1,-1,-1,-1,-1,-1,-1,-1],"loss_changes":[5.9279327E0,5.431366E-1,6.6483016E0,0E0,0E0,8.811944E0,1.0123461E1,6.4893765E0,1.4661676E1,1.4514837E1,1.1427756E1,3.9062018E0,3.8862135E0,6.1411986E0,9.357134E0,1.3227495E1,4.322922E0,1.2300845E1,1.7963703E1,2.1832829E0,3.7279587E0,1.8908987E0,9.659051E-1,1.4904579E0,2.4834576E0,3.4912722E0,8.762085E0,4.45742E0,1.2425564E1,1.1973705E0,2.127184E0,1.8796185E1,1.0793582E1,5.001931E0,1.3302939E1,0E0,0E0,0E0,0E0,0E0,0E0,0E0,0E0,0E0,0E0,0E0,0E0,0E0,0E0,0E0,0E0,0E0,0E0,0E0,0E0,0E0,0E0,0E0,0E0,0E0,0E0,0E0,0E0,0E0,0E0,0E0,0E0],"parents":[2147483647,0,0,1,1,2,2,5,5,6,6,7,7,8,8,9,9,10,10,11,11,12,12,13,13,14,14,15,15,16,16,17,17,18,18,19,19,20,20,21,21,22,22,23,23,24,24,25,25,26,26,27,27,28,28,29,29,30,30,31,31,32,32,33,33,34,34],"right_children":[2,4,6,-1,-1,8,10,12,14,16,18,20,22,24,26,28,30,32,34,36,38,40,42,44,46,48,50,52,54,56,58,60,62,64,66,-1,-1,-1,-1,-1,-1,-1,-1,-1,-1,-1,-1,-1,-1,-1,-1,-1,-1,-1,-1,-1,-1,-1,-1,-1,-1,-1,-1,-1,-1,-1,-1],"split_conditions":[-1.5808245E1,4.8256083E0,-2.6019897E0,-4.2149526E-1,-1.1959481E-1,-4.727831E0,-8.837255E-1,3.4496799E0,-2.0391433E0,4.2809744E0,1.2804554E0,2.888667E-1,5.9150615E0,6.899612E-1,1.0028296E0,-7.1907616E0,9.7299635E-1,8.437502E0,-8.68275E0,-2.8185433E-1,-5.6323665E-1,2.2038052E0,1.1882994E0,2.7494242E0,-3.0066314E0,-1.2274334E0,1.2829809E0,1.9461911E0,4.803769E0,-9.364941E-1,-9.211695E-2,8.665504E0,-1.6711065E0,1.5796294E0,6.4781427E0,-6.9825515E-2,7.333894E-2,-3.139099E-2,-3.0145413E-1,2.8079838E-1,3.125609E-2,-5.2707206E-2,1.0632726E-1,2.1062197E-2,2.772868E-1,-2.984595E-2,-3.3436874E-1,-9.6793085E-2,1.6004428E-1,4.818774E-1,7.140424E-2,4.6937403E-1,-5.4813292E-2,-2.2892557E-1,1.0693495E-1,4.61054E-2,3.3249232E-1,1.2552494E-1,-1.5133724E-1,4.78255E-2,4.905876E-1,-5.807977E-1,-1.6732251E-2,1.3262822E-1,7.387556E-1,-1.0413531E-1,1.5234174E-1],"split_indices":[56,5,38,0,0,38,38,20,28,7,13,20,20,46,27,56,33,47,22,36,2,19,58,10,18,36,42,3,51,4,17,41,58,12,23,0,0,0,0,0,0,0,0,0,0,0,0,0,0,0,0,0,0,0,0,0,0,0,0,0,0,0,0,0,0,0,0],"split_type":[0,0,0,0,0,0,0,0,0,0,0,0,0,0,0,0,0,0,0,0,0,0,0,0,0,0,0,0,0,0,0,0,0,0,0,0,0,0,0,0,0,0,0,0,0,0,0,0,0,0,0,0,0,0,0,0,0,0,0,0,0,0,0,0,0,0,0],"sum_hessian":[6.57E2,4E0,6.53E2,2E0,2E0,1.46E2,5.07E2,8.3E1,6.3E1,1E2,4.07E2,5.5E1,2.8E1,1.9E1,4.4E1,8.3E1,1.7E1,2.42E2,1.65E2,3.7E1,1.8E1,1.4E1,1.4E1,9E0,1E1,2.1E1,2.3E1,5E0,7.8E1,9E0,8E0,2.3E2,1.2E1,5E0,1.6E2,2.1E1,1.6E1,9E0,9E0,1E1,4E0,1E1,4E0,7E0,2E0,4E0,6E0,6E0,1.5E1,1.6E1,7E0,3E0,2E0,6.7E1,1.1E1,2E0,7E0,4E0,4E0,2.22E2,8E0,4E0,8E0,3E0,2E0,1.4E2,2E1],"tree_param":{"num_deleted":"0","num_feature":"60","num_nodes":"67","size_leaf_vector":"0"}},{"base_weights":[4.1308347E-3,-6.8723226E-1,1.6947258E-2,-1.1192868E0,9.820269E-1,6.471658E-2,-1.7915325E-1,-1.48251E0,-2.0382446E-1,1.4085442E-1,-1.4553887E-1,-3.056736E-1,4.740291E-1,8.899927E-2,-3.310988E-1,-8.7757625E-2,2.3329061E-1,-2.2678022E-1,6.5932196E-1,-5.9674156E-1,-1.0078822E-1,8.414859E-1,-3.8109678E-1,5.997914E-1,-2.4545841E-1,1.2602909E-1,5.547992E-1,1.7081794E-1,-3.921352E-1,9.516969E-2,1.301638E0,-1.6782741E-1,-1.0180272E0,-3.408994E-1,3.1360123E-1,3.73991E-1,1.4803964E0,2.7263414E-3,-5.351713E-1,-3.5166144E-3,1.0525655E0,1.8927546E-1,-4.518545E-1,3.3211935E-1,-1.5968196E-1,4.0159103E-1,2.0710185E0,-3.467024E-1,4.5379663E-1,1.6155037E-1,-6.195942E-1,4.95858E-1,-2.444149E-1,1.6569502E0,3.9400902E-1,3.7808287E-1,-3.827418E-1,-7.076361E-2,-1.4553659E0,-1.0122154E0,-1.20460056E-1,-5.11105E-1,5.040977E-1,5.165807E-1,1.9283445E-1,1.5887809E-1,1.7129245E0,5.402422E-2,-4.9934708E-2],"categories":[],"categories_nodes":[],"categories_segments":[],"categories_sizes":[],"default_left":[1,1,1,1,0,1,1,0,1,1,1,1,1,0,0,1,1,1,1,1,1,1,1,1,1,1,1,1,1,1,1,1,1,1,1,1,1,1,0,0,0,0,0,0,0,0,0,0,0,0,0,0,0,0,0,0,0,0,0,0,0,0,0,0,0,0,0,0,0],"id":23,"left_children":[1,3,5,7,-1,9,11,-1,13,15,17,19,21,-1,-1,23,25,27,29,31,33,35,37,39,41,43,45,47,49,51,53,55,57,59,61,63,65,67,-1,-1,-1,-1,-1,-1,-1,-1,-1,-1,-1,-1,-1,-1,-1,-1,-1,-1,-1,-1,-1,-1,-1,-1,-1,-1,-1,-1,-1,-1,-1],"loss_changes":[5.842054E0,9.753701E0,6.072424E0,3.0229988E0,0E0,8.360873E0,1.06402855E1,0E0,1.7854334E-1,8.11404E0,9.238451E0,6.320862E0,6.9193463E0,0E0,0E0,1.2182624E1,9.34462E0,8.416578E0,4.5868564E0,7.779743E0,6.474877E0,3.9266558E0,4.1542053E-1,5.7401085E0,8.250716E0,1.218278E1,1.4964504E1,5.7223263E0,1.1434765E1,1.2097358E0,1.2820978E0,2.8431597E0,9.011065E0,5.9454317E0,4.0281343E0,1.5869606E-1,1.5715942E0,1.0801884E-2,0E0,0E0,0E0,0E0,0E0,0E0,0E0,0E0,0E0,0E0,0E0,0E0,0E0,0E0,0E0,0E0,0E0,0E0,0E0,0E0,0E0,0E0,0E0,0E0,0E0,0E0,0E0,0E0,0E0,0E0,0E0],"parents":[2147483647,0,0,1,1,2,2,3,3,5,5,6,6,8,8,9,9,10,10,11,11,12,12,15,15,16,16,17,17,18,18,19,19,20,20,21,21,22,22,23,23,24,24,25,25,26,26,27,27,28,28,29,29,30,30,31,31,32,32,33,33,34,34,35,35,36,36,37,37],"right_children":[2,4,6,8,-1,10,12,-1,14,16,18,20,22,-1,-1,24,26,28,30,32,34,36,38,40,42,44,46,48,50,52,54,56,58,60,62,64,66,68,-1,-1,-1,-1,-1,-1,-1,-1,-1,-1,-1,-1,-1,-1,-1,-1,-1,-1,-1,-1,-1,-1,-1,-1,-1,-1,-1,-1,-1,-1,-1],"split_conditions":[-1.2364861E1,7.8600855E0,4.1908073E0,3.12004E0,2.946081E-1,2.7950125E0,5.1180573E0,-4.4475302E-1,-1.1602894E0,-1.9314167E0,5.7848797E0,-4.4980395E-1,8.115709E0,2.6699783E-2,-9.932964E-2,-3.151466E0,2.7492995E0,-2.1702542E0,3.017898E0,2.2983137E-1,1.741719E0,6.850575E-1,9.9435425E-1,1.1208308E0,-2.0581615E0,8.063916E-1,5.3472233E0,-1.698796E0,-2.2031362E0,-1.0880011E0,-2.278975E0,-1.1268952E0,-1.2150003E0,-3.4407961E0,-4.1135616E0,-1.829207E0,-1.801591E0,-2.6535225E0,-1.6055138E-1,-1.0549844E-3,3.1576964E-1,5.678264E-2,-1.3555636E-1,9.963581E-2,-4.7904592E-2,1.2047731E-1,6.213056E-1,-1.0401072E-1,1.3613899E-1,4.8465114E-2,-1.8587828E-1,1.4875741E-1,-7.332447E-2,4.970851E-1,1.1820271E-1,1.1342487E-1,-1.14822544E-1,-2.1229085E-2,-4.3660977E-1,-3.0366462E-1,-3.6138017E-2,-1.533315E-1,1.5122932E-1,1.5497422E-1,5.785034E-2,4.7663428E-2,5.138774E-1,1.6207267E-2,-1.4980413E-2],"split_indices":[57,55,18,2,0,17,47,0,0,4,54,45,47,0,0,57,53,9,50,32,46,29,2,33,42,26,58,41,49,11,3,10,28,17,14,19,1,0,0,0,0,0,0,0,0,0,0,0,0,0,0,0,0,0,0,0,0,0,0,0,0,0,0,0,0,0,0,0,0],"split_type":[0,0,0,0,0,0,0,0,0,0,0,0,0,0,0,0,0,0,0,0,0,0,0,0,0,0,0,0,0,0,0,0,0,0,0,0,0,0,0,0,0,0,0,0,0,0,0,0,0,0,0,0,0,0,0,0,0,0,0,0,0,0,0,0,0,0,0,0,0],"sum_hessian":[6.57E2,1.1E1,6.46E2,9E0,2E0,5.2E2,1.26E2,6E0,3E0,3.82E2,1.38E2,1.06E2,2E1,1E0,2E0,1.1E2,2.72E2,1.26E2,1.2E1,4.3E1,6.3E1,1.4E1,6E0,2E1,9E1,2.05E2,6.7E1,3.7E1,8.9E1,7E0,5E0,2.2E1,2.1E1,4E1,2.3E1,9E0,5E0,2E0,4E0,9E0,1.1E1,2.9E1,6.1E1,1.19E2,8.6E1,6.2E1,5E0,1.3E1,2.4E1,2.6E1,6.3E1,3E0,4E0,3E0,2E0,6E0,1.6E1,7E0,1.4E1,9E0,3.1E1,4E0,1.9E1,4E0,5E0,1E0,4E0,1E0,1E0],"tree_param":{"num_deleted":"0","num_feature":"60","num_nodes":"69","size_leaf_vector":"0"}},{"base_weights":[4.7244453E-3,3.9939177E-1,-1.4106627E-2,1.0038626E0,-1.2190143E-1,4.071303E-2,-1.7917408E-1,1.5540069E0,5.2555954E-1,1.4161742E-1,-4.360623E-1,-1.1624362E-1,1.2596074E-1,1.3953751E-1,-3.523964E-1,4.333644E-1,1.6914625E0,-4.0413205E-2,6.9303936E-1,-1.3378759E-1,3.4751868E-1,1.1586368E-2,-5.016673E-1,1.9299804E-1,-2.3189011E-1,1.0564642E0,8.1222616E-2,-2.3291823E-1,9.387729E-1,-5.8569753E-1,-5.163904E-3,-1.7953855E-1,1.1891874E-1,9.263423E-1,4.1444966E-1,-2.5405252E-1,-4.020822E-2,4.1938618E-1,-5.909443E-3,4.3549487E-1,-2.462904E-1,1.15658864E-1,-3.787206E-1,4.8351258E-1,1.5603426E0,-7.0703335E-2,2.9599285E-1,3.0036148E-1,-6.586508E-1,2.126009E0,1.679874E-1,-1.0418545E0,-1.6708387E-1,1.5793996E0,-1.6755083E-1,-8.4815025E-3,-4.7956627E-2,-1.23425454E-1,6.809096E-1,3.4605853E-2,-4.4637838E-1,-3.7622336E-2,5.332803E-1,-5.2772605E-1,1.7449465E-1,5.555552E-1,-1.0392904E-2,3.3123893E-1,-2.2769907E-1,-5.941066E-1,3.8077053E-1,7.391631E-1,-1.24596104E-1,2.529736E-1,-1.0163208E0,3.099861E-1,2.377015E0,-3.762282E-1,3.9119574E-1,-1.2824085E0,9.400392E-2,-6.4119726E-1,3.767364E-1,-6.40311E-1,6.628002E-2],"categories":[],"categories_nodes":[],"categories_segments":[],"categories_sizes":[],"default_left":[1,1,1,1,1,1,1,1,1,1,1,1,1,1,1,0,0,1,1,1,1,0,0,1,1,1,1,1,1,1,1,0,0,0,0,0,1,0,0,1,1,1,1,1,0,1,1,1,1,1,1,1,1,0,1,0,0,0,0,0,0,0,0,0,0,0,0,0,0,0,0,0,0,0,0,0,0,0,0,0,0,0,0,0,0],"id":24,"left_children":[1,3,5,7,9,11,13,15,17,19,21,23,25,27,29,-1,-1,31,33,35,37,-1,-1,39,41,43,45,47,49,51,53,-1,-1,-1,-1,-1,55,-1,-1,57,59,61,63,65,-1,67,69,71,73,75,77,79,81,-1,83,-1,-1,-1,-1,-1,-1,-1,-1,-1,-1,-1,-1,-1,-1,-1,-1,-1,-1,-1,-1,-1,-1,-1,-1,-1,-1,-1,-1,-1,-1],"loss_changes":[4.895896E0,9.575569E0,5.6990786E0,2.867177E0,1.4691384E0,6.343475E0,8.716822E0,1.912117E-1,8.81109E-1,6.135561E-1,2.4075639E-1,6.0171275E0,1.2694288E1,1.6888727E1,8.259969E0,0E0,0E0,8.785184E-2,7.104826E-2,4.6056576E-2,1.5487832E-1,0E0,0E0,5.0074573E0,6.269559E0,3.2873268E0,9.613904E0,9.052181E0,1.6114735E1,1.1474087E1,1.1071751E1,0E0,0E0,0E0,0E0,0E0,5.7658134E-4,0E0,0E0,4.199059E0,9.709147E-1,2.3885636E0,7.181245E0,2.9043186E-1,0E0,1.0992281E1,9.432409E0,3.448594E0,7.430437E0,2.453991E0,1.6048603E0,8.044376E0,8.750033E0,0E0,4.35373E0,0E0,0E0,0E0,0E0,0E0,0E0,0E0,0E0,0E0,0E0,0E0,0E0,0E0,0E0,0E0,0E0,0E0,0E0,0E0,0E0,0E0,0E0,0E0,0E0,0E0,0E0,0E0,0E0,0E0,0E0],"parents":[2147483647,0,0,1,1,2,2,3,3,4,4,5,5,6,6,7,7,8,8,9,9,10,10,11,11,12,12,13,13,14,14,17,17,18,18,19,19,20,20,23,23,24,24,25,25,26,26,27,27,28,28,29,29,30,30,36,36,39,39,40,40,41,41,42,42,43,43,45,45,46,46,47,47,48,48,49,49,50,50,51,51,52,52,54,54],"right_children":[2,4,6,8,10,12,14,16,18,20,22,24,26,28,30,-1,-1,32,34,36,38,-1,-1,40,42,44,46,48,50,52,54,-1,-1,-1,-1,-1,56,-1,-1,58,60,62,64,66,-1,68,70,72,74,76,78,80,82,-1,84,-1,-1,-1,-1,-1,-1,-1,-1,-1,-1,-1,-1,-1,-1,-1,-1,-1,-1,-1,-1,-1,-1,-1,-1,-1,-1,-1,-1,-1,-1],"split_conditions":[-7.775764E0,4.6155475E-2,3.131324E0,1.2484217E0,3.631891E-1,-1.0477887E0,-1.0980918E0,-7.8240805E0,-2.0956023E0,-3.307769E0,-2.7999935E0,-1.632679E0,-6.50445E0,2.4823365E0,1.5907307E0,1.3000932E-1,5.074388E-1,-4.8500185E0,-2.437398E0,-9.6133566E-1,9.487888E-1,3.4759105E-3,-1.5050021E-1,2.8293648E0,-3.044509E0,-1.7829363E0,1.0204263E0,-1.7375238E0,4.639592E0,2.740154E-1,-4.030415E0,-5.3861566E-2,3.5675623E-2,2.779027E-1,1.243349E-1,-7.621576E-2,1.6527227E-1,1.2581585E-1,-1.7728329E-3,-1.2250062E0,-1.7233913E0,2.3558884E0,3.4663525E0,2.7488887E0,4.6810278E-1,-1.7613516E0,-3.9609787E0,2.593894E-1,-1.4101198E0,-2.0659423E0,-1.4734523E0,4.725646E0,7.17203E-1,4.7381988E-1,6.923489E-2,-2.5444508E-3,-1.4386988E-2,-3.702764E-2,2.0427288E-1,1.0381756E-2,-1.3391352E-1,-1.1286701E-2,1.599841E-1,-1.5831782E-1,5.2348398E-2,1.6666657E-1,-3.1178715E-3,9.937168E-2,-6.8309724E-2,-1.7823198E-1,1.1423116E-1,2.2174893E-1,-3.7378833E-2,7.5892076E-2,-3.0489627E-1,9.299584E-2,7.1310455E-1,-1.12868465E-1,1.1735873E-1,-3.8472256E-1,2.8201178E-2,-1.923592E-1,1.1302093E-1,-1.9209331E-1,1.9884007E-2],"split_indices":[29,0,38,17,19,28,10,3,20,22,6,45,58,50,48,0,0,0,16,1,2,0,0,39,38,21,27,14,50,23,0,0,0,0,0,0,1,0,0,24,13,34,26,1,0,18,34,57,7,1,3,32,40,0,8,0,0,0,0,0,0,0,0,0,0,0,0,0,0,0,0,0,0,0,0,0,0,0,0,0,0,0,0,0,0],"split_type":[0,0,0,0,0,0,0,0,0,0,0,0,0,0,0,0,0,0,0,0,0,0,0,0,0,0,0,0,0,0,0,0,0,0,0,0,0,0,0,0,0,0,0,0,0,0,0,0,0,0,0,0,0,0,0,0,0,0,0,0,0,0,0,0,0,0,0,0,0,0,0,0,0,0,0,0,0,0,0,0,0,0,0,0,0],"sum_hessian":[6.57E2,2.9E1,6.28E2,1.3E1,1.6E1,4.72E2,1.56E2,5E0,8E0,9E0,7E0,1.66E2,3.06E2,5.5E1,1.01E2,1E0,4E0,2E0,6E0,4E0,5E0,1E0,6E0,4.5E1,1.21E2,1.3E1,2.93E2,3.8E1,1.7E1,6E1,4.1E1,1E0,1E0,2E0,4E0,1E0,3E0,4E0,1E0,2.9E1,1.6E1,3.6E1,8.5E1,7E0,6E0,1.72E2,1.21E2,1.7E1,2.1E1,6E0,1.1E1,2.8E1,3.2E1,3E0,3.8E1,1E0,2E0,9E0,2E1,7E0,9E0,2.7E1,9E0,6.7E1,1.8E1,6E0,1E0,4.8E1,1.24E2,1E1,1.11E2,8E0,9E0,6E0,1.5E1,1E0,5E0,3E0,8E0,2.3E1,5E0,1.7E1,1.5E1,1.2E1,2.6E1],"tree_param":{"num_deleted":"0","num_feature":"60","num_nodes":"85","size_leaf_vector":"0"}},{"base_weights":[6.6843787E-3,2.1539416E-2,-3.8663366E-1,3.163468E-2,-6.1257815E-1,2.1721688E-1,-8.33471E-1,-1.07116655E-1,8.235057E-2,-1.587828E0,-3.2779172E-1,4.6772394E-2,6.561447E-1,-1.6322174E0,-5.643285E-1,-2.486778E-1,1.963398E-1,5.452578E-1,4.166518E-2,4.7337174E-2,-4.4173387E-1,1.7375423E-1,-8.956392E-2,6.208819E-2,-6.269198E-1,-3.292654E-1,5.4317445E-1,-2.395266E-1,3.7012243E-1,-9.5064E-2,1.0942845E0,-2.0355064E-2,3.4943253E-1,1.1473316E-1,-4.3727398E-2,1.9505455E-1,4.4276476E-2,-2.4301738E-2,-1.2497146E-1,-6.7313343E-1,-8.239174E-2,2.565266E-2,-5.4807115E-1,1.0027485E0,1.3731095E-1,-6.384699E-1,2.3922542E-1,5.812891E-1,9.146744E-2,-5.880392E-1,2.0042688E-1,1.858571E0,1.4414081E-1,-2.1236901E-1,6.743878E-2,-7.3208106E-1,4.249271E-1],"categories":[],"categories_nodes":[],"categories_segments":[],"categories_sizes":[],"default_left":[1,1,1,1,1,1,1,1,1,0,1,1,0,0,1,1,1,1,1,1,0,1,1,0,1,1,1,1,1,1,1,1,1,0,0,0,0,0,0,0,0,0,0,0,0,0,0,0,0,0,0,0,0,0,0,0,0],"id":25,"left_children":[1,3,5,7,9,11,13,15,17,-1,19,21,-1,-1,23,25,27,29,31,33,-1,35,37,-1,39,41,43,45,47,49,51,53,55,-1,-1,-1,-1,-1,-1,-1,-1,-1,-1,-1,-1,-1,-1,-1,-1,-1,-1,-1,-1,-1,-1,-1,-1],"loss_changes":[3.8528602E0,4.084385E0,6.6567955E0,4.4139185E0,2.2569025E0,7.9225165E-1,2.0885668E0,7.26571E0,8.621885E0,0E0,4.0559733E-1,1.713722E-1,0E0,0E0,5.0942373E-1,7.5173974E0,4.178939E0,1.3111515E1,8.081255E0,2.3429142E-2,0E0,5.1532537E-3,8.516844E-3,0E0,2.213502E-1,8.168162E0,1.914079E0,3.2086568E0,2.2416945E0,2.739913E0,1.4255747E1,5.96507E0,6.108116E0,0E0,0E0,0E0,0E0,0E0,0E0,0E0,0E0,0E0,0E0,0E0,0E0,0E0,0E0,0E0,0E0,0E0,0E0,0E0,0E0,0E0,0E0,0E0,0E0],"parents":[2147483647,0,0,1,1,2,2,3,3,4,4,5,5,6,6,7,7,8,8,10,10,11,11,14,14,15,15,16,16,17,17,18,18,19,19,21,21,22,22,24,24,25,25,26,26,27,27,28,28,29,29,30,30,31,31,32,32],"right_children":[2,4,6,8,10,12,14,16,18,-1,20,22,-1,-1,24,26,28,30,32,34,-1,36,38,-1,40,42,44,46,48,50,52,54,56,-1,-1,-1,-1,-1,-1,-1,-1,-1,-1,-1,-1,-1,-1,-1,-1,-1,-1,-1,-1,-1,-1,-1,-1],"split_conditions":[9.352903E0,1.2000842E1,2.2994229E-1,-2.1030874E0,-4.375502E0,4.1587715E0,9.8063965E0,1.9233074E0,-1.4534316E0,-4.7634843E-1,5.3449774E-1,1.9298751E0,1.9684342E-1,-4.8966524E-1,-5.3151083E0,5.832368E0,-1.1887126E0,-2.1543573E-1,4.4299307E0,7.7065516E0,-1.3252017E-1,5.0571175E0,1.3509243E0,1.8626459E-2,7.0452137E0,-7.981728E-1,1.763927E0,3.3455343E0,-5.8231857E-2,-1.2782295E0,4.313713E0,5.3104925E-1,-6.447414E0,3.441995E-2,-1.311822E-2,5.8516365E-2,1.32829435E-2,-7.2905216E-3,-3.7491437E-2,-2.0194004E-1,-2.4717523E-2,7.6957983E-3,-1.6442135E-1,3.0082455E-1,4.1193288E-2,-1.9154097E-1,7.176763E-2,1.7438674E-1,2.7440233E-2,-1.7641178E-1,6.0128067E-2,5.5757135E-1,4.3242246E-2,-6.3710704E-2,2.0231634E-2,-2.1962433E-1,1.2747814E-1],"split_indices":[40,28,2,56,0,15,40,9,56,0,11,53,0,0,0,17,4,6,31,0,0,3,6,0,3,5,57,7,30,24,49,56,43,0,0,0,0,0,0,0,0,0,0,0,0,0,0,0,0,0,0,0,0,0,0,0,0],"split_type":[0,0,0,0,0,0,0,0,0,0,0,0,0,0,0,0,0,0,0,0,0,0,0,0,0,0,0,0,0,0,0,0,0,0,0,0,0,0,0,0,0,0,0,0,0,0,0,0,0,0,0,0,0,0,0,0,0],"sum_hessian":[6.57E2,6.34E2,2.3E1,6.25E2,9E0,1E1,1.3E1,1.67E2,4.58E2,1E0,8E0,8E0,2E0,2E0,1.1E1,1.14E2,5.3E1,3.6E1,4.22E2,2E0,6E0,4E0,4E0,1E0,1E1,1.04E2,1E1,1.5E1,3.8E1,1.7E1,1.9E1,3.52E2,7E1,1E0,1E0,3E0,1E0,2E0,2E0,9E0,1E0,4E1,6.4E1,4E0,6E0,8E0,7E0,2.1E1,1.7E1,6E0,1.1E1,1E1,9E0,1.1E2,2.42E2,4E0,6.6E1],"tree_param":{"num_deleted":"0","num_feature":"60","num_nodes":"57","size_leaf_vector":"0"}},{"base_weights":[4.0025325E-3,-2.5543587E-2,1.8605305E-1,4.5711873E-3,-2.8491437E-1,8.466448E-3,5.1876336E-1,-5.6626152E-2,1.5141433E-1,2.7682784E-1,-4.496856E-1,3.8071322E-1,-1.9648093E-1,6.843747E-1,1.9492626E-2,2.3719078E-1,-1.1736202E-1,4.6437705E-1,-1.9386066E-2,4.3537706E-1,-4.49645E-1,8.246802E-2,-7.362498E-1,9.447683E-1,1.1014454E-1,-7.2992903E-1,-8.087453E-2,7.6950717E-1,-1.6805474E-1,-2.8381962E-1,3.1890637E-1,1.5056936E-1,1.8905557E0,-6.0632694E-1,-1.4363879E-2,8.772162E-1,1.1862647E-1,-2.7986693E-1,2.5777873E-1,5.120144E-1,3.4793537E-2,3.320281E-1,-3.2147893E-1,-1.2740613E0,-4.827701E-1,1.0968306E0,3.7640843E-1,5.6705016E-1,-8.941152E-2,-9.924545E-1,-4.9076874E-2,1.5191411E-2,-4.5358482E-1,1.0408962E0,4.034913E-1,-3.119461E-1,-8.565688E-2,-1.6159986E-1,5.1310563E-1,-9.9809164E-1,-2.0661555E-1,1.8285036E-1,-2.130527E-1,1.1359259E0,8.6646155E-2,-1.4588638E-1,8.642726E-1,-3.7021497E-1,1.2891062E0,5.326349E-1,-1.639433E-2,1.0732186E-1,-5.5131555E-2,-8.777364E-2,4.3506998E-1,-2.6401877E-2,-3.6625814E-1,-3.5000318E-1,-1.6777565E0,-5.7098097E-3,-6.6131085E-1,9.769761E-2,-2.928036E-1,4.0801287E-2,-1.144166E-1,-8.606646E-2,3.3126023E-1,-4.7594428E-2,-6.0646206E-1,1.1132864E0,4.526298E-1,2.3282775E-1,5.617219E-1],"categories":[],"categories_nodes":[],"categories_segments":[],"categories_sizes":[],"default_left":[1,1,1,1,1,1,1,1,1,1,1,1,1,1,1,1,1,1,1,1,0,1,1,1,1,1,1,1,0,1,0,1,0,1,1,1,1,1,1,0,1,1,1,1,1,0,0,0,1,0,1,1,1,1,1,0,0,0,0,0,0,0,0,0,0,0,0,0,0,0,0,0,0,0,0,0,0,0,0,0,0,0,0,0,0,0,0,0,0,0,0,0,0],"id":26,"left_children":[1,3,5,7,9,11,13,15,17,19,21,23,25,27,29,31,33,35,37,39,-1,41,43,45,47,49,51,53,-1,55,-1,57,-1,59,61,63,65,67,69,-1,71,73,75,77,79,-1,-1,-1,81,-1,83,85,87,89,91,-1,-1,-1,-1,-1,-1,-1,-1,-1,-1,-1,-1,-1,-1,-1,-1,-1,-1,-1,-1,-1,-1,-1,-1,-1,-1,-1,-1,-1,-1,-1,-1,-1,-1,-1,-1,-1,-1],"loss_changes":[3.5440595E0,4.4300785E0,5.4314175E0,4.5826564E0,5.585464E0,4.728554E0,2.632578E0,6.452119E0,8.027125E0,1.808309E0,7.0755405E0,3.2534826E0,2.4077678E0,1.870985E0,9.0785456E-1,8.594784E0,1.5049673E1,7.4611273E0,7.1473646E0,3.5058117E-1,0E0,1.8204936E0,3.4746513E0,1.9212627E-1,1.5095534E0,1.2024808E0,1.2242527E0,1.7653255E0,0E0,1.1477768E-3,0E0,6.873277E0,0E0,7.9366035E0,9.756655E0,4.810251E0,6.0430746E0,7.706681E0,3.625924E0,0E0,2.5483169E-2,5.140165E-1,8.282328E-2,2.7701206E0,1.8700676E0,0E0,0E0,0E0,4.852844E-1,0E0,2.2286186E-2,9.246352E-1,4.0560257E-1,7.1105957E-3,1.6626167E-1,0E0,0E0,0E0,0E0,0E0,0E0,0E0,0E0,0E0,0E0,0E0,0E0,0E0,0E0,0E0,0E0,0E0,0E0,0E0,0E0,0E0,0E0,0E0,0E0,0E0,0E0,0E0,0E0,0E0,0E0,0E0,0E0,0E0,0E0,0E0,0E0,0E0,0E0],"parents":[2147483647,0,0,1,1,2,2,3,3,4,4,5,5,6,6,7,7,8,8,9,9,10,10,11,11,12,12,13,13,14,14,15,15,16,16,17,17,18,18,19,19,21,21,22,22,23,23,24,24,25,25,26,26,27,27,29,29,31,31,33,33,34,34,35,35,36,36,37,37,38,38,40,40,41,41,42,42,43,43,44,44,48,48,50,50,51,51,52,52,53,53,54,54],"right_children":[2,4,6,8,10,12,14,16,18,20,22,24,26,28,30,32,34,36,38,40,-1,42,44,46,48,50,52,54,-1,56,-1,58,-1,60,62,64,66,68,70,-1,72,74,76,78,80,-1,-1,-1,82,-1,84,86,88,90,92,-1,-1,-1,-1,-1,-1,-1,-1,-1,-1,-1,-1,-1,-1,-1,-1,-1,-1,-1,-1,-1,-1,-1,-1,-1,-1,-1,-1,-1,-1,-1,-1,-1,-1,-1,-1,-1,-1],"split_conditions":[4.874913E0,3.312221E0,1.748927E0,2.5453272E0,-1.9617987E0,-1.1403507E0,3.1832376E0,-3.6500583E0,4.1212606E0,4.392377E0,-8.412535E-1,4.7734728E-1,-5.0089903E0,1.129564E1,-1.6165916E0,7.85462E0,-1.3257589E0,-1.0094035E0,-1.14042684E-1,3.4639382E0,-1.348935E-1,2.0490005E0,-1.0171905E0,2.8648531E0,-2.1030874E0,3.411882E0,3.412921E0,7.1535983E0,-5.0416425E-2,7.229438E0,9.5671915E-2,5.813298E-1,5.6716675E-1,-2.905441E-1,1.3522965E-1,1.08501E0,2.5173259E0,7.3846445E0,5.4165643E-1,1.5360433E-1,-6.3139033E-1,-4.245455E0,-6.0676866E0,-3.3433065E0,-4.482297E0,3.290492E-1,1.12922534E-1,1.7011505E-1,1.0932091E0,-2.9773638E-1,1.7973578E0,2.4850745E0,-1.7441771E0,3.4643836E0,1.4756975E0,-9.358383E-2,-2.5697066E-2,-4.847996E-2,1.5393169E-1,-2.994275E-1,-6.198467E-2,5.4855112E-2,-6.391581E-2,3.4077778E-1,2.5993848E-2,-4.3765914E-2,2.5928178E-1,-1.1106449E-1,3.867319E-1,1.5979049E-1,-4.918299E-3,3.219656E-2,-1.6539467E-2,-2.6332093E-2,1.30521E-1,-7.920563E-3,-1.09877445E-1,-1.0500096E-1,-5.03327E-1,-1.712943E-3,-1.9839327E-1,2.9309284E-2,-8.784108E-2,1.2240387E-2,-3.432498E-2,-2.581994E-2,9.937807E-2,-1.4278329E-2,-1.8193862E-1,3.3398592E-1,1.3578895E-1,6.984833E-2,1.6851658E-1],"split_indices":[30,30,46,10,53,40,23,54,10,13,37,22,56,36,22,41,54,9,34,24,0,32,18,9,2,4,8,30,0,0,0,6,0,27,20,0,27,6,25,0,0,52,2,15,52,0,0,0,6,0,0,25,2,15,12,0,0,0,0,0,0,0,0,0,0,0,0,0,0,0,0,0,0,0,0,0,0,0,0,0,0,0,0,0,0,0,0,0,0,0,0,0,0],"split_type":[0,0,0,0,0,0,0,0,0,0,0,0,0,0,0,0,0,0,0,0,0,0,0,0,0,0,0,0,0,0,0,0,0,0,0,0,0,0,0,0,0,0,0,0,0,0,0,0,0,0,0,0,0,0,0,0,0,0,0,0,0,0,0,0,0,0,0,0,0,0,0,0,0,0,0,0,0,0,0,0,0,0,0,0,0,0,0,0,0,0,0,0,0],"sum_hessian":[6.57E2,5.66E2,9.1E1,5.08E2,5.8E1,6E1,3.1E1,3.59E2,1.49E2,1.3E1,4.5E1,2.1E1,3.9E1,2.3E1,8E0,6.1E1,2.98E2,5.2E1,9.7E1,1.1E1,2E0,1.6E1,2.9E1,6E0,1.5E1,6E0,3.3E1,2.1E1,2E0,4E0,4E0,5.9E1,2E0,5.1E1,2.47E2,2.3E1,2.9E1,5E1,4.7E1,9E0,2E0,1E1,6E0,8E0,2.1E1,4E0,2E0,4E0,1.1E1,4E0,2E0,2.7E1,6E0,1.1E1,1E1,3E0,1E0,3.2E1,2.7E1,2.5E1,2.6E1,1.24E2,1.23E2,1.7E1,6E0,2.2E1,7E0,4.8E1,2E0,2.3E1,2.4E1,1E0,1E0,2E0,8E0,1E0,5E0,3E0,5E0,6E0,1.5E1,6E0,5E0,1E0,1E0,2.1E1,6E0,2E0,4E0,9E0,2E0,6E0,4E0],"tree_param":{"num_deleted":"0","num_feature":"60","num_nodes":"93","size_leaf_vector":"0"}},{"base_weights":[4.7356314E-3,1.302109E-1,-4.064228E-2,-1.9583918E-2,3.9031732E-1,-5.9465283E-1,-2.0431124E-2,2.3511198E-1,-1.9415747E-1,1.688413E0,2.756374E-1,4.122019E-4,-1.2641525E0,-8.20817E-2,1.2459365E-1,5.611749E-1,-3.728932E-2,3.7672237E-2,-4.071924E-1,1.8841474E0,4.5273757E-1,1.5614817E-1,1.5587891E0,-3.390985E-1,5.944529E-1,-1.4272804E0,-5.165125E-1,-1.06772065E-1,4.075969E-1,1.9015764E-1,-5.3054345E-1,-1.7924413E-1,7.4593496E-1,1.8136145E-1,-4.704476E-1,5.603313E-1,-9.922723E-2,-7.0389754E-1,-5.162826E-2,4.138937E-1,-2.0475814E-1,-2.172344E-1,2.0571036E0,-5.760106E-1,1.6878782E-1,1.8251893E-1,6.709246E-1,-1.6945043E-1,8.504263E-2,-2.0082983E-1,7.024117E-1,2.3894797E-1,-6.8735373E-1,-7.972567E-1,2.6887554E-1,-2.5229836E-1,-9.790599E-2,2.2484562E-1,1.009725E0,4.3158603E-1,-1.8536754E-1,-9.018235E-1,-1.0445571E-1,1.9149369E-1,9.8828346E-1,-3.0022994E-1,8.159026E-2,-1.1507999E0,-3.4730452E-1,1.1884684E-1,-3.1214225E-1,1.3473926E-1,6.1249495E-1,-4.5814142E-1,2.6845193E-1,-2.2161996E-1,2.278728E-1,2.5132424E-1,-2.0458227E-1,-1.4765054E-2,-3.8197294E-1,3.1255215E-1,1.306528E0,-4.1394435E-2,3.8136074E-1,-1.3171835E0,-3.628515E-1,-1.0047326E0,-2.348597E-1,-5.017996E-3,5.452781E-1],"categories":[],"categories_nodes":[],"categories_segments":[],"categories_sizes":[],"default_left":[1,1,1,1,1,1,1,1,1,1,1,1,1,1,1,1,1,1,1,0,0,1,1,1,1,0,0,1,1,1,1,1,1,1,1,1,1,1,1,1,1,0,0,0,0,0,0,1,1,1,1,1,1,1,1,0,0,0,0,0,0,0,0,0,0,0,0,0,0,0,0,0,0,0,0,0,0,0,0,0,0,0,0,0,0,0,0,0,0,0,0],"id":27,"left_children":[1,3,5,7,9,11,13,15,17,19,21,23,25,27,29,31,33,35,37,-1,-1,39,41,43,45,-1,-1,47,49,51,53,55,57,59,61,63,65,67,69,71,73,-1,-1,-1,-1,-1,-1,75,77,79,81,83,85,87,89,-1,-1,-1,-1,-1,-1,-1,-1,-1,-1,-1,-1,-1,-1,-1,-1,-1,-1,-1,-1,-1,-1,-1,-1,-1,-1,-1,-1,-1,-1,-1,-1,-1,-1,-1,-1],"loss_changes":[3.7518165E0,6.8260984E0,5.4072924E0,5.0255237E0,9.062003E0,6.77325E0,4.194549E0,4.1066446E0,3.3243241E0,3.562975E-1,8.955967E0,2.2184098E0,2.3847961E-1,4.021243E0,6.1143627E0,3.0065017E0,2.5477912E0,2.4168077E0,3.6560783E0,0E0,0E0,5.2939796E0,4.8719635E0,9.394945E-1,3.5487413E-3,0E0,0E0,3.7895172E0,3.0110369E0,5.6444435E0,2.9861662E0,5.0089657E-3,2.1097565E0,1.731765E0,1.3267202E0,9.156637E-1,1.0058055E0,2.6282053E0,7.920866E-1,1.7470059E0,3.0006733E0,0E0,0E0,0E0,0E0,0E0,0E0,4.963076E0,3.8078413E0,1.9658624E-1,2.1823678E0,4.886555E0,9.527261E-1,9.308672E-1,3.0555564E-1,0E0,0E0,0E0,0E0,0E0,0E0,0E0,0E0,0E0,0E0,0E0,0E0,0E0,0E0,0E0,0E0,0E0,0E0,0E0,0E0,0E0,0E0,0E0,0E0,0E0,0E0,0E0,0E0,0E0,0E0,0E0,0E0,0E0,0E0,0E0,0E0],"parents":[2147483647,0,0,1,1,2,2,3,3,4,4,5,5,6,6,7,7,8,8,9,9,10,10,11,11,12,12,13,13,14,14,15,15,16,16,17,17,18,18,21,21,22,22,23,23,24,24,27,27,28,28,29,29,30,30,31,31,32,32,33,33,34,34,35,35,36,36,37,37,38,38,39,39,40,40,47,47,48,48,49,49,50,50,51,51,52,52,53,53,54,54],"right_children":[2,4,6,8,10,12,14,16,18,20,22,24,26,28,30,32,34,36,38,-1,-1,40,42,44,46,-1,-1,48,50,52,54,56,58,60,62,64,66,68,70,72,74,-1,-1,-1,-1,-1,-1,76,78,80,82,84,86,88,90,-1,-1,-1,-1,-1,-1,-1,-1,-1,-1,-1,-1,-1,-1,-1,-1,-1,-1,-1,-1,-1,-1,-1,-1,-1,-1,-1,-1,-1,-1,-1,-1,-1,-1,-1,-1],"split_conditions":[-2.1627908E0,-3.8494315E0,-2.0618315E0,-1.9901794E-1,-6.9165335E0,1.8056271E0,1.9640907E0,-5.644638E-1,1.5863922E0,5.3010874E0,6.4495068E0,1.8510821E0,7.628003E-2,8.502228E0,6.363784E0,-4.8660913E0,1.5393162E0,-5.6525345E0,8.788631E-1,5.6524426E-1,1.3582128E-1,6.962075E-1,-4.63918E0,4.446227E0,-1.5651757E0,-4.2818415E-1,-1.5495376E-1,3.346023E0,-4.2215043E-1,9.352903E0,1.7464881E0,2.4780262E0,-2.6776552E-1,2.4865276E-1,-7.7973247E-1,7.1264496E0,6.915549E-1,1.6743392E-3,1.1367278E0,-3.9801443E-1,1.5031662E0,-6.5170325E-2,6.171311E-1,-1.7280318E-1,5.0636347E-2,5.475568E-2,2.0127739E-1,5.7288723E0,1.7940757E0,-4.588146E-1,3.4864056E0,-6.131604E-1,-5.4954445E-1,3.2794023E0,6.9846404E-1,-7.568951E-2,-2.93718E-2,6.745369E-2,3.029175E-1,1.2947582E-1,-5.5610266E-2,-2.7054706E-1,-3.1336714E-2,5.7448108E-2,2.9648504E-1,-9.006898E-2,2.4477078E-2,-3.4523997E-1,-1.0419136E-1,3.5654053E-2,-9.364268E-2,4.042178E-2,1.8374848E-1,-1.3744242E-1,8.053558E-2,-6.648599E-2,6.836184E-2,7.5397275E-2,-6.1374683E-2,-4.4295164E-3,-1.1459189E-1,9.376565E-2,3.9195842E-1,-1.2418331E-2,1.14408225E-1,-3.9515507E-1,-1.08855456E-1,-3.014198E-1,-7.045791E-2,-1.5053988E-3,1.6358343E-1],"split_indices":[34,34,34,2,9,19,35,27,14,1,57,25,5,20,43,44,10,30,43,0,0,1,0,2,0,0,0,19,27,40,15,0,16,42,49,2,57,12,5,16,4,0,0,0,0,0,0,30,6,12,39,38,1,11,1,0,0,0,0,0,0,0,0,0,0,0,0,0,0,0,0,0,0,0,0,0,0,0,0,0,0,0,0,0,0,0,0,0,0,0,0],"split_type":[0,0,0,0,0,0,0,0,0,0,0,0,0,0,0,0,0,0,0,0,0,0,0,0,0,0,0,0,0,0,0,0,0,0,0,0,0,0,0,0,0,0,0,0,0,0,0,0,0,0,0,0,0,0,0,0,0,0,0,0,0,0,0,0,0,0,0,0,0,0,0,0,0,0,0,0,0,0,0,0,0,0,0,0,0,0,0,0,0,0,0],"sum_hessian":[6.57E2,1.74E2,4.83E2,1.11E2,6.3E1,1.6E1,4.67E2,4.5E1,6.6E1,4E0,5.9E1,9E0,7E0,3.28E2,1.39E2,2E1,2.5E1,3.2E1,3.4E1,3E0,1E0,5.5E1,4E0,6E0,3E0,5E0,2E0,3.13E2,1.5E1,1.27E2,1.2E1,4E0,1.6E1,1.7E1,8E0,6E0,2.6E1,1.8E1,1.6E1,3.2E1,2.3E1,1E0,3E0,4E0,2E0,1E0,2E0,2.36E2,7.7E1,5E0,1E1,1.21E2,6E0,9E0,3E0,1E0,3E0,6E0,1E1,1E1,7E0,3E0,5E0,4E0,2E0,1.2E1,1.4E1,7E0,1.1E1,1E1,6E0,1.4E1,1.8E1,1.5E1,8E0,2.09E2,2.7E1,4.9E1,2.8E1,3E0,2E0,7E0,3E0,4.1E1,8E1,1E0,5E0,6E0,3E0,2E0,1E0],"tree_param":{"num_deleted":"0","num_feature":"60","num_nodes":"91","size_leaf_vector":"0"}},{"base_weights":[4.16602E-3,4.6075772E-2,-8.360823E-2,3.145112E-2,7.526893E-1,2.4656947E-1,-1.4120206E-1,7.96454E-2,-1.2215213E-1,9.9911445E-1,1.9487926E-1,-5.6050535E-2,1.0261595E0,-1.7889138E-2,-3.337351E-1,-2.9934045E-2,1.6699858E-1,8.7540805E-2,-2.578545E-1,1.1776086E0,4.280841E-1,-3.3898032E-1,1.7025505E-1,1.9849058E0,4.6867403E-1,8.0659375E-2,-5.045034E-1,-5.036164E-1,4.269618E-2,-1.975895E-1,1.8976822E-1,5.6408286E-1,9.305908E-2,-2.2942431E-1,3.861193E-1,-1.0199705E0,-1.6142921E-1,-6.766763E-1,-1.2775981E-1,-4.0491402E-2,3.8678598E-1,7.1170694E-1,1.08472615E-1,-3.682939E-1,1.9183639E-1,-9.845153E-1,-6.590248E-2,-7.8640646E-1,-8.9115076E-2,1.506762E-1,-3.7616715E-1,-3.384376E-1,4.3097022E-1,6.129007E-1,-7.286786E-2,-9.594742E-3,8.665234E-1,-1.9940935E-1,2.0415084E-1,-7.579223E-1,-6.0488198E-2,5.210414E-1,-3.5129043E-1,-1.1191196E0,-2.1253794E-1,-1.6166303E-2,-6.6301876E-1,1.0534096E-1,-1.7610863E-1,-2.2302604E-1,1.7445836E-2,4.249969E-1,7.876022E-2,1.797419E-1,-5.2667618E-2,5.9754204E-2,-8.5054225E-1,3.8605553E-1,-7.29357E-2,8.114743E-2,-1.1278665E0,1.6573551E-1,-2.2194354E-1,-1.176655E0,-3.437308E-1,-2.842387E-1,3.4173772E-1,-1.6837749E-1,2.766509E-1,-4.446729E-1,-5.107206E-2],"categories":[],"categories_nodes":[],"categories_segments":[],"categories_sizes":[],"default_left":[1,1,1,1,1,1,1,1,1,1,0,1,1,1,1,1,1,1,1,0,0,1,1,0,1,1,1,1,1,1,1,1,1,1,1,1,1,0,1,1,1,0,1,1,1,1,1,1,1,1,1,0,0,0,0,0,0,0,0,0,0,0,0,0,0,0,0,0,0,0,0,0,0,0,0,0,0,0,0,0,0,0,0,0,0,0,0,0,0,0,0],"id":28,"left_children":[1,3,5,7,9,11,13,15,17,19,-1,21,23,25,27,29,31,33,35,-1,-1,37,39,-1,41,43,45,47,49,51,53,55,57,59,61,63,65,-1,67,69,71,-1,73,75,77,79,81,83,85,87,89,-1,-1,-1,-1,-1,-1,-1,-1,-1,-1,-1,-1,-1,-1,-1,-1,-1,-1,-1,-1,-1,-1,-1,-1,-1,-1,-1,-1,-1,-1,-1,-1,-1,-1,-1,-1,-1,-1,-1,-1],"loss_changes":[2.424369E0,4.585281E0,4.0852666E0,3.2521544E0,1.042419E0,7.606943E0,4.3150396E0,3.2020853E0,3.010435E0,1.0743809E-1,0E0,1.5943992E0,3.8801107E0,5.411666E0,4.5618567E0,5.525805E0,5.4085064E0,4.0634217E0,4.538531E0,0E0,0E0,6.9815946E-1,6.5452534E-1,0E0,5.355849E-1,4.762501E0,3.9352574E0,5.673545E0,1.0969435E0,7.671029E0,7.268102E0,5.0399113E0,5.174261E0,1.829085E0,2.3718798E0,3.2253838E-1,4.215298E0,0E0,1.0871261E-1,8.84953E-2,4.8916817E-2,0E0,5.5403974E-2,3.9729075E0,3.9363666E0,1.4664011E0,4.3437934E-1,4.6054E0,1.8625958E0,8.102429E-1,8.864409E-2,0E0,0E0,0E0,0E0,0E0,0E0,0E0,0E0,0E0,0E0,0E0,0E0,0E0,0E0,0E0,0E0,0E0,0E0,0E0,0E0,0E0,0E0,0E0,0E0,0E0,0E0,0E0,0E0,0E0,0E0,0E0,0E0,0E0,0E0,0E0,0E0,0E0,0E0,0E0,0E0],"parents":[2147483647,0,0,1,1,2,2,3,3,4,4,5,5,6,6,7,7,8,8,9,9,11,11,12,12,13,13,14,14,15,15,16,16,17,17,18,18,21,21,22,22,24,24,25,25,26,26,27,27,28,28,29,29,30,30,31,31,32,32,33,33,34,34,35,35,36,36,38,38,39,39,40,40,42,42,43,43,44,44,45,45,46,46,47,47,48,48,49,49,50,50],"right_children":[2,4,6,8,10,12,14,16,18,20,-1,22,24,26,28,30,32,34,36,-1,-1,38,40,-1,42,44,46,48,50,52,54,56,58,60,62,64,66,-1,68,70,72,-1,74,76,78,80,82,84,86,88,90,-1,-1,-1,-1,-1,-1,-1,-1,-1,-1,-1,-1,-1,-1,-1,-1,-1,-1,-1,-1,-1,-1,-1,-1,-1,-1,-1,-1,-1,-1,-1,-1,-1,-1,-1,-1,-1,-1,-1,-1],"split_conditions":[1.9617461E0,1.7828681E0,-4.141187E0,3.346056E0,1.4225817E0,2.4966602E0,1.8971651E0,-2.7718717E-1,-7.365458E-1,2.9955363E0,5.8463782E-2,2.3246488E-1,-1.4048629E0,3.5832772E0,1.1269778E0,1.6631778E0,-3.2547724E0,5.5102855E-1,-2.4376336E-1,3.532826E-1,1.2842524E-1,1.9388713E0,-3.463155E-1,5.954718E-1,-5.222209E-1,-2.0996037E0,2.730747E-1,5.1515465E0,6.040963E0,3.2951484E0,-4.4855958E-1,-7.525903E-1,-1.5879543E0,-3.789966E0,5.154128E0,4.2608833E0,2.8441637E0,-2.0300288E-1,-5.3021765E0,-4.664613E0,6.877159E0,2.135121E-1,5.4058754E-1,1.1078169E0,2.2558935E0,-5.4325323E0,-3.419271E0,8.094486E-1,3.5990386E0,-2.8980212E0,2.8395448E0,-1.0153128E-1,1.2929107E-1,1.8387021E-1,-2.186036E-2,-2.8784228E-3,2.5995702E-1,-5.982281E-2,6.1245255E-2,-2.273767E-1,-1.814646E-2,1.5631242E-1,-1.0538714E-1,-3.3573592E-1,-6.376138E-2,-4.849891E-3,-1.9890563E-1,3.160229E-2,-5.2832592E-2,-6.6907816E-2,5.233751E-3,1.2749907E-1,2.3628067E-2,5.3922575E-2,-1.5800286E-2,1.7926263E-2,-2.551627E-1,1.1581666E-1,-2.188071E-2,2.434423E-2,-3.3835995E-1,4.9720656E-2,-6.658307E-2,-3.5299653E-1,-1.0311925E-1,-8.527161E-2,1.0252132E-1,-5.051325E-2,8.299527E-2,-1.3340189E-1,-1.5321619E-2],"split_indices":[52,52,31,38,42,14,12,10,10,5,0,39,24,16,53,24,51,50,10,0,0,23,30,0,4,55,39,12,22,25,49,28,49,30,7,4,39,0,0,0,1,0,0,2,15,3,14,29,47,14,1,0,0,0,0,0,0,0,0,0,0,0,0,0,0,0,0,0,0,0,0,0,0,0,0,0,0,0,0,0,0,0,0,0,0,0,0,0,0,0,0],"split_type":[0,0,0,0,0,0,0,0,0,0,0,0,0,0,0,0,0,0,0,0,0,0,0,0,0,0,0,0,0,0,0,0,0,0,0,0,0,0,0,0,0,0,0,0,0,0,0,0,0,0,0,0,0,0,0,0,0,0,0,0,0,0,0,0,0,0,0,0,0,0,0,0,0,0,0,0,0,0,0,0,0,0,0,0,0,0,0,0,0,0,0],"sum_hessian":[6.57E2,4.45E2,2.12E2,4.37E2,8E0,3.1E1,1.81E2,3.33E2,1.04E2,5E0,3E0,2.3E1,8E0,1.11E2,7E1,1.48E2,1.85E2,4.1E1,6.3E1,3E0,2E0,1E1,1.3E1,2E0,6E0,9.3E1,1.8E1,4.8E1,2.2E1,8.4E1,6.4E1,2.8E1,1.57E2,2E1,2.1E1,6E0,5.7E1,3E0,7E0,7E0,6E0,3E0,3E0,1.8E1,7.5E1,8E0,1E1,2.8E1,2E1,1.8E1,4E0,6.9E1,1.5E1,2.4E1,4E1,1E1,1.8E1,4.3E1,1.14E2,4E0,1.6E1,1.8E1,3E0,5E0,1E0,4.5E1,1.2E1,1E0,6E0,1E0,6E0,5E0,1E0,2E0,1E0,1E1,8E0,4.3E1,3.2E1,1E0,7E0,4E0,6E0,1.4E1,1.4E1,1.4E1,6E0,5E0,1.3E1,3E0,1E0],"tree_param":{"num_deleted":"0","num_feature":"60","num_nodes":"91","size_leaf_vector":"0"}},{"base_weights":[2.7241746E-3,2.2383699E-1,-9.682352E-3,5.328551E-1,-3.4569368E-2,1.8244345E-2,-1.1594414E-1,2.8014806E-1,9.073422E-1,-2.4213886E-1,9.582489E-2,-1.0355637E-2,2.569528E-1,1.2742421E-1,-2.9611325E-1,3.3897948E-1,-1.5408313E-1,9.660816E-2,1.0501673E0,-9.386616E-2,-2.7591872E-1,-1.0630954E-1,1.6709617E-1,5.11783E-2,-1.2501985E-1,3.0940084E-2,8.2745564E-1,4.4381344E-1,-4.7040895E-2,-4.6299458E-1,7.780099E-2,1.715857E-1,4.2197773E-1,1.9603908E-2,2.2750658E-1,1.9696252E-3,4.2018542E-1,-1.6839448E-1,2.9103637E-1,3.298297E-1,-1.6960883E-1,1.2254777E0,2.6176205E-2,3.348404E-2,6.6218436E-1,-1.3856386E-1,5.664188E-1,-4.592161E-2,-6.308371E-1,2.7761748E-1,-3.5653415E-1,5.0188463E-2,-3.6074877E-2,2.4310894E-1,6.694619E-2,-2.0569532E-1,9.7531505E-2,5.8722705E-1,-1.961033E-1,5.3130396E-2,-2.6613632E-1,-5.0410507E-3,7.3599267E-1,-1.3194211E-1,5.5172074E-1,-7.4894583E-1,-5.1182315E-2,3.7192947E-1,1.7325217E0,2.0083614E-1,-1.113628E-1,3.2593465E-1,-5.485671E-2,2.5751293E-1,8.134258E-1,-3.1909144E-1,2.9603105E-2,1.2341273E-1,6.463171E-1,4.7900084E-2,-4.6844897E-1,6.61138E-2,-7.678635E-1,4.6592295E-2,6.009974E-1,-1.1315483E-1,-4.799308E-1],"categories":[],"categories_nodes":[],"categories_segments":[],"categories_sizes":[],"default_left":[1,1,1,1,1,1,1,1,1,1,1,1,1,1,1,1,0,0,0,0,0,0,1,1,1,1,1,1,1,1,1,0,0,1,1,1,1,1,1,1,1,1,1,1,1,1,1,1,1,1,1,0,0,0,0,0,0,0,0,0,0,0,0,0,0,0,0,0,0,0,0,0,0,0,0,0,0,0,0,0,0,0,0,0,0,0,0],"id":29,"left_children":[1,3,5,7,9,11,13,15,17,19,21,23,25,27,29,31,-1,-1,-1,-1,-1,-1,33,35,37,39,41,43,45,47,49,-1,-1,51,53,55,57,59,61,63,65,67,69,71,73,75,77,79,81,83,85,-1,-1,-1,-1,-1,-1,-1,-1,-1,-1,-1,-1,-1,-1,-1,-1,-1,-1,-1,-1,-1,-1,-1,-1,-1,-1,-1,-1,-1,-1,-1,-1,-1,-1,-1,-1],"loss_changes":[1.8072206E0,2.813249E0,1.8538606E0,1.2599783E0,5.645203E-1,3.382054E0,5.7379017E0,3.3324194E-1,5.9330463E-1,1.4169633E-2,2.0504686E-1,3.1320908E0,6.8082657E0,3.1120145E0,4.71597E0,6.652856E-2,0E0,0E0,0E0,0E0,0E0,0E0,8.464065E-2,5.246936E0,2.846183E0,2.3936796E0,4.7518253E0,1.7699072E0,2.1558743E0,3.611164E0,2.181876E0,0E0,0E0,8.622185E-3,1.2606382E-3,5.1003437E0,3.6153178E0,3.067107E0,1.979833E0,1.7122036E0,1.60828E0,3.6834888E0,1.66501E-1,2.2456214E-1,5.861726E-1,1.0112855E0,9.721351E-2,6.5671444E-1,3.5842934E0,1.2420496E0,1.85951E-1,0E0,0E0,0E0,0E0,0E0,0E0,0E0,0E0,0E0,0E0,0E0,0E0,0E0,0E0,0E0,0E0,0E0,0E0,0E0,0E0,0E0,0E0,0E0,0E0,0E0,0E0,0E0,0E0,0E0,0E0,0E0,0E0,0E0,0E0,0E0,0E0],"parents":[2147483647,0,0,1,1,2,2,3,3,4,4,5,5,6,6,7,7,8,8,9,9,10,10,11,11,12,12,13,13,14,14,15,15,22,22,23,23,24,24,25,25,26,26,27,27,28,28,29,29,30,30,33,33,34,34,35,35,36,36,37,37,38,38,39,39,40,40,41,41,42,42,43,43,44,44,45,45,46,46,47,47,48,48,49,49,50,50],"right_children":[2,4,6,8,10,12,14,16,18,20,22,24,26,28,30,32,-1,-1,-1,-1,-1,-1,34,36,38,40,42,44,46,48,50,-1,-1,52,54,56,58,60,62,64,66,68,70,72,74,76,78,80,82,84,86,-1,-1,-1,-1,-1,-1,-1,-1,-1,-1,-1,-1,-1,-1,-1,-1,-1,-1,-1,-1,-1,-1,-1,-1,-1,-1,-1,-1,-1,-1,-1,-1,-1,-1,-1,-1],"split_conditions":[-7.274788E0,4.6155475E-2,3.7460415E0,7.5614345E-1,-1.7524891E0,2.6470902E0,-7.455143E-1,5.6121683E0,-2.7751894E0,2.791153E-1,-5.9178925E0,1.7098911E0,2.5703924E0,-1.5300102E0,2.797775E0,-2.8716688E0,-4.622494E-2,2.898245E-2,3.150502E-1,-2.815985E-2,-8.277562E-2,-3.1892862E-2,-3.0047736E0,1.0221055E0,6.551594E0,-1.3642849E0,4.219964E0,-5.193823E0,7.998734E0,-1.7753975E0,1.4108765E0,5.147571E-2,1.2659332E-1,2.2929668E0,1.0262331E1,-1.4086993E0,2.4442677E0,-9.2506325E-1,2.1212525E0,-8.524065E-1,-5.7888107E0,-1.0169162E0,3.4049737E0,-1.2295287E0,1.2012513E-1,-1.10510126E-1,-2.1033545E0,3.9888015E0,-2.5925984E0,1.2887549E0,5.0445616E-1,1.5056539E-2,-1.0822464E-2,7.293268E-2,2.008386E-2,-6.1708596E-2,2.9259453E-2,1.7616811E-1,-5.8830995E-2,1.593912E-2,-7.98409E-2,-1.5123152E-3,2.207978E-1,-3.9582632E-2,1.6551623E-1,-2.2468376E-1,-1.5354695E-2,1.11578844E-1,5.197565E-1,6.0250845E-2,-3.3408843E-2,9.77804E-2,-1.6457014E-2,7.725388E-2,2.4402775E-1,-9.5727436E-2,8.880932E-3,3.702382E-2,1.9389515E-1,1.4370026E-2,-1.405347E-1,1.983414E-2,-2.3035906E-1,1.3977689E-2,1.8029922E-1,-3.394645E-2,-1.4397924E-1],"split_indices":[29,0,24,6,59,24,20,4,1,6,7,43,41,45,49,28,0,0,0,0,0,0,49,43,31,11,34,45,5,25,52,0,0,0,1,0,9,37,47,7,57,27,2,1,30,6,2,14,39,42,32,0,0,0,0,0,0,0,0,0,0,0,0,0,0,0,0,0,0,0,0,0,0,0,0,0,0,0,0,0,0,0,0,0,0,0,0],"split_type":[0,0,0,0,0,0,0,0,0,0,0,0,0,0,0,0,0,0,0,0,0,0,0,0,0,0,0,0,0,0,0,0,0,0,0,0,0,0,0,0,0,0,0,0,0,0,0,0,0,0,0,0,0,0,0,0,0,0,0,0,0,0,0,0,0,0,0,0,0,0,0,0,0,0,0,0,0,0,0,0,0,0,0,0,0,0,0],"sum_hessian":[6.57E2,3.4E1,6.23E2,1.5E1,1.9E1,4.94E2,1.29E2,1E1,5E0,7E0,1.2E1,4.42E2,5.2E1,5.5E1,7.4E1,9E0,1E0,1E0,4E0,2E0,5E0,3E0,9E0,2.88E2,1.54E2,3.8E1,1.4E1,1.9E1,3.6E1,5.1E1,2.3E1,4E0,5E0,3E0,6E0,2.55E2,3.3E1,1.4E2,1.4E1,1.5E1,2.3E1,9E0,5E0,7E0,1.2E1,3.2E1,4E0,1.5E1,3.6E1,1.6E1,7E0,2E0,1E0,5E0,1E0,8E1,1.75E2,2.6E1,7E0,4.3E1,9.7E1,9E0,5E0,5E0,1E1,3E0,2E1,4E0,5E0,2E0,3E0,1E0,6E0,4E0,8E0,1.5E1,1.7E1,1E0,3E0,1.3E1,2E0,6E0,3E1,1E1,6E0,3E0,4E0],"tree_param":{"num_deleted":"0","num_feature":"60","num_nodes":"87","size_leaf_vector":"0"}},{"base_weights":[4.0968442E-3,-5.9015397E-2,4.3922402E-2,9.4597675E-3,-2.1452263E-1,9.491031E-1,3.2497834E-2,-3.6255753E-1,5.61949E-2,2.5466415E-1,-3.2113636E-1,1.8498893E-1,-2.744658E-2,-6.3221896E-1,3.727516E-2,1.0284247E-1,-2.5524354E-1,6.8569666E-1,-1.08879365E-1,-7.76183E-1,-1.6599591E-1,1.0485737E0,1.5190414E-1,-4.7536936E-1,-2.825089E-3,-2.393952E-1,-8.78608E-1,2.3173806E-1,-1.6464277E-1,2.6250405E-2,3.9245892E-1,-5.547766E-1,6.749348E-2,7.822426E-1,2.9622126E-1,-4.301541E-1,1.2345034E-1,-1.125427E0,-6.5386095E-3,9.577783E-2,-2.843013E-1,1.3050613E0,1.3955534E-1,-1.1074314E-2,2.6490572E-1,1.6911113E-1,-8.145207E-1,-1.0326372E-1,1.0443138E-1,5.945897E-2,-3.1105784E-1,-1.5097499E-2,-1.982547E-1,2.2679602E-1,-5.7854097E-2,1.23310715E-1,6.720241E-1,-1.1915681E-1,-7.0323944E-1,2.1853949E-1,-1.5746962E-1,2.0294017E-1,-2.368621E-2,-1.2568289E0,9.429619E-2,-1.2677786E-1,1.5595992E-1,2.389165E-1,-1.8260603E-1,-1.713966E-1,-7.826239E-1,3.6763713E-1,-1.1312945E-1,4.5392475E-1,6.785928E-2,4.952283E-1,4.842043E-3,-1.262831E0,-3.0517542E-1,-3.5616735E-1,8.080231E-2,2.1952478E-2,4.781084E-1],"categories":[],"categories_nodes":[],"categories_segments":[],"categories_sizes":[],"default_left":[1,1,1,1,1,0,1,1,1,1,1,1,1,1,1,1,1,1,1,1,1,1,1,1,1,1,0,0,1,1,1,1,1,0,0,0,1,1,1,1,1,0,0,1,1,1,1,1,1,0,0,0,0,0,0,0,0,0,0,0,0,0,0,0,0,0,0,0,0,0,0,0,0,0,0,0,0,0,0,0,0,0,0],"id":30,"left_children":[1,3,5,7,9,-1,11,13,15,17,19,21,23,25,27,29,31,33,35,37,39,41,43,45,47,49,-1,-1,51,53,55,57,59,-1,-1,-1,61,63,65,67,69,-1,-1,71,73,75,77,79,81,-1,-1,-1,-1,-1,-1,-1,-1,-1,-1,-1,-1,-1,-1,-1,-1,-1,-1,-1,-1,-1,-1,-1,-1,-1,-1,-1,-1,-1,-1,-1,-1,-1,-1],"loss_changes":[1.6564621E0,2.7173672E0,4.1470404E0,3.1151314E0,3.983479E0,0E0,3.661473E0,2.1799548E0,2.3361773E0,2.4251444E0,4.389311E0,3.0693E0,3.1748724E0,9.5111513E-1,3.915439E-1,3.073041E0,2.0675225E0,3.149891E-2,7.248776E-1,4.2933397E0,1.5447229E0,7.504797E-1,2.0287843E0,3.416391E0,2.962502E0,1.4699522E-1,0E0,0E0,2.2139385E-2,1.8853346E0,2.0992217E0,6.276109E-1,4.081909E-1,0E0,0E0,0E0,7.498205E-2,1.881527E0,1.3700448E-1,6.811875E-1,1.7788019E0,0E0,0E0,1.8194653E0,2.3901563E0,3.190279E-1,1.8980622E0,6.639016E0,4.0886273E0,0E0,0E0,0E0,0E0,0E0,0E0,0E0,0E0,0E0,0E0,0E0,0E0,0E0,0E0,0E0,0E0,0E0,0E0,0E0,0E0,0E0,0E0,0E0,0E0,0E0,0E0,0E0,0E0,0E0,0E0,0E0,0E0,0E0,0E0],"parents":[2147483647,0,0,1,1,2,2,3,3,4,4,6,6,7,7,8,8,9,9,10,10,11,11,12,12,13,13,14,14,15,15,16,16,17,17,18,18,19,19,20,20,21,21,22,22,23,23,24,24,25,25,28,28,29,29,30,30,31,31,32,32,36,36,37,37,38,38,39,39,40,40,43,43,44,44,45,45,46,46,47,47,48,48],"right_children":[2,4,6,8,10,-1,12,14,16,18,20,22,24,26,28,30,32,34,36,38,40,42,44,46,48,50,-1,-1,52,54,56,58,60,-1,-1,-1,62,64,66,68,70,-1,-1,72,74,76,78,80,82,-1,-1,-1,-1,-1,-1,-1,-1,-1,-1,-1,-1,-1,-1,-1,-1,-1,-1,-1,-1,-1,-1,-1,-1,-1,-1,-1,-1,-1,-1,-1,-1,-1,-1],"split_conditions":[-8.865967E-1,1.8563455E0,-8.291817E-1,-5.761272E0,-2.8465493E0,2.8473094E-1,-1.6232495E0,2.739131E0,5.9733434E0,-1.2801862E-1,-1.7152219E0,-6.206503E0,-1.1907352E0,1.219964E0,2.9604309E0,3.746384E0,1.1934012E0,1.5577657E0,-7.491797E-1,-3.407996E-1,-1.151175E0,1.0172391E-1,-9.806584E-1,-7.2477E-1,2.6479E-1,-1.9790471E0,-2.635824E-1,6.952142E-2,-4.903663E0,-2.1087494E0,1.2158351E0,-5.2938433E0,2.3176885E0,2.3467278E-1,8.886638E-2,-1.2904623E-1,1.8944298E0,4.8389664E0,-1.1457341E0,3.6031017E0,-1.4151157E0,3.915184E-1,4.18666E-2,-2.4406345E0,4.5541468E-1,-5.9313188E0,9.9723196E-1,4.0687606E-2,3.0972123E0,1.7837692E-2,-9.331735E-2,-4.52925E-3,-5.9476413E-2,6.803881E-2,-1.735623E-2,3.6993217E-2,2.0160723E-1,-3.5747044E-2,-2.1097185E-1,6.556185E-2,-4.7240887E-2,6.088205E-2,-7.105863E-3,-3.770487E-1,2.8288858E-2,-3.803336E-2,4.6787977E-2,7.167495E-2,-5.478181E-2,-5.1418982E-2,-2.3478718E-1,1.10291146E-1,-3.3938836E-2,1.3617744E-1,2.0357784E-2,1.485685E-1,1.4526129E-3,-3.788493E-1,-9.155263E-2,-1.0685021E-1,2.4240693E-2,6.5857437E-3,1.4343253E-1],"split_indices":[39,32,39,46,16,0,45,41,18,53,55,9,45,16,55,58,47,6,9,21,50,0,1,36,50,1,0,0,2,55,38,33,0,0,0,0,0,14,0,38,39,0,0,25,51,0,6,10,46,0,0,0,0,0,0,0,0,0,0,0,0,0,0,0,0,0,0,0,0,0,0,0,0,0,0,0,0,0,0,0,0,0,0],"split_type":[0,0,0,0,0,0,0,0,0,0,0,0,0,0,0,0,0,0,0,0,0,0,0,0,0,0,0,0,0,0,0,0,0,0,0,0,0,0,0,0,0,0,0,0,0,0,0,0,0,0,0,0,0,0,0,0,0,0,0,0,0,0,0,0,0,0,0,0,0,0,0,0,0,0,0,0,0,0,0,0,0,0,0],"sum_hessian":[6.57E2,2.54E2,4.03E2,1.77E2,7.7E1,4E0,3.99E2,1.9E1,1.58E2,1.4E1,6.3E1,1.12E2,2.87E2,1.1E1,8E0,1.38E2,2E1,6E0,8E0,1.5E1,4.8E1,3E0,1.09E2,1.4E1,2.73E2,5E0,6E0,4E0,4E0,1.1E2,2.8E1,1E1,1E1,4E0,2E0,3E0,5E0,1E1,5E0,1.5E1,3.3E1,2E0,1E0,4.5E1,6.4E1,5E0,9E0,1.41E2,1.32E2,1E0,4E0,1E0,3E0,3.2E1,7.8E1,1.5E1,1.3E1,3E0,7E0,6E0,4E0,3E0,2E0,9E0,1E0,3E0,2E0,1E1,5E0,2.8E1,5E0,9E0,3.6E1,3.2E1,3.2E1,1E0,4E0,4E0,5E0,5.9E1,8.2E1,1.09E2,2.3E1],"tree_param":{"num_deleted":"0","num_feature":"60","num_nodes":"83","size_leaf_vector":"0"}},{"base_weights":[2.9655448E-3,5.5426493E-2,-3.6527578E-2,-1.5204862E-1,9.8451406E-2,4.6771422E-2,-1.3993807E-1,-5.0979838E-2,-5.4111886E-1,-1.08112745E-1,1.5486394E-1,-2.5136374E-2,1.96244E-1,-2.5467074E-1,-1.3562624E-2,3.0824852E-1,-1.504197E-1,-7.484912E-1,-4.2937517E-2,-3.6801153E-1,7.1435235E-2,3.486359E-1,7.851315E-2,-2.1936198E-1,1.1158323E-1,2.749507E-1,-2.3659533E-1,-2.0517936E-1,-7.23937E-1,1.807141E-1,-2.0750855E-1,5.013992E-1,1.2810664E-1,-3.1601343E-1,-2.0486426E-2,-9.397801E-2,5.5091977E-2,-5.832988E-1,-7.286566E-2,2.2957335E-1,-1.3698773E-1,5.023414E-1,5.523471E-2,2.0619687E-1,-4.844747E-2,-5.526179E-1,-3.42918E-2,-1.1789761E-1,2.8615007E-1,4.312531E-1,6.599186E-2,-3.782251E-1,1.05813E-1,-2.2377242E-1,6.411326E-1,-8.6910164E-1,1.4610791E-1,3.8202557E-1,-1.2596242E-1,1.1857193E-1,-3.8097888E-1,-2.8579056E-2,1.6515958E-1,-4.848522E-1,-1.0086387E-2,-1.3233693E-1,1.9016258E-1,-1.8873821E-1,-6.938481E-1,4.0160824E-2,-1.9392431E-1,1.1451328E-1,7.6670265E-1,-3.58498E-1,-4.3985102E-2,3.3841312E-1,9.2009634E-1,2.3275524E-1,-2.8233695E-1,3.8783473E-1,-7.72605E-2,1.1477137E-1,-2.0561871E-1,-1.4275253E-1,-9.8919463E-1,6.766054E-2,-5.1002544E-1,-2.9989647E-2,-6.7451066E-1,5.45031E-1,8.176969E-2,-9.798686E-2,5.076306E-1,1.8798488E-1,-2.3199055E-1,-4.585747E-1,-1.8323177E-1,1.5423214E-1,-1.9722223E-2,-4.3428892E-1,-1.6007291E-1,-2.1907043E-1,-9.4092846E-1,8.876142E-2,6.061073E-1,-5.003769E-1,1.8616538E-1,3.1257316E-1,-9.02508E-2,-8.2943195E-1,-2.1335265E-1],"categories":[],"categories_nodes":[],"categories_segments":[],"categories_sizes":[],"default_left":[1,1,1,1,1,1,1,1,1,1,1,1,1,1,1,1,1,0,1,1,1,1,1,1,1,1,1,1,1,1,1,0,1,1,1,0,0,1,1,1,1,1,1,1,1,1,1,1,1,1,1,1,1,1,0,1,0,1,1,1,1,0,0,0,0,0,0,0,0,0,0,0,0,0,0,0,0,0,0,0,0,0,0,0,0,0,0,0,0,0,0,0,0,0,0,0,0,0,0,0,0,0,0,0,0,0,0,0,0,0,0],"id":31,"left_children":[1,3,5,7,9,11,13,15,17,19,21,23,25,27,29,31,33,-1,35,37,39,41,43,45,47,49,51,53,55,57,59,-1,61,63,65,-1,-1,67,69,71,73,75,77,79,81,83,85,87,89,91,93,95,97,99,-1,101,-1,103,105,107,109,-1,-1,-1,-1,-1,-1,-1,-1,-1,-1,-1,-1,-1,-1,-1,-1,-1,-1,-1,-1,-1,-1,-1,-1,-1,-1,-1,-1,-1,-1,-1,-1,-1,-1,-1,-1,-1,-1,-1,-1,-1,-1,-1,-1,-1,-1,-1,-1,-1,-1],"loss_changes":[1.3652997E0,2.5411963E0,3.2454057E0,1.8992337E0,2.7551527E0,2.2513158E0,2.4324439E0,1.4752313E0,1.0009522E0,2.4061685E0,2.7096367E0,3.7952087E0,2.381632E0,1.8952303E0,3.0895133E0,2.4891824E-1,6.8204236E-1,0E0,2.519133E-2,1.2918618E0,1.0531968E0,2.317316E0,2.1822376E0,3.6199183E0,3.3987546E0,1.8658652E0,5.7346845E-1,1.4180455E0,1.1373806E0,2.579358E0,2.3643498E0,0E0,3.9554104E-2,7.182423E-1,4.728283E-1,0E0,0E0,3.924651E-1,1.4461648E-1,1.0246408E0,2.7264595E-1,2.0170107E0,1.2043074E0,3.479566E0,1.7680241E0,3.6164813E0,1.9260926E0,1.7902081E0,2.495122E0,1.3836675E0,9.887569E-1,4.1315556E-2,2.7355034E-2,1.0032659E0,0E0,1.20697975E-1,0E0,1.5890794E0,2.0798604E0,6.35888E-1,1.8526962E0,0E0,0E0,0E0,0E0,0E0,0E0,0E0,0E0,0E0,0E0,0E0,0E0,0E0,0E0,0E0,0E0,0E0,0E0,0E0,0E0,0E0,0E0,0E0,0E0,0E0,0E0,0E0,0E0,0E0,0E0,0E0,0E0,0E0,0E0,0E0,0E0,0E0,0E0,0E0,0E0,0E0,0E0,0E0,0E0,0E0,0E0,0E0,0E0,0E0,0E0],"parents":[2147483647,0,0,1,1,2,2,3,3,4,4,5,5,6,6,7,7,8,8,9,9,10,10,11,11,12,12,13,13,14,14,15,15,16,16,18,18,19,19,20,20,21,21,22,22,23,23,24,24,25,25,26,26,27,27,28,28,29,29,30,30,32,32,33,33,34,34,37,37,38,38,39,39,40,40,41,41,42,42,43,43,44,44,45,45,46,46,47,47,48,48,49,49,50,50,51,51,52,52,53,53,55,55,57,57,58,58,59,59,60,60],"right_children":[2,4,6,8,10,12,14,16,18,20,22,24,26,28,30,32,34,-1,36,38,40,42,44,46,48,50,52,54,56,58,60,-1,62,64,66,-1,-1,68,70,72,74,76,78,80,82,84,86,88,90,92,94,96,98,100,-1,102,-1,104,106,108,110,-1,-1,-1,-1,-1,-1,-1,-1,-1,-1,-1,-1,-1,-1,-1,-1,-1,-1,-1,-1,-1,-1,-1,-1,-1,-1,-1,-1,-1,-1,-1,-1,-1,-1,-1,-1,-1,-1,-1,-1,-1,-1,-1,-1,-1,-1,-1,-1,-1,-1],"split_conditions":[-2.9404885E-1,-3.7324412E0,8.7679017E-1,2.9185414E0,-3.8640618E0,1.692106E0,9.7795606E-1,-2.2152114E0,2.7269185E0,-1.497453E0,-8.8584507E-1,-9.323896E-1,5.771632E0,4.3377048E-1,4.8459855E-1,2.1031234E0,-1.8155125E0,-2.2454737E-1,9.751274E0,2.110199E0,1.3389742E0,1.0326581E0,-2.7643678E-1,-1.1359683E0,-2.1447387E0,1.7939434E0,4.2172146E0,1.3241318E1,3.5387784E-2,6.557516E-1,-1.175746E0,1.5041977E-1,-1.492158E0,1.1169698E0,1.2432032E0,-2.8193405E-2,1.6527593E-2,-3.9529285E0,5.257503E-1,1.2181648E0,-1.5033233E0,2.9020672E0,5.6212616E-1,2.137689E0,5.609261E-1,5.5855215E-1,4.5868444E0,4.052089E0,-2.2811902E-1,-4.4334025E0,1.5755534E0,8.011903E-1,9.25617E-1,-3.2560701E0,1.923398E-1,-2.096492E0,4.3832377E-2,-3.702044E0,1.9841844E-1,9.2848927E-1,-1.9734089E0,-8.573717E-3,4.9547877E-2,-1.4545566E-1,-3.0259164E-3,-3.970108E-2,5.704878E-2,-5.6621466E-2,-2.0815443E-1,1.2048247E-2,-5.8177296E-2,3.4353986E-2,2.3001081E-1,-1.0754941E-1,-1.3195531E-2,1.0152394E-1,2.760289E-1,6.982657E-2,-8.470109E-2,1.1635042E-1,-2.317815E-2,3.4431413E-2,-6.1685614E-2,-4.282576E-2,-2.967584E-1,2.0298162E-2,-1.5300764E-1,-8.996895E-3,-2.0235321E-1,1.6350931E-1,2.4530908E-2,-2.9396059E-2,1.5228918E-1,5.6395467E-2,-6.959717E-2,-1.3757242E-1,-5.4969534E-2,4.6269644E-2,-5.916667E-3,-1.3028668E-1,-4.8021875E-2,-6.572113E-2,-2.8227854E-1,2.6628427E-2,1.818322E-1,-1.5011308E-1,5.5849615E-2,9.377196E-2,-2.707524E-2,-2.4882959E-1,-6.40058E-2],"split_indices":[46,15,44,0,36,11,20,54,11,44,36,51,40,20,58,1,0,0,0,4,28,34,43,35,44,2,17,32,1,38,34,0,3,53,56,0,0,52,29,28,54,58,33,8,28,6,17,41,22,30,54,6,1,4,0,4,0,58,42,52,55,0,0,0,0,0,0,0,0,0,0,0,0,0,0,0,0,0,0,0,0,0,0,0,0,0,0,0,0,0,0,0,0,0,0,0,0,0,0,0,0,0,0,0,0,0,0,0,0,0,0],"split_type":[0,0,0,0,0,0,0,0,0,0,0,0,0,0,0,0,0,0,0,0,0,0,0,0,0,0,0,0,0,0,0,0,0,0,0,0,0,0,0,0,0,0,0,0,0,0,0,0,0,0,0,0,0,0,0,0,0,0,0,0,0,0,0,0,0,0,0,0,0,0,0,0,0,0,0,0,0,0,0,0,0,0,0,0,0,0,0,0,0,0,0,0,0,0,0,0,0,0,0,0,0,0,0,0,0,0,0,0,0,0,0],"sum_hessian":[6.57E2,2.82E2,3.75E2,4.8E1,2.34E2,2.08E2,1.67E2,3.9E1,9E0,5E1,1.84E2,1.41E2,6.7E1,8.7E1,8E1,8E0,3.1E1,6E0,3E0,2E1,3E1,5.1E1,1.33E2,5.8E1,8.3E1,5.7E1,1E1,8E1,7E0,4E1,4E1,3E0,5E0,1.3E1,1.8E1,2E0,1E0,1.1E1,9E0,1.7E1,1.3E1,3.3E1,1.8E1,6.6E1,6.7E1,2E1,3.8E1,3.6E1,4.7E1,3.2E1,2.5E1,7E0,3E0,7.9E1,1E0,6E0,1E0,2.4E1,1.6E1,1.4E1,2.6E1,1E0,4E0,8E0,5E0,1.2E1,6E0,3E0,8E0,5E0,4E0,1.5E1,2E0,3E0,1E1,2.5E1,8E0,1.2E1,6E0,4E1,2.6E1,3.3E1,3.4E1,1.1E1,9E0,3.2E1,6E0,3.2E1,4E0,2E1,2.7E1,4E0,2.8E1,1.8E1,7E0,4E0,3E0,2E0,1E0,1.7E1,6.2E1,1E0,5E0,1.1E1,1.3E1,7E0,9E0,7E0,7E0,6E0,2E1],"tree_param":{"num_deleted":"0","num_feature":"60","num_nodes":"111","size_leaf_vector":"0"}},{"base_weights":[7.4635795E-4,8.354791E-3,-2.005912E-1,4.3903705E-2,-4.620571E-2,-1.16634E-1,-7.4941367E-1,5.5999935E-2,-3.0654234E-1,-3.294552E-1,-1.3415035E-2,-1.8799333E-1,2.5148132E-1,7.89286E-2,-1.2179974E-1,-2.4644434E-2,-7.5265014E-1,-5.438525E-1,-3.4003977E-2,3.0395392E-1,-4.068406E-2,-2.6541007E-1,2.3977915E-2,-1.4971954E-1,1.0138063E-1,2.0777376E-1,-2.4158356E-1,-1.3242616E-1,5.1317453E-2,-2.9321942E-1,-6.783613E-1,-1.54539E-1,2.457008E-1,5.114955E-1,-1.9637842E-1,-1.51668E-1,3.814754E-2,-3.0441898E-1,-2.0904273E-2,-3.64608E-2,6.331247E-2,-4.5262754E-1,2.436583E-2,4.784409E-1,8.000661E-2,-1.8530011E-1,4.2747322E-1,-7.1419466E-1,-1.0505042E-1,-1.9400692E-1,-4.7230262E-2,1.4864397E-2,1.1679137E-1,-3.17974E-1,-7.234597E-2,-2.3735225E-1,-4.0817942E-2,6.532414E-2,2.8405166E-1,2.1521479E-1,8.212871E-1,-2.6519114E-1,7.3842525E-2,1.6357222E-1,-2.1961488E-1,-7.87524E-2,2.047269E-1,-3.401561E-1,-8.382228E-2,1.3186127E-2,-4.4542536E-2],"categories":[],"categories_nodes":[],"categories_segments":[],"categories_sizes":[],"default_left":[1,1,1,1,1,1,0,1,1,1,1,1,0,1,1,1,0,1,1,1,1,1,1,1,1,1,1,1,1,1,0,1,1,1,1,1,1,1,1,0,0,0,0,0,0,0,0,0,0,0,0,0,0,0,0,0,0,0,0,0,0,0,0,0,0,0,0,0,0,0,0],"id":32,"left_children":[1,3,5,7,9,11,-1,13,15,17,19,21,-1,23,25,27,-1,29,31,33,35,37,39,41,43,45,47,49,51,53,-1,55,57,59,61,63,65,67,69,-1,-1,-1,-1,-1,-1,-1,-1,-1,-1,-1,-1,-1,-1,-1,-1,-1,-1,-1,-1,-1,-1,-1,-1,-1,-1,-1,-1,-1,-1,-1,-1],"loss_changes":[1.009642E0,1.2336533E0,1.0184553E0,1.6492112E0,2.3268538E0,6.2518305E-1,0E0,1.5302256E0,1.6162906E0,1.628449E0,1.968247E0,3.1815624E-1,0E0,1.7144058E0,1.7477305E0,8.04815E-2,0E0,3.06777E-1,4.42541E-1,1.9695622E0,1.8343354E0,1.271671E-1,1.6572403E-2,1.5929842E0,2.3956287E0,1.1155082E0,1.9898399E0,1.1822723E-2,1.2584312E-2,1.52692795E-2,0E0,7.507028E-2,9.114951E-3,1.0164552E0,1.3115019E-1,1.8994272E0,2.4113162E0,6.608915E-2,3.0048569E-3,0E0,0E0,0E0,0E0,0E0,0E0,0E0,0E0,0E0,0E0,0E0,0E0,0E0,0E0,0E0,0E0,0E0,0E0,0E0,0E0,0E0,0E0,0E0,0E0,0E0,0E0,0E0,0E0,0E0,0E0,0E0,0E0],"parents":[2147483647,0,0,1,1,2,2,3,3,4,4,5,5,7,7,8,8,9,9,10,10,11,11,13,13,14,14,15,15,17,17,18,18,19,19,20,20,21,21,22,22,23,23,24,24,25,25,26,26,27,27,28,28,29,29,31,31,32,32,33,33,34,34,35,35,36,36,37,37,38,38],"right_children":[2,4,6,8,10,12,-1,14,16,18,20,22,-1,24,26,28,-1,30,32,34,36,38,40,42,44,46,48,50,52,54,-1,56,58,60,62,64,66,68,70,-1,-1,-1,-1,-1,-1,-1,-1,-1,-1,-1,-1,-1,-1,-1,-1,-1,-1,-1,-1,-1,-1,-1,-1,-1,-1,-1,-1,-1,-1,-1,-1],"split_conditions":[9.323465E0,1.3195987E0,4.2326417E0,9.323465E0,-5.4809103E0,9.038267E0,-2.2482412E-1,5.8970466E0,1.16293E0,-2.120132E-1,-5.114455E0,2.206505E0,7.54444E-2,-6.4209585E0,-1.2955431E0,-4.4319257E-1,-2.2579505E-1,1.5863922E0,4.146698E0,3.2621613E0,-6.4140224E-1,4.0023756E0,-1.6145449E0,4.5776594E-1,-4.538286E0,-1.4017284E0,-3.1827097E0,-3.9914565E0,8.940833E0,1.0438821E0,-2.0350839E-1,-7.8314817E-1,-8.312263E-1,1.8848064E0,3.7388318E0,-4.0167923E0,7.618208E-1,6.9973803E0,-2.511721E0,-1.093824E-2,1.8993743E-2,-1.3578826E-1,7.3097493E-3,1.4353228E-1,2.4001984E-2,-5.5590037E-2,1.2824197E-1,-2.142584E-1,-3.151513E-2,-5.8202077E-2,-1.4169079E-2,4.459319E-3,3.5037413E-2,-9.5392205E-2,-2.1703793E-2,-7.1205676E-2,-1.2245383E-2,1.9597244E-2,8.52155E-2,6.456444E-2,2.4638614E-1,-7.9557344E-2,2.215276E-2,4.907167E-2,-6.588446E-2,-2.362572E-2,6.1418075E-2,-1.0204684E-1,-2.5146686E-2,3.9558383E-3,-1.3362762E-2],"split_indices":[35,17,2,47,54,16,0,55,46,18,22,17,0,44,14,34,0,11,56,30,22,47,5,24,44,8,29,0,3,3,0,26,1,39,0,2,35,11,0,0,0,0,0,0,0,0,0,0,0,0,0,0,0,0,0,0,0,0,0,0,0,0,0,0,0,0,0,0,0,0,0],"split_type":[0,0,0,0,0,0,0,0,0,0,0,0,0,0,0,0,0,0,0,0,0,0,0,0,0,0,0,0,0,0,0,0,0,0,0,0,0,0,0,0,0,0,0,0,0,0,0,0,0,0,0,0,0,0,0,0,0,0,0,0,0,0,0,0,0,0,0,0,0,0,0],"sum_hessian":[6.57E2,6.34E2,2.3E1,3.84E2,2.5E2,2.1E1,2E0,3.72E2,1.2E1,2.5E1,2.25E2,1.8E1,3E0,3.3E2,4.2E1,8E0,4E0,1.4E1,1.1E1,1.7E1,2.08E2,1.3E1,5E0,2.9E1,3.01E2,1.1E1,3.1E1,3E0,5E0,6E0,8E0,8E0,3E0,1.2E1,5E0,8.6E1,1.22E2,1.1E1,2E0,2E0,3E0,1E1,1.9E1,1.5E1,2.86E2,4E0,7E0,6E0,2.5E1,1E0,2E0,4E0,1E0,5E0,1E0,4E0,4E0,1E0,2E0,7E0,5E0,4E0,1E0,1.5E1,7.1E1,7.2E1,5E1,9E0,2E0,1E0,1E0],"tree_param":{"num_deleted":"0","num_feature":"60","num_nodes":"71","size_leaf_vector":"0"}},{"base_weights":[-5.343804E-4,2.4263509E-2,-5.2456092E-2,-1.8335393E-1,3.6505625E-2,-7.812052E-2,2.1370284E-1,1.819215E-1,-3.082789E-1,3.8201734E-1,2.1948468E-2,-1.3947487E-1,3.0997979E-2,9.581811E-1,6.975359E-2,-2.2449844E-2,3.4081247E-1,-1.1347358E-1,-5.6195194E-1,1.3420619E-1,6.4402914E-1,-9.964434E-3,1.309769E-1,-3.957228E-1,-8.392747E-2,-1.3057166E-1,2.1066411E-1,2.1644196E-1,-8.468519E-2,4.5549583E-2,-1.1322406E-1,-1.9093466E-1,8.918223E-2,-6.695012E-1,-2.8702748E-1,-7.8435615E-2,2.8904E-1,3.8245764E-1,8.0998623E-1,-5.0330717E-2,1.522996E-1,-6.779727E-2,2.5997096E-1,-9.1409314E-1,-2.2974643E-1,5.0235365E-2,-2.5418136E-1,-3.0495787E-1,5.9864957E-2,3.3980846E-1,-9.0256676E-2,2.4693061E-1,-1.3733625E-2,-1.3683522E-1,1.4711142E-2,-2.0771363E-1,-2.8351396E-2,1.07231855E-1,1.7516673E-2,-1.0919064E-1,2.2292256E-2,2.4897E-1,-7.158718E-2,-4.0187803E-1,2.4021412E-1,3.329165E-2,-2.811735E-1,-8.455502E-2,3.768262E-1,2.8084835E-2,-4.3881992E-1,6.183463E-1,8.758956E-3,-3.527212E-1,-3.753049E-3,-1.4439328E-2,-4.2843446E-1,-6.897013E-2,4.3439722E-1,4.290796E-1,6.171008E-2,-2.0146194E-1,1.5471804E-1,-1.3535698E-2,4.972583E-2],"categories":[],"categories_nodes":[],"categories_segments":[],"categories_sizes":[],"default_left":[1,1,1,1,1,1,1,1,1,1,1,1,1,0,1,1,0,1,1,1,1,1,1,1,1,1,1,1,1,0,0,1,1,0,0,1,0,0,0,1,1,1,1,0,1,1,1,1,1,1,1,0,0,0,1,0,0,0,0,0,0,0,0,0,0,0,0,0,0,0,0,0,0,0,0,0,0,0,0,0,0,0,0,0,0],"id":33,"left_children":[1,3,5,7,9,11,13,15,17,19,21,23,25,-1,27,29,-1,31,33,35,37,39,41,43,45,47,49,51,53,-1,-1,55,57,-1,-1,59,-1,-1,-1,61,63,65,67,-1,69,71,73,75,77,79,81,-1,-1,-1,83,-1,-1,-1,-1,-1,-1,-1,-1,-1,-1,-1,-1,-1,-1,-1,-1,-1,-1,-1,-1,-1,-1,-1,-1,-1,-1,-1,-1,-1,-1],"loss_changes":[8.484799E-1,1.1402812E0,1.4716587E0,1.196883E0,2.1141353E0,1.3098277E0,1.969338E0,2.3496051E-1,8.7515354E-1,1.0173678E0,1.4139471E0,1.7460263E0,2.0885372E0,0E0,4.0345377E-1,2.9847685E-2,0E0,2.0540322E-1,4.4378042E-2,3.5191238E-1,3.749156E-2,2.070914E0,2.3765688E0,1.6828098E0,2.3883104E0,1.2802181E0,1.3519856E0,6.655097E-2,4.866469E-2,0E0,0E0,1.866287E-2,3.2958016E-3,0E0,0E0,1.7923547E-2,0E0,0E0,0E0,1.6274278E0,3.165913E0,8.074498E-1,2.2864032E0,0E0,9.8262644E-1,1.3848128E0,1.1338263E0,7.112583E-1,9.467654E-1,5.6934905E-1,3.3083707E-1,0E0,0E0,0E0,4.6292907E-3,0E0,0E0,0E0,0E0,0E0,0E0,0E0,0E0,0E0,0E0,0E0,0E0,0E0,0E0,0E0,0E0,0E0,0E0,0E0,0E0,0E0,0E0,0E0,0E0,0E0,0E0,0E0,0E0,0E0,0E0],"parents":[2147483647,0,0,1,1,2,2,3,3,4,4,5,5,6,6,7,7,8,8,9,9,10,10,11,11,12,12,14,14,15,15,17,17,18,18,19,19,20,20,21,21,22,22,23,23,24,24,25,25,26,26,27,27,28,28,31,31,32,32,35,35,39,39,40,40,41,41,42,42,44,44,45,45,46,46,47,47,48,48,49,49,50,50,54,54],"right_children":[2,4,6,8,10,12,14,16,18,20,22,24,26,-1,28,30,-1,32,34,36,38,40,42,44,46,48,50,52,54,-1,-1,56,58,-1,-1,60,-1,-1,-1,62,64,66,68,-1,70,72,74,76,78,80,82,-1,-1,-1,84,-1,-1,-1,-1,-1,-1,-1,-1,-1,-1,-1,-1,-1,-1,-1,-1,-1,-1,-1,-1,-1,-1,-1,-1,-1,-1,-1,-1,-1,-1],"split_conditions":[1.9617461E0,-7.1018987E0,6.0554266E0,-2.8465037E0,-5.3955097E0,1.8564689E0,-3.39248E0,1.9647224E0,8.465526E-1,-1.0952841E0,3.28892E0,-3.3549438E0,1.6420203E0,2.8745434E-1,5.012042E0,1.8480575E-1,1.02243744E-1,3.631778E0,3.7849183E0,-4.8998705E-1,5.496427E0,4.104361E0,-6.436697E-1,-2.8755803E0,1.6083276E0,9.34731E-1,4.24523E0,9.236663E0,9.031906E-1,1.3664875E-2,-3.396722E-2,3.0111446E0,4.2935376E0,-2.0085037E-1,-8.6108245E-2,7.697102E0,8.6712E-2,1.14737295E-1,2.4299587E-1,-6.08302E0,-4.059689E0,2.4394639E0,-8.1041944E-1,-2.7422795E-1,1.3541888E0,-2.6027074E0,3.0398927E0,-3.478692E0,4.7234483E0,1.8506556E0,3.7865367E0,7.4079186E-2,-4.1200877E-3,-4.105057E-2,5.0358E0,-6.2314093E-2,-8.505419E-3,3.2169558E-2,5.255002E-3,-3.2757193E-2,6.687677E-3,7.4691005E-2,-2.1476155E-2,-1.2056341E-1,7.206424E-2,9.987495E-3,-8.435205E-2,-2.5366507E-2,1.1304786E-1,8.425451E-3,-1.3164598E-1,1.8550389E-1,2.6276868E-3,-1.0581637E-1,-1.1259147E-3,-4.3317983E-3,-1.2853034E-1,-2.0691039E-2,1.3031918E-1,1.2872389E-1,1.8513024E-2,-6.0438585E-2,4.6415415E-2,-4.0607094E-3,1.491775E-2],"split_indices":[52,2,38,58,2,25,10,21,22,57,58,0,28,0,15,0,0,50,33,19,3,6,15,21,43,53,5,2,16,0,0,6,1,0,0,0,0,0,0,8,18,29,45,0,46,0,15,30,13,59,47,0,0,0,0,0,0,0,0,0,0,0,0,0,0,0,0,0,0,0,0,0,0,0,0,0,0,0,0,0,0,0,0,0,0],"split_type":[0,0,0,0,0,0,0,0,0,0,0,0,0,0,0,0,0,0,0,0,0,0,0,0,0,0,0,0,0,0,0,0,0,0,0,0,0,0,0,0,0,0,0,0,0,0,0,0,0,0,0,0,0,0,0,0,0,0,0,0,0,0,0,0,0,0,0,0,0,0,0,0,0,0,0,0,0,0,0,0,0,0,0,0,0],"sum_hessian":[6.57E2,4.45E2,2.12E2,2.4E1,4.21E2,1.94E2,1.8E1,6E0,1.8E1,1.6E1,4.05E2,1.24E2,7E1,2E0,1.6E1,3E0,3E0,1.1E1,7E0,9E0,7E0,3.14E2,9.1E1,2.1E1,1.03E2,3.7E1,3.3E1,8E0,8E0,2E0,1E0,8E0,3E0,4E0,3E0,4E0,5E0,4E0,3E0,2.52E2,6.2E1,3.6E1,5.5E1,4E0,1.7E1,5.8E1,4.5E1,1.9E1,1.8E1,2.3E1,1E1,7E0,1E0,5E0,3E0,7E0,1E0,2E0,1E0,3E0,1E0,1.6E1,2.36E2,8E0,5.4E1,2.5E1,1.1E1,1.4E1,4.1E1,8E0,9E0,3E0,5.5E1,3.2E1,1.3E1,6E0,1.3E1,1.4E1,4E0,1.7E1,6E0,7E0,3E0,2E0,1E0],"tree_param":{"num_deleted":"0","num_feature":"60","num_nodes":"85","size_leaf_vector":"0"}},{"base_weights":[1.1065294E-4,1.3087733E-2,-8.409416E-2,-1.6778482E-2,8.667841E-2,8.3108425E-2,-1.7648694E-1,1.2960394E-1,-3.6711518E-2,4.9703765E-1,5.1244758E-2,2.9258707E-1,-9.607424E-2,-2.1229244E-3,-2.943766E-1,3.7978494E-1,1.8680552E-2,-1.8511577E-1,-1.6465165E-2,7.6619983E-3,6.4308417E-1,1.3763759E-1,-1.0519405E-1,4.8135538E-2,5.6508374E-1,-1.9659793E-1,1.3773948E-1,1.17117256E-1,-2.5524294E-1,-4.0747136E-1,-2.086296E-2,6.20236E-1,1.6378595E-2,-4.73269E-2,4.2419064E-1,9.859303E-2,-3.254784E-1,3.5143636E-2,-1.06193714E-1,1.8902779E-1,-1.1580253E-1,6.87569E-1,1.2136006E-1,3.893947E-1,6.897255E-2,-2.3836179E-1,2.2417095E-2,1.464782E-1,-1.1141235E-1,1.332829E-1,7.111475E-1,-2.933534E-1,1.6881466E-2,5.506611E-2,2.0205748E-1,-4.548404E-2,2.0994379E-1,-4.0681335E-1,-1.9691982E-3,-2.50966E-1,-6.8911135E-1,1.6005664E-1,-1.4711082E-1,2.769779E-1,7.45702E-1,1.3337156E-1,-1.0470903E-1,1.2685346E-2,-3.6192766E-1,1.9090903E-1,5.160754E-1,1.9495548E-1,-7.844325E-2,-3.7400153E-1,-1.7767033E-2,-1.5215659E-1,8.0891274E-2,6.913165E-2,-2.182891E-1,9.028722E-2,7.781728E-1,8.236332E-1,3.867444E-2,-3.069899E-1,5.300157E-2,3.9791554E-1,-5.3579275E-2,1.9573434E-1,3.1977296E-2,-1.0849357E-2,-1.4131689E-1,1.8390441E-1,1.601994E-2,-4.1149974E-2,-3.1973508E-1,-2.921772E-2,1.00639105E-1,-1.0424204E-1,2.464497E-2,2.580022E-1,6.1341017E-2,4.3177128E-2,-3.141035E-2,-3.3347094E-1,-8.546311E-2,-7.6594615E-1,-3.0573788E-1,3.3377886E-2,1.8338186E-1],"categories":[],"categories_nodes":[],"categories_segments":[],"categories_sizes":[],"default_left":[1,1,1,1,1,1,1,1,1,1,1,1,1,1,1,1,1,1,1,1,1,1,1,1,1,1,1,1,1,1,1,1,1,1,1,1,1,1,1,0,0,0,0,1,1,1,1,1,1,1,0,1,1,0,0,1,1,0,1,1,1,1,0,0,0,0,0,0,0,0,0,0,0,0,0,0,0,0,0,0,0,0,0,0,0,0,0,0,0,0,0,0,0,0,0,0,0,0,0,0,0,0,0,0,0,0,0,0,0],"id":34,"left_children":[1,3,5,7,9,11,13,15,17,19,21,23,25,27,29,31,33,35,37,39,41,43,45,47,49,51,53,55,57,59,61,63,65,67,69,71,73,75,77,-1,-1,-1,-1,79,81,83,85,87,89,91,-1,93,95,-1,-1,97,99,-1,101,103,105,107,-1,-1,-1,-1,-1,-1,-1,-1,-1,-1,-1,-1,-1,-1,-1,-1,-1,-1,-1,-1,-1,-1,-1,-1,-1,-1,-1,-1,-1,-1,-1,-1,-1,-1,-1,-1,-1,-1,-1,-1,-1,-1,-1,-1,-1,-1,-1],"loss_changes":[7.201186E-1,1.256441E0,1.374119E0,1.1923214E0,2.3737164E0,1.2292283E0,1.1710513E0,1.3527007E0,1.0756197E0,9.242034E-1,2.0823028E0,9.719827E-1,4.501481E-1,7.5426316E-1,1.0432193E0,1.3005629E0,9.5690966E-1,1.7444407E0,1.4716902E0,1.1145886E-1,1.4864492E-1,1.6845466E0,9.3999606E-1,1.5753277E-1,3.467095E-1,2.7347106E-1,2.0777784E-2,2.661422E-1,3.0630934E-1,8.849325E-1,2.747939E-1,1.8106222E-1,1.13130026E-1,5.89868E-1,8.651674E-3,2.7118772E-1,4.263575E-1,1.7431538E0,2.294858E0,0E0,0E0,0E0,0E0,2.371756E0,1.774465E0,5.561552E-1,8.4887904E-1,2.7580187E-2,1.0495964E-2,1.4861945E-2,0E0,4.6724856E-2,2.2246242E-2,0E0,0E0,3.141353E-2,6.273165E-2,0E0,6.672848E-3,2.0363212E-1,1.4727116E-3,8.653149E-3,0E0,0E0,0E0,0E0,0E0,0E0,0E0,0E0,0E0,0E0,0E0,0E0,0E0,0E0,0E0,0E0,0E0,0E0,0E0,0E0,0E0,0E0,0E0,0E0,0E0,0E0,0E0,0E0,0E0,0E0,0E0,0E0,0E0,0E0,0E0,0E0,0E0,0E0,0E0,0E0,0E0,0E0,0E0,0E0,0E0,0E0,0E0],"parents":[2147483647,0,0,1,1,2,2,3,3,4,4,5,5,6,6,7,7,8,8,9,9,10,10,11,11,12,12,13,13,14,14,15,15,16,16,17,17,18,18,19,19,20,20,21,21,22,22,23,23,24,24,25,25,26,26,27,27,28,28,29,29,30,30,31,31,32,32,33,33,34,34,35,35,36,36,37,37,38,38,43,43,44,44,45,45,46,46,47,47,48,48,49,49,51,51,52,52,55,55,56,56,58,58,59,59,60,60,61,61],"right_children":[2,4,6,8,10,12,14,16,18,20,22,24,26,28,30,32,34,36,38,40,42,44,46,48,50,52,54,56,58,60,62,64,66,68,70,72,74,76,78,-1,-1,-1,-1,80,82,84,86,88,90,92,-1,94,96,-1,-1,98,100,-1,102,104,106,108,-1,-1,-1,-1,-1,-1,-1,-1,-1,-1,-1,-1,-1,-1,-1,-1,-1,-1,-1,-1,-1,-1,-1,-1,-1,-1,-1,-1,-1,-1,-1,-1,-1,-1,-1,-1,-1,-1,-1,-1,-1,-1,-1,-1,-1,-1,-1],"split_conditions":[5.2828712E0,2.4930735E0,-1.4295831E0,-5.6332374E0,2.7837782E0,-1.1916577E0,-1.5741171E-1,-2.0527098E0,-5.0421767E0,-1.7809241E0,1.5484028E0,6.248697E-1,2.9579012E0,1.5332253E0,2.647317E0,3.20393E0,5.314215E0,-1.1319469E0,2.1761906E0,-5.2218666E0,3.2818465E0,-1.1794102E0,-2.8938642E-1,1.8981183E0,-2.5402384E0,7.6552715E0,5.3076186E0,-4.0110292E0,6.314616E-1,1.7736614E0,7.279843E-1,-7.3919973E0,1.3691597E0,4.627681E0,2.3031794E-1,3.5759422E-1,5.804661E0,-3.0564756E0,-1.2741721E0,5.670834E-2,-3.474076E-2,2.0627071E-1,3.6408022E-2,5.0091505E0,-6.348175E0,5.867157E0,-3.5725124E0,-2.9057157E0,2.2339723E0,2.3750587E0,2.1334426E-1,-3.1914449E0,1.2292442E0,1.6519833E-2,6.0617246E-2,-6.363397E-1,3.5598063E0,-1.2204401E-1,-5.211406E-1,-7.83054E-1,8.775809E-1,-3.8917677E0,-4.4133246E-2,8.3093375E-2,2.2371061E-1,4.001147E-2,-3.141271E-2,3.805604E-3,-1.085783E-1,5.727271E-2,1.5482262E-1,5.8486648E-2,-2.3532977E-2,-1.1220046E-1,-5.33011E-3,-4.564698E-2,2.4267383E-2,2.0739496E-2,-6.548674E-2,2.7086169E-2,2.3345184E-1,2.4708997E-1,1.1602333E-2,-9.209698E-2,1.5900472E-2,1.1937467E-1,-1.6073784E-2,5.87203E-2,9.593189E-3,-3.254807E-3,-4.239507E-2,5.5171326E-2,4.805982E-3,-1.2344993E-2,-9.5920525E-2,-8.765317E-3,3.0191733E-2,-3.1272613E-2,7.3934915E-3,7.740066E-2,1.8402306E-2,1.2953139E-2,-9.423106E-3,-1.00041285E-1,-2.5638932E-2,-2.2978385E-1,-9.172137E-2,1.0013366E-2,5.5014558E-2],"split_indices":[28,56,31,41,56,56,7,53,54,31,11,16,33,6,25,3,44,59,54,2,7,0,27,18,23,4,2,6,10,32,8,41,13,8,0,17,21,21,9,0,0,0,0,56,3,50,52,5,0,0,0,0,1,0,0,0,11,0,0,32,3,0,0,0,0,0,0,0,0,0,0,0,0,0,0,0,0,0,0,0,0,0,0,0,0,0,0,0,0,0,0,0,0,0,0,0,0,0,0,0,0,0,0,0,0,0,0,0,0],"split_type":[0,0,0,0,0,0,0,0,0,0,0,0,0,0,0,0,0,0,0,0,0,0,0,0,0,0,0,0,0,0,0,0,0,0,0,0,0,0,0,0,0,0,0,0,0,0,0,0,0,0,0,0,0,0,0,0,0,0,0,0,0,0,0,0,0,0,0,0,0,0,0,0,0,0,0,0,0,0,0,0,0,0,0,0,0,0,0,0,0,0,0,0,0,0,0,0,0,0,0,0,0,0,0,0,0,0,0,0,0],"sum_hessian":[6.57E2,5.7E2,8.7E1,4.06E2,1.64E2,3.1E1,5.6E1,4.8E1,3.58E2,1.2E1,1.52E2,1.4E1,1.7E1,2.3E1,3.3E1,1.4E1,3.4E1,4.2E1,3.16E2,3E0,9E0,9.8E1,5.4E1,8E0,6E0,1.2E1,5E0,1.6E1,7E0,2.3E1,1E1,8E0,6E0,3E1,4E0,1.4E1,2.8E1,2.01E2,1.15E2,1E0,2E0,8E0,1E0,2E1,7.8E1,2.6E1,2.8E1,5E0,3E0,2E0,4E0,8E0,4E0,3E0,2E0,6E0,1E1,4E0,3E0,1.6E1,7E0,4E0,6E0,3E0,5E0,3E0,3E0,2.6E1,4E0,2E0,2E0,9E0,5E0,2.4E1,4E0,3.9E1,1.62E2,4.5E1,7E1,1.2E1,8E0,2E0,7.6E1,2.1E1,5E0,4E0,2.4E1,3E0,2E0,1E0,2E0,1E0,1E0,1E0,7E0,3E0,1E0,3E0,3E0,7E0,3E0,1E0,2E0,1E1,6E0,5E0,2E0,1E0,3E0],"tree_param":{"num_deleted":"0","num_feature":"60","num_nodes":"109","size_leaf_vector":"0"}},{"base_weights":[1.4428159E-3,-1.946114E-1,6.3190595E-3,-1.1087675E-1,-7.253156E-1,4.8710674E-2,-1.6615927E-2,3.2893844E-2,-1.661473E-1,1.028187E-1,-4.756218E-2,-3.4662992E-1,-7.677765E-3,-5.111702E-3,9.245801E-2,-2.0147687E-1,-5.395133E-2,2.6241643E-2,2.4344617E-1,-2.1814744E-1,3.1083066E-2,1.6049361E-1,-4.7715667E-1,3.529325E-2,-7.804525E-2,1.0248303E-2,-1.3647805E-2,-1.3787031E-2,-6.274375E-2,-2.8869528E-2,2.8080288E-1,3.9506444E-1,8.03605E-3,-2.8337464E-1,1.1248171E-1,4.7736415E-1,6.1753155E-3,2.4910092E-2,2.1583033E-1,-6.840235E-2,-5.1970065E-1,1.0519317E-1,-4.488895E-2,-1.4760347E-1,4.7559522E-2,-5.3955536E-2,3.5319448E-1,5.696776E-1,-3.9272174E-2,2.369193E-1,7.034773E-1,-1.0964086E-1,3.205018E-1,-3.5045972E-1,-4.6071112E-2,-9.619792E-4,1.884315E-1,9.850847E-2,-7.4052595E-2,1.4530793E-1,-1.8415773E-1,-1.15705885E-1,1.512604E-1,-4.8851106E-1,-9.997994E-2,-2.1515065E-1,1.1655869E-1],"categories":[],"categories_nodes":[],"categories_segments":[],"categories_sizes":[],"default_left":[1,1,1,1,0,1,1,1,1,1,1,1,1,1,0,0,1,1,1,1,1,1,1,1,1,0,0,0,0,1,1,1,1,1,1,0,1,0,0,0,0,1,1,1,1,0,0,0,0,0,0,0,0,0,0,0,0,0,0,0,0,0,0,0,0,0,0],"id":35,"left_children":[1,3,5,7,-1,9,11,13,15,17,19,21,23,25,-1,-1,27,29,31,33,35,37,39,41,43,-1,-1,-1,-1,45,47,49,51,53,55,-1,57,-1,-1,-1,-1,59,61,63,65,-1,-1,-1,-1,-1,-1,-1,-1,-1,-1,-1,-1,-1,-1,-1,-1,-1,-1,-1,-1,-1,-1],"loss_changes":[6.3028306E-1,6.305926E-1,6.2596685E-1,1.24659434E-1,0E0,1.1821544E0,1.230321E0,1.179146E-2,3.273225E-2,1.5550929E0,1.1068697E0,8.047055E-1,1.2364495E0,6.643252E-4,0E0,0E0,5.475152E-4,1.3408775E0,1.8171418E0,5.925908E-1,6.3065606E-1,1.7131887E-2,1.20961666E-1,1.4283231E0,1.3612309E0,0E0,0E0,0E0,0E0,7.7622914E-1,1.5942194E0,1.3453264E0,8.073102E-1,3.3408368E-1,4.3261386E-2,0E0,4.1471812E-1,0E0,0E0,0E0,0E0,1.6053448E0,1.6704946E0,1.5746813E0,1.0401775E0,0E0,0E0,0E0,0E0,0E0,0E0,0E0,0E0,0E0,0E0,0E0,0E0,0E0,0E0,0E0,0E0,0E0,0E0,0E0,0E0,0E0,0E0],"parents":[2147483647,0,0,1,1,2,2,3,3,5,5,6,6,7,7,8,8,9,9,10,10,11,11,12,12,13,13,16,16,17,17,18,18,19,19,20,20,21,21,22,22,23,23,24,24,29,29,30,30,31,31,32,32,33,33,34,34,36,36,41,41,42,42,43,43,44,44],"right_children":[2,4,6,8,-1,10,12,14,16,18,20,22,24,26,-1,-1,28,30,32,34,36,38,40,42,44,-1,-1,-1,-1,46,48,50,52,54,56,-1,58,-1,-1,-1,-1,60,62,64,66,-1,-1,-1,-1,-1,-1,-1,-1,-1,-1,-1,-1,-1,-1,-1,-1,-1,-1,-1,-1,-1,-1],"split_conditions":[-9.800821E0,4.2486944E0,-9.8348176E-1,-2.9640765E0,-2.1759468E-1,1.584676E0,-8.5037744E-1,1.3445365E1,8.6877763E-1,1.2206489E0,-1.2781681E0,-1.2229539E0,1.9177935E0,-1.4280963E0,2.7737403E-2,-6.0443062E-2,-1.1156995E0,3.6397023E0,1.6809628E0,4.7679944E0,-5.2602024E0,-4.4932346E0,-2.9081013E0,1.045909E0,1.5442653E0,3.0744912E-3,-4.094342E-3,-4.1361097E-3,-1.8823126E-2,1.1642804E0,4.9874206E0,2.1560907E0,1.0285932E0,2.0523915E0,-2.9164479E0,1.4320925E-1,4.1392756E-1,7.473028E-3,6.47491E-2,-2.0520706E-2,-1.559102E-1,6.0039043E0,3.454473E0,-5.5506315E0,-2.1336365E0,-1.6186662E-2,1.0595835E-1,1.7090328E-1,-1.1781652E-2,7.107579E-2,2.1104321E-1,-3.289226E-2,9.615055E-2,-1.0513792E-1,-1.3821335E-2,-2.885938E-4,5.652945E-2,2.9552542E-2,-2.221578E-2,4.359238E-2,-5.524732E-2,-3.4711767E-2,4.5378122E-2,-1.4655332E-1,-2.9993983E-2,-6.45452E-2,3.496761E-2],"split_indices":[28,32,7,56,0,19,7,0,24,47,55,3,1,0,0,0,0,6,3,48,43,0,2,49,25,0,0,0,0,19,6,58,23,38,1,0,26,0,0,0,0,26,26,49,43,0,0,0,0,0,0,0,0,0,0,0,0,0,0,0,0,0,0,0,0,0,0],"split_type":[0,0,0,0,0,0,0,0,0,0,0,0,0,0,0,0,0,0,0,0,0,0,0,0,0,0,0,0,0,0,0,0,0,0,0,0,0,0,0,0,0,0,0,0,0,0,0,0,0,0,0,0,0,0,0,0,0,0,0,0,0,0,0,0,0,0,0],"sum_hessian":[6.57E2,1.5E1,6.42E2,1.4E1,1E0,2.25E2,4.17E2,4E0,1E1,1.44E2,8.1E1,1E1,4.07E2,3E0,1E0,7E0,3E0,9.4E1,5E1,2.5E1,5.6E1,2E0,8E0,2.53E2,1.54E2,1E0,2E0,1E0,2E0,7.8E1,1.6E1,3E1,2E1,2.1E1,4E0,2E0,5.4E1,1E0,1E0,1E0,7E0,1.35E2,1.18E2,9.9E1,5.5E1,7.4E1,4E0,8E0,8E0,2.1E1,9E0,1.5E1,5E0,1.6E1,5E0,2E0,2E0,2.5E1,2.9E1,1.19E2,1.6E1,8.7E1,3.1E1,1.1E1,8.8E1,1.1E1,4.4E1],"tree_param":{"num_deleted":"0","num_feature":"60","num_nodes":"67","size_leaf_vector":"0"}},{"base_weights":[1.1566301E-3,-1.05516754E-1,1.0293136E-2,-1.646468E-1,8.4538564E-2,-1.609796E-2,5.7123467E-2,-3.099939E-1,-7.4460156E-2,3.0262408E-1,-4.6013236E-2,2.5744874E-2,-8.591682E-2,1.273199E-1,-6.303705E-3,-1.2419747E-1,-5.0459015E-1,-9.568095E-3,-2.8917235E-1,1.2418906E-2,-1.2215814E-1,4.248549E-2,-1.8680316E-1,3.372292E-1,-1.1289071E-1,9.922066E-2,6.638406E-1,4.3318488E-2,-1.8866122E-1,4.073791E-2,-1.7714156E-1,-5.83837E-1,-1.4554717E-2,-8.587906E-2,1.5532227E-1,-5.9545515E-3,5.2143097E-2,-3.39681E-2,9.483881E-2,2.8694987E-1,-4.4759217E-1,6.0014058E-2,6.687446E-1,-2.4987197E-1,-2.7159344E-2,3.1253225E-1,4.1986115E-2,2.4731334E-1,8.5908765E-1,1.7092468E-1,-3.443212E-2,-2.6532766E-1,7.4209124E-3,-1.7277896E-2,7.838476E-2,-6.1237175E-2,-2.1125588E-1,-1.9189337E-1,-2.9883541E-2,7.1936816E-2,1.9987714E-1,-1.3913314E-2,3.989061E-3,4.5453668E-2,-1.797487E-1,1.805409E-1,5.1629413E-3,-1.5302658E-1,3.857837E-1,-6.6150945E-1,-1.5806103E-2,1.6164528E-1,-3.1212866E-2,-3.7619078E-1,6.575221E-2,1.51515445E-2,-1.9978304E-1,1.0912203E-1,6.2943363E-1,-3.6244397E-3,3.0074796E-1,5.338328E-1,7.743221E-2,-1.2784469E-2,-4.2704424E-1,-4.794444E-2,-3.4524855E-1,5.409392E-2,-5.2775577E-2],"categories":[],"categories_nodes":[],"categories_segments":[],"categories_sizes":[],"default_left":[1,1,1,1,1,1,1,1,1,0,1,1,1,1,1,1,1,1,0,1,0,1,1,1,1,1,1,1,1,1,1,0,0,1,1,1,0,1,1,1,1,1,0,1,1,1,1,0,0,1,1,1,1,0,0,0,0,0,0,0,0,0,0,0,0,0,0,0,0,0,0,0,0,0,0,0,0,0,0,0,0,0,0,0,0,0,0,0,0],"id":36,"left_children":[1,3,5,7,9,11,13,15,17,-1,19,21,23,25,27,29,31,33,-1,35,-1,37,39,41,43,45,47,49,51,53,55,-1,-1,57,59,61,-1,63,65,67,69,71,-1,73,75,77,79,-1,-1,81,83,85,87,-1,-1,-1,-1,-1,-1,-1,-1,-1,-1,-1,-1,-1,-1,-1,-1,-1,-1,-1,-1,-1,-1,-1,-1,-1,-1,-1,-1,-1,-1,-1,-1,-1,-1,-1,-1],"loss_changes":[6.4238745E-1,5.98294E-1,7.511131E-1,5.0125253E-1,3.8405362E-1,1.1386439E0,9.758697E-1,4.796605E-1,3.5949415E-1,0E0,4.1560862E-2,8.761336E-1,1.704499E0,1.5020187E0,1.0578542E0,8.580756E-2,2.6333845E-1,2.775807E-1,0E0,4.6897135E-3,0E0,9.1181153E-1,2.3523293E0,7.8697574E-1,1.6138291E0,1.2077574E0,1.9416475E-1,9.1865957E-1,3.77792E-1,7.90666E-3,1.4741287E-2,0E0,0E0,8.331045E-2,1.1628076E-2,4.5119523E-4,0E0,1.0849385E0,1.0365983E0,3.634271E-1,1.0979421E0,6.067443E-2,0E0,2.1378067E0,6.311592E-1,1.2849953E0,9.4527173E-1,0E0,0E0,1.1461854E0,4.8748997E-1,2.9616952E-1,2.5331248E-2,0E0,0E0,0E0,0E0,0E0,0E0,0E0,0E0,0E0,0E0,0E0,0E0,0E0,0E0,0E0,0E0,0E0,0E0,0E0,0E0,0E0,0E0,0E0,0E0,0E0,0E0,0E0,0E0,0E0,0E0,0E0,0E0,0E0,0E0,0E0,0E0],"parents":[2147483647,0,0,1,1,2,2,3,3,4,4,5,5,6,6,7,7,8,8,10,10,11,11,12,12,13,13,14,14,15,15,16,16,17,17,19,19,21,21,22,22,23,23,24,24,25,25,26,26,27,27,28,28,29,29,30,30,33,33,34,34,35,35,37,37,38,38,39,39,40,40,41,41,43,43,44,44,45,45,46,46,49,49,50,50,51,51,52,52],"right_children":[2,4,6,8,10,12,14,16,18,-1,20,22,24,26,28,30,32,34,-1,36,-1,38,40,42,44,46,48,50,52,54,56,-1,-1,58,60,62,-1,64,66,68,70,72,-1,74,76,78,80,-1,-1,82,84,86,88,-1,-1,-1,-1,-1,-1,-1,-1,-1,-1,-1,-1,-1,-1,-1,-1,-1,-1,-1,-1,-1,-1,-1,-1,-1,-1,-1,-1,-1,-1,-1,-1,-1,-1,-1,-1],"split_conditions":[-6.427704E0,3.84473E0,1.6664274E0,4.9129844E-1,4.5125084E0,1.3781033E0,-6.160747E-1,2.8370898E0,4.477332E0,9.0787224E-2,1.6307949E0,7.204492E0,-4.520404E0,-7.6237524E-1,3.4495702E0,-4.5108E0,6.7549276E0,1.9519389E0,-8.675171E-2,7.1873903E0,-3.6647443E-2,-6.292839E-1,-3.4916404E-1,-2.8979926E0,2.962558E0,2.2908883E0,-1.3670256E0,-8.332168E-1,3.088223E0,-3.5168054E0,-2.7742937E0,-1.751511E-1,-4.366415E-3,-2.1782131E0,-1.2429863E0,4.015267E-1,1.564293E-2,1.0566438E0,1.6176011E-2,-2.5343714E0,4.135395E0,-3.680699E0,2.006234E-1,2.0448003E0,4.0158806E0,5.521353E-1,6.253077E0,7.419401E-2,2.577263E-1,-3.140205E0,9.9989395E0,-4.5332623E0,1.8922483E0,-5.183369E-3,2.3515427E-2,-1.8371154E-2,-6.337677E-2,-5.7568014E-2,-8.965063E-3,2.1581046E-2,5.9963144E-2,-4.1739945E-3,1.1967183E-3,1.3636101E-2,-5.3924613E-2,5.4162275E-2,1.5488825E-3,-4.5907974E-2,1.1573511E-1,-1.9845285E-1,-4.741831E-3,4.8493586E-2,-9.36386E-3,-1.1285724E-1,1.9725664E-2,4.5454637E-3,-5.9934914E-2,3.273661E-2,1.8883009E-1,-1.0873319E-3,9.022439E-2,1.6014984E-1,2.3229662E-2,-3.8353407E-3,-1.2811328E-1,-1.4383333E-2,-1.0357457E-1,1.6228177E-2,-1.5832674E-2],"split_indices":[44,13,20,24,19,14,31,50,26,0,4,55,44,31,28,11,0,31,0,1,0,12,3,8,14,20,2,51,48,0,2,0,0,12,29,1,0,57,23,4,50,20,0,29,43,12,32,0,0,35,46,40,12,0,0,0,0,0,0,0,0,0,0,0,0,0,0,0,0,0,0,0,0,0,0,0,0,0,0,0,0,0,0,0,0,0,0,0,0],"split_type":[0,0,0,0,0,0,0,0,0,0,0,0,0,0,0,0,0,0,0,0,0,0,0,0,0,0,0,0,0,0,0,0,0,0,0,0,0,0,0,0,0,0,0,0,0,0,0,0,0,0,0,0,0,0,0,0,0,0,0,0,0,0,0,0,0,0,0,0,0,0,0,0,0,0,0,0,0,0,0,0,0,0,0,0,0,0,0,0,0],"sum_hessian":[6.57E2,5.1E1,6.06E2,3.9E1,1.2E1,3.88E2,2.18E2,1.4E1,2.5E1,4E0,8E0,2.43E2,1.45E2,1.03E2,1.15E2,8E0,6E0,2E1,5E0,5E0,3E0,2.26E2,1.7E1,8E0,1.37E2,9.9E1,4E0,9.1E1,2.4E1,2E0,6E0,5E0,1E0,1.4E1,6E0,4E0,1E0,9.2E1,1.34E2,6E0,1.1E1,5E0,3E0,5.2E1,8.5E1,2E1,7.9E1,2E0,2E0,3.4E1,5.7E1,1.7E1,7E0,1E0,1E0,2E0,4E0,4E0,1E1,3E0,3E0,2E0,2E0,6E1,3.2E1,6.8E1,6.6E1,1E0,5E0,7E0,4E0,2E0,3E0,3.7E1,1.5E1,6.9E1,1.6E1,1.3E1,7E0,6.8E1,1.1E1,6E0,2.8E1,5.5E1,2E0,5E0,1.2E1,4E0,3E0],"tree_param":{"num_deleted":"0","num_feature":"60","num_nodes":"89","size_leaf_vector":"0"}},{"base_weights":[1.268473E-3,-1.8684162E-2,3.702566E-2,-9.138984E-2,7.793092E-3,1.2162135E-1,-3.9174245E-3,-4.5082983E-2,-2.7063048E-1,5.451312E-2,-6.2162414E-2,1.7111973E-1,-1.3522607E-1,-2.239573E-2,2.4841559E-1,-7.777432E-2,8.289339E-2,-6.064108E-1,-1.16448544E-1,-2.7984002E-1,7.299075E-2,8.822485E-2,-1.3397083E-1,2.8540415E-1,5.1649883E-2,-1.165698E-2,-3.306052E-1,2.8752051E-2,-9.5456325E-2,1.7352302E-2,5.222211E-1,-1.634898E-1,-1.0615527E-2,-9.584995E-2,1.5357672E-1,-7.8390956E-1,-1.0844263E-1,2.0796745E-1,-2.3226634E-1,-1.319161E-1,-4.6874684E-1,-6.359276E-3,1.472349E-1,2.4282995E-1,-7.058143E-2,9.039875E-3,-2.2948855E-1,3.9842132E-1,5.4422285E-2,-8.5174754E-2,1.7040235E-1,-5.9857912E-2,1.8697524E-1,-4.4067968E-2,1.5366082E-1,-2.7776748E-2,-2.2626993E-1,-2.6482364E-2,8.462598E-2,5.744901E-1,1.5657258E-1,-2.669509E-1,-5.6497596E-2,1.24903426E-1,-6.898656E-2,-1.0696373E-1,-2.0140529E-2,1.8054442E-1,-5.4863393E-3,1.8930435E-3,-1.6455698E-1,3.081824E-1,-9.644617E-2,-3.0970237E-1,1.939027E-2,3.4552693E-2,-1.6541968E-1,6.8837956E-2,-1.5152861E-1,2.0991313E-1,-8.89024E-2,3.1934744E-1,-1.6220629E-1,-1.8899123E-1,1.0829735E-1,1.046919E-1,-9.839709E-2,-3.351631E-2,-3.1021264E-1,5.238421E-1,1.13454685E-1,-1.0611007E-1,1.4795223E-1,1.0284556E-1,-1.7998813E-1,6.0066182E-2,3.3520687E-1,-9.9561825E-2,4.7364533E-3,-1.4334272E-1,5.0057393E-2,2.0177782E-1,-1.5615001E-1,1.2516403E-2,-3.2844934E-1,-9.582113E-2,-3.601815E-1,3.0175844E-4,-4.4439033E-2],"categories":[],"categories_nodes":[],"categories_segments":[],"categories_sizes":[],"default_left":[1,1,1,1,1,1,1,1,1,1,1,1,1,1,1,1,1,1,1,1,1,1,1,1,1,1,0,1,1,1,1,1,1,1,1,0,1,1,1,1,0,1,1,1,1,1,1,1,1,1,1,1,0,1,1,1,1,1,0,0,0,0,0,0,0,0,0,0,0,0,0,0,0,0,0,0,0,0,0,0,0,0,0,0,0,0,0,0,0,0,0,0,0,0,0,0,0,0,0,0,0,0,0,0,0,0,0,0,0],"id":37,"left_children":[1,3,5,7,9,11,13,15,17,19,21,23,25,27,29,31,33,35,37,39,41,43,45,47,49,51,-1,53,55,57,59,61,63,65,67,-1,69,71,73,75,-1,77,79,81,83,85,87,89,91,93,95,97,-1,99,101,103,105,107,-1,-1,-1,-1,-1,-1,-1,-1,-1,-1,-1,-1,-1,-1,-1,-1,-1,-1,-1,-1,-1,-1,-1,-1,-1,-1,-1,-1,-1,-1,-1,-1,-1,-1,-1,-1,-1,-1,-1,-1,-1,-1,-1,-1,-1,-1,-1,-1,-1,-1,-1],"loss_changes":[4.7014198E-1,8.1500703E-1,8.178881E-1,9.257072E-1,1.0198371E0,1.0020818E0,7.515933E-1,3.8716543E-1,1.1201235E0,1.1757218E0,1.3617036E0,8.7273896E-1,3.100028E-1,5.6327766E-1,6.868686E-1,4.1849247E-1,2.5476962E-1,5.3371215E-1,6.870473E-1,2.1760315E-1,1.0495832E0,1.0237819E0,1.1631792E0,8.397796E-1,5.507066E-1,9.736027E-2,0E0,8.1630296E-1,5.426264E-1,2.288353E-2,5.611062E-3,3.3914292E-1,3.4085262E-1,2.894204E-3,6.1044455E-2,0E0,1.8885758E-2,1.8225698E-1,2.5933993E-1,4.47568E-2,0E0,9.6015173E-1,1.3803233E0,7.026398E-1,4.6526828E-1,3.699811E-1,7.9640675E-1,7.268641E-1,1.9587421E-1,3.0374044E-1,3.0717564E-1,2.0988759E-2,0E0,5.3979886E-1,5.2344424E-1,5.129429E-1,3.3232772E-1,2.418178E-3,0E0,0E0,0E0,0E0,0E0,0E0,0E0,0E0,0E0,0E0,0E0,0E0,0E0,0E0,0E0,0E0,0E0,0E0,0E0,0E0,0E0,0E0,0E0,0E0,0E0,0E0,0E0,0E0,0E0,0E0,0E0,0E0,0E0,0E0,0E0,0E0,0E0,0E0,0E0,0E0,0E0,0E0,0E0,0E0,0E0,0E0,0E0,0E0,0E0,0E0,0E0],"parents":[2147483647,0,0,1,1,2,2,3,3,4,4,5,5,6,6,7,7,8,8,9,9,10,10,11,11,12,12,13,13,14,14,15,15,16,16,17,17,18,18,19,19,20,20,21,21,22,22,23,23,24,24,25,25,27,27,28,28,29,29,30,30,31,31,32,32,33,33,34,34,36,36,37,37,38,38,39,39,41,41,42,42,43,43,44,44,45,45,46,46,47,47,48,48,49,49,50,50,51,51,53,53,54,54,55,55,56,56,57,57],"right_children":[2,4,6,8,10,12,14,16,18,20,22,24,26,28,30,32,34,36,38,40,42,44,46,48,50,52,-1,54,56,58,60,62,64,66,68,-1,70,72,74,76,-1,78,80,82,84,86,88,90,92,94,96,98,-1,100,102,104,106,108,-1,-1,-1,-1,-1,-1,-1,-1,-1,-1,-1,-1,-1,-1,-1,-1,-1,-1,-1,-1,-1,-1,-1,-1,-1,-1,-1,-1,-1,-1,-1,-1,-1,-1,-1,-1,-1,-1,-1,-1,-1,-1,-1,-1,-1,-1,-1,-1,-1,-1,-1],"split_conditions":[1.7019964E0,-2.0599928E0,3.1602979E0,3.415197E0,1.21826E0,5.418125E0,7.2335453E0,3.668624E0,-3.0079947E0,-5.7248797E0,-8.726997E-1,2.559851E-1,2.0440347E0,1.5059233E0,4.0912085E0,-4.9385554E-1,-2.6325197E0,1.9691074E0,-2.4418702E0,1.5466197E0,2.8648782E-1,4.957117E-1,-1.1405736E0,1.9824742E0,-5.224069E-1,2.5981674E0,-9.918157E-2,1.2206489E0,1.4646084E0,-1.6634228E0,-1.50742E0,-1.7280624E0,-1.5115829E0,1.7587497E0,4.3988614E0,-2.3517288E-1,1.6709251E0,4.739499E0,3.32468E0,-5.070167E0,-1.4062406E-1,2.2065063E0,5.194758E0,3.0423515E0,1.6230022E0,2.1553793E0,-2.0474863E0,3.6199598E0,-5.7749903E-1,-1.5856553E0,1.5016236E0,6.16589E0,5.6092575E-2,7.3575807E-1,3.3688502E0,5.2237024E0,1.808034E0,5.275982E0,2.5387796E-2,1.7234702E-1,4.6971776E-2,-8.008528E-2,-1.694928E-2,3.747103E-2,-2.0695968E-2,-3.208912E-2,-6.0421587E-3,5.416333E-2,-1.6459018E-3,5.6791306E-4,-4.9367096E-2,9.245472E-2,-2.8933853E-2,-9.2910714E-2,5.8170813E-3,1.0365808E-2,-4.9625907E-2,2.0651387E-2,-4.5458585E-2,6.297395E-2,-2.667072E-2,9.580424E-2,-4.866189E-2,-5.6697372E-2,3.2489207E-2,3.1407572E-2,-2.9519128E-2,-1.0054894E-2,-9.3063794E-2,1.5715264E-1,3.4036405E-2,-3.1833023E-2,4.438567E-2,3.0853668E-2,-5.399644E-2,1.8019855E-2,1.00562066E-1,-2.9868549E-2,1.4209361E-3,-4.3002818E-2,1.5017218E-2,6.053335E-2,-4.6845004E-2,3.754921E-3,-9.853481E-2,-2.8746339E-2,-1.0805446E-1,9.052754E-5,-1.333171E-2],"split_indices":[9,24,9,39,12,28,54,40,49,4,45,37,52,50,48,3,28,6,51,19,50,19,13,40,23,9,0,56,49,7,1,39,41,3,59,0,0,7,32,1,0,22,24,14,34,24,57,42,16,11,12,4,0,11,11,36,32,2,0,0,0,0,0,0,0,0,0,0,0,0,0,0,0,0,0,0,0,0,0,0,0,0,0,0,0,0,0,0,0,0,0,0,0,0,0,0,0,0,0,0,0,0,0,0,0,0,0,0,0],"split_type":[0,0,0,0,0,0,0,0,0,0,0,0,0,0,0,0,0,0,0,0,0,0,0,0,0,0,0,0,0,0,0,0,0,0,0,0,0,0,0,0,0,0,0,0,0,0,0,0,0,0,0,0,0,0,0,0,0,0,0,0,0,0,0,0,0,0,0,0,0,0,0,0,0,0,0,0,0,0,0,0,0,0,0,0,0,0,0,0,0,0,0,0,0,0,0,0,0,0,0,0,0,0,0,0,0,0,0,0,0],"sum_hessian":[6.57E2,4.22E2,2.35E2,1.12E2,3.1E2,7.6E1,1.59E2,9E1,2.2E1,1.86E2,1.24E2,6.4E1,1.2E1,1.49E2,1E1,7.2E1,1.8E1,6E0,1.6E1,9E0,1.77E2,4E1,8.4E1,3.2E1,3.2E1,8E0,4E0,8.8E1,6.1E1,6E0,4E0,3.1E1,4.1E1,5E0,1.3E1,4E0,2E0,4E0,1.2E1,6E0,3E0,8.6E1,9.1E1,2E1,2E1,3.4E1,5E1,2.1E1,1.1E1,1.5E1,1.7E1,7E0,1E0,5.6E1,3.2E1,4.1E1,2E1,4E0,2E0,3E0,1E0,1.5E1,1.6E1,1.2E1,2.9E1,4E0,1E0,1.1E1,2E0,1E0,1E0,3E0,1E0,9E0,3E0,1E0,5E0,5.7E1,2.9E1,7.2E1,1.9E1,1.7E1,3E0,1.2E1,8E0,1.8E1,1.6E1,1.5E1,3.5E1,1.4E1,7E0,4E0,7E0,5E0,1E1,1.1E1,6E0,4E0,3E0,2.7E1,2.9E1,2.8E1,4E0,3.7E1,4E0,1.1E1,9E0,2E0,2E0],"tree_param":{"num_deleted":"0","num_feature":"60","num_nodes":"109","size_leaf_vector":"0"}},{"base_weights":[2.695865E-4,1.5374678E-1,-3.3056117E-3,3.5830277E-1,-2.2435294E-2,-2.3524617E-4,-1.9794326E-1,9.057876E-2,4.4727665E-1,9.628282E-2,-1.3666634E-1,1.7557284E-1,-3.329092E-3,-8.759219E-2,-3.415718E-1,1.1075097E-1,2.5117159E-2,3.7966675E-1,5.1579274E-2,2.2046955E-2,-2.7123561E-2,-1.00638546E-1,-4.65703E-3,1.04605176E-1,-7.166562E-2,-4.6550263E-2,5.9193432E-2,5.0366256E-2,-5.635535E-2,4.4413812E-2,-1.1854569E-1,-7.3919445E-2,9.6841305E-2,2.0826258E-2,3.1063E-1,-7.777087E-2,9.257638E-2],"categories":[],"categories_nodes":[],"categories_segments":[],"categories_sizes":[],"default_left":[1,1,1,1,1,1,1,1,0,0,0,1,1,1,0,0,0,0,1,1,1,0,0,0,0,1,1,1,1,0,0,0,0,0,0,0,0],"id":38,"left_children":[1,3,5,7,9,11,13,15,-1,-1,-1,17,19,21,-1,-1,-1,-1,23,25,27,-1,-1,-1,-1,29,31,33,35,-1,-1,-1,-1,-1,-1,-1,-1],"loss_changes":[3.6156034E-1,5.486251E-1,3.8481343E-1,1.2622923E-1,1.3521026E-1,3.4597567E-1,1.285766E-1,1.1797659E-3,0E0,0E0,0E0,2.5878674E-1,3.7797898E-1,7.1053356E-3,0E0,0E0,0E0,0E0,5.9777968E-2,7.7484345E-1,7.34487E-1,0E0,0E0,0E0,0E0,7.0600784E-1,9.9440765E-1,6.777797E-1,7.5672036E-1,0E0,0E0,0E0,0E0,0E0,0E0,0E0,0E0],"parents":[2147483647,0,0,1,1,2,2,3,3,4,4,5,5,6,6,7,7,11,11,12,12,13,13,18,18,19,19,20,20,25,25,26,26,27,27,28,28],"right_children":[2,4,6,8,10,12,14,16,-1,-1,-1,18,20,22,-1,-1,-1,-1,24,26,28,-1,-1,-1,-1,30,32,34,36,-1,-1,-1,-1,-1,-1,-1,-1],"split_conditions":[-1.0706875E1,-2.737797E-1,1.2000842E1,-1.2582114E0,6.6868377E-1,-1.1394555E1,8.690752E-1,8.750329E-1,1.34183E-1,2.8884847E-2,-4.0999904E-2,-2.0933833E0,2.3966008E-1,-4.1700113E-1,-1.02471545E-1,3.3225294E-2,7.535148E-3,1.1390003E-1,4.2568135E0,-7.7125573E-1,-2.1618977E0,-3.0191565E-2,-1.3971091E-3,3.1381555E-2,-2.1499688E-2,-6.113838E-1,-2.1319392E0,5.7848797E0,5.2522464E0,1.3324144E-2,-3.5563707E-2,-2.2175834E-2,2.9052394E-2,6.2478776E-3,9.3189E-2,-2.333126E-2,2.7772915E-2],"split_indices":[54,35,46,1,14,45,8,0,0,0,0,23,22,2,0,0,0,0,0,51,58,0,0,0,0,57,24,48,27,0,0,0,0,0,0,0,0],"split_type":[0,0,0,0,0,0,0,0,0,0,0,0,0,0,0,0,0,0,0,0,0,0,0,0,0,0,0,0,0,0,0,0,0,0,0,0,0],"sum_hessian":[6.57E2,1.4E1,6.43E2,6E0,8E0,6.34E2,9E0,2E0,4E0,4E0,4E0,1E1,6.24E2,6E0,3E0,1E0,1E0,3E0,7E0,3.02E2,3.22E2,5E0,1E0,5E0,2E0,1.06E2,1.96E2,8.8E1,2.34E2,4.7E1,5.9E1,4.3E1,1.53E2,8E1,8E0,2.05E2,2.9E1],"tree_param":{"num_deleted":"0","num_feature":"60","num_nodes":"37","size_leaf_vector":"0"}},{"base_weights":[5.550666E-4,-3.8916743E-1,1.7405916E-3,2.1760326E-2,-2.2450164E-2,4.6741992E-2,-7.379324E-2,-6.8304606E-2,1.5946487E-2,3.2274535E-1,3.5572503E-2,-1.7302368E-2,-2.0075944E-1,-1.3036463E-1,3.445322E-2,7.621868E-2,-3.6287982E-2,4.4161223E-2,4.7562757E-1,-7.833535E-2,5.8694664E-2,-6.093829E-2,2.0279974E-1,6.4855024E-2,-2.600917E-1,-2.0590732E-1,-4.4272307E-2,-7.356028E-2,9.887191E-2,-8.1180744E-2,1.2646644E-1,3.1641483E-1,-5.245884E-2,9.133649E-2,-7.226992E-2,1.9452816E-2,-2.52047E-1,3.71472E-2,2.0110619E-1,-1.1508263E-1,9.7548865E-2,3.040692E-1,1.9562244E-4,8.580464E-2,-9.4717145E-3,-3.847255E-1,-1.0944871E-1,-7.428465E-2,-3.4013626E-1,1.1922847E-2,-2.1966957E-1,-2.4926826E-1,6.435073E-2,-3.4946166E-2,1.7700349E-1,-2.5731128E-1,1.9903451E-2,-8.312426E-2,1.8886207E-1,2.2749563E-1,-6.909234E-2],"categories":[],"categories_nodes":[],"categories_segments":[],"categories_sizes":[],"default_left":[1,0,1,1,1,1,1,1,1,1,1,1,1,1,1,1,1,1,0,1,1,1,1,1,1,1,1,1,1,1,1,0,1,0,0,0,0,0,0,0,0,0,0,0,0,0,0,0,0,0,0,0,0,0,0,0,0,0,0,0,0],"id":39,"left_children":[1,-1,3,5,7,9,11,13,15,17,19,21,23,25,27,29,31,33,-1,35,37,39,41,43,45,47,49,51,53,55,57,-1,59,-1,-1,-1,-1,-1,-1,-1,-1,-1,-1,-1,-1,-1,-1,-1,-1,-1,-1,-1,-1,-1,-1,-1,-1,-1,-1,-1,-1],"loss_changes":[3.0469036E-1,0E0,3.1866866E-1,8.628006E-1,5.25765E-1,8.7020475E-1,5.3445876E-1,8.717844E-1,5.159364E-1,4.4749188E-1,7.315254E-1,5.213893E-1,3.7933695E-1,5.436938E-1,3.6909366E-1,6.113483E-1,5.185075E-1,3.4064233E-2,0E0,8.032894E-1,6.983092E-1,3.973794E-1,1.8459901E-1,8.5983E-3,3.146212E-1,7.697737E-1,4.067346E-1,5.0068194E-1,3.512144E-1,3.4339768E-1,7.741966E-1,0E0,4.1153115E-1,0E0,0E0,0E0,0E0,0E0,0E0,0E0,0E0,0E0,0E0,0E0,0E0,0E0,0E0,0E0,0E0,0E0,0E0,0E0,0E0,0E0,0E0,0E0,0E0,0E0,0E0,0E0,0E0],"parents":[2147483647,0,0,2,2,3,3,4,4,5,5,6,6,7,7,8,8,9,9,10,10,11,11,12,12,13,13,14,14,15,15,16,16,17,17,19,19,20,20,21,21,22,22,23,23,24,24,25,25,26,26,27,27,28,28,29,29,30,30,32,32],"right_children":[2,-1,4,6,8,10,12,14,16,18,20,22,24,26,28,30,32,34,-1,36,38,40,42,44,46,48,50,52,54,56,58,-1,60,-1,-1,-1,-1,-1,-1,-1,-1,-1,-1,-1,-1,-1,-1,-1,-1,-1,-1,-1,-1,-1,-1,-1,-1,-1,-1,-1,-1],"split_conditions":[-3.6167046E1,-1.1675023E-1,6.3289505E-1,3.686388E0,-2.8654158E-1,-7.0708413E0,2.7421148E0,1.0282111E0,-1.4848814E-2,-2.6090235E-1,-4.0547705E0,3.9121695E0,-3.2540693E0,2.0275648E-1,-8.7856555E-1,-2.497839E0,-7.0380116E0,2.3143528E0,1.4268827E-1,2.445569E0,5.193078E0,3.0398927E0,2.214822E0,5.5176105E0,6.262125E0,-2.058465E0,2.399302E0,1.099023E-1,-1.450028E0,6.767893E-1,-3.3681731E0,9.492446E-2,-1.4837757E-3,2.7400948E-2,-2.1680975E-2,5.835845E-3,-7.56141E-2,1.1144161E-2,6.033186E-2,-3.452479E-2,2.926466E-2,9.122076E-2,5.8686735E-5,2.5741393E-2,-2.8415145E-3,-1.1541766E-1,-3.2834616E-2,-2.2285396E-2,-1.0204088E-1,3.576854E-3,-6.590087E-2,-7.478048E-2,1.930522E-2,-1.048385E-2,5.3101048E-2,-7.719339E-2,5.9710355E-3,-2.4937278E-2,5.6658622E-2,6.824869E-2,-2.0727703E-2],"split_indices":[26,0,21,23,5,59,50,32,2,6,33,8,10,53,37,4,4,0,0,47,49,9,17,0,23,53,15,45,35,41,54,0,5,0,0,0,0,0,0,0,0,0,0,0,0,0,0,0,0,0,0,0,0,0,0,0,0,0,0,0,0],"split_type":[0,0,0,0,0,0,0,0,0,0,0,0,0,0,0,0,0,0,0,0,0,0,0,0,0,0,0,0,0,0,0,0,0,0,0,0,0,0,0,0,0,0,0,0,0,0,0,0,0,0,0,0,0,0,0,0,0,0,0,0,0],"sum_hessian":[6.57E2,1E0,6.56E2,3.59E2,2.97E2,2.85E2,7.4E1,1.35E2,1.62E2,1E1,2.75E2,5.2E1,2.2E1,8.4E1,5.1E1,7.5E1,8.7E1,4E0,6E0,4.6E1,2.29E2,4.4E1,8E0,4E0,1.8E1,4.4E1,4E1,1.9E1,3.2E1,1.8E1,5.7E1,3E0,8.4E1,3E0,1E0,3E1,1.6E1,2E2,2.9E1,3.3E1,1.1E1,5E0,3E0,3E0,1E0,9E0,9E0,2.3E1,2.1E1,3.1E1,9E0,8E0,1.1E1,1.2E1,2E1,6E0,1.2E1,1.3E1,4.4E1,4E0,8E1],"tree_param":{"num_deleted":"0","num_feature":"60","num_nodes":"61","size_leaf_vector":"0"}},{"base_weights":[2.3271202E-4,4.2768563E-3,-1.067783E-1,-7.964984E-3,5.0986025E-2,-6.155365E-2,-4.0283298E-1,-2.128194E-2,5.522975E-2,3.764531E-2,3.8231117E-1,-1.0481117E-1,4.6114057E-2,-6.31275E-3,-1.13827236E-1,-2.3569703E-2,1.2447118E-1,1.3071475E-2,1.6969045E-1,1.01352215E-1,5.3583306E-1,-1.5342484E-1,-4.9953327E-2,-2.0649254E-2,1.01348855E-1,1.711264E-2,-8.9852594E-2,-2.691008E-1,-1.842601E-2,-1.5776956E-1,6.508288E-2,1.2664753E-2,1.9988751E-1,1.0512779E-1,-2.1613037E-2,4.035162E-2,3.5865474E-1,1.2064123E-1,3.138709E-2,-2.3672417E-2,-6.6243574E-2,3.989935E-3,-3.0192295E-2,-4.664982E-2,4.6757765E-2,2.805192E-2,-1.6261151E-1,-3.6111084E-1,-2.0349098E-2,8.2764864E-2,-7.668627E-2,-2.2692436E-1,5.358684E-2,-5.9684526E-2,9.763153E-2,-3.030301E-1,6.457697E-2,2.400669E-1,-3.2951094E-2,2.0433914E-2,2.4955958E-1,3.2508098E-2,-8.5389175E-2,1.11034214E-1,-6.0617108E-2,5.411819E-1,1.4090203E-1,-2.6742611E-2,-5.69582E-3],"categories":[],"categories_nodes":[],"categories_segments":[],"categories_sizes":[],"default_left":[1,1,1,1,1,1,0,1,1,1,1,1,1,1,1,1,1,1,1,1,0,0,1,1,0,1,1,1,1,1,1,1,1,1,1,1,1,0,0,1,0,0,0,0,0,0,0,0,0,0,0,0,0,0,0,0,0,0,0,0,0,0,0,0,0,0,0,0,0],"id":40,"left_children":[1,3,5,7,9,11,-1,13,15,17,19,21,23,25,27,29,31,33,35,37,-1,-1,39,41,-1,43,45,47,49,51,53,55,57,59,61,63,65,-1,-1,67,-1,-1,-1,-1,-1,-1,-1,-1,-1,-1,-1,-1,-1,-1,-1,-1,-1,-1,-1,-1,-1,-1,-1,-1,-1,-1,-1,-1,-1],"loss_changes":[2.85218E-1,3.6350304E-1,2.9653943E-1,4.253224E-1,5.690629E-1,1.0729691E-1,0E0,5.769633E-1,4.830782E-1,4.1312337E-1,1.6135883E-1,3.5005376E-2,2.7906384E-2,7.0604086E-1,8.542121E-1,5.0994897E-1,3.9377385E-1,3.5030133E-1,4.743361E-1,2.620984E-4,0E0,0E0,2.284957E-3,1.0609966E-3,0E0,5.3523064E-1,6.822715E-1,4.9618042E-1,2.2447696E-1,2.6063746E-1,1.1141335E-1,3.4733716E-1,2.698593E-1,3.618752E-1,2.789068E-1,9.9508084E-2,2.4171269E-1,0E0,0E0,1.2363726E-4,0E0,0E0,0E0,0E0,0E0,0E0,0E0,0E0,0E0,0E0,0E0,0E0,0E0,0E0,0E0,0E0,0E0,0E0,0E0,0E0,0E0,0E0,0E0,0E0,0E0,0E0,0E0,0E0,0E0],"parents":[2147483647,0,0,1,1,2,2,3,3,4,4,5,5,7,7,8,8,9,9,10,10,11,11,12,12,13,13,14,14,15,15,16,16,17,17,18,18,19,19,22,22,23,23,25,25,26,26,27,27,28,28,29,29,30,30,31,31,32,32,33,33,34,34,35,35,36,36,39,39],"right_children":[2,4,6,8,10,12,-1,14,16,18,20,22,24,26,28,30,32,34,36,38,-1,-1,40,42,-1,44,46,48,50,52,54,56,58,60,62,64,66,-1,-1,68,-1,-1,-1,-1,-1,-1,-1,-1,-1,-1,-1,-1,-1,-1,-1,-1,-1,-1,-1,-1,-1,-1,-1,-1,-1,-1,-1,-1,-1],"split_conditions":[9.323465E0,3.4956932E0,4.2326417E0,4.34001E0,7.35369E0,2.766142E0,-1.208499E-1,2.3166766E0,2.534602E-1,5.306175E0,4.0506887E-1,1.2879881E0,-9.38897E-1,3.414161E0,-1.0818456E0,-1.5923324E0,-2.3169136E-1,4.5349464E0,4.3328968E-1,-3.9014528E0,1.6074993E-1,-4.6027455E-2,-1.1450533E-1,-1.3019612E0,3.0404657E-2,-1.4359057E0,-1.2231255E0,1.3602505E0,-2.1826918E0,3.0335639E0,-7.2281632E0,-5.0877132E0,5.6788473E0,1.4795866E0,7.56089E-1,4.0360004E-2,3.0950217E0,3.6192372E-2,9.416128E-3,6.30883E0,-1.9873073E-2,1.1969805E-3,-9.0576885E-3,-1.3994947E-2,1.402733E-2,8.415576E-3,-4.8783455E-2,-1.0833325E-1,-6.1047296E-3,2.482946E-2,-2.3005882E-2,-6.807731E-2,1.6076053E-2,-1.7905358E-2,2.928946E-2,-9.0909034E-2,1.9373091E-2,7.2020076E-2,-9.885329E-3,6.1301743E-3,7.4867874E-2,9.75243E-3,-2.5616754E-2,3.3310264E-2,-1.8185133E-2,1.6235459E-1,4.227061E-2,-8.022783E-3,-1.7087461E-3],"split_indices":[35,58,2,31,50,23,0,31,56,27,1,29,2,24,25,44,19,58,1,0,0,0,20,0,0,14,20,9,59,47,58,39,10,4,21,39,1,0,0,0,0,0,0,0,0,0,0,0,0,0,0,0,0,0,0,0,0,0,0,0,0,0,0,0,0,0,0,0,0],"split_type":[0,0,0,0,0,0,0,0,0,0,0,0,0,0,0,0,0,0,0,0,0,0,0,0,0,0,0,0,0,0,0,0,0,0,0,0,0,0,0,0,0,0,0,0,0,0,0,0,0,0,0,0,0,0,0,0,0,0,0,0,0,0,0,0,0,0,0,0,0],"sum_hessian":[6.57E2,6.34E2,2.3E1,5.03E2,1.31E2,2.1E1,2E0,4.16E2,8.7E1,1.27E2,4E0,1.5E1,6E0,3.59E2,5.7E1,4.1E1,4.6E1,1.08E2,1.9E1,2E0,2E0,7E0,8E0,3E0,3E0,2.81E2,7.8E1,2.1E1,3.6E1,1.6E1,2.5E1,1.9E1,2.7E1,2.9E1,7.9E1,1.2E1,7E0,1E0,1E0,4E0,4E0,1E0,2E0,8.9E1,1.92E2,3E1,4.8E1,1.5E1,6E0,1.3E1,2.3E1,1.2E1,4E0,5E0,2E1,2E0,1.7E1,2.3E1,4E0,1.9E1,1E1,4.3E1,3.6E1,7E0,5E0,3E0,4E0,3E0,1E0],"tree_param":{"num_deleted":"0","num_feature":"60","num_nodes":"69","size_leaf_vector":"0"}},{"base_weights":[3.366696E-4,-3.561241E-2,1.1958086E-2,-6.285367E-2,7.6168105E-2,2.3807496E-2,-5.8481574E-2,-1.0964104E-1,2.210361E-2,1.44514E-1,-1.2099096E-3,6.447758E-2,-1.4038648E-2,-2.9794896E-1,-2.8108949E-2,-1.6599463E-1,4.7035616E-2,1.4163841E-1,-9.835218E-2,5.867281E-2,2.3375122E-1,-1.3254064E-1,7.053503E-2,-1.1394692E-1,7.808117E-2,-4.8210368E-2,9.316615E-2,-3.875754E-1,-1.1142869E-1,-4.573935E-3,-3.0961433E-1,7.0200056E-2,-1.9733213E-1,1.7449413E-1,-4.7365867E-2,-8.396622E-3,2.1718071E-1,5.3196587E-3,-3.063608E-1,1.4674336E-2,9.973642E-2,1.03289425E-1,2.9137042E-1,1.5899539E-3,-1.5968475E-1,1.0252692E-1,1.1639381E-2,-2.1625727E-1,3.3873085E-2,1.2258624E-1,8.539391E-3,-7.430663E-2,6.583634E-2,3.0540007E-1,2.5256462E-2,1.6171673E-1,-3.6464952E-2,-7.9015516E-2,-4.3700838E-1,1.6257492E-1,1.2312611E-2,-2.5459322E-1,-4.1846164E-2,6.778916E-3,2.1557558E-1,-1.3972633E-1,1.9470647E-2,-9.196448E-2,7.685056E-2,8.236629E-3,2.8614235E-1,2.0661938E-1,-5.2574523E-2,-4.1416103E-1,-9.5020324E-2,3.14378E-2,-1.2568395E-2,2.4730206E-2,1.1137133E-1,4.0922165E-3,1.5306751E-2,-2.3051137E-1,-5.1112235E-2,1.0997641E-1,-5.069852E-2,1.430024E-1,-1.382968E-1,-5.6167293E-2,9.45562E-2,-1.6403523E-1,-4.4543978E-2,-3.8515326E-2,1.223308E-1,3.040564E-2,4.242414E-1,-3.9815333E-2,1.0612313E-1,2.275416E-1,5.0383557E-2,1.0304415E-1,-8.5610144E-2,-6.9470704E-3,-1.115762E-1],"categories":[],"categories_nodes":[],"categories_segments":[],"categories_sizes":[],"default_left":[1,1,1,1,1,1,1,1,1,1,1,1,1,1,1,1,1,1,1,1,1,1,1,1,1,1,1,0,0,1,1,1,1,1,1,1,1,1,1,1,0,0,0,0,0,1,1,1,1,1,1,1,1,1,1,1,1,1,0,0,0,0,0,0,0,0,0,0,0,0,0,0,0,0,0,0,0,0,0,0,0,0,0,0,0,0,0,0,0,0,0,0,0,0,0,0,0,0,0,0,0,0,0],"id":41,"left_children":[1,3,5,7,9,11,13,15,17,19,21,23,25,27,29,31,33,35,37,39,41,43,45,47,49,51,53,-1,-1,55,57,59,61,63,65,67,69,71,73,75,-1,-1,-1,-1,-1,77,79,81,83,85,87,89,91,93,95,97,99,101,-1,-1,-1,-1,-1,-1,-1,-1,-1,-1,-1,-1,-1,-1,-1,-1,-1,-1,-1,-1,-1,-1,-1,-1,-1,-1,-1,-1,-1,-1,-1,-1,-1,-1,-1,-1,-1,-1,-1,-1,-1,-1,-1,-1,-1],"loss_changes":[2.753246E-1,4.9503928E-1,4.1705716E-1,5.1916414E-1,1.6940586E-1,6.581459E-1,5.1529914E-1,7.4946797E-1,6.9066745E-1,1.1650905E-1,1.601058E-1,5.0890326E-1,8.177602E-1,9.0550125E-2,4.2922398E-1,4.727615E-1,2.8500736E-1,2.7383944E-1,5.19181E-1,1.6603794E-2,3.0041367E-2,2.2099026E-2,1.9532666E-2,2.3417804E-1,5.93186E-1,5.0786865E-1,7.705745E-1,0E0,0E0,3.2939088E-1,1.1235413E-1,4.0777035E-2,4.7902727E-1,6.743845E-2,8.9143276E-2,7.118285E-2,2.2818917E-1,2.0898232E-1,1.4290667E-1,3.1352178E-3,0E0,0E0,0E0,0E0,0E0,2.0622313E-3,7.575267E-5,9.404004E-3,5.0628904E-2,6.4294565E-1,4.283165E-1,3.612306E-1,1.9336091E-1,4.1194987E-1,2.2523516E-1,6.1820537E-2,3.653441E-1,6.264668E-3,0E0,0E0,0E0,0E0,0E0,0E0,0E0,0E0,0E0,0E0,0E0,0E0,0E0,0E0,0E0,0E0,0E0,0E0,0E0,0E0,0E0,0E0,0E0,0E0,0E0,0E0,0E0,0E0,0E0,0E0,0E0,0E0,0E0,0E0,0E0,0E0,0E0,0E0,0E0,0E0,0E0,0E0,0E0,0E0,0E0],"parents":[2147483647,0,0,1,1,2,2,3,3,4,4,5,5,6,6,7,7,8,8,9,9,10,10,11,11,12,12,13,13,14,14,15,15,16,16,17,17,18,18,19,19,20,20,21,21,22,22,23,23,24,24,25,25,26,26,29,29,30,30,31,31,32,32,33,33,34,34,35,35,36,36,37,37,38,38,39,39,45,45,46,46,47,47,48,48,49,49,50,50,51,51,52,52,53,53,54,54,55,55,56,56,57,57],"right_children":[2,4,6,8,10,12,14,16,18,20,22,24,26,28,30,32,34,36,38,40,42,44,46,48,50,52,54,-1,-1,56,58,60,62,64,66,68,70,72,74,76,-1,-1,-1,-1,-1,78,80,82,84,86,88,90,92,94,96,98,100,102,-1,-1,-1,-1,-1,-1,-1,-1,-1,-1,-1,-1,-1,-1,-1,-1,-1,-1,-1,-1,-1,-1,-1,-1,-1,-1,-1,-1,-1,-1,-1,-1,-1,-1,-1,-1,-1,-1,-1,-1,-1,-1,-1,-1,-1],"split_conditions":[-2.197547E0,3.5334618E0,4.9175444E0,1.5159004E0,3.7514213E-1,2.908336E-1,5.193078E0,3.330828E0,-6.2497914E-1,2.1749449E-1,-6.1040413E-1,-7.4522243E0,3.3599482E0,1.4202912E0,8.205064E0,-5.0746408E0,1.9600816E-1,-4.7477046E-1,4.534884E-1,1.9588156E0,-2.8260472E-1,-7.791251E-1,2.0122955E0,1.1674866E-1,1.8661695E0,5.1515465E0,4.621002E0,-1.1627262E-1,-3.342861E-2,-8.7040985E-1,-4.0737467E0,-7.656419E-1,2.351202E0,-7.2343194E-1,4.5367303E-1,3.18033E0,-4.072884E0,-6.4894867E0,1.0943303E0,-2.542045E-1,2.9920928E-2,3.0986829E-2,8.741113E-2,4.769862E-4,-4.7905426E-2,-2.1932895E0,4.8093855E-1,2.1819472E0,-8.1230813E-1,9.177246E0,9.2711806E-1,-2.083929E0,-8.830254E-1,-3.6320941E0,4.907831E-1,2.7439857E-1,-2.662105E0,-1.5360467E0,-1.3110252E-1,4.8772477E-2,3.6937834E-3,-7.637797E-2,-1.2553849E-2,2.0336749E-3,6.467268E-2,-4.1917898E-2,5.841194E-3,-2.7589345E-2,2.305517E-2,2.4709888E-3,8.5842706E-2,6.1985817E-2,-1.5772358E-2,-1.2424831E-1,-2.8506098E-2,9.43134E-3,-3.7705186E-3,7.419062E-3,3.3411402E-2,1.227665E-3,4.5920257E-3,-6.915341E-2,-1.5333671E-2,3.2992925E-2,-1.5209557E-2,4.2900722E-2,-4.1489042E-2,-1.6850188E-2,2.836686E-2,-4.921057E-2,-1.3363194E-2,-1.1554598E-2,3.6699243E-2,9.121693E-3,1.2727243E-1,-1.19446E-2,3.1836938E-2,6.826248E-2,1.5115067E-2,3.0913247E-2,-2.5683044E-2,-2.084121E-3,-3.3472862E-2],"split_indices":[37,31,54,55,15,4,54,34,59,16,46,31,59,4,57,51,8,7,31,17,9,0,41,6,51,37,59,0,0,37,5,16,11,40,20,44,38,10,18,11,0,0,0,0,0,1,1,2,0,53,30,21,8,54,15,5,23,0,0,0,0,0,0,0,0,0,0,0,0,0,0,0,0,0,0,0,0,0,0,0,0,0,0,0,0,0,0,0,0,0,0,0,0,0,0,0,0,0,0,0,0,0,0],"split_type":[0,0,0,0,0,0,0,0,0,0,0,0,0,0,0,0,0,0,0,0,0,0,0,0,0,0,0,0,0,0,0,0,0,0,0,0,0,0,0,0,0,0,0,0,0,0,0,0,0,0,0,0,0,0,0,0,0,0,0,0,0,0,0,0,0,0,0,0,0,0,0,0,0,0,0,0,0,0,0,0,0,0,0,0,0,0,0,0,0,0,0,0,0,0,0,0,0,0,0,0,0,0,0],"sum_hessian":[6.57E2,1.6E2,4.97E2,1.29E2,3.1E1,4.26E2,7.1E1,8.3E1,4.6E1,1.6E1,1.5E1,2.05E2,2.21E2,7E0,6.4E1,6.1E1,2.2E1,2.3E1,2.3E1,9E0,7E0,5E0,1E1,1.4E1,1.91E2,1.68E2,5.3E1,4E0,3E0,6E1,4E0,7E0,5.4E1,9E0,1.3E1,8E0,1.5E1,1.6E1,7E0,5E0,4E0,3E0,4E0,1E0,4E0,6E0,4E0,8E0,6E0,1.16E2,7.5E1,1.37E2,3.1E1,1.2E1,4.1E1,9E0,5.1E1,2E0,2E0,2E0,5E0,3.9E1,1.5E1,2E0,7E0,5E0,8E0,4E0,4E0,4E0,1.1E1,3E0,1.3E1,4E0,3E0,3E0,2E0,1E0,5E0,2E0,2E0,7E0,1E0,3E0,3E0,1.08E2,8E0,4.3E1,3.2E1,3.3E1,1.04E2,1.1E1,2E1,4E0,8E0,2.3E1,1.8E1,5E0,4E0,1.3E1,3.8E1,1E0,1E0],"tree_param":{"num_deleted":"0","num_feature":"60","num_nodes":"103","size_leaf_vector":"0"}},{"base_weights":[1.7780942E-4,7.5934835E-2,-4.2000893E-3,1.9251224E-2,3.5614437E-1,1.8519616E-2,-2.1404034E-2,4.093151E-1,-7.3947436E-3,1.7147449E-1,4.8365608E-1,-2.2674263E-3,8.513854E-2,-3.8750593E-2,4.852799E-2,-5.443323E-2,4.3272626E-2,9.768589E-2,-2.472872E-2,1.6021544E-1,-5.2891434E-3,-5.005505E-2,8.081795E-2,1.244519E-1,-4.7893398E-2,-1.2323904E-1,-8.2583877E-4,-3.4531623E-2,7.470432E-2,-4.5669395E-3,2.3856896E-1,-1.0172723E-1,1.0362306E-2,-1.3508832E-1,2.0267685E-1,9.1313496E-2,-1.0797935E-1,-7.7874705E-2,8.464181E-3,1.6515982E-1,-9.740677E-3,-6.8377648E-3,2.2178937E-1,-1.621554E-1,1.1414579E-2,-1.6030383E-1,-2.0384708E-2,-2.8948888E-2,3.308699E-2,-2.9034615E-3,-4.17128E-2,-8.975427E-3,9.429708E-2,-2.7599612E-1,3.4426134E-2,4.7585946E-1,1.1981717E-1,-6.626567E-2,-3.2529384E-1,3.181003E-2,-1.0936741E-1,-4.199485E-2,-1.8315236E-1,2.6671803E-1,4.1518547E-2,-8.36646E-2,1.7845488E-1,-1.5764007E-1,-7.2149187E-3,4.7566224E-2,-9.5986106E-2,4.9722403E-2,-1.2811115E-1,8.546022E-2,2.7558714E-1,8.8479325E-2,-6.3225046E-2,-8.908146E-2,6.786534E-2,1.0281049E-1,4.3202347E-1,-2.2732867E-1,-3.8481735E-2,-1.6017413E-1,4.6937753E-2],"categories":[],"categories_nodes":[],"categories_segments":[],"categories_sizes":[],"default_left":[1,1,1,1,1,1,1,0,1,0,0,1,1,1,1,1,1,1,1,1,1,1,1,1,1,1,1,1,1,1,1,1,1,1,1,1,1,1,1,1,1,1,1,1,1,0,0,0,0,0,0,0,0,0,0,0,0,0,0,0,0,0,0,0,0,0,0,0,0,0,0,0,0,0,0,0,0,0,0,0,0,0,0,0,0],"id":42,"left_children":[1,3,5,7,9,11,13,-1,15,-1,-1,17,19,21,23,25,27,29,31,33,35,37,39,41,43,45,47,49,51,53,55,57,59,61,63,65,67,69,71,73,75,77,79,81,83,-1,-1,-1,-1,-1,-1,-1,-1,-1,-1,-1,-1,-1,-1,-1,-1,-1,-1,-1,-1,-1,-1,-1,-1,-1,-1,-1,-1,-1,-1,-1,-1,-1,-1,-1,-1,-1,-1,-1,-1],"loss_changes":[2.1854897E-1,5.6494224E-1,2.439075E-1,3.252293E-1,5.8350742E-2,3.72707E-1,4.3252385E-1,0E0,7.385495E-2,0E0,0E0,4.6490225E-1,4.3534535E-1,3.8926768E-1,5.257293E-1,5.8914218E-2,3.9262444E-2,5.485058E-1,4.5768487E-1,4.662447E-1,3.074643E-1,4.2556322E-1,1.9255586E-1,5.1269275E-1,2.1870369E-1,2.341818E-2,1.0495153E-2,1.0145251E-3,1.8881053E-2,2.5293022E-1,3.9384264E-1,3.9862925E-1,3.0392677E-1,1.46807805E-2,3.0887008E-1,2.588957E-1,7.3923156E-2,4.0669382E-1,4.853327E-1,9.086144E-2,7.388617E-2,1.1663501E-1,5.3089213E-1,7.991439E-2,1.4161648E-1,0E0,0E0,0E0,0E0,0E0,0E0,0E0,0E0,0E0,0E0,0E0,0E0,0E0,0E0,0E0,0E0,0E0,0E0,0E0,0E0,0E0,0E0,0E0,0E0,0E0,0E0,0E0,0E0,0E0,0E0,0E0,0E0,0E0,0E0,0E0,0E0,0E0,0E0,0E0,0E0],"parents":[2147483647,0,0,1,1,2,2,3,3,4,4,5,5,6,6,8,8,11,11,12,12,13,13,14,14,15,15,16,16,17,17,18,18,19,19,20,20,21,21,22,22,23,23,24,24,25,25,26,26,27,27,28,28,29,29,30,30,31,31,32,32,33,33,34,34,35,35,36,36,37,37,38,38,39,39,40,40,41,41,42,42,43,43,44,44],"right_children":[2,4,6,8,10,12,14,-1,16,-1,-1,18,20,22,24,26,28,30,32,34,36,38,40,42,44,46,48,50,52,54,56,58,60,62,64,66,68,70,72,74,76,78,80,82,84,-1,-1,-1,-1,-1,-1,-1,-1,-1,-1,-1,-1,-1,-1,-1,-1,-1,-1,-1,-1,-1,-1,-1,-1,-1,-1,-1,-1,-1,-1,-1,-1,-1,-1,-1,-1,-1,-1,-1,-1],"split_conditions":[-7.1099496E0,3.4028842E0,-3.8897705E-1,-1.0937714E1,5.0438647E0,-1.4151157E0,3.7392979E0,1.2279454E-1,1.4877279E0,5.1442347E-2,1.4509682E-1,-2.4219294E0,4.7722536E-1,7.516618E0,1.976388E0,-1.578459E0,-1.7456605E0,9.166014E-1,-1.4026805E0,-4.7490177E0,2.8832984E-1,1.8215368E0,2.1213243E0,-6.382728E-1,-2.0443654E0,2.5636387E0,1.7167945E0,-2.0135838E1,-3.7525196E0,-5.839673E0,-9.552786E-1,-1.6573596E0,4.5248756E0,-4.7958177E-1,3.5536134E0,-3.583049E-1,1.0458078E0,-4.2852373E0,4.9626684E0,4.516467E-1,1.9514504E-1,-1.3877537E0,1.6321394E0,2.2391365E0,-4.8609123E0,-4.809115E-2,-6.115413E-3,-8.684667E-3,9.9260975E-3,-8.710385E-4,-1.251384E-2,-2.6926282E-3,2.8289126E-2,-8.279884E-2,1.032784E-2,1.4275785E-1,3.594515E-2,-1.9879702E-2,-9.758816E-2,9.543009E-3,-3.2810222E-2,-1.2598456E-2,-5.494571E-2,8.001541E-2,1.2455565E-2,-2.5099382E-2,5.3536464E-2,-4.7292024E-2,-2.1644756E-3,1.4269868E-2,-2.8795833E-2,1.4916722E-2,-3.8433347E-2,2.5638068E-2,8.267614E-2,2.6543798E-2,-1.8967515E-2,-2.672444E-2,2.0359604E-2,3.0843148E-2,1.2960705E-1,-6.819861E-2,-1.1544521E-2,-4.805224E-2,1.4081326E-2],"split_indices":[3,23,40,46,0,40,58,0,45,0,0,0,58,3,46,10,50,43,20,31,1,47,33,15,6,12,57,3,16,8,54,20,29,5,59,52,14,26,24,33,37,19,50,3,42,0,0,0,0,0,0,0,0,0,0,0,0,0,0,0,0,0,0,0,0,0,0,0,0,0,0,0,0,0,0,0,0,0,0,0,0,0,0,0,0],"split_type":[0,0,0,0,0,0,0,0,0,0,0,0,0,0,0,0,0,0,0,0,0,0,0,0,0,0,0,0,0,0,0,0,0,0,0,0,0,0,0,0,0,0,0,0,0,0,0,0,0,0,0,0,0,0,0,0,0,0,0,0,0,0,0,0,0,0,0,0,0,0,0,0,0,0,0,0,0,0,0,0,0,0,0,0,0],"sum_hessian":[6.57E2,3.5E1,6.22E2,3E1,5E0,2.68E2,3.54E2,1E0,2.9E1,3E0,2E0,2.05E2,6.3E1,2.84E2,7E1,1.5E1,1.4E1,3.7E1,1.68E2,3.4E1,2.9E1,2.6E2,2.4E1,3.9E1,3.1E1,6E0,9E0,4E0,1E1,2.2E1,1.5E1,5.2E1,1.16E2,4E0,3E1,1.5E1,1.4E1,1.76E2,8.4E1,1.2E1,1.2E1,1.7E1,2.2E1,1E1,2.1E1,4E0,2E0,5E0,4E0,1E0,3E0,2E0,8E0,2E0,2E1,4E0,1.1E1,4.6E1,6E0,9.9E1,1.7E1,2E0,2E0,2.1E1,9E0,5E0,1E1,9E0,5E0,2.2E1,1.54E2,6.5E1,1.9E1,8E0,4E0,4E0,8E0,8E0,9E0,1.5E1,7E0,6E0,4E0,3E0,1.8E1],"tree_param":{"num_deleted":"0","num_feature":"60","num_nodes":"85","size_leaf_vector":"0"}},{"base_weights":[6.8101735E-4,3.6495253E-3,-7.788913E-2,2.8079594E-2,-9.189406E-3,-4.6852436E-2,-2.7952853E-1,6.174191E-2,-2.8914057E-2,-6.8591433E-3,-3.284793E-1,4.8586666E-3,-8.302617E-2,1.2618531E-1,2.7071305E-2,-5.717345E-2,2.0665362E-1,3.4791803E-1,-8.556475E-3,-2.5736077E-2,5.71848E-2,-2.3976043E-3,-1.0697498E-1,9.131838E-2,3.5503408E-1,-7.701915E-2,7.700102E-2,-1.2640934E-1,-1.2281838E-2,3.891268E-1,5.056257E-2,3.0088548E-2,-2.095963E-2,1.1080503E-2,-3.3718925E-2,1.1747588E-2,-2.2416592E-2,-4.977515E-2,-1.2437846E-1,2.8897963E-2,2.3314257E-1,7.049302E-2,4.7968137E-1,-1.8402185E-1,-2.9744452E-2,1.9330718E-1,2.8767424E-2,-2.0272266E-2,-2.0013714E-1,-2.252738E-1,1.3366773E-2,5.5699956E-2,1.243782E-2,-1.4882694E-1,5.821046E-2,-3.8834795E-2,2.8446594E-2],"categories":[],"categories_nodes":[],"categories_segments":[],"categories_sizes":[],"default_left":[1,1,1,1,1,1,0,1,1,1,0,1,1,1,1,1,1,0,1,1,0,1,1,1,1,1,1,1,1,0,1,1,1,0,0,0,0,0,0,0,0,0,0,0,0,0,0,0,0,0,0,0,0,0,0,0,0],"id":43,"left_children":[1,3,5,7,9,11,-1,13,15,17,-1,19,21,23,25,27,29,-1,31,33,-1,35,37,39,41,43,45,47,49,-1,51,53,55,-1,-1,-1,-1,-1,-1,-1,-1,-1,-1,-1,-1,-1,-1,-1,-1,-1,-1,-1,-1,-1,-1,-1,-1],"loss_changes":[1.5375362E-1,1.9942959E-1,1.3710073E-1,4.219451E-1,3.0800712E-1,4.155624E-2,0E0,3.0491626E-1,5.576891E-1,2.5287935E-1,0E0,1.7480759E-2,2.4845973E-2,3.5058308E-1,4.7887635E-1,2.2844765E-1,2.3666662E-1,0E0,1.990692E-1,2.4309307E-3,0E0,1.3960308E-3,3.7638023E-3,3.7392986E-1,1.7898941E-1,1.4628196E-1,3.422506E-1,2.2287509E-1,2.5430676E-1,0E0,4.8238225E-4,5.168393E-1,2.7841207E-1,0E0,0E0,0E0,0E0,0E0,0E0,0E0,0E0,0E0,0E0,0E0,0E0,0E0,0E0,0E0,0E0,0E0,0E0,0E0,0E0,0E0,0E0,0E0,0E0],"parents":[2147483647,0,0,1,1,2,2,3,3,4,4,5,5,7,7,8,8,9,9,11,11,12,12,13,13,14,14,15,15,16,16,18,18,19,19,21,21,22,22,23,23,24,24,25,25,26,26,27,27,28,28,30,30,31,31,32,32],"right_children":[2,4,6,8,10,12,-1,14,16,18,-1,20,22,24,26,28,30,-1,32,34,-1,36,38,40,42,44,46,48,50,-1,52,54,56,-1,-1,-1,-1,-1,-1,-1,-1,-1,-1,-1,-1,-1,-1,-1,-1,-1,-1,-1,-1,-1,-1,-1,-1],"split_conditions":[9.323465E0,-9.702449E-1,4.2326417E0,9.802232E-1,1.2326204E1,-1.5265567E0,-8.3858564E-2,-1.4762638E0,6.2590914E0,-1.3740175E1,-9.854379E-2,4.088916E0,-3.6303945E0,5.142975E0,-1.1919458E0,-8.39748E-1,7.2095847E0,1.04375415E-1,-2.1472678E0,-1.7033802E0,1.715544E-2,3.4966478E0,7.487535E-1,-1.9420762E0,-1.3082234E0,-1.8185911E0,1.3530921E0,1.1987684E-1,-3.6443796E0,1.16738044E-1,9.932807E0,-3.5923069E0,2.3995528E0,3.3241513E-3,-1.01156775E-2,3.5242767E-3,-6.724978E-3,-1.4932546E-2,-3.731354E-2,8.669389E-3,6.994277E-2,2.1147907E-2,1.4390442E-1,-5.5206556E-2,-8.923336E-3,5.7992157E-2,8.630227E-3,-6.0816803E-3,-6.0041144E-2,-6.7582145E-2,4.010032E-3,1.6709987E-2,3.7313462E-3,-4.4648085E-2,1.7463138E-2,-1.1650439E-2,8.533979E-3],"split_indices":[35,48,2,21,51,19,0,9,25,46,0,30,0,49,3,26,25,0,13,1,0,1,30,48,5,8,3,0,6,0,2,24,33,0,0,0,0,0,0,0,0,0,0,0,0,0,0,0,0,0,0,0,0,0,0,0,0],"split_type":[0,0,0,0,0,0,0,0,0,0,0,0,0,0,0,0,0,0,0,0,0,0,0,0,0,0,0,0,0,0,0,0,0,0,0,0,0,0,0,0,0,0,0,0,0,0,0,0,0,0,0,0,0,0,0,0,0],"sum_hessian":[6.57E2,6.34E2,2.3E1,2.18E2,4.16E2,2.1E1,2E0,1.37E2,8.1E1,4.14E2,2E0,9E0,1.2E1,4.7E1,9E1,7.3E1,8E0,1E0,4.13E2,6E0,3E0,3E0,9E0,4.2E1,5E0,2.9E1,6.1E1,2.8E1,4.5E1,3E0,5E0,1E2,3.13E2,1E0,5E0,2E0,1E0,3E0,6E0,3E1,1.2E1,2E0,3E0,8E0,2.1E1,1.7E1,4.4E1,1.2E1,1.6E1,4E0,4.1E1,4E0,1E0,1.3E1,8.7E1,2.3E2,8.3E1],"tree_param":{"num_deleted":"0","num_feature":"60","num_nodes":"57","size_leaf_vector":"0"}},{"base_weights":[6.290299E-4,-6.3274507E-3,2.948264E-2,8.742508E-2,-9.977301E-3,1.4747578E-1,1.600511E-2,2.7366364E-1,3.8461592E-2,-8.947353E-2,-5.0189896E-3,2.7155837E-1,3.5979345E-2,2.8263252E-2,-1.16757505E-1,-4.2713802E-2,8.662215E-2,-2.2456875E-1,1.3065985E-2,2.3570211E-1,-6.509934E-3,3.0827317E-1,4.399222E-2,5.5151124E-2,-1.4357328E-2,7.5783946E-2,-4.848838E-3,-2.0420508E-1,1.1531079E-2,1.4100432E-2,-6.825958E-2,1.3253786E-1,2.6269415E-2,-5.6899343E-2,-3.601569E-1,1.6803369E-1,-4.321291E-2,1.7500607E-2,-2.0799298E-2,1.2800932E-2,6.1060976E-2,-2.27381E-2,1.2021065E-3,1.2000231E-1,-1.5041801E-3,-7.4267626E-2,4.460264E-2,4.5616254E-2,-6.240481E-2,5.0255697E-2,1.712352E-3,-1.2613821E-1,-3.976154E-3,2.0430136E-1,1.1481509E-2,-3.584246E-3,-1.8732326E-1,1.1212238E-3,1.4146255E-1,-1.09149426E-1,-9.9239135E-3,4.398414E-2,2.0433217E-1,-7.5670324E-2,7.28291E-2,-9.990127E-2,5.8500625E-2,2.11591E-1,1.8733686E-2,4.2259395E-3,5.800438E-2],"categories":[],"categories_nodes":[],"categories_segments":[],"categories_sizes":[],"default_left":[1,1,1,1,1,1,1,0,1,1,1,1,1,1,1,1,1,1,1,0,1,0,0,1,1,1,1,0,1,0,0,0,1,1,0,1,1,1,1,0,0,0,0,1,1,1,1,1,0,0,0,0,0,0,0,0,0,0,0,0,0,0,0,0,0,0,0,0,0,0,0],"id":44,"left_children":[1,3,5,7,9,11,13,-1,15,17,19,21,23,25,27,29,31,33,35,-1,37,-1,-1,39,41,43,45,-1,47,-1,-1,-1,49,51,-1,53,55,57,59,-1,-1,-1,-1,61,63,65,67,69,-1,-1,-1,-1,-1,-1,-1,-1,-1,-1,-1,-1,-1,-1,-1,-1,-1,-1,-1,-1,-1,-1,-1],"loss_changes":[1.3226004E-1,1.8257126E-1,2.011924E-1,1.7185228E-1,2.0136449E-1,1.7008147E-1,1.92081E-1,0E0,7.016066E-2,4.1851217E-1,1.7488399E-1,3.656864E-2,8.51217E-3,1.6873297E-1,1.1453995E-1,1.11220395E-2,2.7000837E-2,2.750491E-1,1.642466E-1,0E0,1.6539286E-1,0E0,0E0,7.200632E-4,4.185338E-4,1.505529E-1,2.2301567E-1,0E0,1.5447262E-2,0E0,0E0,0E0,3.4481399E-3,2.5148846E-2,0E0,2.6043221E-2,7.928119E-2,3.6531705E-1,2.89091E-1,0E0,0E0,0E0,0E0,1.7050949E-1,9.923221E-2,9.773429E-2,1.6018906E-1,1.8058708E-3,0E0,0E0,0E0,0E0,0E0,0E0,0E0,0E0,0E0,0E0,0E0,0E0,0E0,0E0,0E0,0E0,0E0,0E0,0E0,0E0,0E0,0E0,0E0],"parents":[2147483647,0,0,1,1,2,2,3,3,4,4,5,5,6,6,8,8,9,9,10,10,11,11,12,12,13,13,14,14,15,15,16,16,17,17,18,18,20,20,23,23,24,24,25,25,26,26,28,28,32,32,33,33,35,35,36,36,37,37,38,38,43,43,44,44,45,45,46,46,47,47],"right_children":[2,4,6,8,10,12,14,-1,16,18,20,22,24,26,28,30,32,34,36,-1,38,-1,-1,40,42,44,46,-1,48,-1,-1,-1,50,52,-1,54,56,58,60,-1,-1,-1,-1,62,64,66,68,70,-1,-1,-1,-1,-1,-1,-1,-1,-1,-1,-1,-1,-1,-1,-1,-1,-1,-1,-1,-1,-1,-1,-1],"split_conditions":[3.9893022E0,-8.085202E0,-5.7922106E0,-6.129758E0,-5.8580074E0,-1.036569E0,5.6740646E0,8.2099095E-2,2.8701377E-1,-6.067352E-1,-5.588954E0,5.6997557E0,2.1922944E0,-8.2878023E-1,1.5027422E0,-1.9666396E0,-7.6981485E-2,-3.9293213E0,-4.388365E0,7.071064E-2,-9.806584E-1,9.2481956E-2,1.3197667E-2,-9.272743E0,4.0314407E0,1.6592059E0,7.2162676E-1,-6.1261527E-2,2.113151E0,4.23013E-3,-2.0477876E-2,3.9761357E-2,2.5928818E-2,-1.5118532E0,-1.08047076E-1,4.5197296E0,7.538189E0,-1.3975897E0,-5.0891304E0,3.8402798E-3,1.8318294E-2,-6.82143E-3,3.6063197E-4,-3.0111961E0,6.5703416E-1,4.583411E0,1.295697E0,-4.6597834E0,-1.8721445E-2,1.507671E-2,5.1370566E-4,-3.7841465E-2,-1.1928463E-3,6.129041E-2,3.4444528E-3,-1.0752738E-3,-5.619698E-2,3.3636714E-4,4.2438768E-2,-3.274483E-2,-2.9771742E-3,1.3195243E-2,6.1299656E-2,-2.2701098E-2,2.184873E-2,-2.9970381E-2,1.7550189E-2,6.347731E-2,5.620106E-3,1.267782E-3,1.7401315E-2],"split_indices":[2,59,21,58,59,15,16,0,45,17,59,1,13,22,3,9,53,17,15,0,17,0,0,0,0,17,15,0,0,0,0,0,1,0,0,0,46,17,57,0,0,0,0,22,25,31,15,0,0,0,0,0,0,0,0,0,0,0,0,0,0,0,0,0,0,0,0,0,0,0,0],"split_type":[0,0,0,0,0,0,0,0,0,0,0,0,0,0,0,0,0,0,0,0,0,0,0,0,0,0,0,0,0,0,0,0,0,0,0,0,0,0,0,0,0,0,0,0,0,0,0,0,0,0,0,0,0,0,0,0,0,0,0,0,0,0,0,0,0,0,0,0,0,0,0],"sum_hessian":[6.57E2,5.3E2,1.27E2,1.9E1,5.11E2,1.2E1,1.15E2,3E0,1.6E1,2.9E1,4.82E2,5E0,7E0,1.06E2,9E0,6E0,1E1,1.2E1,1.7E1,2E0,4.8E2,4E0,1E0,5E0,2E0,4.3E1,6.3E1,5E0,4E0,2E0,4E0,5E0,5E0,6E0,6E0,4E0,1.3E1,1.79E2,3.01E2,1E0,4E0,1E0,1E0,2.7E1,1.6E1,2.6E1,3.7E1,3E0,1E0,2E0,3E0,2E0,4E0,3E0,1E0,1.1E1,2E0,1.59E2,2E1,3.2E1,2.69E2,1.5E1,1.2E1,8E0,8E0,2.2E1,4E0,4E0,3.3E1,1E0,2E0],"tree_param":{"num_deleted":"0","num_feature":"60","num_nodes":"71","size_leaf_vector":"0"}},{"base_weights":[8.1987487E-4,2.6421305E-3,-9.74984E-2,-2.0165198E-2,1.1749503E-2,-2.1512938E-1,1.7256498E-2,-3.536418E-2,5.6480207E-2,-5.7433918E-2,1.7893214E-2,-6.377057E-2,-2.3264703E-1,5.0322104E-2,-4.360501E-2,3.0935736E-2,-6.1094824E-2,9.540141E-2,-6.734343E-2,-1.2123156E-1,4.8471242E-2,3.7495572E-2,-8.091931E-3,8.04412E-2,-4.5041107E-2,-1.0810369E-2,-1.11186236E-1,1.5633865E-1,2.1435946E-2,-1.0913076E-1,1.7265975E-3,-2.3670064E-1,-4.8703242E-2,-4.1879952E-2,9.783483E-2,1.0548908E-2,7.401969E-2,6.700467E-2,-3.5845548E-2,1.6323084E-1,1.3321396E-2,-8.224435E-2,1.1743495E-2,7.048695E-2,-3.6432005E-2,-1.8589091E-1,-4.4944055E-2,2.1819746E-1,4.78038E-2,5.6932118E-2,-6.378943E-2,-1.4641583E-2,2.541557E-2,-3.198593E-1,-1.0620185E-1,-9.372129E-2,2.2565868E-2,-6.620691E-2,3.9877415E-2,1.1375862E-1,-2.2739649E-2,-3.473411E-2,5.9672356E-2,1.0350773E-1,-3.3047717E-2,1.4335284E-1,-1.5077596E-2,-8.404131E-2,-4.6380656E-3],"categories":[],"categories_nodes":[],"categories_segments":[],"categories_sizes":[],"default_left":[1,1,1,1,1,1,1,1,1,1,1,0,0,0,0,1,1,1,1,1,1,1,1,1,1,1,1,1,1,0,1,1,1,1,1,1,1,1,1,0,0,0,0,0,0,0,0,0,0,0,0,0,0,0,0,0,0,0,0,0,0,0,0,0,0,0,0,0,0],"id":45,"left_children":[1,3,5,7,9,11,13,15,17,19,21,-1,-1,-1,-1,23,25,27,29,31,33,35,37,39,41,43,45,47,49,-1,51,53,55,57,59,61,63,65,67,-1,-1,-1,-1,-1,-1,-1,-1,-1,-1,-1,-1,-1,-1,-1,-1,-1,-1,-1,-1,-1,-1,-1,-1,-1,-1,-1,-1,-1,-1],"loss_changes":[1.18145555E-1,1.3462843E-1,1.6569713E-1,2.1750984E-1,1.9782256E-1,1.0727048E-3,1.6281255E-2,2.6631063E-1,1.5582496E-1,2.6262322E-1,2.1729507E-1,0E0,0E0,0E0,0E0,1.6911897E-1,2.8090578E-1,1.0482277E-1,2.3278445E-2,1.8946654E-1,7.099821E-2,2.3838052E-1,3.858951E-1,1.4785978E-1,3.899212E-2,1.212973E-1,2.6876694E-1,7.684919E-2,3.9933763E-2,0E0,1.9231057E-3,6.3699305E-2,5.3449247E-2,1.4573608E-2,2.1786869E-2,3.157212E-1,3.2861304E-1,3.1550294E-1,2.0265944E-1,0E0,0E0,0E0,0E0,0E0,0E0,0E0,0E0,0E0,0E0,0E0,0E0,0E0,0E0,0E0,0E0,0E0,0E0,0E0,0E0,0E0,0E0,0E0,0E0,0E0,0E0,0E0,0E0,0E0,0E0],"parents":[2147483647,0,0,1,1,2,2,3,3,4,4,5,5,6,6,7,7,8,8,9,9,10,10,15,15,16,16,17,17,18,18,19,19,20,20,21,21,22,22,23,23,24,24,25,25,26,26,27,27,28,28,30,30,31,31,32,32,33,33,34,34,35,35,36,36,37,37,38,38],"right_children":[2,4,6,8,10,12,14,16,18,20,22,-1,-1,-1,-1,24,26,28,30,32,34,36,38,40,42,44,46,48,50,-1,52,54,56,58,60,62,64,66,68,-1,-1,-1,-1,-1,-1,-1,-1,-1,-1,-1,-1,-1,-1,-1,-1,-1,-1,-1,-1,-1,-1,-1,-1,-1,-1,-1,-1,-1,-1],"split_conditions":[1.1683269E1,-1.9665741E0,1.9949918E0,3.7665777E0,-6.5509405E0,-1.415035E0,-1.0364625E0,-2.0762777E0,1.2283967E0,1.0291232E0,1.045909E0,-1.9131172E-2,-6.979411E-2,1.5096632E-2,-1.3081504E-2,1.7100832E0,-3.916244E0,9.584027E-1,3.1322775E0,3.384884E-1,1.7988045E0,1.363934E0,-5.9680417E-2,-8.837255E-1,1.5049651E0,-1.4521885E0,3.0526352E-1,2.5765078E0,1.1656165E0,-3.273923E-2,3.502217E0,1.0928264E0,2.081334E0,6.3527834E-1,5.2852488E0,-1.9257364E0,4.002756E0,4.1635737E-1,-6.633523E-1,4.8969254E-2,3.996419E-3,-2.4673307E-2,3.5230487E-3,2.1146085E-2,-1.0929602E-2,-5.5767275E-2,-1.3483217E-2,6.5459244E-2,1.4341141E-2,1.7079636E-2,-1.913683E-2,-4.392475E-3,7.6246713E-3,-9.595779E-2,-3.1860556E-2,-2.8116388E-2,6.7697605E-3,-1.9862074E-2,1.1963225E-2,3.412759E-2,-6.821895E-3,-1.0420234E-2,1.7901707E-2,3.105232E-2,-9.914315E-3,4.3005854E-2,-4.5232787E-3,-2.5212394E-2,-1.3914197E-3],"split_indices":[17,19,11,37,58,0,3,45,21,3,49,0,0,0,0,10,19,12,8,22,44,24,19,35,53,24,31,20,58,0,0,9,48,1,1,49,51,41,58,0,0,0,0,0,0,0,0,0,0,0,0,0,0,0,0,0,0,0,0,0,0,0,0,0,0,0,0,0,0],"split_type":[0,0,0,0,0,0,0,0,0,0,0,0,0,0,0,0,0,0,0,0,0,0,0,0,0,0,0,0,0,0,0,0,0,0,0,0,0,0,0,0,0,0,0,0,0,0,0,0,0,0,0,0,0,0,0,0,0,0,0,0,0,0,0,0,0,0,0,0,0],"sum_hessian":[6.57E2,6.46E2,1.1E1,1.84E2,4.62E2,5E0,6E0,1.54E2,3E1,3.7E1,4.25E2,1E0,4E0,4E0,2E0,4.3E1,1.11E2,2.3E1,7E0,2.3E1,1.4E1,2.42E2,1.83E2,2.6E1,1.7E1,5.6E1,5.5E1,1.2E1,1.1E1,4E0,3E0,8E0,1.5E1,5E0,9E0,1.4E2,1.02E2,4.9E1,1.34E2,1.1E1,1.5E1,1E1,7E0,1.3E1,4.3E1,2.5E1,3E1,7E0,5E0,8E0,3E0,2E0,1E0,4E0,4E0,9E0,6E0,4E0,1E0,8E0,1E0,7.3E1,6.7E1,8E1,2.2E1,2.5E1,2.4E1,5.2E1,8.2E1],"tree_param":{"num_deleted":"0","num_feature":"60","num_nodes":"69","size_leaf_vector":"0"}},{"base_weights":[3.3811165E-4,6.624244E-2,-2.3693936E-3,1.4257962E-1,7.565399E-4,-1.06379455E-2,2.0956218E-2,5.023841E-2,2.6180965E-1,-5.3187292E-2,2.5207687E-2,1.4686171E-2,-3.1307522E-2,3.03207E-1,1.5665313E-2,8.2328245E-2,-2.4334937E-3,4.4815585E-2,-2.031003E-2,-1.5313009E-2,5.4413803E-2,-1.2962395E-2,-9.878203E-2,9.186065E-2,3.6294985E-1,-3.3108603E-2,3.990986E-2,1.742953E-2,-1.4864345E-2,5.0016455E-2,4.20475E-3,9.2315674E-4,-2.7695477E-2,-9.208571E-2,1.10086035E-2,9.525744E-2,1.5840188E-2,-1.0406106E-1,-2.3778988E-4,-4.1346598E-1,-7.910592E-2,4.3799765E-2,-1.0883452E-1,3.9270464E-3,8.3010696E-2,-2.5038037E-1,-1.5947884E-2,-1.4842315E-1,2.4008764E-2,1.1078797E-1,-1.5392253E-1,1.1423171E-1,-6.6939117E-3,7.3341906E-2,-1.3158609E-1,1.1717409E-2,-9.13137E-2,-2.8853983E-1,-5.612071E-2,8.641005E-2,-7.352721E-2,-2.2031316E-1,-6.1183866E-2,-1.5004006E-1,1.7364036E-2,1.296657E-1,1.7737698E-2],"categories":[],"categories_nodes":[],"categories_segments":[],"categories_sizes":[],"default_left":[1,1,1,1,1,1,1,1,0,0,1,1,1,1,1,0,1,1,1,1,1,1,1,0,0,1,1,0,0,0,0,0,0,1,1,1,1,1,1,0,1,1,1,1,1,0,0,0,0,0,0,0,0,0,0,0,0,0,0,0,0,0,0,0,0,0,0],"id":46,"left_children":[1,3,5,7,9,11,13,15,-1,-1,17,19,21,23,25,-1,27,29,31,33,35,37,39,-1,-1,41,43,-1,-1,-1,-1,-1,-1,45,47,49,51,53,55,-1,57,59,61,63,65,-1,-1,-1,-1,-1,-1,-1,-1,-1,-1,-1,-1,-1,-1,-1,-1,-1,-1,-1,-1,-1,-1],"loss_changes":[1.1756805E-1,1.2986636E-1,1.2230904E-1,1.1896525E-1,2.1125557E-2,2.4542911E-1,2.4314833E-1,1.3722211E-2,0E0,0E0,1.072778E-2,2.5230226E-1,3.1807932E-1,4.5385063E-3,1.952516E-1,0E0,1.2467358E-3,1.4793873E-3,6.528335E-4,2.4552827E-1,1.4186037E-1,2.3645096E-1,3.0783898E-1,0E0,0E0,3.2508454E-1,1.702718E-1,0E0,0E0,0E0,0E0,0E0,0E0,3.696255E-1,1.9217356E-1,1.8732831E-1,1.0718855E-1,1.3172635E-1,1.9705947E-1,0E0,2.3894277E-1,1.4633492E-1,1.3525721E-1,1.2880541E-1,1.4996564E-1,0E0,0E0,0E0,0E0,0E0,0E0,0E0,0E0,0E0,0E0,0E0,0E0,0E0,0E0,0E0,0E0,0E0,0E0,0E0,0E0,0E0,0E0],"parents":[2147483647,0,0,1,1,2,2,3,3,4,4,5,5,6,6,7,7,10,10,11,11,12,12,13,13,14,14,16,16,17,17,18,18,19,19,20,20,21,21,22,22,25,25,26,26,33,33,34,34,35,35,36,36,37,37,38,38,40,40,41,41,42,42,43,43,44,44],"right_children":[2,4,6,8,10,12,14,16,-1,-1,18,20,22,24,26,-1,28,30,32,34,36,38,40,-1,-1,42,44,-1,-1,-1,-1,-1,-1,46,48,50,52,54,56,-1,58,60,62,64,66,-1,-1,-1,-1,-1,-1,-1,-1,-1,-1,-1,-1,-1,-1,-1,-1,-1,-1,-1,-1,-1,-1],"split_conditions":[-8.085202E0,-9.6234286E-1,3.011838E0,1.4246259E0,-3.267974E0,-3.8897705E-1,3.0669212E0,-7.955133E-1,7.8542896E-2,-1.5956188E-2,4.252232E0,1.1319625E0,3.2285988E0,6.4051E0,-8.4750795E-1,2.4698475E-2,2.4545273E-1,9.603084E0,1.2156452E0,-2.533134E0,3.3249938E0,3.5472125E-1,-6.9527283E0,2.7558196E-2,1.0888496E-1,-1.8348849E-1,4.5559812E-1,5.2288594E-3,-4.459304E-3,1.5004938E-2,1.2614251E-3,2.7694704E-4,-8.3086435E-3,-6.402356E-1,-5.761272E0,6.0508184E0,-3.180277E0,-3.6485448E0,7.261341E0,-1.240398E-1,-5.861309E0,3.265415E0,-1.6664339E0,-5.8096037E0,3.0580714E0,-7.5114116E-2,-4.784365E-3,-4.4526946E-2,7.2026295E-3,3.323639E-2,-4.617676E-2,3.4269515E-2,-2.0081736E-3,2.2002572E-2,-3.947583E-2,3.5152228E-3,-2.739411E-2,-8.656195E-2,-1.6836213E-2,2.5923017E-2,-2.2058163E-2,-6.609395E-2,-1.8355161E-2,-4.501202E-2,5.2092113E-3,3.8899712E-2,5.3213094E-3],"split_indices":[14,11,36,55,39,40,36,0,0,0,35,24,6,0,26,0,0,5,0,33,24,40,27,0,0,14,29,0,0,0,0,0,0,25,56,4,37,53,40,0,4,9,23,7,26,0,0,0,0,0,0,0,0,0,0,0,0,0,0,0,0,0,0,0,0,0,0],"split_type":[0,0,0,0,0,0,0,0,0,0,0,0,0,0,0,0,0,0,0,0,0,0,0,0,0,0,0,0,0,0,0,0,0,0,0,0,0,0,0,0,0,0,0,0,0,0,0,0,0,0,0,0,0,0,0,0,0,0,0,0,0,0,0,0,0,0,0],"sum_hessian":[6.57E2,2.5E1,6.32E2,1.1E1,1.4E1,4.67E2,1.65E2,7E0,4E0,4E0,1E1,2.1E2,2.57E2,2E0,1.63E2,4E0,3E0,7E0,3E0,1.2E2,9E1,2.03E2,5.4E1,1E0,1E0,5.4E1,1.09E2,1E0,2E0,6E0,1E0,1E0,2E0,3E1,9E1,4.3E1,4.7E1,2.4E1,1.79E2,2E0,5.2E1,2.7E1,2.7E1,6E1,4.9E1,9E0,2.1E1,6E0,8.4E1,4.1E1,2E0,8E0,3.9E1,3E0,2.1E1,1.59E2,2E1,4E0,4.8E1,2E1,7E0,7E0,2E1,4E0,5.6E1,2.8E1,2.1E1],"tree_param":{"num_deleted":"0","num_feature":"60","num_nodes":"67","size_leaf_vector":"0"}},{"base_weights":[-8.266964E-5,-2.1774888E-2,7.04619E-3,3.313513E-2,-4.364665E-2,7.3915005E-2,3.0389982E-3,-9.880637E-2,5.869505E-2,-5.7788104E-2,6.452178E-2,1.2229402E-1,1.6800694E-2,2.3852667E-2,-1.06031895E-2,-1.4866008E-1,3.3836525E-2,9.844014E-2,-1.4109434E-2,-7.773148E-2,2.9860655E-2,-4.323492E-2,1.2919049E-1,4.2644456E-2,2.0723005E-1,-5.184167E-2,4.023422E-2,-7.2443252E-3,7.4323066E-2,2.5969696E-1,-1.3441123E-2,-1.6112378E-1,-4.317081E-2,6.9847345E-2,-1.909256E-2,-9.502785E-3,1.3129815E-1,4.5541786E-2,-7.199697E-2,-1.2385608E-1,-4.6078254E-2,-1.2023546E-1,7.48994E-2,-6.0414694E-2,-5.9169135E-3,1.4957829E-1,3.8555484E-2,7.503233E-2,1.7276884E-3,-6.28596E-2,-9.39393E-3,-6.0327896E-3,5.1186085E-2,-2.8137341E-2,4.397228E-2,2.859378E-1,5.3959258E-2,8.1038E-2,3.0850744E-1,3.1745527E-2,-2.579673E-2,-4.092154E-2,2.4291664E-2,8.452295E-2,2.0609169E-1,7.4364215E-2,-1.871705E-3,-9.1725186E-2,-2.9337466E-2,-8.394092E-2,-1.9968407E-1,2.342048E-4,-8.004853E-2,-2.2567916E-1,-3.7454747E-2,1.1980522E-1,1.5017934E-2,-4.0102005E-4,-8.47435E-3,-1.4455696E-2,1.7335176E-2,8.533955E-3,5.5450857E-2,1.3142234E-2,-7.9813085E-2,1.4897294E-1,-1.27225155E-2,-1.666236E-2,3.497903E-1,3.8000543E-2,2.918192E-1,-1.1250184E-1,5.2527625E-2,2.368378E-2,-3.958264E-2],"categories":[],"categories_nodes":[],"categories_segments":[],"categories_sizes":[],"default_left":[1,1,1,1,1,1,1,1,1,1,1,1,1,1,1,1,1,1,1,1,1,1,1,1,0,1,1,1,1,1,1,0,0,0,0,1,1,1,1,1,1,1,1,0,1,0,0,0,1,0,0,0,1,1,1,1,1,0,0,1,1,0,0,0,0,0,0,0,0,0,0,0,0,0,0,0,0,0,0,0,0,0,0,0,0,0,0,0,0,0,0,0,0,0,0],"id":47,"left_children":[1,3,5,7,9,11,13,15,17,19,21,23,25,27,29,31,33,35,37,39,41,43,45,47,-1,49,51,53,55,57,59,-1,-1,-1,-1,61,63,65,67,69,71,73,75,-1,77,-1,-1,-1,79,-1,-1,-1,81,83,85,87,89,-1,-1,91,93,-1,-1,-1,-1,-1,-1,-1,-1,-1,-1,-1,-1,-1,-1,-1,-1,-1,-1,-1,-1,-1,-1,-1,-1,-1,-1,-1,-1,-1,-1,-1,-1,-1,-1],"loss_changes":[1.0190707E-1,1.9720578E-1,1.3268162E-1,1.643029E-1,1.8269871E-1,7.5313136E-2,1.3342264E-1,5.793207E-2,1.1713377E-1,1.8411437E-1,1.0314436E-1,9.2639565E-2,2.4605263E-2,2.9246128E-1,2.2134529E-1,9.328723E-4,7.0516244E-3,9.3464226E-2,5.5074804E-2,1.1839229E-1,1.4420837E-1,3.4892214E-3,1.0863557E-2,1.1797233E-2,0E0,1.2802482E-3,5.882608E-3,1.253653E-1,2.9053003E-1,1.1604577E-3,1.5826191E-1,0E0,0E0,0E0,0E0,8.426509E-3,5.2550197E-2,1.1071766E-2,4.04178E-3,8.61457E-2,8.18276E-2,3.519077E-2,4.122518E-2,0E0,3.892126E-5,0E0,0E0,0E0,1.513502E-3,0E0,0E0,0E0,1.1638999E-3,1.7810062E-1,2.0429704E-1,1.2175903E-1,2.394427E-1,0E0,0E0,1.8877299E-1,1.523712E-1,0E0,0E0,0E0,0E0,0E0,0E0,0E0,0E0,0E0,0E0,0E0,0E0,0E0,0E0,0E0,0E0,0E0,0E0,0E0,0E0,0E0,0E0,0E0,0E0,0E0,0E0,0E0,0E0,0E0,0E0,0E0,0E0,0E0,0E0],"parents":[2147483647,0,0,1,1,2,2,3,3,4,4,5,5,6,6,7,7,8,8,9,9,10,10,11,11,12,12,13,13,14,14,15,15,16,16,17,17,18,18,19,19,20,20,21,21,22,22,23,23,25,25,26,26,27,27,28,28,29,29,30,30,35,35,36,36,37,37,38,38,39,39,40,40,41,41,42,42,44,44,48,48,52,52,53,53,54,54,55,55,56,56,59,59,60,60],"right_children":[2,4,6,8,10,12,14,16,18,20,22,24,26,28,30,32,34,36,38,40,42,44,46,48,-1,50,52,54,56,58,60,-1,-1,-1,-1,62,64,66,68,70,72,74,76,-1,78,-1,-1,-1,80,-1,-1,-1,82,84,86,88,90,-1,-1,92,94,-1,-1,-1,-1,-1,-1,-1,-1,-1,-1,-1,-1,-1,-1,-1,-1,-1,-1,-1,-1,-1,-1,-1,-1,-1,-1,-1,-1,-1,-1,-1,-1,-1,-1],"split_conditions":[-2.1627908E0,-2.063663E0,-7.1039085E0,-5.230636E0,6.0148306E0,7.05982E-1,-8.604714E-1,4.403882E0,2.304155E0,4.2499394E0,-2.3493538E0,-1.2987843E0,-3.6269224E0,1.3862345E0,-1.064006E1,5.1358137E0,1.64154E0,-1.8635147E0,1.0047911E0,-6.689736E-1,-1.2704722E0,1.9896603E0,7.383865E-2,4.244848E0,6.2169015E-2,8.4386575E-1,-2.5666273E0,2.3963606E0,-5.966235E-1,4.68426E0,-2.0542822E0,-4.8337135E-2,-1.2951244E-2,2.0954205E-2,-5.727768E-3,1.4805298E0,3.0807266E0,-5.581836E-1,2.2589698E-2,1.7503753E0,-1.1656649E0,-3.8991082E0,1.610472E0,-1.8124409E-2,-2.3144752E-2,4.4873487E-2,1.15666455E-2,2.25097E-2,9.0452075E-1,-1.8857881E-2,-2.8181793E-3,-1.809837E-3,-2.908061E0,1.3520787E0,-1.3083317E0,-6.169979E-1,8.335573E0,2.4311401E-2,9.255224E-2,2.5627857E-1,-3.2312436E0,-1.2276462E-2,7.2874995E-3,2.5356885E-2,6.1827507E-2,2.2309266E-2,-5.6151155E-4,-2.7517557E-2,-8.8012405E-3,-2.5182279E-2,-5.9905224E-2,7.026144E-5,-2.401456E-2,-6.770375E-2,-1.1236425E-2,3.5941567E-2,4.5053805E-3,-1.2030602E-4,-2.542305E-3,-4.3367087E-3,5.200553E-3,2.5601864E-3,1.6635258E-2,3.9426703E-3,-2.3943927E-2,4.4691883E-2,-3.8167548E-3,-4.998708E-3,1.049371E-1,1.1400163E-2,8.754577E-2,-3.3750553E-2,1.5758289E-2,7.1051344E-3,-1.1874792E-2],"split_indices":[37,41,48,52,3,55,36,12,12,17,58,14,40,59,3,1,0,46,8,58,8,1,11,10,0,1,31,33,37,0,46,0,0,0,0,3,9,15,1,51,59,0,11,0,0,0,0,0,11,0,0,0,1,55,6,0,41,0,0,36,18,0,0,0,0,0,0,0,0,0,0,0,0,0,0,0,0,0,0,0,0,0,0,0,0,0,0,0,0,0,0,0,0,0,0],"split_type":[0,0,0,0,0,0,0,0,0,0,0,0,0,0,0,0,0,0,0,0,0,0,0,0,0,0,0,0,0,0,0,0,0,0,0,0,0,0,0,0,0,0,0,0,0,0,0,0,0,0,0,0,0,0,0,0,0,0,0,0,0,0,0,0,0,0,0,0,0,0,0,0,0,0,0,0,0,0,0,0,0,0,0,0,0,0,0,0,0,0,0,0,0,0,0],"sum_hessian":[6.57E2,1.62E2,4.95E2,4.6E1,1.16E2,2.7E1,4.68E2,7E0,3.9E1,1.03E2,1.3E1,1.4E1,1.3E1,1.85E2,2.83E2,5E0,2E0,2.5E1,1.4E1,8.4E1,1.9E1,5E0,8E0,8E0,6E0,3E0,1E1,1.15E2,7E1,2E0,2.81E2,4E0,1E0,1E0,1E0,6E0,1.9E1,7E0,7E0,3.3E1,5.1E1,4E0,1.5E1,3E0,2E0,6E0,2E0,4E0,4E0,2E0,1E0,2E0,8E0,8.2E1,3.3E1,5E0,6.5E1,1E0,1E0,6E1,2.21E2,3E0,3E0,1.3E1,6E0,4E0,3E0,4E0,3E0,2.3E1,1E1,2.2E1,2.9E1,1E0,3E0,8E0,7E0,1E0,1E0,2E0,2E0,1E0,7E0,4.6E1,3.6E1,1.1E1,2.2E1,1E0,4E0,6.2E1,3E0,7E0,5.3E1,4.8E1,1.73E2],"tree_param":{"num_deleted":"0","num_feature":"60","num_nodes":"95","size_leaf_vector":"0"}},{"base_weights":[4.0534855E-4,4.904208E-2,-2.4057713E-3,2.0503646E-2,1.8831696E-1,6.632842E-2,-4.677755E-3,3.4525734E-4,2.0853353E-1,6.417215E-2,2.3434633E-1,3.004004E-2,2.0397194E-1,-1.1524155E-2,1.8966652E-2,3.6436282E-2,-2.3734607E-2,5.843675E-2,2.5436354E-1,-4.6928614E-2,4.9885366E-2,-1.8453998E-2,2.8239585E-2,4.141813E-2,-2.8918672E-2,6.096261E-2,1.7495205E-3,3.7868425E-2,-3.8579773E-2,-5.7786625E-2,-7.1772933E-3,-2.180998E-2,7.142137E-2,-3.1872958E-2,1.1671043E-2,-1.2367105E-2,6.693388E-2,1.4864426E-2,1.0577666E-1,-6.8392135E-2,2.1869091E-2,7.592578E-2,1.5703121E-2,1.7460743E-2,-1.0471277E-2,2.0344853E-3,4.913491E-2,-5.72378E-2,-9.079488E-3,-5.1244893E-3,-3.5933226E-2,8.6473286E-2,3.606441E-2,3.5490446E-2,-4.2731952E-2,4.862638E-2,-4.785462E-2,-6.184107E-2,3.2549977E-2,1.265523E-1,2.773424E-2,4.853232E-2,-2.3476467E-2,2.0477845E-1,-7.8060053E-4,1.913488E-2,-9.123063E-2,-1.3393244E-2,8.92696E-2],"categories":[],"categories_nodes":[],"categories_segments":[],"categories_sizes":[],"default_left":[1,1,1,1,1,1,1,1,1,0,0,1,0,1,1,1,1,0,0,1,1,1,1,1,1,1,1,1,1,0,0,1,1,1,1,1,1,1,1,1,1,0,0,0,0,0,0,0,0,0,0,0,0,0,0,0,0,0,0,0,0,0,0,0,0,0,0,0,0],"id":48,"left_children":[1,3,5,7,9,11,13,15,17,-1,-1,19,-1,21,23,25,27,-1,-1,29,31,33,35,37,39,41,43,45,47,-1,-1,49,51,53,55,57,59,61,63,65,67,-1,-1,-1,-1,-1,-1,-1,-1,-1,-1,-1,-1,-1,-1,-1,-1,-1,-1,-1,-1,-1,-1,-1,-1,-1,-1,-1,-1],"loss_changes":[9.008216E-2,1.3922754E-1,9.759979E-2,1.1742977E-1,1.9247338E-2,9.3769886E-2,9.799353E-2,2.6067743E-2,5.7726353E-3,0E0,0E0,2.8308008E-2,0E0,1.2975715E-1,1.4741088E-1,1.0102212E-2,1.7922089E-2,0E0,0E0,1.3117287E-3,2.3174133E-2,1.6207063E-1,1.1081508E-1,1.5736073E-1,8.97055E-2,3.5483055E-3,1.3348582E-3,1.5149256E-3,7.7365674E-3,0E0,0E0,7.584739E-4,2.7354844E-3,2.0414177E-1,2.751011E-1,7.979084E-2,8.06229E-2,8.762679E-2,2.8499252E-1,5.172033E-2,4.8729602E-2,0E0,0E0,0E0,0E0,0E0,0E0,0E0,0E0,0E0,0E0,0E0,0E0,0E0,0E0,0E0,0E0,0E0,0E0,0E0,0E0,0E0,0E0,0E0,0E0,0E0,0E0,0E0,0E0],"parents":[2147483647,0,0,1,1,2,2,3,3,4,4,5,5,6,6,7,7,8,8,11,11,13,13,14,14,15,15,16,16,19,19,20,20,21,21,22,22,23,23,24,24,25,25,26,26,27,27,28,28,31,31,32,32,33,33,34,34,35,35,36,36,37,37,38,38,39,39,40,40],"right_children":[2,4,6,8,10,12,14,16,18,-1,-1,20,-1,22,24,26,28,-1,-1,30,32,34,36,38,40,42,44,46,48,-1,-1,50,52,54,56,58,60,62,64,66,68,-1,-1,-1,-1,-1,-1,-1,-1,-1,-1,-1,-1,-1,-1,-1,-1,-1,-1,-1,-1,-1,-1,-1,-1,-1,-1,-1,-1],"split_conditions":[-7.1099496E0,3.4028842E0,-8.22157E0,-7.471485E0,-4.092828E0,4.4030933E0,3.4956932E0,-1.7383132E0,1.1668122E0,1.9251645E-2,7.03039E-2,-3.8594828E0,6.1191585E-2,5.093633E0,2.1737065E0,1.3121727E0,-9.478734E0,1.7531026E-2,7.630906E-2,1.4608242E1,-3.4971275E0,2.2429E0,5.7217026E-1,1.7002888E0,8.045703E-1,-8.456207E0,1.0797441E0,-3.3486335E0,3.5990015E-1,-1.7335989E-2,-2.153188E-3,-1.1363747E1,1.7815351E0,-4.4964857E0,2.1008923E0,1.4654173E0,3.2740798E0,1.2266124E0,4.2920452E-1,-2.1996884E0,1.7676731E0,2.2777736E-2,4.7109365E-3,5.238223E-3,-3.1413832E-3,6.103456E-4,1.4740474E-2,-1.717134E-2,-2.7238466E-3,-1.5373469E-3,-1.0779968E-2,2.5941987E-2,1.0819323E-2,1.0647134E-2,-1.2819586E-2,1.4587914E-2,-1.4356387E-2,-1.8552322E-2,9.764994E-3,3.7965693E-2,8.320273E-3,1.4559696E-2,-7.0429402E-3,6.1433535E-2,-2.3418017E-4,5.7404637E-3,-2.736919E-2,-4.0179733E-3,2.6780881E-2],"split_indices":[3,23,0,3,2,32,58,21,0,0,0,15,0,26,37,35,7,0,0,1,41,37,32,50,15,3,2,0,35,0,0,0,8,43,42,55,32,48,13,53,59,0,0,0,0,0,0,0,0,0,0,0,0,0,0,0,0,0,0,0,0,0,0,0,0,0,0,0,0],"split_type":[0,0,0,0,0,0,0,0,0,0,0,0,0,0,0,0,0,0,0,0,0,0,0,0,0,0,0,0,0,0,0,0,0,0,0,0,0,0,0,0,0,0,0,0,0,0,0,0,0,0,0,0,0,0,0,0,0,0,0,0,0,0,0,0,0,0,0,0,0],"sum_hessian":[6.57E2,3.5E1,6.22E2,3E1,5E0,1.9E1,6.03E2,2.8E1,2E0,2E0,3E0,1.6E1,3E0,4.68E2,1.35E2,1.1E1,1.7E1,1E0,1E0,3E0,1.3E1,3.99E2,6.9E1,9.2E1,4.3E1,6E0,5E0,3E0,1.4E1,2E0,1E0,3E0,1E1,2.76E2,1.23E2,3.4E1,3.5E1,6.6E1,2.6E1,2.4E1,1.9E1,4E0,2E0,2E0,3E0,1E0,2E0,8E0,6E0,2E0,1E0,6E0,4E0,3.8E1,2.38E2,7.6E1,4.7E1,1.6E1,1.8E1,1.3E1,2.2E1,3.5E1,3.1E1,1.3E1,1.3E1,5E0,1.9E1,1.3E1,6E0],"tree_param":{"num_deleted":"0","num_feature":"60","num_nodes":"69","size_leaf_vector":"0"}},{"base_weights":[8.612294E-4,1.0544026E-2,-1.0587843E-2,3.828167E-2,-7.953774E-3,-3.233098E-2,1.3177697E-2,6.6376165E-2,-1.6968505E-2,2.8271945E-2,-2.6775954E-2,7.101423E-3,-5.465522E-2,5.561983E-2,-9.064848E-3,1.590744E-2,1.384362E-1,2.0475207E-2,-6.786846E-2,-2.4668144E-2,7.388772E-2,-3.5504198E-1,-2.1929797E-2,3.5658874E-2,-5.3393286E-2,-8.7653056E-2,-9.915905E-3,-1.6344447E-2,9.3187615E-2,-3.3364505E-2,5.764056E-2,5.1039968E-2,-6.9759674E-2,1.8014848E-1,4.1154046E-2,8.0905855E-2,-2.4302655E-3,-2.9095411E-2,-1.5995187E-1,3.7244026E-2,-8.520986E-2,1.3943882E-1,1.3916874E-2,-3.3616442E-2,4.6451807E-2,-3.390513E-2,7.04084E-2,-1.4787529E-2,-2.5436148E-1,-2.1650311E-1,-6.572259E-2,2.2147238E-2,-1.0811872E-1,-7.931356E-2,7.3119844E-3,3.1873774E-2,1.6463931E-1,-9.62001E-2,-5.0495537E-3,1.8541123E-1,1.0038799E-2,7.987215E-2,-1.00412376E-1,-1.4111806E-1,5.2340608E-2,2.0490457E-1,-1.3425212E-2,-2.5891757E-2,7.382904E-2,2.0979673E-2,1.1266563E-1,-8.840092E-2,1.0586846E-2,-5.6074053E-2,4.1472413E-2,-5.390076E-2,-1.9950223E-1,-3.5025507E-2,6.773427E-2,-1.998197E-1,-2.5758404E-2,5.8793083E-2,2.6928967E-1,-8.566489E-2,4.0805317E-2,-7.362292E-2,-9.799454E-3,-9.044495E-3,8.129911E-2,-9.034184E-2,7.486582E-3,3.0885886E-2,1.1723772E-1,-5.198694E-2,4.578119E-2,-3.5561192E-1,-6.1915446E-2,-1.381689E-1,-3.457618E-2,1.1023214E-1,3.159078E-3,-3.0977357E-2,-1.4777416E-1,-9.547786E-2,-7.32819E-3,4.8703168E-2,-2.1094581E-2,5.5452745E-2,-2.8456131E-2,2.2338517E-1,6.558902E-2,-1.6103793E-2,-1.6160505E-1,-4.216692E-2,4.035635E-2,1.2727042E-2,2.5193948E-1,-4.8511826E-2,5.31152E-2],"categories":[],"categories_nodes":[],"categories_segments":[],"categories_sizes":[],"default_left":[1,1,1,1,1,1,1,1,1,1,1,1,1,1,1,1,1,1,1,1,1,0,1,1,1,1,1,1,1,1,1,1,1,1,1,1,1,1,1,1,1,1,1,1,1,1,1,1,0,1,1,1,1,1,1,1,1,1,1,1,1,0,0,0,0,0,0,0,0,0,0,0,0,0,0,0,0,0,0,0,0,0,0,0,0,0,0,0,0,0,0,0,0,0,0,0,0,0,0,0,0,0,0,0,0,0,0,0,0,0,0,0,0,0,0,0,0,0,0],"id":49,"left_children":[1,3,5,7,9,11,13,15,17,19,21,23,25,27,29,31,33,35,37,39,41,-1,43,45,47,49,51,53,55,57,59,61,63,65,67,69,71,73,75,77,79,81,83,85,87,89,91,93,-1,95,97,99,101,103,105,107,109,111,113,115,117,-1,-1,-1,-1,-1,-1,-1,-1,-1,-1,-1,-1,-1,-1,-1,-1,-1,-1,-1,-1,-1,-1,-1,-1,-1,-1,-1,-1,-1,-1,-1,-1,-1,-1,-1,-1,-1,-1,-1,-1,-1,-1,-1,-1,-1,-1,-1,-1,-1,-1,-1,-1,-1,-1,-1,-1,-1,-1],"loss_changes":[7.305689E-2,1.8347597E-1,1.5648071E-1,2.2309457E-1,1.4735411E-1,1.3947529E-1,1.3738723E-1,3.4329176E-1,9.477791E-2,1.8052553E-1,2.1811163E-1,1.0210328E-1,1.482372E-1,1.3670003E-1,1.5753132E-1,1.7511356E-1,1.5084273E-1,4.0338203E-2,7.032359E-2,1.3436297E-1,1.5530568E-1,0E0,1.14241906E-1,9.907985E-2,1.4365067E-1,1.4966387E-1,1.4093693E-1,2.7393179E-2,1.3932464E-1,1.258365E-1,1.5627351E-1,1.870549E-1,1.5550518E-1,1.3213837E-1,3.039094E-2,1.28622465E-2,2.5555858E-2,3.2786712E-2,1.441285E-2,4.2035714E-2,1.1749998E-1,1.8313405E-1,6.240275E-2,1.1457142E-1,4.134714E-2,3.3380523E-2,4.635094E-2,4.0683076E-2,0E0,1.5001816E-1,1.1030121E-1,5.6519147E-2,2.9072165E-2,5.1182844E-3,1.7488312E-2,2.8605798E-2,7.2630286E-2,1.12648815E-1,8.596908E-2,7.72122E-2,5.301972E-2,0E0,0E0,0E0,0E0,0E0,0E0,0E0,0E0,0E0,0E0,0E0,0E0,0E0,0E0,0E0,0E0,0E0,0E0,0E0,0E0,0E0,0E0,0E0,0E0,0E0,0E0,0E0,0E0,0E0,0E0,0E0,0E0,0E0,0E0,0E0,0E0,0E0,0E0,0E0,0E0,0E0,0E0,0E0,0E0,0E0,0E0,0E0,0E0,0E0,0E0,0E0,0E0,0E0,0E0,0E0,0E0,0E0,0E0],"parents":[2147483647,0,0,1,1,2,2,3,3,4,4,5,5,6,6,7,7,8,8,9,9,10,10,11,11,12,12,13,13,14,14,15,15,16,16,17,17,18,18,19,19,20,20,22,22,23,23,24,24,25,25,26,26,27,27,28,28,29,29,30,30,31,31,32,32,33,33,34,34,35,35,36,36,37,37,38,38,39,39,40,40,41,41,42,42,43,43,44,44,45,45,46,46,47,47,49,49,50,50,51,51,52,52,53,53,54,54,55,55,56,56,57,57,58,58,59,59,60,60],"right_children":[2,4,6,8,10,12,14,16,18,20,22,24,26,28,30,32,34,36,38,40,42,-1,44,46,48,50,52,54,56,58,60,62,64,66,68,70,72,74,76,78,80,82,84,86,88,90,92,94,-1,96,98,100,102,104,106,108,110,112,114,116,118,-1,-1,-1,-1,-1,-1,-1,-1,-1,-1,-1,-1,-1,-1,-1,-1,-1,-1,-1,-1,-1,-1,-1,-1,-1,-1,-1,-1,-1,-1,-1,-1,-1,-1,-1,-1,-1,-1,-1,-1,-1,-1,-1,-1,-1,-1,-1,-1,-1,-1,-1,-1,-1,-1,-1,-1,-1,-1],"split_conditions":[8.063916E-1,-7.921008E-1,1.0172806E0,2.0168092E0,-1.08446E0,-2.3642173E0,-9.0465325E-1,-9.36139E-1,9.2801213E-1,7.767122E-1,-1.0748615E0,2.4799647E0,1.2760756E0,-1.554187E0,3.0046797E0,2.9593868E0,2.3010738E0,-1.5710518E0,2.7283237E0,3.9865458E-1,7.67434E-1,-1.065126E-1,5.6782007E0,-9.213637E-1,2.3248796E0,-3.609023E0,4.4747505E0,-6.484688E0,1.024925E0,2.4910553E0,4.051637E0,4.4597597E0,1.7775898E0,4.281114E0,1.3358335E0,-1.9866132E0,-3.1558776E0,8.8179934E-1,-2.6616924E0,-5.2402325E0,-1.4404118E0,2.4930735E0,-1.3481958E0,-2.1617085E-1,-6.04178E-3,-2.0346131E0,2.4138532E0,2.7668524E0,-7.6308444E-2,-1.3349466E0,-1.5917413E0,-3.247384E0,-1.962203E0,1.0360798E1,3.4901867E0,9.8221266E-1,9.778997E-1,7.3332864E-1,1.1121898E0,3.3517933E0,5.985675E-1,2.3961646E-2,-3.0123714E-2,-4.233542E-2,1.5702182E-2,6.1471373E-2,-4.027564E-3,-7.7675274E-3,2.2148713E-2,6.293902E-3,3.379969E-2,-2.6520278E-2,3.1760538E-3,-1.6822217E-2,1.2441725E-2,-1.6170228E-2,-5.985067E-2,-1.0507653E-2,2.0320281E-2,-5.994591E-2,-7.7275215E-3,1.7637925E-2,8.0786906E-2,-2.5699468E-2,1.2241595E-2,-2.2086877E-2,-2.9398364E-3,-2.7133487E-3,2.4389734E-2,-2.7102554E-2,2.2459747E-3,9.2657665E-3,3.5171315E-2,-1.5596082E-2,1.3734358E-2,-1.0668358E-1,-1.8574635E-2,-4.145067E-2,-1.0372855E-2,3.3069644E-2,9.4772346E-4,-9.293208E-3,-4.433225E-2,-2.8643358E-2,-2.198457E-3,1.4610951E-2,-6.3283746E-3,1.6635824E-2,-8.53684E-3,6.701555E-2,1.9676706E-2,-4.831138E-3,-4.8481517E-2,-1.2650076E-2,1.2106906E-2,3.8181127E-3,7.558185E-2,-1.4553548E-2,1.593456E-2],"split_indices":[26,49,53,1,29,53,48,1,36,10,29,59,15,13,0,47,16,57,52,38,25,0,8,36,57,51,27,11,49,26,0,18,20,34,50,2,8,40,2,28,4,58,35,4,58,42,9,18,0,20,0,19,34,0,6,5,19,29,44,0,28,0,0,0,0,0,0,0,0,0,0,0,0,0,0,0,0,0,0,0,0,0,0,0,0,0,0,0,0,0,0,0,0,0,0,0,0,0,0,0,0,0,0,0,0,0,0,0,0,0,0,0,0,0,0,0,0,0,0],"split_type":[0,0,0,0,0,0,0,0,0,0,0,0,0,0,0,0,0,0,0,0,0,0,0,0,0,0,0,0,0,0,0,0,0,0,0,0,0,0,0,0,0,0,0,0,0,0,0,0,0,0,0,0,0,0,0,0,0,0,0,0,0,0,0,0,0,0,0,0,0,0,0,0,0,0,0,0,0,0,0,0,0,0,0,0,0,0,0,0,0,0,0,0,0,0,0,0,0,0,0,0,0,0,0,0,0,0,0,0,0,0,0,0,0,0,0,0,0,0,0],"sum_hessian":[6.57E2,3.56E2,3.01E2,1.42E2,2.14E2,1.57E2,1.44E2,9.4E1,4.8E1,7.3E1,1.41E2,5.7E1,1E2,4.9E1,9.5E1,5.6E1,3.8E1,2.8E1,2E1,3.4E1,3.9E1,1E0,1.4E2,3.9E1,1.8E1,5.7E1,4.3E1,1.7E1,3.2E1,7E1,2.5E1,4E1,1.6E1,2.6E1,1.2E1,7E0,2.1E1,1.5E1,5E0,1.7E1,1.7E1,1.8E1,2.1E1,1.2E2,2E1,1.3E1,2.6E1,1.6E1,2E0,7E0,5E1,3.3E1,1E1,4E0,1.3E1,1.8E1,1.4E1,2.1E1,4.9E1,6E0,1.9E1,3.4E1,6E0,1E1,6E0,2.3E1,3E0,4E0,8E0,3E0,4E0,2E0,1.9E1,1.1E1,4E0,2E0,3E0,5E0,1.2E1,5E0,1.2E1,1.2E1,6E0,4E0,1.7E1,4.4E1,7.6E1,8E0,1.2E1,5E0,8E0,1.5E1,1.1E1,1E1,6E0,3E0,4E0,1.4E1,3.6E1,5E0,2.8E1,4E0,6E0,3E0,1E0,5E0,8E0,1.3E1,5E0,8E0,6E0,1E1,1.1E1,2.7E1,2.2E1,2E0,4E0,8E0,1.1E1],"tree_param":{"num_deleted":"0","num_feature":"60","num_nodes":"119","size_leaf_vector":"0"}},{"base_weights":[2.0241392E-4,-1.650101E-1,7.0503587E-4,3.5167933E-2,-1.4083434E-3,2.2710991E-1,2.3842208E-2,-7.2721414E-2,1.1875893E-4,-6.842081E-3,4.2817082E-2,-2.8940788E-1,-7.0140692E-3,-1.6828645E-2,5.5593164E-3,3.970618E-2,-2.7378375E-2,7.4905634E-2,7.16044E-3,-4.6350997E-2,3.349187E-2,-2.5130404E-2,5.845565E-2,2.5612742E-2,-2.564285E-3,5.3380728E-2,1.2796243E-2,-1.34171145E-2,-3.6776572E-2,9.8385334E-2,3.502838E-2,3.4941554E-2,-2.6444266E-2,-7.0309006E-2,-1.6794743E-2,4.3624244E-3,4.6965986E-2,-3.4790773E-2,2.3004018E-2,1.5287483E-1,2.2111287E-2,4.6880495E-2,-1.0629342E-2,3.0705465E-2,-1.3914264E-2],"categories":[],"categories_nodes":[],"categories_segments":[],"categories_sizes":[],"default_left":[1,0,1,1,1,0,1,1,1,1,1,0,1,1,1,1,1,1,1,1,1,1,1,1,1,0,0,0,0,0,0,0,0,0,0,0,0,0,0,0,0,0,0,0,0],"id":50,"left_children":[1,-1,3,5,7,-1,9,11,13,15,17,-1,19,21,23,25,27,29,31,33,35,37,39,41,43,-1,-1,-1,-1,-1,-1,-1,-1,-1,-1,-1,-1,-1,-1,-1,-1,-1,-1,-1,-1],"loss_changes":[5.475628E-2,0E0,4.7900926E-2,7.7192724E-2,6.75281E-2,0E0,2.1835485E-2,1.8306267E-1,5.615317E-2,1.5426024E-2,2.5779553E-2,0E0,1.9079553E-2,9.396785E-2,7.516536E-2,1.156834E-3,9.4988197E-4,7.7893957E-3,1.2126918E-2,3.0678306E-3,2.150076E-3,6.310984E-2,4.8093814E-2,1.0301308E-1,1.24661244E-1,0E0,0E0,0E0,0E0,0E0,0E0,0E0,0E0,0E0,0E0,0E0,0E0,0E0,0E0,0E0,0E0,0E0,0E0,0E0,0E0],"parents":[2147483647,0,0,2,2,3,3,4,4,6,6,7,7,8,8,9,9,10,10,12,12,13,13,14,14,15,15,16,16,17,17,18,18,19,19,20,20,21,21,22,22,23,23,24,24],"right_children":[2,-1,4,6,8,-1,10,12,14,16,18,-1,20,22,24,26,28,30,32,34,36,38,40,42,44,-1,-1,-1,-1,-1,-1,-1,-1,-1,-1,-1,-1,-1,-1,-1,-1,-1,-1,-1,-1],"split_conditions":[-3.6167046E1,-4.9503032E-2,-7.471485E0,-7.1653843E0,-6.55126E0,6.8132974E-2,1.7386073E-1,-2.8311486E0,-2.1627908E0,-3.9688416E0,-5.485765E-1,-8.682237E-2,-7.1039085E0,6.9159374E0,-2.0954814E0,-2.1434023E0,1.0223373E0,1.3953807E0,-2.8079252E0,-5.0457106E0,8.785132E-1,6.0673094E0,-1.3422263E0,1.8996487E0,-2.1604831E0,1.6014218E-2,3.838873E-3,-4.0251347E-3,-1.10329725E-2,2.9515602E-2,1.0508514E-2,1.0482467E-2,-7.93328E-3,-2.1092702E-2,-5.038423E-3,1.3087273E-3,1.4089797E-2,-1.0437232E-2,6.9012055E-3,4.586245E-2,6.6333865E-3,1.4064149E-2,-3.1888026E-3,9.21164E-3,-4.1742795E-3],"split_indices":[26,0,32,9,32,0,24,27,37,37,19,0,32,32,58,5,46,49,42,5,10,36,18,15,8,0,0,0,0,0,0,0,0,0,0,0,0,0,0,0,0,0,0,0,0],"split_type":[0,0,0,0,0,0,0,0,0,0,0,0,0,0,0,0,0,0,0,0,0,0,0,0,0,0,0,0,0,0,0,0,0,0,0,0,0,0,0,0,0,0,0,0,0],"sum_hessian":[6.57E2,1E0,6.56E2,3.7E1,6.19E2,1E0,3.6E1,1.2E1,6.07E2,1.4E1,2.2E1,2E0,1E1,1.47E2,4.6E2,4E0,1E1,1.1E1,1.1E1,5E0,5E0,1.33E2,1.4E1,1.32E2,3.28E2,2E0,2E0,5E0,5E0,6E0,5E0,6E0,5E0,2E0,3E0,2E0,3E0,1.11E2,2.2E1,3E0,1.1E1,8.3E1,4.9E1,8.3E1,2.45E2],"tree_param":{"num_deleted":"0","num_feature":"60","num_nodes":"45","size_leaf_vector":"0"}},{"base_weights":[1.9230941E-4,-4.0533436E-3,1.7803634E-2,3.85224E-2,-7.413183E-3,2.1719966E-2,-1.526169E-1,1.4269346E-1,1.1275812E-2,-7.4135244E-2,-4.7286935E-3,4.1399408E-2,-2.0662674E-3,2.3569901E-1,7.240844E-2,-1.1351053E-1,2.3378586E-2,-1.20235704E-1,-4.360921E-2,-2.0744855E-2,5.560046E-3,4.25676E-3,6.2406443E-2,-2.83362E-2,2.3396878E-2,8.643389E-3,8.343277E-2,-3.5731316E-2,-1.3453448E-1,-6.9318255E-3,5.0333433E-2,-6.2975205E-2,-1.755913E-1,-9.732261E-3,-5.279907E-2,-3.392673E-2,3.9183736E-2,1.14825584E-1,8.405247E-4,-2.2279022E-2,6.6747144E-2,1.6513734E-1,4.5001525E-2,-4.7975194E-2,2.9213056E-2,-6.1856367E-2,3.8891852E-2,9.801363E-3,-4.2358473E-2,6.592395E-2,-1.2919098E-2,-1.286307E-2,-7.228747E-2,-1.2832582E-2,-5.5813946E-2,-6.3793465E-2,-1.0535952E-2,8.72137E-2,-2.7468469E-2,-6.4551234E-3,2.0237683E-1,3.528633E-2,-9.163744E-3,1.7511655E-2,-3.405731E-2,1.1618972E-1,1.3843661E-2,2.0834081E-1,9.145039E-2,9.71329E-2,1.5199956E-2,-1.2850706E-3,-6.967825E-2,-5.880594E-4,4.7211338E-2,-1.05278134E-1,-2.468139E-2,1.3906457E-2,6.688261E-2],"categories":[],"categories_nodes":[],"categories_segments":[],"categories_sizes":[],"default_left":[1,1,1,1,1,1,0,1,1,1,1,1,1,0,1,1,1,1,1,1,1,1,1,1,1,0,0,0,0,1,1,1,0,0,1,1,1,1,1,1,1,1,1,1,1,1,1,0,0,0,0,0,0,0,0,0,0,0,0,0,0,0,0,0,0,0,0,0,0,0,0,0,0,0,0,0,0,0,0],"id":51,"left_children":[1,3,5,7,9,11,-1,13,15,17,19,21,23,-1,25,27,29,31,33,35,37,39,41,43,45,-1,-1,-1,-1,47,49,51,-1,-1,53,55,57,59,61,63,65,67,69,71,73,75,77,-1,-1,-1,-1,-1,-1,-1,-1,-1,-1,-1,-1,-1,-1,-1,-1,-1,-1,-1,-1,-1,-1,-1,-1,-1,-1,-1,-1,-1,-1,-1,-1],"loss_changes":[4.927186E-2,7.624388E-2,8.874506E-2,1.09084964E-1,8.795296E-2,5.9066117E-2,0E0,3.522858E-2,5.0982065E-2,2.1494642E-2,7.838874E-2,5.3572074E-2,3.946006E-2,0E0,3.4966618E-3,9.858608E-5,2.4859281E-2,1.1129931E-2,3.5333615E-3,1.4826404E-1,1.49451E-1,4.460108E-2,7.124156E-2,3.4177575E-2,4.2035613E-2,0E0,0E0,0E0,0E0,9.307182E-3,1.6629912E-2,1.4034491E-3,0E0,0E0,4.8870407E-4,1.062146E-1,1.1123993E-1,1.2872568E-1,9.646817E-2,9.501057E-3,1.9316982E-2,4.8339367E-5,5.9113868E-2,2.2203464E-2,4.318713E-3,5.472606E-3,1.7253261E-2,0E0,0E0,0E0,0E0,0E0,0E0,0E0,0E0,0E0,0E0,0E0,0E0,0E0,0E0,0E0,0E0,0E0,0E0,0E0,0E0,0E0,0E0,0E0,0E0,0E0,0E0,0E0,0E0,0E0,0E0,0E0,0E0],"parents":[2147483647,0,0,1,1,2,2,3,3,4,4,5,5,7,7,8,8,9,9,10,10,11,11,12,12,14,14,15,15,16,16,17,17,18,18,19,19,20,20,21,21,22,22,23,23,24,24,29,29,30,30,31,31,34,34,35,35,36,36,37,37,38,38,39,39,40,40,41,41,42,42,43,43,44,44,45,45,46,46],"right_children":[2,4,6,8,10,12,-1,14,16,18,20,22,24,-1,26,28,30,32,34,36,38,40,42,44,46,-1,-1,-1,-1,48,50,52,-1,-1,54,56,58,60,62,64,66,68,70,72,74,76,78,-1,-1,-1,-1,-1,-1,-1,-1,-1,-1,-1,-1,-1,-1,-1,-1,-1,-1,-1,-1,-1,-1,-1,-1,-1,-1,-1,-1,-1,-1,-1,-1],"split_conditions":[3.9893022E0,-6.3838677E0,9.178463E0,-3.086644E0,-5.107234E0,1.4807367E0,-4.5785073E-2,1.6818945E0,-7.4888754E0,-1.8754101E0,-5.728632E-1,-1.0841913E0,8.390569E-1,7.0709705E-2,-8.429258E0,1.0786414E0,3.2426268E-2,-2.797971E-2,-5.3327827E0,4.921343E0,-3.1150848E-1,1.7364392E0,-4.1422195E0,2.8587866E0,-3.7668557E0,2.5930167E-3,2.5029832E-2,-1.0719395E-2,-4.0360346E-2,8.8744247E-1,7.8600855E0,-6.090157E0,-5.2677393E-2,-2.9196786E-3,-7.259768E0,-4.3624294E-1,2.3420641E0,-1.1534314E0,-3.0936184E0,-4.696392E0,-9.086032E-1,4.622447E0,-4.6346647E-1,-3.6685236E0,-2.3605628E0,-1.312747E0,8.712098E-1,2.940409E-3,-1.2707543E-2,1.9777186E-2,-3.8757296E-3,-3.8589211E-3,-2.1686241E-2,-3.8497748E-3,-1.6744185E-2,-1.913804E-2,-3.1607857E-3,2.6164113E-2,-8.240541E-3,-1.9365371E-3,6.071305E-2,1.0585899E-2,-2.7491231E-3,5.2534966E-3,-1.02171935E-2,3.4856915E-2,4.1530984E-3,6.250224E-2,2.7435118E-2,2.913987E-2,4.5599868E-3,-3.8552118E-4,-2.0903476E-2,-1.7641783E-4,1.4163402E-2,-3.1583443E-2,-7.4044173E-3,4.1719372E-3,2.0064784E-2],"split_indices":[2,6,35,34,6,14,0,8,23,32,1,33,59,0,0,0,45,50,19,48,1,29,57,3,6,0,0,0,0,10,4,4,0,0,0,58,59,4,31,10,5,2,48,59,10,0,10,0,0,0,0,0,0,0,0,0,0,0,0,0,0,0,0,0,0,0,0,0,0,0,0,0,0,0,0,0,0,0,0],"split_type":[0,0,0,0,0,0,0,0,0,0,0,0,0,0,0,0,0,0,0,0,0,0,0,0,0,0,0,0,0,0,0,0,0,0,0,0,0,0,0,0,0,0,0,0,0,0,0,0,0,0,0,0,0,0,0,0,0,0,0,0,0,0,0,0,0,0,0,0,0,0,0,0,0,0,0,0,0,0,0],"sum_hessian":[6.57E2,5.3E2,1.27E2,3.8E1,4.92E2,1.25E2,2E0,7E0,3.1E1,1.8E1,4.74E2,6.8E1,5.7E1,2E0,5E0,2E0,2.9E1,6E0,1.2E1,1.85E2,2.89E2,2.5E1,4.3E1,2.8E1,2.9E1,1E0,4E0,1E0,1E0,1.4E1,1.5E1,4E0,2E0,3E0,9E0,1.52E2,3.3E1,1.1E1,2.78E2,1.8E1,7E0,5E0,3.8E1,2.1E1,7E0,4E0,2.5E1,1E1,4E0,1.2E1,3E0,1E0,3E0,1E0,8E0,6.6E1,8.6E1,1.9E1,1.4E1,5E0,6E0,6.2E1,2.16E2,4E0,1.4E1,3E0,4E0,2E0,3E0,1.3E1,2.5E1,7E0,1.4E1,3E0,4E0,1E0,3E0,1.4E1,1.1E1],"tree_param":{"num_deleted":"0","num_feature":"60","num_nodes":"79","size_leaf_vector":"0"}},{"base_weights":[2.9229597E-4,-1.4773386E-2,4.392622E-3,-1.102953E-1,-8.198418E-3,5.436988E-2,1.8545162E-3,-6.424167E-3,-1.6116019E-1,-1.0820488E-1,-9.323655E-4,1.033088E-1,2.9598705E-2,9.23046E-3,-1.6314622E-2,3.966678E-3,-1.8798351E-2,-3.1157017E-2,-1.8092941E-1,-1.7487042E-1,-1.9898366E-2,-9.991212E-3,4.4406265E-2,-5.4297447E-3,1.1961855E-1,-1.5165091E-2,3.956247E-2,2.3971306E-2,-8.406018E-3,-2.7348945E-2,6.1832003E-2,6.205868E-4,5.32943E-3,-4.7555983E-2,4.536605E-2,3.5120644E-2,-2.101895E-2,8.1886485E-2,-1.4665868E-2,-1.8544832E-2,4.9928583E-2,1.5820345E-2,8.9590065E-2,6.291868E-3,-4.419008E-2,2.833666E-2,-4.0058706E-2,1.2186055E-1,-1.1736598E-2,4.511539E-2,-1.8635869E-2,-3.4858514E-2,1.3590344E-2,1.16371825E-1,3.570308E-2,3.715241E-2,-4.6767075E-2,-2.563858E-2,-2.178669E-3,1.9279385E-2,6.1408296E-2,-1.6973431E-3,5.7415202E-2,-3.625942E-2,1.5510477E-1,-8.5556535E-3,6.605394E-2,-7.50179E-2,9.644636E-3,7.477127E-2,-1.01717245E-2,-1.6498175E-1,-3.3344828E-2,1.5008733E-1,5.968968E-3,-4.912172E-2,5.9622526E-3],"categories":[],"categories_nodes":[],"categories_segments":[],"categories_sizes":[],"default_left":[1,1,1,1,1,1,1,1,1,1,1,1,1,1,1,1,0,0,0,0,1,1,1,0,0,0,1,1,1,1,1,0,0,0,0,1,1,1,1,1,1,1,1,1,1,1,1,1,1,0,0,0,0,0,0,0,0,0,0,0,0,0,0,0,0,0,0,0,0,0,0,0,0,0,0,0,0],"id":52,"left_children":[1,3,5,7,9,11,13,15,17,19,21,23,25,27,29,31,-1,-1,-1,-1,33,35,37,-1,-1,-1,39,41,43,45,47,-1,-1,-1,-1,49,51,53,55,57,59,61,63,65,67,69,71,73,75,-1,-1,-1,-1,-1,-1,-1,-1,-1,-1,-1,-1,-1,-1,-1,-1,-1,-1,-1,-1,-1,-1,-1,-1,-1,-1,-1,-1],"loss_changes":[4.071232E-2,8.76513E-2,6.560621E-2,4.651521E-2,9.654386E-2,2.7249053E-2,6.6353776E-2,5.888799E-4,9.783149E-3,4.950337E-2,5.178313E-2,1.4837496E-2,8.628255E-3,9.1713265E-2,1.2499925E-1,1.0372303E-5,0E0,0E0,0E0,0E0,1.1182718E-2,5.2973792E-2,4.7695708E-2,0E0,0E0,0E0,9.961121E-3,1.01274975E-1,8.495599E-2,9.031173E-2,8.092211E-2,0E0,0E0,0E0,0E0,1.21237E-2,4.1186832E-2,1.6549625E-2,1.6708372E-2,2.9243424E-4,3.3900551E-3,1.254245E-1,1.7876883E-1,1.0260678E-1,7.8725055E-2,4.367548E-2,8.088669E-2,3.1816587E-2,6.247939E-3,0E0,0E0,0E0,0E0,0E0,0E0,0E0,0E0,0E0,0E0,0E0,0E0,0E0,0E0,0E0,0E0,0E0,0E0,0E0,0E0,0E0,0E0,0E0,0E0,0E0,0E0,0E0,0E0],"parents":[2147483647,0,0,1,1,2,2,3,3,4,4,5,5,6,6,7,7,8,8,9,9,10,10,11,11,12,12,13,13,14,14,15,15,20,20,21,21,22,22,26,26,27,27,28,28,29,29,30,30,35,35,36,36,37,37,38,38,39,39,40,40,41,41,42,42,43,43,44,44,45,45,46,46,47,47,48,48],"right_children":[2,4,6,8,10,12,14,16,18,20,22,24,26,28,30,32,-1,-1,-1,-1,34,36,38,-1,-1,-1,40,42,44,46,48,-1,-1,-1,-1,50,52,54,56,58,60,62,64,66,68,70,72,74,76,-1,-1,-1,-1,-1,-1,-1,-1,-1,-1,-1,-1,-1,-1,-1,-1,-1,-1,-1,-1,-1,-1,-1,-1,-1,-1,-1,-1],"split_conditions":[-3.0254798E0,-6.9119024E0,-2.312855E0,8.620135E-1,-5.3104715E0,-1.7930366E0,2.4930735E0,-1.1245885E0,-4.7058752E-1,2.2513654E0,3.9031622E0,-7.446445E0,-2.5196211E0,8.231988E-1,4.90908E0,-2.802547E0,-5.6395056E-3,-9.347105E-3,-5.4278824E-2,-5.246113E-2,6.604892E-1,-4.6474442E0,1.4232674E0,-1.6289235E-3,3.5885565E-2,-4.5495275E-3,-7.018795E0,3.3458638E-1,2.5950747E0,-3.453413E0,-1.0653863E0,1.8617605E-4,1.598829E-3,-1.42667955E-2,1.3609815E-2,1.03586235E1,3.3124857E0,3.5095124E0,1.048876E0,8.3814824E-1,-8.642744E-1,4.2527217E-1,-9.54224E-1,3.916214E0,2.8913786E0,5.121288E-1,2.7005749E0,6.9362946E0,-3.241721E0,1.3534618E-2,-5.590761E-3,-1.0457555E-2,4.0771035E-3,3.491155E-2,1.0710925E-2,1.1145723E-2,-1.4030123E-2,-7.6915743E-3,-6.536007E-4,5.783816E-3,1.842249E-2,-5.0920295E-4,1.7224561E-2,-1.0877826E-2,4.653143E-2,-2.5666961E-3,1.9816183E-2,-2.250537E-2,2.8933908E-3,2.2431381E-2,-3.0515175E-3,-4.9494527E-2,-1.0003448E-2,4.5026198E-2,1.7906905E-3,-1.4736516E-2,1.7886759E-3],"split_indices":[43,53,43,0,11,8,32,0,1,10,57,2,38,30,54,0,0,0,0,0,5,36,17,0,0,0,27,30,48,45,37,0,0,0,0,29,5,21,4,0,24,32,11,49,21,10,32,21,9,0,0,0,0,0,0,0,0,0,0,0,0,0,0,0,0,0,0,0,0,0,0,0,0,0,0,0,0],"split_type":[0,0,0,0,0,0,0,0,0,0,0,0,0,0,0,0,0,0,0,0,0,0,0,0,0,0,0,0,0,0,0,0,0,0,0,0,0,0,0,0,0,0,0,0,0,0,0,0,0,0,0,0,0,0,0,0,0,0,0,0,0,0,0,0,0,0,0,0,0,0,0,0,0,0,0,0,0],"sum_hessian":[6.57E2,1.4E2,5.17E2,8E0,1.32E2,2.4E1,4.93E2,3E0,5E0,8E0,1.24E2,7E0,1.7E1,3.51E2,1.42E2,2E0,1E0,1E0,4E0,4E0,4E0,1.04E2,2E1,1E0,6E0,3E0,1.4E1,1.91E2,1.6E2,1.25E2,1.7E1,1E0,1E0,3E0,1E0,2E1,8.4E1,1.2E1,8E0,2E0,1.2E1,1.71E2,2E1,1.14E2,4.6E1,2.3E1,1.02E2,9E0,8E0,1.7E1,3E0,6E1,2.4E1,6E0,6E0,3E0,5E0,1E0,1E0,4E0,8E0,1.21E2,5E1,7E0,1.3E1,9.2E1,2.2E1,2.9E1,1.7E1,1E1,1.3E1,4E0,9.8E1,7E0,2E0,2E0,6E0],"tree_param":{"num_deleted":"0","num_feature":"60","num_nodes":"77","size_leaf_vector":"0"}},{"base_weights":[2.2441646E-4,1.4557216E-2,-3.81932E-3,3.9014395E-2,-2.6752003E-3,-3.388107E-2,2.3002864E-3,3.1853877E-2,1.6444628E-1,4.1677218E-2,-2.1535655E-2,-6.462908E-2,-6.337464E-3,-3.5008326E-2,6.666399E-3,4.0288102E-2,-1.8542256E-2,1.5823607E-1,1.3292152E-2,-5.5647627E-2,3.6989811E-3,-2.0208761E-1,-4.4306867E-2,5.8623843E-2,-3.8620073E-2,-9.767205E-2,-3.5578676E-3,1.06694974E-1,5.0652437E-3,5.3304926E-2,-5.37392E-3,-6.74724E-2,1.7168215E-2,1.9532108E-1,6.84057E-2,6.379918E-2,-1.4531072E-2,-8.423819E-2,7.7165687E-3,-1.2639692E-2,3.357815E-2,-2.5648052E-1,7.7419877E-3,-3.2647546E-2,-1.6556334E-1,1.2198494E-1,2.7338069E-2,4.501845E-2,-5.5776037E-2,-1.496246E-1,3.6157954E-2,-3.915404E-2,3.7021652E-2,3.62792E-2,1.3283306E-1,1.0982983E-2,-2.6580451E-2,6.6988416E-2,1.2384382E-2,8.0375515E-2,-3.0561358E-2,-8.277615E-3,3.1960532E-2,7.00545E-2,1.0005951E-2,-3.7160702E-2,2.560682E-2,-3.6078773E-2,-1.2838885E-1,2.840234E-2,-1.4512515E-2,7.527031E-3,-3.0282844E-2,6.863302E-2,3.089726E-3,-4.9053174E-2,2.8853092E-2,4.7271777E-2,1.1462243E-2,7.930875E-3,7.94624E-2,-6.6926237E-3,-7.26206E-2,-1.5891552E-2,-1.7757732E-1,7.6014996E-3,4.1396692E-2,6.251972E-3,-7.1563445E-2,9.866991E-2,5.6341127E-3,-7.0942944E-4,2.8527144E-2,-8.0671385E-3,-1.6560023E-1],"categories":[],"categories_nodes":[],"categories_segments":[],"categories_sizes":[],"default_left":[1,1,1,1,1,1,1,1,0,1,1,1,1,1,1,1,1,1,1,1,1,1,1,1,1,1,1,1,1,1,1,0,1,0,0,1,1,1,1,1,1,0,0,1,0,0,1,1,1,1,1,1,1,0,0,1,1,0,0,0,0,0,0,0,0,0,0,0,0,0,0,0,0,0,0,0,0,0,0,0,0,0,0,0,0,0,0,0,0,0,0,0,0,0,0],"id":53,"left_children":[1,3,5,7,9,11,13,15,-1,17,19,21,23,25,27,29,31,33,35,37,39,41,43,45,47,49,51,53,55,57,59,-1,61,-1,-1,63,65,67,69,71,73,-1,-1,75,-1,-1,77,79,81,83,85,87,89,-1,-1,91,93,-1,-1,-1,-1,-1,-1,-1,-1,-1,-1,-1,-1,-1,-1,-1,-1,-1,-1,-1,-1,-1,-1,-1,-1,-1,-1,-1,-1,-1,-1,-1,-1,-1,-1,-1,-1,-1,-1],"loss_changes":[3.8192004E-2,6.1215535E-2,9.46365E-2,4.865118E-2,7.283713E-2,7.327166E-2,6.995184E-2,2.5400072E-2,0E0,8.39185E-2,5.271483E-2,1.05578035E-1,1.0082872E-1,8.833863E-2,6.0961496E-2,3.0005187E-2,1.6884245E-2,3.2957345E-3,3.184297E-2,4.775209E-2,1.799911E-2,5.905187E-2,4.690419E-2,2.8381985E-2,4.8427735E-2,1.09702244E-1,4.6228293E-2,6.2241256E-3,7.1267635E-2,2.100788E-2,2.8374085E-2,0E0,2.522974E-3,0E0,0E0,1.9909926E-3,1.4576152E-2,3.3640742E-2,4.550621E-3,8.76725E-3,1.3681924E-2,0E0,0E0,3.6728814E-2,0E0,0E0,3.2557277E-3,7.034448E-3,2.1837272E-2,3.8298264E-2,4.3332204E-4,2.5464304E-2,2.846889E-2,0E0,0E0,6.566298E-2,1.5308708E-1,0E0,0E0,0E0,0E0,0E0,0E0,0E0,0E0,0E0,0E0,0E0,0E0,0E0,0E0,0E0,0E0,0E0,0E0,0E0,0E0,0E0,0E0,0E0,0E0,0E0,0E0,0E0,0E0,0E0,0E0,0E0,0E0,0E0,0E0,0E0,0E0,0E0,0E0],"parents":[2147483647,0,0,1,1,2,2,3,3,4,4,5,5,6,6,7,7,9,9,10,10,11,11,12,12,13,13,14,14,15,15,16,16,17,17,18,18,19,19,20,20,21,21,22,22,23,23,24,24,25,25,26,26,27,27,28,28,29,29,30,30,32,32,35,35,36,36,37,37,38,38,39,39,40,40,43,43,46,46,47,47,48,48,49,49,50,50,51,51,52,52,55,55,56,56],"right_children":[2,4,6,8,10,12,14,16,-1,18,20,22,24,26,28,30,32,34,36,38,40,42,44,46,48,50,52,54,56,58,60,-1,62,-1,-1,64,66,68,70,72,74,-1,-1,76,-1,-1,78,80,82,84,86,88,90,-1,-1,92,94,-1,-1,-1,-1,-1,-1,-1,-1,-1,-1,-1,-1,-1,-1,-1,-1,-1,-1,-1,-1,-1,-1,-1,-1,-1,-1,-1,-1,-1,-1,-1,-1,-1,-1,-1,-1,-1,-1],"split_conditions":[-2.6616225E0,-4.69898E-1,-1.0632902E0,-2.9181545E0,-3.5332005E0,3.2715484E-2,-4.2550926E0,4.7039337E0,4.9333885E-2,-5.24232E0,-2.3597173E-2,-3.1215518E0,-9.6974134E-1,-8.047596E-1,-9.892659E-1,3.161655E0,5.3472233E0,-1.2528055E0,1.902777E0,-1.394394E-1,1.2462184E0,3.993582E-1,7.3593283E0,-1.6931825E0,-3.0671592E0,3.75415E0,1.0542406E0,-4.736282E-1,4.9583387E0,2.559567E0,-1.6222007E0,-2.024172E-2,-3.2637885E0,5.8596328E-2,2.0521712E-2,7.7618694E0,2.2028008E0,1.208469E0,-4.2085645E-1,8.3077216E-1,-1.2169522E0,-7.694416E-2,2.3225965E-3,2.414415E0,-4.9669005E-2,3.6595482E-2,-2.9667836E-1,-5.9704936E-1,-1.5735579E0,-7.143938E0,-9.336071E0,1.4726043E0,2.5805646E-1,1.0883761E-2,3.9849922E-2,1.314083E0,5.438715E0,2.0096526E-2,3.7153147E-3,2.4112655E-2,-9.168408E-3,-2.4832846E-3,9.58816E-3,2.1016352E-2,3.0017854E-3,-1.1148211E-2,7.6820464E-3,-1.0823633E-2,-3.8516656E-2,8.520702E-3,-4.3537547E-3,2.2581094E-3,-9.084853E-3,2.0589907E-2,9.269178E-4,-1.4715953E-2,8.655928E-3,1.4181534E-2,3.4386732E-3,2.3792626E-3,2.3838721E-2,-2.007787E-3,-2.1786181E-2,-4.767466E-3,-5.3273197E-2,2.28045E-3,1.2419009E-2,1.8755917E-3,-2.1469034E-2,2.9600974E-2,1.6902339E-3,-2.1282885E-4,8.558144E-3,-2.4201416E-3,-4.968007E-2],"split_indices":[38,56,38,38,31,56,11,4,0,32,1,51,47,4,38,14,4,3,56,11,24,1,32,7,10,17,13,2,55,5,10,0,3,0,0,1,21,40,21,27,2,0,0,44,0,0,11,3,51,1,0,45,38,0,0,22,16,0,0,0,0,0,0,0,0,0,0,0,0,0,0,0,0,0,0,0,0,0,0,0,0,0,0,0,0,0,0,0,0,0,0,0,0,0,0],"split_type":[0,0,0,0,0,0,0,0,0,0,0,0,0,0,0,0,0,0,0,0,0,0,0,0,0,0,0,0,0,0,0,0,0,0,0,0,0,0,0,0,0,0,0,0,0,0,0,0,0,0,0,0,0,0,0,0,0,0,0,0,0,0,0,0,0,0,0,0,0,0,0,0,0,0,0,0,0,0,0,0,0,0,0,0,0,0,0,0,0,0,0,0,0,0,0],"sum_hessian":[6.57E2,1.44E2,5.13E2,5.9E1,8.5E1,8.6E1,4.27E2,5.7E1,2E0,2.5E1,6E1,4E1,4.6E1,4.4E1,3.83E2,4.9E1,8E0,4E0,2.1E1,2.5E1,3.5E1,4E0,3.6E1,1.5E1,3.1E1,1.4E1,3E1,5E0,3.78E2,3.8E1,1.1E1,3E0,5E0,2E0,2E0,7E0,1.4E1,1.7E1,8E0,2.3E1,1.2E1,3E0,1E0,3.4E1,2E0,4E0,1.1E1,5E0,2.6E1,1E1,4E0,1.6E1,1.4E1,2E0,3E0,3.19E2,5.9E1,2.8E1,1E1,2E0,9E0,2E0,3E0,6E0,1E0,9E0,5E0,9E0,8E0,4E0,4E0,1.1E1,1.2E1,5E0,7E0,2.7E1,7E0,4E0,7E0,3E0,2E0,7E0,1.9E1,2E0,8E0,1E0,3E0,7E0,9E0,4E0,1E1,1.92E2,1.27E2,5.3E1,6E0],"tree_param":{"num_deleted":"0","num_feature":"60","num_nodes":"95","size_leaf_vector":"0"}},{"base_weights":[2.2662531E-4,-2.353694E-3,1.7648704E-2,-5.8106026E-3,1.4496295E-2,3.6252063E-2,-1.5926564E-2,-4.374541E-3,-1.404999E-1,8.305821E-3,7.479034E-2,5.5746656E-2,-1.0603311E-2,-6.333415E-2,5.3957384E-4,8.203196E-3,-1.145843E-2,-8.4401965E-3,-1.7140478E-1,2.8729115E-2,-1.0990578E-2,-2.776906E-3,1.7244363E-1,4.316291E-2,1.5506375E-1,1.3358558E-2,-3.923023E-2,-9.8952964E-2,-2.9771104E-3,2.663718E-2,-2.359203E-2,1.6215537E-2,-5.3100754E-2,-6.8334475E-2,-3.533816E-3,-1.270678E-3,5.8786664E-2,1.0473472E-2,-3.3843216E-2,-3.8497224E-2,1.2066603E-2,6.9025666E-2,1.9021414E-2,2.7346333E-2,-6.098485E-3,-5.0808746E-2,-2.9964547E-3,-1.8051097E-2,2.1122426E-2,6.345913E-3,5.3775772E-2,8.379388E-3,-3.8732592E-2,6.7372476E-3,6.908345E-2,-2.4483E-2,-2.0710702E-1,-3.6274485E-2,-1.1841342E-1,-1.12337535E-2,2.6350193E-2,-7.4042976E-2,1.3347316E-2,3.07104E-2,1.1456289E-1,3.6166247E-2,-9.066126E-3,8.727789E-3,-4.6153374E-2,5.0466657E-3,2.0073175E-2,8.079406E-2,-1.2824853E-2,2.8211873E-2,-2.4793386E-2,-1.9375484E-4,-9.9703865E-3,1.4923406E-2,-5.9624314E-3,5.9112113E-2,1.6215205E-2,9.349982E-5,1.3872147E-2,-5.5048067E-2,-2.1400178E-2],"categories":[],"categories_nodes":[],"categories_segments":[],"categories_sizes":[],"default_left":[1,1,1,1,1,1,1,1,1,1,1,1,1,1,1,1,1,0,0,1,1,1,0,1,0,1,1,0,1,1,1,1,1,1,1,1,1,1,1,0,1,1,1,0,1,0,0,0,0,1,1,1,1,0,0,0,0,0,0,0,0,0,0,0,0,0,0,0,0,0,0,0,0,0,0,0,0,0,0,0,0,0,0,0,0],"id":54,"left_children":[1,3,5,7,9,11,13,15,17,19,21,23,25,27,29,31,33,-1,-1,35,37,39,-1,41,-1,43,45,-1,47,49,51,53,55,57,59,61,63,65,67,-1,69,71,73,-1,75,-1,-1,-1,-1,77,79,81,83,-1,-1,-1,-1,-1,-1,-1,-1,-1,-1,-1,-1,-1,-1,-1,-1,-1,-1,-1,-1,-1,-1,-1,-1,-1,-1,-1,-1,-1,-1,-1,-1],"loss_changes":[2.9621622E-2,3.3519085E-2,5.3669453E-2,9.164773E-2,3.5957187E-2,5.082956E-2,2.4233392E-2,4.2237967E-2,1.895976E-2,3.578439E-2,6.865113E-2,4.204847E-2,1.2185286E-2,1.6904175E-2,1.5743075E-2,8.485423E-2,1.3632688E-1,0E0,0E0,3.9750386E-2,2.3408435E-2,3.64582E-3,0E0,2.1164201E-2,0E0,2.8883787E-3,3.2040216E-3,0E0,1.8343873E-3,6.266861E-3,6.6174036E-3,7.570137E-2,8.307567E-2,5.5109248E-2,6.1734047E-2,2.545533E-2,3.093347E-2,1.2878548E-2,1.2456097E-2,0E0,1.7972558E-4,1.7411403E-2,8.75303E-3,0E0,1.12380876E-4,0E0,0E0,0E0,0E0,9.3357766E-4,4.366506E-5,2.2626488E-4,1.3670409E-3,0E0,0E0,0E0,0E0,0E0,0E0,0E0,0E0,0E0,0E0,0E0,0E0,0E0,0E0,0E0,0E0,0E0,0E0,0E0,0E0,0E0,0E0,0E0,0E0,0E0,0E0,0E0,0E0,0E0,0E0,0E0,0E0],"parents":[2147483647,0,0,1,1,2,2,3,3,4,4,5,5,6,6,7,7,8,8,9,9,10,10,11,11,12,12,13,13,14,14,15,15,16,16,19,19,20,20,21,21,23,23,25,25,26,26,28,28,29,29,30,30,31,31,32,32,33,33,34,34,35,35,36,36,37,37,38,38,40,40,41,41,42,42,44,44,49,49,50,50,51,51,52,52],"right_children":[2,4,6,8,10,12,14,16,18,20,22,24,26,28,30,32,34,-1,-1,36,38,40,-1,42,-1,44,46,-1,48,50,52,54,56,58,60,62,64,66,68,-1,70,72,74,-1,76,-1,-1,-1,-1,78,80,82,84,-1,-1,-1,-1,-1,-1,-1,-1,-1,-1,-1,-1,-1,-1,-1,-1,-1,-1,-1,-1,-1,-1,-1,-1,-1,-1,-1,-1,-1,-1,-1,-1],"split_conditions":[5.3472233E0,4.106856E0,2.8191202E0,4.0408964E0,6.0554266E0,2.2245007E0,-2.375482E0,-1.0465713E0,-3.5833375E0,8.121023E-1,2.1307673E0,6.2210813E0,8.5632586E-1,2.1478555E0,-1.0649455E0,4.9175444E0,-4.5307267E-1,-2.532059E-3,-5.1421437E-2,1.0153727E-1,1.2318032E0,-1.1117009E0,5.173309E-2,1.319672E-1,4.6519127E-2,1.7542337E0,2.40556E0,-2.968589E-2,4.422905E0,1.1717855E0,-3.3815712E-1,-1.588685E0,6.033387E0,8.3987117E-1,3.7486129E0,-4.341494E0,6.922552E-1,-1.2631924E0,-2.0529416E0,-1.1549167E-2,7.6887145E0,7.5497932E0,3.4872818E0,8.2039E-3,5.168935E0,-1.5242624E-2,-8.989365E-4,-5.4153292E-3,6.336728E-3,3.0596046E0,3.1997411E0,2.7421403E0,-2.7420495E0,2.0211744E-3,2.0725036E-2,-7.3449006E-3,-6.213211E-2,-1.0882346E-2,-3.5524026E-2,-3.3701262E-3,7.905059E-3,-2.2212893E-2,4.004195E-3,9.21312E-3,3.436887E-2,1.08498745E-2,-2.719838E-3,2.6183368E-3,-1.3846013E-2,1.5139998E-3,6.0219527E-3,2.423822E-2,-3.847456E-3,8.4635625E-3,-7.438016E-3,-5.8126454E-5,-2.9911161E-3,4.4770218E-3,-1.7887295E-3,1.7733635E-2,4.864562E-3,2.8049946E-5,4.1616443E-3,-1.651442E-2,-6.4200535E-3],"split_indices":[51,39,8,39,38,7,30,9,4,46,52,13,34,12,55,54,9,0,0,37,55,4,0,33,0,1,21,0,0,30,10,9,57,36,45,32,41,3,37,0,0,23,24,0,0,0,0,0,0,16,2,2,22,0,0,0,0,0,0,0,0,0,0,0,0,0,0,0,0,0,0,0,0,0,0,0,0,0,0,0,0,0,0,0,0],"split_type":[0,0,0,0,0,0,0,0,0,0,0,0,0,0,0,0,0,0,0,0,0,0,0,0,0,0,0,0,0,0,0,0,0,0,0,0,0,0,0,0,0,0,0,0,0,0,0,0,0,0,0,0,0,0,0,0,0,0,0,0,0,0,0,0,0,0,0,0,0,0,0,0,0,0,0,0,0,0,0,0,0,0,0,0,0],"sum_hessian":[6.57E2,5.73E2,8.4E1,4.76E2,9.7E1,5.4E1,3E1,4.72E2,4E0,8.9E1,8E0,3.8E1,1.6E1,7E0,2.3E1,1.7E2,3.02E2,1E0,3E0,4.3E1,4.6E1,5E0,3E0,3.5E1,3E0,9E0,7E0,4E0,3E0,1.1E1,1.2E1,1.51E2,1.9E1,3.6E1,2.66E2,2.2E1,2.1E1,2.4E1,2.2E1,1E0,4E0,1.6E1,1.9E1,5E0,4E0,5E0,2E0,2E0,1E0,7E0,4E0,4E0,8E0,1.29E2,2.2E1,1.7E1,2E0,2.3E1,1.3E1,2.12E2,5.4E1,3E0,1.9E1,1.5E1,6E0,1E1,1.4E1,5E0,1.7E1,3E0,1E0,1.4E1,2E0,1.6E1,3E0,2E0,2E0,4E0,3E0,3E0,1E0,2E0,2E0,3E0,5E0],"tree_param":{"num_deleted":"0","num_feature":"60","num_nodes":"85","size_leaf_vector":"0"}},{"base_weights":[1.01156285E-4,-3.664159E-3,1.1283079E-2,-1.0026034E-2,1.1233631E-2,-2.2954976E-2,1.9630637E-2,3.999578E-2,-1.3878578E-2,1.5525795E-2,-6.5819964E-2,-8.402489E-2,-5.1606894E-5,-2.7547592E-2,2.5808966E-2,-3.901735E-3,8.081669E-2,-6.200515E-2,-9.084193E-3,1.0127022E-1,1.2283109E-2,-1.2903154E-2,-9.498942E-2,-2.7378868E-2,-1.2386594E-1,-2.4914758E-2,4.691786E-2,2.0977445E-2,-9.293371E-2,-3.6905669E-3,3.6701787E-2,3.372901E-2,-1.856386E-2,4.0947534E-2,1.20506115E-1,-9.238964E-2,1.5781462E-2,4.8074936E-3,-2.87086E-2,4.464337E-2,4.3010362E-3,9.836674E-3,-2.3761988E-2,-3.4953266E-2,1.4593601E-3,-4.13913E-2,6.5772854E-2,9.818363E-3,7.4633785E-2,5.0388485E-2,1.1743584E-3,-1.2580827E-1,-3.6825716E-2,3.5292123E-2,-1.7576713E-2,5.5368446E-2,2.8882069E-3,1.1553615E-3,4.4201773E-2,-1.4399402E-3,-2.5696976E-2,2.2309546E-3,5.3481236E-2,-9.727716E-3,-1.1126729E-1,-7.1754158E-3,4.6271414E-2,1.7076358E-2,-2.5715442E-2,1.2830185E-2,-4.0649414E-2,2.6651999E-2,1.4143074E-1,8.0326445E-2,-1.5884284E-3,-1.8749679E-2,-9.896833E-2,-6.3311257E-3,2.2695065E-2,8.969545E-3,-1.2209073E-2,-1.5910149E-2,5.219422E-2,-3.698699E-2,3.161494E-4,1.0041813E-3,7.346596E-2,-3.9191887E-2,1.4106378E-2],"categories":[],"categories_nodes":[],"categories_segments":[],"categories_sizes":[],"default_left":[1,1,1,1,1,1,1,1,1,1,1,1,1,1,1,1,1,1,1,0,1,1,0,1,0,1,1,1,1,1,1,1,1,1,0,1,1,1,1,1,1,0,0,0,0,1,0,1,0,0,1,0,0,1,1,1,1,0,0,0,0,0,0,0,0,0,0,0,0,0,0,0,0,0,0,0,0,0,0,0,0,0,0,0,0,0,0,0,0],"id":55,"left_children":[1,3,5,7,9,11,13,15,17,19,21,23,25,27,29,31,33,35,37,-1,39,41,-1,43,-1,45,47,49,51,53,55,57,59,61,-1,63,65,67,69,71,73,-1,-1,-1,-1,75,-1,77,-1,-1,79,-1,-1,81,83,85,87,-1,-1,-1,-1,-1,-1,-1,-1,-1,-1,-1,-1,-1,-1,-1,-1,-1,-1,-1,-1,-1,-1,-1,-1,-1,-1,-1,-1,-1,-1,-1,-1],"loss_changes":[2.7745422E-2,4.683812E-2,4.7894105E-2,6.7233175E-2,4.9969457E-2,4.615299E-2,3.9769642E-2,4.511374E-2,7.373416E-2,3.796004E-2,1.1122774E-2,1.6920224E-2,3.036417E-2,5.2715328E-2,3.8374104E-2,7.798847E-3,1.5636556E-2,6.999974E-2,8.028715E-2,0E0,3.5195354E-2,1.221451E-3,0E0,1.1431705E-3,0E0,2.812413E-2,8.5214395E-3,5.76512E-3,8.278705E-3,1.8483857E-2,5.475332E-2,1.3134754E-3,1.1844672E-3,3.7627816E-3,0E0,3.168735E-2,6.631604E-3,6.5224476E-2,6.103439E-2,4.3246694E-2,4.9827725E-2,0E0,0E0,0E0,0E0,1.769893E-2,0E0,1.183446E-3,0E0,0E0,8.397943E-4,0E0,0E0,8.619251E-3,8.694329E-3,5.502227E-2,1.5658831E-2,0E0,0E0,0E0,0E0,0E0,0E0,0E0,0E0,0E0,0E0,0E0,0E0,0E0,0E0,0E0,0E0,0E0,0E0,0E0,0E0,0E0,0E0,0E0,0E0,0E0,0E0,0E0,0E0,0E0,0E0,0E0,0E0],"parents":[2147483647,0,0,1,1,2,2,3,3,4,4,5,5,6,6,7,7,8,8,9,9,10,10,11,11,12,12,13,13,14,14,15,15,16,16,17,17,18,18,20,20,21,21,23,23,25,25,26,26,27,27,28,28,29,29,30,30,31,31,32,32,33,33,35,35,36,36,37,37,38,38,39,39,40,40,45,45,47,47,50,50,53,53,54,54,55,55,56,56],"right_children":[2,4,6,8,10,12,14,16,18,20,22,24,26,28,30,32,34,36,38,-1,40,42,-1,44,-1,46,48,50,52,54,56,58,60,62,-1,64,66,68,70,72,74,-1,-1,-1,-1,76,-1,78,-1,-1,80,-1,-1,82,84,86,88,-1,-1,-1,-1,-1,-1,-1,-1,-1,-1,-1,-1,-1,-1,-1,-1,-1,-1,-1,-1,-1,-1,-1,-1,-1,-1,-1,-1,-1,-1,-1,-1],"split_conditions":[3.0423515E0,2.7492995E0,-3.5672994E0,-6.4674497E0,8.335204E0,-2.12325E0,-5.6792417E0,-7.806593E0,-3.9067893E0,2.8351443E0,-1.3504213E-1,-5.233884E0,2.3531783E0,-6.98481E0,-1.8066839E0,-3.0550451E0,5.3747106E-1,2.5407948E0,8.063916E-1,3.0381067E-2,-3.2312436E0,-3.1135452E-1,-2.8496826E-2,4.934908E0,-3.7159782E-2,3.6752524E0,7.0082814E-1,-6.3369317E0,1.1425171E0,-3.2507749E0,1.7357855E0,-1.538444E1,1.429065E0,-4.1072173E0,3.6151838E-2,-4.653424E0,1.7801197E0,2.463942E0,-3.0551255E0,4.8022137E0,-4.253407E0,2.9510022E-3,-7.128597E-3,-1.0485981E-2,4.3780805E-4,1.9361765E0,1.9731857E-2,-3.8372178E0,2.2390136E-2,1.5116546E-2,5.2787123E0,-3.774248E-2,-1.1047715E-2,-2.819573E0,-3.299696E-1,-3.5435996E0,3.609645E0,3.4660846E-4,1.3260532E-2,-4.3198207E-4,-7.709093E-3,6.692864E-4,1.604437E-2,-2.9183151E-3,-3.3380188E-2,-2.1526248E-3,1.3881424E-2,5.1229075E-3,-7.714633E-3,3.8490556E-3,-1.2194824E-2,7.9956E-3,4.2429224E-2,2.4097934E-2,-4.7652854E-4,-5.624904E-3,-2.9690498E-2,-1.8993377E-3,6.80852E-3,2.6908638E-3,-3.662722E-3,-4.773045E-3,1.5658267E-2,-1.10960975E-2,9.484483E-5,3.0125442E-4,2.2039788E-2,-1.1757567E-2,4.2319135E-3],"split_indices":[3,53,0,50,48,44,13,50,50,53,14,0,56,13,17,37,47,24,26,0,9,0,0,2,0,32,19,17,2,50,4,0,10,25,0,36,41,18,38,34,23,0,0,0,0,32,0,1,0,0,3,0,0,20,52,46,4,0,0,0,0,0,0,0,0,0,0,0,0,0,0,0,0,0,0,0,0,0,0,0,0,0,0,0,0,0,0,0,0],"split_type":[0,0,0,0,0,0,0,0,0,0,0,0,0,0,0,0,0,0,0,0,0,0,0,0,0,0,0,0,0,0,0,0,0,0,0,0,0,0,0,0,0,0,0,0,0,0,0,0,0,0,0,0,0,0,0,0,0,0,0,0,0,0,0,0,0,0,0,0,0,0,0,0,0,0,0,0,0,0,0,0,0,0,0,0,0,0,0,0,0],"sum_hessian":[6.57E2,4.92E2,1.65E2,3.45E2,1.47E2,3.2E1,1.33E2,2.4E1,3.21E2,1.4E2,7E0,8E0,2.4E1,1.5E1,1.18E2,1.2E1,1.2E1,2.8E1,2.93E2,4E0,1.36E2,3E0,4E0,4E0,4E0,1.6E1,8E0,9E0,6E0,3.2E1,8.6E1,3E0,9E0,7E0,5E0,2E1,8E0,1.72E2,1.21E2,2.6E1,1.1E2,1E0,2E0,3E0,1E0,1.4E1,2E0,4E0,4E0,3E0,6E0,3E0,3E0,8E0,2.4E1,5.5E1,3.1E1,1E0,2E0,3E0,6E0,2E0,5E0,4E0,1.6E1,5E0,3E0,1.23E2,4.9E1,2.7E1,9.4E1,2.3E1,3E0,7E0,1.03E2,1.1E1,3E0,2E0,2E0,4E0,2E0,2E0,6E0,1.1E1,1.3E1,1.4E1,4.1E1,6E0,2.5E1],"tree_param":{"num_deleted":"0","num_feature":"60","num_nodes":"89","size_leaf_vector":"0"}},{"base_weights":[1.3028052E-4,2.2181373E-3,-1.47698615E-2,-1.9484942E-3,1.9381253E-2,-5.531931E-3,-9.8374486E-2,-1.0144404E-2,7.584478E-3,-2.1688777E-3,5.0816637E-2,2.3841323E-2,-2.9755315E-2,-1.9699447E-1,-3.266875E-2,-2.1630814E-2,3.4098728E-3,1.9781357E-2,-7.582634E-3,5.6833938E-2,-9.871396E-3,8.377586E-2,3.7808516E-3,-3.2503247E-2,3.9653E-2,-8.249399E-2,-1.2344624E-2,3.6644936E-4,-3.934908E-2,-4.400023E-2,-6.3631474E-3,-1.6081823E-2,2.7708918E-2,5.3806253E-2,3.3575476E-3,-4.2413674E-2,1.4603401E-2,-7.011503E-3,9.6543506E-2,-5.0081246E-2,2.06213E-3,1.5108065E-1,6.161202E-2,-4.2419136E-2,2.200879E-2,-1.1453629E-3,-4.276498E-2,1.658735E-2,9.23605E-2,-2.6158014E-2,-1.3359837E-1,-3.2911118E-2,1.0278817E-2,-3.057335E-2,-1.3170265E-1,1.3818885E-2,-3.0095471E-2,2.0558108E-3,-5.1626097E-2,3.886661E-2,-4.957148E-2,8.308369E-3,7.895273E-2,7.2111234E-2,-7.1931207E-3,-7.3690414E-2,-7.2584874E-3,-1.8851422E-2,3.7430264E-2,-5.708933E-4,-1.3166666E-2,1.06619716E-1,2.8119326E-2,-7.236137E-2,4.495263E-3,-2.6012292E-2,1.977386E-2,7.7602067E-3,7.699431E-2,-5.1791757E-2,-1.5782595E-2,4.5703482E-2,5.591096E-3,6.0954094E-3,-7.813454E-3,-5.002755E-2,-1.8826565E-2,-1.6646624E-2,2.5936259E-2,1.7497715E-2,1.3377862E-1,2.5755167E-3,-4.116866E-2,-4.8108652E-2,2.9691297E-3,3.6809374E-2,-5.126834E-3],"categories":[],"categories_nodes":[],"categories_segments":[],"categories_sizes":[],"default_left":[1,1,1,1,1,1,1,1,1,1,1,1,1,0,1,1,1,1,1,1,1,1,1,1,1,1,1,0,0,1,1,1,1,1,1,1,1,1,1,1,1,0,1,1,1,1,1,1,1,1,0,1,1,0,0,0,0,0,0,0,0,0,0,0,0,0,0,0,0,0,0,0,0,0,0,0,0,0,0,0,0,0,0,0,0,0,0,0,0,0,0,0,0,0,0,0,0],"id":56,"left_children":[1,3,5,7,9,11,13,15,17,19,21,23,25,-1,27,29,31,33,35,37,39,41,43,45,47,49,51,-1,-1,53,55,57,59,61,63,65,67,69,71,73,75,-1,77,79,81,83,85,87,89,91,-1,93,95,-1,-1,-1,-1,-1,-1,-1,-1,-1,-1,-1,-1,-1,-1,-1,-1,-1,-1,-1,-1,-1,-1,-1,-1,-1,-1,-1,-1,-1,-1,-1,-1,-1,-1,-1,-1,-1,-1,-1,-1,-1,-1,-1,-1],"loss_changes":[2.050272E-2,4.137192E-2,6.2014833E-2,3.6486164E-2,7.666056E-2,5.336186E-2,4.5403622E-2,3.9151944E-2,4.0108144E-2,3.146501E-2,7.099536E-2,3.157952E-2,3.6628533E-2,0E0,1.3385359E-3,4.6167932E-2,5.538664E-2,6.6877544E-2,7.557736E-2,2.095911E-2,2.9373834E-2,3.0968398E-2,1.7776202E-2,2.525309E-3,3.1292766E-2,2.5295474E-2,1.5227405E-2,0E0,0E0,6.073975E-2,3.9691143E-2,4.201092E-2,4.6764757E-2,4.3964393E-2,6.0001284E-2,4.124763E-2,4.652573E-2,1.5105524E-4,4.4920668E-4,1.734889E-2,2.4382198E-2,0E0,1.762651E-2,6.805174E-4,5.5796504E-3,1.9247258E-4,1.0127947E-4,6.6457777E-3,2.2464588E-2,2.6938836E-3,0E0,9.41279E-3,6.7282445E-3,0E0,0E0,0E0,0E0,0E0,0E0,0E0,0E0,0E0,0E0,0E0,0E0,0E0,0E0,0E0,0E0,0E0,0E0,0E0,0E0,0E0,0E0,0E0,0E0,0E0,0E0,0E0,0E0,0E0,0E0,0E0,0E0,0E0,0E0,0E0,0E0,0E0,0E0,0E0,0E0,0E0,0E0,0E0,0E0],"parents":[2147483647,0,0,1,1,2,2,3,3,4,4,5,5,6,6,7,7,8,8,9,9,10,10,11,11,12,12,14,14,15,15,16,16,17,17,18,18,19,19,20,20,21,21,22,22,23,23,24,24,25,25,26,26,29,29,30,30,31,31,32,32,33,33,34,34,35,35,36,36,37,37,38,38,39,39,40,40,42,42,43,43,44,44,45,45,46,46,47,47,48,48,49,49,51,51,52,52],"right_children":[2,4,6,8,10,12,14,16,18,20,22,24,26,-1,28,30,32,34,36,38,40,42,44,46,48,50,52,-1,-1,54,56,58,60,62,64,66,68,70,72,74,76,-1,78,80,82,84,86,88,90,92,-1,94,96,-1,-1,-1,-1,-1,-1,-1,-1,-1,-1,-1,-1,-1,-1,-1,-1,-1,-1,-1,-1,-1,-1,-1,-1,-1,-1,-1,-1,-1,-1,-1,-1,-1,-1,-1,-1,-1,-1,-1,-1,-1,-1,-1,-1],"split_conditions":[5.2828712E0,2.4930735E0,6.7386956E0,5.668438E-1,9.760951E-1,2.7826586E-1,-4.1897964E-1,3.7322938E-1,7.72915E-1,-7.040021E0,2.8742166E0,-1.8219265E0,-1.7036793E0,-5.9098344E-2,-3.7601185E0,-9.781096E-1,9.721914E-1,-8.8695896E-1,-1.0045986E0,-8.269011E0,-1.7613516E0,-3.600749E0,-4.1726656E0,-2.3095312E0,-1.3257775E0,3.4779835E-1,3.5322058E-1,1.0993481E-4,-1.1804724E-2,4.31242E0,7.946614E-1,1.5975068E0,6.903223E0,-4.6647865E-1,-5.469614E0,4.8314568E-1,-1.1822963E0,1.4351381E1,2.4209678E0,1.4285123E0,-1.6544056E0,4.53242E-2,-1.5043836E0,6.8870916E0,-1.045259E0,3.6047993E0,2.8123999E0,-1.2073655E0,8.028616E-2,1.1919713E-1,-4.007951E-2,2.1155396E0,2.4106789E0,-9.172006E-3,-3.9510794E-2,4.1456656E-3,-9.0286415E-3,6.1674323E-4,-1.548783E-2,1.1659984E-2,-1.4871445E-2,2.4925107E-3,2.368582E-2,2.1633372E-2,-2.1579363E-3,-2.2107124E-2,-2.1775463E-3,-5.6554265E-3,1.1229079E-2,-1.71268E-4,-3.95E-3,3.1985916E-2,8.435798E-3,-2.1708412E-2,1.348579E-3,-7.803688E-3,5.9321583E-3,2.3280622E-3,2.3098294E-2,-1.5537527E-2,-4.734779E-3,1.37110455E-2,1.6773288E-3,1.8286229E-3,-2.3440362E-3,-1.5008265E-2,-5.6479694E-3,-4.9939873E-3,7.780878E-3,5.2493145E-3,4.0133588E-2,7.7265507E-4,-1.2350598E-2,-1.4432596E-2,8.90739E-4,1.1042813E-2,-1.5380502E-3],"split_indices":[56,56,55,47,19,44,18,50,19,9,6,16,2,0,0,53,45,7,8,9,4,30,52,32,44,28,21,0,0,1,33,1,43,38,50,22,43,0,4,33,24,0,36,1,18,0,4,23,2,14,0,59,2,0,0,0,0,0,0,0,0,0,0,0,0,0,0,0,0,0,0,0,0,0,0,0,0,0,0,0,0,0,0,0,0,0,0,0,0,0,0,0,0,0,0,0,0],"split_type":[0,0,0,0,0,0,0,0,0,0,0,0,0,0,0,0,0,0,0,0,0,0,0,0,0,0,0,0,0,0,0,0,0,0,0,0,0,0,0,0,0,0,0,0,0,0,0,0,0,0,0,0,0,0,0,0,0,0,0,0,0,0,0,0,0,0,0,0,0,0,0,0,0,0,0,0,0,0,0,0,0,0,0,0,0,0,0,0,0,0,0,0,0,0,0,0,0],"sum_hessian":[6.57E2,5.77E2,8E1,4.65E2,1.12E2,7.3E1,7E0,2.5E2,2.15E2,6.7E1,4.5E1,3.3E1,4E1,2E0,5E0,1.35E2,1.15E2,1.19E2,9.6E1,7E0,6E1,2.6E1,1.9E1,7E0,2.6E1,9E0,3.1E1,1E0,4E0,5.4E1,8.1E1,6.4E1,5.1E1,3.8E1,8.1E1,3.7E1,5.9E1,3E0,4E0,1.3E1,4.7E1,5E0,2.1E1,5E0,1.4E1,2E0,5E0,1.9E1,7E0,5E0,4E0,1.6E1,1.5E1,4.8E1,6E0,4.4E1,3.7E1,4.3E1,2.1E1,4.5E1,6E0,1.4E1,2.4E1,1E1,7.1E1,1.9E1,1.8E1,2.4E1,3.5E1,2E0,1E0,3E0,1E0,9E0,4E0,1.8E1,2.9E1,5E0,1.6E1,3E0,2E0,5E0,9E0,1E0,1E0,3E0,2E0,4E0,1.5E1,3E0,4E0,2E0,3E0,1.1E1,5E0,5E0,1E1],"tree_param":{"num_deleted":"0","num_feature":"60","num_nodes":"97","size_leaf_vector":"0"}},{"base_weights":[-6.452599E-6,-1.4090577E-2,1.9395516E-3,3.890102E-2,-2.1355724E-2,5.6331065E-3,-8.473481E-3,5.3353157E-2,3.884524E-3,-4.2134214E-2,-5.124284E-3,-9.230032E-3,1.1254383E-2,-1.804607E-2,1.3977396E-2,5.9447456E-2,8.393675E-3,1.3471842E-3,5.748272E-3,-5.516032E-3,-7.1965896E-2,2.4600439E-3,-1.02012455E-1,-3.1994842E-2,4.7381655E-3,9.573313E-3,1.3788319E-1,2.205611E-2,-2.5865994E-2,-1.141092E-2,3.2265875E-2,1.8686533E-2,-3.584561E-2,-9.475776E-2,-1.4387846E-2,1.2251294E-2,-2.0591209E-2,-2.2706807E-2,-1.3031188E-1,-2.4713347E-2,-1.7619038E-1,3.5749022E-2,-7.4093556E-3,3.091688E-4,2.6012298E-2,4.0887833E-2,1.565857E-1,-2.2982692E-2,3.6565963E-2,-6.0051907E-2,-1.0261683E-2,-2.2449119E-2,7.952519E-3,4.921716E-2,-2.3197386E-2,2.4818182E-2,4.817426E-3,-5.7617307E-2,-5.112514E-3,-3.0162632E-2,-1.04660526E-1,-1.8324852E-2,2.648592E-3,-3.7387956E-3,2.6358625E-2,-1.5526017E-3,-2.4243671E-2,-3.6069203E-2,5.140557E-3,1.8473461E-2,1.0455179E-1,-1.8178867E-2,1.5139603E-2,1.342226E-2,-1.8021286E-2,-3.1425197E-2,3.3291847E-2,-4.916668E-3,-2.6270032E-2,1.2553915E-2,5.8784593E-2,-9.308607E-2,-5.367317E-4,-3.0065157E-2,5.426065E-3,-1.8215835E-3,-3.1414516E-2,1.7057896E-2,-9.2228653E-4,2.6307592E-2,9.127807E-2,-4.8360985E-2,-3.4597516E-3],"categories":[],"categories_nodes":[],"categories_segments":[],"categories_sizes":[],"default_left":[1,1,1,1,1,1,1,1,1,1,1,1,1,1,1,0,0,0,0,1,1,1,1,1,1,1,1,1,1,1,1,1,1,1,1,1,1,0,0,1,0,1,1,1,1,0,0,1,1,1,1,1,1,1,1,0,0,0,0,0,0,0,0,0,0,0,0,0,0,0,0,0,0,0,0,0,0,0,0,0,0,0,0,0,0,0,0,0,0,0,0,0,0],"id":57,"left_children":[1,3,5,7,9,11,13,15,17,19,21,23,25,27,29,-1,-1,-1,-1,31,33,35,37,39,41,43,45,47,49,51,53,55,57,59,61,63,65,-1,-1,67,-1,69,71,73,75,-1,-1,77,79,81,83,85,87,89,91,-1,-1,-1,-1,-1,-1,-1,-1,-1,-1,-1,-1,-1,-1,-1,-1,-1,-1,-1,-1,-1,-1,-1,-1,-1,-1,-1,-1,-1,-1,-1,-1,-1,-1,-1,-1,-1,-1],"loss_changes":[1.8061638E-2,3.16301E-2,2.2316713E-2,4.853382E-3,2.3729894E-2,3.58632E-2,3.291902E-2,1.4189929E-3,1.11718655E-5,3.3466876E-2,3.0379053E-2,3.7673637E-2,6.4883165E-2,3.4125276E-2,2.1726614E-2,0E0,0E0,0E0,0E0,1.1680634E-2,2.0945929E-2,9.054593E-3,3.7739426E-3,4.2893924E-2,2.8141052E-2,4.689824E-2,8.537695E-4,1.2603496E-2,4.7394052E-2,4.453277E-3,2.6526395E-2,6.458047E-4,4.3892125E-3,4.5192093E-3,4.5097037E-4,6.414719E-3,7.968126E-4,0E0,0E0,1.5102146E-2,0E0,2.3029301E-2,1.3388648E-2,4.7834937E-2,4.7457404E-2,0E0,0E0,1.6778475E-4,6.7312308E-3,5.4998994E-2,1.9735465E-2,2.3469185E-3,6.6219986E-4,1.7834239E-2,3.3093726E-3,0E0,0E0,0E0,0E0,0E0,0E0,0E0,0E0,0E0,0E0,0E0,0E0,0E0,0E0,0E0,0E0,0E0,0E0,0E0,0E0,0E0,0E0,0E0,0E0,0E0,0E0,0E0,0E0,0E0,0E0,0E0,0E0,0E0,0E0,0E0,0E0,0E0,0E0],"parents":[2147483647,0,0,1,1,2,2,3,3,4,4,5,5,6,6,7,7,8,8,9,9,10,10,11,11,12,12,13,13,14,14,19,19,20,20,21,21,22,22,23,23,24,24,25,25,26,26,27,27,28,28,29,29,30,30,31,31,32,32,33,33,34,34,35,35,36,36,39,39,41,41,42,42,43,43,44,44,47,47,48,48,49,49,50,50,51,51,52,52,53,53,54,54],"right_children":[2,4,6,8,10,12,14,16,18,20,22,24,26,28,30,-1,-1,-1,-1,32,34,36,38,40,42,44,46,48,50,52,54,56,58,60,62,64,66,-1,-1,68,-1,70,72,74,76,-1,-1,78,80,82,84,86,88,90,92,-1,-1,-1,-1,-1,-1,-1,-1,-1,-1,-1,-1,-1,-1,-1,-1,-1,-1,-1,-1,-1,-1,-1,-1,-1,-1,-1,-1,-1,-1,-1,-1,-1,-1,-1,-1,-1,-1],"split_conditions":[-4.4563246E0,-3.8935456E0,2.8667808E0,2.9093533E0,5.254192E-2,-2.099936E0,2.2038052E0,4.808454E0,4.1861973E0,4.4552946E-1,6.252329E0,-7.387402E-1,9.317442E0,-5.083638E0,-5.802463E-1,1.7834237E-2,2.5181025E-3,4.0415526E-4,1.7244817E-3,2.7950587E0,2.901243E0,3.909452E0,2.1900659E0,-9.0244436E-1,-8.536234E-1,1.5910572E-1,-3.995693E0,-1.887344E0,-4.5355046E-1,5.23098E0,3.33275E0,6.5355873E-1,6.8180466E-1,-1.1433567E0,1.4409851E1,-2.07282E-2,-3.6812253E0,-6.812042E-3,-3.9093565E-2,2.7914114E0,-5.2857116E-2,4.740329E0,1.9589231E0,2.1636548E0,-6.0199194E0,1.226635E-2,4.697571E-2,3.5126076E0,1.1475913E-1,1.853867E0,-4.9043846E-1,-6.0388885E0,6.3731456E0,-8.626899E-2,-2.7297685E0,7.445455E-3,1.4452279E-3,-1.7285192E-2,-1.5337543E-3,-9.04879E-3,-3.139816E-2,-5.4974556E-3,7.9457765E-4,-1.1216387E-3,7.907588E-3,-4.6578053E-4,-7.2731017E-3,-1.0820761E-2,1.5421672E-3,5.5420385E-3,3.136554E-2,-5.45366E-3,4.541881E-3,4.0266784E-3,-5.4063858E-3,-9.42756E-3,9.9875545E-3,-1.4750004E-3,-7.88101E-3,3.7661747E-3,1.7635379E-2,-2.7925823E-2,-1.610195E-4,-9.019547E-3,1.6278196E-3,-5.4647506E-4,-9.424355E-3,5.117369E-3,-2.7668598E-4,7.892278E-3,2.7383422E-2,-1.4508296E-2,-1.0379255E-3],"split_indices":[13,51,1,30,49,42,0,0,0,31,14,41,41,22,55,0,0,0,0,56,37,50,0,41,43,1,0,29,37,28,29,20,16,3,3,6,21,0,0,15,0,36,8,42,24,0,0,1,28,21,12,37,0,46,5,0,0,0,0,0,0,0,0,0,0,0,0,0,0,0,0,0,0,0,0,0,0,0,0,0,0,0,0,0,0,0,0,0,0,0,0,0,0],"split_type":[0,0,0,0,0,0,0,0,0,0,0,0,0,0,0,0,0,0,0,0,0,0,0,0,0,0,0,0,0,0,0,0,0,0,0,0,0,0,0,0,0,0,0,0,0,0,0,0,0,0,0,0,0,0,0,0,0,0,0,0,0,0,0,0,0,0,0,0,0,0,0,0,0,0,0,0,0,0,0,0,0,0,0,0,0,0,0,0,0,0,0,0,0],"sum_hessian":[6.57E2,7.9E1,5.78E2,9E0,7E1,4.27E2,1.51E2,6E0,3E0,3E1,4E1,1.17E2,3.1E2,1.06E2,4.5E1,5E0,1E0,2E0,1E0,1.4E1,1.6E1,3.8E1,2E0,4.4E1,7.3E1,3.07E2,3E0,1.7E1,8.9E1,1.9E1,2.6E1,8E0,6E0,1.1E1,5E0,2.7E1,1.1E1,1E0,1E0,4.3E1,1E0,2E1,5.3E1,1.97E2,1.1E2,1E0,2E0,4E0,1.3E1,2.7E1,6.2E1,1.2E1,7E0,2E1,6E0,5E0,3E0,3E0,3E0,2E0,9E0,4E0,1E0,1.3E1,1.4E1,2E0,9E0,3.1E1,1.2E1,1.7E1,3E0,3.6E1,1.7E1,1.15E2,8.2E1,1.2E1,9.8E1,1E0,3E0,7E0,6E0,1.7E1,1E1,2.7E1,3.5E1,4E0,8E0,3E0,4E0,1.4E1,6E0,2E0,4E0],"tree_param":{"num_deleted":"0","num_feature":"60","num_nodes":"93","size_leaf_vector":"0"}},{"base_weights":[-8.9645706E-5,-3.062393E-3,7.8824675E-3,-4.6787285E-3,3.868349E-2,-1.2942563E-2,1.8229296E-2,1.7239959E-3,-1.4754812E-2,9.034739E-2,1.7468989E-2,-7.1660064E-2,-2.531024E-3,-2.8980074E-3,2.7682407E-2,1.4368167E-2,-9.992054E-3,-1.8017775E-3,-3.6062725E-2,1.2773037E-1,2.2848608E-2,3.47086E-2,4.034918E-3,-8.020973E-3,-1.20967135E-1,5.1893033E-2,-8.147467E-3,8.248816E-3,-4.5729697E-2,9.0764046E-2,1.9743511E-2,-5.905224E-3,2.7230011E-2,9.017651E-4,-3.4946837E-2,1.5488253E-2,-2.0979555E-2,-2.9471854E-2,-1.3414872E-1,-9.875993E-4,1.0559963E-2,-3.4187954E-2,2.0819664E-2,-1.971513E-3,6.5852046E-2,7.0618372E-3,-2.24225E-2,8.0551624E-2,3.153668E-3,3.764987E-3,-5.3338222E-2,1.4549911E-1,3.914666E-2,-6.7552246E-2,2.306055E-2,-1.8662186E-2,2.8507024E-2,9.02865E-2,1.9404506E-2,2.2099512E-2,-1.5640577E-2,-5.0175514E-2,3.1542942E-2,-1.7665467E-3,5.281527E-2,3.8476833E-3,-3.8168523E-2,-5.0722364E-2,-1.3428633E-3,-1.5846126E-1,-3.0605555E-2,-2.98661E-3,2.006948E-3,1.1994722E-2,3.1278431E-3,-9.647903E-3,1.9686501E-2,-3.626208E-2,1.963082E-3,-2.1527877E-2,1.0221049E-2,-2.8278291E-2,-6.5063596E-2,4.3301392E-2,9.186506E-3,3.329547E-2,-1.0062571E-2],"categories":[],"categories_nodes":[],"categories_segments":[],"categories_sizes":[],"default_left":[1,1,1,1,1,1,1,1,1,1,1,1,1,1,1,1,1,1,1,0,0,0,1,1,0,1,1,1,1,1,1,1,1,1,1,1,1,1,1,1,1,0,0,0,0,1,1,0,1,0,1,0,1,0,1,0,0,0,0,0,0,0,0,0,0,0,0,0,0,0,0,0,0,0,0,0,0,0,0,0,0,0,0,0,0,0,0],"id":58,"left_children":[1,3,5,7,9,11,13,15,17,19,21,23,25,27,29,31,33,35,37,-1,-1,-1,39,41,-1,43,45,47,49,51,53,55,57,59,61,63,65,67,69,71,73,-1,-1,-1,-1,75,77,-1,79,-1,81,-1,83,-1,85,-1,-1,-1,-1,-1,-1,-1,-1,-1,-1,-1,-1,-1,-1,-1,-1,-1,-1,-1,-1,-1,-1,-1,-1,-1,-1,-1,-1,-1,-1,-1,-1],"loss_changes":[1.5618132E-2,3.2569163E-2,3.8805604E-2,2.9895602E-2,1.815015E-2,3.6499E-2,2.404647E-2,4.221525E-2,4.961541E-2,9.698063E-3,3.1023277E-3,2.7270444E-2,1.6317617E-2,1.8519832E-2,3.9774276E-2,3.5883985E-2,4.026574E-2,3.779397E-2,4.0006496E-2,0E0,0E0,0E0,3.053784E-4,4.4851433E-3,0E0,3.8893074E-3,1.0579783E-2,1.1166165E-2,3.213469E-3,1.9731723E-2,2.3275044E-2,2.4237774E-2,3.9697748E-2,3.6814325E-2,4.7147505E-2,3.8737513E-2,2.3191607E-2,3.8785987E-2,5.2197874E-3,4.1910764E-5,5.1355746E-6,0E0,0E0,0E0,0E0,5.25285E-3,8.50834E-3,0E0,5.4530543E-3,0E0,2.1697208E-4,0E0,3.49069E-4,0E0,2.5082953E-2,0E0,0E0,0E0,0E0,0E0,0E0,0E0,0E0,0E0,0E0,0E0,0E0,0E0,0E0,0E0,0E0,0E0,0E0,0E0,0E0,0E0,0E0,0E0,0E0,0E0,0E0,0E0,0E0,0E0,0E0,0E0,0E0],"parents":[2147483647,0,0,1,1,2,2,3,3,4,4,5,5,6,6,7,7,8,8,9,9,10,10,11,11,12,12,13,13,14,14,15,15,16,16,17,17,18,18,22,22,23,23,25,25,26,26,27,27,28,28,29,29,30,30,31,31,32,32,33,33,34,34,35,35,36,36,37,37,38,38,39,39,40,40,45,45,46,46,48,48,50,50,52,52,54,54],"right_children":[2,4,6,8,10,12,14,16,18,20,22,24,26,28,30,32,34,36,38,-1,-1,-1,40,42,-1,44,46,48,50,52,54,56,58,60,62,64,66,68,70,72,74,-1,-1,-1,-1,76,78,-1,80,-1,82,-1,84,-1,86,-1,-1,-1,-1,-1,-1,-1,-1,-1,-1,-1,-1,-1,-1,-1,-1,-1,-1,-1,-1,-1,-1,-1,-1,-1,-1,-1,-1,-1,-1,-1,-1],"split_conditions":[2.875551E0,8.827742E0,-1.2752318E0,-1.5235558E-1,9.472797E0,-3.3554373E0,-1.8310274E0,1.0213865E-1,1.045909E0,2.3615954E0,-1.8867555E0,-5.442108E0,-4.726866E0,5.9907475E0,3.2378128E0,-5.228298E-1,2.4813056E0,6.8947124E-1,9.1297245E0,3.831911E-2,6.8545826E-3,1.041258E-2,6.059108E0,1.9853632E0,-3.6290143E-2,4.170099E-1,1.5947956E-1,-1.4047586E1,-1.7282009E0,-3.6186242E-1,-8.228828E0,3.968855E0,1.1328521E-1,-2.2430006E-1,5.867157E0,1.2664055E0,-1.4762638E0,1.2673727E-2,1.5836529E0,6.0377126E0,4.4547343E0,-1.0256386E-2,6.2458995E-3,-5.914539E-4,1.9755615E-2,7.375357E-1,1.0247258E-1,2.4165489E-2,-8.3034563E-1,1.1294961E-3,-9.899298E-1,4.3649733E-2,2.3836899E0,-2.0265674E-2,3.537452E0,-5.598656E-3,8.552108E-3,2.708595E-2,5.821352E-3,6.629854E-3,-4.6921736E-3,-1.5052655E-2,9.462883E-3,-5.2996405E-4,1.5844582E-2,1.1543051E-3,-1.1450557E-2,-1.521671E-2,-4.02859E-4,-4.753838E-2,-9.181667E-3,-8.95983E-4,6.0208444E-4,3.598417E-3,9.3835295E-4,-2.894371E-3,5.905951E-3,-1.0878624E-2,5.889246E-4,-6.4583635E-3,3.0663149E-3,-8.483488E-3,-1.951908E-2,1.2990418E-2,2.755952E-3,9.988641E-3,-3.0187713E-3],"split_indices":[36,49,55,36,49,0,33,15,49,1,56,0,23,40,36,12,57,38,32,0,0,0,11,2,0,0,2,46,8,13,53,41,12,53,27,7,4,15,0,0,0,0,0,0,0,34,57,0,11,0,27,0,0,0,23,0,0,0,0,0,0,0,0,0,0,0,0,0,0,0,0,0,0,0,0,0,0,0,0,0,0,0,0,0,0,0,0],"split_type":[0,0,0,0,0,0,0,0,0,0,0,0,0,0,0,0,0,0,0,0,0,0,0,0,0,0,0,0,0,0,0,0,0,0,0,0,0,0,0,0,0,0,0,0,0,0,0,0,0,0,0,0,0,0,0,0,0,0,0,0,0,0,0,0,0,0,0,0,0,0,0,0,0,0,0,0,0,0,0,0,0,0,0,0,0,0,0],"sum_hessian":[6.57E2,4.79E2,1.78E2,4.62E2,1.7E1,5.9E1,1.19E2,2.83E2,1.79E2,4E0,1.3E1,8E0,5.1E1,3.7E1,8.2E1,1.36E2,1.47E2,1.12E2,6.7E1,2E0,2E0,5E0,8E0,4E0,4E0,4E0,4.7E1,3E1,7E0,8E0,7.4E1,5.3E1,8.3E1,1.03E2,4.4E1,5.9E1,5.3E1,6.4E1,3E0,5E0,3E0,2E0,2E0,1E0,3E0,2.3E1,2.4E1,1E0,2.9E1,1E0,6E0,3E0,5E0,2E0,7.2E1,3.9E1,1.4E1,8E0,7.5E1,4.5E1,5.8E1,3.6E1,8E0,4.1E1,1.8E1,2.2E1,3.1E1,3.6E1,2.8E1,2E0,1E0,3E0,2E0,2E0,1E0,1E1,1.3E1,1.5E1,9E0,6E0,2.3E1,3E0,3E0,4E0,1E0,5.5E1,1.7E1],"tree_param":{"num_deleted":"0","num_feature":"60","num_nodes":"87","size_leaf_vector":"0"}},{"base_weights":[-7.5819025E-6,6.129149E-3,-3.297653E-3,2.6232696E-3,5.2856334E-2,-3.014448E-2,-1.4907996E-3,-3.2724176E-2,5.823425E-3,8.820679E-2,-5.195228E-3,8.0317614E-4,-1.1868109E-1,1.4469664E-2,-5.613004E-3,-1.2884331E-1,-1.2656579E-2,-3.486358E-2,7.945364E-3,1.5188437E-3,1.2514178E-1,2.3182452E-2,-3.22741E-2,2.3115966E-2,-4.7124684E-2,-1.2764502E-1,-3.244877E-2,3.6015544E-2,2.231773E-3,-1.0317761E-2,1.1719121E-2,4.6056136E-3,-2.6594464E-2,7.8081572E-3,-1.0082322E-1,2.589594E-2,2.319701E-3,-5.6093433E-3,1.1451703E-2,-3.7974957E-2,-7.585764E-3,-4.480326E-3,6.5257125E-2,-9.493679E-3,-5.181424E-2,6.492713E-2,6.6599613E-3,-1.8174957E-2,1.795854E-2,-3.5015813E-3,-4.352465E-2,3.1503517E-2,-4.3074274E-3,-4.7991276E-3,1.1208284E-2,-7.437825E-3,-3.4933146E-2,8.070916E-4,1.2857184E-2,3.9145365E-2,-6.238171E-3,5.8004465E-3,-5.801312E-2,2.5844574E-4,-8.672461E-3,-1.8301755E-2,4.05768E-3,1.8369244E-2,1.1551196E-1,-3.633414E-2,1.5397271E-2,-2.7421227E-2,1.4134049E-2,5.166725E-2,1.8201019E-3,4.7282305E-2,-6.263378E-3,-2.1257976E-2,-7.63291E-2,3.468727E-3,6.1176043E-2,4.3833703E-3,-4.4662986E-2],"categories":[],"categories_nodes":[],"categories_segments":[],"categories_sizes":[],"default_left":[1,1,1,1,1,1,1,1,1,1,1,1,1,1,1,0,1,1,1,1,0,0,1,1,1,0,0,1,1,1,1,1,1,1,0,1,1,1,0,0,0,1,0,0,0,1,1,1,1,1,1,1,1,0,0,0,0,0,0,0,0,0,0,0,0,0,0,0,0,0,0,0,0,0,0,0,0,0,0,0,0,0,0],"id":59,"left_children":[1,3,5,7,9,11,13,15,17,19,21,23,25,27,29,-1,31,33,35,37,-1,-1,39,41,43,-1,-1,45,47,49,51,53,55,57,-1,59,61,63,-1,-1,-1,65,-1,-1,-1,67,69,71,73,75,77,79,81,-1,-1,-1,-1,-1,-1,-1,-1,-1,-1,-1,-1,-1,-1,-1,-1,-1,-1,-1,-1,-1,-1,-1,-1,-1,-1,-1,-1,-1,-1],"loss_changes":[1.3305416E-2,3.7539914E-2,2.0765115E-2,2.451079E-2,3.329264E-2,7.4075334E-2,2.6595512E-2,3.3089124E-2,1.7371409E-2,3.1828128E-2,6.127242E-3,2.3546822E-2,1.2689382E-3,2.1804737E-2,2.6296359E-2,0E0,3.972059E-3,2.8933372E-2,1.9025886E-2,3.4744965E-4,0E0,0E0,2.7490966E-4,1.7736468E-2,7.433994E-4,0E0,0E0,2.5029082E-2,1.7656717E-2,5.7112664E-2,2.201391E-2,5.505612E-4,1.1778437E-3,2.3706307E-4,0E0,1.9403327E-2,3.0786965E-2,5.616255E-5,0E0,0E0,0E0,1.2543371E-3,0E0,0E0,0E0,3.320498E-2,6.569891E-3,7.5572785E-3,1.6770145E-2,2.9889902E-2,2.9786572E-2,2.557555E-2,1.3873932E-2,0E0,0E0,0E0,0E0,0E0,0E0,0E0,0E0,0E0,0E0,0E0,0E0,0E0,0E0,0E0,0E0,0E0,0E0,0E0,0E0,0E0,0E0,0E0,0E0,0E0,0E0,0E0,0E0,0E0,0E0],"parents":[2147483647,0,0,1,1,2,2,3,3,4,4,5,5,6,6,7,7,8,8,9,9,10,10,11,11,12,12,13,13,14,14,16,16,17,17,18,18,19,19,22,22,23,23,24,24,27,27,28,28,29,29,30,30,31,31,32,32,33,33,35,35,36,36,37,37,41,41,45,45,46,46,47,47,48,48,49,49,50,50,51,51,52,52],"right_children":[2,4,6,8,10,12,14,16,18,20,22,24,26,28,30,-1,32,34,36,38,-1,-1,40,42,44,-1,-1,46,48,50,52,54,56,58,-1,60,62,64,-1,-1,-1,66,-1,-1,-1,68,70,72,74,76,78,80,82,-1,-1,-1,-1,-1,-1,-1,-1,-1,-1,-1,-1,-1,-1,-1,-1,-1,-1,-1,-1,-1,-1,-1,-1,-1,-1,-1,-1,-1,-1],"split_conditions":[-1.1609879E0,-1.364943E0,-8.4376097E-1,-5.7922106E0,1.0798697E0,8.049427E-1,-3.1721697E0,-3.937421E0,-6.6899467E0,-1.1381787E0,4.7082514E-1,4.3915234E0,5.219719E0,-1.6207129E0,3.4602838E0,-3.8652994E-2,1.8068088E0,-8.011975E0,-3.1693406E0,-1.8262911E0,3.7542537E-2,6.9547356E-3,1.9420149E0,9.4631195E-1,-2.4391727E0,-3.8293507E-2,-9.734631E-3,1.2333649E0,-5.2070286E-2,1.6945484E0,-6.63017E-1,-9.505067E-1,-2.3399777E0,3.6102933E-1,-3.0246967E-2,2.889626E0,7.9946127E0,7.069045E-2,3.435511E-3,-1.1392487E-2,-2.2757293E-3,-3.6187043E0,1.9577138E-2,-2.8481036E-3,-1.5544272E-2,7.9899836E-1,-4.9082074E0,4.1740613E0,-2.1104317E0,-6.938816E0,1.9577181E0,-3.0727897E0,1.7098911E0,-1.4397383E-3,3.3624852E-3,-2.2313476E-3,-1.0479944E-2,2.4212748E-4,3.8571553E-3,1.174361E-2,-1.8714514E-3,1.740134E-3,-1.7403936E-2,7.7533725E-5,-2.6017383E-3,-5.4905266E-3,1.217304E-3,5.5107735E-3,3.465359E-2,-1.0900242E-2,4.6191816E-3,-8.226369E-3,4.240215E-3,1.5500176E-2,5.460306E-4,1.4184692E-2,-1.8790135E-3,-6.377393E-3,-2.289873E-2,1.0406182E-3,1.8352814E-2,1.3150112E-3,-1.3398896E-2],"split_indices":[29,29,29,59,1,22,59,41,36,1,0,14,0,23,58,0,21,36,39,1,0,0,0,33,1,0,0,31,42,58,12,19,14,8,0,8,55,0,0,0,0,5,0,0,0,39,32,44,33,55,27,12,50,0,0,0,0,0,0,0,0,0,0,0,0,0,0,0,0,0,0,0,0,0,0,0,0,0,0,0,0,0,0],"split_type":[0,0,0,0,0,0,0,0,0,0,0,0,0,0,0,0,0,0,0,0,0,0,0,0,0,0,0,0,0,0,0,0,0,0,0,0,0,0,0,0,0,0,0,0,0,0,0,0,0,0,0,0,0,0,0,0,0,0,0,0,0,0,0,0,0,0,0,0,0,0,0,0,0,0,0,0,0,0,0,0,0,0,0],"sum_hessian":[6.57E2,2.29E2,4.28E2,2.14E2,1.5E1,2.6E1,4.02E2,1.7E1,1.97E2,9E0,6E0,2E1,6E0,8.2E1,3.2E2,2E0,1.5E1,9E0,1.88E2,3E0,6E0,3E0,3E0,1.4E1,6E0,5E0,1E0,2.9E1,5.3E1,2.52E2,6.8E1,7E0,8E0,6E0,3E0,4.4E1,1.44E2,2E0,1E0,2E0,1E0,9E0,5E0,1E0,5E0,1.4E1,1.5E1,2.3E1,3E1,2.1E2,4.2E1,3E1,3.8E1,3E0,4E0,3E0,5E0,3E0,3E0,3.1E1,1.3E1,1.37E2,7E0,1E0,1E0,3E0,6E0,8E0,6E0,2E0,1.3E1,1.8E1,5E0,9E0,2.1E1,1E1,2E2,2.6E1,1.6E1,1.6E1,1.4E1,3.2E1,6E0],"tree_param":{"num_deleted":"0","num_feature":"60","num_nodes":"83","size_leaf_vector":"0"}},{"base_weights":[-1.0328745E-4,-2.603013E-3,6.600464E-3,-1.9418463E-3,-5.4511547E-2,-9.83968E-3,1.1556157E-2,7.2868625E-3,-5.330734E-3,-1.2088919E-1,-1.7058183E-2,-2.3963798E-2,1.2340717E-2,2.258106E-2,-4.0399334E-3,2.3330081E-2,-5.1200846E-3,-5.714436E-2,-3.7865837E-3,-3.4567516E-3,-2.497355E-2,-4.5293473E-2,-1.372163E-2,-6.931859E-3,3.488885E-2,6.954816E-3,4.3977488E-2,1.5850054E-2,-1.8546103E-2,4.7137853E-2,-2.1611846E-3,7.4056885E-3,-2.3320548E-2,-1.01060964E-1,-1.1023127E-2,2.6217146E-2,-6.053365E-3,-5.464077E-3,2.7894974E-4,-6.625958E-2,-7.762477E-3,9.586876E-3,-2.0576356E-2,6.036699E-3,-1.33521985E-2,4.4026375E-3,4.4317145E-2,-9.0634255E-3,1.872011E-2,1.1077607E-1,2.864063E-2,4.5006443E-2,2.011101E-3,-3.359216E-2,2.751716E-3,9.051189E-2,2.9222848E-2,-3.1373754E-2,1.5811007E-2,-3.6485236E-2,1.3968249E-2,-2.8188089E-2,2.9883346E-2,2.0378942E-2,-3.1818897E-2,-2.7787425E-3,5.0965875E-2,-1.8471928E-3,-1.86485E-2,3.4681955E-4,-1.6045183E-2,1.5384038E-2,5.9408945E-4,-2.53817E-2,-5.8893324E-3,9.6845627E-4,7.403294E-3,-2.4252336E-3,-1.7237937E-2,-3.575325E-3,1.0179281E-2,1.1360394E-2,-2.2505807E-2,3.9081923E-3,3.3252873E-2,4.3158956E-2,9.598231E-4,5.405973E-2,1.1897723E-2,-8.759925E-3,2.0188417E-2,-6.2773444E-2,-1.968017E-2,-1.3433084E-2,1.8592551E-2],"categories":[],"categories_nodes":[],"categories_segments":[],"categories_sizes":[],"default_left":[1,1,1,1,1,1,1,1,1,0,1,1,1,1,1,1,1,1,1,1,0,1,1,1,1,1,1,1,1,1,1,1,1,0,1,1,1,0,0,0,1,1,1,1,1,1,0,1,1,0,1,1,1,1,1,0,0,0,0,0,0,0,0,0,0,0,0,0,0,0,0,0,0,0,0,0,0,0,0,0,0,0,0,0,0,0,0,0,0,0,0,0,0,0,0],"id":60,"left_children":[1,3,5,7,9,11,13,15,17,-1,19,21,23,25,27,29,31,33,35,37,-1,39,41,43,45,47,49,51,53,55,57,59,61,-1,63,65,67,-1,-1,-1,69,71,73,75,77,79,-1,81,83,-1,85,87,89,91,93,-1,-1,-1,-1,-1,-1,-1,-1,-1,-1,-1,-1,-1,-1,-1,-1,-1,-1,-1,-1,-1,-1,-1,-1,-1,-1,-1,-1,-1,-1,-1,-1,-1,-1,-1,-1,-1,-1,-1,-1],"loss_changes":[1.1043643E-2,1.6367842E-2,1.4697253E-2,1.4894497E-2,1.2854246E-2,1.34534305E-2,2.3819689E-2,2.5597516E-2,2.7626412E-2,0E0,4.5197445E-4,5.058515E-3,7.629374E-3,2.6776154E-2,1.7028552E-2,3.4087725E-2,1.681487E-2,1.914087E-2,2.3214735E-2,2.4020508E-5,0E0,5.7806913E-3,3.2329587E-3,9.132286E-4,2.1043522E-3,9.215716E-3,3.165964E-2,9.996834E-3,1.0987675E-2,1.9889325E-2,1.5196441E-2,1.3183255E-2,8.611517E-3,0E0,4.5666164E-3,1.7364293E-2,1.6706381E-2,0E0,0E0,0E0,2.742324E-4,2.5152377E-4,9.091613E-4,2.0535183E-5,2.5540928E-4,1.7465177E-4,5.988404E-7,6.0211145E-3,5.8972677E-3,0E0,1.1613065E-2,1.7547552E-3,3.7010391E-3,6.884005E-3,4.0954663E-3,0E0,0E0,0E0,0E0,0E0,0E0,0E0,0E0,0E0,0E0,0E0,0E0,0E0,0E0,0E0,0E0,0E0,0E0,0E0,0E0,0E0,0E0,0E0,0E0,0E0,0E0,0E0,0E0,0E0,0E0,0E0,0E0,0E0,0E0,0E0,0E0,0E0,0E0,0E0,0E0],"parents":[2147483647,0,0,1,1,2,2,3,3,4,4,5,5,6,6,7,7,8,8,10,10,11,11,12,12,13,13,14,14,15,15,16,16,17,17,18,18,19,19,21,21,22,22,23,23,24,24,25,25,26,26,27,27,28,28,29,29,30,30,31,31,32,32,34,34,35,35,36,36,40,40,41,41,42,42,43,43,44,44,45,45,47,47,48,48,50,50,51,51,52,52,53,53,54,54],"right_children":[2,4,6,8,10,12,14,16,18,-1,20,22,24,26,28,30,32,34,36,38,-1,40,42,44,46,48,50,52,54,56,58,60,62,-1,64,66,68,-1,-1,-1,70,72,74,76,78,80,-1,82,84,-1,86,88,90,92,94,-1,-1,-1,-1,-1,-1,-1,-1,-1,-1,-1,-1,-1,-1,-1,-1,-1,-1,-1,-1,-1,-1,-1,-1,-1,-1,-1,-1,-1,-1,-1,-1,-1,-1,-1,-1,-1,-1,-1,-1],"split_conditions":[2.809009E0,2.7313719E0,-3.2670364E0,-2.139689E0,3.8016596E-1,2.7141495E0,1.7254442E0,3.324139E-1,-2.0725174E0,-3.626676E-2,2.7652984E0,-3.7036757E0,9.0135753E-1,1.1938154E0,-1.1953034E0,-3.4422106E-1,2.2265738E-1,3.579991E-1,-5.9619265E0,3.941971E0,-7.4920654E-3,4.146415E-1,-4.2908545E0,-9.541284E-1,-1.9049056E0,4.2641425E-1,1.6469188E0,-3.0683227E0,1.4514406E0,-1.7885201E0,-1.2748638E0,1.1038699E0,-3.1391697E0,-3.031829E-2,-1.0882386E-1,4.8178434E-3,2.9316168E0,-1.6392232E-3,8.368492E-5,-1.9877873E-2,-8.189775E0,3.815424E0,4.1909738E0,-3.7265553E0,-3.6849513E0,-1.0142944E0,1.3295144E-2,5.568317E-1,3.1660998E-1,3.3232823E-2,1.5323808E0,7.189435E0,-3.8407674E0,-3.1130266E-1,-8.3034563E-1,2.7153568E-2,8.766855E-3,-9.412127E-3,4.7433022E-3,-1.0945572E-2,4.1904747E-3,-8.456427E-3,8.965004E-3,6.113683E-3,-9.545669E-3,-8.3362276E-4,1.5289763E-2,-5.541578E-4,-5.59455E-3,1.0404587E-4,-4.813555E-3,4.6152114E-3,1.7822684E-4,-7.61451E-3,-1.7667998E-3,2.905369E-4,2.2209883E-3,-7.275701E-4,-5.1713814E-3,-1.0725976E-3,3.0537846E-3,3.4081184E-3,-6.751742E-3,1.1724577E-3,9.975862E-3,1.2947687E-2,2.8794692E-4,1.6217919E-2,3.569317E-3,-2.6279776E-3,6.0565253E-3,-1.8832034E-2,-5.9040515E-3,-4.0299254E-3,5.5777654E-3],"split_indices":[3,3,11,34,0,13,14,20,34,0,3,0,4,33,42,56,59,31,17,0,0,15,44,50,10,6,33,51,52,51,40,20,34,0,0,9,40,0,0,0,0,0,12,0,5,0,0,19,53,0,10,1,42,35,0,0,0,0,0,0,0,0,0,0,0,0,0,0,0,0,0,0,0,0,0,0,0,0,0,0,0,0,0,0,0,0,0,0,0,0,0,0,0,0,0],"split_type":[0,0,0,0,0,0,0,0,0,0,0,0,0,0,0,0,0,0,0,0,0,0,0,0,0,0,0,0,0,0,0,0,0,0,0,0,0,0,0,0,0,0,0,0,0,0,0,0,0,0,0,0,0,0,0,0,0,0,0,0,0,0,0,0,0,0,0,0,0,0,0,0,0,0,0,0,0,0,0,0,0,0,0,0,0,0,0,0,0,0,0,0,0,0,0],"sum_hessian":[6.57E2,4.79E2,1.78E2,4.74E2,5E0,4.1E1,1.37E2,1.27E2,3.47E2,1E0,4E0,2.5E1,1.6E1,8E1,5.7E1,5.5E1,7.2E1,9E0,3.38E2,2E0,2E0,7E0,1.8E1,9E0,7E0,4.7E1,3.3E1,2.4E1,3.3E1,2.8E1,2.7E1,4.3E1,2.9E1,4E0,5E0,2.3E1,3.15E2,1E0,1E0,4E0,3E0,4E0,1.4E1,3E0,6E0,2E0,5E0,2E1,2.7E1,5E0,2.8E1,7E0,1.7E1,1.9E1,1.4E1,7E0,2.1E1,1E1,1.7E1,5E0,3.8E1,2.7E1,2E0,2E0,3E0,1.1E1,1.2E1,2.37E2,7.8E1,2E0,1E0,2E0,2E0,1E1,4E0,1E0,2E0,2E0,4E0,1E0,1E0,8E0,1.2E1,1.4E1,1.3E1,1.8E1,1E1,5E0,2E0,1.1E1,6E0,5E0,1.4E1,7E0,7E0],"tree_param":{"num_deleted":"0","num_feature":"60","num_nodes":"95","size_leaf_vector":"0"}},{"base_weights":[-8.559966E-5,1.9088147E-2,-7.165763E-4,4.369555E-3,6.5313734E-2,-8.019686E-2,-4.6590576E-4,-1.5179306E-2,9.642833E-3,7.32678E-2,1.6748726E-2,4.3463088E-3,-4.2283474E-3,-1.947244E-2,-1.1499524E-3,1.8904284E-2,2.3971067E-3,-1.1455588E-3,2.4936957E-2,-1.1310053E-1,-3.606575E-3,6.0120323E-3,2.3847401E-2,-1.366804E-3,7.4436963E-3,5.950465E-3,-1.5418017E-2,3.371951E-2,-2.7601615E-2,-1.0441426E-2,4.874094E-3,-3.3112962E-3,4.3326616E-4,2.2228956E-3,8.442998E-3,8.258331E-3,-2.695471E-2,-2.2706255E-2,2.0527275E-2,-3.0011158E-3,5.0591826E-2,-4.930029E-2,-3.8261712E-4,-2.00967E-2,1.3682016E-3,1.7728313E-3,3.9805844E-2],"categories":[],"categories_nodes":[],"categories_segments":[],"categories_sizes":[],"default_left":[1,1,1,1,1,0,1,1,1,0,0,1,1,0,0,1,1,1,1,0,1,0,0,1,1,1,1,1,1,1,1,0,0,0,0,0,0,0,0,0,0,0,0,0,0,0,0],"id":61,"left_children":[1,3,5,7,9,-1,11,13,15,-1,-1,17,19,-1,-1,21,23,25,27,-1,29,-1,-1,31,33,35,37,39,41,43,45,-1,-1,-1,-1,-1,-1,-1,-1,-1,-1,-1,-1,-1,-1,-1,-1],"loss_changes":[7.974285E-3,1.4002494E-2,1.2673743E-2,1.8988434E-3,7.0430525E-4,0E0,1.1551693E-2,2.185271E-4,8.941677E-4,0E0,0E0,3.169128E-2,2.382644E-2,0E0,0E0,2.3899623E-4,1.8112829E-4,2.2575393E-2,2.8154656E-2,0E0,2.074408E-2,0E0,0E0,2.243601E-5,2.1007145E-6,1.1537772E-2,1.985246E-2,3.17495E-2,5.2966825E-3,2.2604486E-2,1.7262634E-2,0E0,0E0,0E0,0E0,0E0,0E0,0E0,0E0,0E0,0E0,0E0,0E0,0E0,0E0,0E0,0E0],"parents":[2147483647,0,0,1,1,2,2,3,3,4,4,6,6,7,7,8,8,11,11,12,12,15,15,16,16,17,17,18,18,20,20,23,23,24,24,25,25,26,26,27,27,28,28,29,29,30,30],"right_children":[2,4,6,8,10,-1,12,14,16,-1,-1,18,20,-1,-1,22,24,26,28,-1,30,-1,-1,32,34,36,38,40,42,44,46,-1,-1,-1,-1,-1,-1,-1,-1,-1,-1,-1,-1,-1,-1,-1,-1],"split_conditions":[-8.22157E0,4.4030933E0,-8.120024E0,-3.8594828E0,-8.517956E0,-2.405906E-2,-3.4880328E-1,1.4608242E1,1.5239713E0,2.1980342E-2,5.024618E-3,-1.0976722E0,-3.3022577E-1,-5.8417325E-3,-3.4498575E-4,-1.3244514E1,4.5306787E0,2.2468026E0,4.165021E0,-3.393016E-2,5.8890265E-1,1.8036098E-3,7.1542207E-3,8.452798E0,-1.3188502E1,9.038267E0,5.8928137E0,-2.1071925E0,-1.3542377E-2,1.0714728E0,7.59516E0,-9.933889E-4,1.2997986E-4,6.668687E-4,2.5328994E-3,2.4774992E-3,-8.086413E-3,-6.811877E-3,6.158183E-3,-9.0033474E-4,1.5177549E-2,-1.4790088E-2,-1.14785136E-4,-6.0290103E-3,4.104605E-4,5.318494E-4,1.1941754E-2],"split_indices":[0,32,0,15,0,0,16,1,37,0,0,16,16,0,0,0,5,54,10,0,54,0,0,3,0,15,27,29,59,9,58,0,0,0,0,0,0,0,0,0,0,0,0,0,0,0,0],"split_type":[0,0,0,0,0,0,0,0,0,0,0,0,0,0,0,0,0,0,0,0,0,0,0,0,0,0,0,0,0,0,0,0,0,0,0,0,0,0,0,0,0,0,0,0,0,0,0],"sum_hessian":[6.57E2,2E1,6.37E2,1.6E1,4E0,1E0,6.36E2,3E0,1.3E1,3E0,1E0,2.79E2,3.57E2,2E0,1E0,5E0,8E0,2.21E2,5.8E1,1E0,3.56E2,2E0,3E0,5E0,3E0,1.48E2,7.3E1,5E1,8E0,1.97E2,1.59E2,2E0,3E0,1E0,2E0,1.39E2,9E0,6.1E1,1.2E1,1.6E1,3.4E1,4E0,4E0,1.08E2,8.9E1,1.47E2,1.2E1],"tree_param":{"num_deleted":"0","num_feature":"60","num_nodes":"47","size_leaf_vector":"0"}},{"base_weights":[-9.92982E-5,6.940945E-4,-1.3826642E-2,-6.986583E-3,2.616721E-3,-1.1493433E-3,-9.2196025E-2,-8.725961E-2,-4.9719033E-3,7.0479237E-3,-4.155198E-3,3.5927594E-2,-6.2237713E-3,-1.1593011E-1,1.3701618E-3,8.089091E-3,-1.4651632E-2,1.2420822E-2,-2.5795093E-3,1.2868139E-2,-9.688454E-3,4.0843565E-2,1.0589838E-2,-1.3844541E-2,1.2249555E-2,2.791615E-3,3.753844E-2,-3.1048238E-2,-1.1680562E-3,-5.221178E-4,2.0406652E-2,-1.1971474E-1,-3.86454E-4,8.354927E-7,3.0024504E-2,-2.0873645E-2,6.282836E-4,3.070149E-3,-2.4489747E-2,2.2496868E-2,-4.4766665E-4,-1.1366571E-2,1.0009014E-2,4.950726E-2,1.0879835E-3,-6.0187038E-2,-1.0555607E-2,3.0394813E-2,-6.545461E-3,-1.137736E-2,1.7088864E-2,1.4510624E-3,2.9173255E-2,1.3520886E-2,-1.4544181E-2,1.4757999E-2,-1.2911735E-2,6.949685E-2,1.9584844E-2,-1.6973095E-2,-1.0492859E-1,5.1303726E-2,-3.4890263E-3,8.5661905E-3,-5.9414506E-3,-3.8988575E-2,-1.6241241E-2,-3.6943555E-3,2.9482443E-3],"categories":[],"categories_nodes":[],"categories_segments":[],"categories_sizes":[],"default_left":[1,1,1,1,1,1,1,0,1,1,1,1,1,0,0,1,1,1,1,1,1,0,0,1,1,1,1,1,1,1,1,0,1,1,1,1,1,1,1,0,1,0,0,0,0,0,0,0,0,0,0,0,0,0,0,0,0,0,0,0,0,0,0,0,0,0,0,0,0],"id":62,"left_children":[1,3,5,7,9,11,13,-1,15,17,19,21,23,-1,-1,25,27,29,31,33,35,-1,-1,37,39,41,43,45,47,49,51,-1,53,55,57,59,61,63,65,-1,67,-1,-1,-1,-1,-1,-1,-1,-1,-1,-1,-1,-1,-1,-1,-1,-1,-1,-1,-1,-1,-1,-1,-1,-1,-1,-1,-1,-1],"loss_changes":[7.17599E-3,9.218169E-3,3.5660468E-2,1.9781712E-2,1.500315E-2,6.244221E-3,1.1262383E-2,0E0,1.5669025E-2,1.565366E-2,1.877518E-2,6.571226E-5,4.2522377E-3,0E0,0E0,8.163588E-3,1.5660759E-2,2.0062517E-2,2.7954094E-2,1.0817027E-2,1.7322317E-2,0E0,0E0,3.856455E-3,1.1810828E-3,4.814291E-3,3.4362888E-3,1.847287E-2,6.9880006E-3,1.4532286E-2,1.9898806E-2,0E0,2.1461455E-2,5.716586E-3,7.292548E-3,2.182499E-2,1.6662072E-2,4.966487E-4,9.214948E-4,0E0,6.601919E-5,0E0,0E0,0E0,0E0,0E0,0E0,0E0,0E0,0E0,0E0,0E0,0E0,0E0,0E0,0E0,0E0,0E0,0E0,0E0,0E0,0E0,0E0,0E0,0E0,0E0,0E0,0E0,0E0],"parents":[2147483647,0,0,1,1,2,2,3,3,4,4,5,5,6,6,8,8,9,9,10,10,11,11,12,12,15,15,16,16,17,17,18,18,19,19,20,20,23,23,24,24,25,25,26,26,27,27,28,28,29,29,30,30,32,32,33,33,34,34,35,35,36,36,37,37,38,38,40,40],"right_children":[2,4,6,8,10,12,14,-1,16,18,20,22,24,-1,-1,26,28,30,32,34,36,-1,-1,38,40,42,44,46,48,50,52,-1,54,56,58,60,62,64,66,-1,68,-1,-1,-1,-1,-1,-1,-1,-1,-1,-1,-1,-1,-1,-1,-1,-1,-1,-1,-1,-1,-1,-1,-1,-1,-1,-1,-1,-1],"split_conditions":[8.470138E0,-3.2453837E0,4.9531384E0,-9.491486E0,2.1549761E0,-7.105318E0,3.7796302E0,-2.6177885E-2,-5.532215E-1,2.0954025E0,-2.0762777E0,-3.1635664E0,4.0584507E0,-3.4779035E-2,4.1104856E-4,3.7798872E0,-6.292839E-1,-7.2265315E-1,-6.1424837E0,1.2963786E0,3.028439E-1,1.225307E-2,3.1769515E-3,-2.7742066E0,7.3844254E-1,-1.7468871E0,1.5550485E0,-4.1700113E-1,-5.3607492E0,1.4706731E0,-9.6360105E-1,-3.591442E-2,4.59491E-1,1.7968861E0,-3.8361523E0,8.116783E0,5.7876384E-1,2.9716392E0,-3.8784442E0,6.7490605E-3,-2.188426E0,-3.4099715E-3,3.0027044E-3,1.4852178E-2,3.2639506E-4,-1.8056111E-2,-3.1666823E-3,9.118444E-3,-1.9636382E-3,-3.413208E-3,5.1266593E-3,4.3531874E-4,8.751977E-3,4.056266E-3,-4.363254E-3,4.4274E-3,-3.8735208E-3,2.0849055E-2,5.8754534E-3,-5.091929E-3,-3.147858E-2,1.5391118E-2,-1.046708E-3,2.5698573E-3,-1.7824352E-3,-1.1696573E-2,-4.8723724E-3,-1.1083067E-3,8.844733E-4],"split_indices":[57,43,24,53,43,4,4,0,40,14,0,1,56,0,0,41,58,55,27,38,35,0,0,37,42,8,9,21,37,37,2,0,29,14,54,46,35,15,39,0,0,0,0,0,0,0,0,0,0,0,0,0,0,0,0,0,0,0,0,0,0,0,0,0,0,0,0,0,0],"split_type":[0,0,0,0,0,0,0,0,0,0,0,0,0,0,0,0,0,0,0,0,0,0,0,0,0,0,0,0,0,0,0,0,0,0,0,0,0,0,0,0,0,0,0,0,0,0,0,0,0,0,0,0,0,0,0,0,0,0,0,0,0,0,0,0,0,0,0,0,0],"sum_hessian":[6.57E2,6.22E2,3.5E1,1.24E2,4.98E2,3.1E1,4E0,2E0,1.22E2,3.01E2,1.97E2,3E0,2.8E1,3E0,1E0,5.2E1,7E1,1.93E2,1.08E2,4.8E1,1.49E2,2E0,1E0,2E1,8E0,4.5E1,7E0,3.1E1,3.9E1,7.4E1,1.19E2,1E0,1.07E2,2.8E1,2E1,7.1E1,7.8E1,8E0,1.2E1,4E0,4E0,1.5E1,3E1,5E0,2E0,1.2E1,1.9E1,5E0,3.4E1,4.6E1,2.8E1,3.8E1,8.1E1,5.4E1,5.3E1,1.3E1,1.5E1,3E0,1.7E1,6.9E1,2E0,5E0,7.3E1,5E0,3E0,3E0,9E0,2E0,2E0],"tree_param":{"num_deleted":"0","num_feature":"60","num_nodes":"69","size_leaf_vector":"0"}},{"base_weights":[-1.8187414E-4,-2.1117297E-3,5.283368E-3,-3.8975151E-3,1.1164121E-2,2.0718775E-3,1.8257301E-2,-3.432206E-3,-1.0175753E-1,2.6515026E-2,-3.0613444E-3,-9.572608E-3,6.082739E-3,2.9104337E-2,2.577434E-3,5.242687E-3,-6.626013E-3,5.709891E-2,1.1426526E-2,-1.6083132E-2,1.1900771E-2,2.2452641E-2,-1.427741E-2,-5.638853E-3,1.2371212E-2,1.4864218E-2,5.985391E-2,8.81702E-3,-8.251448E-3,2.0398442E-2,-2.4024043E-3,-1.9758394E-2,-2.2760057E-3,8.591104E-2,-3.940165E-4,1.9623747E-2,-6.600278E-3,8.976625E-3,-3.9355874E-2,-9.197921E-3,1.7941937E-2,4.7240257E-3,3.269704E-2,-1.9928455E-2,1.4773608E-4,9.586094E-3,-1.5322999E-2,5.849759E-3,3.0161373E-2,-1.1705185E-2,2.931944E-2,2.6061535E-2,7.0234716E-2,1.0175933E-2,-1.7066002E-3,-1.137495E-2,-1.3362964E-3,3.039419E-2,-7.80839E-3,-6.617483E-3,4.928146E-2,-6.0345232E-3,-4.404979E-2,-7.7859354E-3,9.274315E-3,7.398218E-3,-5.4575005E-3,2.4866156E-2,8.489509E-3,-1.5170932E-2,9.884238E-3,-4.6208976E-3,2.0778824E-2,-4.762425E-2,-6.9443784E-3,-1.3081312E-2,1.2261271E-3,-1.5601516E-4,2.157713E-2,-3.9168E-3,-2.6688755E-2,-9.875333E-3,8.4756715E-3,-2.2274172E-2,1.6201071E-2,-3.3338174E-2,-5.3577237E-3,1.0171463E-2,-1.5448355E-2,4.4992026E-2,-6.9985986E-3,-2.05563E-2,-2.1405518E-3,1.3531685E-2,3.4152523E-2],"categories":[],"categories_nodes":[],"categories_segments":[],"categories_sizes":[],"default_left":[1,1,1,1,1,1,1,1,0,1,1,1,1,1,1,1,1,1,1,1,1,1,1,1,1,1,1,1,1,1,1,1,1,0,1,1,1,1,1,1,1,0,0,1,1,1,1,1,1,1,1,0,0,0,0,0,0,0,0,0,0,0,0,0,0,0,0,0,0,0,0,0,0,0,0,0,0,0,0,0,0,0,0,0,0,0,0,0,0,0,0,0,0,0,0],"id":63,"left_children":[1,3,5,7,9,11,13,15,-1,17,19,21,23,25,27,29,31,33,35,37,39,41,43,45,47,49,51,53,55,57,59,61,63,-1,65,67,69,71,73,75,77,-1,-1,79,81,83,85,87,89,91,93,-1,-1,-1,-1,-1,-1,-1,-1,-1,-1,-1,-1,-1,-1,-1,-1,-1,-1,-1,-1,-1,-1,-1,-1,-1,-1,-1,-1,-1,-1,-1,-1,-1,-1,-1,-1,-1,-1,-1,-1,-1,-1,-1,-1],"loss_changes":[6.9511672E-3,1.1589222E-2,7.128666E-3,1.9230857E-2,1.274685E-2,6.5501425E-3,5.707709E-3,1.1920583E-2,0E0,1.2268577E-2,6.2312395E-3,5.7447734E-3,7.7356948E-3,7.867869E-3,1.0862694E-3,1.3489593E-2,1.789258E-2,1.4942298E-2,3.0849164E-3,1.0267841E-2,2.076939E-3,7.536337E-4,2.6114923E-3,5.6021903E-3,7.7127665E-3,6.104188E-3,2.7432851E-4,1.6037317E-4,1.1439668E-4,1.1233317E-2,1.7318541E-2,2.5737194E-2,1.5155236E-2,0E0,1.981992E-4,6.060819E-4,1.1389347E-3,1.5403428E-3,2.081193E-3,1.7796198E-4,7.9284096E-4,0E0,0E0,2.3850678E-3,9.184148E-4,3.5221893E-3,3.9504855E-3,4.851383E-3,1.0234801E-2,4.6394422E-4,3.008945E-4,0E0,0E0,0E0,0E0,0E0,8.2245606E-8,0E0,0E0,0E0,0E0,0E0,0E0,0E0,0E0,0E0,0E0,0E0,0E0,0E0,0E0,0E0,0E0,0E0,0E0,0E0,0E0,0E0,0E0,0E0,0E0,0E0,0E0,0E0,0E0,0E0,0E0,0E0,0E0,0E0,0E0,0E0,0E0,0E0,0E0],"parents":[2147483647,0,0,1,1,2,2,3,3,4,4,5,5,6,6,7,7,9,9,10,10,11,11,12,12,13,13,14,14,15,15,16,16,17,17,18,18,19,19,20,20,21,21,22,22,23,23,24,24,25,25,26,26,27,27,28,28,29,29,30,30,31,31,32,32,34,34,35,35,36,36,37,37,38,38,39,39,40,40,43,43,44,44,45,45,46,46,47,47,48,48,49,49,50,50],"right_children":[2,4,6,8,10,12,14,16,-1,18,20,22,24,26,28,30,32,34,36,38,40,42,44,46,48,50,52,54,56,58,60,62,64,-1,66,68,70,72,74,76,78,-1,-1,80,82,84,86,88,90,92,94,-1,-1,-1,-1,-1,-1,-1,-1,-1,-1,-1,-1,-1,-1,-1,-1,-1,-1,-1,-1,-1,-1,-1,-1,-1,-1,-1,-1,-1,-1,-1,-1,-1,-1,-1,-1,-1,-1,-1,-1,-1,-1,-1,-1],"split_conditions":[2.8829865E0,5.301792E0,3.9456358E0,5.2806177E0,5.9085524E-1,-3.0111961E0,1.2398185E-1,-2.139689E0,-3.0527258E-2,5.579983E-1,2.9257965E-1,-5.6968355E0,-1.3511586E0,-1.4404655E0,2.9894176E0,-1.4050169E0,-3.5035738E-1,1.4229447E0,3.2721295E0,-1.2173216E0,-2.5235038E0,-2.3921876E0,2.3636696E0,3.8022038E-1,2.81015E0,-2.9528084E0,-1.1445774E0,1.035509E1,3.1523914E0,3.9523983E0,7.7040157E0,1.4019408E0,1.909601E0,2.5773315E-2,-2.377315E0,4.0545664E0,2.0767598E0,-5.463826E-1,7.214511E0,-2.3129857E0,1.6199741E0,1.4172078E-3,9.809112E-3,-4.0443087E0,-2.725504E0,-3.6586497E0,-8.927014E-1,6.7622824E0,2.4181957E0,3.7446862E-1,-1.1771508E0,7.81846E-3,2.1070415E-2,3.0527802E-3,-5.119801E-4,-3.4124854E-3,-4.0088894E-4,9.118258E-3,-2.342517E-3,-1.9852452E-3,1.4784439E-2,-1.8103571E-3,-1.3214937E-2,-2.3357808E-3,2.7822945E-3,2.2194656E-3,-1.6372502E-3,7.4598473E-3,2.546853E-3,-4.55128E-3,2.9652717E-3,-1.3862693E-3,6.2336475E-3,-1.4287275E-2,-2.0833137E-3,-3.924394E-3,3.6783816E-4,-4.680455E-5,6.473139E-3,-1.17504E-3,-8.006627E-3,-2.9626E-3,2.5427015E-3,-6.682252E-3,4.8603215E-3,-1.0001453E-2,-1.6073171E-3,3.051439E-3,-4.6345065E-3,1.3497609E-2,-2.0995797E-3,-6.1668907E-3,-6.4216554E-4,4.0595056E-3,1.0245757E-2],"split_indices":[3,22,32,22,4,11,46,34,0,25,21,18,44,46,48,56,34,12,35,43,23,4,4,25,42,49,0,5,4,42,36,10,6,0,0,25,38,2,8,0,4,0,0,45,49,50,6,57,14,0,58,0,0,0,0,0,0,0,0,0,0,0,0,0,0,0,0,0,0,0,0,0,0,0,0,0,0,0,0,0,0,0,0,0,0,0,0,0,0,0,0,0,0,0,0],"split_type":[0,0,0,0,0,0,0,0,0,0,0,0,0,0,0,0,0,0,0,0,0,0,0,0,0,0,0,0,0,0,0,0,0,0,0,0,0,0,0,0,0,0,0,0,0,0,0,0,0,0,0,0,0,0,0,0,0,0,0,0,0,0,0,0,0,0,0,0,0,0,0,0,0,0,0,0,0,0,0,0,0,0,0,0,0,0,0,0,0,0,0,0,0,0,0],"sum_hessian":[6.57E2,4.86E2,1.71E2,4.29E2,5.7E1,1.38E2,3.3E1,4.28E2,1E0,2.7E1,3E1,3.5E1,1.03E2,1.9E1,1.4E1,1.15E2,3.13E2,8E0,1.9E1,1.6E1,1.4E1,4E0,3.1E1,3.6E1,6.7E1,1.4E1,5E0,9E0,5E0,3.8E1,7.7E1,7.7E1,2.36E2,5E0,3E0,1.3E1,6E0,8E0,8E0,3E0,1.1E1,2E0,2E0,2.2E1,9E0,1.4E1,2.2E1,5E1,1.7E1,5E0,9E0,2E0,3E0,8E0,1E0,3E0,2E0,2.8E1,1E1,7.2E1,5E0,5E1,2.7E1,1.6E2,7.6E1,1E0,2E0,8E0,5E0,4E0,2E0,4E0,4E0,6E0,2E0,2E0,1E0,2E0,9E0,7E0,1.5E1,4E0,5E0,2E0,1.2E1,7E0,1.5E1,4.2E1,8E0,1.2E1,5E0,2E0,3E0,3E0,6E0],"tree_param":{"num_deleted":"0","num_feature":"60","num_nodes":"95","size_leaf_vector":"0"}},{"base_weights":[-7.609378E-5,3.397278E-4,-2.0733373E-2,1.1293115E-3,-9.98374E-3,-4.241812E-2,-1.8781424E-3,-4.46034E-3,3.3807808E-3,1.3226735E-3,-3.8786378E-2,-5.096765E-2,-1.6879374E-2,8.514881E-3,-9.8169325E-3,-1.2415837E-2,8.949038E-3,6.674564E-3,-4.9623824E-3,1.3937952E-2,-1.2112484E-2,-8.383915E-2,-1.6886633E-2,9.830634E-3,2.2838116E-3,-1.1850655E-2,-8.4102154E-4,2.766178E-3,-1.96339E-2,4.6935566E-3,4.3538224E-2,1.3923409E-2,1.3727507E-3,-9.037232E-3,2.711769E-2,2.1975758E-2,-5.800287E-3,1.1873543E-3,-2.7223222E-2,-2.0013988E-2,-9.8442875E-2,-2.6888698E-3,-2.2587266E-2,1.7900134E-2,-4.6087676E-3,-4.2149078E-2,-9.2976885E-3,2.8867734E-4,3.2738578E-2,6.275495E-3,5.718822E-2,2.0728441E-2,-8.2828593E-4,-2.2487111E-2,4.346654E-3,-5.538214E-3,-8.0709174E-2,-4.2352616E-3,8.440006E-2,3.235793E-2,1.3766133E-2,3.0136108E-3,-1.5618722E-2,-5.972773E-3,9.542036E-3,-8.981712E-3,-3.6371786E-2,3.1938553E-3,-5.7143965E-3],"categories":[],"categories_nodes":[],"categories_segments":[],"categories_sizes":[],"default_left":[1,1,1,1,1,1,1,1,1,1,1,0,0,1,1,1,1,1,1,1,1,1,1,0,0,0,0,1,1,1,1,1,1,1,1,1,1,1,1,0,0,1,0,0,0,0,0,0,0,0,0,0,0,0,0,0,0,0,0,0,0,0,0,0,0,0,0,0,0],"id":64,"left_children":[1,3,5,7,9,11,13,15,17,19,21,-1,-1,23,25,27,29,31,33,35,37,39,41,-1,-1,-1,-1,43,45,47,49,51,53,55,57,59,61,63,65,-1,-1,67,-1,-1,-1,-1,-1,-1,-1,-1,-1,-1,-1,-1,-1,-1,-1,-1,-1,-1,-1,-1,-1,-1,-1,-1,-1,-1,-1],"loss_changes":[5.659094E-3,5.276977E-3,5.2356543E-3,7.5786216E-3,1.5031411E-2,4.497636E-4,7.4365427E-4,1.8566448E-2,1.1822286E-2,5.931424E-3,1.14106145E-2,0E0,0E0,1.034289E-5,8.1305916E-5,1.1999048E-2,9.363236E-3,1.1817951E-2,1.6193092E-2,2.9832043E-3,3.44882E-3,1.758106E-3,7.4862805E-4,0E0,0E0,0E0,0E0,4.100533E-3,1.6829515E-2,7.27911E-3,3.2015676E-3,1.3067318E-2,1.2799032E-2,2.688819E-2,2.5501054E-2,6.6259503E-4,5.663008E-4,6.5519824E-4,1.0083877E-3,0E0,0E0,8.944432E-5,0E0,0E0,0E0,0E0,0E0,0E0,0E0,0E0,0E0,0E0,0E0,0E0,0E0,0E0,0E0,0E0,0E0,0E0,0E0,0E0,0E0,0E0,0E0,0E0,0E0,0E0,0E0],"parents":[2147483647,0,0,1,1,2,2,3,3,4,4,5,5,6,6,7,7,8,8,9,9,10,10,13,13,14,14,15,15,16,16,17,17,18,18,19,19,20,20,21,21,22,22,27,27,28,28,29,29,30,30,31,31,32,32,33,33,34,34,35,35,36,36,37,37,38,38,41,41],"right_children":[2,4,6,8,10,12,14,16,18,20,22,-1,-1,24,26,28,30,32,34,36,38,40,42,-1,-1,-1,-1,44,46,48,50,52,54,56,58,60,62,64,66,-1,-1,68,-1,-1,-1,-1,-1,-1,-1,-1,-1,-1,-1,-1,-1,-1,-1,-1,-1,-1,-1,-1,-1,-1,-1,-1,-1,-1,-1],"split_conditions":[1.1609262E1,7.2556915E0,1.9949918E0,-1.5587759E0,2.54833E0,2.7045321E0,-2.834392E0,1.8859425E0,2.4140496E0,9.753978E-1,-2.6859286E-1,-1.5290295E-2,-5.0638122E-3,6.630391E-2,5.1335955E-1,-1.5193825E0,5.17706E0,-7.750609E-1,6.3909388E0,3.9418764E0,-1.1361582E0,-2.0512173E0,1.7805245E0,2.9491903E-3,6.851435E-4,-3.5551966E-3,-2.5230646E-4,-1.3988397E0,-1.0328889E0,5.673921E0,-1.6077199E0,2.2302263E0,-3.3022577E-1,5.879567E0,5.94002E-1,9.996255E-1,3.975138E0,4.7723703E0,-3.43373E0,-6.0041966E-3,-2.9532863E-2,-1.6119962E0,-6.77618E-3,5.3700404E-3,-1.3826303E-3,-1.2644724E-2,-2.7893067E-3,8.6603206E-5,9.821573E-3,1.8826486E-3,1.7156467E-2,6.2185326E-3,-2.484858E-4,-6.746134E-3,1.3039962E-3,-1.6614642E-3,-2.4212753E-2,-1.2705785E-3,2.5320018E-2,9.70738E-3,4.12984E-3,9.040833E-4,-4.6856166E-3,-1.7918319E-3,2.8626109E-3,-2.6945136E-3,-1.0911536E-2,9.581566E-4,-1.714319E-3],"split_indices":[17,40,11,14,45,3,5,9,32,41,9,0,0,3,1,59,40,23,16,53,38,1,9,0,0,0,0,6,22,21,2,54,23,16,30,10,12,49,33,0,0,0,0,0,0,0,0,0,0,0,0,0,0,0,0,0,0,0,0,0,0,0,0,0,0,0,0,0,0],"split_type":[0,0,0,0,0,0,0,0,0,0,0,0,0,0,0,0,0,0,0,0,0,0,0,0,0,0,0,0,0,0,0,0,0,0,0,0,0,0,0,0,0,0,0,0,0,0,0,0,0,0,0,0,0,0,0,0,0,0,0,0,0,0,0,0,0,0,0,0,0],"sum_hessian":[6.57E2,6.45E2,1.2E1,6E2,4.5E1,5E0,7E0,1.72E2,4.28E2,3.3E1,1.2E1,3E0,2E0,3E0,4E0,1.08E2,6.4E1,3.07E2,1.21E2,1.7E1,1.6E1,3E0,9E0,2E0,1E0,3E0,1E0,3.5E1,7.3E1,5.8E1,6E0,1.29E2,1.78E2,1.08E2,1.3E1,1.2E1,5E0,9E0,7E0,1E0,2E0,3E0,6E0,1.1E1,2.4E1,2.2E1,5.1E1,5.1E1,7E0,2E0,4E0,8.8E1,4.1E1,1.9E1,1.59E2,1.04E2,4E0,9E0,4E0,4E0,8E0,3E0,2E0,5E0,4E0,3E0,4E0,1E0,2E0],"tree_param":{"num_deleted":"0","num_feature":"60","num_nodes":"69","size_leaf_vector":"0"}},{"base_weights":[-1.2907517E-4,-4.5595365E-3,1.3992453E-3,-1.52803175E-2,4.7047797E-4,1.0615943E-2,-1.2343129E-3,2.5317801E-2,-1.9939672E-2,1.5980223E-2,-4.4142785E-3,1.655373E-2,-1.2305942E-2,7.570199E-3,-4.643184E-3,5.0702017E-2,-4.9808994E-5,-3.6009423E-2,-1.02773225E-2,-9.823482E-3,2.6792878E-2,-1.512886E-2,2.810522E-3,1.3843131E-2,8.783611E-2,-3.3172865E-3,-7.112455E-2,1.7170735E-2,-9.60947E-3,5.7070525E-3,-9.201137E-3,-8.467436E-3,5.5785454E-3,-6.488099E-2,-6.4240755E-3,-4.0892526E-3,-3.641075E-2,-2.276083E-2,4.3866536E-4,4.682118E-2,1.48649495E-2,1.4664015E-2,-2.28259E-2,4.8952457E-3,-5.3839922E-2,1.1351563E-3,2.5113882E-2,-3.192069E-2,1.025212E-2,2.663026E-2,1.46961E-3,7.06486E-3,-2.7533231E-2,-7.400823E-2,7.537094E-3,-1.2716203E-3,-1.8363705E-2,-8.380305E-2,-2.027765E-2,-1.4375695E-2,9.097278E-3,7.52819E-3,-1.0316206E-2,-4.1040756E-2,-6.630361E-3,-3.6942165E-3,3.4286603E-3,6.1433665E-2,2.0503402E-2,2.2332266E-2,4.207309E-3,1.9864507E-2,-6.2497455E-4,-4.8205603E-2,-1.4109212E-2,-3.9002157E-3,1.1263E-2,-2.7759194E-2,5.9193494E-3,4.3994132E-2,8.249918E-3,2.217114E-3,-3.797984E-2,-4.695356E-5,2.5708556E-2,3.5963267E-2,-3.7896985E-3,-2.028048E-2,4.0208367E-3,-5.9499475E-3,1.553166E-2,-6.1442375E-2,-2.6327E-3,-3.134055E-2,1.03944205E-2,7.3657143E-3,-1.2322296E-2,8.5413605E-3,-2.393286E-2],"categories":[],"categories_nodes":[],"categories_segments":[],"categories_sizes":[],"default_left":[1,1,1,1,1,1,1,1,1,1,1,1,1,1,1,0,1,1,1,1,1,1,1,1,0,1,0,1,1,1,1,0,0,1,1,1,1,0,1,1,1,1,1,1,0,1,1,1,1,1,1,1,1,0,1,1,1,0,0,0,0,0,0,0,0,0,0,0,0,0,0,0,0,0,0,0,0,0,0,0,0,0,0,0,0,0,0,0,0,0,0,0,0,0,0,0,0,0,0],"id":65,"left_children":[1,3,5,7,9,11,13,15,17,19,21,23,25,27,29,-1,31,33,35,37,39,41,43,45,-1,47,-1,49,51,53,55,-1,-1,57,59,61,63,-1,65,67,69,71,73,75,-1,77,79,81,83,85,87,89,91,-1,93,95,97,-1,-1,-1,-1,-1,-1,-1,-1,-1,-1,-1,-1,-1,-1,-1,-1,-1,-1,-1,-1,-1,-1,-1,-1,-1,-1,-1,-1,-1,-1,-1,-1,-1,-1,-1,-1,-1,-1,-1,-1,-1,-1],"loss_changes":[4.4618063E-3,9.12063E-3,1.1906732E-2,1.0719526E-2,8.858855E-3,1.5039182E-2,1.1500287E-2,3.866146E-3,7.238226E-3,8.075383E-3,6.932074E-3,1.559403E-2,1.1924165E-2,1.7812941E-2,1.3073057E-2,0E0,2.3674552E-4,1.4958354E-2,5.0260024E-3,1.2048691E-3,4.081929E-3,8.590129E-3,6.6409884E-3,1.2145909E-2,0E0,8.47801E-3,0E0,1.0209102E-2,1.185032E-2,1.2957801E-2,1.3926359E-2,0E0,0E0,5.8965534E-3,1.3649787E-3,2.030877E-3,5.5518467E-4,0E0,8.680999E-5,1.4323778E-3,1.0202171E-3,6.4849714E-4,5.7354374E-3,3.0123168E-3,0E0,5.831999E-3,1.3964867E-2,1.532129E-3,2.3890114E-3,1.2344407E-2,1.5797585E-3,2.4064817E-3,1.5880998E-2,0E0,9.656999E-3,1.0017395E-2,1.3540041E-2,0E0,0E0,0E0,0E0,0E0,0E0,0E0,0E0,0E0,0E0,0E0,0E0,0E0,0E0,0E0,0E0,0E0,0E0,0E0,0E0,0E0,0E0,0E0,0E0,0E0,0E0,0E0,0E0,0E0,0E0,0E0,0E0,0E0,0E0,0E0,0E0,0E0,0E0,0E0,0E0,0E0,0E0],"parents":[2147483647,0,0,1,1,2,2,3,3,4,4,5,5,6,6,7,7,8,8,9,9,10,10,11,11,12,12,13,13,14,14,16,16,17,17,18,18,19,19,20,20,21,21,22,22,23,23,25,25,27,27,28,28,29,29,30,30,33,33,34,34,35,35,36,36,38,38,39,39,40,40,41,41,42,42,43,43,45,45,46,46,47,47,48,48,49,49,50,50,51,51,52,52,54,54,55,55,56,56],"right_children":[2,4,6,8,10,12,14,16,18,20,22,24,26,28,30,-1,32,34,36,38,40,42,44,46,-1,48,-1,50,52,54,56,-1,-1,58,60,62,64,-1,66,68,70,72,74,76,-1,78,80,82,84,86,88,90,92,-1,94,96,98,-1,-1,-1,-1,-1,-1,-1,-1,-1,-1,-1,-1,-1,-1,-1,-1,-1,-1,-1,-1,-1,-1,-1,-1,-1,-1,-1,-1,-1,-1,-1,-1,-1,-1,-1,-1,-1,-1,-1,-1,-1,-1],"split_conditions":[-2.0743008E0,-1.4605179E0,-3.5035738E-1,-4.123212E0,-3.11115E0,3.3449357E0,-2.0714426E0,2.6022615E0,-7.285321E-1,-2.440409E0,-8.739732E-1,9.177311E0,4.855361E0,2.3679647E0,-1.5214894E0,1.5210605E-2,-2.5225587E0,2.9770207E0,5.051446E0,3.171991E0,-4.2382726E-1,-1.0128795E0,7.2822104E0,-4.990064E-1,2.6350833E-2,-9.733321E-1,-2.1337368E-2,1.938313E0,1.6280336E0,-2.8030443E-1,1.814445E-1,-2.5402308E-3,1.6735637E-3,2.1932836E0,3.3980618E0,-1.9910979E0,2.695105E0,-6.8282494E-3,1.1265633E0,1.706212E0,6.481234E-1,3.526782E0,-1.0436321E0,-9.4971555E-1,-1.6151978E-2,-3.7592883E0,2.0485209E-1,-8.005319E0,1.2298486E0,1.5992498E0,-8.221609E0,-3.9826035E-1,1.5865327E0,-2.220247E-2,-1.2705965E0,6.513157E-1,-3.1066704E0,-2.5140917E-2,-6.083295E-3,-4.3127085E-3,2.7291835E-3,2.258457E-3,-3.094862E-3,-1.2312227E-2,-1.9891085E-3,-1.108265E-3,1.0285982E-3,1.84301E-2,6.151021E-3,6.69968E-3,1.2621927E-3,5.9593525E-3,-1.8749238E-4,-1.4461681E-2,-4.232764E-3,-1.1700648E-3,3.3789E-3,-8.327759E-3,1.7758049E-3,1.3198241E-2,2.4749755E-3,6.651342E-4,-1.1393953E-2,-1.4086068E-5,7.712567E-3,1.0788981E-2,-1.1369096E-3,-6.0841446E-3,1.2062511E-3,-1.7849844E-3,4.659498E-3,-1.8432714E-2,-7.8981003E-4,-9.402165E-3,3.1183262E-3,2.2097144E-3,-3.6966891E-3,2.5624083E-3,-7.179858E-3],"split_indices":[24,13,24,8,57,15,32,4,22,32,36,53,54,12,11,0,0,16,4,13,40,2,41,30,0,38,0,23,52,24,45,0,0,8,4,21,2,0,1,8,48,3,23,33,0,4,52,1,14,25,13,7,59,0,32,44,38,0,0,0,0,0,0,0,0,0,0,0,0,0,0,0,0,0,0,0,0,0,0,0,0,0,0,0,0,0,0,0,0,0,0,0,0,0,0,0,0,0,0],"split_type":[0,0,0,0,0,0,0,0,0,0,0,0,0,0,0,0,0,0,0,0,0,0,0,0,0,0,0,0,0,0,0,0,0,0,0,0,0,0,0,0,0,0,0,0,0,0,0,0,0,0,0,0,0,0,0,0,0,0,0,0,0,0,0,0,0,0,0,0,0,0,0,0,0,0,0,0,0,0,0,0,0,0,0,0,0,0,0,0,0,0,0,0,0,0,0,0,0,0,0],"sum_hessian":[6.57E2,1.68E2,4.89E2,5.3E1,1.15E2,1.08E2,3.81E2,5E0,4.8E1,2.7E1,8.8E1,8.6E1,2.2E1,1.06E2,2.75E2,2E0,3E0,1.7E1,3.1E1,8E0,1.9E1,3.5E1,5.3E1,8.4E1,2E0,2E1,2E0,6.8E1,3.8E1,8.4E1,1.91E2,1E0,2E0,8E0,9E0,2.6E1,5E0,3E0,5E0,6E0,1.3E1,7E0,2.8E1,5.2E1,1E0,4E1,4.4E1,6E0,1.4E1,4.2E1,2.6E1,2E1,1.8E1,1E0,8.3E1,1.03E2,8.8E1,5E0,3E0,6E0,3E0,9E0,1.7E1,4E0,1E0,2E0,3E0,3E0,3E0,7E0,6E0,5E0,2E0,6E0,2.2E1,2.2E1,3E1,5E0,3.5E1,2E1,2.4E1,1E0,5E0,9E0,5E0,3.2E1,1E1,2E0,2.4E1,8E0,1.2E1,7E0,1.1E1,5E0,7.8E1,5.8E1,4.5E1,1.5E1,7.3E1],"tree_param":{"num_deleted":"0","num_feature":"60","num_nodes":"99","size_leaf_vector":"0"}},{"base_weights":[-1.965645E-4,1.6100511E-2,-5.7584955E-4,-4.9525276E-3,2.177648E-2,-9.959799E-4,1.4978131E-2,-6.1425865E-3,-6.9117546E-4,8.598313E-3,2.5213836E-2,2.4970365E-3,-2.8724286E-3,1.720015E-3,3.8998008E-2,4.79126E-3,-1.9471623E-2,-6.5623764E-3,1.8119382E-3,4.8581646E-3,-9.313822E-3,5.2700996E-2,7.72802E-3,3.1482617E-3,3.273476E-2,-3.2634102E-3,-5.9448253E-2,4.0704072E-3,-1.053425E-2,1.0625827E-2,-3.1001535E-3,9.04541E-3,5.59099E-4,6.808652E-3,-1.0748418E-2,6.0087778E-2,8.520497E-3,-1.13835605E-2,1.2167434E-2,-1.3705273E-2,-7.889342E-2,3.0135572E-2,-4.7027813E-3,-1.2359479E-2,3.295091E-2,-1.8417647E-2,1.3891565E-2,-1.5065741E-3,-3.8495015E-2,1.6672462E-3,-2.4908185E-3],"categories":[],"categories_nodes":[],"categories_segments":[],"categories_sizes":[],"default_left":[1,1,1,1,1,1,1,0,0,0,0,1,1,1,1,1,1,1,1,1,0,0,0,1,1,1,1,1,1,1,1,0,1,0,0,0,0,0,0,0,0,0,0,0,0,0,0,0,0,0,0],"id":66,"left_children":[1,3,5,7,9,11,13,-1,-1,-1,-1,15,17,19,21,23,25,27,29,31,-1,-1,-1,33,35,37,39,41,43,45,47,-1,49,-1,-1,-1,-1,-1,-1,-1,-1,-1,-1,-1,-1,-1,-1,-1,-1,-1,-1],"loss_changes":[4.076525E-3,1.9002948E-3,4.2232634E-3,1.6039434E-5,3.2678014E-4,4.1233776E-3,5.346714E-3,0E0,0E0,0E0,0E0,1.1181519E-2,7.0814835E-3,4.6075802E-4,2.1636793E-3,9.0791695E-3,1.3412939E-2,9.714025E-3,7.869271E-3,1.7495516E-4,0E0,0E0,0E0,9.737964E-3,6.773688E-3,2.143321E-3,4.2556245E-3,1.4548222E-2,1.3662109E-2,6.4209932E-3,6.5413336E-3,0E0,2.4431352E-5,0E0,0E0,0E0,0E0,0E0,0E0,0E0,0E0,0E0,0E0,0E0,0E0,0E0,0E0,0E0,0E0,0E0,0E0],"parents":[2147483647,0,0,1,1,2,2,3,3,4,4,5,5,6,6,11,11,12,12,13,13,14,14,15,15,16,16,17,17,18,18,19,19,23,23,24,24,25,25,26,26,27,27,28,28,29,29,30,30,32,32],"right_children":[2,4,6,8,10,12,14,-1,-1,-1,-1,16,18,20,22,24,26,28,30,32,-1,-1,-1,34,36,38,40,42,44,46,48,-1,50,-1,-1,-1,-1,-1,-1,-1,-1,-1,-1,-1,-1,-1,-1,-1,-1,-1,-1],"split_conditions":[-1.0621939E1,-4.1812754E0,1.0363089E1,9.202489E0,-1.0768812E0,-1.1609879E0,5.1335955E-1,-1.842776E-3,-2.0735264E-4,2.579494E-3,7.564151E-3,7.421321E0,9.8738706E-1,3.5626636E0,1.6282117E0,-1.3214622E0,1.7968861E0,-2.166221E0,-1.0809841E0,1.2732995E0,-2.7941465E-3,1.58103E-2,2.3184062E-3,3.365099E0,-3.8115993E-1,2.0734394E0,-4.2962325E-1,-2.8258162E0,8.470138E0,-3.3587844E0,9.346881E0,2.713623E-3,7.7131786E0,2.0425958E-3,-3.2245256E-3,1.8026333E-2,2.5561491E-3,-3.4150684E-3,3.6502304E-3,-4.111582E-3,-2.3668028E-2,9.040672E-3,-1.4108345E-3,-3.707844E-3,9.885274E-3,-5.525294E-3,4.1674697E-3,-4.5197224E-4,-1.1548505E-2,5.001739E-4,-7.4724556E-4],"split_indices":[16,32,37,0,4,29,21,0,0,0,0,55,3,53,9,29,39,58,9,0,0,0,0,27,8,22,0,30,49,56,32,0,0,0,0,0,0,0,0,0,0,0,0,0,0,0,0,0,0,0,0],"split_type":[0,0,0,0,0,0,0,0,0,0,0,0,0,0,0,0,0,0,0,0,0,0,0,0,0,0,0,0,0,0,0,0,0,0,0,0,0,0,0,0,0,0,0,0,0,0,0,0,0,0,0],"sum_hessian":[6.57E2,1.4E1,6.43E2,3E0,1.1E1,6.27E2,1.6E1,2E0,1E0,3E0,8E0,2.19E2,4.08E2,1.1E1,5E0,1.99E2,2E1,2.28E2,1.8E2,9E0,2E0,3E0,2E0,1.89E2,1E1,1.5E1,5E0,6.2E1,1.66E2,6.4E1,1.16E2,4E0,5E0,1.5E2,3.9E1,4E0,6E0,1E1,5E0,2E0,3E0,1.5E1,4.7E1,1.6E2,6E0,6E0,5.8E1,1.12E2,4E0,4E0,1E0],"tree_param":{"num_deleted":"0","num_feature":"60","num_nodes":"51","size_leaf_vector":"0"}},{"base_weights":[-1.0994499E-4,2.4998465E-3,-2.1607026E-3,-1.1410581E-2,5.3060907E-3,5.2809296E-3,-4.7235913E-3,-3.6159044E-3,-3.8008925E-2,-4.996827E-3,8.363081E-3,8.334687E-3,-2.1509474E-2,2.4719905E-2,-5.8127316E-3,-8.719375E-3,1.20561E-2,-3.2410144E-3,-5.7413302E-2,-1.7869099E-3,-6.110972E-2,1.8976782E-2,2.8175986E-3,-2.2414192E-3,1.4336518E-2,-6.368538E-2,-3.0048266E-3,1.0221064E-2,5.5143517E-2,-3.6583696E-2,-4.961926E-3,-2.2222642E-3,-2.1491373E-2,2.5555301E-2,-1.2025833E-3,-1.3067643E-2,7.665952E-3,-6.7666665E-2,-2.1186596E-2,4.1990727E-3,-1.2173034E-2,-8.214405E-2,-9.520531E-3,2.9820504E-2,3.012401E-3,8.732506E-3,-7.760406E-3,-1.1387776E-2,1.3951489E-2,-4.549915E-3,1.8634612E-2,3.5461187E-3,-7.6446175E-3,2.2217433E-3,1.2517214E-2,-1.1417436E-2,-6.63329E-2,-3.0959886E-2,-3.9063822E-3,7.435918E-3,-6.5812645E-3,-3.615588E-3,-2.863591E-2,-4.1184723E-3,3.08613E-3,-5.855344E-3,8.455053E-3,5.7850657E-3,-2.739194E-2,2.013503E-2,5.492633E-2,1.5017899E-2,-7.5931908E-3,-9.1382265E-3,1.6103823E-2,1.0178435E-2,-1.252785E-2,-1.4159493E-3,-1.6272549E-2,2.3879172E-2,3.448976E-3,4.63748E-3,-1.0462352E-2,2.6613686E-2,2.5091846E-3,4.3762526E-3,5.2785873E-4,-1.95539E-3,-8.578077E-3,-1.5096843E-2,1.650095E-3,-4.1476388E-2,-4.8160404E-3,-1.2909923E-2,-6.9057534E-4],"categories":[],"categories_nodes":[],"categories_segments":[],"categories_sizes":[],"default_left":[1,1,1,1,1,1,1,1,1,1,1,1,1,1,1,1,1,1,1,1,1,1,1,1,1,0,1,1,0,1,1,1,1,0,1,0,0,0,0,1,1,0,0,1,1,1,1,1,1,1,1,1,1,0,0,1,0,1,1,0,0,0,0,0,0,0,0,0,0,0,0,0,0,0,0,0,0,0,0,0,0,0,0,0,0,0,0,0,0,0,0,0,0,0,0],"id":67,"left_children":[1,3,5,7,9,11,13,15,17,19,21,23,25,27,29,31,33,35,37,39,41,43,45,47,49,-1,51,53,-1,55,57,59,61,-1,63,-1,-1,-1,-1,65,67,-1,-1,69,71,73,75,77,79,81,83,85,87,-1,-1,89,-1,91,93,-1,-1,-1,-1,-1,-1,-1,-1,-1,-1,-1,-1,-1,-1,-1,-1,-1,-1,-1,-1,-1,-1,-1,-1,-1,-1,-1,-1,-1,-1,-1,-1,-1,-1,-1,-1],"loss_changes":[3.5270506E-3,1.1381001E-2,7.0625404E-3,1.0021512E-2,7.6638022E-3,7.9513565E-3,8.962419E-3,3.224405E-3,7.235069E-3,9.977395E-3,1.0952994E-2,5.4910704E-3,7.6131383E-3,3.8474458E-3,6.7823846E-3,2.441673E-3,1.8205484E-3,6.3606945E-4,1.1664927E-3,3.408358E-3,2.4733776E-3,1.098942E-2,7.82619E-3,4.8982715E-3,4.5494474E-3,0E0,2.7026885E-4,1.1913112E-4,0E0,4.4833804E-3,7.013976E-3,9.3303825E-4,1.1736066E-3,0E0,8.774261E-5,0E0,0E0,0E0,0E0,1.5472062E-3,5.6245173E-3,0E0,0E0,8.134205E-3,3.55182E-3,1.0685626E-2,3.9760233E-3,9.998714E-4,1.1688289E-3,6.4603775E-4,5.7231896E-3,7.712195E-6,9.779818E-6,0E0,0E0,2.65315E-4,0E0,2.549666E-3,7.2584497E-3,0E0,0E0,0E0,0E0,0E0,0E0,0E0,0E0,0E0,0E0,0E0,0E0,0E0,0E0,0E0,0E0,0E0,0E0,0E0,0E0,0E0,0E0,0E0,0E0,0E0,0E0,0E0,0E0,0E0,0E0,0E0,0E0,0E0,0E0,0E0,0E0],"parents":[2147483647,0,0,1,1,2,2,3,3,4,4,5,5,6,6,7,7,8,8,9,9,10,10,11,11,12,12,13,13,14,14,15,15,16,16,17,17,18,18,19,19,20,20,21,21,22,22,23,23,24,24,26,26,27,27,29,29,30,30,31,31,32,32,34,34,39,39,40,40,43,43,44,44,45,45,46,46,47,47,48,48,49,49,50,50,51,51,52,52,55,55,57,57,58,58],"right_children":[2,4,6,8,10,12,14,16,18,20,22,24,26,28,30,32,34,36,38,40,42,44,46,48,50,-1,52,54,-1,56,58,60,62,-1,64,-1,-1,-1,-1,66,68,-1,-1,70,72,74,76,78,80,82,84,86,88,-1,-1,90,-1,92,94,-1,-1,-1,-1,-1,-1,-1,-1,-1,-1,-1,-1,-1,-1,-1,-1,-1,-1,-1,-1,-1,-1,-1,-1,-1,-1,-1,-1,-1,-1,-1,-1,-1,-1,-1,-1],"split_conditions":[-1.962773E-1,-3.7779903E0,-1.9728246E0,-4.4154277E0,-2.865931E0,5.9538245E0,-7.8176184E0,-1.2184618E0,-1.1197909E0,9.326395E0,-1.4534316E0,-1.4321872E0,-3.6424416E-1,1.1909215E0,1.0363847E-2,1.7217193E0,1.1643757E0,-1.6285206E0,7.555261E-1,1.3690572E0,-1.3415053E0,1.8980842E0,1.974284E0,2.8137465E0,-4.970669E0,-1.9105615E-2,-5.1409426E0,-2.3611891E0,1.6543055E-2,2.6868165E-2,-1.5659844E0,-1.2823818E0,-1.3497963E0,7.6665906E-3,2.3660474E0,-3.920293E-3,2.2997858E-3,-2.03E-2,-6.355979E-3,-2.4189267E0,-1.0064243E0,-2.4643216E-2,-2.8561593E-3,4.051573E0,1.7625235E0,-2.2701864E0,-4.107983E0,-9.9168307E-1,9.307136E-1,-2.965731E0,1.8325353E0,9.370434E-1,-3.514517E0,6.66523E-4,3.7551643E-3,6.404822E-1,-1.9899871E-2,4.4319832E-1,-2.1671689E0,2.2307755E-3,-1.9743794E-3,-1.0846765E-3,-8.590774E-3,-1.2355418E-3,9.25839E-4,-1.7566032E-3,2.536516E-3,1.7355197E-3,-8.2175825E-3,6.0405093E-3,1.64779E-2,4.50537E-3,-2.2779573E-3,-2.7414681E-3,4.831147E-3,3.0535306E-3,-3.7583553E-3,-4.247848E-4,-4.8817648E-3,7.163752E-3,1.0346929E-3,1.391244E-3,-3.1387059E-3,7.984106E-3,7.5275544E-4,1.3128759E-3,1.5835762E-4,-5.8661704E-4,-2.573423E-3,-4.5290533E-3,4.950285E-4,-1.2442917E-2,-1.4448122E-3,-3.8729769E-3,-2.071726E-4],"split_indices":[46,15,15,15,48,17,48,46,30,50,3,27,20,27,46,55,44,0,1,10,0,15,1,28,49,0,15,7,0,14,15,3,12,0,0,0,0,0,0,14,21,0,0,10,50,21,39,38,12,12,19,1,1,0,0,1,0,4,55,0,0,0,0,0,0,0,0,0,0,0,0,0,0,0,0,0,0,0,0,0,0,0,0,0,0,0,0,0,0,0,0,0,0,0,0],"split_type":[0,0,0,0,0,0,0,0,0,0,0,0,0,0,0,0,0,0,0,0,0,0,0,0,0,0,0,0,0,0,0,0,0,0,0,0,0,0,0,0,0,0,0,0,0,0,0,0,0,0,0,0,0,0,0,0,0,0,0,0,0,0,0,0,0,0,0,0,0,0,0,0,0,0,0,0,0,0,0,0,0,0,0,0,0,0,0,0,0,0,0,0,0,0,0],"sum_hessian":[6.57E2,2.89E2,3.68E2,4.8E1,2.41E2,9.4E1,2.74E2,3.8E1,1E1,5.5E1,1.86E2,8.5E1,9E0,9E0,2.65E2,2.9E1,9E0,4E0,6E0,5.3E1,2E0,6.3E1,1.23E2,3.1E1,5.4E1,2E0,7E0,7E0,2E0,6E0,2.59E2,2E1,9E0,4E0,5E0,2E0,2E0,4E0,2E0,3.4E1,1.9E1,1E0,1E0,3.7E1,2.6E1,7.9E1,4.4E1,2E1,1.1E1,1E1,4.4E1,3E0,4E0,2E0,5E0,4E0,2E0,9E0,2.5E2,6E0,1.4E1,3E0,6E0,3E0,2E0,1E1,2.4E1,9E0,1E1,2.8E1,9E0,1.2E1,1.4E1,2.3E1,5.6E1,9E0,3.5E1,7E0,1.3E1,5E0,6E0,4E0,6E0,2.9E1,1.5E1,2E0,1E0,1E0,3E0,3E0,1E0,6E0,3E0,6.5E1,1.85E2],"tree_param":{"num_deleted":"0","num_feature":"60","num_nodes":"95","size_leaf_vector":"0"}},{"base_weights":[-1.8223912E-4,-1.5193006E-3,3.0470507E-3,-3.1720377E-3,5.1435265E-3,4.890886E-3,-1.632977E-2,-5.187485E-3,7.461929E-3,-3.6775346E-3,1.3139531E-2,1.168918E-2,6.611092E-6,-4.4847704E-3,-3.7298143E-2,8.0343895E-4,-8.451191E-3,-1.470885E-3,2.4121484E-2,1.7275518E-3,-1.4602878E-2,9.936699E-3,5.893739E-2,1.6548587E-2,-1.0318889E-2,-2.6867265E-2,2.8353706E-3,-2.4768949E-2,-3.890314E-4,-4.764557E-3,-4.2851947E-2,5.785655E-3,-1.1832904E-2,-1.8943889E-2,-3.8428102E-3,4.414657E-3,-1.271651E-2,3.3985593E-3,4.2651545E-2,6.9550844E-3,-6.0455767E-3,-2.2316843E-2,-2.5987965E-3,2.3827094E-3,2.0015448E-2,1.7599106E-2,7.080698E-2,4.866786E-2,1.344078E-2,3.5825148E-3,-2.4732081E-2,3.471005E-3,-4.7671277E-2,1.25423875E-2,-2.780711E-3,3.1379163E-3,-5.2489517E-3,1.4420047E-2,-4.8720017E-3,-7.7099376E-3,-6.982243E-2,3.911822E-4,-3.4878395E-2,3.3855212E-3,-1.2092642E-2,-2.9370273E-3,1.5375019E-2,6.427461E-3,-2.1016845E-2,6.864003E-3,-2.1327734E-3,1.2840748E-2,5.22255E-2,1.0688772E-2,-9.7249233E-4,2.5871843E-3,-1.0169824E-2,-7.353246E-3,-2.8573101E-2,5.0331355E-4,-6.9027147E-3,-8.118279E-4,2.9274464E-2,6.1768116E-3,3.0776441E-2,5.814439E-2,5.380869E-3,-3.4767946E-3,1.7114239E-2,-2.5357455E-3,7.76062E-3,-6.1740554E-3,-3.0920481E-2,-3.4513075E-3,9.236316E-3,-5.4751538E-2,-6.134987E-3,2.4119904E-2,-2.7134065E-3,2.8622618E-3,-1.5405296E-2,4.2304993E-3,2.7097264E-4,-6.1765015E-3,-7.6937675E-4],"categories":[],"categories_nodes":[],"categories_segments":[],"categories_sizes":[],"default_left":[1,1,1,1,1,1,1,1,1,1,1,1,1,1,1,1,1,1,1,1,1,1,1,1,1,1,1,0,1,0,0,1,1,1,1,1,1,1,1,1,1,1,1,1,1,0,0,1,1,1,1,1,1,1,1,1,1,0,0,0,0,0,0,0,0,0,0,0,0,0,0,0,0,0,0,0,0,0,0,0,0,0,0,0,0,0,0,0,0,0,0,0,0,0,0,0,0,0,0,0,0,0,0,0,0],"id":68,"left_children":[1,3,5,7,9,11,13,15,17,19,21,23,25,27,29,31,33,35,37,39,41,43,45,47,49,51,53,-1,55,-1,-1,57,59,61,63,65,67,69,71,73,75,77,79,81,83,-1,-1,85,87,89,91,93,95,97,99,101,103,-1,-1,-1,-1,-1,-1,-1,-1,-1,-1,-1,-1,-1,-1,-1,-1,-1,-1,-1,-1,-1,-1,-1,-1,-1,-1,-1,-1,-1,-1,-1,-1,-1,-1,-1,-1,-1,-1,-1,-1,-1,-1,-1,-1,-1,-1,-1,-1],"loss_changes":[2.845715E-3,5.1478604E-3,6.975307E-3,8.054352E-3,6.6079125E-3,5.8771614E-3,4.0550227E-3,6.165864E-3,8.964483E-3,2.6825862E-3,6.601817E-3,8.084778E-3,7.982231E-3,9.873086E-4,8.799406E-4,7.1196444E-3,9.791491E-3,2.7036034E-3,7.918985E-3,1.3017103E-3,1.3309894E-3,3.5306434E-3,2.2586621E-4,5.4349154E-3,2.8936942E-3,6.4770454E-3,5.21384E-3,0E0,2.0501832E-4,0E0,0E0,7.524068E-3,7.1125175E-3,1.911552E-2,8.568389E-3,2.220739E-3,2.3597039E-3,2.2549309E-4,2.4688654E-3,5.7277764E-4,4.8915856E-4,6.3243974E-4,9.6932825E-5,2.4291538E-3,2.7882494E-3,0E0,0E0,1.7381851E-3,3.6018249E-3,2.2418083E-4,6.1300676E-4,2.3142382E-4,1.4286265E-3,6.2472946E-3,4.389746E-3,2.0780266E-5,1.6023085E-5,0E0,0E0,0E0,0E0,0E0,0E0,0E0,0E0,0E0,0E0,0E0,0E0,0E0,0E0,0E0,0E0,0E0,0E0,0E0,0E0,0E0,0E0,0E0,0E0,0E0,0E0,0E0,0E0,0E0,0E0,0E0,0E0,0E0,0E0,0E0,0E0,0E0,0E0,0E0,0E0,0E0,0E0,0E0,0E0,0E0,0E0,0E0,0E0],"parents":[2147483647,0,0,1,1,2,2,3,3,4,4,5,5,6,6,7,7,8,8,9,9,10,10,11,11,12,12,13,13,14,14,15,15,16,16,17,17,18,18,19,19,20,20,21,21,22,22,23,23,24,24,25,25,26,26,28,28,31,31,32,32,33,33,34,34,35,35,36,36,37,37,38,38,39,39,40,40,41,41,42,42,43,43,44,44,47,47,48,48,49,49,50,50,51,51,52,52,53,53,54,54,55,55,56,56],"right_children":[2,4,6,8,10,12,14,16,18,20,22,24,26,28,30,32,34,36,38,40,42,44,46,48,50,52,54,-1,56,-1,-1,58,60,62,64,66,68,70,72,74,76,78,80,82,84,-1,-1,86,88,90,92,94,96,98,100,102,104,-1,-1,-1,-1,-1,-1,-1,-1,-1,-1,-1,-1,-1,-1,-1,-1,-1,-1,-1,-1,-1,-1,-1,-1,-1,-1,-1,-1,-1,-1,-1,-1,-1,-1,-1,-1,-1,-1,-1,-1,-1,-1,-1,-1,-1,-1,-1,-1],"split_conditions":[2.4930735E0,3.763449E0,7.421321E0,4.341834E0,7.256671E-1,-4.8430985E-1,1.48033E0,-2.166221E0,2.8583083E0,1.1389996E0,6.4860573E0,4.9583387E0,2.2973546E-1,-9.0358E0,-8.7874633E-1,2.085634E0,-4.434254E-1,1.2459091E0,-7.279839E-1,1.4780681E0,3.0215633E-1,2.3314762E0,-5.050553E0,-5.981738E0,1.3653052E0,-8.904364E-1,3.9893022E0,-7.4306848E-3,9.489541E-1,-1.4293671E-3,-1.2855585E-2,1.3399947E0,9.123883E0,-9.010463E-1,-2.6859286E-1,6.003694E-1,-2.1770434E0,1.7416859E0,-2.4219646E0,2.5039783E-1,-2.6537848E-1,-1.3586887E0,-2.2990499E0,9.690453E0,-9.757645E-1,5.279732E-3,2.1242095E-2,5.940153E0,-3.148512E0,3.2721295E0,-1.7034874E0,-1.7857959E0,2.5392785E0,-2.633378E-3,1.8563455E0,2.3673101E-1,6.930906E0,4.3260143E-3,-1.4616005E-3,-2.3129813E-3,-2.094673E-2,1.1735466E-4,-1.0463519E-2,1.0156564E-3,-3.6277927E-3,-8.811082E-4,4.612506E-3,1.9282383E-3,-6.305054E-3,2.059201E-3,-6.3983205E-4,3.8522244E-3,1.566765E-2,3.2066319E-3,-2.917477E-4,7.761553E-4,-3.0509473E-3,-2.205974E-3,-8.571931E-3,1.5099408E-4,-2.0708146E-3,-2.4354838E-4,8.782339E-3,1.8530436E-3,9.232933E-3,1.7443318E-2,1.6142607E-3,-1.0430384E-3,5.134272E-3,-7.6072366E-4,2.328186E-3,-1.8522167E-3,-9.276145E-3,-1.0353923E-3,2.770895E-3,-1.6425462E-2,-1.8404961E-3,7.2359717E-3,-8.14022E-4,8.586786E-4,-4.621589E-3,1.2691498E-3,8.129179E-5,-1.8529505E-3,-2.3081304E-4],"split_indices":[56,58,47,11,5,3,58,58,16,50,50,38,3,9,0,51,58,59,46,20,53,41,0,32,16,17,56,0,36,0,0,15,50,34,59,29,36,52,34,57,30,33,12,5,55,0,0,0,58,15,6,0,0,37,48,1,1,0,0,0,0,0,0,0,0,0,0,0,0,0,0,0,0,0,0,0,0,0,0,0,0,0,0,0,0,0,0,0,0,0,0,0,0,0,0,0,0,0,0,0,0,0,0,0,0],"split_type":[0,0,0,0,0,0,0,0,0,0,0,0,0,0,0,0,0,0,0,0,0,0,0,0,0,0,0,0,0,0,0,0,0,0,0,0,0,0,0,0,0,0,0,0,0,0,0,0,0,0,0,0,0,0,0,0,0,0,0,0,0,0,0,0,0,0,0,0,0,0,0,0,0,0,0,0,0,0,0,0,0,0,0,0,0,0,0,0,0,0,0,0,0,0,0,0,0,0,0,0,0,0,0,0,0],"sum_hessian":[6.57E2,4.65E2,1.92E2,3.73E2,9.2E1,1.76E2,1.6E1,3.14E2,5.9E1,4.4E1,4.8E1,7.3E1,1.03E2,1.1E1,5E0,1.11E2,2.03E2,3.9E1,2E1,3E1,1.4E1,4.6E1,2E0,6E1,1.3E1,9E0,9.4E1,1E0,1E1,1E0,4E0,8E1,3.1E1,6.1E1,1.42E2,2.6E1,1.3E1,1E1,1E1,1.8E1,1.2E1,8E0,6E0,2.7E1,1.9E1,1E0,1E0,4E0,5.6E1,7E0,6E0,4E0,5E0,3.4E1,6E1,6E0,4E0,4.4E1,3.6E1,3E1,1E0,2.8E1,3.3E1,7.6E1,6.6E1,1.6E1,1E1,4E0,9E0,6E0,4E0,3E0,7E0,1.2E1,6E0,4E0,8E0,3E0,5E0,4E0,2E0,2.5E1,2E0,9E0,1E1,3E0,1E0,1E1,4.6E1,3E0,4E0,2E0,4E0,2E0,2E0,4E0,1E0,1.9E1,1.5E1,4.2E1,1.8E1,4E0,2E0,3E0,1E0],"tree_param":{"num_deleted":"0","num_feature":"60","num_nodes":"105","size_leaf_vector":"0"}},{"base_weights":[-1.3015258E-4,-7.431923E-4,5.992196E-3,3.294528E-3,-2.1601769E-3,-7.174487E-3,1.4969276E-2,7.5549437E-3,-5.6250514E-3,-3.1330402E-3,6.1240727E-3,-1.8493079E-3,-2.8105343E-2,2.2899332E-2,8.7209576E-4,5.937708E-3,4.7310024E-2,-1.2938308E-2,6.3574114E-3,-7.3152487E-3,-1.7065775E-4,1.10922195E-2,-2.3849938E-2,-2.1838546E-2,1.4042195E-3,-1.2812276E-2,-3.402996E-2,6.4569656E-3,3.5050616E-2,5.1451162E-3,-1.6510686E-2,2.4031162E-2,3.057196E-3,6.0403347E-2,4.0150285E-3,2.3429745E-3,-1.9990845E-2,-1.4247522E-3,1.2854159E-2,-4.151355E-3,-2.8812837E-2,2.9078577E-4,-5.38435E-2,2.7097506E-2,2.6934247E-3,-3.282532E-3,-3.1420395E-2,6.6023795E-3,-5.1051113E-3,1.481843E-2,1.4691129E-3,1.7157193E-2,5.306674E-2,1.0816836E-3,1.3001561E-2,1.135962E-2,4.4568013E-2,9.680782E-3,-6.261416E-3,-9.9821035E-3,1.08118905E-2,-3.2169253E-2,-9.08508E-3,-7.5557404E-3,6.2173842E-3,1.6779164E-2,6.7867935E-3,-1.3883392E-4,-1.629652E-2,-4.4246007E-2,8.3743585E-3,9.71793E-3,-1.8938727E-3,-3.352046E-3,3.961253E-2,-3.801017E-3,9.459368E-3,-9.044409E-4,-4.0193573E-3,7.3358417E-4,8.71148E-3,2.098759E-3,-7.463183E-3,3.7956834E-3,-1.8063784E-3,2.0765368E-2,-4.0500164E-3,3.8482845E-3,-9.4299763E-4],"categories":[],"categories_nodes":[],"categories_segments":[],"categories_sizes":[],"default_left":[1,1,1,1,1,1,1,1,1,1,1,1,1,1,1,1,1,1,1,1,1,1,1,0,1,0,0,1,1,1,0,1,1,0,0,1,1,1,1,1,1,1,0,1,1,1,0,1,1,0,1,1,0,1,0,0,0,0,0,0,0,0,0,0,0,0,0,0,0,0,0,0,0,0,0,0,0,0,0,0,0,0,0,0,0,0,0,0,0],"id":69,"left_children":[1,3,5,7,9,11,13,15,17,19,21,23,25,27,29,31,33,35,37,39,41,43,45,-1,47,-1,-1,49,51,53,-1,55,57,-1,-1,59,61,63,65,67,69,71,-1,73,75,77,-1,79,81,-1,83,85,-1,87,-1,-1,-1,-1,-1,-1,-1,-1,-1,-1,-1,-1,-1,-1,-1,-1,-1,-1,-1,-1,-1,-1,-1,-1,-1,-1,-1,-1,-1,-1,-1,-1,-1,-1,-1],"loss_changes":[2.4740873E-3,3.434228E-3,7.1992995E-3,5.970671E-3,3.597579E-3,2.7345386E-3,4.0045204E-3,6.53418E-3,4.5514265E-3,4.929694E-3,7.2635664E-3,1.3964123E-3,1.702644E-5,4.368984E-3,1.1248272E-3,5.294728E-3,2.0249793E-3,3.4955358E-3,1.0294891E-3,1.1103042E-2,5.811131E-3,5.438445E-3,9.867945E-4,0E0,6.7660015E-4,0E0,0E0,4.3699337E-4,3.2803342E-3,3.6902603E-4,0E0,3.1369943E-3,5.615652E-3,0E0,0E0,1.256106E-3,2.6296666E-3,5.1551545E-4,1.4808227E-4,7.0639844E-3,1.2422774E-2,4.8170607E-3,0E0,5.467859E-3,1.2663039E-3,1.6214435E-6,0E0,1.2976603E-4,1.6854859E-4,0E0,6.782173E-5,6.962549E-4,0E0,5.4042284E-5,0E0,0E0,0E0,0E0,0E0,0E0,0E0,0E0,0E0,0E0,0E0,0E0,0E0,0E0,0E0,0E0,0E0,0E0,0E0,0E0,0E0,0E0,0E0,0E0,0E0,0E0,0E0,0E0,0E0,0E0,0E0,0E0,0E0,0E0,0E0],"parents":[2147483647,0,0,1,1,2,2,3,3,4,4,5,5,6,6,7,7,8,8,9,9,10,10,11,11,12,12,13,13,14,14,15,15,16,16,17,17,18,18,19,19,20,20,21,21,22,22,24,24,27,27,28,28,29,29,31,31,32,32,35,35,36,36,37,37,38,38,39,39,40,40,41,41,43,43,44,44,45,45,47,47,48,48,50,50,51,51,53,53],"right_children":[2,4,6,8,10,12,14,16,18,20,22,24,26,28,30,32,34,36,38,40,42,44,46,-1,48,-1,-1,50,52,54,-1,56,58,-1,-1,60,62,64,66,68,70,72,-1,74,76,78,-1,80,82,-1,84,86,-1,88,-1,-1,-1,-1,-1,-1,-1,-1,-1,-1,-1,-1,-1,-1,-1,-1,-1,-1,-1,-1,-1,-1,-1,-1,-1,-1,-1,-1,-1,-1,-1,-1,-1,-1,-1],"split_conditions":[6.121045E0,-1.9259005E0,-1.0148348E0,1.9964089E0,5.7848797E0,3.1482399E0,3.788207E0,-2.0162396E0,1.3695776E0,-4.434254E-1,5.9696903E0,-5.2330685E0,-1.5633756E0,-4.83899E-1,5.979338E0,-3.8949876E0,4.268502E0,-7.480813E-1,1.4308419E0,-9.41973E-1,5.64731E0,-1.6207252E0,-3.699826E0,-6.551564E-3,2.4405775E0,-3.843683E-3,-1.0208989E-2,-5.966816E-1,9.3093276E-1,4.981309E0,-4.953206E-3,-7.387402E-1,1.1592135E0,1.8121004E-2,1.2045086E-3,-2.4126899E-1,2.2996037E0,1.8284566E0,1.2241487E-1,2.9073927E0,2.370606E0,-3.2382307E0,-1.615305E-2,-1.931757E0,2.4574714E0,4.5673304E0,-9.426119E-3,-2.3425446E0,-3.299283E0,4.445529E-3,-2.8687647E-1,4.71962E0,1.5920023E-2,1.3537614E0,3.9004686E-3,3.407886E-3,1.3370405E-2,2.904235E-3,-1.8784248E-3,-2.9946312E-3,3.2435672E-3,-9.650776E-3,-2.725524E-3,-2.2667223E-3,1.8652154E-3,5.033749E-3,2.036038E-3,-4.1650175E-5,-4.8889564E-3,-1.3273803E-2,2.5123076E-3,2.9153791E-3,-5.6816183E-4,-1.0056138E-3,1.188376E-2,-1.1403052E-3,2.8378104E-3,-2.7133228E-4,-1.2058072E-3,2.2007526E-4,2.6134439E-3,6.296277E-4,-2.2389549E-3,1.1387051E-3,-5.4191356E-4,6.2296106E-3,-1.215005E-3,1.1544854E-3,-2.828993E-4],"split_indices":[37,30,30,21,48,38,18,30,59,58,46,16,1,35,34,49,0,11,5,58,48,18,2,0,51,0,0,19,1,45,0,21,48,0,0,18,11,29,1,33,56,14,0,40,24,0,0,34,21,0,16,3,0,20,0,0,0,0,0,0,0,0,0,0,0,0,0,0,0,0,0,0,0,0,0,0,0,0,0,0,0,0,0,0,0,0,0,0,0],"split_type":[0,0,0,0,0,0,0,0,0,0,0,0,0,0,0,0,0,0,0,0,0,0,0,0,0,0,0,0,0,0,0,0,0,0,0,0,0,0,0,0,0,0,0,0,0,0,0,0,0,0,0,0,0,0,0,0,0,0,0,0,0,0,0,0,0,0,0,0,0,0,0,0,0,0,0,0,0,0,0,0,0,0,0,0,0,0,0,0,0],"sum_hessian":[6.57E2,5.98E2,5.9E1,1.55E2,4.43E2,2.4E1,3.5E1,1.05E2,5E1,3.97E2,4.6E1,2E1,4E0,2.2E1,1.3E1,1.02E2,3E0,3.1E1,1.9E1,1.64E2,2.33E2,4E1,6E0,2E0,1.8E1,2E0,2E0,1E1,1.2E1,1.1E1,2E0,1.3E1,8.9E1,2E0,1E0,1E1,2.1E1,9E0,1E1,1.44E2,2E1,2.32E2,1E0,1.3E1,2.7E1,2E0,4E0,1E1,8E0,3E0,7E0,7E0,5E0,8E0,3E0,9E0,4E0,5.2E1,3.7E1,4E0,6E0,9E0,1.2E1,5E0,4E0,5E0,5E0,1.09E2,3.5E1,1.4E1,6E0,4.3E1,1.89E2,4E0,9E0,1.4E1,1.3E1,1E0,1E0,3E0,7E0,2E0,6E0,4E0,3E0,6E0,1E0,3E0,5E0],"tree_param":{"num_deleted":"0","num_feature":"60","num_nodes":"89","size_leaf_vector":"0"}},{"base_weights":[-7.549059E-5,-9.1181975E-4,3.8813662E-3,-1.0009145E-4,-1.7080095E-2,7.201604E-3,-9.0316584E-4,-3.4920123E-4,4.286319E-2,9.320451E-3,-2.9331474E-2,1.1052627E-2,-1.9436678E-3,-7.975278E-3,1.6757404E-3,5.652838E-4,-7.887467E-3,3.193898E-3,2.0508924E-2,-4.621304E-2,-1.4387474E-2,1.5346009E-2,-1.6869399E-3,-8.582159E-3,4.87152E-3,-1.2912787E-2,2.5072931E-3,-7.142782E-3,3.328495E-3,6.0958206E-3,-1.1392183E-3,-4.018538E-2,-4.6302164E-3,4.3416023E-3,2.1642447E-4,-5.4799415E-2,-2.392681E-2,-2.154981E-3,-2.4222055E-2,2.0965664E-2,3.7908005E-3,-8.835375E-3,8.125464E-3,1.6293824E-3,-1.2615159E-2,1.1602831E-2,-6.3249044E-4,-1.5499885E-2,-2.5719602E-3,3.9681396E-3,2.1068256E-4,-9.570196E-3,-1.5253028E-3,5.181465E-3,-3.7647528E-3,4.3302504E-3,3.5683066E-2,-2.1019296E-3,1.2185642E-2,-1.6884595E-2,-6.669426E-2,4.37385E-3,-1.1922195E-2,1.953639E-3,-6.9148145E-3,2.6529836E-2,-1.4849503E-4,8.123219E-3,-1.0831611E-3,-1.1318875E-2,-3.5221577E-3,-4.6316782E-4,1.2535572E-2,3.43136E-3,-1.8882751E-3,-2.1697283E-3,-1.3797402E-2,-2.6641847E-3,2.9644966E-3,6.6483016E-3,-2.015543E-3,7.118702E-3,-6.7651123E-3],"categories":[],"categories_nodes":[],"categories_segments":[],"categories_sizes":[],"default_left":[1,1,1,1,1,1,1,1,0,1,1,1,1,1,1,1,1,1,0,1,1,1,1,1,1,1,1,1,1,1,1,1,1,0,0,0,0,1,0,1,1,1,1,1,1,0,1,0,0,0,0,0,0,1,1,0,0,0,0,0,0,0,0,0,0,0,0,0,0,0,0,0,0,0,0,0,0,0,0,0,0,0,0],"id":70,"left_children":[1,3,5,7,9,11,13,15,-1,17,19,21,23,25,27,29,31,33,-1,35,37,39,41,43,45,47,49,51,53,55,57,59,61,-1,-1,-1,-1,63,-1,65,67,69,71,73,75,-1,77,-1,-1,-1,-1,-1,-1,79,81,-1,-1,-1,-1,-1,-1,-1,-1,-1,-1,-1,-1,-1,-1,-1,-1,-1,-1,-1,-1,-1,-1,-1,-1,-1,-1,-1,-1],"loss_changes":[2.1810157E-3,7.1378807E-3,1.8333694E-3,5.5696033E-3,8.682903E-3,2.4163509E-3,8.8880357E-4,3.5684663E-3,0E0,5.514176E-4,3.876117E-3,2.6512877E-3,9.91902E-4,7.052274E-4,5.484695E-4,4.362132E-3,5.7052667E-3,2.2981185E-5,0E0,2.1968782E-4,1.271118E-3,2.258229E-3,9.83655E-4,4.735695E-4,4.1487993E-4,2.0090956E-4,1.593896E-5,6.7218236E-5,4.269577E-4,5.539464E-3,4.5667225E-3,1.9622827E-3,3.466334E-3,0E0,6.4459044E-8,0E0,0E0,1.3084714E-4,0E0,2.823527E-3,2.8330728E-4,6.569608E-5,2.3306688E-4,3.183431E-5,6.8855705E-5,0E0,5.9053807E-5,0E0,2.5959707E-7,0E0,3.405495E-7,0E0,3.7673863E-7,2.7732085E-4,2.7673872E-4,0E0,0E0,0E0,0E0,0E0,0E0,0E0,0E0,0E0,0E0,0E0,0E0,0E0,0E0,0E0,0E0,0E0,0E0,0E0,0E0,0E0,0E0,0E0,0E0,0E0,0E0,0E0,0E0],"parents":[2147483647,0,0,1,1,2,2,3,3,4,4,5,5,6,6,7,7,9,9,10,10,11,11,12,12,13,13,14,14,15,15,16,16,17,17,19,19,20,20,21,21,22,22,23,23,24,24,25,25,26,26,27,27,28,28,29,29,30,30,31,31,32,32,37,37,39,39,40,40,41,41,42,42,43,43,44,44,46,46,53,53,54,54],"right_children":[2,4,6,8,10,12,14,16,-1,18,20,22,24,26,28,30,32,34,-1,36,38,40,42,44,46,48,50,52,54,56,58,60,62,-1,-1,-1,-1,64,-1,66,68,70,72,74,76,-1,78,-1,-1,-1,-1,-1,-1,80,82,-1,-1,-1,-1,-1,-1,-1,-1,-1,-1,-1,-1,-1,-1,-1,-1,-1,-1,-1,-1,-1,-1,-1,-1,-1,-1,-1,-1],"split_conditions":[4.106856E0,3.5033526E0,9.8149294E-1,3.481854E0,-1.3411589E0,3.3956976E0,-1.262902E0,5.7904043E0,1.2858958E-2,2.6004543E0,1.6631778E0,2.949769E0,1.3530921E0,3.3416057E0,-4.6673355E0,-2.0744944E0,6.0148306E0,4.4226985E0,6.152678E-3,-1.1134346E0,2.664311E-1,1.1715028E0,3.5386624E0,-4.2911026E-1,-7.203775E-1,4.119658E0,6.954792E-1,4.6063576E0,4.9626684E0,-2.1409268E0,4.24523E0,-3.0581024E0,-3.795108E-1,1.3024807E-3,6.492734E-5,-1.6439825E-2,-7.178043E-3,1.2193325E-1,-7.266617E-3,4.3581314E0,1.9350141E-1,3.138105E-1,-1.1469043E0,2.2714007E0,-3.1567895E0,3.4808496E-3,6.6763105E0,-4.6499656E-3,-7.715881E-4,1.1904419E-3,6.320477E-5,-2.8710589E-3,-4.5759085E-4,5.0611267E0,-2.9367533E0,1.2990752E-3,1.070492E-2,-6.305789E-4,3.6556926E-3,-5.0653787E-3,-2.0008279E-2,1.312155E-3,-3.5766584E-3,5.860918E-4,-2.0744444E-3,7.958951E-3,-4.4548513E-5,2.4369657E-3,-3.2494834E-4,-3.3956624E-3,-1.0566474E-3,-1.3895034E-4,3.7606717E-3,1.0294081E-3,-5.6648254E-4,-6.509185E-4,-4.139221E-3,-7.9925545E-4,8.8934903E-4,1.9944906E-3,-6.046629E-4,2.1356107E-3,-2.0295337E-3],"split_indices":[39,39,44,39,57,51,1,6,0,7,9,13,26,47,46,32,6,10,0,5,59,1,5,29,7,6,6,11,21,32,6,3,24,0,0,0,0,11,0,3,20,1,1,1,0,0,3,0,0,0,0,0,0,57,0,0,0,0,0,0,0,0,0,0,0,0,0,0,0,0,0,0,0,0,0,0,0,0,0,0,0,0,0],"split_type":[0,0,0,0,0,0,0,0,0,0,0,0,0,0,0,0,0,0,0,0,0,0,0,0,0,0,0,0,0,0,0,0,0,0,0,0,0,0,0,0,0,0,0,0,0,0,0,0,0,0,0,0,0,0,0,0,0,0,0,0,0,0,0,0,0,0,0,0,0,0,0,0,0,0,0,0,0,0,0,0,0,0,0],"sum_hessian":[6.57E2,5.43E2,1.14E2,5.18E2,2.5E1,6.7E1,4.7E1,5.16E2,2E0,8E0,1.7E1,4.7E1,2E1,1.2E1,3.5E1,4.61E2,5.5E1,6E0,2E0,7E0,1E1,3.5E1,1.2E1,1E1,1E1,8E0,4E0,5E0,3E1,1.08E2,3.53E2,4E0,5.1E1,4E0,2E0,4E0,3E0,5E0,5E0,2.3E1,1.2E1,7E0,5E0,3E0,7E0,4E0,6E0,6E0,2E0,2E0,2E0,3E0,2E0,2.4E1,6E0,1.03E2,5E0,3.3E2,2.3E1,3E0,1E0,2.3E1,2.8E1,3E0,2E0,1.8E1,5E0,6E0,6E0,4E0,3E0,2E0,3E0,2E0,1E0,1E0,6E0,4E0,2E0,2E1,4E0,1E0,5E0],"tree_param":{"num_deleted":"0","num_feature":"60","num_nodes":"83","size_leaf_vector":"0"}},{"base_weights":[-8.6100124E-5,-5.860559E-3,3.271719E-4,3.9655417E-3,-1.3487018E-2,4.3261596E-3,-6.4098474E-4,1.1499248E-2,-4.718089E-3,1.1113962E-3,-2.704797E-2,1.0751747E-2,-5.2038087E-3,-1.9556098E-3,4.2142924E-3,1.5834488E-2,-4.6044588E-5,-1.1418079E-3,-9.797059E-3,-3.888185E-3,9.888363E-3,-4.2318117E-2,-1.2214363E-2,1.4944264E-2,-7.6846993E-3,-3.367567E-2,-2.6148683E-3,-1.366614E-3,-2.998295E-2,1.9602945E-2,8.438526E-4,8.53001E-3,2.1006465E-2,-4.3509007E-3,2.8392076E-3,-3.5578113E-3,5.361557E-4,-7.553986E-3,5.55253E-4,-5.289388E-3,-1.781699E-2,-2.9582297E-3,2.111462E-2,-2.4799883E-2,-7.623868E-4,6.849931E-3,-7.4155754E-3,4.2708605E-3,-3.1068982E-3,-5.374782E-2,7.218873E-3,5.190943E-3,4.996379E-2,2.8476525E-2,-8.109952E-4,-4.1288137E-4,2.2138953E-3,-6.19784E-3,-8.277893E-4,-1.3272036E-2,6.53829E-3,1.1313927E-2,3.3414796E-2,-4.879251E-3,7.6619387E-3,3.5828599E-3,1.575543E-2,-2.4616241E-2,-3.1609763E-3,-1.9261034E-3,1.4716538E-2,-6.5608304E-3,2.483567E-3,1.8281241E-4,1.4163528E-2,-7.847264E-3,9.460205E-3,5.7071876E-2,7.211685E-3,4.4455927E-2,3.0049484E-3,3.2621666E-3,-8.251425E-3],"categories":[],"categories_nodes":[],"categories_segments":[],"categories_sizes":[],"default_left":[1,1,1,1,1,1,1,1,1,1,1,1,1,1,1,1,1,1,0,1,0,0,1,1,1,0,1,1,1,1,1,0,0,0,0,0,0,0,1,1,0,1,1,0,1,1,1,1,1,0,1,1,1,1,1,0,0,0,0,0,0,0,0,0,0,0,0,0,0,0,0,0,0,0,0,0,0,0,0,0,0,0,0],"id":71,"left_children":[1,3,5,7,9,11,13,15,17,19,21,23,25,27,29,31,33,35,-1,37,-1,-1,39,41,43,-1,45,47,49,51,53,-1,-1,-1,-1,-1,-1,-1,55,57,-1,59,61,-1,63,65,67,69,71,-1,73,75,77,79,81,-1,-1,-1,-1,-1,-1,-1,-1,-1,-1,-1,-1,-1,-1,-1,-1,-1,-1,-1,-1,-1,-1,-1,-1,-1,-1,-1,-1],"loss_changes":[1.5721834E-3,3.3507708E-3,2.3838356E-3,1.362653E-3,4.979271E-3,7.4042277E-3,3.1741443E-3,5.5129675E-4,1.7045191E-4,6.089028E-4,2.4277586E-3,5.680089E-3,3.5238282E-3,6.4136465E-3,5.4813097E-3,1.2304354E-4,6.203549E-5,3.0285297E-5,0E0,1.507932E-4,0E0,0E0,2.1614344E-4,6.5798825E-3,1.6397659E-3,0E0,2.1409316E-3,3.7806192E-3,7.460771E-3,8.054292E-3,4.0471465E-3,0E0,0E0,0E0,0E0,0E0,9.36403E-7,9.80508E-7,8.94302E-6,1.5135243E-5,0E0,1.6539007E-3,4.926158E-3,0E0,4.188844E-4,4.0906895E-4,2.1908288E-3,5.9189107E-3,5.6931665E-3,0E0,1.9286278E-4,8.535262E-4,1.4117295E-3,1.9015148E-3,2.5726277E-3,0E0,0E0,0E0,0E0,0E0,0E0,0E0,0E0,0E0,0E0,0E0,0E0,0E0,0E0,0E0,0E0,0E0,0E0,0E0,0E0,0E0,0E0,0E0,0E0,0E0,0E0,0E0,0E0],"parents":[2147483647,0,0,1,1,2,2,3,3,4,4,5,5,6,6,7,7,8,8,9,9,10,10,11,11,12,12,13,13,14,14,15,15,16,16,17,17,19,19,22,22,23,23,24,24,26,26,27,27,28,28,29,29,30,30,38,38,39,39,41,41,42,42,44,44,45,45,46,46,47,47,48,48,50,50,51,51,52,52,53,53,54,54],"right_children":[2,4,6,8,10,12,14,16,18,20,22,24,26,28,30,32,34,36,-1,38,-1,-1,40,42,44,-1,46,48,50,52,54,-1,-1,-1,-1,-1,-1,-1,56,58,-1,60,62,-1,64,66,68,70,72,-1,74,76,78,80,82,-1,-1,-1,-1,-1,-1,-1,-1,-1,-1,-1,-1,-1,-1,-1,-1,-1,-1,-1,-1,-1,-1,-1,-1,-1,-1,-1,-1],"split_conditions":[-6.4828687E0,-5.6181985E-1,-2.1449602E0,2.2640078E0,1.2752122E-1,1.8112128E0,3.5212536E0,4.9137545E0,3.15949E0,5.3615046E-1,3.0000234E-1,2.2490182E0,-5.508831E0,3.3628278E0,4.1000757E0,-2.740317E-1,2.2274315E-2,1.191135E0,-2.9391178E-3,1.9748733E0,2.966509E-3,-1.2695435E-2,-4.0324736E-1,-2.2361798E0,-3.35325E0,-1.0102701E-2,-1.0335064E0,-2.0880666E0,4.8889166E-1,3.949109E0,-1.5098495E0,2.559003E-3,6.30194E-3,-1.3052702E-3,8.517623E-4,-1.0673434E-3,1.6084671E-4,-2.2661958E-3,5.638914E0,3.20817E0,-5.3450973E-3,-4.9438095E-1,1.4331806E0,-7.4399654E-3,-3.2975163E0,4.638296E0,8.41635E-2,1.8724076E0,1.295697E0,-1.6124347E-2,-4.9077547E-1,-1.4620342E0,2.7806578E0,1.5782976E0,1.9251544E0,-1.2386442E-4,6.641686E-4,-1.8593521E-3,-2.4833682E-4,-3.9816108E-3,1.961487E-3,3.3941783E-3,1.002444E-2,-1.4637754E-3,2.2985816E-3,1.074858E-3,4.7266292E-3,-7.3848725E-3,-9.4829296E-4,-5.7783106E-4,4.4149617E-3,-1.9682492E-3,7.450701E-4,5.4843724E-5,4.2490587E-3,-2.3541795E-3,2.8380617E-3,1.7121563E-2,2.1635056E-3,1.3336779E-2,9.014846E-4,9.786501E-4,-2.4754275E-3],"split_indices":[8,54,8,0,57,19,37,42,5,10,4,52,22,37,37,0,0,14,0,0,0,0,31,4,56,0,56,53,19,37,8,0,0,0,0,0,0,0,0,0,0,48,36,0,8,36,56,42,45,0,1,49,1,0,49,0,0,0,0,0,0,0,0,0,0,0,0,0,0,0,0,0,0,0,0,0,0,0,0,0,0,0,0],"split_type":[0,0,0,0,0,0,0,0,0,0,0,0,0,0,0,0,0,0,0,0,0,0,0,0,0,0,0,0,0,0,0,0,0,0,0,0,0,0,0,0,0,0,0,0,0,0,0,0,0,0,0,0,0,0,0,0,0,0,0,0,0,0,0,0,0,0,0,0,0,0,0,0,0,0,0,0,0,0,0,0,0,0,0],"sum_hessian":[6.57E2,4.3E1,6.14E2,1.9E1,2.4E1,1.19E2,4.95E2,1E1,9E0,1.2E1,1.2E1,7.1E1,4.8E1,3.9E2,1.05E2,7E0,3E0,6E0,3E0,8E0,4E0,5E0,7E0,5.8E1,1.3E1,3E0,4.5E1,3.83E2,7E0,1.8E1,8.7E1,4E0,3E0,1E0,2E0,2E0,4E0,4E0,4E0,4E0,3E0,1.5E1,4.3E1,3E0,1E1,1.5E1,3E1,9E1,2.93E2,4E0,3E0,1.3E1,5E0,4E0,8.3E1,3E0,1E0,3E0,1E0,7E0,8E0,2.5E1,1.8E1,7E0,3E0,1.2E1,3E0,5E0,2.5E1,5.7E1,3.3E1,1.81E2,1.12E2,2E0,1E0,3E0,1E1,4E0,1E0,2E0,2E0,5.4E1,2.9E1],"tree_param":{"num_deleted":"0","num_feature":"60","num_nodes":"83","size_leaf_vector":"0"}},{"base_weights":[-5.8557598E-5,-1.5497409E-3,1.4192874E-3,6.111548E-3,-3.1837076E-3,3.8983172E-3,-4.2646253E-3,-2.1287182E-3,1.0845988E-2,-6.1274273E-3,3.007521E-3,-2.726226E-3,6.9152564E-3,3.202223E-3,-9.855603E-3,-1.5042573E-2,2.5543317E-3,1.4742005E-2,2.9703975E-4,-8.133356E-3,5.3389403E-3,4.2380625E-3,-3.327052E-2,-9.580988E-3,3.1684772E-3,1.015168E-2,-4.030561E-3,6.6229906E-3,-1.5825119E-2,-1.7650258E-2,-8.7382057E-4,2.129376E-3,-1.8902838E-2,6.6436217E-3,-6.0499706E-3,4.182068E-3,2.1740582E-2,5.1951804E-3,-4.6506077E-3,-1.1197834E-2,1.1101889E-3,-1.10341115E-2,9.378043E-3,5.3596473E-3,-2.0094335E-2,-2.312686E-3,-2.1144193E-2,1.5096077E-4,2.4260899E-2,-1.708287E-2,1.194241E-2,-9.809219E-3,7.3922873E-3,1.7094705E-2,4.9391034E-4,-2.7298927E-2,-5.7758093E-3,-3.1622704E-2,-5.802231E-3,-5.697707E-3,9.943019E-3,9.999607E-3,-5.467832E-5,-7.853508E-4,-6.9458247E-3,-3.542761E-3,1.02059115E-2,2.73565E-2,1.0612045E-2,1.8429756E-3,-6.3179196E-3,-4.339003E-3,-1.653602E-2,7.3900525E-3,-3.8527562E-3,-2.1832585E-3,-1.915721E-2,1.4649628E-2,-4.499356E-4,-1.9590845E-3,9.539289E-3,-2.7698359E-2,1.3588667E-3,-5.8303773E-3,6.058135E-3,-2.6229393E-2,4.5496025E-3,4.7032386E-3,-1.0622692E-2,-2.29944E-2,4.3447813E-4,1.9616012E-2,6.037596E-3,-1.4416649E-2,1.1503828E-2,1.96747E-3,1.56785E-2,2.0015031E-2,-2.8483072E-4,3.8073524E-3,-1.7853498E-2,-7.2686374E-3,9.775162E-5,-5.767119E-2,-1.5436189E-2,-1.1093119E-2,7.2122616E-4,-1.7704567E-2,-5.1511626E-4,1.3895729E-2,-2.594312E-3],"categories":[],"categories_nodes":[],"categories_segments":[],"categories_sizes":[],"default_left":[1,1,1,1,1,1,1,1,1,1,1,1,1,1,1,1,1,1,1,1,1,1,0,1,1,1,1,1,1,1,1,0,0,1,1,1,1,0,1,1,1,1,1,1,1,1,1,1,0,1,1,1,1,1,1,0,1,1,1,1,1,0,0,0,0,0,0,0,0,0,0,0,0,0,0,0,0,0,0,0,0,0,0,0,0,0,0,0,0,0,0,0,0,0,0,0,0,0,0,0,0,0,0,0,0,0,0,0,0,0,0],"id":72,"left_children":[1,3,5,7,9,11,13,15,17,19,21,23,25,27,29,31,33,35,37,39,41,43,-1,45,47,49,51,53,55,57,59,-1,-1,61,63,65,67,-1,69,71,73,75,77,79,81,83,85,87,-1,89,91,93,95,97,99,-1,101,103,105,107,109,-1,-1,-1,-1,-1,-1,-1,-1,-1,-1,-1,-1,-1,-1,-1,-1,-1,-1,-1,-1,-1,-1,-1,-1,-1,-1,-1,-1,-1,-1,-1,-1,-1,-1,-1,-1,-1,-1,-1,-1,-1,-1,-1,-1,-1,-1,-1,-1,-1,-1],"loss_changes":[1.452259E-3,4.125457E-3,4.6806103E-3,2.2858446E-3,4.9574682E-3,4.6355827E-3,4.248005E-3,1.3689008E-3,1.5162793E-3,4.2755567E-3,4.0694675E-3,2.9800525E-3,5.673538E-3,2.9686864E-3,4.0451507E-3,4.3798098E-4,6.3834706E-4,1.904502E-3,2.9073778E-4,4.4597145E-3,1.9551867E-3,2.4547111E-3,0E0,2.8086256E-3,2.542207E-3,6.2026894E-3,2.514836E-3,2.4304723E-3,6.494536E-4,4.94844E-3,1.5176701E-3,0E0,0E0,2.702995E-4,2.2843073E-5,5.9455505E-4,7.0964266E-4,0E0,7.6604745E-5,4.2486694E-3,1.2751368E-3,3.8955302E-4,1.1981986E-3,2.5576316E-3,6.901608E-4,6.8313244E-4,1.8178886E-3,1.815569E-3,0E0,8.38425E-4,5.137665E-3,2.6208058E-3,5.535186E-4,7.162555E-4,1.5878015E-3,0E0,4.4551605E-5,5.0126547E-3,6.2926864E-4,1.2354129E-3,4.820577E-4,0E0,0E0,0E0,0E0,0E0,0E0,0E0,0E0,0E0,0E0,0E0,0E0,0E0,0E0,0E0,0E0,0E0,0E0,0E0,0E0,0E0,0E0,0E0,0E0,0E0,0E0,0E0,0E0,0E0,0E0,0E0,0E0,0E0,0E0,0E0,0E0,0E0,0E0,0E0,0E0,0E0,0E0,0E0,0E0,0E0,0E0,0E0,0E0,0E0,0E0],"parents":[2147483647,0,0,1,1,2,2,3,3,4,4,5,5,6,6,7,7,8,8,9,9,10,10,11,11,12,12,13,13,14,14,15,15,16,16,17,17,18,18,19,19,20,20,21,21,23,23,24,24,25,25,26,26,27,27,28,28,29,29,30,30,33,33,34,34,35,35,36,36,38,38,39,39,40,40,41,41,42,42,43,43,44,44,45,45,46,46,47,47,49,49,50,50,51,51,52,52,53,53,54,54,56,56,57,57,58,58,59,59,60,60],"right_children":[2,4,6,8,10,12,14,16,18,20,22,24,26,28,30,32,34,36,38,40,42,44,-1,46,48,50,52,54,56,58,60,-1,-1,62,64,66,68,-1,70,72,74,76,78,80,82,84,86,88,-1,90,92,94,96,98,100,-1,102,104,106,108,110,-1,-1,-1,-1,-1,-1,-1,-1,-1,-1,-1,-1,-1,-1,-1,-1,-1,-1,-1,-1,-1,-1,-1,-1,-1,-1,-1,-1,-1,-1,-1,-1,-1,-1,-1,-1,-1,-1,-1,-1,-1,-1,-1,-1,-1,-1,-1,-1,-1,-1],"split_conditions":[2.2994229E-1,-3.726216E0,2.768814E0,-1.6941475E0,1.7019964E0,-9.1908133E-1,-6.1237293E-1,-3.0571554E0,3.3396935E0,5.713765E0,9.352903E0,8.129555E-2,2.9067817E0,5.831313E0,8.6120576E-1,-8.062798E0,5.28061E0,-1.1473091E0,-1.8107272E0,3.2593997E0,-4.186302E0,8.975334E0,-9.981156E-3,-2.3679051E0,5.59877E0,-7.0208206E0,3.6751144E0,-1.5502544E-1,-1.7688998E0,1.6523385E-1,4.731215E0,6.388128E-4,-5.6708516E-3,-6.2007694E0,-2.1878462E0,-1.6324826E0,2.0735168E0,1.5585542E-3,-7.918702E0,-9.094882E-1,-5.079946E-1,-1.257425E0,2.59719E0,-5.9184873E-1,2.9021053E0,3.3274488E0,3.687353E0,2.4536977E0,7.27827E-3,3.9213712E0,1.3498727E0,5.0277185E0,4.640541E0,6.217903E0,5.1460056E0,-8.189678E-3,2.6839852E0,1.4553998E0,-1.0838477E-1,-1.6643538E0,7.735464E0,2.9998822E-3,-1.6403497E-5,-2.3560524E-4,-2.0837474E-3,-1.0628283E-3,3.0617735E-3,8.2069505E-3,3.1836138E-3,5.528927E-4,-1.8953759E-3,-1.301701E-3,-4.960806E-3,2.217016E-3,-1.155827E-3,-6.549776E-4,-5.747163E-3,4.3948884E-3,-1.3498068E-4,-5.877254E-4,2.8617869E-3,-8.309508E-3,4.0766003E-4,-1.7491133E-3,1.8174406E-3,-7.868818E-3,1.3648808E-3,1.4109716E-3,-3.1868077E-3,-6.89832E-3,1.3034344E-4,5.884804E-3,1.8112789E-3,-4.324995E-3,3.4511485E-3,5.90241E-4,4.7035506E-3,6.0045095E-3,-8.544922E-5,1.1422058E-3,-5.3560496E-3,-2.1805912E-3,2.9325487E-5,-1.7301358E-2,-4.630857E-3,-3.327936E-3,2.1636786E-4,-5.3113704E-3,-1.5453488E-4,4.1687186E-3,-7.7829364E-4],"split_indices":[50,6,38,16,40,14,10,27,31,11,41,34,8,46,3,0,51,41,32,58,12,35,0,14,45,22,31,21,2,6,50,0,0,6,0,14,28,0,0,34,30,2,8,22,0,49,33,30,0,3,14,44,45,7,18,0,1,17,20,13,7,0,0,0,0,0,0,0,0,0,0,0,0,0,0,0,0,0,0,0,0,0,0,0,0,0,0,0,0,0,0,0,0,0,0,0,0,0,0,0,0,0,0,0,0,0,0,0,0,0,0],"split_type":[0,0,0,0,0,0,0,0,0,0,0,0,0,0,0,0,0,0,0,0,0,0,0,0,0,0,0,0,0,0,0,0,0,0,0,0,0,0,0,0,0,0,0,0,0,0,0,0,0,0,0,0,0,0,0,0,0,0,0,0,0,0,0,0,0,0,0,0,0,0,0,0,0,0,0,0,0,0,0,0,0,0,0,0,0,0,0,0,0,0,0,0,0,0,0,0,0,0,0,0,0,0,0,0,0,0,0,0,0,0,0],"sum_hessian":[6.57E2,3.27E2,3.3E2,5.7E1,2.7E2,2.3E2,1E2,2.1E1,3.6E1,1.83E2,8.7E1,7.2E1,1.58E2,4.3E1,5.7E1,5E0,1.6E1,2.6E1,1E1,1.56E2,2.7E1,8.5E1,2E0,3.3E1,3.9E1,1.22E2,3.6E1,3.7E1,6E0,3E1,2.7E1,1E0,4E0,1.1E1,5E0,1.1E1,1.5E1,5E0,5E0,1.17E2,3.9E1,5E0,2.2E1,8.2E1,3E0,2.1E1,1.2E1,3.5E1,4E0,7E0,1.15E2,2.4E1,1.2E1,1.3E1,2.4E1,2E0,4E0,1.3E1,1.7E1,1.9E1,8E0,7E0,4E0,1E0,4E0,5E0,6E0,9E0,6E0,1E0,4E0,5.2E1,6.5E1,1.7E1,2.2E1,3E0,2E0,1.4E1,8E0,3E1,5.2E1,2E0,1E0,1.5E1,6E0,1E1,2E0,2.5E1,1E1,5E0,2E0,4.9E1,6.6E1,2E1,4E0,8E0,4E0,1.1E1,2E0,2.1E1,3E0,3E0,1E0,4E0,9E0,9E0,8E0,5E0,1.4E1,6E0,2E0],"tree_param":{"num_deleted":"0","num_feature":"60","num_nodes":"111","size_leaf_vector":"0"}},{"base_weights":[-1.0947057E-4,1.7882952E-3,-1.203375E-3,4.4943907E-4,1.3338035E-2,-2.2361008E-2,-5.7660614E-4,-1.6179755E-3,5.763122E-3,3.8591564E-2,3.3321015E-3,1.5046001E-4,-3.363555E-2,2.703521E-3,-2.7123303E-3,-4.26919E-3,5.987148E-3,1.1896049E-2,5.429729E-4,1.1615949E-3,5.3331234E-2,1.14303045E-2,-2.3443755E-3,-9.864092E-3,5.120121E-3,-2.9389858E-3,-3.7600916E-2,2.099032E-3,3.3840258E-2,-5.8256947E-3,1.0311786E-3,-1.1177964E-3,-1.2605147E-2,2.5831438E-3,3.68284E-2,1.6848262E-2,-4.3065348E-4,-1.1565588E-2,4.1105845E-3,-4.5680404E-3,6.3104327E-3,1.763323E-2,4.181904E-3,-6.2046903E-3,2.5500543E-3,3.2344818E-4,1.0767684E-2,3.5156012E-3,4.7244787E-2,-4.993557E-3,-4.077522E-2,2.6402324E-2,9.921718E-5,-2.8894315E-3,1.4360573E-2,-5.5956845E-3,-2.1217624E-2,-7.939131E-3,7.1640387E-3,2.2928225E-2,4.86229E-3,4.852891E-3,-5.628067E-3,-1.5474081E-2,-3.7885755E-3,-1.7098662E-3,1.2732137E-2,5.10484E-3,2.450794E-4,-2.2198558E-3,-8.638352E-3,4.0098032E-4,3.5243463E-3,3.1294548E-3,-8.274434E-3,2.0703586E-2,-1.5251006E-3,-9.994679E-3,-4.8561028E-4,-7.377386E-3,-5.3785443E-2,8.017302E-3,2.9858232E-2,-8.639451E-3,1.6785592E-3],"categories":[],"categories_nodes":[],"categories_segments":[],"categories_sizes":[],"default_left":[1,1,1,1,1,1,1,1,1,1,1,1,1,1,1,1,1,1,1,1,0,1,1,0,0,0,0,1,1,1,1,1,1,1,0,1,1,1,1,0,0,0,1,1,1,1,1,0,0,1,1,1,1,0,0,0,0,0,0,0,0,0,0,0,0,0,0,0,0,0,0,0,0,0,0,0,0,0,0,0,0,0,0,0,0],"id":73,"left_children":[1,3,5,7,9,11,13,15,17,19,21,23,25,27,29,31,33,35,37,39,-1,41,43,-1,-1,-1,-1,45,47,49,51,53,55,57,-1,59,61,63,65,-1,-1,-1,67,69,71,73,75,-1,-1,77,79,81,83,-1,-1,-1,-1,-1,-1,-1,-1,-1,-1,-1,-1,-1,-1,-1,-1,-1,-1,-1,-1,-1,-1,-1,-1,-1,-1,-1,-1,-1,-1,-1,-1],"loss_changes":[1.3681432E-3,3.7206947E-3,5.5301823E-3,2.3931968E-3,6.188537E-3,3.050739E-3,2.8585496E-3,3.1911216E-3,1.9464432E-3,3.799988E-3,9.0021297E-4,2.9934998E-4,8.632764E-4,2.9592798E-3,2.8847693E-3,3.059486E-3,4.2092004E-3,1.7165001E-3,1.5162954E-3,1.173292E-4,0E0,2.859498E-4,2.4255077E-4,0E0,0E0,0E0,0E0,2.4438323E-3,1.0533691E-3,3.7225657E-3,2.6692576E-3,2.3997878E-3,1.8130755E-3,1.8885308E-3,0E0,1.3460014E-3,2.744593E-4,1.8454646E-4,1.3766659E-3,0E0,0E0,0E0,1.69161E-5,4.8708287E-5,1.11497575E-5,3.2346144E-3,3.3293527E-3,0E0,0E0,2.9936037E-3,9.0674404E-4,1.4765188E-5,1.5326499E-3,0E0,0E0,0E0,0E0,0E0,0E0,0E0,0E0,0E0,0E0,0E0,0E0,0E0,0E0,0E0,0E0,0E0,0E0,0E0,0E0,0E0,0E0,0E0,0E0,0E0,0E0,0E0,0E0,0E0,0E0,0E0,0E0],"parents":[2147483647,0,0,1,1,2,2,3,3,4,4,5,5,6,6,7,7,8,8,9,9,10,10,11,11,12,12,13,13,14,14,15,15,16,16,17,17,18,18,19,19,21,21,22,22,27,27,28,28,29,29,30,30,31,31,32,32,33,33,35,35,36,36,37,37,38,38,42,42,43,43,44,44,45,45,46,46,49,49,50,50,51,51,52,52],"right_children":[2,4,6,8,10,12,14,16,18,20,22,24,26,28,30,32,34,36,38,40,-1,42,44,-1,-1,-1,-1,46,48,50,52,54,56,58,-1,60,62,64,66,-1,-1,-1,68,70,72,74,76,-1,-1,78,80,82,84,-1,-1,-1,-1,-1,-1,-1,-1,-1,-1,-1,-1,-1,-1,-1,-1,-1,-1,-1,-1,-1,-1,-1,-1,-1,-1,-1,-1,-1,-1,-1,-1],"split_conditions":[-9.5627445E-1,-1.3118088E0,-8.479015E-1,3.3818712E0,-1.6503763E0,-1.4058316E0,-5.726794E-1,2.306491E0,8.576538E-2,-2.5456862E0,-2.106344E0,-2.9647958E0,-3.5556417E0,-6.384691E-1,2.908336E-1,2.0168092E0,7.3466167E0,3.740898E0,-2.1580813E0,5.7702357E-1,1.5999371E-2,1.3131139E0,6.76167E-1,-2.9592277E-3,1.5360364E-3,-8.8169577E-4,-1.1280275E-2,3.5990386E0,-1.6733351E0,1.0256527E1,4.8428386E-1,5.0296264E0,-5.1986974E-1,-1.8956506E0,1.104852E-2,2.5549705E0,-7.1971E-2,2.5251794E0,1.3751875E0,-1.3704122E-3,1.8931299E-3,5.289969E-3,-4.0965037E0,1.6043854E0,9.086183E-2,1.1378274E0,1.1618979E0,1.0546804E-3,1.4173437E-2,-4.9333495E-1,3.4863842E-1,4.3773666E-1,-4.595087E0,-8.668295E-4,4.308172E-3,-1.6787054E-3,-6.3652876E-3,-2.3817394E-3,2.1492117E-3,6.8784677E-3,1.458687E-3,1.4558673E-3,-1.6884202E-3,-4.6422244E-3,-1.1365727E-3,-5.129599E-4,3.8196412E-3,1.531452E-3,7.352382E-5,-6.6595676E-4,-2.5915056E-3,1.202941E-4,1.057304E-3,9.388365E-4,-2.4823304E-3,6.211076E-3,-4.5753017E-4,-2.998404E-3,-1.456831E-4,-2.213216E-3,-1.6135633E-2,2.4051906E-3,8.95747E-3,-2.5918353E-3,5.035678E-4],"split_indices":[17,17,17,12,37,35,11,35,35,16,1,0,1,11,3,47,32,42,49,0,0,16,21,0,0,0,0,5,0,12,3,0,27,56,0,30,9,5,47,0,0,0,1,6,3,5,29,0,0,47,0,0,10,0,0,0,0,0,0,0,0,0,0,0,0,0,0,0,0,0,0,0,0,0,0,0,0,0,0,0,0,0,0,0,0],"split_type":[0,0,0,0,0,0,0,0,0,0,0,0,0,0,0,0,0,0,0,0,0,0,0,0,0,0,0,0,0,0,0,0,0,0,0,0,0,0,0,0,0,0,0,0,0,0,0,0,0,0,0,0,0,0,0,0,0,0,0,0,0,0,0,0,0,0,0,0,0,0,0,0,0,0,0,0,0,0,0,0,0,0,0,0,0],"sum_hessian":[6.57E2,2.4E2,4.17E2,2.16E2,2.4E1,1.1E1,4.06E2,1.56E2,6E1,6E0,1.8E1,4E0,7E0,1.6E2,2.46E2,1.16E2,4E1,2.7E1,3.3E1,2E0,4E0,7E0,1.1E1,1E0,3E0,1E0,6E0,1.58E2,2E0,1.34E2,1.12E2,8.5E1,3.1E1,3.7E1,3E0,1.9E1,8E0,7E0,2.6E1,1E0,1E0,3E0,4E0,6E0,5E0,1.32E2,2.6E1,1E0,1E0,1.32E2,2E0,3E0,1.09E2,7.7E1,8E0,1.8E1,1.3E1,1.1E1,2.6E1,1.2E1,7E0,4E0,4E0,4E0,3E0,1.6E1,1E1,3E0,1E0,3E0,3E0,2E0,3E0,1E2,3.2E1,1.4E1,1.2E1,6.2E1,7E1,1E0,1E0,1E0,2E0,1.6E1,9.3E1],"tree_param":{"num_deleted":"0","num_feature":"60","num_nodes":"85","size_leaf_vector":"0"}},{"base_weights":[-3.5857993E-5,5.68401E-3,-3.566265E-4,-4.307911E-3,8.335845E-3,1.395125E-2,-5.1811273E-4,-2.4604797E-4,-1.09956665E-2,5.8986577E-3,2.6679516E-2,3.32148E-3,2.7017117E-2,-4.1183233E-2,-3.854574E-4,-1.9505819E-3,1.0938644E-3,3.0686855E-3,8.944568E-3,6.094971E-3,-5.59171E-4,5.115557E-4,-2.5660477E-3,-4.3034554E-4,-2.4955273E-3,1.6657512E-4,1.9378662E-3,6.2851533E-3,1.7408058E-3,4.3081343E-3,1.0011365E-2,-1.6880035E-3,8.49247E-4,-3.1355247E-3,1.7591442E-3,-1.5167906E-2,-1.244111E-3,-1.7262995E-4,3.132207E-3,2.929449E-3,1.0530423E-2,7.5264433E-3,-6.610814E-3,2.08041E-3,-2.4703175E-2,-2.4077978E-2,-8.11896E-3,-4.725887E-3,1.8165805E-3],"categories":[],"categories_nodes":[],"categories_segments":[],"categories_sizes":[],"default_left":[1,1,1,1,1,1,1,1,0,1,0,1,0,0,1,1,1,1,1,0,1,1,1,0,0,0,0,0,1,0,1,0,0,1,1,1,1,0,0,0,0,0,0,0,0,0,0,0,0],"id":74,"left_children":[1,3,5,7,9,11,13,15,-1,17,-1,19,-1,-1,21,23,25,27,29,-1,31,33,35,-1,-1,-1,-1,-1,37,-1,39,-1,-1,41,43,45,47,-1,-1,-1,-1,-1,-1,-1,-1,-1,-1,-1,-1],"loss_changes":[1.2092949E-3,9.633022E-4,1.4489961E-3,2.146125E-4,1.0944215E-3,8.824733E-4,3.317893E-3,1.5837228E-5,0E0,1.966678E-4,0E0,5.7222886E-5,0E0,0E0,1.2081758E-3,1.4113984E-6,2.8077352E-6,5.312501E-5,1.622329E-5,0E0,6.203136E-6,1.9984401E-3,2.9797247E-3,0E0,0E0,1.783907E-7,0E0,0E0,3.2489E-5,0E0,2.2349996E-6,0E0,0E0,4.1997395E-3,2.8313634E-3,8.7222364E-4,1.7562743E-3,0E0,0E0,0E0,0E0,0E0,0E0,0E0,0E0,0E0,0E0,0E0,0E0],"parents":[2147483647,0,0,1,1,2,2,3,3,4,4,5,5,6,6,7,7,9,9,11,11,14,14,15,15,16,16,17,17,18,18,20,20,21,21,22,22,28,28,30,30,33,33,34,34,35,35,36,36],"right_children":[2,4,6,8,10,12,14,16,-1,18,-1,20,-1,-1,22,24,26,28,30,-1,32,34,36,-1,-1,-1,-1,-1,38,-1,40,-1,-1,42,44,46,48,-1,-1,-1,-1,-1,-1,-1,-1,-1,-1,-1,-1],"split_conditions":[-7.6468086E0,-3.4304001E0,-1.2044887E1,2.1257265E0,5.3929267E0,2.6660523E-1,-1.1394555E1,-1.7261288E0,-3.2987E-3,6.871673E-1,8.003855E-3,4.2565536E-1,8.1051355E-3,-1.2354971E-2,2.4092877E0,-7.9386353E-1,5.031752E0,-3.81577E0,-1.8554094E0,1.8284915E-3,6.3527834E-1,-2.1262732E0,2.798586E0,-1.2910366E-4,-7.486582E-4,4.997254E-5,5.813599E-4,1.885546E-3,-7.698735E-1,1.2924403E-3,-3.8098671E0,-5.0640106E-4,2.5477412E-4,-2.549767E0,1.0159298E1,4.2689532E-1,-4.9333495E-1,-5.178899E-5,9.3966216E-4,8.7883475E-4,3.1591272E-3,2.2579331E-3,-1.9832442E-3,6.2412303E-4,-7.410953E-3,-7.223394E-3,-2.4356882E-3,-1.4177661E-3,5.449742E-4],"split_indices":[48,24,53,2,4,1,53,19,0,11,0,0,0,0,43,0,1,30,39,0,0,54,43,0,0,0,0,0,29,0,3,0,0,45,12,21,40,0,0,0,0,0,0,0,0,0,0,0,0],"split_type":[0,0,0,0,0,0,0,0,0,0,0,0,0,0,0,0,0,0,0,0,0,0,0,0,0,0,0,0,0,0,0,0,0,0,0,0,0,0,0,0,0,0,0,0,0,0,0,0,0],"sum_hessian":[6.57E2,3.4E1,6.23E2,7E0,2.7E1,6E0,6.17E2,5E0,2E0,2.5E1,2E0,4E0,2E0,1E0,6.16E2,2E0,3E0,1.4E1,1.1E1,2E0,2E0,4.37E2,1.79E2,1E0,1E0,2E0,1E0,3E0,1.1E1,3E0,8E0,1E0,1E0,1.11E2,3.26E2,1.6E1,1.63E2,5E0,6E0,1E0,7E0,2.7E1,8.4E1,3.23E2,3E0,6E0,1E1,7.6E1,8.7E1],"tree_param":{"num_deleted":"0","num_feature":"60","num_nodes":"49","size_leaf_vector":"0"}},{"base_weights":[-3.59716E-5,2.5883396E-3,-5.9067714E-4,8.554764E-3,-2.169977E-5,-1.0312112E-2,-1.999504E-4,1.2876454E-2,-2.0449648E-3,-4.535454E-3,5.4685874E-3,-5.754266E-3,-5.073452E-2,-1.2816E-2,4.540969E-5,2.190207E-2,5.3992392E-3,-1.1533394E-2,2.9548705E-3,-1.6112001E-4,-1.6551444E-2,9.045747E-3,-1.8312269E-3,-8.838036E-3,2.6418686E-2,9.957722E-4,-3.37826E-2,-1.2780853E-2,2.473087E-4,9.416948E-3,3.0736847E-2,-3.0301772E-3,7.7591077E-3,4.6397448E-3,-4.419625E-3,4.532265E-3,-5.724445E-3,-2.9082695E-2,-3.4458807E-3,2.7936324E-4,1.2439377E-2,-7.4814335E-3,6.007586E-3,-1.2516416E-2,3.96471E-3,4.4248104E-3,-2.682209E-3,-3.828287E-2,-1.0140896E-2,-3.1253458E-3,-2.1655023E-2,-2.874194E-3,1.0677354E-3,1.1429131E-2,-3.219843E-4,-4.4821054E-3,6.6280365E-4,8.894578E-3,-2.3655295E-3,6.1174333E-3,2.00212E-3,-3.726909E-4,1.00236265E-2,-9.052515E-4,-1.1791229E-2,-8.15177E-3,2.1214783E-3,-3.7415922E-3,3.4402548E-3,2.2954543E-3,1.6164312E-2,-9.050889E-3,1.7523766E-3,6.6354685E-3,1.4340878E-3,-1.5833015E-2,-2.7166158E-3,1.0603269E-3,5.5475235E-3,-5.6063733E-3,3.9746365E-4,1.5737888E-3,-7.351871E-3,-5.5771284E-3,1.7950069E-3],"categories":[],"categories_nodes":[],"categories_segments":[],"categories_sizes":[],"default_left":[1,1,1,1,1,1,1,1,1,1,1,1,0,1,1,1,1,0,1,1,1,1,1,1,0,1,1,1,1,1,0,1,1,1,0,1,1,0,1,1,1,1,1,1,1,0,0,0,0,1,0,1,1,0,0,0,0,0,0,0,0,0,0,0,0,0,0,0,0,0,0,0,0,0,0,0,0,0,0,0,0,0,0,0,0],"id":75,"left_children":[1,3,5,7,9,11,13,15,17,19,21,23,-1,25,27,29,31,-1,33,35,37,39,41,43,-1,45,47,49,51,53,-1,55,57,59,-1,61,63,-1,65,67,69,71,73,75,77,-1,-1,-1,-1,79,-1,81,83,-1,-1,-1,-1,-1,-1,-1,-1,-1,-1,-1,-1,-1,-1,-1,-1,-1,-1,-1,-1,-1,-1,-1,-1,-1,-1,-1,-1,-1,-1,-1,-1],"loss_changes":[9.5939264E-4,1.791035E-3,2.0642811E-3,1.6296378E-3,2.0321289E-3,3.5770813E-3,1.6226108E-3,1.5689074E-3,5.559261E-4,2.3626212E-3,9.82731E-4,2.2177694E-3,0E0,2.929499E-3,1.3368097E-3,9.2388876E-4,3.2189622E-4,0E0,1.1990673E-4,9.1371284E-4,1.8705339E-3,7.402715E-4,6.2072725E-4,9.4439776E-4,0E0,1.0015183E-4,3.735395E-5,6.177975E-4,1.3040387E-3,1.2125907E-4,0E0,2.4418525E-5,1.5899498E-4,1.5035272E-5,0E0,5.1549857E-4,4.5711815E-4,0E0,2.006894E-4,1.14550465E-4,6.4303377E-4,1.3179699E-4,7.713868E-6,4.445177E-4,1.7103288E-5,0E0,0E0,0E0,0E0,4.592926E-5,0E0,2.122733E-3,1.9575567E-3,0E0,0E0,0E0,0E0,0E0,0E0,0E0,0E0,0E0,0E0,0E0,0E0,0E0,0E0,0E0,0E0,0E0,0E0,0E0,0E0,0E0,0E0,0E0,0E0,0E0,0E0,0E0,0E0,0E0,0E0,0E0,0E0],"parents":[2147483647,0,0,1,1,2,2,3,3,4,4,5,5,6,6,7,7,8,8,9,9,10,10,11,11,13,13,14,14,15,15,16,16,18,18,19,19,20,20,21,21,22,22,23,23,25,25,26,26,27,27,28,28,29,29,31,31,32,32,33,33,35,35,36,36,38,38,39,39,40,40,41,41,42,42,43,43,44,44,49,49,51,51,52,52],"right_children":[2,4,6,8,10,12,14,16,18,20,22,24,-1,26,28,30,32,-1,34,36,38,40,42,44,-1,46,48,50,52,54,-1,56,58,60,-1,62,64,-1,66,68,70,72,74,76,78,-1,-1,-1,-1,80,-1,82,84,-1,-1,-1,-1,-1,-1,-1,-1,-1,-1,-1,-1,-1,-1,-1,-1,-1,-1,-1,-1,-1,-1,-1,-1,-1,-1,-1,-1,-1,-1,-1,-1],"split_conditions":[-3.4268546E0,-2.1249943E0,-3.000022E0,1.4661154E0,5.3462315E-1,4.7039337E0,-8.68275E0,9.171885E-1,-1.5368809E0,3.1265368E0,1.222775E0,6.894408E0,-1.5220356E-2,1.2196789E0,-1.1394555E1,-1.9507612E0,-4.3970633E0,-3.4600184E-3,3.5186262E0,1.986995E0,2.7977183E-1,-2.5813022E0,2.9296985E0,4.845951E0,7.925606E-3,4.319722E0,1.4431238E0,1.8834491E0,-2.3510005E0,1.4305927E0,9.221055E-3,4.8214948E-1,9.668509E0,-3.8992093E0,-1.3258875E-3,6.9466126E-1,1.3501172E0,-8.724809E-3,2.98846E0,1.731616E0,-3.002572E-2,2.8978076E0,4.59731E0,1.0713996E0,1.9237101E-2,1.3274432E-3,-8.0466276E-4,-1.1484861E-2,-3.0422688E-3,1.0634873E0,-6.496507E-3,-5.944822E-1,-5.0968895E0,3.4287395E-3,-9.659529E-5,-1.3446317E-3,1.9884111E-4,2.6683733E-3,-7.096589E-4,1.83523E-3,6.00636E-4,-1.11807276E-4,3.007088E-3,-2.7157547E-4,-3.537369E-3,-2.445531E-3,6.364435E-4,-1.1224777E-3,1.0320765E-3,6.886363E-4,4.8492937E-3,-2.7152668E-3,5.2571297E-4,1.9906405E-3,4.3022636E-4,-4.7499044E-3,-8.149848E-4,3.180981E-4,1.6642571E-3,-1.6819121E-3,1.192391E-4,4.7213666E-4,-2.2055614E-3,-1.6731386E-3,5.385021E-4],"split_indices":[51,13,51,28,14,17,55,30,8,55,10,0,0,39,47,30,37,0,2,0,38,20,10,34,0,15,0,55,24,5,0,0,2,0,0,44,39,0,3,4,13,0,0,59,24,0,0,0,0,0,0,14,11,0,0,0,0,0,0,0,0,0,0,0,0,0,0,0,0,0,0,0,0,0,0,0,0,0,0,0,0,0,0,0,0],"split_type":[0,0,0,0,0,0,0,0,0,0,0,0,0,0,0,0,0,0,0,0,0,0,0,0,0,0,0,0,0,0,0,0,0,0,0,0,0,0,0,0,0,0,0,0,0,0,0,0,0,0,0,0,0,0,0,0,0,0,0,0,0,0,0,0,0,0,0,0,0,0,0,0,0,0,0,0,0,0,0,0,0,0,0,0,0],"sum_hessian":[6.57E2,1.14E2,5.43E2,3.4E1,8E1,2E1,5.23E2,2.4E1,1E1,4.4E1,3.6E1,1.9E1,1E0,9E0,5.14E2,1E1,1.4E1,3E0,7E0,3.3E1,1.1E1,2.4E1,1.2E1,1.8E1,1E0,6E0,3E0,7E0,5.07E2,5E0,5E0,3E0,1.1E1,6E0,1E0,1.8E1,1.5E1,5E0,6E0,7E0,1.7E1,7E0,5E0,1.4E1,4E0,3E0,3E0,2E0,1E0,4E0,3E0,1.05E2,4.02E2,4E0,1E0,2E0,1E0,1E1,1E0,3E0,3E0,1E1,8E0,9E0,6E0,3E0,3E0,3E0,4E0,5E0,1.2E1,6E0,1E0,4E0,1E0,1E1,4E0,2E0,2E0,2E0,2E0,5.3E1,5.2E1,3.9E1,3.63E2],"tree_param":{"num_deleted":"0","num_feature":"60","num_nodes":"85","size_leaf_vector":"0"}},{"base_weights":[-7.163592E-5,9.6558355E-4,-1.4580193E-3,5.4950616E-4,2.0088466E-2,-1.2378672E-2,-1.0661017E-5,4.0380345E-3,-1.2040444E-3,5.8070445E-3,4.1955154E-2,-8.409555E-3,-4.9266655E-2,-4.252246E-3,1.5338871E-3,6.199315E-3,-3.2557938E-3,4.4224965E-3,-2.9541072E-3,7.586053E-3,-1.5439987E-3,-2.2284372E-2,-1.720568E-3,4.9965787E-3,-7.7517442E-3,2.6769296E-3,-5.842941E-3,4.960419E-3,3.3453822E-2,1.5885171E-3,-1.1327258E-2,5.708651E-3,-1.46892965E-2,-2.4339521E-2,-2.3601549E-3,-4.822339E-3,-3.3122003E-2,1.5102014E-3,-1.663658E-2,1.1454586E-2,-7.4147974E-4,-1.1143726E-2,6.796638E-4,-5.8397152E-3,3.7302352E-3,-1.37226265E-2,2.4862015E-3,-1.1973487E-3,7.2419127E-3,-6.028384E-3,6.534075E-3,-1.678302E-2,-3.983622E-3,2.914381E-2,4.75267E-3,-5.3246417E-3,-2.139163E-2,-5.7896576E-3,-3.477621E-2,-6.2658224E-4,-1.0326108E-2,-6.663799E-4,-5.694734E-3,-3.0477208E-3,9.759171E-3,1.5429402E-2,5.1888525E-3,-4.199978E-3,2.8405983E-3,-1.7604036E-2,-4.0643215E-3,9.938702E-3,-2.463321E-3,1.0424638E-2,-1.123129E-2,7.3204273E-3,6.4455654E-4,-2.870862E-3,-2.2614015E-2,-6.301284E-3,7.091893E-3],"categories":[],"categories_nodes":[],"categories_segments":[],"categories_sizes":[],"default_left":[1,1,1,1,1,1,1,1,1,1,0,1,0,1,1,1,1,1,1,0,0,1,1,1,1,1,1,1,0,1,1,1,1,1,1,1,0,1,0,1,1,1,1,1,1,1,1,0,0,0,0,0,0,0,0,0,0,0,0,0,0,0,0,0,0,0,0,0,0,0,0,0,0,0,0,0,0,0,0,0,0],"id":76,"left_children":[1,3,5,7,9,11,13,15,17,19,-1,21,-1,23,25,27,29,31,33,-1,-1,35,37,39,41,43,45,47,-1,49,51,53,55,57,59,61,-1,63,-1,65,67,69,71,73,75,77,79,-1,-1,-1,-1,-1,-1,-1,-1,-1,-1,-1,-1,-1,-1,-1,-1,-1,-1,-1,-1,-1,-1,-1,-1,-1,-1,-1,-1,-1,-1,-1,-1,-1,-1],"loss_changes":[9.4760116E-4,2.9885992E-3,4.4571874E-3,2.268267E-3,2.2546637E-3,4.4173095E-3,1.6443555E-3,1.974921E-3,2.445224E-3,9.017829E-5,0E0,2.8387208E-3,0E0,2.2072706E-3,1.5671344E-3,3.0755433E-3,1.1519134E-3,1.5341189E-3,2.343217E-3,0E0,0E0,1.7327452E-3,1.0853088E-3,7.1256526E-4,1.4089341E-3,1.4570842E-3,1.6748928E-3,1.3152193E-3,0E0,7.551165E-4,3.738592E-4,1.1160893E-3,1.3715745E-4,7.6665357E-4,2.5482983E-3,1.4333324E-5,0E0,7.441083E-4,0E0,1.4408526E-4,1.4820517E-4,1.5291814E-3,4.6099743E-4,1.6955107E-3,1.5794612E-3,1.1894125E-3,5.7082984E-4,0E0,0E0,0E0,0E0,0E0,0E0,0E0,0E0,0E0,0E0,0E0,0E0,0E0,0E0,0E0,0E0,0E0,0E0,0E0,0E0,0E0,0E0,0E0,0E0,0E0,0E0,0E0,0E0,0E0,0E0,0E0,0E0,0E0,0E0],"parents":[2147483647,0,0,1,1,2,2,3,3,4,4,5,5,6,6,7,7,8,8,9,9,11,11,13,13,14,14,15,15,16,16,17,17,18,18,21,21,22,22,23,23,24,24,25,25,26,26,27,27,29,29,30,30,31,31,32,32,33,33,34,34,35,35,37,37,39,39,40,40,41,41,42,42,43,43,44,44,45,45,46,46],"right_children":[2,4,6,8,10,12,14,16,18,20,-1,22,-1,24,26,28,30,32,34,-1,-1,36,38,40,42,44,46,48,-1,50,52,54,56,58,60,62,-1,64,-1,66,68,70,72,74,76,78,80,-1,-1,-1,-1,-1,-1,-1,-1,-1,-1,-1,-1,-1,-1,-1,-1,-1,-1,-1,-1,-1,-1,-1,-1,-1,-1,-1,-1,-1,-1,-1,-1,-1,-1],"split_conditions":[1.0899951E0,9.974084E-1,1.54551E0,-1.2944875E0,-9.261974E-1,5.016158E0,-2.1604831E0,3.4356077E0,-2.0937285E0,2.3205055E-1,1.2586547E-2,-4.9917334E-1,-1.4779997E-2,-3.5551229E0,5.0020266E0,3.2528644E0,1.7214179E0,6.8715477E0,-1.1445732E0,2.275816E-3,-4.6319963E-4,-1.6181034E0,4.1830087E0,-1.3030269E0,1.7669587E0,-4.746263E0,8.913021E-1,-2.3967118E0,1.0036147E-2,6.3929576E-1,6.0166156E-1,-8.033823E0,3.403024E0,9.4667894E-1,3.7495637E0,-2.5116649E0,-9.936601E-3,3.1211572E0,-4.9909744E-3,1.8700067E0,3.992844E0,4.0550456E0,-1.4116788E0,7.223262E-2,2.7662063E-1,-2.4233198E0,-3.0166688E0,-3.5920463E-4,2.172574E-3,-1.8085153E-3,1.9602226E-3,-5.034906E-3,-1.1950866E-3,8.743144E-3,1.4258011E-3,-1.5973926E-3,-6.417489E-3,-1.7368974E-3,-1.0432864E-2,-1.8797469E-4,-3.0978324E-3,-1.99914E-4,-1.7084202E-3,-9.143163E-4,2.9277513E-3,4.628821E-3,1.5566559E-3,-1.2599934E-3,8.5217954E-4,-5.281211E-3,-1.2192965E-3,2.9816108E-3,-7.389963E-4,3.1273917E-3,-3.3693872E-3,2.1961282E-3,1.9336697E-4,-8.612586E-4,-6.784205E-3,-1.8903852E-3,2.127568E-3],"split_indices":[5,5,5,33,6,55,33,55,0,3,0,11,0,23,54,55,16,52,33,0,0,53,48,58,3,23,19,15,0,53,51,32,2,0,49,4,0,34,0,21,34,5,20,33,12,45,25,0,0,0,0,0,0,0,0,0,0,0,0,0,0,0,0,0,0,0,0,0,0,0,0,0,0,0,0,0,0,0,0,0,0],"split_type":[0,0,0,0,0,0,0,0,0,0,0,0,0,0,0,0,0,0,0,0,0,0,0,0,0,0,0,0,0,0,0,0,0,0,0,0,0,0,0,0,0,0,0,0,0,0,0,0,0,0,0,0,0,0,0,0,0,0,0,0,0,0,0,0,0,0,0,0,0,0,0,0,0,0,0,0,0,0,0,0,0],"sum_hessian":[6.57E2,3.76E2,2.81E2,3.69E2,7E0,3.2E1,2.49E2,1.23E2,2.46E2,5E0,2E0,3E1,2E0,6.6E1,1.83E2,9.5E1,2.8E1,5.8E1,1.88E2,4E0,1E0,9E0,2.1E1,1.8E1,4.8E1,1.59E2,2.4E1,9.2E1,3E0,1.8E1,1E1,5.5E1,3E0,4E0,1.84E2,4E0,5E0,1.8E1,3E0,8E0,1E1,3.4E1,1.4E1,1.7E1,1.42E2,1.2E1,1.2E1,2.5E1,6.7E1,7E0,1.1E1,5E0,5E0,1E0,5.4E1,2E0,1E0,2E0,2E0,1.52E2,3.2E1,1E0,3E0,1.2E1,6E0,4E0,4E0,5E0,5E0,1.7E1,1.7E1,3E0,1.1E1,4E0,1.3E1,6.5E1,7.7E1,6E0,6E0,4E0,8E0],"tree_param":{"num_deleted":"0","num_feature":"60","num_nodes":"81","size_leaf_vector":"0"}},{"base_weights":[-9.038647E-5,3.4663796E-3,-4.2054986E-4,2.4791535E-3,2.8881907E-2,1.2212275E-3,-1.3667959E-3,-1.4619308E-3,6.062951E-3,5.3141187E-3,-5.939533E-4,-8.400048E-3,-5.9040746E-4,3.030859E-3,-7.33049E-3,7.5244014E-3,-9.111087E-3,1.46728605E-2,1.9068349E-3,2.9241939E-3,-4.243159E-3,8.704575E-3,-1.1879183E-2,6.2611667E-3,-1.5576024E-3,-2.001956E-3,7.16771E-3,1.3644875E-3,-1.1848539E-2,3.927908E-3,1.4280953E-2,-1.1001587E-2,-2.6650429E-3,3.5089392E-2,6.3331807E-3,-1.3056454E-3,9.703831E-3,2.0220696E-3,3.6644936E-2,-6.89722E-3,1.1260808E-3,1.2578633E-2,2.6543736E-3,-1.7585777E-2,6.1392784E-4,-2.126598E-3,1.2990089E-2,1.3871647E-3,-3.4593022E-3,-3.9808303E-3,-1.8465518E-5,2.03944E-3,9.391938E-3,-1.0617971E-3,2.2365078E-3,-3.2769043E-3,-1.41596E-2,6.3406546E-3,-1.1140363E-3,7.5880378E-3,1.8117677E-2,7.6690465E-3,4.0027216E-2,1.0294239E-2,-1.1622111E-2,1.2969682E-3,-9.5467735E-3,1.3865277E-2,-5.2064657E-3,-4.1228146E-3,4.998389E-3,-1.8422952E-3,-1.3476789E-2,6.3528214E-3,-3.8077554E-3,5.0735474E-4,3.2009284E-3,-1.1519915E-2,-3.590572E-2,8.956447E-3,-3.6340728E-3,4.3300334E-3,-6.7918547E-3,1.4221099E-3,2.115135E-2,2.9280058E-3,-9.593923E-3,-1.6724152E-2,-2.5246039E-3],"categories":[],"categories_nodes":[],"categories_segments":[],"categories_sizes":[],"default_left":[1,1,1,1,0,1,1,1,1,1,1,1,1,1,1,1,1,1,1,1,1,1,1,1,1,1,1,1,1,1,1,0,0,1,1,1,1,1,0,1,1,0,1,1,1,1,1,1,1,0,0,0,0,0,0,0,0,0,0,0,0,0,0,0,0,0,0,0,0,0,0,0,0,0,0,0,0,0,0,0,0,0,0,0,0,0,0,0,0],"id":77,"left_children":[1,3,5,7,-1,9,11,13,15,17,19,21,23,25,27,29,31,33,35,37,39,41,43,45,47,49,51,53,55,57,59,-1,-1,61,63,65,67,69,-1,71,73,-1,75,77,79,81,83,85,87,-1,-1,-1,-1,-1,-1,-1,-1,-1,-1,-1,-1,-1,-1,-1,-1,-1,-1,-1,-1,-1,-1,-1,-1,-1,-1,-1,-1,-1,-1,-1,-1,-1,-1,-1,-1,-1,-1,-1,-1],"loss_changes":[7.7415636E-4,1.333486E-3,9.384448E-4,7.856863E-4,0E0,1.64504E-3,2.086426E-3,7.341052E-4,7.1166235E-4,2.1403977E-3,1.989528E-3,2.3647563E-3,2.302628E-3,3.4746955E-4,4.8757927E-4,6.000028E-4,7.239054E-6,2.8425842E-3,1.2901023E-3,2.3291046E-3,1.0907887E-3,1.3068342E-4,2.2921753E-3,2.4545707E-3,1.7072177E-3,3.1327116E-5,8.350369E-5,1.2953566E-5,1.1207687E-4,2.3819745E-4,9.363226E-5,0E0,0E0,3.7001353E-4,1.1153482E-3,8.0597535E-4,1.0029152E-3,1.4471601E-3,0E0,1.6713922E-3,6.9467485E-4,0E0,3.0698484E-6,2.031146E-3,4.223777E-4,6.3184585E-4,2.2357446E-3,2.0585044E-3,2.2515252E-3,0E0,0E0,0E0,0E0,0E0,0E0,0E0,0E0,0E0,0E0,0E0,0E0,0E0,0E0,0E0,0E0,0E0,0E0,0E0,0E0,0E0,0E0,0E0,0E0,0E0,0E0,0E0,0E0,0E0,0E0,0E0,0E0,0E0,0E0,0E0,0E0,0E0,0E0,0E0,0E0],"parents":[2147483647,0,0,1,1,2,2,3,3,5,5,6,6,7,7,8,8,9,9,10,10,11,11,12,12,13,13,14,14,15,15,16,16,17,17,18,18,19,19,20,20,21,21,22,22,23,23,24,24,25,25,26,26,27,27,28,28,29,29,30,30,33,33,34,34,35,35,36,36,37,37,39,39,40,40,42,42,43,43,44,44,45,45,46,46,47,47,48,48],"right_children":[2,4,6,8,-1,10,12,14,16,18,20,22,24,26,28,30,32,34,36,38,40,42,44,46,48,50,52,54,56,58,60,-1,-1,62,64,66,68,70,-1,72,74,-1,76,78,80,82,84,86,88,-1,-1,-1,-1,-1,-1,-1,-1,-1,-1,-1,-1,-1,-1,-1,-1,-1,-1,-1,-1,-1,-1,-1,-1,-1,-1,-1,-1,-1,-1,-1,-1,-1,-1,-1,-1,-1,-1,-1,-1],"split_conditions":[-5.86689E0,8.470138E0,-1.0022088E0,2.23827E-1,8.664573E-3,-1.1723514E0,-4.5307267E-1,1.296077E0,7.2637672E0,-2.0924976E0,3.2936078E-1,-2.9455338E0,2.9257965E-1,2.9749712E-1,-2.1931005E0,1.4618076E0,1.497277E-1,-1.1794215E0,3.123262E0,8.975951E0,3.004798E0,7.725694E-1,3.2362525E0,5.186887E-1,-9.644791E-1,2.607302E-1,-9.323896E-1,-2.7849884E0,-1.6862991E-1,1.5554054E0,1.2856266E-1,-3.3004761E-3,-7.995129E-4,-3.3027985E0,6.1043587E0,2.4183903E0,1.7722335E0,-1.4901683E0,1.0993481E-2,1.0713775E0,5.4165643E-1,3.7735899E-3,-1.3419936E0,2.4506826E0,-3.0152023E-1,-1.5580478E0,1.6797882E-1,5.4762545E0,-6.292839E-1,-1.1942491E-3,-5.539656E-6,6.11832E-4,2.8175816E-3,-3.1853915E-4,6.709524E-4,-9.830714E-4,-4.24788E-3,1.9021964E-3,-3.342109E-4,2.2764115E-3,5.4353033E-3,2.3007141E-3,1.2008165E-2,3.088272E-3,-3.4866335E-3,3.8909048E-4,-2.864032E-3,4.1595832E-3,-1.5619398E-3,-1.2368445E-3,1.4995168E-3,-5.5268855E-4,-4.043037E-3,1.9058465E-3,-1.1423266E-3,1.5220643E-4,9.6027856E-4,-3.4559749E-3,-1.0771716E-2,2.6869343E-3,-1.0902219E-3,1.2990101E-3,-2.0375566E-3,4.26633E-4,6.3454057E-3,8.7840174E-4,-2.878177E-3,-5.017246E-3,-7.573812E-4],"split_indices":[17,0,9,34,0,11,9,53,45,23,25,53,9,43,38,32,0,51,40,53,29,8,6,47,58,26,4,0,8,52,9,0,0,0,6,5,19,44,0,55,14,0,0,42,33,47,42,6,58,0,0,0,0,0,0,0,0,0,0,0,0,0,0,0,0,0,0,0,0,0,0,0,0,0,0,0,0,0,0,0,0,0,0,0,0,0,0,0,0],"split_type":[0,0,0,0,0,0,0,0,0,0,0,0,0,0,0,0,0,0,0,0,0,0,0,0,0,0,0,0,0,0,0,0,0,0,0,0,0,0,0,0,0,0,0,0,0,0,0,0,0,0,0,0,0,0,0,0,0,0,0,0,0,0,0,0,0,0,0,0,0,0,0,0,0,0,0,0,0,0,0,0,0,0,0,0,0,0,0,0,0],"sum_hessian":[6.57E2,5.5E1,6.02E2,5.4E1,1E0,2.2E2,3.82E2,2.6E1,2.8E1,6.7E1,1.53E2,3.7E1,3.45E2,1.5E1,1.1E1,2.6E1,2E0,1.7E1,5E1,7.8E1,7.5E1,6E0,3.1E1,4.2E1,3.03E2,7E0,8E0,4E0,7E0,1.8E1,8E0,1E0,1E0,4E0,1.3E1,3.6E1,1.4E1,7.7E1,1E0,5E1,2.5E1,3E0,3E0,2.1E1,1E1,1.9E1,2.3E1,1.19E2,1.84E2,3E0,4E0,3E0,5E0,1E0,3E0,2E0,5E0,1.2E1,6E0,4E0,4E0,1E0,3E0,1.1E1,2E0,2.8E1,8E0,1.1E1,3E0,2.5E1,5.2E1,2.9E1,2.1E1,1.2E1,1.3E1,1E0,2E0,1.7E1,4E0,3E0,7E0,8E0,1.1E1,1E1,1.3E1,1.05E2,1.4E1,1.1E1,1.73E2],"tree_param":{"num_deleted":"0","num_feature":"60","num_nodes":"89","size_leaf_vector":"0"}},{"base_weights":[-2.8065278E-5,2.6729668E-4,-4.992581E-3,-1.9192413E-3,8.1010914E-4,-2.087854E-3,-2.3165261E-2,-1.9947816E-2,-1.152057E-3,3.752392E-5,4.0952344E-3,-7.0447875E-3,1.0801455E-3,-2.8405696E-2,-1.101762E-3,-2.460301E-2,-6.635189E-4,-3.1426908E-3,3.580052E-3,-4.1747857E-3,7.8220037E-4,-9.55167E-3,5.4599117E-3,-1.3745964E-2,-3.6598383E-3,-2.1336698E-3,5.6023067E-3,3.5423697E-3,-5.12085E-3,4.910863E-3,-3.8924813E-3,-8.956711E-3,3.0694546E-3,4.33017E-3,-9.645699E-4,-3.685184E-2,-1.5326701E-3,1.1469317E-2,2.2574621E-3,-4.6811253E-3,2.835393E-4,-3.8554934E-3,1.3923466E-3,7.277449E-3,1.6890168E-3,-5.0180464E-4,9.6713565E-3,1.976249E-4,-8.164684E-3,1.0435964E-3,7.6459115E-3,-7.045269E-5,-4.6427967E-3,1.14550196E-4,-1.4483328E-2,1.3455202E-2,-1.9974243E-4,2.8831987E-3,2.0891143E-2,-6.4113536E-3,-9.26214E-5,2.301508E-3,-5.9422255E-3,2.4203388E-2,2.8230972E-3,5.974161E-3,-5.418005E-4,-8.3625317E-4,-5.110928E-3,-3.4451485E-4,7.698238E-4,-3.4268698E-4,-4.810197E-3,3.400743E-3,4.0061772E-5],"categories":[],"categories_nodes":[],"categories_segments":[],"categories_sizes":[],"default_left":[1,1,1,1,1,1,1,1,1,1,1,1,1,0,0,0,0,1,1,1,1,1,1,0,1,1,1,1,1,1,1,1,1,1,1,0,1,1,1,1,1,1,1,0,0,0,0,0,0,0,0,0,0,0,0,0,0,0,0,0,0,0,0,0,0,0,0,0,0,0,0,0,0,0,0],"id":78,"left_children":[1,3,5,7,9,11,13,15,17,19,21,23,25,-1,-1,-1,-1,27,29,31,33,35,37,-1,39,41,43,45,47,49,51,53,55,57,59,-1,61,63,65,67,69,71,73,-1,-1,-1,-1,-1,-1,-1,-1,-1,-1,-1,-1,-1,-1,-1,-1,-1,-1,-1,-1,-1,-1,-1,-1,-1,-1,-1,-1,-1,-1,-1,-1],"loss_changes":[9.6617907E-4,7.397941E-4,1.9047413E-3,1.6920924E-3,1.2663278E-3,5.25827E-4,5.468151E-4,4.3253624E-4,1.1416385E-3,1.2736728E-3,1.8213954E-3,2.4457276E-4,3.1715469E-4,0E0,0E0,0E0,0E0,1.1421896E-3,3.7711853E-4,2.1406184E-3,2.14231E-3,1.9137989E-3,1.648407E-3,0E0,4.1600477E-5,8.42935E-5,4.6706118E-5,5.0058693E-4,1.0700582E-3,3.1991274E-4,1.6879261E-5,1.8565948E-3,8.5151393E-4,2.6715773E-3,1.1012472E-3,0E0,1.4893226E-4,3.2347185E-3,6.0666975E-4,8.94627E-6,1.1814548E-6,2.8534821E-5,1.3443379E-5,0E0,0E0,0E0,0E0,0E0,0E0,0E0,0E0,0E0,0E0,0E0,0E0,0E0,0E0,0E0,0E0,0E0,0E0,0E0,0E0,0E0,0E0,0E0,0E0,0E0,0E0,0E0,0E0,0E0,0E0,0E0,0E0],"parents":[2147483647,0,0,1,1,2,2,3,3,4,4,5,5,6,6,7,7,8,8,9,9,10,10,11,11,12,12,17,17,18,18,19,19,20,20,21,21,22,22,24,24,25,25,26,26,27,27,28,28,29,29,30,30,31,31,32,32,33,33,34,34,36,36,37,37,38,38,39,39,40,40,41,41,42,42],"right_children":[2,4,6,8,10,12,14,16,18,20,22,24,26,-1,-1,-1,-1,28,30,32,34,36,38,-1,40,42,44,46,48,50,52,54,56,58,60,-1,62,64,66,68,70,72,74,-1,-1,-1,-1,-1,-1,-1,-1,-1,-1,-1,-1,-1,-1,-1,-1,-1,-1,-1,-1,-1,-1,-1,-1,-1,-1,-1,-1,-1,-1,-1,-1],"split_conditions":[8.26336E0,-3.2453837E0,4.9531384E0,-8.13661E0,3.9356546E0,-1.4974424E0,3.7796302E0,2.1588893E0,2.42836E0,-3.2905297E0,-4.8249545E0,-1.0078087E0,-1.851856E0,-8.52171E-3,-3.3052862E-4,-7.3809032E-3,-1.9905568E-4,-3.7287698E0,5.145399E0,2.1036243E0,-2.878117E-1,-1.3790234E0,-8.332168E-1,-4.1237893E-3,2.5054364E0,4.2848814E-1,1.7810279E0,2.580271E-1,-1.6768637E0,-9.523988E-1,-1.4427428E0,-1.3507683E0,-1.3967927E0,-4.7988933E-1,-4.0947747E0,-1.10555515E-2,-6.259655E-1,8.8688207E-1,2.5627857E-1,-1.9997516E0,1.1275918E0,-3.5144763E0,-1.0416021E0,2.1832348E-3,5.067051E-4,-1.505414E-4,2.901407E-3,5.9287475E-5,-2.4494054E-3,3.1307893E-4,2.2937735E-3,-2.1135807E-5,-1.392839E-3,3.436506E-5,-4.3449984E-3,4.0365607E-3,-5.992273E-5,8.649596E-4,6.267343E-3,-1.9234061E-3,-2.778642E-5,6.9045246E-4,-1.7826677E-3,7.261017E-3,8.469292E-4,1.7922483E-3,-1.6254016E-4,-2.5087595E-4,-1.5332784E-3,-1.0335446E-4,2.3094715E-4,-1.028061E-4,-1.4430591E-3,1.0202229E-3,1.2018532E-5],"split_indices":[57,43,24,55,49,50,4,0,8,0,3,8,58,0,0,0,0,25,13,57,43,2,3,0,18,31,5,24,47,13,6,52,12,43,35,0,17,41,37,3,0,4,0,0,0,0,0,0,0,0,0,0,0,0,0,0,0,0,0,0,0,0,0,0,0,0,0,0,0,0,0,0,0,0,0],"split_type":[0,0,0,0,0,0,0,0,0,0,0,0,0,0,0,0,0,0,0,0,0,0,0,0,0,0,0,0,0,0,0,0,0,0,0,0,0,0,0,0,0,0,0,0,0,0,0,0,0,0,0,0,0,0,0,0,0,0,0,0,0,0,0,0,0,0,0,0,0,0,0,0,0,0,0],"sum_hessian":[6.57E2,6.21E2,3.6E1,1.23E2,4.98E2,3.2E1,4E0,4E0,1.19E2,4.04E2,9.4E1,1.2E1,2E1,3E0,1E0,3E0,1E0,8.4E1,3.5E1,6E1,3.44E2,8E0,8.6E1,3E0,9E0,1.2E1,8E0,1.9E1,6.5E1,3E1,5E0,3.6E1,2.4E1,1.13E2,2.31E2,1E0,7E0,2.9E1,5.7E1,7E0,2E0,8E0,4E0,5E0,3E0,1.2E1,7E0,2.4E1,4.1E1,1.3E1,1.7E1,1E0,4E0,1.4E1,2.2E1,5E0,1.9E1,1.05E2,8E0,3.1E1,2E2,4E0,3E0,1.1E1,1.8E1,2.4E1,3.3E1,1E0,6E0,1E0,1E0,2E0,6E0,1E0,3E0],"tree_param":{"num_deleted":"0","num_feature":"60","num_nodes":"75","size_leaf_vector":"0"}},{"base_weights":[-4.4035187E-5,1.8133133E-4,-3.831439E-3,1.2301306E-4,1.819849E-2,-1.5706881E-3,-1.7986108E-2,1.2833732E-3,-7.50055E-4,-7.621382E-3,5.6184E-5,-2.5497118E-2,-4.4797263E-3,1.8647024E-4,5.4130172E-3,-1.4948719E-3,4.1626785E-3,-9.718955E-3,-1.584967E-3,5.7388544E-3,-8.9326873E-4,-9.365082E-4,-5.783081E-3,2.710504E-3,-1.5577949E-3,2.4505306E-2,3.4731238E-3,-2.9395262E-2,-1.2173604E-3,1.0742402E-2,1.5998475E-3,-2.9277802E-4,-2.0846725E-3,2.5585492E-3,7.639885E-3,1.2370845E-3,-2.7910357E-3,-1.4255244E-3,5.142839E-3,1.6965969E-3,-5.4025403E-3,2.9634058E-2,1.9951463E-3,6.7907576E-3,-2.6464914E-3,-1.9579215E-3,4.7864965E-3,1.5474364E-2,7.638931E-5,5.9672743E-3,-1.4146474E-4,-7.369178E-4,3.3339064E-3,-5.6046247E-5,-4.000359E-3],"categories":[],"categories_nodes":[],"categories_segments":[],"categories_sizes":[],"default_left":[1,1,1,1,0,1,1,1,1,1,1,0,1,1,1,1,1,0,1,1,1,0,0,1,1,1,1,0,1,1,1,0,0,0,0,1,1,0,0,0,0,0,0,0,0,0,0,0,0,0,0,0,0,0,0],"id":79,"left_children":[1,3,5,7,-1,9,11,13,15,17,19,-1,21,23,25,27,29,-1,31,33,35,-1,-1,37,39,41,43,-1,45,47,49,-1,-1,-1,-1,51,53,-1,-1,-1,-1,-1,-1,-1,-1,-1,-1,-1,-1,-1,-1,-1,-1,-1,-1],"loss_changes":[5.623333E-4,6.5131515E-4,1.155756E-3,6.300812E-4,0E0,3.2527043E-4,3.930129E-4,1.2084523E-3,1.3051985E-3,7.32285E-5,1.5080287E-4,0E0,8.43831E-6,9.3757024E-4,1.9889623E-3,2.3567036E-3,7.753615E-4,0E0,1.3267959E-6,4.6364003E-6,1.0048267E-4,0E0,0E0,8.8256935E-4,1.5857168E-3,5.181208E-4,1.0737092E-3,0E0,1.3743623E-3,6.5494305E-4,2.67021E-4,0E0,0E0,0E0,0E0,5.2126383E-5,4.277313E-5,0E0,0E0,0E0,0E0,0E0,0E0,0E0,0E0,0E0,0E0,0E0,0E0,0E0,0E0,0E0,0E0,0E0,0E0],"parents":[2147483647,0,0,1,1,2,2,3,3,5,5,6,6,7,7,8,8,9,9,10,10,12,12,13,13,14,14,15,15,16,16,18,18,19,19,20,20,23,23,24,24,25,25,26,26,28,28,29,29,30,30,35,35,36,36],"right_children":[2,4,6,8,-1,10,12,14,16,18,20,-1,22,24,26,28,30,-1,32,34,36,-1,-1,38,40,42,44,-1,46,48,50,-1,-1,-1,-1,52,54,-1,-1,-1,-1,-1,-1,-1,-1,-1,-1,-1,-1,-1,-1,-1,-1,-1,-1],"split_conditions":[8.26336E0,8.059875E0,4.9531384E0,-3.4880328E-1,5.459547E-3,-4.347684E0,1.0899384E0,-1.0976722E0,5.1533937E0,2.1016035E0,-7.105318E0,-7.649136E-3,-2.456815E0,-1.0781596E0,-6.938816E0,-2.9667836E-1,-2.8749008E0,-2.9156865E-3,1.59378E0,-1.414855E0,1.9994658E-1,-2.8095246E-4,-1.7349244E-3,-9.47343E-1,5.3462315E-1,5.044818E0,1.7815351E0,-8.818579E-3,5.7848797E0,3.4206333E0,-9.355778E-1,-8.783341E-5,-6.2540174E-4,7.675648E-4,2.2919655E-3,-8.7681043E-1,-2.5129673E0,-4.2765733E-4,1.5428518E-3,5.089791E-4,-1.6207622E-3,8.890218E-3,5.985439E-4,2.0372274E-3,-7.9394743E-4,-5.873765E-4,1.435949E-3,4.6423096E-3,2.2916794E-5,1.7901823E-3,-4.2439424E-5,-2.2107534E-4,1.000172E-3,-1.6813874E-5,-1.2001079E-3],"split_indices":[57,57,24,16,0,56,3,16,21,4,4,0,0,13,9,16,41,0,0,0,12,0,0,26,49,1,4,0,30,51,49,0,0,0,0,48,55,0,0,0,0,0,0,0,0,0,0,0,0,0,0,0,0,0,0],"split_type":[0,0,0,0,0,0,0,0,0,0,0,0,0,0,0,0,0,0,0,0,0,0,0,0,0,0,0,0,0,0,0,0,0,0,0,0,0,0,0,0,0,0,0,0,0,0,0,0,0,0,0,0,0,0,0],"sum_hessian":[6.57E2,6.21E2,3.6E1,6.2E2,1E0,3.2E1,4E0,2.66E2,3.54E2,6E0,2.6E1,2E0,2E0,2.11E2,5.5E1,3.08E2,4.6E1,4E0,2E0,3E0,2.3E1,1E0,1E0,8.6E1,1.25E2,4E0,5.1E1,2E0,3.06E2,1.2E1,3.4E1,1E0,1E0,2E0,1E0,1.1E1,1.2E1,3.2E1,5.4E1,6.8E1,5.7E1,3E0,1E0,3.3E1,1.8E1,2.73E2,3.3E1,8E0,4E0,9E0,2.5E1,6E0,5E0,4E0,8E0],"tree_param":{"num_deleted":"0","num_feature":"60","num_nodes":"55","size_leaf_vector":"0"}},{"base_weights":[-2.4783658E-5,-2.64443E-4,3.3255634E-3,2.9461624E-3,-5.3529616E-4,1.0346259E-2,-6.625984E-4,5.7933824E-3,-2.5866136E-3,-3.729545E-3,-2.4666594E-4,1.9007428E-2,3.2488152E-3,-2.5526392E-3,5.642193E-3,7.5977067E-3,-3.2916416E-3,-5.994553E-3,4.660368E-3,-1.8401499E-3,-2.3580506E-2,5.781759E-3,-4.2418504E-4,2.2687841E-2,6.537596E-3,5.851485E-3,-5.241513E-4,-5.0845603E-3,1.2473142E-3,1.02202095E-4,7.837748E-3,1.8544272E-2,5.456708E-3,-8.107941E-3,1.1434928E-3,-1.23339E-2,-2.5110047E-3,2.2236109E-3,6.3559213E-3,-4.325103E-3,4.4182083E-3,-2.7574241E-2,-5.799651E-3,2.3968464E-3,1.2072215E-2,2.2764162E-3,-8.325925E-4,6.8777464E-3,2.5326412E-3,5.0097704E-4,-1.3745626E-3,1.1847317E-3,-6.9020703E-3,5.0641103E-3,-2.1412347E-3,2.585888E-3,2.300177E-2,6.3417414E-3,-2.8524399E-3,-6.6664815E-4,1.969089E-3,-3.681932E-3,1.0581613E-3,-8.838944E-3,1.7763587E-4,1.4224052E-4,6.3028336E-3,5.2275904E-3,-8.333723E-4,1.0671332E-3,1.43929375E-2,3.594245E-4,-2.2506297E-3,2.6750565E-3,-2.0372868E-4,-7.593822E-3,-2.5261242E-3,9.6049905E-4,5.849888E-3],"categories":[],"categories_nodes":[],"categories_segments":[],"categories_sizes":[],"default_left":[1,1,1,1,1,1,1,1,1,1,1,1,1,1,1,1,1,1,1,1,1,1,1,0,0,1,1,1,1,0,0,1,1,0,1,0,1,0,0,1,1,0,0,1,0,1,1,0,0,0,0,1,1,1,0,0,0,0,0,0,0,0,0,0,0,0,0,0,0,0,0,0,0,0,0,0,0,0,0],"id":80,"left_children":[1,3,5,7,9,11,13,15,17,19,21,23,25,27,29,31,33,35,37,39,41,43,45,-1,-1,47,49,51,53,-1,-1,55,57,-1,59,-1,61,-1,-1,63,65,-1,-1,67,-1,69,71,-1,-1,-1,-1,73,75,77,-1,-1,-1,-1,-1,-1,-1,-1,-1,-1,-1,-1,-1,-1,-1,-1,-1,-1,-1,-1,-1,-1,-1,-1,-1],"loss_changes":[5.292152E-4,5.363827E-4,1.238841E-3,7.7113067E-4,5.2275154E-4,9.218027E-4,3.5997556E-4,5.4956356E-4,4.4779055E-4,1.719405E-3,5.6107633E-4,1.729352E-4,1.0126492E-4,2.2762922E-4,8.434249E-5,5.315972E-4,1.3743697E-4,2.340306E-4,1.0656819E-5,7.0338516E-4,1.2412737E-4,2.9045442E-4,5.621917E-4,0E0,0E0,3.017136E-6,5.047528E-6,1.6770011E-4,1.4017744E-4,4.1612478E-7,0E0,2.2505794E-4,1.9458245E-4,0E0,7.2904727E-6,0E0,4.150919E-5,0E0,0E0,6.5195886E-4,1.03865255E-4,0E0,0E0,1.0493968E-4,0E0,9.663451E-4,7.4793224E-4,0E0,0E0,4.0770345E-7,0E0,8.822013E-6,1.4114834E-5,1.050382E-5,0E0,0E0,0E0,0E0,0E0,0E0,0E0,0E0,0E0,0E0,0E0,0E0,0E0,0E0,0E0,0E0,0E0,0E0,0E0,0E0,0E0,0E0,0E0,0E0,0E0],"parents":[2147483647,0,0,1,1,2,2,3,3,4,4,5,5,6,6,7,7,8,8,9,9,10,10,11,11,12,12,13,13,14,14,15,15,16,16,17,17,18,18,19,19,20,20,21,21,22,22,25,25,26,26,27,27,28,28,31,31,32,32,34,34,36,36,39,39,40,40,43,43,45,45,46,46,51,51,52,52,53,53],"right_children":[2,4,6,8,10,12,14,16,18,20,22,24,26,28,30,32,34,36,38,40,42,44,46,-1,-1,48,50,52,54,-1,-1,56,58,-1,60,-1,62,-1,-1,64,66,-1,-1,68,-1,70,72,-1,-1,-1,-1,74,76,78,-1,-1,-1,-1,-1,-1,-1,-1,-1,-1,-1,-1,-1,-1,-1,-1,-1,-1,-1,-1,-1,-1,-1,-1,-1],"split_conditions":[7.64404E0,-6.1193924E0,-6.3127816E-1,1.2447453E0,-6.4209585E0,-1.1023812E0,3.2758822E0,2.4996314E0,2.6082702E0,-6.55126E0,-5.3104715E0,2.1749465E0,-4.5298166E0,1.2561471E0,-1.4692688E0,-2.313489E0,-4.1663027E-1,-1.39024E0,3.5511937E0,3.6458464E0,6.826082E0,1.4208572E0,-4.538286E0,6.8063526E-3,1.961279E-3,1.6859032E0,9.940972E-1,-4.161641E0,7.2631776E-1,3.066063E-5,2.3513245E-3,-7.468193E-1,3.9495714E0,-2.4323822E-3,-1.7660992E0,-3.70017E-3,-1.0629596E0,6.670833E-4,1.9067765E-3,-1.8883827E-1,-1.98382E0,-8.272273E-3,-1.7398954E-3,-5.462441E-1,3.6216646E-3,-4.900873E0,9.188169E-1,2.063324E-3,7.597924E-4,1.5029311E-4,-4.123688E-4,-2.2762802E0,6.9973803E0,-1.4465048E0,-6.4237043E-4,7.757664E-4,6.9005312E-3,1.9025225E-3,-8.55732E-4,-1.9999445E-4,5.9072673E-4,-1.1045797E-3,3.174484E-4,-2.6516833E-3,5.329076E-5,4.2672156E-5,1.8908501E-3,1.5682773E-3,-2.500117E-4,3.2013995E-4,4.3178815E-3,1.07827356E-4,-6.7518896E-4,8.02517E-4,-6.1118604E-5,-2.2781468E-3,-7.578373E-4,2.8814972E-4,1.7549664E-3],"split_indices":[36,17,8,5,47,7,53,11,46,47,47,14,25,18,0,49,1,0,0,29,0,10,44,0,0,1,0,22,46,0,0,0,35,0,0,0,6,0,0,44,43,0,0,52,0,44,41,0,0,0,0,0,12,4,0,0,0,0,0,0,0,0,0,0,0,0,0,0,0,0,0,0,0,0,0,0,0,0,0],"split_type":[0,0,0,0,0,0,0,0,0,0,0,0,0,0,0,0,0,0,0,0,0,0,0,0,0,0,0,0,0,0,0,0,0,0,0,0,0,0,0,0,0,0,0,0,0,0,0,0,0,0,0,0,0,0,0,0,0,0,0,0,0,0,0,0,0,0,0,0,0,0,0,0,0,0,0,0,0,0,0],"sum_hessian":[6.57E2,6.14E2,4.3E1,4.7E1,5.67E2,1.5E1,2.8E1,3.1E1,1.6E1,4.6E1,5.21E2,6E0,9E0,2.2E1,6E0,2.6E1,5E0,1.1E1,5E0,4.3E1,3E0,1.4E1,5.07E2,4E0,2E0,5E0,4E0,1.3E1,9E0,2E0,4E0,3E0,2.3E1,2E0,3E0,3E0,8E0,3E0,2E0,3.1E1,1.2E1,2E0,1E0,1E1,4E0,6.6E1,4.41E2,3E0,2E0,2E0,2E0,3E0,1E1,4E0,5E0,1E0,2E0,2.1E1,2E0,1E0,2E0,6E0,2E0,1.5E1,1.6E1,4E0,8E0,5E0,5E0,6.1E1,5E0,2.4E2,2.01E2,1E0,2E0,8E0,2E0,1E0,3E0],"tree_param":{"num_deleted":"0","num_feature":"60","num_nodes":"79","size_leaf_vector":"0"}},{"base_weights":[6.848758E-6,-4.2326888E-4,1.6456412E-3,-8.405509E-3,-2.6684455E-4,-1.3255394E-3,3.2629692E-3,-2.0500943E-2,-2.9304624E-4,4.105559E-3,-5.3730997E-4,-3.0996322E-3,1.6387984E-3,-3.0826515E-4,5.3729513E-3,-2.986379E-3,2.473548E-3,2.0609379E-2,1.5084909E-3,-1.2662217E-3,1.4573128E-3,6.094488E-5,-5.706046E-3,-1.1358261E-3,3.3519815E-3,1.3995497E-3,-6.033607E-3,8.427577E-3,1.5242455E-3,-5.2542984E-4,-3.631552E-3,2.307415E-3,2.5940895E-2,-1.8538118E-3,9.725686E-3,-3.3277867E-3,2.238238E-4,-2.3667105E-3,3.062526E-3,1.8788595E-3,-2.2850803E-3,-7.823259E-3,9.399176E-4,-2.3842454E-3,1.7396212E-3,1.9783643E-3,5.6046247E-3,-3.4133103E-3,3.254716E-3,-1.0717943E-2,-1.0794163E-3,5.8331797E-3,2.075181E-2,8.571616E-3,-1.0185465E-3,-4.7156215E-3,2.1679136E-3,1.37864305E-2,-1.6376972E-3,-4.969827E-3,5.015526E-3,-2.550749E-3,2.4656625E-3,-1.5795276E-2,-3.8072382E-4,1.0123856E-3,6.69725E-3,-1.0561943E-3,2.3777655E-3,-2.8661727E-3,-5.548994E-4,-1.5039481E-3,-9.568657E-3,-5.9226155E-4,3.534317E-3,-1.090467E-4,2.2529215E-3,-5.668383E-3,-9.2658994E-4,5.612997E-3,-9.843297E-4,-2.5941927E-3,7.951657E-4,8.343123E-3,-2.5299618E-3,2.3172438E-2,5.534649E-3,1.1127472E-2,3.8728565E-3,4.438019E-3,-2.660064E-3],"categories":[],"categories_nodes":[],"categories_segments":[],"categories_sizes":[],"default_left":[1,1,1,1,1,1,1,0,1,1,1,1,1,1,1,1,0,1,1,1,1,1,1,1,1,1,1,1,1,0,0,0,0,1,1,1,1,1,1,1,1,1,1,0,0,1,0,1,1,0,1,1,1,1,1,0,0,0,0,0,0,0,0,0,0,0,0,0,0,0,0,0,0,0,0,0,0,0,0,0,0,0,0,0,0,0,0,0,0,0,0],"id":81,"left_children":[1,3,5,7,9,11,13,-1,15,17,19,21,23,25,27,29,-1,31,33,35,37,39,41,43,45,47,49,51,53,-1,-1,-1,-1,55,57,59,61,63,65,67,69,71,73,-1,-1,75,-1,77,79,-1,81,83,85,87,89,-1,-1,-1,-1,-1,-1,-1,-1,-1,-1,-1,-1,-1,-1,-1,-1,-1,-1,-1,-1,-1,-1,-1,-1,-1,-1,-1,-1,-1,-1,-1,-1,-1,-1,-1,-1],"loss_changes":[4.6450333E-4,6.4953486E-4,6.626614E-4,9.7522995E-4,6.088716E-4,2.627712E-4,6.7229266E-4,0E0,5.9546466E-5,1.2547572E-3,7.055348E-4,2.557186E-4,9.412263E-5,3.408903E-4,6.455105E-4,4.442827E-6,7.25684E-7,3.3045257E-4,7.640044E-4,1.0912429E-3,8.052364E-4,6.826645E-5,2.4655886E-4,3.2865795E-5,2.6043243E-5,2.5218306E-4,1.7408765E-4,8.7014376E-4,4.7465056E-4,0E0,0E0,0E0,0E0,2.4041129E-4,3.917283E-4,2.0662344E-3,1.2938594E-3,1.0340754E-3,6.787757E-4,1.5690228E-5,5.4473276E-6,1.2899551E-4,2.1968664E-5,2.3737084E-7,0E0,5.4036973E-6,0E0,3.9609615E-5,2.0546226E-4,0E0,1.6260678E-5,5.8786507E-4,5.5924058E-5,4.0970393E-5,1.9094636E-4,0E0,0E0,0E0,0E0,0E0,0E0,0E0,0E0,0E0,0E0,0E0,0E0,0E0,0E0,0E0,0E0,0E0,0E0,0E0,0E0,0E0,0E0,0E0,0E0,0E0,0E0,0E0,0E0,0E0,0E0,0E0,0E0,0E0,0E0,0E0,0E0],"parents":[2147483647,0,0,1,1,2,2,3,3,4,4,5,5,6,6,8,8,9,9,10,10,11,11,12,12,13,13,14,14,15,15,17,17,18,18,19,19,20,20,21,21,22,22,23,23,24,24,25,25,26,26,27,27,28,28,33,33,34,34,35,35,36,36,37,37,38,38,39,39,40,40,41,41,42,42,45,45,47,47,48,48,50,50,51,51,52,52,53,53,54,54],"right_children":[2,4,6,8,10,12,14,-1,16,18,20,22,24,26,28,30,-1,32,34,36,38,40,42,44,46,48,50,52,54,-1,-1,-1,-1,56,58,60,62,64,66,68,70,72,74,-1,-1,76,-1,78,80,-1,82,84,86,88,90,-1,-1,-1,-1,-1,-1,-1,-1,-1,-1,-1,-1,-1,-1,-1,-1,-1,-1,-1,-1,-1,-1,-1,-1,-1,-1,-1,-1,-1,-1,-1,-1,-1,-1,-1,-1],"split_conditions":[3.5285053E0,-9.800821E0,-1.6833987E0,-6.153453E-1,-6.9067345E0,2.8333843E0,-7.381324E-1,-6.1502834E-3,2.2709026E0,-2.5557415E0,2.7492995E0,1.1049638E0,-1.3831451E0,3.4904544E0,6.13127E-1,-1.5430591E1,7.4206444E-4,-5.5718675E0,2.3817244E0,-6.5578806E-1,-1.5060468E0,1.4620652E0,3.917962E0,1.8742418E0,3.8699002E0,-2.070806E0,1.8848428E-1,6.0608597E0,-5.258973E0,-1.5762897E-4,-1.0894657E-3,6.9222454E-4,7.782269E-3,2.895672E0,7.411059E0,4.8911304E0,-7.7359945E-2,-3.2387843E0,1.2679479E0,-2.9030128E0,8.535275E0,-4.5358725E0,1.5564029E0,-7.1527367E-4,5.218864E-4,-6.6509886E0,1.6813875E-3,6.29766E-1,-1.9702932E0,-3.215383E-3,6.1923075E0,3.7080712E0,3.455189E0,-2.5684786E0,4.111436E-1,-1.4146864E-3,6.503741E-4,4.1359295E-3,-4.913092E-4,-1.4909481E-3,1.5046579E-3,-7.6522474E-4,7.396988E-4,-4.7385828E-3,-1.1421715E-4,3.037157E-4,2.009175E-3,-3.168583E-4,7.1332965E-4,-8.5985183E-4,-1.6646982E-4,-4.5118446E-4,-2.8705972E-3,-1.7767848E-4,1.0602952E-3,-3.271401E-5,6.7587645E-4,-1.700515E-3,-2.77977E-4,1.6838991E-3,-2.9529893E-4,-7.7825785E-4,2.3854972E-4,2.5029369E-3,-7.5898855E-4,6.9517316E-3,1.6603947E-3,3.3382417E-3,1.161857E-3,1.3314057E-3,-7.9801923E-4],"split_indices":[3,9,34,49,9,37,0,0,2,0,23,30,6,1,39,0,0,0,40,43,42,41,51,19,29,30,2,41,18,0,0,0,0,46,0,5,25,5,7,0,3,42,4,0,0,8,0,1,0,0,1,25,0,1,0,0,0,0,0,0,0,0,0,0,0,0,0,0,0,0,0,0,0,0,0,0,0,0,0,0,0,0,0,0,0,0,0,0,0,0,0],"split_type":[0,0,0,0,0,0,0,0,0,0,0,0,0,0,0,0,0,0,0,0,0,0,0,0,0,0,0,0,0,0,0,0,0,0,0,0,0,0,0,0,0,0,0,0,0,0,0,0,0,0,0,0,0,0,0,0,0,0,0,0,0,0,0,0,0,0,0,0,0,0,0,0,0,0,0,0,0,0,0,0,0,0,0,0,0,0,0,0,0,0,0],"sum_hessian":[6.57E2,5.21E2,1.36E2,9E0,5.12E2,4.8E1,8.8E1,3E0,6E0,2.9E1,4.83E2,3E1,1.8E1,3.3E1,5.5E1,3E0,3E0,3E0,2.6E1,3.54E2,1.29E2,1.4E1,1.6E1,7E0,1.1E1,2.6E1,7E0,3E1,2.5E1,1E0,2E0,1E0,2E0,1.9E1,7E0,1.48E2,2.06E2,3.8E1,9.1E1,8E0,6E0,1.2E1,4E0,5E0,2E0,8E0,3E0,7E0,1.9E1,3E0,4E0,2.6E1,4E0,6E0,1.9E1,1.1E1,8E0,5E0,2E0,1.24E2,2.4E1,9.2E1,1.14E2,4E0,3.4E1,5.9E1,3.2E1,1E0,7E0,4E0,2E0,3E0,9E0,3E0,1E0,1E0,7E0,3E0,4E0,1.2E1,7E0,2E0,2E0,2E1,6E0,3E0,1E0,3E0,3E0,4E0,1.5E1],"tree_param":{"num_deleted":"0","num_feature":"60","num_nodes":"91","size_leaf_vector":"0"}},{"base_weights":[2.3415114E-5,6.8149846E-3,-6.0080998E-5,1.6645908E-2,7.6369167E-4,-1.63095E-2,-9.9903555E-6,3.050123E-3,-1.1420548E-3,2.8033296E-3,-2.3391967E-4,8.104917E-3,-1.6203093E-3,4.888678E-4,-1.6711802E-3,1.2320332E-2,4.2388346E-3,9.6577907E-4,-6.8997946E-3,-4.137427E-3,1.1427655E-3,-1.629643E-2,-1.1403235E-3,7.1847844E-3,1.8227458E-2,7.185757E-3,-3.968676E-4,-7.361524E-4,7.53206E-3,-1.0195967E-2,-2.3058802E-4,-2.5106123E-2,-2.7406872E-3,6.34296E-3,4.95304E-4,-2.1351378E-3,-2.1533918E-2,-5.4347944E-3,-1.7298643E-4],"categories":[],"categories_nodes":[],"categories_segments":[],"categories_sizes":[],"default_left":[1,1,1,0,1,0,1,0,0,1,1,1,1,1,1,1,1,1,1,1,1,1,1,0,0,0,0,0,0,0,0,0,0,0,0,0,0,0,0],"id":82,"left_children":[1,3,5,-1,7,-1,9,-1,-1,11,13,15,17,19,21,23,25,27,29,31,33,35,37,-1,-1,-1,-1,-1,-1,-1,-1,-1,-1,-1,-1,-1,-1,-1,-1],"loss_changes":[3.7354126E-4,4.63206E-4,5.297145E-4,0E0,2.9627558E-5,0E0,4.1014585E-4,0E0,0E0,1.1388432E-3,6.272338E-4,3.0631328E-4,3.7530047E-4,1.2208278E-3,1.5497269E-3,1.7240294E-4,1.8044552E-4,2.1787659E-4,1.9549462E-4,1.3955826E-3,1.185383E-3,4.7320954E-4,8.1328314E-4,0E0,0E0,0E0,0E0,0E0,0E0,0E0,0E0,0E0,0E0,0E0,0E0,0E0,0E0,0E0,0E0],"parents":[2147483647,0,0,1,1,2,2,4,4,6,6,9,9,10,10,11,11,12,12,13,13,14,14,15,15,16,16,17,17,18,18,19,19,20,20,21,21,22,22],"right_children":[2,4,6,-1,8,-1,10,-1,-1,12,14,16,18,20,22,24,26,28,30,32,34,36,38,-1,-1,-1,-1,-1,-1,-1,-1,-1,-1,-1,-1,-1,-1,-1,-1],"split_conditions":[-1.2044887E1,-9.877617E-1,-1.1394555E1,4.9937726E-3,4.6015593E-1,-4.8928503E-3,-6.4828687E0,9.1503694E-4,-3.4261646E-4,1.2822294E0,1.852881E0,2.4739589E-1,3.777858E-1,-3.2288418E0,1.909601E0,3.8407893E0,1.6507728E0,2.208651E0,2.4061532E0,-6.7602186E0,-1.9420762E0,-1.3367027E0,-2.6581578E0,2.1554355E-3,5.4682377E-3,2.1557272E-3,-1.19060285E-4,-2.2084573E-4,2.2596181E-3,-3.0587902E-3,-6.917641E-5,-7.531837E-3,-8.222062E-4,1.9028881E-3,1.485912E-4,-6.405414E-4,-6.4601754E-3,-1.6304384E-3,-5.189593E-5],"split_indices":[53,3,53,0,3,0,40,0,0,2,19,3,5,40,19,20,0,19,12,24,40,4,50,0,0,0,0,0,0,0,0,0,0,0,0,0,0,0,0],"split_type":[0,0,0,0,0,0,0,0,0,0,0,0,0,0,0,0,0,0,0,0,0,0,0,0,0,0,0,0,0,0,0,0,0,0,0,0,0,0,0],"sum_hessian":[6.57E2,7E0,6.5E2,2E0,5E0,1E0,6.49E2,2E0,3E0,4.7E1,6.02E2,2.1E1,2.6E1,4.01E2,2.01E2,9E0,1.2E1,1.8E1,8E0,4.9E1,3.52E2,6E0,1.95E2,6E0,3E0,7E0,5E0,1.5E1,3E0,5E0,3E0,2E0,4.7E1,3.8E1,3.14E2,2E0,4E0,3.5E1,1.6E2],"tree_param":{"num_deleted":"0","num_feature":"60","num_nodes":"39","size_leaf_vector":"0"}},{"base_weights":[7.4939844E-6,-1.6342723E-4,3.4697854E-3,-1.0313073E-4,-1.2690823E-2,2.1604935E-2,1.4740877E-3,-1.1770093E-3,5.721465E-4,-2.1511912E-3,-1.6885042E-2,6.7453384E-3,2.5662065E-2,3.7440432E-3,-1.6077069E-3,4.6020214E-5,-4.728482E-3,4.2710733E-3,2.000817E-5,-2.293567E-3,4.701962E-3,-4.313767E-3,1.3280256E-3,5.9315795E-3,-6.808761E-4,1.5912978E-3,-8.761799E-3,-8.413754E-3,7.260761E-3,1.6010377E-3,-1.279108E-3,-3.1980872E-4,-3.1205416E-3,1.9454956E-4,5.380445E-3,-5.782521E-3,-4.2792162E-4,-5.5360793E-5,3.1909943E-3,-7.557462E-5,1.1946291E-2,3.7080413E-3,-1.5471989E-3,-5.501185E-3,4.1205655E-3,-2.199416E-3,-1.5931144E-2,2.1510124E-3,-1.3248799E-2,1.647291E-3,1.2033881E-2,2.0574217E-3,-8.14655E-3,-4.9695163E-3,8.706484E-5,6.272712E-3,2.6982757E-3,6.220341E-4,-3.8021803E-4],"categories":[],"categories_nodes":[],"categories_segments":[],"categories_sizes":[],"default_left":[1,1,1,1,1,1,1,1,1,0,0,0,0,1,1,1,1,1,1,1,1,1,1,1,1,1,1,1,1,1,1,0,0,0,1,0,0,1,0,0,0,0,0,0,0,0,0,0,0,0,0,0,0,0,0,0,0,0,0],"id":83,"left_children":[1,3,5,7,9,11,13,15,17,-1,-1,-1,-1,19,21,23,25,27,29,31,33,35,37,39,41,43,45,47,49,51,53,-1,-1,-1,55,-1,-1,57,-1,-1,-1,-1,-1,-1,-1,-1,-1,-1,-1,-1,-1,-1,-1,-1,-1,-1,-1,-1,-1],"loss_changes":[3.8995768E-4,4.7305608E-4,1.0901132E-3,4.5462718E-4,9.629363E-5,7.762574E-6,2.0888989E-4,1.0513582E-3,7.862075E-4,0E0,0E0,0E0,0E0,1.091045E-4,1.0900429E-4,7.7839126E-4,1.5943024E-3,1.957274E-3,6.9217215E-4,3.8987673E-6,4.4826244E-5,3.7476973E-5,1.8217093E-5,7.235288E-4,6.216966E-4,4.7113764E-4,1.7527845E-3,5.3930946E-4,1.0787214E-3,6.929547E-4,9.331538E-4,0E0,0E0,6.66354E-7,1.41861965E-5,0E0,7.202816E-7,1.3367917E-6,0E0,0E0,0E0,0E0,0E0,0E0,0E0,0E0,0E0,0E0,0E0,0E0,0E0,0E0,0E0,0E0,0E0,0E0,0E0,0E0,0E0],"parents":[2147483647,0,0,1,1,2,2,3,3,4,4,5,5,6,6,7,7,8,8,13,13,14,14,15,15,16,16,17,17,18,18,19,19,20,20,21,21,22,22,23,23,24,24,25,25,26,26,27,27,28,28,29,29,30,30,34,34,37,37],"right_children":[2,4,6,8,10,12,14,16,18,-1,-1,-1,-1,20,22,24,26,28,30,32,34,36,38,40,42,44,46,48,50,52,54,-1,-1,-1,56,-1,-1,58,-1,-1,-1,-1,-1,-1,-1,-1,-1,-1,-1,-1,-1,-1,-1,-1,-1,-1,-1,-1,-1],"split_conditions":[8.827742E0,8.665504E0,-3.711464E0,-7.5383824E-1,-5.650433E-1,-6.466973E-1,-6.4182204E-1,-1.7580342E0,8.2111925E-2,-6.453574E-4,-5.065513E-3,2.0236017E-3,7.6986197E-3,-6.48282E0,-2.4527985E-1,-5.089819E0,-1.3854485E0,-4.013272E0,-1.1851184E-1,1.3506124E0,-8.818859E0,2.3446453E0,3.4096959E0,-4.253105E0,-3.8599706E0,-3.0305502E0,-9.094882E-1,-1.9191365E0,5.641766E-1,9.130689E0,-1.8776073E0,-9.594262E-5,-9.361625E-4,5.836487E-5,1.4691308E0,-1.7347563E-3,-1.2837649E-4,-5.002941E0,9.572983E-4,-2.2672388E-5,3.5838874E-3,1.1124124E-3,-4.6415968E-4,-1.6503556E-3,1.2361697E-3,-6.598248E-4,-4.7793435E-3,6.4530375E-4,-3.97464E-3,4.9418735E-4,3.6101644E-3,6.172265E-4,-2.443965E-3,-1.490855E-3,2.6119453E-5,1.8818136E-3,8.0948276E-4,1.8661022E-4,-1.1406541E-4],"split_indices":[49,49,21,38,0,0,23,38,38,0,0,0,0,8,20,1,53,25,0,0,57,16,1,38,30,48,34,8,14,56,5,0,0,0,45,0,0,0,0,0,0,0,0,0,0,0,0,0,0,0,0,0,0,0,0,0,0,0,0],"split_type":[0,0,0,0,0,0,0,0,0,0,0,0,0,0,0,0,0,0,0,0,0,0,0,0,0,0,0,0,0,0,0,0,0,0,0,0,0,0,0,0,0,0,0,0,0,0,0,0,0,0,0,0,0,0,0,0,0,0,0],"sum_hessian":[6.57E2,6.27E2,3E1,6.25E2,2E0,2E0,2.8E1,2.41E2,3.84E2,1E0,1E0,1E0,1E0,1.6E1,1.2E1,1.8E2,6.1E1,4.9E1,3.35E2,2E0,1.4E1,6E0,6E0,1.9E1,1.61E2,2.4E1,3.7E1,9E0,4E1,1.51E2,1.84E2,1E0,1E0,2E0,1.2E1,4E0,2E0,4E0,2E0,1E1,9E0,2.6E1,1.35E2,6E0,1.8E1,2E1,1.7E1,3E0,6E0,1.9E1,2.1E1,1.45E2,6E0,4.9E1,1.35E2,8E0,4E0,1E0,3E0],"tree_param":{"num_deleted":"0","num_feature":"60","num_nodes":"59","size_leaf_vector":"0"}},{"base_weights":[6.3801963E-6,1.8948305E-3,-2.5085075E-4,-1.4289152E-3,5.0102267E-3,5.796278E-3,-3.6710963E-4,-4.055699E-3,1.549578E-3,9.3277525E-3,1.04375185E-5,6.271705E-3,5.210042E-4,2.3639029E-4,-1.6760061E-3,-6.074586E-3,-1.5683472E-5,3.262792E-3,-3.8999796E-3,1.5922783E-2,2.504995E-3,-4.063048E-3,4.490228E-3,-4.5526598E-5,8.437168E-3,7.965298E-5,-3.8715757E-3,-1.357615E-3,-7.237613E-3,-2.246067E-3,1.7717599E-3,1.629216E-3,7.347822E-3,-9.818375E-4,-4.3840557E-3,1.4612167E-3,2.1163218E-2,8.926633E-3,3.2800436E-4,-5.236268E-5,-7.3965588E-3,7.275656E-3,1.4206668E-3,1.8787452E-4,-7.199367E-3,1.8897705E-2,3.4092367E-3,4.258763E-3,-1.9202062E-3,-7.068533E-3,-6.581644E-4,-8.479978E-3,-4.050779E-3,-2.6929379E-4,-2.8152268E-3,2.2167265E-3,-4.053116E-6,2.4925433E-3,-7.795096E-5,2.899897E-3,-1.427412E-3,1.8927625E-3,-2.4923235E-3,1.3804287E-3,-1.9452969E-3,-3.6904812E-3,-9.872477E-3,1.3393164E-4,2.662758E-3,8.3770405E-4,-1.9527025E-3,-1.055032E-2,-3.9796828E-4,5.047396E-3,-2.0956E-3,1.3798669E-2,2.844817E-3,-5.530494E-3,2.957517E-3,-1.1556987E-2,-3.5946893E-3,-6.4034634E-3,1.6618941E-3],"categories":[],"categories_nodes":[],"categories_segments":[],"categories_sizes":[],"default_left":[1,1,1,1,1,1,1,1,1,1,1,0,0,1,1,1,1,1,1,1,1,1,1,1,1,1,1,0,1,1,1,1,0,0,0,1,0,0,1,1,1,0,1,1,1,0,1,1,1,1,1,0,0,0,0,0,0,0,0,0,0,0,0,0,0,0,0,0,0,0,0,0,0,0,0,0,0,0,0,0,0,0,0],"id":84,"left_children":[1,3,5,7,9,11,13,15,17,19,21,-1,-1,23,25,27,29,31,33,35,37,39,41,43,45,47,49,-1,51,53,55,57,-1,-1,-1,59,-1,-1,61,63,65,-1,67,69,71,-1,73,75,77,79,81,-1,-1,-1,-1,-1,-1,-1,-1,-1,-1,-1,-1,-1,-1,-1,-1,-1,-1,-1,-1,-1,-1,-1,-1,-1,-1,-1,-1,-1,-1,-1,-1],"loss_changes":[3.201106E-4,8.251872E-4,4.098867E-4,3.1141503E-4,8.849582E-4,2.43205E-5,4.5065E-4,1.711878E-4,1.9011373E-4,9.500318E-4,3.8321127E-4,1.2200326E-7,0E0,9.043518E-4,6.9414923E-4,6.6977576E-5,3.5872963E-5,8.812694E-5,2.7585847E-6,8.0270995E-4,1.6483017E-4,1.4667898E-4,7.5164135E-5,6.3417427E-4,6.193064E-4,8.522986E-4,8.171988E-4,0E0,9.200827E-6,3.7422778E-6,3.9598726E-6,1.7880418E-5,0E0,0E0,0E0,2.07626E-5,0E0,0E0,4.884869E-5,1.8958423E-5,1.8621475E-5,0E0,9.232827E-6,5.135276E-4,2.6929536E-4,0E0,1.00755315E-4,4.058794E-4,1.2314453E-3,5.8214366E-4,5.5714854E-4,0E0,0E0,0E0,0E0,0E0,0E0,0E0,0E0,0E0,0E0,0E0,0E0,0E0,0E0,0E0,0E0,0E0,0E0,0E0,0E0,0E0,0E0,0E0,0E0,0E0,0E0,0E0,0E0,0E0,0E0,0E0,0E0],"parents":[2147483647,0,0,1,1,2,2,3,3,4,4,5,5,6,6,7,7,8,8,9,9,10,10,13,13,14,14,15,15,16,16,17,17,18,18,19,19,20,20,21,21,22,22,23,23,24,24,25,25,26,26,28,28,29,29,30,30,31,31,35,35,38,38,39,39,40,40,42,42,43,43,44,44,46,46,47,47,48,48,49,49,50,50],"right_children":[2,4,6,8,10,12,14,16,18,20,22,-1,-1,24,26,28,30,32,34,36,38,40,42,44,46,48,50,-1,52,54,56,58,-1,-1,-1,60,-1,-1,62,64,66,-1,68,70,72,-1,74,76,78,80,82,-1,-1,-1,-1,-1,-1,-1,-1,-1,-1,-1,-1,-1,-1,-1,-1,-1,-1,-1,-1,-1,-1,-1,-1,-1,-1,-1,-1,-1,-1,-1,-1],"split_conditions":[-4.3115115E0,2.2730646E-1,-1.0706875E1,1.0040022E0,1.4740031E0,8.595171E0,2.2362041E0,2.5273597E0,2.8059306E0,-4.8651654E-1,5.730674E-1,1.8815115E-3,1.5630126E-4,2.0348282E0,9.441076E-1,9.4321275E-1,-1.9263277E0,4.412897E0,-3.299283E0,-3.5033407E0,-1.1413388E0,-1.9040284E0,-5.7136184E-1,9.3828335E0,-1.76718E0,-9.8348176E-1,1.1555488E0,-4.072845E-4,3.4433882E0,3.094624E0,1.4451395E0,1.8855598E0,2.2043467E-3,-2.9455125E-4,-1.3152168E-3,2.4204464E0,6.3489657E-3,2.67799E-3,-8.129135E-1,-1.6681466E0,9.209287E-1,2.182697E-3,-8.6966157E-1,3.2723804E0,3.363672E0,5.6693116E-3,2.6022615E0,-2.3342395E0,1.7320175E0,-9.9978936E-1,-3.3920107E0,-2.5439935E-3,-1.2152338E-3,-8.078814E-5,-8.445681E-4,6.65018E-4,-1.2159348E-6,7.47763E-4,-2.3385288E-5,8.6996914E-4,-4.2822363E-4,5.6782877E-4,-7.476971E-4,4.1412862E-4,-5.835891E-4,-1.1071444E-3,-2.9617432E-3,4.0179493E-5,7.9882744E-4,2.5131123E-4,-5.858108E-4,-3.1650963E-3,-1.1939049E-4,1.5142189E-3,-6.2868E-4,4.139601E-3,8.5344515E-4,-1.6591483E-3,8.872551E-4,-3.4670962E-3,-1.0784068E-3,-1.9210391E-3,4.985683E-4],"split_indices":[5,22,4,32,8,0,48,12,53,52,15,0,0,48,58,10,34,48,0,8,51,50,2,32,53,7,54,0,14,0,2,4,0,0,0,0,0,0,23,4,6,0,3,27,26,0,4,26,42,10,56,0,0,0,0,0,0,0,0,0,0,0,0,0,0,0,0,0,0,0,0,0,0,0,0,0,0,0,0,0,0,0,0],"split_type":[0,0,0,0,0,0,0,0,0,0,0,0,0,0,0,0,0,0,0,0,0,0,0,0,0,0,0,0,0,0,0,0,0,0,0,0,0,0,0,0,0,0,0,0,0,0,0,0,0,0,0,0,0,0,0,0,0,0,0,0,0,0,0,0,0,0,0,0,0,0,0,0,0,0,0,0,0,0,0,0,0,0,0],"sum_hessian":[6.57E2,7.8E1,5.79E2,3.8E1,4E1,1E1,5.69E2,2E1,1.8E1,2.1E1,1.9E1,9E0,1E0,3.9E2,1.79E2,1.3E1,7E0,1.4E1,4E0,1E1,1.1E1,1E1,9E0,3.78E2,1.2E1,1E2,7.9E1,3E0,1E1,3E0,4E0,1.1E1,3E0,1E0,3E0,3E0,7E0,2E0,9E0,5E0,5E0,4E0,5E0,3.67E2,1.1E1,3E0,9E0,3.2E1,6.8E1,3.9E1,4E1,6E0,4E0,1E0,2E0,3E0,1E0,7E0,4E0,2E0,1E0,6E0,3E0,3E0,2E0,3E0,2E0,3E0,2E0,2.82E2,8.5E1,7E0,4E0,7E0,2E0,3E0,2.9E1,3.9E1,2.9E1,1.6E1,2.3E1,1.1E1,2.9E1],"tree_param":{"num_deleted":"0","num_feature":"60","num_nodes":"83","size_leaf_vector":"0"}},{"base_weights":[1.690003E-5,1.7190466E-4,-2.6660105E-3,8.4457255E-4,-6.5512984E-4,-9.018509E-4,-1.3423431E-2,2.045969E-3,-7.0453656E-4,4.7059843E-4,-2.7837781E-3,-5.077277E-3,2.5698886E-4,-1.9149303E-2,-3.2230814E-3,4.368057E-3,-5.530829E-6,-2.5394903E-3,1.3440863E-3,-2.5363457E-3,1.840143E-3,-8.230677E-3,-9.795977E-4,-7.3267817E-3,-1.5584528E-3,-3.034572E-3,1.1851972E-3,6.079506E-3,3.0017164E-4,9.436793E-3,-8.9069107E-4,-7.3112915E-3,-4.8575865E-4,-1.5885744E-3,2.9378117E-3,-4.8557958E-3,2.4801986E-3,4.129329E-3,-1.2316885E-3,-4.5377947E-3,-2.135607E-2,-1.5235561E-5,-1.0207744E-2,3.1202477E-3,2.0316044E-4,2.4578169E-3,9.855568E-3,-4.2268825E-3,1.7269538E-3,4.378557E-3,1.8093744E-2,3.4893042E-4,-6.281769E-3,-1.5886229E-2,-2.845951E-3,-3.970473E-3,2.3607516E-3,-8.5430145E-3,-3.100381E-4,4.1710294E-4,5.1393514E-3,-1.0549118E-2,-2.8626015E-3,5.5503235E-3,-8.3794596E-4,-2.2291363E-4,6.4007663E-3,-1.09333275E-2,-2.5639668E-4,-3.4239315E-4,-1.0788098E-2,-2.63798E-3,2.2534959E-3,-1.6515136E-2,-1.3484173E-3,4.1991593E-3,2.8197965E-4,1.3794729E-3,-7.343226E-4],"categories":[],"categories_nodes":[],"categories_segments":[],"categories_sizes":[],"default_left":[1,1,1,1,1,1,1,1,1,1,1,1,1,0,0,1,1,1,1,1,1,1,1,0,0,0,1,1,1,1,1,1,1,1,1,1,1,1,1,1,0,1,1,1,1,0,0,0,0,0,0,0,0,0,0,0,0,0,0,0,0,0,0,0,0,0,0,0,0,0,0,0,0,0,0,0,0,0,0],"id":85,"left_children":[1,3,5,7,9,11,13,15,17,19,21,23,25,-1,-1,27,29,31,33,35,37,39,41,-1,-1,-1,43,45,47,49,51,53,55,57,59,61,63,65,67,69,-1,71,73,75,77,-1,-1,-1,-1,-1,-1,-1,-1,-1,-1,-1,-1,-1,-1,-1,-1,-1,-1,-1,-1,-1,-1,-1,-1,-1,-1,-1,-1,-1,-1,-1,-1,-1,-1],"loss_changes":[2.7409656E-4,3.471404E-4,6.7109516E-4,6.4165785E-4,6.722683E-4,1.5614158E-4,2.3030967E-4,9.241942E-4,5.7104166E-4,7.6240575E-4,9.451744E-4,4.3990847E-5,8.303317E-5,0E0,0E0,6.317153E-4,8.7763404E-4,7.8044843E-4,3.4118455E-4,6.869095E-4,8.981493E-4,1.0663833E-3,6.5839087E-4,0E0,8.350353E-7,0E0,3.9272196E-5,8.5102324E-4,1.88155E-4,3.1487556E-4,6.4374995E-4,8.73749E-4,5.7477196E-4,2.2853044E-4,2.5868003E-4,4.237179E-4,1.9820611E-4,7.2309375E-4,5.1760284E-4,5.2075693E-4,0E0,4.1056526E-4,3.6888546E-4,2.0251595E-5,1.7554572E-5,0E0,0E0,0E0,0E0,0E0,0E0,0E0,0E0,0E0,0E0,0E0,0E0,0E0,0E0,0E0,0E0,0E0,0E0,0E0,0E0,0E0,0E0,0E0,0E0,0E0,0E0,0E0,0E0,0E0,0E0,0E0,0E0,0E0,0E0],"parents":[2147483647,0,0,1,1,2,2,3,3,4,4,5,5,6,6,7,7,8,8,9,9,10,10,11,11,12,12,15,15,16,16,17,17,18,18,19,19,20,20,21,21,22,22,26,26,27,27,28,28,29,29,30,30,31,31,32,32,33,33,34,34,35,35,36,36,37,37,38,38,39,39,41,41,42,42,43,43,44,44],"right_children":[2,4,6,8,10,12,14,16,18,20,22,24,26,-1,-1,28,30,32,34,36,38,40,42,-1,-1,-1,44,46,48,50,52,54,56,58,60,62,64,66,68,70,-1,72,74,76,78,-1,-1,-1,-1,-1,-1,-1,-1,-1,-1,-1,-1,-1,-1,-1,-1,-1,-1,-1,-1,-1,-1,-1,-1,-1,-1,-1,-1,-1,-1,-1,-1,-1,-1],"split_conditions":[8.470138E0,9.2906845E-1,4.9531384E0,7.619587E-1,1.9177935E0,-4.347684E0,1.0899384E0,2.954768E-1,7.954104E-1,-1.5879543E0,3.0335016E0,7.8453946E-1,-4.177383E0,-5.744791E-3,-9.669244E-4,2.1660228E0,-5.7248797E0,1.9096649E0,-8.436315E-1,1.1877989E0,2.2870789E0,3.7939425E0,8.818056E0,-2.1980347E-3,-4.6753587E-4,-9.103716E-4,-5.062108E-1,5.490228E-1,-1.89095E0,-1.2878957E-1,3.881025E0,-4.916636E-1,-1.3488813E-1,-5.708562E0,-4.3116343E-1,-2.475813E0,4.2879707E-1,-1.2375088E0,2.5952854E0,-1.0034989E-1,-6.4068213E-3,1.0268935E0,4.511788E0,4.4662757E0,8.8773616E-2,7.373451E-4,2.9566707E-3,-1.2680648E-3,5.1808613E-4,1.3135672E-3,5.4281233E-3,1.0467913E-4,-1.8845308E-3,-4.7658687E-3,-8.537853E-4,-1.191142E-3,7.0822553E-4,-2.5629045E-3,-9.301143E-5,1.2513089E-4,1.5418055E-3,-3.1647354E-3,-8.587805E-4,1.6650971E-3,-2.513838E-4,-6.687409E-5,1.92023E-3,-3.2799984E-3,-7.691901E-5,-1.02717946E-4,-3.2364295E-3,-7.9139404E-4,6.760488E-4,-4.954541E-3,-4.045252E-4,1.2597479E-3,8.45939E-5,4.138419E-4,-2.2029679E-4],"split_indices":[57,48,24,19,13,56,3,24,31,19,13,1,32,0,0,4,59,19,24,37,19,6,41,0,0,0,21,40,7,16,31,13,12,41,57,49,27,39,19,26,0,19,14,1,42,0,0,0,0,0,0,0,0,0,0,0,0,0,0,0,0,0,0,0,0,0,0,0,0,0,0,0,0,0,0,0,0,0,0],"split_type":[0,0,0,0,0,0,0,0,0,0,0,0,0,0,0,0,0,0,0,0,0,0,0,0,0,0,0,0,0,0,0,0,0,0,0,0,0,0,0,0,0,0,0,0,0,0,0,0,0,0,0,0,0,0,0,0,0,0,0,0,0,0,0,0,0,0,0,0,0,0,0,0,0,0,0,0,0,0,0],"sum_hessian":[6.57E2,6.22E2,3.5E1,3.43E2,2.79E2,3.1E1,4E0,1.93E2,1.5E2,1.83E2,9.6E1,6E0,2.5E1,2E0,2E0,9E1,1.03E2,7.9E1,7.1E1,5.7E1,1.26E2,2.3E1,7.3E1,3E0,3E0,5E0,2E1,6.3E1,2.7E1,8E0,9.5E1,2.3E1,5.6E1,2.5E1,4.6E1,3.9E1,1.8E1,7.2E1,5.4E1,1.9E1,4E0,6.7E1,6E0,6E0,1.4E1,3.3E1,3E1,6E0,2.1E1,6E0,2E0,7.8E1,1.7E1,7E0,1.6E1,2.5E1,3.1E1,3E0,2.2E1,2.2E1,2.4E1,9E0,3E1,9E0,9E0,2.5E1,4.7E1,4E0,5E1,1.2E1,7E0,3.1E1,3.6E1,3E0,3E0,4E0,2E0,6E0,8E0],"tree_param":{"num_deleted":"0","num_feature":"60","num_nodes":"79","size_leaf_vector":"0"}},{"base_weights":[-2.9630943E-5,5.164264E-3,-9.341209E-5,1.18227005E-2,9.743348E-4,4.3882668E-4,-8.1815256E-4,1.4606081E-3,1.1920929E-6,2.7621927E-4,7.0389044E-3,1.5490673E-3,-1.4969873E-3,1.4849439E-3,-6.2022405E-4,1.2707174E-2,3.6040884E-3,4.0516322E-3,-2.5821452E-3,-6.7035076E-3,-6.815538E-4,3.017237E-3,-1.0425505E-3,-1.6876205E-3,2.3833734E-3,8.526814E-3,5.67731E-4,-1.2462586E-3,-7.4092625E-3,-2.8374337E-3,-2.1050552E-2,-1.3646138E-3,2.323867E-3,4.8098033E-3,-1.20624E-3,2.5216828E-3,-3.0264116E-3,-2.0213022E-4,-3.960515E-3,1.5720287E-2,1.5982972E-3,3.0314894E-3,1.3074716E-2,2.3795895E-3,-8.633494E-3,3.3573806E-3,-2.2561585E-3,-8.456886E-3,-1.609385E-3,-3.802835E-3,5.1879883E-3,-2.365706E-2,-4.0090084E-3,4.4343094E-3,-1.801142E-3,-1.6296471E-3,5.7389126E-3],"categories":[],"categories_nodes":[],"categories_segments":[],"categories_sizes":[],"default_left":[1,1,1,0,1,1,1,0,0,1,1,1,1,1,1,0,0,1,1,1,1,1,1,1,1,1,1,1,1,1,1,1,1,0,0,0,0,0,0,0,0,0,0,0,0,0,0,0,0,0,0,0,0,0,0,0,0],"id":86,"left_children":[1,3,5,-1,7,9,11,-1,-1,13,15,17,19,21,23,-1,-1,25,27,29,31,33,35,37,39,41,43,45,47,49,51,53,55,-1,-1,-1,-1,-1,-1,-1,-1,-1,-1,-1,-1,-1,-1,-1,-1,-1,-1,-1,-1,-1,-1,-1,-1],"loss_changes":[2.1845975E-4,2.1166775E-4,2.514725E-4,0E0,2.8375393E-6,4.0158705E-4,4.458375E-4,0E0,1.492709E-7,3.9966853E-4,1.2942738E-4,6.514568E-4,9.0822915E-4,6.11185E-4,6.8370043E-4,0E0,0E0,6.032117E-4,1.4552972E-4,1.5488059E-3,3.8706022E-4,7.477464E-4,4.3188827E-4,5.292883E-4,5.61222E-4,3.8523145E-4,4.039845E-4,1.0055908E-4,1.6770035E-5,2.0567515E-4,1.7167209E-4,3.9529006E-4,4.819025E-4,0E0,0E0,0E0,0E0,0E0,0E0,0E0,0E0,0E0,0E0,0E0,0E0,0E0,0E0,0E0,0E0,0E0,0E0,0E0,0E0,0E0,0E0,0E0,0E0],"parents":[2147483647,0,0,1,1,2,2,4,4,5,5,6,6,9,9,10,10,11,11,12,12,13,13,14,14,17,17,18,18,19,19,20,20,21,21,22,22,23,23,24,24,25,25,26,26,27,27,28,28,29,29,30,30,31,31,32,32],"right_children":[2,4,6,-1,8,10,12,-1,-1,14,16,18,20,22,24,-1,-1,26,28,30,32,34,36,38,40,42,44,46,48,50,52,54,56,-1,-1,-1,-1,-1,-1,-1,-1,-1,-1,-1,-1,-1,-1,-1,-1,-1,-1,-1,-1,-1,-1,-1,-1],"split_conditions":[-1.2044887E1,-9.877617E-1,1.1259638E0,3.5468102E-3,1.9156966E0,1.0049839E0,-1.9175123E0,4.3818244E-4,3.5762787E-7,-7.2226566E-1,-9.4010115E-1,1.9410322E0,-6.859454E-1,1.6250038E0,2.9477205E0,3.8121522E-3,1.0812266E-3,1.6250212E-1,4.0346727E0,2.1200237E0,4.1900687E0,2.1079912E0,-1.2591846E0,1.2804554E0,3.190629E0,-4.6008986E-1,3.0821939E0,-3.7345905E0,6.9169635E-1,4.8791285E0,6.6876626E0,-6.302491E0,-9.3605894E-1,1.442941E-3,-3.6187202E-4,7.565049E-4,-9.079235E-4,-6.0639068E-5,-1.1881546E-3,4.716086E-3,4.7948916E-4,9.0944686E-4,3.922415E-3,7.1387686E-4,-2.5900484E-3,1.0072142E-3,-6.768476E-4,-2.537066E-3,-4.8281552E-4,-1.1408506E-3,1.5563966E-3,-7.097118E-3,-1.2027025E-3,1.3302929E-3,-5.4034265E-4,-4.888942E-4,1.7216739E-3],"split_indices":[53,3,7,0,3,7,1,0,0,40,39,28,1,38,36,0,0,26,53,12,15,17,35,29,36,42,32,48,2,16,2,22,49,0,0,0,0,0,0,0,0,0,0,0,0,0,0,0,0,0,0,0,0,0,0,0,0],"split_type":[0,0,0,0,0,0,0,0,0,0,0,0,0,0,0,0,0,0,0,0,0,0,0,0,0,0,0,0,0,0,0,0,0,0,0,0,0,0,0,0,0,0,0,0,0,0,0,0,0,0,0,0,0,0,0,0,0],"sum_hessian":[6.57E2,7E0,6.5E2,2E0,5E0,3.75E2,2.75E2,3E0,2E0,3.67E2,8E0,6.1E1,2.14E2,1.56E2,2.11E2,2E0,6E0,3.8E1,2.3E1,2.8E1,1.86E2,9.7E1,5.9E1,1.56E2,5.5E1,1.6E1,2.2E1,1.9E1,4E0,2.3E1,5E0,1.52E2,3.4E1,6.8E1,2.9E1,2.1E1,3.8E1,9.5E1,6.1E1,2E0,5.3E1,8E0,8E0,1.9E1,3E0,3E0,1.6E1,3E0,1E0,2.1E1,2E0,4E0,1E0,1E1,1.42E2,1.6E1,1.8E1],"tree_param":{"num_deleted":"0","num_feature":"60","num_nodes":"57","size_leaf_vector":"0"}},{"base_weights":[-8.340967E-6,2.63991E-3,-1.3905345E-4,6.501351E-3,-5.100949E-4,-8.260799E-3,-7.375252E-5,1.3807456E-2,4.1330457E-3,7.606584E-4,-3.1783779E-3,-7.058017E-4,7.467884E-4,6.2846146E-3,1.6984089E-3,-1.8170675E-3,1.3945238E-3,-1.0464987E-3,-3.982693E-3,1.8607442E-4,-1.942428E-3,1.5824293E-3,-1.048338E-3,5.92192E-4,2.022457E-3,1.4603138E-4,2.4105955E-3,-6.737882E-4,2.8823214E-3,-3.5062379E-3,2.224252E-3,2.0459986E-3,-3.8386604E-3,-2.210154E-3,3.5280767E-3,-2.540274E-3,1.3489176E-3,4.0952445E-4,5.1491526E-3,-1.0480796E-2,-2.4415003E-3,3.517467E-5,8.191266E-3,2.8247149E-3,-7.743356E-4,-6.8048784E-3,5.2342884E-4,-2.5193005E-5,-6.142076E-3,1.7406923E-3,1.6956806E-2],"categories":[],"categories_nodes":[],"categories_segments":[],"categories_sizes":[],"default_left":[1,1,1,1,1,0,1,0,1,1,1,1,1,0,1,0,1,0,0,1,1,1,1,0,0,0,0,1,1,1,1,1,1,1,1,0,0,0,0,0,0,0,0,0,0,0,0,0,0,0,0],"id":87,"left_children":[1,3,5,7,9,-1,11,-1,13,15,17,19,21,-1,23,-1,25,-1,-1,27,29,31,33,-1,-1,-1,-1,35,37,39,41,43,45,47,49,-1,-1,-1,-1,-1,-1,-1,-1,-1,-1,-1,-1,-1,-1,-1,-1],"loss_changes":[2.2814E-4,3.8038666E-4,3.3245524E-4,1.8517632E-4,6.3450796E-5,0E0,3.2414735E-4,0E0,5.2185613E-5,2.377505E-5,6.120339E-6,3.896913E-4,4.0968094E-4,0E0,1.3115914E-6,0E0,1.3602117E-5,0E0,0E0,4.7953287E-4,9.7215135E-4,4.7528127E-4,4.7037247E-4,0E0,0E0,7.626611E-7,0E0,5.9615687E-4,2.7816196E-4,7.7642687E-4,5.352644E-4,3.7994055E-4,1.976455E-4,6.0122204E-4,4.0252483E-4,0E0,0E0,0E0,0E0,0E0,0E0,0E0,0E0,0E0,0E0,0E0,0E0,0E0,0E0,0E0,0E0],"parents":[2147483647,0,0,1,1,2,2,3,3,4,4,6,6,8,8,9,9,10,10,11,11,12,12,14,14,16,16,19,19,20,20,21,21,22,22,27,27,28,28,29,29,30,30,31,31,32,32,33,33,34,34],"right_children":[2,4,6,8,10,-1,12,-1,14,16,18,20,22,-1,24,-1,26,-1,-1,28,30,32,34,-1,-1,-1,-1,36,38,40,42,44,46,48,50,-1,-1,-1,-1,-1,-1,-1,-1,-1,-1,-1,-1,-1,-1,-1,-1],"split_conditions":[-7.616952E0,-1.0129046E0,-7.1041546E0,-4.5504904E0,3.5936353E0,-2.4782396E-3,8.8698596E-1,4.142237E-3,3.081987E0,-7.386358E-1,-2.4910083E0,-1.4050169E0,2.6390476E0,1.8853844E-3,4.8322515E0,-5.451203E-4,2.502643E0,-3.139496E-4,-1.1948079E-3,3.5393896E0,1.9640907E0,8.0588E0,3.8140697E0,1.7765761E-4,6.0673716E-4,4.3809414E-5,7.231787E-4,9.2493814E-1,3.9416826E-1,-1.1138537E0,1.6860754E0,4.0715423E0,2.8285172E0,9.9146736E-1,1.0918959E1,-7.620822E-4,4.046753E-4,1.2285734E-4,1.5447459E-3,-3.1442388E-3,-7.324501E-4,1.0552401E-5,2.4573798E-3,8.474145E-4,-2.3230068E-4,-2.0414635E-3,1.5702865E-4,-7.557902E-6,-1.8426229E-3,5.222077E-4,5.087042E-3],"split_indices":[36,56,36,33,42,0,56,0,31,45,12,56,51,0,0,0,12,0,0,49,47,47,46,0,0,0,0,15,58,56,23,15,19,46,56,0,0,0,0,0,0,0,0,0,0,0,0,0,0,0,0],"split_type":[0,0,0,0,0,0,0,0,0,0,0,0,0,0,0,0,0,0,0,0,0,0,0,0,0,0,0,0,0,0,0,0,0,0,0,0,0,0,0,0,0,0,0,0,0,0,0,0,0,0,0],"sum_hessian":[6.57E2,3E1,6.27E2,1.3E1,1.7E1,4E0,6.23E2,2E0,1.1E1,1.2E1,5E0,3.52E2,2.71E2,5E0,6E0,2E0,1E1,2E0,3E0,2.05E2,1.47E2,1.85E2,8.6E1,2E0,4E0,5E0,5E0,1.56E2,4.9E1,1.07E2,4E1,1.71E2,1.4E1,6.9E1,1.7E1,8.1E1,7.5E1,2.4E1,2.5E1,1.3E1,9.4E1,3E1,1E1,1.34E2,3.7E1,8E0,6E0,4.5E1,2.4E1,1.6E1,1E0],"tree_param":{"num_deleted":"0","num_feature":"60","num_nodes":"51","size_leaf_vector":"0"}},{"base_weights":[2.4146073E-6,-9.7338285E-5,2.8906045E-3,-8.105407E-4,3.5345028E-4,1.3359785E-2,1.7558918E-3,4.2432733E-4,-2.4845938E-3,1.2807453E-3,-6.7545415E-4,3.6807726E-3,-1.2195905E-3,-4.6807626E-4,2.9935937E-3,-4.7501386E-3,6.416909E-4,-2.173692E-3,2.0750447E-3,-2.6940845E-3,2.6028528E-4,5.1224143E-3,-8.4352493E-4,1.0946393E-3,-1.6456991E-3,-6.4501762E-3,-1.7313863E-4,6.253055E-3,-4.234251E-4,2.5153966E-3,-6.056008E-3,-6.289635E-3,2.0840308E-3,-4.4034948E-3,3.9024868E-3,4.151882E-3,1.3983021E-4,-7.0934445E-3,-7.618964E-5,2.7664097E-3,-1.4355426E-3,1.7309984E-3,5.7538934E-3,-1.507918E-3,5.748272E-4,-7.1372986E-3,-1.8508434E-3,2.462023E-3,-8.3778024E-4,1.0640991E-2,1.9523833E-4,4.2121806E-3,-2.3798686E-3,5.3053377E-3,-2.2878747E-4,-7.947413E-3,-3.545199E-4,-8.598477E-3,-1.8311739E-3,4.569811E-3,-1.6195301E-3,-5.9761484E-3,4.7174096E-4,9.220413E-5,8.456385E-3,9.246886E-4,7.1265455E-3,2.6564063E-3,-2.3239292E-3,-7.983411E-4,-1.0633622E-2,2.730449E-3,-2.478252E-3,3.7677079E-3,-3.2116938E-3,-1.0668751E-3,-1.4727138E-2],"categories":[],"categories_nodes":[],"categories_segments":[],"categories_sizes":[],"default_left":[1,1,1,1,1,0,1,1,1,1,1,1,1,1,1,1,1,1,1,1,1,1,1,0,0,1,1,1,1,1,1,1,1,1,1,1,1,1,1,1,1,0,0,0,0,0,0,0,0,0,0,0,0,0,0,0,0,0,0,0,0,0,0,0,0,0,0,0,0,0,0,0,0,0,0,0,0],"id":88,"left_children":[1,3,5,7,9,-1,11,13,15,17,19,21,23,25,27,29,31,33,35,37,39,41,43,-1,-1,45,47,49,51,53,55,57,59,61,63,65,67,69,71,73,75,-1,-1,-1,-1,-1,-1,-1,-1,-1,-1,-1,-1,-1,-1,-1,-1,-1,-1,-1,-1,-1,-1,-1,-1,-1,-1,-1,-1,-1,-1,-1,-1,-1,-1,-1,-1],"loss_changes":[1.8985463E-4,2.0508419E-4,2.3789091E-4,5.1166123E-4,3.7391734E-4,0E0,1.2476544E-4,3.2927486E-4,7.467355E-4,5.697452E-4,3.5203886E-4,8.911232E-5,1.0676467E-5,1.8766828E-4,4.1474038E-4,5.939916E-4,4.6298752E-4,5.455831E-4,6.746326E-4,6.789662E-4,5.4796564E-4,1.1456083E-5,4.6361656E-6,0E0,6.194714E-7,2.591507E-6,1.8246076E-4,5.029674E-4,1.8234116E-4,7.777492E-5,5.579414E-4,6.6605746E-5,3.57238E-4,2.2516394E-4,1.9008834E-4,7.7099516E-4,5.5179425E-4,4.8179796E-4,2.6295215E-4,3.2336568E-4,3.6160182E-4,0E0,0E0,2.2469476E-7,0E0,0E0,0E0,0E0,0E0,0E0,0E0,0E0,0E0,0E0,0E0,0E0,0E0,0E0,0E0,0E0,0E0,0E0,0E0,0E0,0E0,0E0,0E0,0E0,0E0,0E0,0E0,0E0,0E0,0E0,0E0,0E0,0E0],"parents":[2147483647,0,0,1,1,2,2,3,3,4,4,6,6,7,7,8,8,9,9,10,10,11,11,12,12,13,13,14,14,15,15,16,16,17,17,18,18,19,19,20,20,21,21,22,22,25,25,26,26,27,27,28,28,29,29,30,30,31,31,32,32,33,33,34,34,35,35,36,36,37,37,38,38,39,39,40,40],"right_children":[2,4,6,8,10,-1,12,14,16,18,20,22,24,26,28,30,32,34,36,38,40,42,44,-1,-1,46,48,50,52,54,56,58,60,62,64,66,68,70,72,74,76,-1,-1,-1,-1,-1,-1,-1,-1,-1,-1,-1,-1,-1,-1,-1,-1,-1,-1,-1,-1,-1,-1,-1,-1,-1,-1,-1,-1,-1,-1,-1,-1,-1,-1,-1,-1],"split_conditions":[9.502235E0,-7.5383824E-1,-7.4662824E0,-2.5535636E0,9.7981375E-1,4.0079355E-3,3.826476E0,2.0649889E0,1.2395638E0,-4.2550926E0,2.1752417E0,6.1538305E0,-2.553298E0,-7.2880077E0,3.3044726E-1,-3.255606E0,-4.7796664E0,2.5744998E0,3.3423567E-1,-1.1874394E0,-5.56859E-1,-4.3188004E0,1.0334492E-1,3.283918E-4,-4.9370975E-4,2.9273746E0,-3.6355562E0,1.7421142E0,-1.7043335E0,-1.8146224E0,2.491898E0,2.237434E0,1.8058954E0,4.3573694E0,5.645021E-1,-7.085637E-1,-3.293993E-1,-1.4087653E0,4.5029917E-1,7.3846445E0,1.2540176E1,5.1929953E-4,1.7261681E-3,-4.5237542E-4,1.7244817E-4,-2.1411898E-3,-5.5525306E-4,7.386069E-4,-2.5133407E-4,3.1922974E-3,5.8571502E-5,1.2636542E-3,-7.139606E-4,1.5916014E-3,-6.863624E-5,-2.384224E-3,-1.06355976E-4,-2.579543E-3,-5.493522E-4,1.3709433E-3,-4.8585905E-4,-1.7928446E-3,1.415223E-4,2.7661239E-5,2.5369155E-3,2.774066E-4,2.1379637E-3,7.969219E-4,-6.9717877E-4,-2.3950235E-4,-3.190087E-3,8.191347E-4,-7.434756E-4,1.1303124E-3,-9.635082E-4,-3.2006254E-4,-4.4181417E-3],"split_indices":[52,38,1,38,11,0,54,23,11,11,11,6,7,22,22,7,31,40,12,25,13,0,0,0,0,1,27,3,37,38,39,3,35,8,36,2,36,58,24,0,2,0,0,0,0,0,0,0,0,0,0,0,0,0,0,0,0,0,0,0,0,0,0,0,0,0,0,0,0,0,0,0,0,0,0,0,0],"split_type":[0,0,0,0,0,0,0,0,0,0,0,0,0,0,0,0,0,0,0,0,0,0,0,0,0,0,0,0,0,0,0,0,0,0,0,0,0,0,0,0,0,0,0,0,0,0,0,0,0,0,0,0,0,0,0,0,0,0,0,0,0,0,0,0,0,0,0,0,0,0,0,0,0,0,0,0,0],"sum_hessian":[6.57E2,6.36E2,2.1E1,2.46E2,3.9E2,1E0,2E1,1.42E2,1.04E2,2.05E2,1.85E2,1.2E1,8E0,1.06E2,3.6E1,6E1,4.4E1,3.8E1,1.67E2,5.8E1,1.27E2,9E0,3E0,1E0,7E0,4E0,1.02E2,1.8E1,1.8E1,9E0,5.1E1,7E0,3.7E1,2.8E1,1E1,8E1,8.7E1,2.1E1,3.7E1,5.1E1,7.6E1,2E0,7E0,2E0,1E0,3E0,1E0,2E1,8.2E1,1E1,8E0,5E0,1.3E1,4E0,5E0,3.8E1,1.3E1,4E0,3E0,2.2E1,1.5E1,2.1E1,7E0,6E0,4E0,3.9E1,4.1E1,4.3E1,4.4E1,8E0,1.3E1,1.7E1,2E1,4.4E1,7E0,7.5E1,1E0],"tree_param":{"num_deleted":"0","num_feature":"60","num_nodes":"77","size_leaf_vector":"0"}},{"base_weights":[1.2210736E-6,-9.4903447E-4,2.8367652E-4,-1.1067722E-3,1.1355817E-2,-2.781077E-3,4.413938E-4,1.6325732E-3,-1.7768019E-3,-5.436779E-3,8.855416E-5,-5.8968198E-3,5.467697E-4,3.0674536E-3,-4.7976695E-4,-1.4660791E-3,-1.350987E-2,-2.299673E-3,-9.996215E-3,1.9567728E-3,-9.591844E-4,-1.3434966E-2,-1.1449432E-3,-1.7669919E-3,7.510748E-4,4.4331714E-3,8.061603E-4,7.798473E-4,-1.3645068E-3,1.7655112E-3,-2.2172183E-3,-1.850003E-2,-1.7647743E-3,3.6011636E-4,-3.689587E-3,-1.1161327E-2,-2.6678815E-3,3.5905838E-4,2.2664368E-3,-1.2743132E-3,9.584427E-5,2.3590103E-3,-2.317536E-3,5.6922436E-5,-7.853031E-3,2.4396374E-3,2.3275724E-4,9.2659146E-4,5.632315E-3,-6.594062E-4,1.1097278E-3,1.175046E-3,-5.98073E-4,-2.1706582E-3,-1.5690923E-5,-3.8484733E-3,2.483437E-3,-6.439511E-4,-4.097655E-3,-4.1925907E-4,1.3491213E-3,-2.7043968E-3,-3.85046E-4,-1.1602759E-2,8.3233713E-4,-1.0658776E-2,-3.4766793E-3,3.729301E-3,-9.798254E-4,6.7101774E-4,-2.7793264E-3],"categories":[],"categories_nodes":[],"categories_segments":[],"categories_sizes":[],"default_left":[1,1,1,1,0,1,1,1,1,1,1,1,1,1,1,1,1,1,1,1,1,0,1,1,1,1,1,1,1,1,1,0,0,1,0,0,0,0,0,0,0,0,1,1,1,1,1,0,0,0,0,0,0,0,0,0,0,0,0,0,0,0,0,0,0,0,0,0,0,0,0],"id":89,"left_children":[1,3,5,7,-1,9,11,13,15,17,19,21,23,25,27,29,31,33,35,37,39,-1,41,43,45,47,49,51,53,55,57,-1,-1,59,-1,-1,-1,-1,-1,-1,-1,-1,61,63,65,67,69,-1,-1,-1,-1,-1,-1,-1,-1,-1,-1,-1,-1,-1,-1,-1,-1,-1,-1,-1,-1,-1,-1,-1,-1],"loss_changes":[1.7687962E-4,3.056503E-4,2.4677676E-4,2.7821714E-4,0E0,1.9100361E-4,3.264854E-4,9.240034E-5,4.2132693E-4,1.6295657E-4,2.7323169E-5,2.711805E-4,2.2681139E-4,5.201534E-5,1.5551708E-5,2.9277202E-4,1.4318136E-4,3.460059E-5,1.291465E-5,1.6599897E-6,3.1143654E-6,0E0,3.0119354E-5,4.333632E-4,3.8365007E-4,4.103496E-5,4.2909483E-6,3.9700767E-6,8.664737E-6,1.022572E-4,2.8432903E-4,0E0,0E0,3.648856E-6,0E0,0E0,0E0,0E0,0E0,0E0,3.115864E-7,0E0,2.6967064E-6,2.8993117E-4,7.345324E-5,4.5787962E-4,4.46731E-4,0E0,0E0,0E0,0E0,0E0,0E0,0E0,0E0,0E0,0E0,0E0,0E0,0E0,0E0,0E0,0E0,0E0,0E0,0E0,0E0,0E0,0E0,0E0,0E0],"parents":[2147483647,0,0,1,1,2,2,3,3,5,5,6,6,7,7,8,8,9,9,10,10,11,11,12,12,13,13,14,14,15,15,16,16,17,17,18,18,19,19,20,20,22,22,23,23,24,24,25,25,26,26,27,27,28,28,29,29,30,30,33,33,42,42,43,43,44,44,45,45,46,46],"right_children":[2,4,6,8,-1,10,12,14,16,18,20,22,24,26,28,30,32,34,36,38,40,-1,42,44,46,48,50,52,54,56,58,-1,-1,60,-1,-1,-1,-1,-1,-1,-1,-1,62,64,66,68,70,-1,-1,-1,-1,-1,-1,-1,-1,-1,-1,-1,-1,-1,-1,-1,-1,-1,-1,-1,-1,-1,-1,-1,-1],"split_conditions":[-2.3510005E0,1.3241318E1,-7.1099496E0,-3.2378893E0,3.4067454E-3,2.658026E-1,-1.064006E1,1.8718535E0,9.613289E0,3.11204E-1,-7.0229673E-1,-1.9887996E0,-5.1154513E0,-2.3325449E-1,4.3794507E-1,-2.133009E0,4.2864466E0,-2.1877718E0,-4.9453527E-1,-4.754055E0,4.494573E0,-4.03049E-3,-4.043453E0,-5.7871175E0,-1.6042411E0,-9.234851E-1,-6.8786187E0,1.2097632E1,2.499096E0,-7.009104E0,7.522336E-1,-5.550009E-3,-5.294323E-4,1.6387267E0,-1.1068762E-3,-3.3483983E-3,-8.003645E-4,1.0771752E-4,6.799311E-4,-3.8229398E-4,2.8753282E-5,7.077031E-4,5.833254E0,-6.1220703E0,-6.579876E-2,1.5770694E0,5.3367996E0,2.7797744E-4,1.6896945E-3,-1.9782186E-4,3.3291834E-4,3.525138E-4,-1.7942191E-4,-6.511975E-4,-4.707277E-6,-1.1545421E-3,7.4503117E-4,-1.9318535E-4,-1.2292966E-3,-1.2577773E-4,4.047364E-4,-8.113191E-4,-1.1551381E-4,-3.480828E-3,2.4970114E-4,-3.197633E-3,-1.0430039E-3,1.1187904E-3,-2.9394764E-4,2.0130533E-4,-8.3379797E-4],"split_indices":[24,52,19,19,0,41,9,57,12,53,7,14,11,59,3,2,0,17,4,0,6,0,1,11,11,46,0,0,10,20,39,0,0,0,0,0,0,0,0,0,0,0,2,14,3,58,40,0,0,0,0,0,0,0,0,0,0,0,0,0,0,0,0,0,0,0,0,0,0,0,0],"split_type":[0,0,0,0,0,0,0,0,0,0,0,0,0,0,0,0,0,0,0,0,0,0,0,0,0,0,0,0,0,0,0,0,0,0,0,0,0,0,0,0,0,0,0,0,0,0,0,0,0,0,0,0,0,0,0,0,0,0,0,0,0,0,0,0,0,0,0,0,0,0,0],"sum_hessian":[6.57E2,1.5E2,5.07E2,1.49E2,1E0,2.4E1,4.83E2,2.9E1,1.2E2,1.2E1,1.2E1,7E0,4.76E2,1.7E1,1.2E1,1.18E2,2E0,8E0,4E0,4E0,8E0,2E0,5E0,3.8E1,4.38E2,1E1,7E0,5E0,7E0,2.2E1,9.6E1,1E0,1E0,3E0,5E0,3E0,1E0,1E0,3E0,6E0,2E0,1E0,4E0,3E1,8E0,1.02E2,3.36E2,3E0,7E0,1E0,6E0,4E0,1E0,4E0,3E0,2E0,2E1,5.3E1,4.3E1,2E0,1E0,3E0,1E0,1E0,2.9E1,4E0,4E0,7.4E1,2.8E1,2.94E2,4.2E1],"tree_param":{"num_deleted":"0","num_feature":"60","num_nodes":"71","size_leaf_vector":"0"}},{"base_weights":[-2.7942373E-5,-2.8906987E-4,8.8175305E-4,2.6294932E-4,-1.0971314E-3,-1.2636859E-3,3.0738923E-3,-2.2157896E-3,6.4546004E-4,-4.8527312E-3,-5.575536E-4,-5.191197E-3,-3.5644646E-4,4.271314E-3,4.511848E-4,3.3638945E-3,-3.2684181E-3,-2.8365068E-3,9.88112E-4,-9.337915E-3,-1.9289325E-3,3.7439833E-3,-9.360477E-4,-1.8657107E-3,-1.3038486E-2,1.5534069E-4,-7.8161955E-3,5.2456884E-3,-7.5035624E-4,-1.7398298E-3,1.8817822E-3,1.1680921E-3,4.008597E-3,-5.018507E-3,-8.76531E-4,-1.8625525E-3,-1.2618728E-2,1.0825354E-2,8.6102926E-4,-1.5659757E-2,-4.3914467E-3,-6.9974214E-3,-3.4301195E-4,-1.0882105E-5,6.248436E-3,-7.4203694E-5,-3.905189E-3,-5.6887865E-3,-3.8405095E-4,-1.5087764E-2,-3.4453273E-3,-6.426763E-4,1.5266727E-3,-9.325664E-3,-1.6438961E-3,6.5329582E-3,1.4831001E-3,3.1971931E-4,-2.1678805E-3,8.4739923E-4,-2.492562E-3,4.4911206E-3,1.2800097E-4,-1.8413514E-3,-7.4506025E-3,4.8069158E-4,-2.29384E-3,-2.9339578E-3,2.5812984E-3,-1.406338E-3,1.3914799E-3,-5.457133E-3,-2.2278987E-3,-3.0118425E-3,-9.477079E-3,2.0295382E-3,-1.1745746E-3,-1.627624E-3,9.6133945E-4,8.92477E-3,2.3224144E-3,5.0384784E-3,-5.806333E-4,-7.3996126E-3,-3.9022713E-4,-1.1197403E-3,8.1549585E-4,-2.676364E-3,8.075659E-5,3.5521388E-3,1.1553935E-4,4.6918453E-3,1.1239678E-2,5.4696403E-3,1.3882815E-4,5.803108E-4,-4.916191E-4,-3.272891E-4,-2.755131E-3,9.114444E-4,5.024767E-3,1.2919009E-3,-1.2942791E-3],"categories":[],"categories_nodes":[],"categories_segments":[],"categories_sizes":[],"default_left":[1,1,1,1,1,1,1,1,1,1,1,1,1,1,1,1,1,1,1,1,1,1,1,1,1,1,1,1,1,1,1,0,0,1,1,1,0,0,1,0,1,1,1,1,1,1,1,0,1,0,0,1,1,0,0,1,1,1,0,0,1,1,1,0,0,0,0,0,0,0,0,0,0,0,0,0,0,0,0,0,0,0,0,0,0,0,0,0,0,0,0,0,0,0,0,0,0,0,0,0,0,0,0],"id":90,"left_children":[1,3,5,7,9,11,13,15,17,19,21,23,25,27,29,31,33,35,37,39,41,43,45,47,49,51,53,55,57,59,61,-1,-1,63,65,67,-1,-1,69,-1,71,73,75,77,79,81,83,-1,85,-1,-1,87,89,-1,-1,91,93,95,-1,-1,97,99,101,-1,-1,-1,-1,-1,-1,-1,-1,-1,-1,-1,-1,-1,-1,-1,-1,-1,-1,-1,-1,-1,-1,-1,-1,-1,-1,-1,-1,-1,-1,-1,-1,-1,-1,-1,-1,-1,-1,-1,-1],"loss_changes":[1.5656048E-4,2.2867399E-4,6.9524033E-4,2.906142E-4,4.1879347E-4,2.653891E-4,2.2732833E-4,2.5180134E-4,3.1897493E-4,3.2294594E-4,3.01448E-4,3.4101872E-4,2.37918E-4,2.4858554E-4,7.850102E-5,5.2270625E-6,1.421117E-4,2.0515543E-4,2.9321358E-4,2.4393894E-4,1.3424957E-4,1.4112623E-4,4.3217052E-4,6.012469E-5,2.6653928E-5,6.554758E-5,2.1937129E-5,1.9373663E-4,1.4344837E-5,2.1587099E-5,6.806826E-5,0E0,0E0,1.4082371E-4,3.1880292E-5,1.1708023E-4,0E0,0E0,2.9061123E-4,0E0,3.981695E-6,1.0988006E-5,3.000478E-5,1.256752E-5,7.3839095E-5,3.447017E-4,4.638575E-4,0E0,8.855588E-6,0E0,0E0,5.612312E-5,6.247005E-5,0E0,0E0,2.1589873E-4,6.3548585E-5,1.5538593E-6,8.188035E-7,0E0,3.6465462E-6,6.881899E-6,1.8225997E-5,0E0,0E0,0E0,0E0,0E0,0E0,0E0,0E0,0E0,0E0,0E0,0E0,0E0,0E0,0E0,0E0,0E0,0E0,0E0,0E0,0E0,0E0,0E0,0E0,0E0,0E0,0E0,0E0,0E0,0E0,0E0,0E0,0E0,0E0,0E0,0E0,0E0,0E0,0E0,0E0],"parents":[2147483647,0,0,1,1,2,2,3,3,4,4,5,5,6,6,7,7,8,8,9,9,10,10,11,11,12,12,13,13,14,14,15,15,16,16,17,17,18,18,19,19,20,20,21,21,22,22,23,23,24,24,25,25,26,26,27,27,28,28,29,29,30,30,33,33,34,34,35,35,38,38,40,40,41,41,42,42,43,43,44,44,45,45,46,46,48,48,51,51,52,52,55,55,56,56,57,57,60,60,61,61,62,62],"right_children":[2,4,6,8,10,12,14,16,18,20,22,24,26,28,30,32,34,36,38,40,42,44,46,48,50,52,54,56,58,60,62,-1,-1,64,66,68,-1,-1,70,-1,72,74,76,78,80,82,84,-1,86,-1,-1,88,90,-1,-1,92,94,96,-1,-1,98,100,102,-1,-1,-1,-1,-1,-1,-1,-1,-1,-1,-1,-1,-1,-1,-1,-1,-1,-1,-1,-1,-1,-1,-1,-1,-1,-1,-1,-1,-1,-1,-1,-1,-1,-1,-1,-1,-1,-1,-1,-1],"split_conditions":[3.2285988E0,1.314083E0,5.465059E-1,-4.2247534E0,1.82886E0,-3.253668E0,2.4910553E0,-5.7672544E0,-6.8688636E0,-4.1700113E-1,-5.695475E0,5.9471264E0,3.9057338E-1,6.174409E0,2.7863842E-1,-6.8038893E0,6.279472E-1,1.0611683E1,-6.3896694E0,1.27687305E-2,-3.5503578E0,-5.875672E-1,3.4495702E0,-3.2173958E0,2.9978464E0,1.4953701E0,5.219719E0,4.1055384E0,1.1477975E0,-5.734828E0,-4.0703475E-1,3.5042764E-4,1.2025792E-3,-5.426027E-1,2.3877506E0,4.75869E0,-3.7856186E-3,3.2476063E-3,-3.1918674E0,-4.6979273E-3,-5.914408E-1,4.9405572E-1,-2.3322864E0,1.3236953E0,2.3058462E0,-6.065095E0,3.0000234E-1,-1.706636E-3,-1.3310747E0,-4.526329E-3,-1.0335982E-3,4.694807E0,2.8269715E0,-2.797699E-3,-4.9316883E-4,1.8360162E0,-2.414984E0,4.7949777E0,-6.503642E-4,2.5421978E-4,-6.7810564E0,3.8504333E0,-2.8402796E-1,-5.524054E-4,-2.235181E-3,1.4420749E-4,-6.8815204E-4,-8.801874E-4,7.7438954E-4,-4.219014E-4,4.1744398E-4,-1.6371399E-3,-6.6836964E-4,-9.035528E-4,-2.8431239E-3,6.0886145E-4,-3.523724E-4,-4.8828725E-4,2.8840185E-4,2.677431E-3,6.9672434E-4,1.5115436E-3,-1.7418999E-4,-2.219884E-3,-1.1706814E-4,-3.3592212E-4,2.4464878E-4,-8.0290926E-4,2.4226978E-5,1.0656416E-3,3.4661807E-5,1.4075537E-3,3.3719034E-3,1.6408921E-3,4.1648447E-5,1.7409325E-4,-1.4748574E-4,-9.8186734E-5,-8.2653936E-4,2.7343334E-4,1.5074302E-3,3.8757027E-4,-3.8828375E-4],"split_indices":[22,42,42,21,42,47,2,29,58,50,45,6,42,7,26,3,12,2,58,18,56,32,52,25,0,19,0,57,11,13,8,0,0,41,25,14,0,0,4,0,3,1,6,17,0,41,4,0,40,0,0,22,19,0,0,20,4,1,0,0,0,2,32,0,0,0,0,0,0,0,0,0,0,0,0,0,0,0,0,0,0,0,0,0,0,0,0,0,0,0,0,0,0,0,0,0,0,0,0,0,0,0,0],"split_type":[0,0,0,0,0,0,0,0,0,0,0,0,0,0,0,0,0,0,0,0,0,0,0,0,0,0,0,0,0,0,0,0,0,0,0,0,0,0,0,0,0,0,0,0,0,0,0,0,0,0,0,0,0,0,0,0,0,0,0,0,0,0,0,0,0,0,0,0,0,0,0,0,0,0,0,0,0,0,0,0,0,0,0,0,0,0,0,0,0,0,0,0,0,0,0,0,0,0,0,0,0,0,0],"sum_hessian":[6.57E2,5.11E2,1.46E2,3.04E2,2.07E2,7.4E1,7.2E1,4E1,2.64E2,2.5E1,1.82E2,1.3E1,6.1E1,4.9E1,2.3E1,6E0,3.4E1,2.3E1,2.41E2,9E0,1.6E1,1.4E1,1.68E2,1E1,3E0,5.8E1,3E0,4.1E1,8E0,9E0,1.4E1,2E0,4E0,1.9E1,1.5E1,2.2E1,1E0,2E0,2.39E2,3E0,6E0,3E0,1.3E1,6E0,8E0,1.31E2,3.7E1,2E0,8E0,2E0,1E0,3.7E1,2.1E1,2E0,1E0,3E1,1.1E1,5E0,3E0,2E0,7E0,5E0,9E0,9E0,1E1,8E0,7E0,1.8E1,4E0,4.5E1,1.94E2,3E0,3E0,2E0,1E0,3E0,1E1,2E0,4E0,4E0,4E0,1.1E1,1.2E2,1.8E1,1.9E1,5E0,3E0,9E0,2.8E1,8E0,1.3E1,2.3E1,7E0,2E0,9E0,4E0,1E0,1E0,6E0,1E0,4E0,5E0,4E0],"tree_param":{"num_deleted":"0","num_feature":"60","num_nodes":"103","size_leaf_vector":"0"}},{"base_weights":[-4.1026913E-5,-7.6617795E-4,2.0322482E-4,-1.4730844E-3,1.573571E-3,2.0054625E-3,-1.8760696E-7,-3.0548673E-3,-1.6017618E-4,4.9432646E-4,5.693853E-3,1.21029414E-4,9.531093E-3,-5.1293516E-4,1.0287733E-3,3.9906896E-4,-5.1766913E-3,-1.399368E-3,1.792846E-3,2.2333881E-3,-9.82354E-4,6.066163E-4,7.2884955E-3,-1.1496491E-3,5.5062845E-3,2.5862257E-3,1.5958715E-2,-4.1613673E-4,-1.4582634E-2,5.5184346E-3,5.185218E-4,6.5769753E-3,-5.0249236E-4,-9.176518E-3,-2.2142332E-3,-3.7259907E-3,-6.7460125E-5,3.999257E-3,5.3721666E-4,3.9491868E-3,6.5072376E-4,6.856546E-4,-2.1061464E-3,3.0439794E-3,-2.349626E-3,1.1038572E-2,-2.0802021E-5,3.717333E-3,2.1600723E-4,4.8975446E-3,-5.9983245E-4,1.0762726E-2,8.2638196E-4,1.5401173E-3,-6.926877E-4,8.163154E-3,1.7023087E-3,-2.0315342E-3,8.1358355E-4,-1.368355E-2,-1.3537705E-4,-4.1819754E-4,-4.7620405E-3,-1.9369126E-4,-4.887283E-3,6.821039E-4,-2.5206762E-3,-3.2782555E-4,4.5164693E-3,3.6115646E-3,-2.6494637E-4,1.601249E-3,-9.1413654E-5,-3.3404827E-4,1.7888695E-3,-1.3868015E-4,-2.5279522E-3,5.7724155E-3,2.524346E-4,-3.752491E-3,1.451239E-3,-9.1964006E-4,8.8497E-4,8.447209E-3,2.1695155E-3,-1.144674E-3,1.1381406E-3,1.1828999E-2,2.1825433E-3,3.2020807E-3,-8.951475E-4,2.7739995E-3,4.3193646E-5,-1.1681676E-2,-3.2103746E-4],"categories":[],"categories_nodes":[],"categories_segments":[],"categories_sizes":[],"default_left":[1,1,1,1,1,1,1,1,1,1,1,1,1,1,1,1,1,1,1,1,1,0,0,1,1,1,0,1,0,1,1,1,1,1,1,1,1,1,1,0,1,1,1,1,1,0,1,0,0,1,1,1,1,1,1,0,0,0,0,0,0,0,0,0,0,0,0,0,0,0,0,0,0,0,0,0,0,0,0,0,0,0,0,0,0,0,0,0,0,0,0,0,0,0,0],"id":91,"left_children":[1,3,5,7,9,11,13,15,17,19,21,23,25,27,29,31,33,35,37,39,41,-1,-1,43,45,47,-1,49,-1,51,53,55,57,59,61,63,65,67,69,-1,71,73,75,77,79,-1,81,-1,-1,83,85,87,89,91,93,-1,-1,-1,-1,-1,-1,-1,-1,-1,-1,-1,-1,-1,-1,-1,-1,-1,-1,-1,-1,-1,-1,-1,-1,-1,-1,-1,-1,-1,-1,-1,-1,-1,-1,-1,-1,-1,-1,-1,-1],"loss_changes":[1.1670027E-4,2.7687932E-4,1.8073298E-4,2.6533287E-4,1.7061026E-4,7.0792384E-4,2.3478082E-4,4.271273E-4,1.7434086E-4,8.4371204E-5,6.0477265E-5,2.8689034E-4,4.0511694E-4,3.9842326E-4,3.361853E-4,1.3140938E-4,4.062564E-4,1.3609792E-4,7.54237E-5,3.816317E-5,3.5185007E-5,5.9529043E-8,8.222414E-7,1.7824897E-4,2.4484904E-4,1.5282858E-5,0E0,2.918635E-4,0E0,3.602032E-4,1.6687388E-4,9.300071E-6,4.3911856E-5,6.0937833E-4,9.867948E-5,6.468588E-5,5.5045795E-5,2.3860819E-5,4.7813308E-5,0E0,6.495159E-6,9.59718E-6,8.778199E-6,5.9475256E-5,1.4941247E-4,0E0,4.884566E-6,0E0,4.6607818E-7,7.850953E-5,2.7306884E-4,3.822439E-5,3.9674855E-5,1.347132E-4,2.4946147E-4,0E0,0E0,0E0,0E0,0E0,0E0,0E0,0E0,0E0,0E0,0E0,0E0,0E0,0E0,0E0,0E0,0E0,0E0,0E0,0E0,0E0,0E0,0E0,0E0,0E0,0E0,0E0,0E0,0E0,0E0,0E0,0E0,0E0,0E0,0E0,0E0,0E0,0E0,0E0,0E0],"parents":[2147483647,0,0,1,1,2,2,3,3,4,4,5,5,6,6,7,7,8,8,9,9,10,10,11,11,12,12,13,13,14,14,15,15,16,16,17,17,18,18,19,19,20,20,23,23,24,24,25,25,27,27,29,29,30,30,31,31,32,32,33,33,34,34,35,35,36,36,37,37,38,38,40,40,41,41,42,42,43,43,44,44,46,46,49,49,50,50,51,51,52,52,53,53,54,54],"right_children":[2,4,6,8,10,12,14,16,18,20,22,24,26,28,30,32,34,36,38,40,42,-1,-1,44,46,48,-1,50,-1,52,54,56,58,60,62,64,66,68,70,-1,72,74,76,78,80,-1,82,-1,-1,84,86,88,90,92,94,-1,-1,-1,-1,-1,-1,-1,-1,-1,-1,-1,-1,-1,-1,-1,-1,-1,-1,-1,-1,-1,-1,-1,-1,-1,-1,-1,-1,-1,-1,-1,-1,-1,-1,-1,-1,-1,-1,-1,-1],"split_conditions":[-2.126668E0,3.314138E0,-1.3413863E0,-6.110842E-1,4.043887E0,3.4022818E0,2.4930735E0,-7.8487897E-1,1.8678603E0,-1.0051088E0,-2.2362638E0,1.1269778E0,-4.3451107E-1,2.4160826E0,2.8944364E0,-6.4910197E0,2.1925268E0,-8.9610565E-1,5.547862E-1,7.181887E-1,-2.8611863E-1,1.819849E-4,2.1865487E-3,-5.075421E0,1.0201806E-1,3.329966E0,4.7876146E-3,-7.6355495E0,-4.3747905E-3,-7.3781806E-1,1.4299796E0,4.973684E0,-7.90413E-1,1.2551452E0,-1.6556773E0,-1.9905276E0,3.1738386E0,-2.9616933E0,-3.963295E0,1.184756E-3,3.880016E-1,2.6159573E0,-9.684707E-1,-1.3413463E0,2.4102845E0,3.3115717E-3,7.720119E-2,1.1152E-3,6.4802174E-5,-1.3605132E0,3.133E0,3.4702692E0,-3.697943E-1,9.7795606E-1,1.537582E0,2.4489462E-3,5.106926E-4,-6.094603E-4,2.4407507E-4,-4.105065E-3,-4.0613115E-5,-1.2545926E-4,-1.4286122E-3,-5.810738E-5,-1.466185E-3,2.0463119E-4,-7.562029E-4,-9.834767E-5,1.3549408E-3,1.0834695E-3,-7.9483914E-5,4.803747E-4,-2.7424097E-5,-1.00214485E-4,5.366609E-4,-4.1604046E-5,-7.583857E-4,1.7317247E-3,7.5730386E-5,-1.1257473E-3,4.353717E-4,-2.7589203E-4,2.6549102E-4,2.534163E-3,6.5085466E-4,-3.434022E-4,3.4144218E-4,3.5487E-3,6.54763E-4,9.6062425E-4,-2.6854427E-4,8.321999E-4,1.2958094E-5,-3.5045028E-3,-9.631124E-5],"split_indices":[37,16,37,27,54,55,14,7,29,56,8,59,4,14,14,10,7,23,49,23,19,0,0,31,6,1,0,33,0,22,18,0,23,18,27,44,19,8,20,0,41,1,0,6,34,0,5,0,0,20,0,3,4,43,18,0,0,0,0,0,0,0,0,0,0,0,0,0,0,0,0,0,0,0,0,0,0,0,0,0,0,0,0,0,0,0,0,0,0,0,0,0,0,0,0],"split_type":[0,0,0,0,0,0,0,0,0,0,0,0,0,0,0,0,0,0,0,0,0,0,0,0,0,0,0,0,0,0,0,0,0,0,0,0,0,0,0,0,0,0,0,0,0,0,0,0,0,0,0,0,0,0,0,0,0,0,0,0,0,0,0,0,0,0,0,0,0,0,0,0,0,0,0,0,0,0,0,0,0,0,0,0,0,0,0,0,0,0,0,0,0,0,0],"sum_hessian":[6.57E2,1.65E2,4.92E2,1.27E2,3.8E1,4.9E1,4.43E2,5.7E1,7E1,3.1E1,7E0,4E1,9E0,2.96E2,1.47E2,2.2E1,3.5E1,4.3E1,2.7E1,1.4E1,1.7E1,2E0,5E0,3.3E1,7E0,5E0,4E0,2.95E2,1E0,1.4E1,1.33E2,2E0,2E1,1.4E1,2.1E1,1.5E1,2.8E1,9E0,1.8E1,6E0,8E0,7E0,1E1,7E0,2.6E1,3E0,4E0,3E0,2E0,9E0,2.86E2,6E0,8E0,7.2E1,6.1E1,1E0,1E0,9E0,1.1E1,9E0,5E0,1.3E1,8E0,4E0,1.1E1,2.2E1,6E0,1E0,8E0,3E0,1.5E1,3E0,5E0,4E0,3E0,2E0,8E0,3E0,4E0,1.9E1,7E0,2E0,2E0,3E0,6E0,2.18E2,6.8E1,5E0,1E0,3E0,5E0,3.9E1,3.3E1,1E0,6E1],"tree_param":{"num_deleted":"0","num_feature":"60","num_nodes":"95","size_leaf_vector":"0"}},{"base_weights":[-1.0404375E-5,1.3217144E-3,-1.2928703E-4,3.9685724E-4,7.474776E-3,-1.777379E-3,-3.1818126E-6,8.353846E-4,-6.459514E-3,1.1053823E-2,2.0270348E-3,-4.8036978E-4,-7.391748E-3,-4.2947012E-4,5.439298E-4,2.4667254E-3,-3.0143186E-4,1.1444092E-5,2.6950836E-3,1.0695695E-3,-2.484642E-3,-3.5647713E-3,-1.2581785E-2,-2.0327168E-3,-4.726189E-5,-1.972056E-4,1.8618692E-3,6.235644E-3,1.3703253E-3,-1.6122626E-3,1.8709667E-3,-1.6264234E-3,2.2563948E-3,5.9040386E-4,-2.966106E-3,-6.492734E-4,-4.018016E-3,-3.7200653E-3,-2.7979675E-4,3.0838146E-3,-3.5350656E-4,-2.2264852E-3,4.5848955E-4,9.3545375E-4,4.8171454E-3,-5.022188E-4,2.267138E-3,-3.424704E-3,-4.2064986E-4,3.1379014E-3,6.987325E-4,-2.9206276E-5,-2.8170347E-3,-7.8763964E-4,3.4349202E-3,-4.4370173E-3,-1.9340396E-3,-5.783083E-3,-8.0189534E-4,-8.911436E-4,3.0774355E-3,-7.838011E-4,5.1987967E-3,-1.4665738E-3,7.4382435E-4,-4.653725E-3,-5.155553E-4,1.143032E-3,-1.1895421E-3,-1.1047501E-3,1.979572E-3,1.2652831E-3,1.0430761E-2],"categories":[],"categories_nodes":[],"categories_segments":[],"categories_sizes":[],"default_left":[1,1,1,1,1,1,1,1,0,0,1,1,1,1,1,1,1,0,0,1,1,1,0,1,1,1,1,0,1,1,1,1,1,0,1,0,0,1,1,1,1,1,1,1,1,0,0,0,0,0,0,0,0,0,0,0,0,0,0,0,0,0,0,0,0,0,0,0,0,0,0,0,0],"id":92,"left_children":[1,3,5,7,9,11,13,15,-1,-1,17,19,21,23,25,27,29,-1,-1,31,33,35,-1,37,39,41,43,-1,45,47,49,51,53,-1,55,-1,-1,57,59,61,63,65,67,69,71,-1,-1,-1,-1,-1,-1,-1,-1,-1,-1,-1,-1,-1,-1,-1,-1,-1,-1,-1,-1,-1,-1,-1,-1,-1,-1,-1,-1],"loss_changes":[1.0437559E-4,3.0433154E-4,1.257333E-4,1.497181E-4,1.1407756E-4,3.0957043E-4,1.3154057E-4,8.6052154E-5,0E0,0E0,5.3552103E-6,1.1449151E-4,1.1404604E-4,1.9415331E-4,2.4162975E-4,6.996776E-5,8.27506E-5,0E0,0E0,7.086298E-5,2.5439578E-5,5.319809E-6,0E0,1.7938414E-4,2.4752118E-4,2.1258445E-4,2.3915918E-4,0E0,2.8007738E-5,3.7434515E-5,1.4144032E-5,1.3229381E-5,5.6517565E-5,2.6995713E-7,1.26717205E-5,0E0,0E0,1.8198989E-4,6.6367866E-5,1.9221337E-4,2.881206E-4,1.5956137E-4,1.3786554E-4,1.491717E-4,4.0551674E-4,0E0,0E0,0E0,0E0,0E0,0E0,0E0,0E0,0E0,0E0,0E0,0E0,0E0,0E0,0E0,0E0,0E0,0E0,0E0,0E0,0E0,0E0,0E0,0E0,0E0,0E0,0E0,0E0],"parents":[2147483647,0,0,1,1,2,2,3,3,4,4,5,5,6,6,7,7,10,10,11,11,12,12,13,13,14,14,15,15,16,16,19,19,20,20,21,21,23,23,24,24,25,25,26,26,28,28,29,29,30,30,31,31,32,32,34,34,37,37,38,38,39,39,40,40,41,41,42,42,43,43,44,44],"right_children":[2,4,6,8,10,12,14,16,-1,-1,18,20,22,24,26,28,30,-1,-1,32,34,36,-1,38,40,42,44,-1,46,48,50,52,54,-1,56,-1,-1,58,60,62,64,66,68,70,72,-1,-1,-1,-1,-1,-1,-1,-1,-1,-1,-1,-1,-1,-1,-1,-1,-1,-1,-1,-1,-1,-1,-1,-1,-1,-1,-1,-1],"split_conditions":[-6.345833E0,5.3229613E0,-6.5286446E0,9.072315E0,2.7588372E0,-7.018963E0,1.0836959E0,-3.5927957E-1,-1.9378543E-3,3.316147E-3,6.470567E0,3.5643655E-1,7.054796E-1,-2.7916832E0,1.1409557E0,-4.7489696E0,1.9841765E0,3.4332277E-6,8.0852513E-4,-4.657234E-1,-2.2512183E0,-7.10653E0,-3.7745356E-3,7.213852E-1,-1.7481918E0,-2.604732E0,2.3706934E0,1.8706933E-3,-2.2373066E0,-8.2385635E-1,-1.261681E0,-2.1735604E0,-6.981152E-2,1.7712117E-4,-4.4897756E-1,-1.9478203E-4,-1.2054049E-3,1.9362404E0,5.0142894E0,-2.8020642E0,3.0466008E-1,-8.7417793E-1,2.8332915E0,-7.073866E-1,1.1056669E0,-1.5066564E-4,6.8014144E-4,-1.0274113E-3,-1.2619497E-4,9.4137044E-4,2.0961976E-4,-8.761883E-6,-8.4511045E-4,-2.362919E-4,1.0304761E-3,-1.3311052E-3,-5.802119E-4,-1.734925E-3,-2.4056861E-4,-2.6734307E-4,9.232307E-4,-2.3514034E-4,1.5596391E-3,-4.3997215E-4,2.2314732E-4,-1.3961175E-3,-1.546666E-4,3.429096E-4,-3.5686264E-4,-3.3142505E-4,5.9387163E-4,3.7958493E-4,3.1292283E-3],"split_indices":[50,0,56,42,20,56,53,21,0,0,0,47,5,48,52,0,54,0,0,30,3,1,0,43,48,7,36,0,55,45,5,3,16,0,4,0,0,0,31,45,50,12,30,17,58,0,0,0,0,0,0,0,0,0,0,0,0,0,0,0,0,0,0,0,0,0,0,0,0,0,0,0,0],"split_type":[0,0,0,0,0,0,0,0,0,0,0,0,0,0,0,0,0,0,0,0,0,0,0,0,0,0,0,0,0,0,0,0,0,0,0,0,0,0,0,0,0,0,0,0,0,0,0,0,0,0,0,0,0,0,0,0,0,0,0,0,0,0,0,0,0,0,0,0,0,0,0,0,0],"sum_hessian":[6.57E2,5.3E1,6.04E2,4.7E1,6E0,4.2E1,5.62E2,4.5E1,2E0,3E0,3E0,3.5E1,7E0,3.16E2,2.46E2,1.8E1,2.7E1,1E0,2E0,2E1,1.5E1,5E0,2E0,6E1,2.56E2,1.58E2,8.8E1,3E0,1.5E1,1.7E1,1E1,6E0,1.4E1,2E0,1.3E1,1E0,4E0,3E1,3E1,2.2E1,2.34E2,3.8E1,1.2E2,6.8E1,2E1,5E0,1E1,6E0,1.1E1,4E0,6E0,3E0,3E0,4E0,1E1,4E0,9E0,1.7E1,1.3E1,2.6E1,4E0,8E0,1.4E1,1.16E2,1.18E2,1.5E1,2.3E1,8.5E1,3.5E1,2.3E1,4.5E1,1.3E1,7E0],"tree_param":{"num_deleted":"0","num_feature":"60","num_nodes":"73","size_leaf_vector":"0"}},{"base_weights":[-7.873734E-6,3.4693258E-3,-5.0592203E-5,7.196585E-3,1.0274751E-3,6.921968E-4,-2.2493926E-4,2.4310748E-4,1.3588821E-3,2.2555543E-3,-1.6558004E-4,-4.7825905E-4,7.6462165E-4,3.7032773E-3,-4.133913E-5,5.432774E-4,-2.5072873E-3,1.8167037E-4,-1.1235501E-3,-5.07836E-4,1.6142142E-3,5.876012E-3,4.9769133E-4,-1.2326181E-3,1.2868973E-3,1.9729236E-4,5.597234E-3,-4.186068E-3,-1.4104602E-3,1.4323517E-3,-7.397536E-4,-1.02236215E-2,-9.004692E-4,1.5998594E-3,-1.6531908E-3,-2.414614E-4,2.385938E-3,3.7835538E-4,7.115598E-3,-6.0973165E-4,1.1276193E-3,-1.9725163E-3,-9.821654E-5,3.491988E-4,2.371721E-3,-6.947749E-4,1.4739776E-3,-1.1117458E-3,8.204143E-3,-4.929161E-3,-1.5522242E-3,5.8009726E-4,-1.8251159E-3,2.793975E-3,-1.6338269E-3,-4.5934916E-3,-3.890649E-4,-1.208961E-3,-1.2175046E-2,4.7818085E-4,-1.776632E-3,4.1071856E-3,-3.1525493E-4,-2.0445855E-3,2.4204254E-3,6.8427407E-4,-2.0584378E-3,1.9119765E-3,8.542061E-3],"categories":[],"categories_nodes":[],"categories_segments":[],"categories_sizes":[],"default_left":[1,1,1,0,1,1,1,0,0,1,1,1,1,1,1,1,1,1,1,1,1,1,1,1,1,1,1,1,1,1,1,1,1,1,1,1,1,0,0,0,0,0,0,0,0,0,0,0,0,0,0,0,0,0,0,0,0,0,0,0,0,0,0,0,0,0,0,0,0],"id":93,"left_children":[1,3,5,-1,7,9,11,-1,-1,13,15,17,19,21,23,25,27,29,31,33,35,37,39,41,43,45,47,49,51,53,55,57,59,61,63,65,67,-1,-1,-1,-1,-1,-1,-1,-1,-1,-1,-1,-1,-1,-1,-1,-1,-1,-1,-1,-1,-1,-1,-1,-1,-1,-1,-1,-1,-1,-1,-1,-1],"loss_changes":[9.791526E-5,6.541697E-5,8.44622E-5,0E0,1.2293149E-6,1.6665894E-4,1.3272229E-4,2.3147791E-8,0E0,1.464648E-4,1.3581703E-4,1.7948553E-4,1.1757536E-4,1.8512754E-4,3.0067657E-5,1.0905708E-4,2.9081028E-5,2.4191276E-4,4.2319502E-4,1.08863474E-4,9.3660594E-5,1.06344814E-4,9.058706E-6,8.199683E-6,8.326938E-6,6.9357426E-5,7.9079706E-5,6.049173E-6,1.1788894E-5,3.7613814E-4,1.6173978E-4,7.323804E-5,2.5330522E-4,7.812388E-5,5.118613E-5,3.5049332E-5,1.1788501E-4,0E0,0E0,0E0,0E0,0E0,0E0,0E0,0E0,0E0,0E0,0E0,0E0,0E0,0E0,0E0,0E0,0E0,0E0,0E0,0E0,0E0,0E0,0E0,0E0,0E0,0E0,0E0,0E0,0E0,0E0,0E0,0E0],"parents":[2147483647,0,0,1,1,2,2,4,4,5,5,6,6,9,9,10,10,11,11,12,12,13,13,14,14,15,15,16,16,17,17,18,18,19,19,20,20,21,21,22,22,23,23,24,24,25,25,26,26,27,27,28,28,29,29,30,30,31,31,32,32,33,33,34,34,35,35,36,36],"right_children":[2,4,6,-1,8,10,12,-1,-1,14,16,18,20,22,24,26,28,30,32,34,36,38,40,42,44,46,48,50,52,54,56,58,60,62,64,66,68,-1,-1,-1,-1,-1,-1,-1,-1,-1,-1,-1,-1,-1,-1,-1,-1,-1,-1,-1,-1,-1,-1,-1,-1,-1,-1,-1,-1,-1,-1,-1,-1],"split_conditions":[-1.2044887E1,-9.877617E-1,-3.5226164E0,2.1589757E-3,-1.5516626E0,-1.4497726E0,3.5285053E0,7.293225E-5,4.0766463E-4,1.9661553E0,3.5692985E0,-4.962562E-2,-4.9395716E-1,1.1494482E0,2.0593848E0,8.703407E0,-8.417516E-1,1.9002196E-1,6.8615624E-3,-1.5263815E0,-2.2812715E0,-3.5049052E0,-4.213977E0,3.3975828E-1,-4.426366E0,1.2097123E0,7.174982E-1,2.024717E0,-2.0746768E0,2.3370214E0,-5.8685217E0,-6.599866E0,-4.9020332E-1,3.723423E0,7.8942657E0,1.537931E0,8.143808E0,1.1350662E-4,2.1346794E-3,-1.829195E-4,3.382858E-4,-5.917549E-4,-2.9464962E-5,1.0475964E-4,7.115163E-4,-2.0843248E-4,4.421933E-4,-3.3352376E-4,2.461243E-3,-1.4787484E-3,-4.6566725E-4,1.7402918E-4,-5.475348E-4,8.381925E-4,-4.901481E-4,-1.3780475E-3,-1.1671947E-4,-3.6268833E-4,-3.652514E-3,1.4345426E-4,-5.329896E-4,1.2321557E-3,-9.4576484E-5,-6.133757E-4,7.2612765E-4,2.0528222E-4,-6.1753136E-4,5.7359296E-4,2.5626183E-3],"split_indices":[53,3,34,0,2,3,3,0,0,46,59,33,20,57,52,0,18,44,33,53,11,51,0,57,34,32,1,1,21,43,45,0,45,39,59,41,41,0,0,0,0,0,0,0,0,0,0,0,0,0,0,0,0,0,0,0,0,0,0,0,0,0,0,0,0,0,0,0,0],"split_type":[0,0,0,0,0,0,0,0,0,0,0,0,0,0,0,0,0,0,0,0,0,0,0,0,0,0,0,0,0,0,0,0,0,0,0,0,0,0,0,0,0,0,0,0,0,0,0,0,0,0,0,0,0,0,0,0,0,0,0,0,0,0,0,0,0,0,0,0,0],"sum_hessian":[6.57E2,7E0,6.5E2,2E0,5E0,1.23E2,5.27E2,2E0,3E0,4.3E1,8E1,4.2E2,1.07E2,2.6E1,1.7E1,6.2E1,1.8E1,2.08E2,2.12E2,4.3E1,6.4E1,1.5E1,1.1E1,9E0,8E0,5.9E1,3E0,6E0,1.2E1,8.8E1,1.2E2,4E0,2.08E2,1.5E1,2.8E1,1.9E1,4.5E1,3E0,1.2E1,4E0,7E0,5E0,4E0,5E0,3E0,3.5E1,2.4E1,1E0,2E0,4E0,2E0,2E0,1E1,6.1E1,2.7E1,9E0,1.11E2,1E0,3E0,8.1E1,1.27E2,6E0,9E0,2.6E1,2E0,1.3E1,6E0,4.3E1,2E0],"tree_param":{"num_deleted":"0","num_feature":"60","num_nodes":"69","size_leaf_vector":"0"}},{"base_weights":[1.2551094E-7,5.692298E-4,-2.2032775E-4,7.9120573E-4,-2.6783596E-3,-1.3261737E-3,3.8082766E-5,1.0709366E-3,-1.5324511E-3,-4.0126806E-3,9.93453E-4,-1.7550825E-3,6.316292E-3,2.6227057E-4,-1.7104284E-3,-8.43787E-4,1.4997242E-3,-2.6379987E-3,-1.0954009E-5,-4.960797E-3,-4.6284994E-4,-2.1141067E-3,6.133437E-3,9.356896E-3,1.1702577E-3,6.711004E-5,2.3730737E-3,-1.1172384E-2,-1.2305601E-3,-8.794003E-5,-7.365147E-3,-4.0447712E-4,2.0928225E-3,-3.4278408E-3,-3.9881468E-4,7.0716935E-4,-1.0854006E-3,-3.327541E-3,3.8826626E-4,1.437664E-3,1.0110378E-2,2.1566749E-3,-4.0128827E-4,2.541346E-4,-2.859911E-3,5.448712E-3,1.1467927E-3,-6.701335E-4,-6.5271854E-3,2.169845E-4,-1.8955022E-3,-1.8374885E-3,1.2465676E-3,3.9249804E-4,2.8483034E-3,-1.5461892E-3,-4.2475937E-3,1.5711938E-3,-4.1767303E-3,-6.0518394E-4,5.079174E-3,1.9001961E-3,2.5629997E-4,-2.1756364E-3,4.6603373E-4,4.0692728E-4,-4.3989844E-3,4.529506E-4,7.038474E-3,2.892308E-3,1.3939837E-4,-1.556252E-3,9.104808E-4,-1.02415085E-2,-1.8752416E-3],"categories":[],"categories_nodes":[],"categories_segments":[],"categories_sizes":[],"default_left":[1,1,1,1,1,1,1,1,1,1,0,1,1,1,1,1,1,1,1,0,0,1,1,0,1,1,1,0,1,1,0,1,1,1,0,0,0,1,1,1,0,0,0,1,1,1,1,1,1,0,0,0,0,0,0,0,0,0,0,0,0,0,0,0,0,0,0,0,0,0,0,0,0,0,0],"id":94,"left_children":[1,3,5,7,9,11,13,15,17,19,-1,21,23,25,27,29,31,33,35,-1,-1,37,39,-1,41,43,45,-1,47,49,-1,51,53,55,-1,-1,-1,57,59,61,-1,-1,-1,63,65,67,69,71,73,-1,-1,-1,-1,-1,-1,-1,-1,-1,-1,-1,-1,-1,-1,-1,-1,-1,-1,-1,-1,-1,-1,-1,-1,-1,-1],"loss_changes":[8.2678685E-5,1.347623E-4,1.3578756E-4,1.1409087E-4,6.2778934E-5,3.060985E-4,1.517586E-4,1.2852199E-4,3.193076E-5,2.7994742E-5,1.12135695E-7,2.5653324E-4,6.728526E-5,1.41138E-4,1.860334E-4,1.4229766E-4,1.4427755E-4,1.8087543E-5,7.711829E-6,0E0,0E0,2.5331863E-4,6.016392E-5,0E0,5.516048E-6,1.731656E-4,1.0312778E-4,0E0,1.2326581E-4,1.5292886E-5,0E0,7.563549E-5,1.2348464E-4,5.7723373E-6,0E0,6.30268E-7,0E0,2.3951975E-4,1.3355896E-4,1.1522357E-6,0E0,0E0,0E0,1.5392923E-4,9.7320226E-5,6.0348495E-5,3.8282105E-5,5.74414E-5,4.9909984E-5,0E0,0E0,0E0,0E0,0E0,0E0,0E0,0E0,0E0,0E0,0E0,0E0,0E0,0E0,0E0,0E0,0E0,0E0,0E0,0E0,0E0,0E0,0E0,0E0,0E0,0E0],"parents":[2147483647,0,0,1,1,2,2,3,3,4,4,5,5,6,6,7,7,8,8,9,9,11,11,12,12,13,13,14,14,15,15,16,16,17,17,18,18,21,21,22,22,24,24,25,25,26,26,28,28,29,29,31,31,32,32,33,33,37,37,38,38,39,39,43,43,44,44,45,45,46,46,47,47,48,48],"right_children":[2,4,6,8,10,12,14,16,18,20,-1,22,24,26,28,30,32,34,36,-1,-1,38,40,-1,42,44,46,-1,48,50,-1,52,54,56,-1,-1,-1,58,60,62,-1,-1,-1,64,66,68,70,72,74,-1,-1,-1,-1,-1,-1,-1,-1,-1,-1,-1,-1,-1,-1,-1,-1,-1,-1,-1,-1,-1,-1,-1,-1,-1,-1],"split_conditions":[-1.7012738E0,7.463217E0,-4.8636585E-1,5.8065677E0,3.004676E0,5.4436364E0,5.4762545E0,-3.2670364E0,1.3779843E0,3.8117266E0,2.980359E-4,7.6029997E0,3.6335819E0,4.071004E0,-1.0516804E1,6.369126E0,-3.186315E0,8.574664E0,4.945086E0,-1.4882392E-3,-1.3885499E-4,2.3166766E0,-6.525731E-2,2.807069E-3,3.253059E0,3.2454395E0,-2.6803312E0,-3.3517154E-3,5.22212E0,3.5953074E0,-2.2095442E-3,2.1795325E0,-2.039835E0,1.1403933E0,-1.1964441E-4,2.1215082E-4,-3.2562017E-4,-3.4521182E0,2.505021E0,-3.9150214E-1,3.0331137E-3,6.470025E-4,-1.2038649E-4,-6.3896694E0,8.0347466E-1,-4.6838146E-1,4.6627176E-1,1.7019964E0,-1.8293221E0,6.509535E-5,-5.6865066E-4,-5.512466E-4,3.7397028E-4,1.1774942E-4,8.544911E-4,-4.6385676E-4,-1.2742782E-3,4.7135816E-4,-1.2530191E-3,-1.815552E-4,1.5237522E-3,5.700588E-4,7.688999E-5,-6.5269094E-4,1.3981013E-4,1.2207819E-4,-1.3196954E-3,1.3588519E-4,2.1115423E-3,8.676924E-4,4.1819512E-5,-4.6687562E-4,2.7314425E-4,-3.0724527E-3,-5.625725E-4],"split_indices":[11,5,11,28,20,41,6,28,36,4,0,56,3,6,9,56,46,28,35,0,0,35,1,0,0,6,17,0,22,36,0,12,37,13,0,0,0,30,41,0,0,0,0,57,48,16,1,42,0,0,0,0,0,0,0,0,0,0,0,0,0,0,0,0,0,0,0,0,0,0,0,0,0,0,0],"split_type":[0,0,0,0,0,0,0,0,0,0,0,0,0,0,0,0,0,0,0,0,0,0,0,0,0,0,0,0,0,0,0,0,0,0,0,0,0,0,0,0,0,0,0,0,0,0,0,0,0,0,0,0,0,0,0,0,0,0,0,0,0,0,0,0,0,0,0,0,0,0,0,0,0,0,0],"sum_hessian":[6.57E2,1.83E2,4.74E2,1.72E2,1.1E1,8.9E1,3.85E2,1.54E2,1.8E1,8E0,3E0,8.5E1,4E0,3.42E2,4.3E1,2.8E1,1.26E2,1E1,8E0,6E0,2E0,8.2E1,3E0,2E0,2E0,3.14E2,2.8E1,1E0,4.2E1,2.6E1,2E0,3E1,9.6E1,7E0,3E0,5E0,3E0,5.5E1,2.7E1,2E0,1E0,1E0,1E0,2.96E2,1.8E1,7E0,2.1E1,3.9E1,3E0,2.3E1,3E0,1.6E1,1.4E1,3E1,6.6E1,3E0,4E0,8E0,4.7E1,2.3E1,4E0,1E0,1E0,2.3E1,2.73E2,6E0,1.2E1,2E0,5E0,7E0,1.4E1,2.5E1,1.4E1,1E0,2E0],"tree_param":{"num_deleted":"0","num_feature":"60","num_nodes":"75","size_leaf_vector":"0"}},{"base_weights":[-5.043489E-6,-6.6006214E-5,1.7603338E-3,1.1861813E-3,-1.563895E-4,2.9750678E-3,-3.248453E-4,5.5672727E-3,4.6321476E-4,-3.655384E-3,-8.4224564E-5,6.154716E-3,1.9322336E-3,3.2031536E-4,-9.050369E-4,7.098496E-3,1.6698837E-3,2.0760805E-3,-8.041459E-4,-1.5672892E-3,-6.265259E-3,-3.679622E-4,3.7013E-4,-5.51939E-4,2.2082438E-3,5.8351865E-4,4.124952E-3,-1.6096445E-3,1.6121244E-3,1.5580654E-4,-2.632308E-3,3.7961587E-4,-1.1964526E-3,3.2656481E-3,-8.138021E-6,2.8293778E-3,1.219069E-3,1.1849403E-3,-1.15156174E-4,9.203926E-4,6.298274E-3,-4.490167E-4,-2.3771822E-3,5.717486E-4,3.4070015E-3,1.6467177E-3,-1.7580911E-4,-1.9947125E-4,-2.3549695E-3,2.1842164E-3,8.667469E-3,-7.943707E-4,8.182916E-4],"categories":[],"categories_nodes":[],"categories_segments":[],"categories_sizes":[],"default_left":[1,1,1,1,1,1,1,1,1,1,1,0,1,0,0,0,0,1,1,1,0,1,1,0,1,1,1,1,1,0,0,1,1,1,1,0,0,0,0,0,0,0,0,0,0,0,0,0,0,0,0,0,0],"id":95,"left_children":[1,3,5,7,9,11,13,15,17,19,21,-1,23,-1,-1,-1,-1,25,27,29,-1,31,33,-1,35,37,39,41,43,-1,-1,45,47,49,51,-1,-1,-1,-1,-1,-1,-1,-1,-1,-1,-1,-1,-1,-1,-1,-1,-1,-1],"loss_changes":[7.0931615E-5,7.227914E-5,5.6691068E-5,1.336186E-4,1.4993243E-4,3.4529497E-5,3.6587485E-6,2.3952976E-5,7.9344616E-5,5.557653E-5,7.542401E-5,0E0,9.446696E-6,4.1787138E-7,1.5584692E-7,0E0,0E0,4.9580172E-5,4.5413595E-5,1.5091166E-5,0E0,2.2342429E-4,2.46465E-4,0E0,3.3093092E-6,4.7586336E-6,4.2954875E-5,1.4076642E-5,9.256131E-6,7.3636045E-8,0E0,1.340077E-4,1.9703861E-4,1.3295258E-4,1.3060324E-4,0E0,0E0,0E0,0E0,0E0,0E0,0E0,0E0,0E0,0E0,0E0,0E0,0E0,0E0,0E0,0E0,0E0,0E0],"parents":[2147483647,0,0,1,1,2,2,3,3,4,4,5,5,6,6,7,7,8,8,9,9,10,10,12,12,17,17,18,18,19,19,21,21,22,22,24,24,25,25,26,26,27,27,28,28,31,31,32,32,33,33,34,34],"right_children":[2,4,6,8,10,12,14,16,18,20,22,-1,24,-1,-1,-1,-1,26,28,30,-1,32,34,-1,36,38,40,42,44,-1,-1,46,48,50,52,-1,-1,-1,-1,-1,-1,-1,-1,-1,-1,-1,-1,-1,-1,-1,-1,-1,-1],"split_conditions":[9.502235E0,-6.6382513E0,3.826476E0,-5.035281E0,-6.0199194E0,-6.069954E0,-3.5621095E0,3.222166E0,-1.3581955E0,2.1660228E0,1.5312562E0,1.8464149E-3,-4.433728E0,9.609461E-5,-2.715111E-4,2.129549E-3,5.0096516E-4,1.9674866E0,5.0845103E0,-4.245715E-1,-1.8795778E-3,2.3350841E-1,1.8650547E0,-1.655817E-4,9.754665E-1,-3.758156E-1,-1.0039401E0,1.1367278E0,1.6114247E0,4.6741963E-5,-7.8969245E-4,-1.355109E0,1.0350428E0,5.2806177E0,5.630778E-1,8.488134E-4,3.657207E-4,3.554821E-4,-3.4546854E-5,2.761178E-4,1.8894823E-3,-1.3470501E-4,-7.131547E-4,1.7152459E-4,1.0221004E-3,4.9401534E-4,-5.2742736E-5,-5.984138E-5,-7.064909E-4,6.5526494E-4,2.6002408E-3,-2.3831123E-4,2.454875E-4],"split_indices":[52,49,54,28,49,1,2,8,30,32,22,0,1,0,0,0,0,48,12,31,0,35,22,0,53,47,4,20,2,0,0,56,42,16,42,0,0,0,0,0,0,0,0,0,0,0,0,0,0,0,0,0,0],"split_type":[0,0,0,0,0,0,0,0,0,0,0,0,0,0,0,0,0,0,0,0,0,0,0,0,0,0,0,0,0,0,0,0,0,0,0,0,0,0,0,0,0,0,0,0,0,0,0,0,0,0,0,0,0],"sum_hessian":[6.57E2,6.36E2,2.1E1,4.2E1,5.94E2,1.3E1,8E0,5E0,3.7E1,1.1E1,5.83E2,2E0,1.1E1,4E0,4E0,3E0,2E0,1.6E1,2.1E1,7E0,4E0,3.59E2,2.24E2,1E0,1E1,1E1,6E0,1.6E1,5E0,3E0,4E0,1.89E2,1.7E2,2.5E1,1.99E2,5E0,5E0,5E0,5E0,3E0,3E0,7E0,9E0,4E0,1E0,5.7E1,1.32E2,9.2E1,7.8E1,2.2E1,3E0,1.02E2,9.7E1],"tree_param":{"num_deleted":"0","num_feature":"60","num_nodes":"53","size_leaf_vector":"0"}},{"base_weights":[9.396131E-6,-9.996449E-5,8.481836E-4,7.0315914E-4,-2.597243E-4,1.6364862E-3,-6.4305024E-4,1.9183264E-3,-2.2077272E-4,1.2209981E-3,-4.1323903E-4,3.5292471E-3,6.419738E-4,3.9818088E-4,-1.7950053E-3,-4.5253732E-4,3.3947246E-3,-1.1487638E-3,1.3805821E-3,-7.5102475E-4,1.8622346E-3,-6.2784593E-4,9.6355577E-4,6.5694717E-3,9.688404E-5,2.5934802E-4,2.8093338E-3,8.09893E-4,-3.543695E-4,-2.4794997E-3,3.649816E-4,2.0113152E-3,-1.6467521E-3,4.077047E-4,4.9521057E-3,-2.3421787E-3,8.93901E-4,3.4837846E-3,3.0704885E-4,2.2504396E-4,-2.759423E-3,-8.399983E-4,2.3406066E-3,1.8408391E-4,-1.0219363E-3,2.571446E-3,3.1834228E-5,1.7790794E-3,7.684001E-3,1.3196946E-3,-1.1453032E-3,1.1704069E-3,-5.061916E-4,4.4758405E-4,1.2414604E-3,-2.750866E-3,-9.293556E-4,2.716656E-3,-7.5769424E-4,-7.061064E-4,-2.822435E-3,3.510952E-3,-3.2720633E-4,1.3169476E-3,6.8151965E-3,-8.445025E-4,-3.2446492E-3,-1.2004972E-3,1.5742366E-3,1.2308278E-3,4.8657954E-3,-9.908838E-4,1.0551035E-3,8.901407E-4,-8.288622E-4,8.7571144E-4,-1.9167811E-3,3.0018543E-3,7.17926E-4,-1.2221637E-3,1.2218001E-3,-4.872572E-3,-8.142932E-4,8.137941E-3,8.8233914E-4,-3.9286218E-3,3.5209188E-4,-4.502535E-4,1.6533374E-3,-1.6962314E-3,1.3101101E-4],"categories":[],"categories_nodes":[],"categories_segments":[],"categories_sizes":[],"default_left":[1,1,1,1,1,1,1,1,1,1,1,1,1,1,1,1,1,1,1,1,1,1,1,1,1,1,0,1,0,1,0,1,1,1,1,1,1,1,1,1,0,1,1,1,1,1,1,0,0,0,0,1,1,0,0,0,0,0,0,0,0,0,0,0,0,0,0,0,0,0,0,0,0,0,0,0,0,0,0,0,0,0,0,0,0,0,0,0,0,0,0],"id":96,"left_children":[1,3,5,7,9,11,13,15,17,19,21,23,25,27,29,31,33,35,37,39,41,43,45,47,49,51,-1,53,-1,55,-1,57,59,61,63,65,67,69,71,73,-1,75,77,79,81,83,85,-1,-1,-1,-1,87,89,-1,-1,-1,-1,-1,-1,-1,-1,-1,-1,-1,-1,-1,-1,-1,-1,-1,-1,-1,-1,-1,-1,-1,-1,-1,-1,-1,-1,-1,-1,-1,-1,-1,-1,-1,-1,-1,-1],"loss_changes":[6.044334E-5,7.498554E-5,9.0393645E-5,1.0932849E-4,1.1120584E-4,9.185303E-5,3.309993E-5,1.4855048E-4,8.480437E-5,5.9567094E-5,1.3120257E-4,1.7676115E-4,2.7467191E-5,4.9345126E-6,2.0125452E-5,5.333242E-5,1.18931144E-4,8.985256E-5,4.6345325E-5,2.4145009E-5,4.720965E-5,1.2273806E-4,8.9804504E-5,3.438082E-5,1.5182087E-5,2.1516E-5,0E0,1.0079498E-6,8.96141E-7,1.6500417E-6,8.3794816E-7,1.3776966E-5,1.12778725E-5,2.3954912E-5,1.0615942E-4,2.8346883E-5,2.1838376E-5,1.5806312E-5,1.5609356E-5,7.04635E-6,0E0,1.2763227E-5,3.0034702E-5,1.8536327E-4,2.0231822E-4,1.996725E-4,5.084952E-5,0E0,0E0,9.1298716E-8,5.687725E-7,1.1701748E-5,1.3113264E-5,2.0030711E-8,0E0,0E0,0E0,0E0,0E0,0E0,0E0,0E0,0E0,0E0,0E0,0E0,0E0,0E0,0E0,0E0,0E0,0E0,0E0,0E0,0E0,0E0,0E0,0E0,0E0,0E0,0E0,0E0,0E0,0E0,0E0,0E0,0E0,0E0,0E0,0E0,0E0],"parents":[2147483647,0,0,1,1,2,2,3,3,4,4,5,5,6,6,7,7,8,8,9,9,10,10,11,11,12,12,13,13,14,14,15,15,16,16,17,17,18,18,19,19,20,20,21,21,22,22,23,23,24,24,25,25,27,27,29,29,31,31,32,32,33,33,34,34,35,35,36,36,37,37,38,38,39,39,41,41,42,42,43,43,44,44,45,45,46,46,51,51,52,52],"right_children":[2,4,6,8,10,12,14,16,18,20,22,24,26,28,30,32,34,36,38,40,42,44,46,48,50,52,-1,54,-1,56,-1,58,60,62,64,66,68,70,72,74,-1,76,78,80,82,84,86,-1,-1,-1,-1,88,90,-1,-1,-1,-1,-1,-1,-1,-1,-1,-1,-1,-1,-1,-1,-1,-1,-1,-1,-1,-1,-1,-1,-1,-1,-1,-1,-1,-1,-1,-1,-1,-1,-1,-1,-1,-1,-1,-1],"split_conditions":[5.4762545E0,-3.6318052E0,2.3835673E0,-4.727069E-1,-5.231104E0,-3.6070454E-1,-5.2971464E-1,-2.2671604E0,5.5855215E-1,-3.5804758E0,5.010067E0,5.579983E-1,1.023319E0,3.2436264E0,4.25565E0,-4.0258794E0,-2.3980339E0,1.2965357E0,-1.0277863E0,1.5541703E0,-5.5145082E0,-1.3610831E0,-8.713207E-1,-9.3605894E-1,1.1166272E0,7.163744E-1,8.428002E-4,-8.588339E-1,-1.0631085E-4,5.072465E0,1.0949448E-4,1.1890354E1,-3.0510563E-1,-1.2381141E0,-4.2177153E0,-9.120344E-1,-3.035231E0,-1.5503916E0,-2.9793078E-1,6.783069E0,-8.2782697E-4,-4.9114466E0,4.557213E0,1.5329221E-1,-1.0384759E0,-2.4798536E0,-6.941533E-1,5.3372385E-4,2.3052003E-3,3.959084E-4,-3.4359097E-4,-3.7272477E0,3.089885E-1,1.3427522E-4,3.7243814E-4,-8.252599E-4,-2.788067E-4,8.1499683E-4,-2.2730828E-4,-2.1183194E-4,-8.4673055E-4,1.0532857E-3,-9.81619E-5,3.950843E-4,2.044559E-3,-2.5335076E-4,-9.733948E-4,-3.6014916E-4,4.7227097E-4,3.6924836E-4,1.4597387E-3,-2.9726516E-4,3.1653105E-4,2.6704223E-4,-2.4865867E-4,2.6271344E-4,-5.7503436E-4,9.0055633E-4,2.1537782E-4,-3.6664912E-4,3.6654004E-4,-1.4617717E-3,-2.4428798E-4,2.4413825E-3,2.6470175E-4,-1.1785866E-3,1.0562757E-4,-1.3507606E-4,4.960012E-4,-5.088695E-4,3.9303304E-5],"split_indices":[22,12,32,56,29,4,27,24,22,44,30,25,32,59,33,50,46,39,28,52,27,26,13,11,2,5,0,0,0,0,0,7,33,27,42,47,3,8,24,40,0,3,1,21,26,8,13,0,0,0,0,57,25,0,0,0,0,0,0,0,0,0,0,0,0,0,0,0,0,0,0,0,0,0,0,0,0,0,0,0,0,0,0,0,0,0,0,0,0,0,0],"split_type":[0,0,0,0,0,0,0,0,0,0,0,0,0,0,0,0,0,0,0,0,0,0,0,0,0,0,0,0,0,0,0,0,0,0,0,0,0,0,0,0,0,0,0,0,0,0,0,0,0,0,0,0,0,0,0,0,0,0,0,0,0,0,0,0,0,0,0,0,0,0,0,0,0,0,0,0,0,0,0,0,0,0,0,0,0,0,0,0,0,0,0],"sum_hessian":[6.57E2,5.82E2,7.5E1,9.6E1,4.86E2,4.9E1,2.6E1,4.1E1,5.5E1,4.5E1,4.41E2,1.6E1,3.3E1,1.4E1,1.2E1,1.6E1,2.5E1,3.5E1,2E1,1.1E1,3.4E1,3.82E2,5.9E1,8E0,8E0,2.9E1,4E0,9E0,5E0,9E0,3E0,5E0,1.1E1,9E0,1.6E1,2.2E1,1.3E1,6E0,1.4E1,8E0,3E0,5E0,2.9E1,1.25E2,2.57E2,2.1E1,3.8E1,2E0,6E0,4E0,4E0,1.3E1,1.6E1,6E0,3E0,7E0,2E0,4E0,1E0,7E0,4E0,1E0,8E0,6E0,1E1,9E0,1.3E1,3E0,1E1,3E0,3E0,5E0,9E0,5E0,3E0,2E0,3E0,2E1,9E0,5.3E1,7.2E1,1.2E1,2.45E2,4E0,1.7E1,2E0,3.6E1,3E0,1E1,5E0,1.1E1],"tree_param":{"num_deleted":"0","num_feature":"60","num_nodes":"91","size_leaf_vector":"0"}},{"base_weights":[1.66078E-5,2.552E-4,-3.004497E-4,3.7822162E-4,-1.649359E-3,7.1845314E-4,-6.712966E-4,-3.087906E-4,7.1008434E-4,-3.2062617E-3,6.952405E-4,1.7819216E-3,-3.91908E-4,-1.102695E-3,7.8967056E-4,1.0483534E-3,-1.3897552E-3,4.2957985E-3,5.182481E-4,-7.355372E-3,-1.9017955E-3,1.3874428E-3,-6.8992376E-4,1.2855974E-3,7.309278E-3,7.6796114E-4,-1.181734E-3,-1.4097051E-3,1.5807853E-3,1.5511502E-3,-4.5422738E-4,2.046149E-3,-6.504267E-4,-2.952516E-3,3.141081E-4,5.925391E-3,8.2929136E-4,-1.0950876E-3,8.466789E-4,-3.4554303E-3,-9.999805E-4,-7.080104E-4,2.0501933E-3,7.789665E-5,1.4482886E-3,-2.692446E-3,-1.8244344E-5,-3.256404E-3,-7.9251535E-4,5.306855E-3,4.0328078E-4,-7.851397E-4,2.049814E-3,-1.3111519E-3,8.8793784E-4,7.1330206E-4,3.4177173E-3,-2.215518E-3,5.7759386E-4,-2.0070234E-3,-9.541955E-3,2.4123301E-3,-7.492805E-4,3.0216165E-3,7.063332E-3,-1.1622906E-5,1.3937751E-3,-2.576866E-3,1.670532E-4,-6.573619E-4,1.2146977E-3,-1.2399128E-3,-1.0681152E-4,-1.4995411E-3,5.417347E-4,3.4872368E-3,8.442737E-4,-2.7342638E-4,5.85407E-4,-5.364418E-6,1.6567196E-3,-7.468462E-4,-3.4195823E-3,-4.7440952E-4,1.8124977E-3,-5.273853E-3,-1.1737472E-3,-2.48235E-3,2.0856665E-4,6.623447E-3,6.785393E-4,2.1781921E-3,-2.7880343E-4,-1.8254468E-3,1.9137561E-4,3.3748436E-3,5.671061E-4,-1.7693522E-3,4.758686E-5,-1.912415E-4,1.5736937E-3],"categories":[],"categories_nodes":[],"categories_segments":[],"categories_sizes":[],"default_left":[1,1,1,1,1,1,1,1,1,1,1,1,1,1,1,1,1,1,1,0,1,0,0,1,0,1,1,1,1,1,1,1,1,1,1,1,1,1,1,0,1,1,1,1,1,1,1,1,1,1,1,1,1,1,1,0,0,0,0,0,0,0,0,0,0,0,0,0,0,0,0,0,0,0,0,0,0,0,0,0,0,0,0,0,0,0,0,0,0,0,0,0,0,0,0,0,0,0,0,0,0],"id":97,"left_children":[1,3,5,7,9,11,13,15,17,19,21,23,25,27,29,31,33,35,37,-1,39,-1,-1,41,-1,43,45,47,49,51,53,55,57,59,61,63,65,67,69,-1,71,73,75,77,79,81,83,85,87,89,91,93,95,97,99,-1,-1,-1,-1,-1,-1,-1,-1,-1,-1,-1,-1,-1,-1,-1,-1,-1,-1,-1,-1,-1,-1,-1,-1,-1,-1,-1,-1,-1,-1,-1,-1,-1,-1,-1,-1,-1,-1,-1,-1,-1,-1,-1,-1,-1,-1],"loss_changes":[4.985269E-5,8.8721354E-5,1.0741582E-4,8.092906E-5,8.618632E-5,9.044174E-5,1.319646E-4,1.7163181E-4,1.621746E-4,6.178483E-5,1.0545369E-5,9.759425E-5,3.571913E-5,1.3486919E-4,4.6170324E-5,8.94727E-5,1.7400492E-4,6.287404E-5,1.2173733E-4,0E0,1.33577305E-5,3.8320377E-7,0E0,5.785082E-5,0E0,7.3986994E-6,4.0377923E-5,1.62685E-4,7.244673E-5,3.656007E-5,2.3016775E-5,5.788912E-5,3.9718954E-5,1.926781E-4,7.320672E-5,5.0918898E-6,2.3896118E-6,7.336877E-5,1.0596639E-4,0E0,1.7962639E-6,1.1693681E-5,4.3845714E-5,1.7647665E-6,2.43278E-6,1.15932635E-5,1.2551557E-5,1.4506938E-4,1.866007E-4,1.988015E-5,1.7556235E-5,6.444602E-6,4.7201902E-5,7.5550925E-6,6.2213844E-6,0E0,0E0,0E0,0E0,0E0,0E0,0E0,0E0,0E0,0E0,0E0,0E0,0E0,0E0,0E0,0E0,0E0,0E0,0E0,0E0,0E0,0E0,0E0,0E0,0E0,0E0,0E0,0E0,0E0,0E0,0E0,0E0,0E0,0E0,0E0,0E0,0E0,0E0,0E0,0E0,0E0,0E0,0E0,0E0,0E0,0E0],"parents":[2147483647,0,0,1,1,2,2,3,3,4,4,5,5,6,6,7,7,8,8,9,9,10,10,11,11,12,12,13,13,14,14,15,15,16,16,17,17,18,18,20,20,23,23,25,25,26,26,27,27,28,28,29,29,30,30,31,31,32,32,33,33,34,34,35,35,36,36,37,37,38,38,40,40,41,41,42,42,43,43,44,44,45,45,46,46,47,47,48,48,49,49,50,50,51,51,52,52,53,53,54,54],"right_children":[2,4,6,8,10,12,14,16,18,20,22,24,26,28,30,32,34,36,38,-1,40,-1,-1,42,-1,44,46,48,50,52,54,56,58,60,62,64,66,68,70,-1,72,74,76,78,80,82,84,86,88,90,92,94,96,98,100,-1,-1,-1,-1,-1,-1,-1,-1,-1,-1,-1,-1,-1,-1,-1,-1,-1,-1,-1,-1,-1,-1,-1,-1,-1,-1,-1,-1,-1,-1,-1,-1,-1,-1,-1,-1,-1,-1,-1,-1,-1,-1,-1,-1,-1,-1],"split_conditions":[9.1662157E-1,7.780705E0,-2.198451E0,-1.6088939E0,3.6125445E-1,6.022979E-1,3.5273223E0,-5.112107E-1,-1.3950171E0,-1.9607102E0,3.1250417E0,6.0078278E0,-3.7480277E-1,6.1805983E0,8.82143E-1,2.2311196E0,2.5604596E0,1.66804E0,-3.7069712E0,-2.2066117E-3,-1.7844081E0,4.1623286E-4,-2.0697714E-4,-1.3084376E0,2.1927834E-3,-9.9978936E-1,-5.5161476E-1,2.164064E0,7.2095847E0,-1.898093E0,5.7131157E0,3.5718918E-1,3.3447948E-1,4.38841E0,-2.662155E-1,-3.3704472E-1,9.5033246E-1,1.4972608E-1,-3.8185577E0,-1.0366291E-3,2.5261087E0,8.8773616E-2,1.3438218E0,-1.0396934E0,-5.877036E0,-1.2592139E0,7.825968E0,1.9233074E0,-6.750483E-1,3.7761157E0,-2.4737635E0,-9.508259E-1,2.1983585E0,2.8025002E0,-3.5175937E-1,2.1399063E-4,1.0253153E-3,-6.646554E-4,1.7327817E-4,-6.0210703E-4,-2.8625866E-3,7.2369905E-4,-2.2478416E-4,9.0648496E-4,2.1189996E-3,-3.486872E-6,4.1813255E-4,-7.7305984E-4,5.011596E-5,-1.9720857E-4,3.6440932E-4,-3.7197387E-4,-3.204346E-5,-4.4986236E-4,1.6252042E-4,1.0461711E-3,2.5328214E-4,-8.202792E-5,1.7562212E-4,-1.6093255E-6,4.970159E-4,-2.2405387E-4,-1.0258747E-3,-1.4232287E-4,5.4374937E-4,-1.5821559E-3,-3.521242E-4,-7.4470503E-4,6.257E-5,1.9870342E-3,2.035618E-4,6.5345765E-4,-8.364103E-5,-5.476341E-4,5.7412686E-5,1.0124531E-3,1.7013184E-4,-5.308057E-4,1.4276058E-5,-5.7372454E-5,4.7210813E-4],"split_indices":[49,56,9,19,9,13,26,7,19,42,24,34,32,16,47,48,7,56,0,0,28,0,0,18,0,21,53,49,16,2,49,25,42,29,38,0,1,3,18,0,10,27,18,18,8,5,44,9,15,0,41,7,2,45,13,0,0,0,0,0,0,0,0,0,0,0,0,0,0,0,0,0,0,0,0,0,0,0,0,0,0,0,0,0,0,0,0,0,0,0,0,0,0,0,0,0,0,0,0,0,0],"split_type":[0,0,0,0,0,0,0,0,0,0,0,0,0,0,0,0,0,0,0,0,0,0,0,0,0,0,0,0,0,0,0,0,0,0,0,0,0,0,0,0,0,0,0,0,0,0,0,0,0,0,0,0,0,0,0,0,0,0,0,0,0,0,0,0,0,0,0,0,0,0,0,0,0,0,0,0,0,0,0,0,0,0,0,0,0,0,0,0,0,0,0,0,0,0,0,0,0,0,0,0,0],"sum_hessian":[6.57E2,3.75E2,2.82E2,3.53E2,2.2E1,7.5E1,2.07E2,1.15E2,2.38E2,1.3E1,9E0,3.8E1,3.7E1,1.6E2,4.7E1,5.1E1,6.4E1,1.1E1,2.27E2,2E0,1.1E1,6E0,3E0,3.6E1,2E0,1.5E1,2.2E1,1.44E2,1.6E1,2.9E1,1.8E1,3.2E1,1.9E1,3.3E1,3.1E1,7E0,4E0,3.8E1,1.89E2,3E0,8E0,1E1,2.6E1,8E0,7E0,9E0,1.3E1,3.5E1,1.09E2,3E0,1.3E1,5E0,2.4E1,1.1E1,7E0,1.7E1,1.5E1,8E0,1.1E1,3E1,3E0,1E1,2.1E1,3E0,4E0,2E0,2E0,1.7E1,2.1E1,3.7E1,1.52E2,6E0,2E0,6E0,4E0,1.1E1,1.5E1,5E0,3E0,1E0,6E0,3E0,6E0,1.1E1,2E0,1.7E1,1.8E1,4E1,6.9E1,2E0,1E0,3E0,1E1,2E0,3E0,1.2E1,1.2E1,8E0,3E0,3E0,4E0],"tree_param":{"num_deleted":"0","num_feature":"60","num_nodes":"101","size_leaf_vector":"0"}},{"base_weights":[1.3022683E-5,-6.869995E-5,9.1024896E-4,1.0447257E-4,-6.1760104E-4,3.2299943E-4,2.987643E-3,-8.6159074E-5,7.916081E-4,-3.1708379E-3,-3.2053117E-4,4.7967723E-4,-3.2070726E-3,5.38226E-3,5.083084E-4,1.14574425E-4,-1.2811826E-3,5.7341065E-4,3.6086014E-3,-7.3309317E-3,-1.5199035E-3,1.7259491E-4,-1.8515335E-3,1.5348876E-4,1.5407503E-3,6.590605E-3,1.9770463E-3,8.5544586E-4,-2.3969014E-4,5.2254414E-4,-6.2153843E-4,-9.7299175E-4,-8.499458E-3,1.2146103E-3,-5.4217194E-4,5.2715936E-3,1.8890857E-3,-2.2079092E-3,-4.6391287E-4,-7.3674026E-5,4.0430874E-3,7.356207E-4,-2.7445692E-3,4.269712E-4,-9.623681E-4,2.1866262E-3,4.575491E-4,-2.1915548E-3,6.921031E-4,-1.3148141E-3,8.593086E-4,9.742131E-5,-2.3884191E-3,-4.365295E-5,2.114617E-3,-1.939192E-3,8.849688E-4,-2.3269653E-4,-2.4983287E-3,3.540814E-4,-6.98328E-4,-8.913505E-4,8.546632E-4,4.489356E-3,9.058714E-4,-3.0323863E-4,2.1100044E-3,-1.3298872E-3,-5.990241E-3,-1.3887411E-3,6.200545E-4,-2.297759E-5,-1.6611665E-3],"categories":[],"categories_nodes":[],"categories_segments":[],"categories_sizes":[],"default_left":[1,1,1,1,1,1,1,1,1,1,1,1,0,1,1,1,1,1,1,0,1,1,1,1,1,0,0,0,0,1,1,1,0,1,1,0,0,1,1,1,1,1,1,1,1,0,0,0,0,0,0,0,0,0,0,0,0,0,0,0,0,0,0,0,0,0,0,0,0,0,0,0,0],"id":98,"left_children":[1,3,5,7,9,11,13,15,17,19,21,23,-1,25,27,29,31,33,35,-1,37,39,41,43,45,-1,-1,-1,-1,47,49,51,-1,53,55,-1,-1,57,59,61,63,65,67,69,71,-1,-1,-1,-1,-1,-1,-1,-1,-1,-1,-1,-1,-1,-1,-1,-1,-1,-1,-1,-1,-1,-1,-1,-1,-1,-1,-1,-1],"loss_changes":[4.8309517E-5,5.7477493E-5,6.6132176E-5,6.0323502E-5,1.0896466E-4,2.587405E-5,6.8508816E-5,8.674392E-5,5.939688E-5,9.187832E-5,9.922157E-5,1.46462335E-5,0E0,1.1658107E-5,2.0226503E-6,9.3421426E-5,1.0740965E-4,6.789778E-5,1.0058291E-5,0E0,7.694052E-6,9.561608E-5,7.595242E-5,1.0786591E-5,5.9956456E-6,0E0,0E0,1.4651891E-7,8.108502E-8,9.355674E-5,1.1508634E-4,7.7502365E-5,0E0,6.803904E-5,7.1497176E-5,0E0,0E0,3.4341283E-6,1.3977663E-6,7.2874354E-5,4.333473E-6,1.3489955E-5,1.0223189E-4,1.0677439E-5,4.5569427E-6,0E0,3.3135814E-7,0E0,0E0,0E0,0E0,0E0,0E0,0E0,0E0,0E0,0E0,0E0,0E0,0E0,0E0,0E0,0E0,0E0,0E0,0E0,0E0,0E0,0E0,0E0,0E0,0E0,0E0],"parents":[2147483647,0,0,1,1,2,2,3,3,4,4,5,5,6,6,7,7,8,8,9,9,10,10,11,11,13,13,14,14,15,15,16,16,17,17,18,18,20,20,21,21,22,22,23,23,24,24,29,29,30,30,31,31,33,33,34,34,37,37,38,38,39,39,40,40,41,41,42,42,43,43,44,44],"right_children":[2,4,6,8,10,12,14,16,18,20,22,24,-1,26,28,30,32,34,36,-1,38,40,42,44,46,-1,-1,-1,-1,48,50,52,-1,54,56,-1,-1,58,60,62,64,66,68,70,72,-1,-1,-1,-1,-1,-1,-1,-1,-1,-1,-1,-1,-1,-1,-1,-1,-1,-1,-1,-1,-1,-1,-1,-1,-1,-1,-1,-1],"split_conditions":[6.517327E0,2.3166766E0,3.0314276E0,6.3925475E-1,-4.2247534E0,1.5862345E1,-3.480934E-1,4.640544E0,6.342908E0,-2.3501034E0,3.9404967E0,3.502945E0,-9.621218E-4,1.4429222E0,2.9981346E0,1.8885155E0,9.333274E0,1.039015E0,-1.110709E0,-2.1992796E-3,2.0026658E-1,7.3593283E0,-1.6602886E0,6.601593E0,1.637728E0,1.9771815E-3,5.931139E-4,2.5663376E-4,-7.1907045E-5,-6.8071766E0,2.8718991E0,2.6059084E0,-2.5498376E-3,-8.097039E-2,5.215993E-1,1.5814782E-3,5.6672574E-4,-5.018859E0,1.3603277E0,2.5627857E-1,1.2594559E0,2.0162625E0,1.9536924E0,-3.3271937E0,-7.6572746E-2,6.559879E-4,1.3726474E-4,-6.574665E-4,2.0763095E-4,-3.9444424E-4,2.577926E-4,2.9226394E-5,-7.1652577E-4,-1.3095886E-5,6.3438516E-4,-5.8175763E-4,2.6549064E-4,-6.9808964E-5,-7.4949866E-4,1.0622442E-4,-2.0949841E-4,-2.6740515E-4,2.5639898E-4,1.3468069E-3,2.7176144E-4,-9.097159E-5,6.330013E-4,-3.9896616E-4,-1.7970725E-3,-4.1662235E-4,1.8601636E-4,-6.8932773E-6,-4.9835E-4],"split_indices":[43,43,42,43,49,56,32,49,52,31,47,8,0,9,0,26,12,15,7,0,38,38,26,50,3,0,0,0,0,57,40,42,0,0,13,0,0,2,1,50,0,35,55,19,8,0,0,0,0,0,0,0,0,0,0,0,0,0,0,0,0,0,0,0,0,0,0,0,0,0,0,0,0],"split_type":[0,0,0,0,0,0,0,0,0,0,0,0,0,0,0,0,0,0,0,0,0,0,0,0,0,0,0,0,0,0,0,0,0,0,0,0,0,0,0,0,0,0,0,0,0,0,0,0,0,0,0,0,0,0,0,0,0,0,0,0,0,0,0,0,0,0,0,0,0,0,0,0,0],"sum_hessian":[6.57E2,6.03E2,5.4E1,4.59E2,1.44E2,4.3E1,1.1E1,3.6E2,9.9E1,1.4E1,1.3E2,4.2E1,1E0,5E0,6E0,3.09E2,5.1E1,9.3E1,6E0,3E0,1.1E1,9.9E1,3.1E1,3.3E1,9E0,3E0,2E0,4E0,2E0,1.99E2,1.1E2,5E1,1E0,5.9E1,3.4E1,2E0,4E0,6E0,5E0,9.4E1,5E0,8E0,2.3E1,2.7E1,6E0,5E0,4E0,1.1E1,1.88E2,7.5E1,3.5E1,2.9E1,2.1E1,2.5E1,3.4E1,1.7E1,1.7E1,1E0,5E0,1E0,4E0,5E1,4.4E1,4E0,1E0,5E0,3E0,1.7E1,6E0,2E0,2.5E1,3E0,3E0],"tree_param":{"num_deleted":"0","num_feature":"60","num_nodes":"73","size_leaf_vector":"0"}},{"base_weights":[5.0353406E-6,8.543019E-4,-6.7727255E-5,-5.8915317E-5,1.6391637E-3,2.658175E-4,-2.9266044E-4,1.0931492E-3,-5.676709E-4,2.5426168E-3,2.2267488E-4,-6.601464E-5,1.8261921E-3,-6.9614053E-3,-2.1775032E-4,3.1147004E-4,1.7969608E-3,-8.7959185E-4,-6.782077E-5,1.5144234E-3,4.707396E-3,-9.883881E-4,9.5175486E-4,3.8562558E-4,-6.1512E-4,2.7507409E-3,-1.9721852E-3,-3.0962838E-4,1.5451345E-3,-1.148408E-3,-3.2733084E-4,2.862215E-4,2.0284886E-3,1.4706955E-3,6.5140426E-5,1.3053275E-3,-1.848431E-4,-4.0723252E-4,-4.150915E-3,-7.5994694E-4,3.9952076E-3,-4.3007135E-3,-9.11355E-5,7.4581767E-4,-4.5142265E-4,7.537852E-4,2.681E-3,1.9749452E-3,-3.918627E-4,1.310563E-3,-6.165095E-4,1.2777998E-3,-8.2868815E-4,-5.0478578E-3,-2.8157234E-4,1.6145712E-3,-3.4573793E-3,9.3506277E-4,5.0734156E-3,-6.84337E-4,1.3612036E-3,-1.0511953E-3,-8.918314E-5,-1.4839321E-4,1.0709994E-3,3.8452148E-3,8.4653497E-4],"categories":[],"categories_nodes":[],"categories_segments":[],"categories_sizes":[],"default_left":[1,1,1,1,1,1,1,1,1,1,1,1,1,0,1,0,0,1,0,1,0,0,1,1,1,1,1,1,1,0,0,0,0,0,0,1,1,1,1,1,1,0,0,1,1,1,1,0,0,0,0,0,0,0,0,0,0,0,0,0,0,0,0,0,0,0,0],"id":99,"left_children":[1,3,5,7,9,11,13,15,17,19,21,23,25,-1,27,-1,-1,29,-1,31,-1,-1,33,35,37,39,41,43,45,-1,-1,-1,-1,-1,-1,47,49,51,53,55,57,-1,-1,59,61,63,65,-1,-1,-1,-1,-1,-1,-1,-1,-1,-1,-1,-1,-1,-1,-1,-1,-1,-1,-1,-1],"loss_changes":[4.0718867E-5,3.7367532E-5,4.561814E-5,1.527353E-5,3.526629E-5,1.2697726E-4,1.7982312E-4,3.84154E-6,2.7467927E-6,3.070981E-5,1.1536244E-5,5.058081E-5,1.564317E-4,7.10279E-7,5.8787784E-5,2.715637E-7,0E0,1.2571136E-6,7.518684E-7,7.627288E-6,0E0,0E0,3.5849994E-6,5.9003327E-5,6.593398E-5,1.5594886E-4,3.902875E-5,5.166875E-5,1.4158693E-5,1.0457188E-7,1.688204E-8,9.3379464E-7,0E0,0E0,4.11432E-8,4.964206E-5,4.5994137E-5,6.355353E-5,1.5931553E-5,6.963321E-5,8.104235E-5,8.8963134E-7,4.0015257E-7,3.7015503E-5,6.5736436E-5,3.5931348E-6,1.1694872E-5,0E0,0E0,0E0,0E0,0E0,0E0,0E0,0E0,0E0,0E0,0E0,0E0,0E0,0E0,0E0,0E0,0E0,0E0,0E0,0E0],"parents":[2147483647,0,0,1,1,2,2,3,3,4,4,5,5,6,6,7,7,8,8,9,9,10,10,11,11,12,12,14,14,17,17,19,19,22,22,23,23,24,24,25,25,26,26,27,27,28,28,35,35,36,36,37,37,38,38,39,39,40,40,43,43,44,44,45,45,46,46],"right_children":[2,4,6,8,10,12,14,16,18,20,22,24,26,-1,28,-1,-1,30,-1,32,-1,-1,34,36,38,40,42,44,46,-1,-1,-1,-1,-1,-1,48,50,52,54,56,58,-1,-1,60,62,64,66,-1,-1,-1,-1,-1,-1,-1,-1,-1,-1,-1,-1,-1,-1,-1,-1,-1,-1,-1,-1],"split_conditions":[-6.1193924E0,2.2730646E-1,-8.8457155E-1,-5.518535E0,3.0574594E0,-1.5379694E0,-8.479015E-1,4.4535217E0,7.9837906E-1,1.0425649E0,9.573459E-1,-3.5226164E0,4.6867747E0,-2.0884217E-3,8.379539E0,9.344101E-5,5.390883E-4,2.2287633E0,-2.0346233E-5,-1.1190214E0,1.4122189E-3,-2.9651643E-4,4.0422754E0,-1.4497726E0,7.3593283E0,-2.1319392E0,1.2015607E-1,-4.181573E0,3.3435735E-1,-3.445224E-4,-9.8199256E-5,8.586646E-5,6.085466E-4,4.4120866E-4,1.9542129E-5,2.8663554E0,-3.097773E0,-3.411269E0,1.9598207E0,1.3836856E0,-8.4498775E-1,-1.2902141E-3,-2.7340651E-5,-2.195507E0,-9.508259E-1,-4.4593606E0,1.0547788E0,5.9248356E-4,-1.1755882E-4,3.931689E-4,-1.8495286E-4,3.8333997E-4,-2.4860646E-4,-1.5143574E-3,-8.447171E-5,4.8437138E-4,-1.0372138E-3,2.8051884E-4,1.5220247E-3,-2.0530111E-4,4.083611E-4,-3.153586E-4,-2.6754942E-5,-4.4517965E-5,3.2129983E-4,1.1535645E-3,2.539605E-4],"split_indices":[17,34,34,27,54,34,34,3,4,39,56,34,52,0,48,0,0,15,0,18,0,0,13,3,28,27,4,4,30,0,0,0,0,0,0,46,22,8,0,5,44,0,0,12,59,57,5,0,0,0,0,0,0,0,0,0,0,0,0,0,0,0,0,0,0,0,0],"split_type":[0,0,0,0,0,0,0,0,0,0,0,0,0,0,0,0,0,0,0,0,0,0,0,0,0,0,0,0,0,0,0,0,0,0,0,0,0,0,0,0,0,0,0,0,0,0,0,0,0,0,0,0,0,0,0,0,0,0,0,0,0,0,0,0,0,0,0],"sum_hessian":[6.57E2,5.1E1,6.06E2,2.4E1,2.7E1,2.44E2,3.62E2,7E0,1.7E1,1.6E1,1.1E1,2.02E2,4.2E1,3E0,3.59E2,4E0,3E0,1E1,7E0,1.2E1,4E0,4E0,7E0,1.11E2,9.1E1,3.4E1,8E0,3.42E2,1.7E1,6E0,4E0,4E0,8E0,4E0,3E0,4.2E1,6.9E1,8.7E1,4E0,9E0,2.5E1,3E0,5E0,4E1,3.02E2,1.1E1,6E0,3E1,1.2E1,1.5E1,5.4E1,1.7E1,7E1,3E0,1E0,5E0,4E0,7E0,1.8E1,1.2E1,2.8E1,1.13E2,1.89E2,3E0,8E0,3E0,3E0],"tree_param":{"num_deleted":"0","num_feature":"60","num_nodes":"67","size_leaf_vector":"0"}}]},"name":"gbtree"},"learner_model_param":{"base_score":"5E-1","num_class":"0","num_feature":"60","num_target":"1"},"objective":{"name":"reg:squarederror","reg_loss_param":{"scale_pos_weight":"1"}}},"version":[1,6,1]}