{"learner":{"attributes":{"best_iteration":"99","best_ntree_limit":"100","scikit_learn":"{\"n_estimators\": 100, \"objective\": \"reg:squarederror\", \"max_depth\": null, \"max_leaves\": null, \"max_bin\": null, \"grow_policy\": null, \"learning_rate\": null, \"verbosity\": null, \"booster\": null, \"tree_method\": null, \"gamma\": null, \"min_child_weight\": null, \"max_delta_step\": null, \"subsample\": null, \"sampling_method\": null, \"colsample_bytree\": null, \"colsample_bylevel\": null, \"colsample_bynode\": null, \"reg_alpha\": null, \"reg_lambda\": null, \"scale_pos_weight\": null, \"base_score\": null, \"missing\": NaN, \"num_parallel_tree\": null, \"random_state\": null, \"n_jobs\": null, \"monotone_constraints\": null, \"interaction_constraints\": null, \"importance_type\": null, \"gpu_id\": null, \"validate_parameters\": null, \"predictor\": null, \"enable_categorical\": false, \"max_cat_to_onehot\": null, \"eval_metric\": null, \"early_stopping_rounds\": null, \"callbacks\": null, \"_estimator_type\": \"regressor\"}"},"feature_names":[],"feature_types":[],"gradient_booster":{"model":{"gbtree_model_param":{"num_parallel_tree":"1","num_trees":"100","size_leaf_vector":"0"},"tree_info":[0,0,0,0,0,0,0,0,0,0,0,0,0,0,0,0,0,0,0,0,0,0,0,0,0,0,0,0,0,0,0,0,0,0,0,0,0,0,0,0,0,0,0,0,0,0,0,0,0,0,0,0,0,0,0,0,0,0,0,0,0,0,0,0,0,0,0,0,0,0,0,0,0,0,0,0,0,0,0,0,0,0,0,0,0,0,0,0,0,0,0,0,0,0,0,0,0,0,0,0],"trees":[{"base_weights":[1.4630592E3,1.142572E3,1.8136853E3,1.0690653E3,1.2257175E3],"categories":[],"categories_nodes":[],"categories_segments":[],"categories_sizes":[],"default_left":[1,1,0,0,0],"id":0,"left_children":[1,3,-1,-1,-1],"loss_changes":[7.198042E7,8.10432E5,0E0,0E0,0E0],"parents":[2147483647,0,0,1,1],"right_children":[2,4,-1,-1,-1],"split_conditions":[1.515725E3,1.1448049E3,5.441056E2,3.207196E2,3.6771527E2],"split_indices":[59,59,0,0,0],"split_type":[0,0,0,0,0],"sum_hessian":[6.58E2,3.46E2,3.12E2,1.91E2,1.55E2],"tree_param":{"num_deleted":"0","num_feature":"60","num_nodes":"5","size_leaf_vector":"0"}},{"base_weights":[1.0260117E3,7.8905884E2,1.2641747E3,7.2720306E2,8.2319714E2,1.0382942E3,1.2894136E3],"categories":[],"categories_nodes":[],"categories_segments":[],"categories_sizes":[],"default_left":[1,1,1,0,0,0,0],"id":1,"left_children":[1,3,5,-1,-1,-1,-1],"loss_changes":[3.6192064E7,1.04544E5,5.25408E5,0E0,0E0,0E0,0E0],"parents":[2147483647,0,0,1,1,2,2],"right_children":[2,4,6,-1,-1,-1,-1],"split_conditions":[1.668975E3,1.09752E3,1.727185E3,2.1816093E2,2.4695915E2,3.1148828E2,3.868241E2],"split_indices":[17,59,58,0,0,0,0],"split_type":[0,0,0,0,0,0,0],"sum_hessian":[6.58E2,3.32E2,3.26E2,1.26E2,2.06E2,3.7E1,2.89E2],"tree_param":{"num_deleted":"0","num_feature":"60","num_nodes":"7","size_leaf_vector":"0"}},{"base_weights":[7.1997363E2,5.5227374E2,8.865046E2,4.4617212E2,5.6252606E2,8.3858826E2,9.908932E2],"categories":[],"categories_nodes":[],"categories_segments":[],"categories_sizes":[],"default_left":[1,1,1,0,0,0,0],"id":2,"left_children":[1,3,5,-1,-1,-1,-1],"loss_changes":[1.7914432E7,1.09072E5,8.14672E5,0E0,0E0,0E0,0E0],"parents":[2147483647,0,0,1,1,2,2],"right_children":[2,4,6,-1,-1,-1,-1],"split_conditions":[1.52047E3,1.0359551E3,1.8430701E3,1.3385164E2,1.6875783E2,2.5157649E2,2.9726797E2],"split_indices":[35,59,59,0,0,0,0],"split_type":[0,0,0,0,0,0,0],"sum_hessian":[6.58E2,3.3E2,3.28E2,3.3E1,2.97E2,2.31E2,9.7E1],"tree_param":{"num_deleted":"0","num_feature":"60","num_nodes":"7","size_leaf_vector":"0"}},{"base_weights":[5.0527356E2,3.9625415E2,6.36011E2,3.6615503E2,4.5246426E2,6.0620917E2,7.1229553E2,2.64418E2,3.7033157E2],"categories":[],"categories_nodes":[],"categories_segments":[],"categories_sizes":[],"default_left":[1,1,1,1,0,0,0,0,0],"id":3,"left_children":[1,3,5,7,-1,-1,-1,-1,-1],"loss_changes":[9.140656E6,4.46784E5,2.4568E5,4.482E3,0E0,0E0,0E0,0E0,0E0],"parents":[2147483647,0,0,1,1,2,2,3,3],"right_children":[2,4,6,8,-1,-1,-1,-1,-1],"split_conditions":[1.7277849E3,1.194855E3,1.8874451E3,9.90165E2,1.3573929E2,1.8186276E2,2.1368867E2,7.93254E1,1.1109948E2],"split_indices":[43,59,59,59,0,0,0,0,0],"split_type":[0,0,0,0,0,0,0,0,0],"sum_hessian":[6.58E2,3.61E2,2.97E2,2.4E2,1.21E2,2.2E2,7.7E1,1.2E1,2.28E2],"tree_param":{"num_deleted":"0","num_feature":"60","num_nodes":"9","size_leaf_vector":"0"}},{"base_weights":[3.5478665E2,2.6917203E2,4.372884E2,2.5430467E2,2.9804227E2,3.9450595E2,4.7300778E2],"categories":[],"categories_nodes":[],"categories_segments":[],"categories_sizes":[],"default_left":[1,1,1,0,0,0,0],"id":4,"left_children":[1,3,5,-1,-1,-1,-1],"loss_changes":[4.53704E6,6.4134E4,3.238E5,0E0,0E0,0E0,0E0],"parents":[2147483647,0,0,1,1,2,2],"right_children":[2,4,6,-1,-1,-1,-1],"split_conditions":[1.67929E3,1.1808201E3,1.79529E3,7.6291405E1,8.941268E1,1.1835179E2,1.4190234E2],"split_indices":[0,59,59,0,0,0,0],"split_type":[0,0,0,0,0,0,0],"sum_hessian":[6.58E2,3.25E2,3.33E2,2.21E2,1.04E2,1.57E2,1.76E2],"tree_param":{"num_deleted":"0","num_feature":"60","num_nodes":"7","size_leaf_vector":"0"}},{"base_weights":[2.4899702E2,1.9424582E2,3.1467133E2,1.8075624E2,2.2350598E2,2.9772748E2,3.6760303E2,1.5221533E2,1.8903113E2],"categories":[],"categories_nodes":[],"categories_segments":[],"categories_sizes":[],"default_left":[1,1,1,1,0,0,0,0,0],"id":5,"left_children":[1,3,5,7,-1,-1,-1,-1,-1],"loss_changes":[2.308472E6,1.02484E5,1.5782E5,3.09785E4,0E0,0E0,0E0,0E0,0E0],"parents":[2147483647,0,0,1,1,2,2,3,3],"right_children":[2,4,6,8,-1,-1,-1,-1,-1],"split_conditions":[1.7277849E3,1.20625E3,1.91108E3,1.0640549E3,6.7051796E1,8.9318245E1,1.10280914E2,4.56646E1,5.670934E1],"split_indices":[43,59,59,59,0,0,0,0,0],"split_type":[0,0,0,0,0,0,0,0,0],"sum_hessian":[6.58E2,3.61E2,2.97E2,2.52E2,1.09E2,2.3E2,6.7E1,6.1E1,1.91E2],"tree_param":{"num_deleted":"0","num_feature":"60","num_nodes":"9","size_leaf_vector":"0"}},{"base_weights":[1.748579E2,1.3884404E2,2.2526999E2,1.2972804E2,1.6834355E2,2.1303653E2,2.5970367E2,8.673363E1,1.324893E2,2.0318237E1,8.903848E1,1.1722132E2,1.3656E2,1.179847E2,3.380072E1,1.3685005E2,3.7243774E1],"categories":[],"categories_nodes":[],"categories_segments":[],"categories_sizes":[],"default_left":[1,1,1,1,0,0,0,1,1,0,0,1,1,0,0,0,0],"id":6,"left_children":[1,3,5,7,-1,-1,-1,9,11,-1,-1,13,15,-1,-1,-1,-1],"loss_changes":[1.16516E6,8.22325E4,5.9674E4,2.4124E4,0E0,0E0,0E0,1.4055312E3,1.3945E3,0E0,0E0,2.150625E2,1.09675E3,0E0,0E0,0E0,0E0],"parents":[2147483647,0,0,1,1,2,2,3,3,7,7,8,8,11,11,12,12],"right_children":[2,4,6,8,-1,-1,-1,10,12,-1,-1,14,16,-1,-1,-1,-1],"split_conditions":[1.751505E3,1.2311001E3,1.91997E3,1.00719995E3,5.0503067E1,6.391096E1,7.79111E1,1.0666001E3,1.07837E3,6.0954714E0,2.6711546E1,1.077355E3,1.517675E3,3.5395412E1,1.0140217E1,4.1055016E1,1.1173133E1],"split_indices":[59,59,58,59,0,0,0,17,59,0,0,59,28,0,0,0,0],"split_type":[0,0,0,0,0,0,0,0,0,0,0,0,0,0,0,0,0],"sum_hessian":[6.58E2,3.86E2,2.72E2,2.99E2,8.7E1,2.06E2,6.6E1,2E1,2.79E2,1E0,1.9E1,6.5E1,2.14E2,6.4E1,1E0,2.13E2,1E0],"tree_param":{"num_deleted":"0","num_feature":"60","num_nodes":"17","size_leaf_vector":"0"}},{"base_weights":[1.2289049E2,9.804826E1,1.5922487E2,9.024926E1,1.1786553E2,1.5164151E2,1.9050679E2,5.6439102E1,9.1776375E1,2.3901978E1,5.96062E1,8.561537E1,9.8593735E1,8.594417E1,1.8148193E1,8.6220116E1,2.2414124E1],"categories":[],"categories_nodes":[],"categories_segments":[],"categories_sizes":[],"default_left":[1,1,1,1,0,0,0,1,1,0,0,1,0,1,0,0,0],"id":7,"left_children":[1,3,5,7,-1,-1,-1,9,11,-1,-1,13,-1,15,-1,-1,-1],"loss_changes":[5.7922E5,5.0257E4,3.4212E4,9.63875E3,0E0,0E0,0E0,1.2101953E2,3.02525E3,0E0,0E0,1.789875E3,0E0,6.97E2,0E0,0E0,0E0],"parents":[2147483647,0,0,1,1,2,2,3,3,7,7,8,8,11,11,13,13],"right_children":[2,4,6,8,-1,-1,-1,10,12,-1,-1,14,-1,16,-1,-1,-1],"split_conditions":[1.7591799E3,1.22698E3,1.9439099E3,9.9181E2,3.535966E1,4.5492455E1,5.715204E1,1.070005E3,1.123E3,7.1705937E0,1.788186E1,1.466915E3,2.9578121E1,1.236385E3,5.444458E0,2.5866035E1,6.7242374E0],"split_indices":[59,52,59,59,0,0,0,16,59,0,0,0,0,37,0,0,0],"split_type":[0,0,0,0,0,0,0,0,0,0,0,0,0,0,0,0,0],"sum_hessian":[6.58E2,3.93E2,2.65E2,2.86E2,1.07E2,2.18E2,4.7E1,1.4E1,2.72E2,2E0,1.2E1,1.5E2,1.22E2,1.49E2,1E0,1.48E2,1E0],"tree_param":{"num_deleted":"0","num_feature":"60","num_nodes":"17","size_leaf_vector":"0"}},{"base_weights":[8.6373375E1,6.9956604E1,1.1474284E2,6.116825E1,8.047644E1,1.10290886E2,1.4451157E2,5.1781414E1,6.5211296E1,7.247753E1,8.637381E1,1.7111166E1,5.2496883E1,6.6942314E1,4.6814484E1,7.300133E1,1.3977417E1,1.1156447E2,7.499417E1,1.3646545E1,5.2846935E1,6.720645E1,1.4717163E1,1.8331665E1,7.343392E1,5.9081684E1,1.19697754E2,2.5807457E1,8.409793E1,2.2085958E1,5.341031E1,1.8140015E1,6.742579E1,3.8729736E1,1.2889816E1],"categories":[],"categories_nodes":[],"categories_segments":[],"categories_sizes":[],"default_left":[1,1,1,1,1,0,0,1,1,1,1,0,1,1,0,1,0,1,1,0,1,1,0,0,0,0,0,1,0,0,0,0,0,0,0],"id":8,"left_children":[1,3,5,7,9,-1,-1,11,13,15,17,-1,19,21,-1,23,-1,25,27,-1,29,31,-1,-1,-1,-1,-1,33,-1,-1,-1,-1,-1,-1,-1],"loss_changes":[2.988925E5,3.390725E4,1.58685E4,5.466E3,2.608375E3,0E0,0E0,9.62125E2,1.9295E3,1.614875E3,2.1159375E4,0E0,2.7159375E2,9.835625E2,0E0,6.640625E2,0E0,5.7337812E3,3.0965656E4,0E0,6.8140625E1,3.050625E2,0E0,0E0,0E0,0E0,0E0,1.6708105E3,0E0,0E0,0E0,0E0,0E0,0E0,0E0],"parents":[2147483647,0,0,1,1,2,2,3,3,4,4,7,7,8,8,9,9,10,10,12,12,13,13,15,15,17,17,18,18,20,20,21,21,27,27],"right_children":[2,4,6,8,10,-1,-1,12,14,16,18,-1,20,22,-1,24,-1,26,28,-1,30,32,-1,-1,-1,-1,-1,34,-1,-1,-1,-1,-1,-1,-1],"split_conditions":[1.771E3,1.2025549E3,1.966325E3,1.07461E3,1.5114451E3,3.308727E1,4.335347E1,9.4073E2,1.23304E3,1.519355E3,1.515725E3,5.13335E0,9.2677E2,1.2393401E3,1.4044346E1,1.17281E3,4.1932254E0,1.470715E3,1.73253E3,4.0939636E0,9.44735E2,9.097E2,4.415149E0,5.4995E0,2.2030178E1,1.7724506E1,3.590933E1,1.7954E3,2.522938E1,6.6257877E0,1.6023094E1,5.4420047E0,2.0227737E1,1.1618921E1,3.866945E0],"split_indices":[59,32,59,59,24,0,0,59,5,26,59,0,50,10,0,33,0,28,37,0,54,32,0,0,0,0,0,2,0,0,0,0,0,0,0],"split_type":[0,0,0,0,0,0,0,0,0,0,0,0,0,0,0,0,0,0,0,0,0,0,0,0,0,0,0,0,0,0,0,0,0,0,0],"sum_hessian":[6.58E2,4.19E2,2.39E2,2.32E2,1.87E2,2.12E2,2.7E1,7.4E1,1.58E2,8.5E1,1.02E2,2E0,7.2E1,1.42E2,1.6E1,8.4E1,1E0,2.9E1,7.3E1,1E0,7.1E1,1.41E2,1E0,1E0,8.3E1,5E0,2.4E1,1.2E1,6.1E1,2E0,6.9E1,1E0,1.4E2,5E0,7E0],"tree_param":{"num_deleted":"0","num_feature":"60","num_nodes":"35","size_leaf_vector":"0"}},{"base_weights":[6.0884E1,4.9824265E1,8.157224E1,4.3987015E1,5.947267E1,7.4514496E1,9.175778E1,3.9262653E1,4.70782E1,6.431619E1,5.408107E1,7.480152E1,1.7309143E1,2.4783436E1,4.0267696E1,8.333923E0,4.726946E1,5.4111584E1,8.4193695E1,1.2379594E1,5.9701004E1,7.5037125E1,2.1144165E1,2.5984789E1,6.985626E0,7.215851E0,4.051612E1,4.7428505E1,1.10703125E1,3.4749348E-2,1.5119032E1,5.490284E1,3.8745323E1,4.7579247E1,1.1880798E1,-2.3464355E0,2.3985596E0,1.5999268E1,4.038574E0],"categories":[],"categories_nodes":[],"categories_segments":[],"categories_sizes":[],"default_left":[1,1,1,1,1,1,0,1,1,1,1,1,0,1,1,0,1,0,0,1,0,0,0,0,0,0,1,1,0,1,1,0,0,0,0,0,0,0,0],"id":9,"left_children":[1,3,5,7,9,11,-1,13,15,17,19,21,-1,23,25,-1,27,-1,-1,29,-1,-1,-1,-1,-1,-1,31,33,-1,35,37,-1,-1,-1,-1,-1,-1,-1,-1],"loss_changes":[1.46719E5,2.171425E4,9.553E3,2.1384375E3,7E2,1.003875E3,0E0,6.609844E2,7.9171875E2,1.1468656E4,1.8478406E4,1.70625E2,0E0,3.229492E1,5.6978125E2,0E0,3.9034375E2,0E0,0E0,3.7147192E2,0E0,0E0,0E0,0E0,0E0,0E0,5.2228125E2,2.81375E2,0E0,2.2514074E1,2.3166504E1,0E0,0E0,0E0,0E0,0E0,0E0,0E0,0E0],"parents":[2147483647,0,0,1,1,2,2,3,3,4,4,5,5,7,7,8,8,9,9,10,10,11,11,13,13,14,14,16,16,19,19,26,26,27,27,29,29,30,30],"right_children":[2,4,6,8,10,12,-1,14,16,18,20,22,-1,24,26,-1,28,-1,-1,30,-1,-1,-1,-1,-1,-1,32,34,-1,36,38,-1,-1,-1,-1,-1,-1,-1,-1],"split_conditions":[1.779175E3,1.21945E3,1.86201E3,1.096815E3,1.7680449E3,1.986725E3,2.7527336E1,9.6795496E2,1.0305349E3,1.6659551E3,1.73253E3,2.01482E3,5.1927433E0,1.17071E3,9.4073E2,2.5001771E0,1.219235E3,1.6233477E1,2.525811E1,1.79165E3,1.7910301E1,2.2511139E1,6.34325E0,7.795437E0,2.0956879E0,2.1647553E0,9.6795496E2,1.517675E3,3.3210938E0,1.80622E3,1.81397E3,1.6470852E1,1.1623597E1,1.4273774E1,3.5642397E0,-7.039307E-1,7.195679E-1,4.7997804E0,1.2115723E0],"split_indices":[59,59,59,48,22,33,0,59,52,10,37,19,0,0,42,0,59,0,0,6,0,0,0,0,0,0,44,28,0,0,6,0,0,0,0,0,0,0,0],"split_type":[0,0,0,0,0,0,0,0,0,0,0,0,0,0,0,0,0,0,0,0,0,0,0,0,0,0,0,0,0,0,0,0,0,0,0,0,0,0,0],"sum_hessian":[6.58E2,4.31E2,2.27E2,2.72E2,1.59E2,1.39E2,8.8E1,1.13E2,1.59E2,7.8E1,8.1E1,1.38E2,1E0,9E0,1.04E2,1E0,1.58E2,5.4E1,2.4E1,1E1,7.1E1,1.37E2,1E0,8E0,1E0,1E0,1.03E2,1.57E2,1E0,2E0,8E0,8E0,9.5E1,1.56E2,1E0,1E0,1E0,7E0,1E0],"tree_param":{"num_deleted":"0","num_feature":"60","num_nodes":"39","size_leaf_vector":"0"}},{"base_weights":[4.290834E1,3.5119347E1,5.7283817E1,3.0778442E1,4.1705887E1,5.4940098E1,8.183542E1,3.6225765E1,2.88445E1,4.504318E1,3.7832367E1,4.4867683E1,5.6939846E1,2.0952202E1,3.800184E1,2.6427715E1,3.6997772E1,3.8022217E1,6.462981E1,1.3240453E1,4.214863E1,2.3909018E1,5.718492E1,2.2247131E1,5.2963867E0,1.334227E1,3.9124737E1,1.6533264E1,2.7670189E1,8.381673E0,3.8189247E1,1.8434479E1,3.867268E1,6.628244E1,1.5788574E1,1.8606506E1,5.216326E0,1.5914032E1,4.0178032E1,3.420288E0,1.7043406E1,2.8165178E1,8.87041E0,4.354938E1,2.7092201E1,3.9151527E1,1.6204874E1,1.9230347E1,6.774674E1,1.990067E1,4.7736816E0,-1.9944458E0,6.750529E0],"categories":[],"categories_nodes":[],"categories_segments":[],"categories_sizes":[],"default_left":[1,1,1,1,1,1,0,1,1,1,1,0,1,1,1,1,1,1,1,1,0,0,0,0,0,0,1,1,1,0,1,0,1,1,0,1,1,0,0,0,0,0,0,0,0,0,0,0,0,0,0,0,0],"id":10,"left_children":[1,3,5,7,9,11,-1,13,15,17,19,-1,21,23,25,27,29,31,33,35,-1,-1,-1,-1,-1,-1,37,39,41,-1,43,-1,45,47,-1,49,51,-1,-1,-1,-1,-1,-1,-1,-1,-1,-1,-1,-1,-1,-1,-1,-1],"loss_changes":[7.177675E4,1.101075E4,8.738625E3,1.7257344E3,4.676875E2,1.735625E3,0E0,9.6703125E2,2.9434688E3,9.2315625E3,8.358117E3,0E0,4.13125E1,6.462915E1,1.0563281E3,1.4726172E3,1.1460117E3,1.15265625E2,6.4853906E2,5.0575317E2,0E0,0E0,0E0,0E0,0E0,0E0,6.8078125E2,7.549609E1,1.0343516E3,0E0,1.2588984E3,0E0,3.2585938E1,7.517969E1,0E0,4.8216064E1,9.0903076E1,0E0,0E0,0E0,0E0,0E0,0E0,0E0,0E0,0E0,0E0,0E0,0E0,0E0,0E0,0E0,0E0],"parents":[2147483647,0,0,1,1,2,2,3,3,4,4,5,5,7,7,8,8,9,9,10,10,12,12,13,13,14,14,15,15,16,16,17,17,18,18,19,19,26,26,27,27,28,28,30,30,32,32,33,33,35,35,36,36],"right_children":[2,4,6,8,10,12,-1,14,16,18,20,-1,22,24,26,28,30,32,34,36,-1,-1,-1,-1,-1,-1,38,40,42,-1,44,-1,46,48,-1,50,52,-1,-1,-1,-1,-1,-1,-1,-1,-1,-1,-1,-1,-1,-1,-1,-1],"split_conditions":[1.77725E3,1.214815E3,1.97662E3,1.094685E3,1.515725E3,1.7719099E3,2.4550627E1,9.5861E2,1.21044E3,1.6643049E3,1.677875E3,1.3460305E1,1.738325E3,9.53995E2,9.55255E2,1.08927E3,1.163925E3,1.136165E3,1.7929E3,1.7993301E3,1.2644589E1,7.1727057E0,1.7155478E1,6.6741395E0,1.5889161E0,4.0026813E0,9.4855005E2,1.05037E3,1.467875E3,2.514502E0,1.220635E3,5.530344E0,1.4931E3,1.6659551E3,4.7365723E0,1.798755E3,1.793525E3,4.77421E0,1.2053411E1,1.0260864E0,5.113022E0,8.4495535E0,2.661123E0,1.3064815E1,8.127661E0,1.1745459E1,4.8614626E0,5.769104E0,2.0324024E1,5.970201E0,1.4321046E0,-5.983338E-1,2.0251586E0],"split_indices":[59,59,59,6,59,30,0,0,32,12,47,0,20,0,49,15,38,40,11,3,0,0,0,0,0,0,30,2,0,0,45,0,42,10,0,4,1,0,0,0,0,0,0,0,0,0,0,0,0,0,0,0,0],"split_type":[0,0,0,0,0,0,0,0,0,0,0,0,0,0,0,0,0,0,0,0,0,0,0,0,0,0,0,0,0,0,0,0,0,0,0,0,0,0,0,0,0,0,0,0,0,0,0,0,0,0,0,0,0],"sum_hessian":[6.58E2,4.29E2,2.29E2,2.62E2,1.67E2,2.12E2,1.7E1,6.4E1,1.98E2,8.4E1,8.3E1,3.9E1,1.73E2,8E0,5.6E1,1.56E2,4.2E1,6.4E1,2E1,1.3E1,7E1,2E0,1.71E2,7E0,1E0,3E0,5.3E1,1.9E1,1.37E2,2E0,4E1,3E0,6.1E1,1.9E1,1E0,7E0,6E0,3E0,5E1,1E0,1.8E1,1.33E2,4E0,2.5E1,1.5E1,5.9E1,2E0,1E0,1.8E1,6E0,1E0,1E0,5E0],"tree_param":{"num_deleted":"0","num_feature":"60","num_nodes":"53","size_leaf_vector":"0"}},{"base_weights":[3.0349674E1,2.2572475E1,3.7492363E1,1.9901922E1,2.5322409E1,3.3172012E1,4.541259E1,1.899946E1,2.9900229E1,2.8343092E1,2.0167963E1,4.962698E1,3.2011982E1,4.279205E1,6.328677E1,1.9629444E1,4.969795E0,4.4959595E1,1.6750595E1,1.5584621E1,2.9348711E1,8.402148E0,2.2079535E1,5.179243E1,1.1820801E1,2.5668648E1,3.3800312E1,3.0060896E1,1.865571E1,8.838379E0,8.809692E-1,2.58077E1,9.430278E0,1.8420084E1,7.435272E0,3.011594E1,1.6387712E1,-2.0236816E0,1.1261566E1,3.133667E0,2.2395779E1,3.515748E1,1.8412712E1,3.187868E1,4.0153614E1,1.4448539E1,4.5906017E1,1.378406E1,2.1913734E1,2.3514812E0,-8.8319904E-1,1.4907837E0,1.0720019E1,2.0330973E1,3.138121E1,-4.1834106E0,1.1478882E0,2.2708466E1,3.5370483E0,2.1985443E1,4.0173103E1,5.2324996E0,2.4439837E1,3.2569347E1,1.2176616E1,4.159707E1,1.1372233E1],"categories":[],"categories_nodes":[],"categories_segments":[],"categories_sizes":[],"default_left":[1,1,1,1,1,1,1,1,1,1,1,1,1,0,0,1,1,0,1,1,1,1,1,0,0,1,1,1,1,0,1,0,1,0,0,1,0,1,0,0,1,1,1,1,1,0,0,0,0,0,0,0,0,0,0,0,0,0,0,0,0,0,0,0,0,0,0],"id":11,"left_children":[1,3,5,7,9,11,13,15,17,19,21,23,25,-1,-1,27,29,-1,31,33,35,37,39,-1,-1,41,43,45,47,-1,49,-1,51,-1,-1,53,-1,55,-1,-1,57,59,61,63,65,-1,-1,-1,-1,-1,-1,-1,-1,-1,-1,-1,-1,-1,-1,-1,-1,-1,-1,-1,-1,-1,-1],"loss_changes":[3.5761188E4,1.8313906E3,1.01961875E4,9.2975E2,1.8105859E3,2.7062031E3,2.8189375E3,1.2724102E3,1.6232021E3,7.486406E2,1.163957E3,4.5204688E2,1.5486562E3,0E0,0E0,9.424961E2,1.18757385E2,0E0,2.8703345E2,7.100635E1,3.6165625E2,3.209079E2,2.3538672E2,0E0,0E0,2.8640234E3,7.099844E2,2.0579023E3,1.8882695E3,0E0,1.5047978E1,0E0,4.545819E1,0E0,0E0,3.524375E2,0E0,2.5351284E1,0E0,0E0,2.1452344E2,5.041621E2,2.3347217E3,1.3724219E3,9.3946875E2,0E0,0E0,0E0,0E0,0E0,0E0,0E0,0E0,0E0,0E0,0E0,0E0,0E0,0E0,0E0,0E0,0E0,0E0,0E0,0E0,0E0,0E0],"parents":[2147483647,0,0,1,1,2,2,3,3,4,4,5,5,6,6,7,7,8,8,9,9,10,10,11,11,12,12,15,15,16,16,18,18,19,19,20,20,21,21,22,22,25,25,26,26,27,27,28,28,30,30,32,32,35,35,37,37,40,40,41,41,42,42,43,43,44,44],"right_children":[2,4,6,8,10,12,14,16,18,20,22,24,26,-1,-1,28,30,-1,32,34,36,38,40,-1,-1,42,44,46,48,-1,50,-1,52,-1,-1,54,-1,56,-1,-1,58,60,62,64,66,-1,-1,-1,-1,-1,-1,-1,-1,-1,-1,-1,-1,-1,-1,-1,-1,-1,-1,-1,-1,-1,-1],"split_conditions":[1.5114451E3,1.123E3,1.82492E3,1.21275E3,1.21809E3,1.4698E3,1.981145E3,1.22747E3,1.17772E3,9.5861E2,1.1694299E3,1.67894E3,1.75337E3,1.2837615E1,1.8986032E1,9.92E2,1.20022E3,1.3487879E1,1.2082151E3,9.91815E2,1.233325E3,1.22038E3,1.188245E3,1.553773E1,3.5462403E0,1.755605E3,1.87742E3,9.93075E2,1.1118E3,2.6515138E0,1.231095E3,7.74231E0,1.216655E3,5.5260253E0,2.2305818E0,1.10206E3,4.916314E0,1.226255E3,3.37847E0,9.4010013E-1,1.5097E3,1.52463E3,1.743705E3,1.946105E3,1.996645E3,4.334562E0,1.3771806E1,4.135218E0,6.5741205E0,7.054444E-1,-2.6495972E-1,4.4723514E-1,3.216006E0,6.0992923E0,9.414364E0,-1.2550232E0,3.4436646E-1,6.81254E0,1.0611145E0,6.595633E0,1.2051931E1,1.56975E0,7.331951E0,9.770804E0,3.6529849E0,1.2479121E1,3.4116702E0],"split_indices":[24,59,59,32,17,43,59,5,29,0,58,13,45,0,0,34,8,0,3,4,25,1,28,0,0,22,25,27,14,0,6,0,2,0,0,49,0,0,0,0,21,38,35,13,15,0,0,0,0,0,0,0,0,0,0,0,0,0,0,0,0,0,0,0,0,0,0],"split_type":[0,0,0,0,0,0,0,0,0,0,0,0,0,0,0,0,0,0,0,0,0,0,0,0,0,0,0,0,0,0,0,0,0,0,0,0,0,0,0,0,0,0,0,0,0,0,0,0,0,0,0,0,0,0,0,0,0,0,0,0,0,0,0,0,0,0,0],"sum_hessian":[6.58E2,3.17E2,3.41E2,1.65E2,1.52E2,2.24E2,1.17E2,1.54E2,1.1E1,9.3E1,5.9E1,1.2E1,2.12E2,1.05E2,1.2E1,1.47E2,7E0,4E0,7E0,8E0,8.5E1,9E0,5E1,1.1E1,1E0,5E1,1.62E2,1E1,1.37E2,3E0,4E0,2E0,5E0,5E0,3E0,7.9E1,6E0,2E0,7E0,1E0,4.9E1,2E1,3E1,1.29E2,3.3E1,6E0,4E0,5.7E1,8E1,2E0,2E0,1E0,4E0,1.1E1,6.8E1,1E0,1E0,4.8E1,1E0,7E0,1.3E1,1E1,2E1,1.24E2,5E0,3.1E1,2E0],"tree_param":{"num_deleted":"0","num_feature":"60","num_nodes":"67","size_leaf_vector":"0"}},{"base_weights":[2.1554413E1,1.610349E1,2.6559792E1,2.5387104E1,1.5656463E1,2.4937855E1,3.818196E1,1.0069555E1,3.1076063E1,1.254335E1,1.7491081E1,3.2785286E1,2.379067E1,7.7388916E0,3.876412E1,9.0045166E-1,1.2136719E1,3.441388E1,2.1867676E0,9.143351E0,1.5844328E1,3.1632935E1,1.693788E1,1.6650269E1,3.48506E1,1.9968544E1,2.5675142E1,3.9601673E1,1.5512939E1,1.1166813E1,2.8809013E0,2.1482616E1,1.2063607E1,9.475647E0,3.4169262E1,1.8770388E1,1.37311735E1,3.6780468E1,1.7459204E1,3.0709864E1,1.8452095E1,2.606464E1,1.254806E1,5.6435547E0,1.4019523E1,8.071777E0,-1.040802E0,1.43192425E1,2.864674E1,1.7861328E0,1.3255236E1,2.6659749E0,1.9031828E1,2.4011474E0,1.5337127E1,3.7517704E1,8.806152E0,3.3911087E1,1.19366455E1,7.6016464E0,2.070072E1,2.2863386E1,2.818328E1,1.1495361E0,2.7362915E1],"categories":[],"categories_nodes":[],"categories_segments":[],"categories_sizes":[],"default_left":[1,1,1,1,1,1,1,1,1,1,1,1,1,0,1,0,0,0,0,1,1,1,1,0,1,1,1,0,0,1,1,1,1,0,0,1,1,1,0,1,1,1,1,0,0,0,0,0,0,0,0,0,0,0,0,0,0,0,0,0,0,0,0,0,0],"id":12,"left_children":[1,3,5,7,9,11,13,15,17,19,21,23,25,-1,27,-1,-1,-1,-1,29,31,33,35,-1,37,39,41,-1,-1,43,45,47,49,-1,-1,51,53,55,-1,57,59,61,63,-1,-1,-1,-1,-1,-1,-1,-1,-1,-1,-1,-1,-1,-1,-1,-1,-1,-1,-1,-1,-1,-1],"loss_changes":[1.7552406E4,9.222422E2,5.4946562E3,8.199092E2,1.5282734E3,1.9477656E3,4.0891797E2,8.3841644E1,7.9258887E2,1.1682598E3,9.506328E2,6.193867E2,1.417625E3,0E0,1.4514844E2,0E0,0E0,0E0,0E0,7.2813965E2,9.772168E2,1.3412598E1,8.29375E2,0E0,3.9829688E2,9.481836E2,5.728203E2,0E0,0E0,6.2991113E2,3.3411435E2,7.188252E2,4.2946094E2,0E0,0E0,4.3345703E2,1.2550537E3,2.2645312E2,0E0,1.961875E2,1.8921211E3,5.08625E2,1.1506177E3,0E0,0E0,0E0,0E0,0E0,0E0,0E0,0E0,0E0,0E0,0E0,0E0,0E0,0E0,0E0,0E0,0E0,0E0,0E0,0E0,0E0,0E0],"parents":[2147483647,0,0,1,1,2,2,3,3,4,4,5,5,6,6,7,7,8,8,9,9,10,10,11,11,12,12,14,14,19,19,20,20,21,21,22,22,24,24,25,25,26,26,29,29,30,30,31,31,32,32,35,35,36,36,37,37,39,39,40,40,41,41,42,42],"right_children":[2,4,6,8,10,12,14,16,18,20,22,24,26,-1,28,-1,-1,-1,-1,30,32,34,36,-1,38,40,42,-1,-1,44,46,48,50,-1,-1,52,54,56,-1,58,60,62,64,-1,-1,-1,-1,-1,-1,-1,-1,-1,-1,-1,-1,-1,-1,-1,-1,-1,-1,-1,-1,-1,-1],"split_conditions":[1.5114451E3,9.90935E2,1.95738E3,9.6695996E2,1.099175E3,1.752605E3,1.921E3,1.07825E3,1.09997E3,1.123435E3,1.08045E3,1.470715E3,1.77664E3,2.3216677E0,2.05604E3,2.7013552E-1,3.6410158E0,1.0324164E1,6.560303E-1,1.07986E3,1.153615E3,1.175405E3,1.213855E3,4.995081E0,1.7676951E3,1.492235E3,1.991565E3,1.1880503E1,4.653882E0,1.07825E3,1.124075E3,1.13315E3,1.09688E3,2.8426943E0,1.0250779E1,9.2677E2,1.17644E3,1.7935901E3,5.2377615E0,1.8023E3,1.72903E3,1.797095E3,1.996645E3,1.6930665E0,4.205857E0,2.4215333E0,-3.122406E-1,4.295773E0,8.594023E0,5.3583986E-1,3.9765708E0,7.9979247E-1,5.7095485E0,7.2034425E-1,4.601138E0,1.1255312E1,2.6418457E0,1.01733265E1,3.580994E0,2.280494E0,6.210216E0,6.859016E0,8.454985E0,3.4486085E-1,8.208875E0],"split_indices":[24,34,57,26,55,5,58,0,5,13,58,28,59,0,0,0,0,0,0,50,11,0,0,0,7,59,21,0,0,21,7,14,25,0,0,15,32,32,0,0,41,30,22,0,0,0,0,0,0,0,0,0,0,0,0,0,0,0,0,0,0,0,0,0,0],"split_type":[0,0,0,0,0,0,0,0,0,0,0,0,0,0,0,0,0,0,0,0,0,0,0,0,0,0,0,0,0,0,0,0,0,0,0,0,0,0,0,0,0,0,0,0,0,0,0,0,0,0,0,0,0,0,0,0,0,0,0,0,0,0,0,0,0],"sum_hessian":[6.58E2,3.17E2,3.41E2,1.2E1,3.05E2,3.02E2,3.9E1,4E0,8E0,1.16E2,1.89E2,3.5E1,2.67E2,1E0,3.8E1,1E0,3E0,7E0,1E0,5.9E1,5.7E1,5E0,1.84E2,5E0,3E1,9.2E1,1.75E2,3.6E1,2E0,4.4E1,1.5E1,2.1E1,3.6E1,1E0,4E0,1.14E2,7E1,2.6E1,4E0,9E0,8.3E1,1.69E2,6E0,1.6E1,2.8E1,6E0,9E0,1.2E1,9E0,4E0,3.2E1,2E0,1.12E2,9E0,6.1E1,2.5E1,1E0,7E0,2E0,1.5E1,6.8E1,7.2E1,9.7E1,4E0,2E0],"tree_param":{"num_deleted":"0","num_feature":"60","num_nodes":"65","size_leaf_vector":"0"}},{"base_weights":[1.532226E1,1.3214227E1,2.203461E1,1.0649369E1,1.5362747E1,2.074416E1,3.7159267E1,1.3734792E1,9.09784E0,7.284572E0,1.574009E1,-2.434367E0,2.1082989E1,3.881073E1,1.0322327E1,2.3740458E1,1.2695795E1,2.5324059E0,9.768813E0,1.3217212E1,3.5897949E0,2.3755135E1,1.5150005E1,-4.385803E0,7.342529E-1,8.618635E0,2.1562464E1,2.7298584E1,2.9749146E0,2.1596523E1,1.1541935E1,7.747419E0,-1.371344E0,1.2609497E0,1.0330827E1,4.8476214E0,4.911499E-1,2.6577847E1,2.6641033E0,6.188151E0,1.5546538E1,9.915747E0,3.583903E0,2.9265242E1,2.0456783E1,2.3044138E1,6.455414E0,6.140291E0,1.3180425E1,3.1773274E0,8.93999E0,-3.1745517E0,2.1271057E0,-6.0617065E-1,3.2493043E0,1.9455578E1,9.43806E0,1.1220703E0,-7.0080566E-1,7.4726562E0,2.7472656E1,3.9853516E0,1.0803223E-2,1.1107422E1,-5.8235675E-1,1.5853423E1,6.147013E0,1.1307678E1,3.281233E1,1.7670334E1,2.3741621E1],"categories":[],"categories_nodes":[],"categories_segments":[],"categories_sizes":[],"default_left":[1,1,1,1,1,1,1,1,1,1,1,1,1,0,0,1,1,1,1,0,1,1,1,0,0,1,1,0,0,1,1,1,1,1,1,0,1,1,1,1,1,0,0,1,1,0,0,0,0,0,0,0,0,0,0,0,0,0,0,0,0,0,0,0,0,0,0,0,0,0,0],"id":13,"left_children":[1,3,5,7,9,11,13,15,17,19,21,23,25,-1,-1,27,29,31,33,-1,35,37,39,-1,-1,41,43,-1,-1,45,47,49,51,53,55,-1,57,59,61,63,65,-1,-1,67,69,-1,-1,-1,-1,-1,-1,-1,-1,-1,-1,-1,-1,-1,-1,-1,-1,-1,-1,-1,-1,-1,-1,-1,-1,-1,-1],"loss_changes":[9.033578E3,2.6137656E3,2.273914E3,9.9044336E2,7.1446094E2,1.1979453E3,8.69043E1,4.8868164E2,6.712881E2,2.5942987E2,8.650664E2,2.1770369E1,6.7475E2,0E0,0E0,3.6210767E2,4.7991797E2,3.3635413E2,6.707334E2,0E0,3.659468E1,8.817363E2,7.708906E2,0E0,0E0,1.0177246E1,5.7664844E2,0E0,0E0,4.669922E0,4.9435352E2,9.745819E0,6.983693E1,3.909461E1,9.0797754E2,0E0,3.7944694E0,3.4043945E1,1.0473949E1,4.0614E2,5.7465625E2,0E0,0E0,5.844238E2,7.154531E2,0E0,0E0,0E0,0E0,0E0,0E0,0E0,0E0,0E0,0E0,0E0,0E0,0E0,0E0,0E0,0E0,0E0,0E0,0E0,0E0,0E0,0E0,0E0,0E0,0E0,0E0],"parents":[2147483647,0,0,1,1,2,2,3,3,4,4,5,5,6,6,7,7,8,8,9,9,10,10,11,11,12,12,15,15,16,16,17,17,18,18,20,20,21,21,22,22,25,25,26,26,29,29,30,30,31,31,32,32,33,33,34,34,36,36,37,37,38,38,39,39,40,40,43,43,44,44],"right_children":[2,4,6,8,10,12,14,16,18,20,22,24,26,-1,-1,28,30,32,34,-1,36,38,40,-1,-1,42,44,-1,-1,46,48,50,52,54,56,-1,58,60,62,64,66,-1,-1,68,70,-1,-1,-1,-1,-1,-1,-1,-1,-1,-1,-1,-1,-1,-1,-1,-1,-1,-1,-1,-1,-1,-1,-1,-1,-1,-1],"split_conditions":[1.805605E3,1.2025549E3,1.98495E3,1.096015E3,1.17281E3,1.75397E3,1.988005E3,9.5195E2,1.07513E3,1.11627E3,1.17928E3,1.8237051E3,1.769835E3,1.1643219E1,3.096698E0,1.090965E3,9.61725E2,1.03318E3,1.005895E3,3.9651637E0,1.22697E3,1.244115E3,1.2149451E3,-1.3157411E0,2.202759E-1,1.8737949E3,1.773245E3,8.189575E0,8.924744E-1,1.101075E3,1.085915E3,1.108585E3,1.20826E3,1.0940801E3,1.0866951E3,1.4542865E0,1.46756E3,1.211315E3,1.461575E3,1.2383899E3,1.80744E3,2.974724E0,1.075171E0,1.80216E3,1.95115E3,6.913242E0,1.9366242E0,1.8420874E0,3.9541276E0,9.5319825E-1,2.681997E0,-9.523656E-1,6.3813174E-1,-1.8185121E-1,9.7479135E-1,5.8366737E0,2.831418E0,3.366211E-1,-2.102417E-1,2.241797E0,8.241797E0,1.1956055E0,3.240967E-3,3.3322268E0,-1.7470703E-1,4.756027E0,1.844104E0,3.3923037E0,9.8436985E0,5.3011003E0,7.1224866E0],"split_indices":[59,32,59,6,43,35,41,23,22,49,56,0,26,0,0,1,47,26,48,0,30,39,35,0,0,0,18,0,0,1,49,1,2,14,18,0,0,4,0,19,58,0,0,56,7,0,0,0,0,0,0,0,0,0,0,0,0,0,0,0,0,0,0,0,0,0,0,0,0,0,0],"split_type":[0,0,0,0,0,0,0,0,0,0,0,0,0,0,0,0,0,0,0,0,0,0,0,0,0,0,0,0,0,0,0,0,0,0,0,0,0,0,0,0,0,0,0,0,0,0,0,0,0,0,0,0,0,0,0,0,0,0,0,0,0,0,0,0,0,0,0,0,0,0,0],"sum_hessian":[6.58E2,5.03E2,1.55E2,2.32E2,2.71E2,1.45E2,1E1,7.5E1,1.57E2,1.3E1,2.58E2,2E0,1.43E2,9E0,1E0,5E0,7E1,1.5E1,1.42E2,4E0,9E0,1.5E1,2.43E2,1E0,1E0,6E0,1.37E2,4E0,1E0,6E0,6.4E1,6E0,9E0,9E0,1.33E2,6E0,3E0,1.3E1,2E0,1.1E1,2.32E2,4E0,2E0,1.4E1,1.23E2,5E0,1E0,1.6E1,4.8E1,2E0,4E0,6E0,3E0,5E0,4E0,1E1,1.23E2,2E0,1E0,1E0,1.2E1,1E0,1E0,6E0,5E0,2.24E2,8E0,3E0,1.1E1,7E1,5.3E1],"tree_param":{"num_deleted":"0","num_feature":"60","num_nodes":"71","size_leaf_vector":"0"}},{"base_weights":[1.0887735E1,8.885361E0,1.4583969E1,7.3681073E0,1.0197277E1,1.3879301E1,2.7351507E1,7.976748E0,-2.1410005E0,1.0855697E1,5.9776535E0,1.3260806E1,2.0083483E1,2.9562527E1,1.1601277E1,1.4817392E1,7.4353786E0,5.0084634E0,-3.896218E0,1.01336E1,2.024108E1,9.435534E0,1.7139359E0,1.3600884E1,3.271286E0,2.0951546E1,2.663208E0,8.407959E0,3.1155853E1,4.8958497E0,1.8682983E1,1.3188616E1,6.905374E0,-5.665636E0,2.7107747E0,1.1176892E1,5.021059E0,5.7706604E0,2.4005138E1,3.8011475E0,1.1310209E1,-2.997977E0,4.8408813E0,1.3801079E1,5.4125977E-1,-5.4460754E0,9.590918E0,8.599731E0,2.2984097E1,7.638346E0,5.21403E-1,6.680969E0,2.3570496E1,1.8508667E1,8.176514E0,4.9628105E0,8.490619E0,-7.7542725E0,-2.443872E0,9.599319E0,1.8806988E1,5.934584E-1,9.688293E0,1.0749105E0,4.8955383E0,1.1848033E1,2.4281616E0,-4.3714113E0,2.9040527E-1,7.0339007E0,-2.071228E-1,1.2135371E1,1.5862434E1,-5.291748E-1,1.0744629E0,-7.3634033E0,1.529541E-1,3.258138E0,1.2726726E1,2.4038555E1,4.6380615E0],"categories":[],"categories_nodes":[],"categories_segments":[],"categories_sizes":[],"default_left":[1,1,1,1,1,1,1,1,1,1,1,1,1,1,0,1,1,0,1,1,1,1,1,1,1,1,0,0,0,1,1,1,1,1,0,1,1,0,0,1,1,1,1,1,1,1,1,0,1,0,0,0,0,0,0,0,0,0,0,0,0,0,0,0,0,0,0,0,0,0,0,0,0,0,0,0,0,0,0,0,0],"id":14,"left_children":[1,3,5,7,9,11,13,15,17,19,21,23,25,27,-1,29,31,-1,33,35,37,39,41,43,45,47,-1,-1,-1,49,51,53,55,57,-1,59,61,-1,-1,63,65,67,69,71,73,75,77,-1,79,-1,-1,-1,-1,-1,-1,-1,-1,-1,-1,-1,-1,-1,-1,-1,-1,-1,-1,-1,-1,-1,-1,-1,-1,-1,-1,-1,-1,-1,-1,-1,-1],"loss_changes":[4.747836E3,7.8078516E2,1.6896562E3,1.1919668E3,5.685586E2,5.77875E2,4.0101562E1,5.9716016E2,1.826493E2,1.123207E3,4.7036108E2,6.4514453E2,2.16396E2,4.139795E1,0E0,4.07115E2,4.547422E2,0E0,1.4395409E2,9.253125E2,5.6955273E2,1.4713586E2,2.5025519E2,5.0496484E2,4.92957E2,2.2913965E2,0E0,0E0,0E0,5.600187E1,3.704663E2,2.2196875E2,4.6904883E2,4.161139E1,0E0,1.6490938E3,6.7618384E2,0E0,0E0,1.2639153E1,3.3331787E1,3.288411E1,1.121606E2,4.701914E2,2.8516147E0,4.4066948E1,5.7826477E1,0E0,1.5934033E2,0E0,0E0,0E0,0E0,0E0,0E0,0E0,0E0,0E0,0E0,0E0,0E0,0E0,0E0,0E0,0E0,0E0,0E0,0E0,0E0,0E0,0E0,0E0,0E0,0E0,0E0,0E0,0E0,0E0,0E0,0E0,0E0],"parents":[2147483647,0,0,1,1,2,2,3,3,4,4,5,5,6,6,7,7,8,8,9,9,10,10,11,11,12,12,13,13,15,15,16,16,18,18,19,19,20,20,21,21,22,22,23,23,24,24,25,25,29,29,30,30,31,31,32,32,33,33,35,35,36,36,39,39,40,40,41,41,42,42,43,43,44,44,45,45,46,46,48,48],"right_children":[2,4,6,8,10,12,14,16,18,20,22,24,26,28,-1,30,32,-1,34,36,38,40,42,44,46,48,-1,-1,-1,50,52,54,56,58,-1,60,62,-1,-1,64,66,68,70,72,74,76,78,-1,80,-1,-1,-1,-1,-1,-1,-1,-1,-1,-1,-1,-1,-1,-1,-1,-1,-1,-1,-1,-1,-1,-1,-1,-1,-1,-1,-1,-1,-1,-1,-1,-1],"split_conditions":[1.77725E3,1.174665E3,1.98495E3,1.17005E3,1.76269E3,1.98773E3,1.9627849E3,9.90935E2,1.12629E3,1.81911E3,1.811795E3,1.99436E3,2.0706099E3,1.78034E3,3.4803834E0,9.796E2,9.91025E2,1.502539E0,1.23226E3,1.793645E3,1.7781499E3,1.7624299E3,1.830115E3,2.002785E3,1.9991001E3,1.81215E3,7.989624E-1,2.5223877E0,9.346756E0,1.077855E3,9.55255E2,9.6507996E2,1.109385E3,1.20086E3,8.132324E-1,1.5385449E3,1.766345E3,1.7311982E0,7.201542E0,1.8232749E3,1.817085E3,1.9659451E3,1.86201E3,1.82492E3,1.990325E3,1.945605E3,2.03497E3,2.5799196E0,2.07145E3,2.291504E0,1.5642092E-1,2.0042908E0,7.071149E0,5.5526004E0,2.4529543E0,1.4888432E0,2.5471857E0,-2.3262818E0,-7.331616E-1,2.879796E0,5.6420965E0,1.7803752E-1,2.9064882E0,3.2247317E-1,1.4686615E0,3.55441E0,7.284485E-1,-1.3114234E0,8.712158E-2,2.1101704E0,-6.2136844E-2,3.6406114E0,4.7587304E0,-1.5875244E-1,3.2233888E-1,-2.209021E0,4.5886233E-2,9.7744143E-1,3.8180177E0,7.211567E0,1.3914185E0],"split_indices":[59,32,59,35,58,26,49,34,42,39,39,21,28,9,0,40,5,0,36,4,0,44,31,33,17,2,0,0,0,3,35,1,11,37,0,27,39,0,0,9,38,0,46,59,1,0,2,0,32,0,0,0,0,0,0,0,0,0,0,0,0,0,0,0,0,0,0,0,0,0,0,0,0,0,0,0,0,0,0,0,0],"split_type":[0,0,0,0,0,0,0,0,0,0,0,0,0,0,0,0,0,0,0,0,0,0,0,0,0,0,0,0,0,0,0,0,0,0,0,0,0,0,0,0,0,0,0,0,0,0,0,0,0,0,0,0,0,0,0,0,0,0,0,0,0,0,0,0,0,0,0,0,0,0,0,0,0,0,0,0,0,0,0,0,0],"sum_hessian":[6.58E2,4.29E2,2.29E2,2.02E2,2.27E2,2.19E2,1E1,1.9E2,1.2E1,1.95E2,3.2E1,2.02E2,1.7E1,8E0,2E0,1.2E1,1.78E2,2E0,1E1,1.83E2,1.2E1,1.7E1,1.5E1,1.95E2,7E0,1.6E1,1E0,1E0,7E0,4E0,8E0,1.3E1,1.65E2,8E0,2E0,1.51E2,3.2E1,3E0,9E0,5E0,1.2E1,6E0,9E0,1.92E2,3E0,3E0,4E0,3E0,1.3E1,2E0,2E0,3E0,5E0,5E0,8E0,7.6E1,8.9E1,4E0,4E0,1.27E2,2.4E1,1.7E1,1.5E1,2E0,3E0,1.1E1,1E0,4E0,2E0,6E0,3E0,1.1E2,8.2E1,1E0,2E0,2E0,1E0,2E0,2E0,1.2E1,1E0],"tree_param":{"num_deleted":"0","num_feature":"60","num_nodes":"81","size_leaf_vector":"0"}},{"base_weights":[7.756128E0,5.6066346E0,9.592255E0,8.041464E0,4.738397E0,9.03622E0,1.7572594E1,7.1149282E0,1.6555124E1,4.0417758E-1,5.176148E0,1.162046E1,7.7782907E0,2.1735117E1,1.0404053E1,8.233632E0,2.2403646E0,5.8961267E0,-2.0238113E0,1.7773935E1,4.711667E0,1.028293E1,1.7274124E1,3.4900982E0,9.001061E0,1.1132392E1,1.9244995E0,5.9963145E0,1.1996573E1,-1.619036E0,4.9931912E0,1.40448E0,1.1416829E1,-3.3822806E0,4.990316E0,-1.7692683E0,5.132516E0,1.3419467E1,8.286638E0,4.20437E0,2.0479101E1,6.2757463E0,1.2380981E0,7.978899E0,1.3035422E1,1.1654898E1,3.0497255E0,1.3608416E1,1.7441406E0,-2.7455566E0,7.9817706E-1,5.7077634E-1,8.416967E0,-5.3710938E-2,2.394511E0,-1.1953735E0,-6.098928E0,6.3227234E0,1.1627502E0,1.8944092E0,-6.3592935E0,1.689751E1,4.7868E0,9.874869E0,3.1294239E1,4.5123434E0,9.649477E0,5.1145325E0,2.8186035E-1,2.2515165E1,4.8297935E0,8.579671E0,1.738566E0,-5.5552163E0,2.8189697E0,8.368685E0,-7.896031E-1,1.7990755E1,8.6671505E0],"categories":[],"categories_nodes":[],"categories_segments":[],"categories_sizes":[],"default_left":[1,1,1,1,1,1,1,1,0,1,1,1,1,0,1,1,1,1,1,0,1,1,1,1,1,0,0,1,1,1,1,1,0,1,1,1,1,1,1,1,1,1,1,1,1,0,0,0,0,0,0,0,0,0,0,0,0,0,0,0,0,0,0,0,0,0,0,0,0,0,0,0,0,0,0,0,0,0,0],"id":15,"left_children":[1,3,5,7,9,11,13,15,-1,17,19,21,23,-1,25,27,29,31,33,-1,35,37,39,41,43,-1,-1,45,47,49,51,53,-1,55,57,59,61,63,65,67,69,71,73,75,77,-1,-1,-1,-1,-1,-1,-1,-1,-1,-1,-1,-1,-1,-1,-1,-1,-1,-1,-1,-1,-1,-1,-1,-1,-1,-1,-1,-1,-1,-1,-1,-1,-1,-1],"loss_changes":[2.547125E3,6.087832E2,1.4120312E3,5.0537988E2,4.3049414E2,9.9212695E2,4.303291E2,3.7963696E2,0E0,3.0528928E2,1.127501E3,6.315E2,1.1588555E3,0E0,4.033557E1,4.2477954E2,1.6744806E2,1.5754462E2,1.6933429E2,0E0,5.573076E2,4.460664E2,7.097749E2,3.1844055E2,6.217754E2,0E0,0E0,6.14723E2,3.232964E2,2.1252722E1,1.3146806E2,7.346882E0,0E0,7.588426E1,7.9478836E0,2.3065994E2,6.8784375E2,1.7818164E3,2.4965234E2,1.6409012E1,3.6920166E2,2.2551007E2,3.3784073E2,4.953584E2,5.8004395E2,0E0,0E0,0E0,0E0,0E0,0E0,0E0,0E0,0E0,0E0,0E0,0E0,0E0,0E0,0E0,0E0,0E0,0E0,0E0,0E0,0E0,0E0,0E0,0E0,0E0,0E0,0E0,0E0,0E0,0E0,0E0,0E0,0E0,0E0],"parents":[2147483647,0,0,1,1,2,2,3,3,4,4,5,5,6,6,7,7,9,9,10,10,11,11,12,12,14,14,15,15,16,16,17,17,18,18,20,20,21,21,22,22,23,23,24,24,27,27,28,28,29,29,30,30,31,31,33,33,34,34,35,35,36,36,37,37,38,38,39,39,40,40,41,41,42,42,43,43,44,44],"right_children":[2,4,6,8,10,12,14,16,-1,18,20,22,24,-1,26,28,30,32,34,-1,36,38,40,42,44,-1,-1,46,48,50,52,54,-1,56,58,60,62,64,66,68,70,72,74,76,78,-1,-1,-1,-1,-1,-1,-1,-1,-1,-1,-1,-1,-1,-1,-1,-1,-1,-1,-1,-1,-1,-1,-1,-1,-1,-1,-1,-1,-1,-1,-1,-1,-1,-1],"split_conditions":[1.23959E3,1.096015E3,1.9760801E3,1.09286E3,1.02189E3,1.77758E3,1.987075E3,1.1110549E3,4.9665375E0,9.9405E2,1.032265E3,1.810135E3,1.79529E3,6.5205355E0,2.04275E3,1.0798201E3,1.133155E3,1.119355E3,1.112275E3,5.332181E0,1.08135E3,1.4931E3,1.796335E3,1.79075E3,1.9783999E3,3.3397176E0,5.773499E-1,9.91025E2,1.22437E3,1.2161E3,1.120425E3,1.10337E3,3.4250488E0,1.08167E3,1.202855E3,1.08135E3,1.0801599E3,1.47012E3,1.7452251E3,1.76905E3,1.7873401E3,1.813675E3,1.793585E3,1.9749099E3,1.9502849E3,3.4964695E0,9.149177E-1,4.082525E0,5.2324224E-1,-8.23667E-1,2.3945312E-1,1.7123291E-1,2.5250902E0,-1.6113281E-2,7.1835333E-1,-3.5861206E-1,-1.8296784E0,1.8968171E0,3.488251E-1,5.683228E-1,-1.9077882E0,5.0692534E0,1.43604E0,2.962461E0,9.388272E0,1.353703E0,2.894843E0,1.5343598E0,8.455811E-2,6.75455E0,1.4489381E0,2.5739014E0,5.2156985E-1,-1.666565E0,8.4569097E-1,2.5106056E0,-2.3688094E-1,5.397227E0,2.6001453E0],"split_indices":[49,6,55,6,58,17,53,18,0,52,58,57,23,0,0,20,18,0,36,0,14,52,51,8,4,0,0,19,53,49,37,2,0,44,0,15,12,53,16,3,19,38,12,4,33,0,0,0,0,0,0,0,0,0,0,0,0,0,0,0,0,0,0,0,0,0,0,0,0,0,0,0,0,0,0,0,0,0,0],"split_type":[0,0,0,0,0,0,0,0,0,0,0,0,0,0,0,0,0,0,0,0,0,0,0,0,0,0,0,0,0,0,0,0,0,0,0,0,0,0,0,0,0,0,0,0,0,0,0,0,0,0,0,0,0,0,0,0,0,0,0,0,0,0,0,0,0,0,0,0,0,0,0,0,0,0,0,0,0,0,0],"sum_hessian":[6.58E2,3.05E2,3.53E2,7.8E1,2.27E2,3.32E2,2.1E1,7.2E1,6E0,2.1E1,2.06E2,1.06E2,2.26E2,1.2E1,9E0,5.8E1,1.4E1,6E0,1.5E1,6E0,2E2,8.8E1,1.8E1,5.1E1,1.75E2,8E0,1E0,3.8E1,2E1,6E0,8E0,4E0,2E0,1.3E1,2E0,1.2E1,1.88E2,3.2E1,5.6E1,4E0,1.4E1,2.2E1,2.9E1,1.42E2,3.3E1,1.2E1,2.6E1,1.7E1,3E0,4E0,2E0,4E0,4E0,2E0,2E0,8E0,5E0,1E0,1E0,7E0,5E0,4E0,1.84E2,2.8E1,4E0,1.6E1,4E1,3E0,1E0,1.2E1,2E0,1.4E1,8E0,5E0,2.4E1,1.36E2,6E0,1.4E1,1.9E1],"tree_param":{"num_deleted":"0","num_feature":"60","num_nodes":"79","size_leaf_vector":"0"}},{"base_weights":[5.5509624E0,5.2590637E0,1.3763711E1,4.0515065E0,6.431537E0,1.9018274E1,8.6629925E0,1.2300456E1,3.8798873E0,1.3717932E1,6.005719E0,7.241913E0,2.3030727E1,3.6852295E0,1.0465861E1,1.4332911E1,1.0690918E0,4.326143E0,1.5112832E0,4.674737E0,2.1236912E1,2.2224748E0,6.5019207E0,4.124695E0,9.636841E-1,1.31720705E1,5.6664796E0,3.4442675E0,6.6500006E0,-5.004303E0,2.6615877E0,6.3329873E0,1.0186768E0,2.3160141E1,2.925537E0,6.9439616E0,-9.5338506E-1,1.2579427E1,6.1952333E0,4.1166205E0,-1.0067796E0,8.993222E0,3.147823E0,-5.4543805E0,-9.268799E-1,3.926116E0,-2.0304198E0,1.2821859E0,1.1407471E-1,-6.870931E-1,8.170823E0,-2.9737883E0,8.295241E-1,7.335951E0,2.1232391E1,7.805922E0,4.9149404E0],"categories":[],"categories_nodes":[],"categories_segments":[],"categories_sizes":[],"default_left":[1,1,1,1,1,1,1,1,1,1,1,0,0,1,1,0,0,1,1,1,1,1,1,0,0,0,0,1,1,1,1,0,1,0,0,1,1,1,1,0,0,0,0,0,0,0,0,0,0,0,0,0,0,0,0,0,0],"id":16,"left_children":[1,3,5,7,9,11,13,15,17,19,21,-1,-1,23,25,-1,-1,27,29,31,33,35,37,-1,-1,-1,-1,39,41,43,45,-1,47,-1,-1,49,51,53,55,-1,-1,-1,-1,-1,-1,-1,-1,-1,-1,-1,-1,-1,-1,-1,-1,-1,-1],"loss_changes":[1.5074316E3,8.7724023E2,4.2488965E2,4.010459E2,9.166758E2,3.0573438E2,7.809619E1,1.2164026E2,3.2324658E2,1.0566484E3,5.599883E2,0E0,0E0,2.0052261E0,4.2253906E1,0E0,0E0,5.140259E2,3.9555978E2,4.81127E1,2.4919727E2,5.614272E2,4.2531836E2,0E0,0E0,0E0,0E0,5.787383E2,5.5434375E2,9.625702E0,2.6903143E2,0E0,8.07219E-1,0E0,0E0,1.4604785E2,8.531732E1,3.886997E2,4.9573242E2,0E0,0E0,0E0,0E0,0E0,0E0,0E0,0E0,0E0,0E0,0E0,0E0,0E0,0E0,0E0,0E0,0E0,0E0],"parents":[2147483647,0,0,1,1,2,2,3,3,4,4,5,5,6,6,7,7,8,8,9,9,10,10,13,13,14,14,17,17,18,18,19,19,20,20,21,21,22,22,27,27,28,28,29,29,30,30,32,32,35,35,36,36,37,37,38,38],"right_children":[2,4,6,8,10,12,14,16,18,20,22,-1,-1,24,26,-1,-1,28,30,32,34,36,38,-1,-1,-1,-1,40,42,44,46,-1,48,-1,-1,50,52,54,56,-1,-1,-1,-1,-1,-1,-1,-1,-1,-1,-1,-1,-1,-1,-1,-1,-1,-1],"split_conditions":[1.98773E3,1.242265E3,1.9809099E3,9.5195E2,1.529755E3,1.97431E3,2.0082351E3,1.090965E3,1.2205901E3,1.23122E3,1.73744E3,2.172574E0,6.9092183E0,1.975E3,2.02298E3,4.2998734E0,3.2072756E-1,1.17388E3,1.223645E3,1.2210701E3,1.52371E3,1.515725E3,1.75114E3,1.2374085E0,2.8910524E-1,3.9516213E0,1.6999439E0,1.1838E3,1.197385E3,1.23029E3,1.2316E3,1.8998963E0,1.28975E3,6.9480424E0,8.7766117E-1,1.73394E3,1.665185E3,1.8487949E3,1.80588E3,1.2349862E0,-3.0203387E-1,2.6979668E0,9.4434696E-1,-1.6363143E0,-2.7806398E-1,1.1778349E0,-6.09126E-1,3.846558E-1,3.4222413E-2,-2.0612793E-1,2.451247E0,-8.921365E-1,2.4885724E-1,2.2007854E0,6.3697176E0,2.3417766E0,1.4744822E0],"split_indices":[26,59,32,23,36,20,13,1,45,32,45,0,0,1,11,0,0,32,45,26,50,59,43,0,0,0,0,18,55,47,58,0,0,0,0,2,51,23,19,0,0,0,0,0,0,0,0,0,0,0,0,0,0,0,0,0,0],"split_type":[0,0,0,0,0,0,0,0,0,0,0,0,0,0,0,0,0,0,0,0,0,0,0,0,0,0,0,0,0,0,0,0,0,0,0,0,0,0,0,0,0,0,0,0,0,0,0,0,0,0,0,0,0,0,0,0,0],"sum_hessian":[6.58E2,6.37E2,2.1E1,3.16E2,3.21E2,9E0,1.2E1,5E0,3.11E2,1.6E1,3.05E2,3E0,6E0,4E0,8E0,4E0,1E0,2.61E2,5E1,8E0,8E0,3.6E1,2.69E2,3E0,1E0,4E0,4E0,1.91E2,7E1,7E0,4.3E1,5E0,3E0,7E0,1E0,1.4E1,2.2E1,1.1E1,2.58E2,1.66E2,2.5E1,4.1E1,2.9E1,6E0,1E0,3.4E1,9E0,2E0,1E0,2E0,1.2E1,1E1,1.2E1,8E0,3E0,1.12E2,1.46E2],"tree_param":{"num_deleted":"0","num_feature":"60","num_nodes":"57","size_leaf_vector":"0"}},{"base_weights":[3.95887E0,3.6171005E0,9.022199E0,2.1794477E0,4.0926538E0,1.0676064E1,2.8276124E0,3.1990972E0,-2.035239E0,8.433594E0,3.7945347E0,3.5009766E-1,1.1732195E1,-3.2196858E0,4.7418976E0,2.244382E0,7.6102796E0,5.3581543E0,-3.6631281E0,4.2664185E0,1.3981557E1,-2.2286017E0,4.0292935E0,9.654134E-1,-7.479248E-1,1.888861E1,9.454249E0,2.4816082E0,7.681844E0,3.0492187E0,-3.6859412E0,9.156295E0,-1.6358643E0,6.520111E0,2.0228271E0,-5.8060303E0,1.8841553E0,7.6468506E0,-9.14978E-1,1.995996E1,4.676493E0,9.583333E-1,-5.1679144E0,-2.5253363E0,4.1626973E0,7.051205E0,1.5488179E1,1.5169469E0,9.349409E0,-8.103088E0,2.8179119E0,-4.3063354E0,1.0143459E1,-7.6293945E-2,-2.1302898E0,-3.0366516E0,-9.2343445E0,3.8664753E0,-2.7085369E0,1.0967865E1,5.030487E0,2.3583577E0,-2.3991497E0,4.3637085E0,2.1832052E1,-8.671061E-2,7.079773E0,-1.3131104E0,5.9389243E0,-1.0499268E0,-6.194493E0,1.5095215E0,-3.8937988E0,1.246403E1,4.0300913E0,8.327928E0,3.6728342E0,4.6173706E0,1.6738867E1],"categories":[],"categories_nodes":[],"categories_segments":[],"categories_sizes":[],"default_left":[1,1,1,1,1,1,1,1,1,1,1,1,1,0,1,1,1,1,1,1,1,1,1,0,0,0,1,0,0,1,1,1,1,0,0,1,1,1,1,1,1,1,1,1,1,1,1,0,0,0,0,0,0,0,0,0,0,0,0,0,0,0,0,0,0,0,0,0,0,0,0,0,0,0,0,0,0,0,0],"id":17,"left_children":[1,3,5,7,9,11,13,15,17,19,21,23,25,-1,27,29,31,33,35,37,39,41,43,-1,-1,-1,45,-1,-1,47,49,51,53,-1,-1,55,57,59,61,63,65,67,69,71,73,75,77,-1,-1,-1,-1,-1,-1,-1,-1,-1,-1,-1,-1,-1,-1,-1,-1,-1,-1,-1,-1,-1,-1,-1,-1,-1,-1,-1,-1,-1,-1,-1,-1],"loss_changes":[1.1077598E3,4.142788E2,3.8985742E2,6.769214E2,5.6846875E2,3.4487085E2,1.3102997E2,5.1355896E2,3.92732E2,6.108096E2,6.2547705E2,3.4245787E0,2.9417798E2,0E0,3.4097717E1,5.123981E2,3.2946143E2,1.0063965E1,3.2000885E2,3.2227316E2,5.7421045E2,1.6419836E2,3.7776562E2,0E0,0E0,0E0,2.3878491E2,0E0,0E0,8.836026E2,3.9630396E2,2.96188E2,2.9218369E0,0E0,0E0,1.5235022E2,8.330598E1,4.040503E1,4.4523586E1,1.091145E2,6.9297745E1,1.09616646E2,3.1543182E1,5.5571735E1,4.0330176E2,5.1364502E1,4.286377E0,0E0,0E0,0E0,0E0,0E0,0E0,0E0,0E0,0E0,0E0,0E0,0E0,0E0,0E0,0E0,0E0,0E0,0E0,0E0,0E0,0E0,0E0,0E0,0E0,0E0,0E0,0E0,0E0,0E0,0E0,0E0,0E0],"parents":[2147483647,0,0,1,1,2,2,3,3,4,4,5,5,6,6,7,7,8,8,9,9,10,10,11,11,12,12,14,14,15,15,16,16,17,17,18,18,19,19,20,20,21,21,22,22,26,26,29,29,30,30,31,31,32,32,35,35,36,36,37,37,38,38,39,39,40,40,41,41,42,42,43,43,44,44,45,45,46,46],"right_children":[2,4,6,8,10,12,14,16,18,20,22,24,26,-1,28,30,32,34,36,38,40,42,44,-1,-1,-1,46,-1,-1,48,50,52,54,-1,-1,56,58,60,62,64,66,68,70,72,74,76,78,-1,-1,-1,-1,-1,-1,-1,-1,-1,-1,-1,-1,-1,-1,-1,-1,-1,-1,-1,-1,-1,-1,-1,-1,-1,-1,-1,-1,-1,-1,-1,-1],"split_conditions":[1.9835E3,1.11086E3,2.038865E3,1.097185E3,1.121145E3,1.7663E3,1.97707E3,1.10427E3,1.07732E3,1.126565E3,1.11201E3,1.98287E3,1.9816101E3,-9.659058E-1,2.06657E3,1.1153E3,1.2174E3,1.10161E3,1.208675E3,1.122215E3,1.12906E3,1.086045E3,1.148355E3,2.8962404E-1,-2.2437745E-1,5.6665835E0,1.98701E3,7.4448246E-1,2.3045533E0,1.1058049E3,1.126975E3,1.072385E3,1.18659E3,1.9560333E0,6.068482E-1,1.131375E3,1.2203301E3,1.0770449E3,1.07044E3,9.90935E2,1.1639551E3,1.0842051E3,1.08447E3,1.10655E3,1.07571E3,1.9910549E3,1.9733401E3,4.550841E-1,2.804823E0,-2.4309266E0,8.453736E-1,-1.2919006E0,3.043038E0,-2.2888184E-2,-6.3908696E-1,-9.1099554E-1,-2.7703035E0,1.1599426E0,-8.125611E-1,3.2903597E0,1.5091462E0,7.075073E-1,-7.197449E-1,1.3091125E0,6.549616E0,-2.6013184E-2,2.123932E0,-3.9393312E-1,1.7816774E0,-3.1497803E-1,-1.8583479E0,4.5285645E-1,-1.1681397E0,3.7392092E0,1.2090274E0,2.4983783E0,1.1018503E0,1.3852112E0,5.0216603E0],"split_indices":[5,59,1,59,52,54,16,46,41,55,37,0,8,0,1,37,36,0,2,57,54,12,53,0,0,0,37,0,0,33,36,9,0,0,0,22,5,31,51,5,55,11,39,23,16,27,0,0,0,0,0,0,0,0,0,0,0,0,0,0,0,0,0,0,0,0,0,0,0,0,0,0,0,0,0,0,0,0,0],"split_type":[0,0,0,0,0,0,0,0,0,0,0,0,0,0,0,0,0,0,0,0,0,0,0,0,0,0,0,0,0,0,0,0,0,0,0,0,0,0,0,0,0,0,0,0,0,0,0,0,0,0,0,0,0,0,0,0,0,0,0,0,0,0,0,0,0,0,0,0,0,0,0,0,0,0,0,0,0,0,0],"sum_hessian":[6.58E2,6.18E2,4E1,1.55E2,4.63E2,3.1E1,9E0,1.25E2,3E1,2.8E1,4.35E2,3E0,2.8E1,2E0,7E0,1.04E2,2.1E1,5E0,2.5E1,1.7E1,1.1E1,1.6E1,4.19E2,2E0,1E0,5E0,2.3E1,5E0,2E0,9.2E1,1.2E1,1.8E1,3E0,3E0,2E0,1.8E1,7E0,1E1,7E0,6E0,5E0,8E0,8E0,8E0,4.11E2,1.8E1,5E0,7.5E1,1.7E1,7E0,5E0,1E0,1.7E1,1E0,2E0,1.1E1,7E0,5E0,2E0,3E0,7E0,2E0,5E0,1E0,5E0,2E0,3E0,6E0,2E0,2E0,6E0,2E0,6E0,5E0,4.06E2,1.2E1,6E0,1E0,4E0],"tree_param":{"num_deleted":"0","num_feature":"60","num_nodes":"79","size_leaf_vector":"0"}},{"base_weights":[2.828906E0,2.5865922E0,7.347142E0,2.4180803E0,5.9780397E0,8.17266E0,-6.810303E-1,2.4810863E0,-4.2225137E0,1.3272664E1,3.905299E0,8.943655E0,2.528955E0,-2.0380452E0,1.6950073E0,2.36215E0,7.2397285E0,-5.369629E0,7.5653076E-1,1.4555982E1,3.4280396E0,6.7693424E0,1.3760289E0,-1.0319214E0,9.383955E0,8.92334E-1,3.322591E0,2.4665492E0,-5.423767E0,1.0634204E1,-9.9716794E-1,-6.7290854E0,-2.2202961E0,1.835022E-1,9.216095E0,-2.329834E0,4.4466553E0,1.0027657E1,1.3209229E0,2.2696981E0,4.5293465E0,-8.814771E0,1.7092896E-1,2.0689087E0,1.1356025E1,-3.4148762E0,1.7529297E0,6.6849774E-1,-6.357422E-1,2.5828857E0,9.794713E0,-4.1105957E0,3.338623E-2,5.668701E0,2.5796876E0,1.1506439E1,5.816635E0],"categories":[],"categories_nodes":[],"categories_segments":[],"categories_sizes":[],"default_left":[1,1,1,1,1,1,1,1,1,1,1,1,1,0,0,1,1,1,0,0,0,1,1,0,1,0,0,1,1,1,1,0,0,1,1,1,1,1,0,0,0,0,0,0,0,0,0,0,0,0,0,0,0,0,0,0,0],"id":18,"left_children":[1,3,5,7,9,11,13,15,17,19,21,23,25,-1,-1,27,29,31,-1,-1,-1,33,35,-1,37,-1,-1,39,41,43,45,-1,-1,47,49,51,53,55,-1,-1,-1,-1,-1,-1,-1,-1,-1,-1,-1,-1,-1,-1,-1,-1,-1,-1,-1],"loss_changes":[7.0248926E2,3.438745E2,2.2427002E2,2.6109595E2,3.8664233E2,1.0791992E2,1.6351776E1,3.1908862E2,3.8331512E1,2.5904175E1,1.6453976E2,1.23881836E2,3.5295448E0,0E0,0E0,4.8564014E2,4.020432E2,6.4663544E0,0E0,0E0,0E0,1.7556198E2,1.6967046E2,0E0,1.1650903E2,0E0,0E0,2.2280054E2,1.5327974E2,3.8331543E1,3.9230713E1,0E0,0E0,2.0143118E0,5.406067E0,2.9595562E1,3.6286926E0,7.629663E1,0E0,0E0,0E0,0E0,0E0,0E0,0E0,0E0,0E0,0E0,0E0,0E0,0E0,0E0,0E0,0E0,0E0,0E0,0E0],"parents":[2147483647,0,0,1,1,2,2,3,3,4,4,5,5,6,6,7,7,8,8,9,9,10,10,11,11,12,12,15,15,16,16,17,17,21,21,22,22,24,24,27,27,28,28,29,29,30,30,33,33,34,34,35,35,36,36,37,37],"right_children":[2,4,6,8,10,12,14,16,18,20,22,24,26,-1,-1,28,30,32,-1,-1,-1,34,36,-1,38,-1,-1,40,42,44,46,-1,-1,48,50,52,54,56,-1,-1,-1,-1,-1,-1,-1,-1,-1,-1,-1,-1,-1,-1,-1,-1,-1,-1,-1],"split_conditions":[1.964265E3,1.9796951E3,1.9991001E3,1.983635E3,1.958425E3,1.9991001E3,1.9991799E3,1.97219E3,2.0029E3,1.98962E3,1.958965E3,1.7710449E3,2.02952E3,-6.114136E-1,5.0850224E-1,1.98259E3,1.960565E3,1.971835E3,2.2695924E-1,4.3667946E0,1.0284119E0,1.93034E3,1.958965E3,-3.0957642E-1,2.00523E3,2.677002E-1,9.9677736E-1,1.83262E3,1.99752E3,1.962865E3,1.977625E3,-2.0187256E0,-6.660889E-1,1.98287E3,1.935885E3,1.97405E3,2.02765E3,1.987605E3,3.9627686E-1,6.8090945E-1,1.358804E0,-2.6444314E0,5.1278688E-2,6.2067264E-1,3.4068077E0,-1.0244629E0,5.258789E-1,2.0054933E-1,-1.9072266E-1,7.7486575E-1,2.938414E0,-1.2331787E0,1.00158695E-2,1.7006104E0,7.739063E-1,3.451932E0,1.7449906E0],"split_indices":[55,4,45,2,16,52,12,1,1,0,31,2,3,0,0,19,9,5,0,0,0,31,59,0,40,0,0,59,18,0,2,0,0,0,1,22,1,54,0,0,0,0,0,0,0,0,0,0,0,0,0,0,0,0,0,0,0],"split_type":[0,0,0,0,0,0,0,0,0,0,0,0,0,0,0,0,0,0,0,0,0,0,0,0,0,0,0,0,0,0,0,0,0,0,0,0,0,0,0,0,0,0,0,0,0,0,0,0,0,0,0,0,0,0,0,0,0],"sum_hessian":[6.58E2,6.26E2,3.2E1,5.98E2,2.8E1,2.9E1,3E0,5.93E2,5E0,5E0,2.3E1,2.5E1,4E0,2E0,1E0,5.8E2,1.3E1,4E0,1E0,4E0,1E0,1E1,1.3E1,1E0,2.4E1,2E0,2E0,5.73E2,7E0,9E0,4E0,2E0,2E0,3E0,7E0,6E0,7E0,2.2E1,2E0,5.25E2,4.8E1,4E0,3E0,1E0,8E0,2E0,2E0,2E0,1E0,1E0,6E0,3E0,3E0,3E0,4E0,1.5E1,7E0],"tree_param":{"num_deleted":"0","num_feature":"60","num_nodes":"57","size_leaf_vector":"0"}},{"base_weights":[2.006539E0,1.8305504E0,5.9071918E0,5.9259596E0,1.7417264E0,-8.108643E0,6.726617E0,1.1299896E1,3.183789E0,2.9959056E-1,2.0908222E0,9.085527E0,3.8872333E0,-4.5664063E-1,5.686849E0,-1.9722102E0,1.4738626E0,8.815083E0,1.9070313E0,3.1925457E0,1.200468E1,4.145752E0,2.6324463E-1,1.0123698E0,-1.7734375E0,3.2392666E-1,-6.1268516E0,9.03365E0,8.576443E-1,-4.4589233E-1,1.1637964E1,5.4851146E0,1.7738371E0,3.9082031E0,-1.928711E-1,5.3128867E0,2.752182E0,-1.3241025E0,4.6095123E0,-7.3450503E0,1.1942953E0,-3.9737955E-1,1.3848511E1,3.349453E0,-9.3336725E-1,-1.4053345E0,3.4236655E-1,1.3493354E1,-2.5302734E0,8.260315E0,1.3304749E0,-3.3119866E-1,2.186068E0],"categories":[],"categories_nodes":[],"categories_segments":[],"categories_sizes":[],"default_left":[1,1,1,1,1,0,1,0,1,1,1,1,1,1,0,1,1,1,1,1,0,1,0,0,0,1,1,1,1,1,1,1,1,0,0,0,0,0,0,0,0,0,0,0,0,0,0,0,0,0,0,0,0],"id":19,"left_children":[1,3,5,7,9,-1,11,-1,13,15,17,19,21,23,-1,25,27,29,31,33,-1,35,-1,-1,-1,37,39,41,43,45,47,49,51,-1,-1,-1,-1,-1,-1,-1,-1,-1,-1,-1,-1,-1,-1,-1,-1,-1,-1,-1,-1],"loss_changes":[4.415708E2,2.1958154E2,3.7612164E2,1.5559476E2,3.1150867E2,0E0,1.4552441E2,0E0,9.371898E1,3.2836765E2,5.9988257E2,2.0250964E2,1.2024826E1,1.1467316E1,0E0,4.026489E2,3.6958917E2,3.4504352E2,2.2236462E2,1.5290573E1,0E0,6.5222626E0,0E0,0E0,0E0,2.0386102E2,1.4255139E2,2.7795767E2,3.4230347E2,3.5062947E0,2.9701794E2,1.8501913E2,4.0943933E2,0E0,0E0,0E0,0E0,0E0,0E0,0E0,0E0,0E0,0E0,0E0,0E0,0E0,0E0,0E0,0E0,0E0,0E0,0E0,0E0],"parents":[2147483647,0,0,1,1,2,2,3,3,4,4,6,6,8,8,9,9,10,10,11,11,12,12,13,13,15,15,16,16,17,17,18,18,19,19,21,21,25,25,26,26,27,27,28,28,29,29,30,30,31,31,32,32],"right_children":[2,4,6,8,10,-1,12,-1,14,16,18,20,22,24,-1,26,28,30,32,34,-1,36,-1,-1,-1,38,40,42,44,46,48,50,52,-1,-1,-1,-1,-1,-1,-1,-1,-1,-1,-1,-1,-1,-1,-1,-1,-1,-1,-1,-1],"split_conditions":[1.98265E3,9.90935E2,1.89537E3,1.077355E3,1.102395E3,-2.4325929E0,1.964765E3,3.389969E0,1.079735E3,1.10753E3,1.09571E3,1.97677E3,2.0661401E3,1.0900249E3,1.7060548E0,1.0905E3,1.02137E3,9.6537E2,1.102395E3,1.90077E3,3.601404E0,1.96507E3,7.897339E-2,3.0371094E-1,-5.320313E-1,1.08998E3,1.1838E3,1.157735E3,1.13876E3,1.0759651E3,1.3236951E3,1.08195E3,1.197885E3,1.172461E0,-5.786133E-2,1.5938661E0,8.256546E-1,-3.9723077E-1,1.3828537E0,-2.2035153E0,3.582886E-1,-1.1921387E-1,4.1545534E0,1.004836E0,-2.800102E-1,-4.2160037E-1,1.0270997E-1,4.0480065E0,-7.590821E-1,2.4780946E0,3.9914247E-1,-9.93596E-2,6.558204E-1],"split_indices":[25,34,10,10,56,0,48,0,11,14,52,21,27,4,0,28,48,29,42,0,0,58,0,0,0,24,33,2,3,0,2,25,34,0,0,0,0,0,0,0,0,0,0,0,0,0,0,0,0,0,0,0,0],"split_type":[0,0,0,0,0,0,0,0,0,0,0,0,0,0,0,0,0,0,0,0,0,0,0,0,0,0,0,0,0,0,0,0,0,0,0,0,0,0,0,0,0,0,0,0,0,0,0,0,0,0,0,0,0],"sum_hessian":[6.58E2,6.31E2,2.7E1,1.2E1,6.19E2,1E0,2.6E1,3E0,9E0,1.21E2,4.98E2,1.3E1,1.3E1,4E0,5E0,4.1E1,8E1,1.2E1,4.86E2,5E0,8E0,1.2E1,1E0,2E0,2E0,2.7E1,1.4E1,5E0,7.5E1,3E0,9E0,1.6E1,4.7E2,4E0,1E0,5E0,7E0,2E1,7E0,1.2E1,2E0,2E0,3E0,3.1E1,4.4E1,1E0,2E0,8E0,1E0,9E0,7E0,7.7E1,3.93E2],"tree_param":{"num_deleted":"0","num_feature":"60","num_nodes":"53","size_leaf_vector":"0"}},{"base_weights":[1.4348888E0,1.2862358E0,4.619894E0,7.288208E0,1.2363218E0,5.3124576E0,-1.0367432E0,1.6529948E0,1.0494019E1,1.0527744E0,2.8627968E0,6.2486024E0,1.8788365E0,-2.0675862E0,1.0278931E0,1.4379154E0,-1.3347756E0,5.075687E0,-8.459037E-2,7.6597714E0,3.1743774E0,1.5824382E-1,2.5354247E0,1.0960224E0,4.5419793E0,4.0328217E0,-2.655819E0,-1.4745849E0,5.9405518E0,-5.314488E0,1.583313E0,3.7799072E-1,8.235087E0,4.136304E0,1.1783752E0,1.2191936E0,-3.8184927E0,7.483724E0,1.5362256E0,1.437738E1,5.3966343E-1,-5.992544E0,-5.039703E-1,-2.5506184E0,9.297689E-2,7.673014E0,2.4136963E0,-7.5213623E0,-1.7789917E0,-5.885498E-1,3.1321833E0,3.5046387E-1,1.3375244E0],"categories":[],"categories_nodes":[],"categories_segments":[],"categories_sizes":[],"default_left":[1,1,1,1,1,1,1,0,0,1,1,1,1,0,0,1,1,1,1,1,1,0,0,1,1,1,1,1,1,1,1,0,0,0,1,0,0,0,0,0,0,0,0,0,0,0,0,0,0,0,0,0,0],"id":20,"left_children":[1,3,5,7,9,11,13,-1,-1,15,17,19,21,-1,-1,23,25,27,29,31,33,-1,-1,35,37,39,41,43,45,47,49,-1,-1,-1,51,-1,-1,-1,-1,-1,-1,-1,-1,-1,-1,-1,-1,-1,-1,-1,-1,-1,-1],"loss_changes":[3.0606836E2,1.80026E2,1.1911749E2,7.298059E1,1.8416779E2,7.1833435E1,1.0638521E1,0E0,0E0,5.214613E2,4.1133075E2,6.2450012E1,7.506832E0,0E0,0E0,5.1185474E2,5.70886E2,2.1270331E2,2.526575E2,5.134845E1,1.0485939E1,0E0,0E0,2.7099933E2,4.12927E2,5.7040393E2,4.5650806E2,8.670894E0,1.770044E2,4.123633E1,7.585E1,0E0,0E0,0E0,5.8291912E-2,0E0,0E0,0E0,0E0,0E0,0E0,0E0,0E0,0E0,0E0,0E0,0E0,0E0,0E0,0E0,0E0,0E0,0E0],"parents":[2147483647,0,0,1,1,2,2,3,3,4,4,5,5,6,6,9,9,10,10,11,11,12,12,15,15,16,16,17,17,18,18,19,19,20,20,23,23,24,24,25,25,26,26,27,27,28,28,29,29,30,30,34,34],"right_children":[2,4,6,8,10,12,14,-1,-1,16,18,20,22,-1,-1,24,26,28,30,32,34,-1,-1,36,38,40,42,44,46,48,50,-1,-1,-1,52,-1,-1,-1,-1,-1,-1,-1,-1,-1,-1,-1,-1,-1,-1,-1,-1,-1,-1],"split_conditions":[1.9689E3,9.53995E2,1.9991001E3,9.5663E2,1.9353501E3,2.057145E3,1.9991799E3,4.9589846E-1,3.1482058E0,1.80919E3,1.9345449E3,1.987605E3,2.02952E3,-6.2027586E-1,3.0836794E-1,1.8028E3,1.76546E3,1.7671599E3,1.954095E3,1.79224E3,1.789005E3,4.7473148E-2,7.6062745E-1,1.811315E3,1.8059299E3,1.7566299E3,1.8134299E3,1.98558E3,1.9783999E3,1.9750349E3,1.99021E3,1.1339722E-1,2.4705262E0,1.2408912E0,1.794755E3,3.657581E-1,-1.1455479E0,2.2451174E0,4.6086767E-1,4.3132143E0,1.6189903E-1,-1.7977633E0,-1.511911E-1,-7.6518553E-1,2.7893068E-2,2.3019044E0,7.2410893E-1,-2.2564087E0,-5.3369755E-1,-1.7656495E-1,9.39655E-1,1.05139166E-1,4.0125734E-1],"split_indices":[54,3,45,0,26,12,12,0,0,31,52,54,3,0,0,56,48,57,42,15,1,0,0,43,45,53,43,5,15,30,30,0,0,0,1,0,0,0,0,0,0,0,0,0,0,0,0,0,0,0,0,0,0],"split_type":[0,0,0,0,0,0,0,0,0,0,0,0,0,0,0,0,0,0,0,0,0,0,0,0,0,0,0,0,0,0,0,0,0,0,0,0,0,0,0,0,0,0,0,0,0,0,0,0,0,0,0,0,0],"sum_hessian":[6.58E2,6.3E2,2.8E1,4E0,6.26E2,2.5E1,3E0,2E0,2E0,5.64E2,6.2E1,1.9E1,6E0,2E0,1E0,4.86E2,7.8E1,3.5E1,2.7E1,1.2E1,7E0,2E0,4E0,4.39E2,4.7E1,1.5E1,6.3E1,4E0,3.1E1,6E0,2.1E1,1E0,1.1E1,4E0,3E0,4.29E2,1E1,2.3E1,2.4E1,3E0,1.2E1,2.4E1,3.9E1,2E0,2E0,2E1,1.1E1,3E0,3E0,9E0,1.2E1,1E0,2E0],"tree_param":{"num_deleted":"0","num_feature":"60","num_nodes":"53","size_leaf_vector":"0"}},{"base_weights":[1.0244533E0,9.028881E-1,3.7317636E0,5.6821375E0,8.4800375E-1,8.51236E0,2.8175976E0,7.424357E0,-2.3855896E0,-6.1302897E-2,1.1321714E0,3.453032E0,-4.147461E-1,3.9266968E0,9.613118E0,6.063282E-1,-3.1251898E0,3.616177E0,8.5866696E-1,4.4865065E0,1.5765653E0,6.569417E-1,-1.3481852E0,-7.974214E-2,4.177881E0,1.9612631E0,-4.3703504E0,2.8316867E0,1.4178142E1,-2.5095475E0,1.135089E0,1.1188151E0,4.9971037E0,1.7363739E0,1.4904785E-1,-1.2407398E0,2.277703E0,5.6710434E0,-1.4358155E0,3.6314087E0,9.0095216E-1,-6.5885196E0,-1.0496948E0,5.1695924E0,9.2438686E-1,-6.1994374E-1,-4.735742E0,1.9236118E0,5.1046807E-1,1.38031E0,2.979126E-1],"categories":[],"categories_nodes":[],"categories_segments":[],"categories_sizes":[],"default_left":[1,1,1,1,1,0,1,1,0,1,1,1,1,0,0,1,1,1,1,1,1,0,0,1,1,1,1,1,0,1,1,1,0,0,0,0,0,0,0,0,0,0,0,0,0,0,0,0,0,0,0],"id":21,"left_children":[1,3,5,7,9,-1,11,13,-1,15,17,19,21,-1,-1,23,25,27,29,31,33,-1,-1,35,37,39,41,43,-1,45,47,49,-1,-1,-1,-1,-1,-1,-1,-1,-1,-1,-1,-1,-1,-1,-1,-1,-1,-1,-1],"loss_changes":[2.1351709E2,1.609591E2,9.838284E1,1.1610173E2,1.6182501E2,0E0,5.2780685E1,8.185455E0,0E0,3.087268E2,3.209624E2,3.365164E1,5.887456E0,0E0,0E0,3.0417484E2,1.7957455E2,3.4928265E2,4.0413055E2,1.6763092E1,1.7943649E0,0E0,0E0,2.9020984E2,1.7578574E2,7.3535156E0,1.5513116E2,1.9588022E2,0E0,1.3588277E2,1.9553662E2,2.3277402E-1,0E0,0E0,0E0,0E0,0E0,0E0,0E0,0E0,0E0,0E0,0E0,0E0,0E0,0E0,0E0,0E0,0E0,0E0,0E0],"parents":[2147483647,0,0,1,1,2,2,3,3,4,4,6,6,7,7,9,9,10,10,11,11,12,12,15,15,16,16,17,17,18,18,19,19,20,20,23,23,24,24,25,25,26,26,27,27,29,29,30,30,31,31],"right_children":[2,4,6,8,10,-1,12,14,-1,16,18,20,22,-1,-1,24,26,28,30,32,34,-1,-1,36,38,40,42,44,-1,46,48,50,-1,-1,-1,-1,-1,-1,-1,-1,-1,-1,-1,-1,-1,-1,-1,-1,-1,-1,-1],"split_conditions":[1.966325E3,9.5195E2,1.79224E3,1.1015349E3,1.11086E3,2.553708E0,1.98461E3,1.08063E3,-7.156769E-1,1.09922E3,1.142595E3,1.9809099E3,1.98869E3,1.178009E0,2.8839355E0,1.09355E3,1.07732E3,1.2240549E3,1.190955E3,1.7980349E3,2.038855E3,1.9708252E-1,-4.0445557E-1,1.141385E3,1.192905E3,1.003245E3,1.18779E3,1.14831E3,4.253443E0,1.2258049E3,1.77604E3,1.786605E3,1.4991312E0,5.209122E-1,4.4714358E-2,-3.7222195E-1,6.833109E-1,1.7013131E0,-4.3074465E-1,1.0894227E0,2.7028567E-1,-1.976556E0,-3.1490844E-1,1.5508778E0,2.7731606E-1,-1.8598312E-1,-1.4207227E0,5.770835E-1,1.5314043E-1,4.1409305E-1,8.937378E-2],"split_indices":[59,47,20,2,59,0,47,22,0,59,47,33,45,0,0,58,41,34,50,21,5,0,0,17,9,2,1,59,0,17,17,0,0,0,0,0,0,0,0,0,0,0,0,0,0,0,0,0,0,0,0],"split_type":[0,0,0,0,0,0,0,0,0,0,0,0,0,0,0,0,0,0,0,0,0,0,0,0,0,0,0,0,0,0,0,0,0,0,0,0,0,0,0,0,0,0,0,0,0,0,0,0,0,0,0],"sum_hessian":[6.58E2,6.31E2,2.7E1,6E0,6.25E2,3E0,2.4E1,5E0,1E0,1.49E2,4.76E2,2E1,4E0,3E0,2E0,1.23E2,2.6E1,4.6E1,4.3E2,1.2E1,8E0,2E0,2E0,1.04E2,1.9E1,5E0,2.1E1,4.4E1,2E0,3.2E1,3.98E2,2E0,1E1,7E0,1E0,7E1,3.4E1,1.5E1,4E0,1E0,4E0,1.2E1,9E0,1.9E1,2.5E1,1.8E1,1.4E1,1.75E2,2.23E2,1E0,1E0],"tree_param":{"num_deleted":"0","num_feature":"60","num_nodes":"51","size_leaf_vector":"0"}},{"base_weights":[7.385306E-1,5.574286E-1,2.0422883E0,6.643411E-1,-3.8123431E0,4.369075E0,9.0522015E-1,5.685895E-1,5.4524593E0,-1.7043631E0,-5.1802826E0,-3.3073425E-1,6.1179905E0,-3.7485487E0,1.7771074E0,7.345877E-1,-2.4790545E0,8.212945E0,-4.6464844E0,-2.1030476E0,3.4387207E-1,-2.9190674E0,-6.711731E0,2.9720867E0,-1.9270223E0,7.074642E0,-1.3423666E0,2.972819E-1,-4.946969E0,5.4898195E0,1.3040687E0,2.622205E-1,1.4341457E0,1.7546941E0,-4.7996955E0,3.0766602E0,1.0268311E1,-6.1661377E0,-8.0358887E-1,-8.4969074E-1,-2.5173035E0,-2.664795E-1,-2.2058349E0,7.6907425E0,-1.3914795E0,-5.682373E0,-2.6727295E-1,-8.519775E-1,2.3742971E0,5.116812E-1,-3.106079E0,6.9093084E0,9.240075E-1,-4.5935874E0,3.675822E0,-8.840515E0,-1.7058411E0,8.2967615E0,2.2990723E0,-2.4668427E0,8.6938477E-1,4.077539E0,1.4039612E0],"categories":[],"categories_nodes":[],"categories_segments":[],"categories_sizes":[],"default_left":[1,1,1,1,1,1,1,1,1,1,1,1,1,1,1,1,1,1,1,1,0,0,0,0,1,1,0,0,1,0,1,1,1,1,1,0,0,0,0,0,0,0,0,1,0,0,0,1,1,0,0,0,0,0,0,0,0,0,0,0,0,0,0],"id":22,"left_children":[1,3,5,7,9,11,13,15,17,19,21,23,25,27,29,31,33,35,37,39,-1,-1,-1,-1,41,43,-1,-1,45,-1,47,49,51,53,55,-1,-1,-1,-1,-1,-1,-1,-1,57,-1,-1,-1,59,61,-1,-1,-1,-1,-1,-1,-1,-1,-1,-1,-1,-1,-1,-1],"loss_changes":[1.5446005E2,2.734989E2,2.0770221E2,2.5685226E2,3.1541168E1,2.1573224E2,2.2982745E2,2.836094E2,3.4481918E2,6.439377E0,8.111481E0,4.7905308E1,1.4509906E2,4.510811E1,7.5384964E1,1.7443103E2,2.9334732E2,6.342041E1,1.2564568E1,9.763336E-1,0E0,0E0,0E0,0E0,2.190073E0,9.937317E1,0E0,0E0,2.2571518E1,0E0,1.01243706E2,2.6795126E2,5.885438E2,1.5103967E2,2.224519E2,0E0,0E0,0E0,0E0,0E0,0E0,0E0,0E0,3.3204407E1,0E0,0E0,0E0,4.3841156E1,4.220407E1,0E0,0E0,0E0,0E0,0E0,0E0,0E0,0E0,0E0,0E0,0E0,0E0,0E0,0E0],"parents":[2147483647,0,0,1,1,2,2,3,3,4,4,5,5,6,6,7,7,8,8,9,9,10,10,11,11,12,12,13,13,14,14,15,15,16,16,17,17,18,18,19,19,24,24,25,25,28,28,30,30,31,31,32,32,33,33,34,34,43,43,47,47,48,48],"right_children":[2,4,6,8,10,12,14,16,18,20,22,24,26,28,30,32,34,36,38,40,-1,-1,-1,-1,42,44,-1,-1,46,-1,48,50,52,54,56,-1,-1,-1,-1,-1,-1,-1,-1,58,-1,-1,-1,60,62,-1,-1,-1,-1,-1,-1,-1,-1,-1,-1,-1,-1,-1,-1],"split_conditions":[1.95363E3,1.9353501E3,1.96705E3,1.932205E3,1.821905E3,1.78221E3,1.94804E3,1.860025E3,1.9438999E3,1.97052E3,1.94351E3,1.8235901E3,1.993685E3,1.963985E3,1.95812E3,1.242265E3,1.8077251E3,1.81749E3,1.95056E3,1.94351E3,1.03161626E-1,-8.7572026E-1,-2.0135193E0,8.9162606E-1,1.966995E3,2.01482E3,-4.0271E-1,8.918457E-2,1.991585E3,1.646946E0,1.975925E3,1.238135E3,1.528115E3,1.756065E3,1.85929E3,9.229981E-1,3.0804932E0,-1.8498414E0,-2.4107666E-1,-2.5490722E-1,-7.551911E-1,-7.994385E-2,-6.617505E-1,1.9776399E3,-4.1744387E-1,-1.704712E0,-8.018189E-2,1.961315E3,1.9648999E3,1.5350437E-1,-9.318238E-1,2.0727925E0,2.7720225E-1,-1.3780763E0,1.1027466E0,-2.6521547E0,-5.1175237E-1,2.4890285E0,6.897217E-1,-7.400528E-1,2.6081544E-1,1.2232617E0,4.2118838E-1],"split_indices":[7,7,10,3,27,45,22,2,16,0,7,29,1,7,22,59,43,13,0,4,0,0,0,0,0,23,0,0,3,0,21,42,37,12,16,0,0,0,0,0,0,0,0,8,0,0,0,23,48,0,0,0,0,0,0,0,0,0,0,0,0,0,0],"split_type":[0,0,0,0,0,0,0,0,0,0,0,0,0,0,0,0,0,0,0,0,0,0,0,0,0,0,0,0,0,0,0,0,0,0,0,0,0,0,0,0,0,0,0,0,0,0,0,0,0,0,0,0,0,0,0,0,0,0,0,0,0,0,0],"sum_hessian":[6.58E2,5.79E2,7.9E1,5.66E2,1.3E1,2.5E1,5.4E1,5.56E2,1E1,6E0,7E0,7E0,1.8E1,8E0,4.6E1,5.28E2,2.8E1,8E0,2E0,5E0,1E0,4E0,3E0,2E0,5E0,1.6E1,2E0,2E0,6E0,4E0,4.2E1,3.16E2,2.12E2,1E1,1.8E1,3E0,5E0,1E0,1E0,2E0,3E0,1E0,4E0,1.5E1,1E0,5E0,1E0,1.4E1,2.8E1,2.95E2,2.1E1,1.7E1,1.95E2,2E0,8E0,7E0,1.1E1,1.3E1,2E0,7E0,7E0,9E0,1.9E1],"tree_param":{"num_deleted":"0","num_feature":"60","num_nodes":"63","size_leaf_vector":"0"}},{"base_weights":[5.1675326E-1,2.8370411E0,4.2838272E-1,9.103865E-1,1.6020163E1,-1.1945462E0,6.057628E-1,3.563324E0,-1.2003644E0,-5.573449E-2,-2.9233105E0,3.8535655E0,4.7546E-1,5.746104E0,2.3132324E-1,-2.227057E0,1.6664581E0,-1.220603E0,1.8894287E0,-4.0456367E0,2.375122E0,1.0130789E0,7.8439264E0,4.5130897E0,3.7755862E-1,2.9280548E0,7.588135E0,-1.3535767E0,9.659424E-1,-6.910553E-1,-2.786621E0,1.8052165E-1,3.0621338E0,-4.9117064E0,-2.836449E-1,3.2985027E0,-2.8101501E0,-4.3963623E-1,-5.145035E0,5.161947E0,-1.2034098E0,2.5772028E0,-1.5019531E0,2.7327392E0,1.1386328E1,7.4161377E0,1.7716675E0,-5.678967E-1,8.7859833E-1,-7.5164795E-2,-8.712972E-1,4.562378E-2,2.2515869E-1,-5.50589E0,-1.2674866E0,-2.2267609E0,8.469674E-1,3.4750366E-1,4.2435575E0,1.9506836E0,-1.3078369E0,-7.2163153E0,-2.1717148E0,-1.1859131E-1,3.944865E0,-2.211792E0,1.0236206E0,-4.0856934E-1,3.6202087E0,2.218811E0,8.011841E0,-2.1844482E-1,3.0094237E0,-2.2925879E-1,-5.108849E0,1.2394348E1,7.4486154E-1],"categories":[],"categories_nodes":[],"categories_segments":[],"categories_sizes":[],"default_left":[1,1,1,1,0,1,1,1,1,1,1,1,1,1,1,1,1,1,1,1,1,1,1,1,1,0,0,0,0,1,0,1,0,1,1,1,0,1,1,0,0,1,1,1,0,1,1,1,1,0,0,0,0,0,0,0,0,0,0,0,0,0,0,0,0,0,0,0,0,0,0,0,0,0,0,0,0],"id":23,"left_children":[1,3,5,7,-1,9,11,13,15,17,19,21,23,25,27,29,31,33,35,37,39,41,43,45,47,-1,-1,-1,-1,49,-1,51,-1,53,55,57,-1,59,61,-1,-1,63,65,67,-1,69,71,73,75,-1,-1,-1,-1,-1,-1,-1,-1,-1,-1,-1,-1,-1,-1,-1,-1,-1,-1,-1,-1,-1,-1,-1,-1,-1,-1,-1,-1],"loss_changes":[1.3390936E2,5.949992E2,1.8381223E2,1.2747047E2,0E0,1.238675E2,2.4108322E2,7.140103E1,4.1974785E1,9.067477E1,1.5827313E2,2.4141394E2,2.1689116E2,8.927124E0,7.128966E0,6.6692047E0,7.7427607E0,8.5067055E1,1.0860008E2,8.099106E1,5.6075645E1,5.8944336E1,1.3183704E2,9.032132E1,2.5677643E2,0E0,0E0,0E0,0E0,3.7854648E-1,0E0,7.791735E-3,0E0,3.84803E0,4.8021122E1,3.1991608E1,0E0,1.5002839E1,8.286554E1,0E0,0E0,3.3650253E1,1.3020538E1,1.5418182E1,0E0,7.996216E-1,2.0363585E1,2.8792365E2,5.3595593E2,0E0,0E0,0E0,0E0,0E0,0E0,0E0,0E0,0E0,0E0,0E0,0E0,0E0,0E0,0E0,0E0,0E0,0E0,0E0,0E0,0E0,0E0,0E0,0E0,0E0,0E0,0E0,0E0],"parents":[2147483647,0,0,1,1,2,2,3,3,5,5,6,6,7,7,8,8,9,9,10,10,11,11,12,12,13,13,14,14,15,15,16,16,17,17,18,18,19,19,20,20,21,21,22,22,23,23,24,24,29,29,31,31,33,33,34,34,35,35,37,37,38,38,41,41,42,42,43,43,45,45,46,46,47,47,48,48],"right_children":[2,4,6,8,-1,10,12,14,16,18,20,22,24,26,28,30,32,34,36,38,40,42,44,46,48,-1,-1,-1,-1,50,-1,52,-1,54,56,58,-1,60,62,-1,-1,64,66,68,-1,70,72,74,76,-1,-1,-1,-1,-1,-1,-1,-1,-1,-1,-1,-1,-1,-1,-1,-1,-1,-1,-1,-1,-1,-1,-1,-1,-1,-1,-1,-1],"split_conditions":[1.01916504E3,1.0801599E3,1.081895E3,9.91025E2,4.806049E0,1.131435E3,1.07719E3,9.5320996E2,1.1076699E3,1.092545E3,1.0941599E3,1.146105E3,1.07571E3,1.08063E3,1.06739E3,1.08069E3,1.19478E3,1.0428E3,1.0864E3,1.1063E3,1.16127E3,1.10759E3,1.1341799E3,1.1005701E3,1.23959E3,8.784165E-1,2.2764406E0,-4.06073E-1,2.8978273E-1,1.103865E3,-8.359864E-1,1.1380801E3,9.186402E-1,1.179435E3,1.058015E3,1.10806E3,-8.4304506E-1,1.155E3,1.09976E3,1.5485841E0,-3.6102295E-1,1.0589851E3,1.2448049E3,1.075765E3,3.4158986E0,1.08355E3,1.1110549E3,1.24088E3,1.240325E3,-2.254944E-2,-2.6138917E-1,1.3687135E-2,6.754761E-2,-1.651767E0,-3.8024598E-1,-6.680283E-1,2.5409022E-1,1.042511E-1,1.2730672E0,5.852051E-1,-3.923511E-1,-2.1648946E0,-6.515145E-1,-3.5577394E-2,1.1834595E0,-6.635376E-1,3.070862E-1,-1.22570805E-1,1.0860627E0,6.6564333E-1,2.4035523E0,-6.553345E-2,9.0282714E-1,-6.877764E-2,-1.5326548E0,3.7183046E0,2.2345847E-1],"split_indices":[48,42,47,43,0,6,51,47,10,17,58,18,34,22,0,20,0,59,50,23,14,45,28,52,49,0,0,0,0,5,0,0,0,0,49,0,0,3,37,0,0,49,0,0,0,4,2,39,49,0,0,0,0,0,0,0,0,0,0,0,0,0,0,0,0,0,0,0,0,0,0,0,0,0,0,0,0],"split_type":[0,0,0,0,0,0,0,0,0,0,0,0,0,0,0,0,0,0,0,0,0,0,0,0,0,0,0,0,0,0,0,0,0,0,0,0,0,0,0,0,0,0,0,0,0,0,0,0,0,0,0,0,0,0,0,0,0,0,0,0,0,0,0,0,0,0,0,0,0,0,0,0,0,0,0,0,0],"sum_hessian":[6.58E2,2.3E1,6.35E2,2.1E1,2E0,6.2E1,5.73E2,9E0,1.2E1,3.8E1,2.4E1,2.1E1,5.52E2,5E0,4E0,9E0,3E0,2.4E1,1.4E1,2E1,4E0,1.3E1,8E0,1.2E1,5.4E2,3E0,2E0,1E0,3E0,3E0,6E0,2E0,1E0,4E0,2E1,1.1E1,3E0,5E0,1.5E1,2E0,2E0,8E0,5E0,4E0,4E0,5E0,7E0,1.87E2,3.53E2,1E0,2E0,1E0,1E0,3E0,1E0,7E0,1.3E1,3E0,8E0,1E0,4E0,8E0,7E0,3E0,5E0,4E0,1E0,1E0,3E0,1E0,4E0,3E0,4E0,1.75E2,1.2E1,3E0,3.5E2],"tree_param":{"num_deleted":"0","num_feature":"60","num_nodes":"77","size_leaf_vector":"0"}},{"base_weights":[3.8565245E-1,5.030786E0,3.4960464E-1,1.0799154E0,7.304728E0,2.661974E-1,2.2797353E0,2.2167969E-1,1.3981934E0,2.3077824E0,1.849033E-1,5.411804E0,1.3219105E0,7.699252E-1,1.2816142E1,-2.6064148E0,2.5049105E-1,6.0529785E0,1.1029663E0,2.9315186E0,-2.6372275E-1,2.798175E0,-8.49492E-1,5.5067444E-1,-3.5175004E0,-1.4534912E0,3.6323225E-1,1.5175781E0,4.3247313E0,-2.2616272E0,6.5353733E-1,4.548065E0,1.3867188E-1,-1.670935E0,1.4164886E0,1.6679077E0,-3.777059E-1,-4.271179E0,2.0096436E0,-3.526873E-1,-4.3903933E0,3.0703387E0,2.1952999E-1,1.7695516E0,2.8686523E-3,-2.6177166E0,-5.966797E-1,-4.663086E-3,1.1810303E0],"categories":[],"categories_nodes":[],"categories_segments":[],"categories_sizes":[],"default_left":[1,1,1,1,0,1,1,0,0,1,1,1,1,1,0,1,1,0,0,1,1,1,1,1,1,1,1,1,0,1,1,0,0,0,0,0,0,0,0,0,0,0,0,0,0,0,0,0,0],"id":24,"left_children":[1,3,5,7,-1,9,11,-1,-1,13,15,17,19,21,-1,23,25,-1,-1,27,29,31,33,35,37,39,41,43,-1,45,47,-1,-1,-1,-1,-1,-1,-1,-1,-1,-1,-1,-1,-1,-1,-1,-1,-1,-1],"loss_changes":[1.08588745E2,3.7031776E1,1.0483952E2,5.095215E-1,0E0,1.039677E2,7.384537E1,0E0,0E0,3.7798108E2,1.1159714E2,9.90007E0,5.6922565E1,7.463785E1,0E0,4.22063E1,1.1444861E2,0E0,0E0,1.5106003E1,2.3469234E1,4.59077E1,2.6564724E1,4.778848E0,5.4406143E1,1.1807083E2,2.1600864E2,2.6665916E0,0E0,8.095398E-1,3.130272E0,0E0,0E0,0E0,0E0,0E0,0E0,0E0,0E0,0E0,0E0,0E0,0E0,0E0,0E0,0E0,0E0,0E0,0E0],"parents":[2147483647,0,0,1,1,2,2,3,3,5,5,6,6,9,9,10,10,11,11,12,12,13,13,15,15,16,16,19,19,20,20,21,21,22,22,23,23,24,24,25,25,26,26,27,27,29,29,30,30],"right_children":[2,4,6,8,-1,10,12,-1,-1,14,16,18,20,22,-1,24,26,-1,-1,28,30,32,34,36,38,40,42,44,-1,46,48,-1,-1,-1,-1,-1,-1,-1,-1,-1,-1,-1,-1,-1,-1,-1,-1,-1,-1],"split_conditions":[9.53995E2,9.5663E2,1.96653E3,9.4454504E2,2.1914184E0,1.01916504E3,1.9665701E3,6.650391E-2,4.1945803E-1,1.0801599E3,1.02193E3,2.0082251E3,1.9565049E3,9.91025E2,3.8448427E0,1.0779299E3,1.07877E3,1.8158937E0,3.308899E-1,1.784755E3,2.010845E3,9.5320996E2,1.1076699E3,1.207335E3,1.216935E3,1.089825E3,1.094685E3,1.7929199E3,1.2974194E0,1.898635E3,2.05778E3,1.3644196E0,4.1601565E-2,-5.0128055E-1,4.249466E-1,5.0037235E-1,-1.13311775E-1,-1.2813538E0,6.028931E-1,-1.05806194E-1,-1.317118E0,9.211016E-1,6.5859E-2,5.308655E-1,8.605957E-4,-7.85315E-1,-1.7900391E-1,-1.3989259E-3,3.5430908E-1],"split_indices":[3,0,57,0,0,48,58,0,0,42,58,0,47,43,0,45,6,0,0,12,2,47,10,0,6,13,6,2,0,0,19,0,0,0,0,0,0,0,0,0,0,0,0,0,0,0,0,0,0],"split_type":[0,0,0,0,0,0,0,0,0,0,0,0,0,0,0,0,0,0,0,0,0,0,0,0,0,0,0,0,0,0,0,0,0,0,0,0,0,0,0,0,0,0,0,0,0,0,0,0,0],"sum_hessian":[6.58E2,4E0,6.54E2,2E0,2E0,6.28E2,2.6E1,1E0,1E0,2.3E1,6.05E2,5E0,2.1E1,2.1E1,2E0,1.3E1,5.92E2,4E0,1E0,1E1,1.1E1,9E0,1.2E1,3E0,1E1,3.6E1,5.56E2,6E0,4E0,3E0,8E0,5E0,4E0,9E0,3E0,1E0,2E0,9E0,1E0,2.7E1,9E0,2.7E1,5.29E2,5E0,1E0,2E0,1E0,4E0,4E0],"tree_param":{"num_deleted":"0","num_feature":"60","num_nodes":"49","size_leaf_vector":"0"}},{"base_weights":[2.858256E-1,1.9809885E-1,1.5379554E0,5.0705373E-1,-4.781639E-1,7.6716714E0,1.0516357E0,-1.3029553E-2,1.9917736E0,-3.639675E0,2.652163E-1,4.8492675E0,5.1001966E-1,1.5895736E-1,-4.780573E0,1.0302892E1,1.4132197E0,-2.7285233E0,-7.8925376E0,-7.474762E0,4.6324658E-1,5.383911E0,1.3553467E0,-2.323434E0,1.1333796E0,7.7817194E-2,6.2453003E0,-2.1581333E0,-7.495874E0,9.583333E-1,1.3849048E1,-1.8489873E0,2.2119474E0,-4.2880096E0,1.7332764E0,-9.843823E0,9.319458E-1,2.8463657E0,-6.167984E-2,-7.437744E-1,-2.8065429E0,6.815843E-1,2.9022624E0,3.9508224E-1,-1.7428982E0,8.272095E-1,-2.7935588E0,1.7171631E0,-2.796631E-1,3.07016E0,-2.8394098E0,1.5623535E1,1.6943047E0,-1.1519097E0,-5.7840652E0,3.6002686E0,-4.803711E-1,-1.4590193E0,4.0868807E0,-8.1501465E0,1.9764453E-1,1.330985E0,-7.019982E-2,3.9337769E0,5.5948895E-1],"categories":[],"categories_nodes":[],"categories_segments":[],"categories_sizes":[],"default_left":[1,1,1,1,1,0,1,1,1,1,1,1,1,1,1,1,1,1,1,0,1,0,0,1,1,1,0,1,0,1,0,1,1,1,1,0,0,1,1,0,0,1,1,0,0,0,0,0,0,0,0,0,0,0,0,0,0,0,0,0,0,0,0,0,0],"id":25,"left_children":[1,3,5,7,9,-1,11,13,15,17,19,21,23,25,27,29,31,33,35,-1,37,-1,-1,39,41,43,-1,45,-1,47,-1,49,51,53,55,-1,-1,57,59,-1,-1,61,63,-1,-1,-1,-1,-1,-1,-1,-1,-1,-1,-1,-1,-1,-1,-1,-1,-1,-1,-1,-1,-1,-1],"loss_changes":[7.208337E1,1.2915515E2,1.2019889E2,3.274294E2,4.56905E2,0E0,8.185797E1,2.5904578E2,5.1436694E2,1.2184012E2,2.4563718E2,2.0429459E0,6.7985E1,1.501373E2,6.2150757E1,2.1868884E2,2.7507388E2,2.30092E2,1.12488464E2,0E0,1.9407472E2,0E0,0E0,3.2546005E0,2.2796223E1,1.7513869E2,0E0,1.5589592E1,0E0,3.2985132E0,0E0,1.1103013E2,5.566915E2,1.0594E2,3.8925232E1,0E0,0E0,1.5550789E2,2.7009552E2,0E0,0E0,1.2786871E1,1.2298725E1,0E0,0E0,0E0,0E0,0E0,0E0,0E0,0E0,0E0,0E0,0E0,0E0,0E0,0E0,0E0,0E0,0E0,0E0,0E0,0E0,0E0,0E0],"parents":[2147483647,0,0,1,1,2,2,3,3,4,4,6,6,7,7,8,8,9,9,10,10,11,11,12,12,13,13,14,14,15,15,16,16,17,17,18,18,20,20,23,23,24,24,25,25,27,27,29,29,31,31,32,32,33,33,34,34,37,37,38,38,41,41,42,42],"right_children":[2,4,6,8,10,-1,12,14,16,18,20,22,24,26,28,30,32,34,36,-1,38,-1,-1,40,42,44,-1,46,-1,48,-1,50,52,54,56,-1,-1,58,60,-1,-1,62,64,-1,-1,-1,-1,-1,-1,-1,-1,-1,-1,-1,-1,-1,-1,-1,-1,-1,-1,-1,-1,-1,-1],"split_conditions":[1.9796951E3,1.7857649E3,1.762085E3,1.2433301E3,1.795645E3,2.3015015E0,1.97311E3,1.23959E3,1.4530701E3,1.7973999E3,1.74208E3,1.9919451E3,1.98162E3,1.5366951E3,1.17169E3,1.2176699E3,1.7492151E3,1.80074E3,1.8217151E3,-2.2424288E0,1.805425E3,1.6151735E0,4.0660402E-1,1.96507E3,1.98701E3,1.219235E3,1.8735901E0,1.1440549E3,-2.2487624E0,1.44503E3,4.1547146E0,1.229235E3,1.528645E3,1.776155E3,1.8589551E3,-2.9531472E0,2.7958375E-1,1.788855E3,1.797175E3,-2.2313233E-1,-8.419629E-1,1.98171E3,2.02528E3,1.1852468E-1,-5.2286947E-1,2.4816285E-1,-8.380677E-1,5.1514894E-1,-8.389893E-2,9.21048E-1,-8.51823E-1,4.687061E0,5.082914E-1,-3.4557292E-1,-1.7352196E0,1.0800806E0,-1.4411134E-1,-4.377058E-1,1.2260642E0,-2.445044E0,5.9293363E-2,3.992955E-1,-2.1059945E-2,1.1801331E0,1.678467E-1],"split_indices":[4,18,58,46,15,0,7,48,37,16,35,2,7,2,0,59,2,24,13,0,12,0,0,9,37,44,0,2,0,0,0,55,37,10,45,0,0,23,11,0,0,22,5,0,0,0,0,0,0,0,0,0,0,0,0,0,0,0,0,0,0,0,0,0,0],"split_type":[0,0,0,0,0,0,0,0,0,0,0,0,0,0,0,0,0,0,0,0,0,0,0,0,0,0,0,0,0,0,0,0,0,0,0,0,0,0,0,0,0,0,0,0,0,0,0,0,0,0,0,0,0,0,0,0,0,0,0,0,0,0,0,0,0],"sum_hessian":[6.58E2,6.16E2,4.2E1,4.23E2,1.93E2,2E0,4E1,3.14E2,1.09E2,3.6E1,1.57E2,4E0,3.6E1,3.04E2,1E1,6E0,1.03E2,3.1E1,5E0,3E0,1.54E2,3E0,1E0,6E0,3E1,3.01E2,3E0,6E0,4E0,2E0,4E0,2E1,8.3E1,2.3E1,8E0,4E0,1E0,2.7E1,1.27E2,2E0,4E0,2.5E1,5E0,2.57E2,4.4E1,1E0,5E0,1E0,1E0,3E0,1.7E1,2E0,8.1E1,8E0,1.5E1,4E0,4E0,6E0,2.1E1,3E0,1.24E2,1.3E1,1.2E1,3E0,2E0],"tree_param":{"num_deleted":"0","num_feature":"60","num_nodes":"65","size_leaf_vector":"0"}},{"base_weights":[2.0887907E-1,3.962207E0,1.7990881E-1,8.389079E-1,5.7647705E0,-1.1823151E0,2.6572216E-1,1.2915039E-1,1.1292114E0,4.7700083E-1,-3.1446838E0,4.2579303E0,1.7274758E-1,3.512085E0,-3.9257812E-1,-6.0537285E-1,-4.3638916E0,6.4982094E-2,6.580126E0,1.8464179E0,6.027453E-2,4.319214E0,1.4178467E-1,-1.6311747E0,1.7868129E0,1.6531982E0,-1.839441E0,-1.5536804E0,-5.1279974E0,1.0419922E0,-1.2593588E0,8.8474245E0,2.9968019E0,8.563459E-1,1.0047943E1,-1.2498511E0,3.1008828E-1,-2.0895507E0,4.4047037E-1,2.745819E0,3.8110352E-1,-4.45048E-1,-2.6206868E0,-1.9361572E0,-2.03125E-1,-5.9005127E0,-1.6161295E0,-1.4951172E0,-3.939209E-1,8.9105225E-1,3.300476E0,-5.1219314E-1,2.9457397E0,7.7783203E-1,1.2878703E1,-8.2163143E-1,-8.450903E0,3.134535E0,1.9889234E-1],"categories":[],"categories_nodes":[],"categories_segments":[],"categories_sizes":[],"default_left":[1,1,1,1,0,1,1,0,0,1,1,1,1,1,1,1,1,1,1,1,1,0,0,1,1,0,1,1,1,0,1,0,1,1,1,1,1,0,0,0,0,0,0,0,0,0,0,0,0,0,0,0,0,0,0,0,0,0,0],"id":26,"left_children":[1,3,5,7,-1,9,11,-1,-1,13,15,17,19,21,23,25,27,29,31,33,35,-1,-1,37,39,-1,41,43,45,-1,47,-1,49,51,53,55,57,-1,-1,-1,-1,-1,-1,-1,-1,-1,-1,-1,-1,-1,-1,-1,-1,-1,-1,-1,-1,-1,-1],"loss_changes":[7.094345E1,2.3313614E1,7.688169E1,4.7229743E-1,0E0,1.2849142E2,2.282787E2,0E0,0E0,5.9442158E1,5.308528E1,1.3588821E2,1.1358736E2,1.2988941E1,5.150356E1,2.2551575E1,1.7800308E1,9.075608E0,4.660623E1,2.999593E2,1.8595952E2,0E0,0E0,1.2315495E1,8.390146E0,0E0,4.280487E0,1.6729431E0,1.4880753E1,0E0,2.3145199E-2,0E0,2.5641632E-1,1.01588394E2,9.4948364E1,2.7366702E2,1.4918652E2,0E0,0E0,0E0,0E0,0E0,0E0,0E0,0E0,0E0,0E0,0E0,0E0,0E0,0E0,0E0,0E0,0E0,0E0,0E0,0E0,0E0,0E0],"parents":[2147483647,0,0,1,1,2,2,3,3,5,5,6,6,9,9,10,10,11,11,12,12,13,13,14,14,15,15,16,16,17,17,18,18,19,19,20,20,23,23,24,24,26,26,27,27,28,28,30,30,32,32,33,33,34,34,35,35,36,36],"right_children":[2,4,6,8,-1,10,12,-1,-1,14,16,18,20,22,24,26,28,30,32,34,36,-1,-1,38,40,-1,42,44,46,-1,48,-1,50,52,54,56,58,-1,-1,-1,-1,-1,-1,-1,-1,-1,-1,-1,-1,-1,-1,-1,-1,-1,-1,-1,-1,-1,-1],"split_conditions":[9.53995E2,9.5663E2,1.07346E3,9.4454504E2,1.7294313E0,1.021625E3,1.079355E3,3.874512E-2,3.3876345E-1,9.4855005E2,1.04195E3,1.082125E3,1.05636E3,1.090965E3,1.12736E3,1.075625E3,1.06051E3,1.0967749E3,1.10431E3,1.11707E3,1.149355E3,1.2957642E0,4.2535402E-2,1.13666E3,1.128815E3,4.959595E-1,1.11276E3,1.107705E3,1.131325E3,3.1259766E-1,1.13073E3,2.6542275E0,1.0651799E3,1.03318E3,1.21427E3,1.147815E3,1.093745E3,-6.2686527E-1,1.3214111E-1,8.237458E-1,1.1433106E-1,-1.335144E-1,-7.8620607E-1,-5.808472E-1,-6.09375E-2,-1.7701539E0,-4.8483887E-1,-4.4853517E-1,-1.18176274E-1,2.673157E-1,9.901429E-1,-1.5365794E-1,8.8372195E-1,2.3334962E-1,3.863611E0,-2.4648944E-1,-2.535271E0,9.4036055E-1,5.9667703E-2],"split_indices":[3,0,18,0,0,17,17,0,0,23,57,36,50,1,51,32,46,1,26,32,28,0,0,56,50,0,6,2,42,0,0,0,0,52,1,28,59,0,0,0,0,0,0,0,0,0,0,0,0,0,0,0,0,0,0,0,0,0,0],"split_type":[0,0,0,0,0,0,0,0,0,0,0,0,0,0,0,0,0,0,0,0,0,0,0,0,0,0,0,0,0,0,0,0,0,0,0,0,0,0,0,0,0,0,0,0,0,0,0,0,0,0,0,0,0,0,0,0,0,0,0],"sum_hessian":[6.58E2,4E0,6.54E2,2E0,2E0,3.8E1,6.16E2,1E0,1E0,2.1E1,1.7E1,1.3E1,6.03E2,4E0,1.7E1,6E0,1.1E1,5E0,8E0,3.7E1,5.66E2,3E0,1E0,1.1E1,6E0,2E0,4E0,3E0,8E0,3E0,2E0,4E0,4E0,3.4E1,3E0,9E1,4.76E2,9E0,2E0,3E0,3E0,2E0,2E0,2E0,1E0,6E0,2E0,1E0,1E0,1E0,3E0,2.1E1,1.3E1,1E0,2E0,8.6E1,4E0,1.7E1,4.59E2],"tree_param":{"num_deleted":"0","num_feature":"60","num_nodes":"59","size_leaf_vector":"0"}},{"base_weights":[1.5723017E-1,1.0376637E-1,1.7005337E0,1.5068918E-1,-2.356598E0,3.5486112E0,3.9101738E-1,1.7269287E-1,-4.4836426E0,6.011963E-3,-3.1448026E0,1.5911255E0,4.2621665E0,-8.4558105E-1,6.675822E-1,4.2990565E-2,9.8509467E-1,-5.7891235E0,-9.3634033E-1,-5.7474774E-1,8.741455E-1,-3.3570557E0,-7.233887E-1,1.2318289E0,-1.019694E-1,2.6349232E-1,-1.7939979E0,8.689488E0,2.9864654E-1,1.5637207E0,2.680664E-1,-5.371094E-1,2.4987793E-1,1.10256545E-1,2.9526649E0,1.11345215E1,-2.2161565E0,1.4033722E1,1.1728821E0,-3.0036185E0,9.8421466E-1,-6.972656E-1,-1.0839844E-1,3.3276367E-1,6.1035156E-4],"categories":[],"categories_nodes":[],"categories_segments":[],"categories_sizes":[],"default_left":[1,1,1,1,1,1,1,1,1,1,1,0,0,0,1,1,1,0,0,0,0,0,0,1,1,1,1,1,1,0,0,1,1,0,0,0,0,0,0,0,0,0,0,0,0],"id":27,"left_children":[1,3,5,7,9,11,13,15,17,19,21,-1,-1,-1,23,25,27,-1,-1,-1,-1,-1,-1,29,31,33,35,37,39,-1,-1,41,43,-1,-1,-1,-1,-1,-1,-1,-1,-1,-1,-1,-1],"loss_changes":[5.4198215E1,7.4010445E1,5.1854362E1,6.471098E1,2.2365547E1,5.789322E0,5.3524895E0,6.581414E1,8.472214E0,2.5191212E0,2.1971207E0,0E0,0E0,0E0,5.336213E0,2.1920465E2,4.5223022E2,0E0,0E0,0E0,0E0,0E0,0E0,1.8198729E0,1.0528288E0,1.9870784E2,3.4123325E2,2.6473364E2,1.8407042E2,0E0,0E0,1.303997E-1,8.243981E-2,0E0,0E0,0E0,0E0,0E0,0E0,0E0,0E0,0E0,0E0,0E0,0E0],"parents":[2147483647,0,0,1,1,2,2,3,3,4,4,5,5,6,6,7,7,8,8,9,9,10,10,14,14,15,15,16,16,23,23,24,24,25,25,26,26,27,27,28,28,31,31,32,32],"right_children":[2,4,6,8,10,12,14,16,18,20,22,-1,-1,-1,24,26,28,-1,-1,-1,-1,-1,-1,30,32,34,36,38,40,-1,-1,42,44,-1,-1,-1,-1,-1,-1,-1,-1,-1,-1,-1,-1],"split_conditions":[1.98773E3,1.985905E3,1.9795149E3,1.99436E3,1.7980349E3,1.993685E3,1.985895E3,1.82492E3,1.931595E3,1.80681E3,1.98367E3,4.7733766E-1,1.27865E0,-2.5367433E-1,2.057695E3,1.79529E3,1.776065E3,-1.7367371E0,-2.8090212E-1,-1.7242433E-1,2.6224366E-1,-1.0071168E0,-2.1701661E-1,1.984315E3,2.01044E3,1.798085E3,1.74678E3,1.7768501E3,1.773595E3,4.6911624E-1,8.041993E-2,1.9752051E3,2.02255E3,3.3076964E-2,8.8579947E-1,3.3403566E0,-6.6484696E-1,4.210117E0,3.5186464E-1,-9.0108556E-1,2.9526442E-1,-2.091797E-1,-3.2519534E-2,9.982911E-2,1.8310547E-4],"split_indices":[26,34,32,25,2,26,25,59,0,0,16,0,0,0,29,59,23,0,0,0,0,0,0,40,13,55,42,24,9,0,0,0,1,0,0,0,0,0,0,0,0,0,0,0,0],"split_type":[0,0,0,0,0,0,0,0,0,0,0,0,0,0,0,0,0,0,0,0,0,0,0,0,0,0,0,0,0,0,0,0,0,0,0,0,0,0,0,0,0,0,0,0,0],"sum_hessian":[6.58E2,6.37E2,2.1E1,6.26E2,1.1E1,8E0,1.3E1,6.24E2,2E0,3E0,8E0,3E0,5E0,2E0,1.1E1,5.39E2,8.5E1,1E0,1E0,2E0,1E0,7E0,1E0,6E0,5E0,4.82E2,5.7E1,6E0,7.9E1,4E0,2E0,2E0,3E0,4.57E2,2.5E1,1E0,5.6E1,3E0,3E0,1.3E1,6.6E1,1E0,1E0,2E0,1E0],"tree_param":{"num_deleted":"0","num_feature":"60","num_nodes":"45","size_leaf_vector":"0"}},{"base_weights":[1.196277E-1,3.5778198E0,9.83588E-2,4.664144E0,1.5942383E-1,-2.8368938E-1,3.2090652E-1,1.21750094E-1,-3.3867536E0,1.080259E0,-1.7954792E-1,3.4102535E-1,-3.3116832E0,-4.2985935E0,5.6447754E0,6.168375E-1,4.6088223E0,-2.1715567E0,3.267804E-1,1.6906987E-1,4.511307E0,-3.9374492E0,2.098755E0,-1.575961E0,-5.901741E0,1.1716126E0,-1.4968892E0,2.0459943E0,9.820618E0,-3.088955E0,7.4768066E-1,-3.3990784E0,5.603779E-1,-9.5943934E-1,4.9250343E-1,9.867635E0,1.0812582E0,-2.3295636E0,-5.157074E0,-2.8258057E0,1.3177185E0,-9.124512E0,-4.067108E0,4.563393E-1,3.6575177E0,-3.818124E0,3.9167616E-1,3.8896117E0,-2.0504394E0,-6.964179E-1,-4.906078E0,-6.615804E-1,3.1348145E0,-6.1321044E0,-1.2660522E0,3.4736435E0,1.582024E-1],"categories":[],"categories_nodes":[],"categories_segments":[],"categories_sizes":[],"default_left":[1,1,1,0,0,1,1,1,1,1,1,1,1,1,0,1,1,1,1,1,1,1,0,1,1,1,1,1,0,1,1,1,1,0,0,0,0,0,0,0,0,0,0,0,0,0,0,0,0,0,0,0,0,0,0,0,0],"id":28,"left_children":[1,3,5,-1,-1,7,9,11,13,15,17,19,21,23,-1,25,27,29,31,33,35,37,-1,39,41,43,45,47,-1,49,51,53,55,-1,-1,-1,-1,-1,-1,-1,-1,-1,-1,-1,-1,-1,-1,-1,-1,-1,-1,-1,-1,-1,-1,-1,-1],"loss_changes":[4.8118813E1,1.4110374E1,5.5866753E1,0E0,0E0,3.048737E2,1.579028E2,1.6299577E2,2.5485318E2,2.669671E2,2.5387086E2,1.4480914E2,5.227742E1,1.0418341E2,0E0,1.7413228E2,2.3368881E2,1.3889278E2,1.7684538E2,7.201209E1,1.3631026E2,1.1518478E1,0E0,4.3506767E1,5.7491272E1,2.0636882E2,1.3739337E2,1.13707016E2,0E0,1.661372E2,4.5807163E1,6.2191833E1,2.2206285E2,0E0,0E0,0E0,0E0,0E0,0E0,0E0,0E0,0E0,0E0,0E0,0E0,0E0,0E0,0E0,0E0,0E0,0E0,0E0,0E0,0E0,0E0,0E0,0E0],"parents":[2147483647,0,0,1,1,2,2,5,5,6,6,7,7,8,8,9,9,10,10,11,11,12,12,13,13,15,15,16,16,17,17,18,18,19,19,20,20,21,21,23,23,24,24,25,25,26,26,27,27,29,29,30,30,31,31,32,32],"right_children":[2,4,6,-1,-1,8,10,12,14,16,18,20,22,24,-1,26,28,30,32,34,36,38,-1,40,42,44,46,48,-1,50,52,54,56,-1,-1,-1,-1,-1,-1,-1,-1,-1,-1,-1,-1,-1,-1,-1,-1,-1,-1,-1,-1,-1,-1,-1,-1],"split_conditions":[9.4855005E2,9.9879E2,1.221485E3,1.3992432E0,4.782715E-2,1.218985E3,1.776065E3,1.220285E3,1.2405549E3,1.7713E3,1.795645E3,1.227255E3,1.27403E3,1.19823E3,1.6934327E0,1.78945E3,1.7899751E3,1.81156E3,1.756275E3,1.07605E3,1.22917E3,1.207825E3,6.296265E-1,1.19617E3,1.21064E3,1.508355E3,1.75386E3,1.769675E3,2.9461854E0,1.778075E3,1.769745E3,1.763815E3,1.759905E3,-2.878318E-1,1.4775103E-1,2.9602904E0,3.2437748E-1,-6.988691E-1,-1.5471222E0,-8.477417E-1,3.9531556E-1,-2.7373536E0,-1.2201325E0,1.369018E-1,1.0972553E0,-1.1454372E0,1.1750285E-1,1.1668836E0,-6.1513186E-1,-2.0892538E-1,-1.4718235E0,-1.9847412E-1,9.404444E-1,-1.8396314E0,-3.798157E-1,1.0420932E0,4.746072E-2],"split_indices":[12,2,7,0,0,17,18,5,38,21,22,34,0,2,0,54,34,2,39,19,34,8,0,5,0,47,12,13,0,5,32,45,58,0,0,0,0,0,0,0,0,0,0,0,0,0,0,0,0,0,0,0,0,0,0,0,0],"split_type":[0,0,0,0,0,0,0,0,0,0,0,0,0,0,0,0,0,0,0,0,0,0,0,0,0,0,0,0,0,0,0,0,0,0,0,0,0,0,0,0,0,0,0,0,0,0,0,0,0,0,0,0,0,0,0,0,0],"sum_hessian":[6.58E2,3E0,6.55E2,2E0,1E0,2.41E2,4.14E2,2.14E2,2.7E1,1.64E2,2.5E2,2.02E2,1.2E1,2.5E1,2E0,1.46E2,1.8E1,5E1,2E2,1.95E2,7E0,1.1E1,1E0,1E1,1.5E1,1.16E2,3E1,1.3E1,5E0,3.8E1,1.2E1,1.1E1,1.89E2,4.3E1,1.52E2,2E0,5E0,6E0,5E0,7E0,3E0,4E0,1.1E1,9.1E1,2.5E1,1.3E1,1.7E1,9E0,4E0,1.7E1,2.1E1,8E0,4E0,4E0,7E0,2.2E1,1.67E2],"tree_param":{"num_deleted":"0","num_feature":"60","num_nodes":"57","size_leaf_vector":"0"}},{"base_weights":[8.662111E-2,1.1031959E0,1.7393341E-2,5.971344E-1,7.4829507E0,-3.249817E0,6.0143404E-2,-6.1688047E-2,3.2401352E0,-4.050944E0,-5.6429034E-1,-1.736721E0,1.08280465E-1,1.6295943E0,-8.678801E-1,1.1348877E0,3.7527363E0,-9.6032715E-1,1.138916E-1,-7.1323806E-1,-4.6288605E0,3.0119781E0,2.8129958E-2,5.416667E-1,4.350179E0,-1.4522128E0,1.0297648E0,-1.6590712E0,1.1319091E0,-3.9412436E-1,6.467346E0,1.2076001E0,-8.277538E-2,-6.803792E-1,9.8801965E-1,1.0007324E0,-1.6553704E0,3.1835938E-1,1.3058777E0,-2.1942852E0,-4.4148254E-1,1.4036255E0,2.2521973E-2,5.134626E-1,-2.3804524E0,1.77535E0,7.735453E0,2.4183021E-1,5.0464964E0,-1.6465217E0,1.6163354E-1],"categories":[],"categories_nodes":[],"categories_segments":[],"categories_sizes":[],"default_left":[1,1,1,1,0,1,1,1,1,0,1,1,1,1,1,0,0,0,0,1,0,1,1,1,0,1,1,1,1,1,1,1,1,0,0,0,0,0,0,0,0,0,0,0,0,0,0,0,0,0,0],"id":29,"left_children":[1,3,5,7,-1,9,11,13,15,-1,17,19,21,23,25,-1,-1,-1,-1,27,-1,29,31,33,-1,35,37,39,41,43,45,47,49,-1,-1,-1,-1,-1,-1,-1,-1,-1,-1,-1,-1,-1,-1,-1,-1,-1,-1],"loss_changes":[4.635807E1,1.311307E2,8.651364E1,6.985061E1,0E0,1.4925674E1,5.3036972E1,4.6409737E1,4.374283E0,0E0,9.151282E-1,4.405941E1,1.3862404E2,3.0201447E1,2.6999125E1,0E0,0E0,0E0,0E0,2.4565536E1,0E0,1.9085837E2,7.61003E1,5.581403E0,0E0,1.0626598E1,7.6283073E-1,4.8962936E0,1.4755807E0,1.7447163E1,3.3866486E1,1.8415413E2,2.035931E2,0E0,0E0,0E0,0E0,0E0,0E0,0E0,0E0,0E0,0E0,0E0,0E0,0E0,0E0,0E0,0E0,0E0,0E0],"parents":[2147483647,0,0,1,1,2,2,3,3,5,5,6,6,7,7,8,8,10,10,11,11,12,12,13,13,14,14,19,19,21,21,22,22,23,23,25,25,26,26,27,27,28,28,29,29,30,30,31,31,32,32],"right_children":[2,4,6,8,-1,10,12,14,16,-1,18,20,22,24,26,-1,-1,-1,-1,28,-1,30,32,34,-1,36,38,40,42,44,46,48,50,-1,-1,-1,-1,-1,-1,-1,-1,-1,-1,-1,-1,-1,-1,-1,-1,-1,-1],"split_conditions":[1.071115E3,1.155325E3,1.075405E3,1.099585E3,2.2448852E0,1.10045E3,1.073375E3,1.049095E3,1.0305349E3,-1.2152832E0,1.112945E3,1.093395E3,1.0828601E3,9.93865E2,1.1389551E3,3.4046632E-1,1.125821E0,-2.8809816E-1,3.4167483E-2,1.0679299E3,-1.3886582E0,1.09027E3,1.07605E3,9.4579504E2,1.3050538E0,1.059075E3,1.100425E3,1.056895E3,1.0941799E3,1.1005E3,1.078495E3,1.11707E3,1.16277E3,-2.0411377E-1,2.964059E-1,3.0021974E-1,-4.9661112E-1,9.5507815E-2,3.9176333E-1,-6.5828556E-1,-1.3244477E-1,4.2108765E-1,6.756592E-3,1.5403879E-1,-7.1413577E-1,5.32605E-1,2.320636E0,7.254907E-2,1.513949E0,-4.9395654E-1,4.8490062E-2],"split_indices":[12,41,11,20,0,9,18,30,11,0,0,38,18,25,46,0,0,0,0,49,0,3,51,19,0,39,29,45,31,6,9,32,31,0,0,0,0,0,0,0,0,0,0,0,0,0,0,0,0,0,0],"split_type":[0,0,0,0,0,0,0,0,0,0,0,0,0,0,0,0,0,0,0,0,0,0,0,0,0,0,0,0,0,0,0,0,0,0,0,0,0,0,0,0,0,0,0,0,0,0,0,0,0,0,0],"sum_hessian":[6.58E2,4.1E1,6.17E2,3.9E1,2E0,7E0,6.1E2,3.2E1,7E0,5E0,2E0,1.5E1,5.95E2,1E1,2.2E1,2E0,5E0,1E0,1E0,1.2E1,3E0,1.5E1,5.8E2,8E0,2E0,1.7E1,5E0,8E0,4E0,8E0,7E0,4.9E1,5.31E2,2E0,6E0,1E0,1.6E1,2E0,3E0,5E0,3E0,3E0,1E0,6E0,2E0,2E0,5E0,4E1,9E0,7.1E1,4.6E2],"tree_param":{"num_deleted":"0","num_feature":"60","num_nodes":"51","size_leaf_vector":"0"}},{"base_weights":[6.9167465E-2,1.823501E-1,-4.4073078E-1,7.2471336E-2,6.657145E0,-2.8169322E0,2.1423726E-1,-4.1067343E-2,2.706371E0,1.3060211E1,1.2789103E0,2.2309327E0,-3.8361318E0,4.6073976E0,-2.9499432E-2,1.1896197E-1,-2.4402237E0,8.836945E0,1.2732834E0,2.374585E0,-2.0997314E0,3.8317058E0,-1.134847E-1,-9.091431E0,-2.5278513E0,3.1450927E0,-2.1160819E-1,1.9876885E-1,-3.0100708E0,-3.454544E0,5.357666E-1,2.1435852E0,-2.526245E0,-1.9488525E-1,2.4658203E-2,1.7350464E0,-3.435585E0,5.6405435E0,-3.9872232E-1,-9.200763E-1,6.839443E-1,-1.8518296E-3,2.1366243E0,1.6147766E0,-4.7311063E0,-2.4104004E-1,-4.0851927E0,-1.2565918E0,2.2209716E0,3.3596802E-1,3.5121799E0,-6.9836426E-1,-2.9027507E0,2.2018635E0,1.6729736E-1,2.347107E-1,-4.300631E0,-7.969971E-1,1.9891357E-1,-9.364537E-3,-2.983732E0,2.2463923E0,2.082677E-1],"categories":[],"categories_nodes":[],"categories_segments":[],"categories_sizes":[],"default_left":[1,1,1,1,1,1,1,1,1,0,1,1,1,0,1,1,1,0,1,0,0,0,1,0,1,1,1,1,1,1,1,1,1,0,0,1,1,0,1,1,1,0,0,0,0,0,0,0,0,0,0,0,0,0,0,0,0,0,0,0,0,0,0],"id":30,"left_children":[1,3,5,7,9,11,13,15,17,-1,19,21,23,-1,25,27,29,-1,31,-1,-1,-1,33,-1,35,37,39,41,43,45,47,49,51,-1,-1,53,55,-1,57,59,61,-1,-1,-1,-1,-1,-1,-1,-1,-1,-1,-1,-1,-1,-1,-1,-1,-1,-1,-1,-1,-1,-1],"loss_changes":[3.811233E1,3.8369653E2,1.873638E2,1.5920546E2,2.932319E2,1.423225E2,1.01859474E2,1.9648126E2,1.8203235E2,0E0,2.7197344E1,1.919924E1,1.2827713E2,0E0,5.327454E1,1.2046313E2,9.844626E1,0E0,6.824322E1,0E0,0E0,0E0,3.8540248E-2,0E0,7.948285E1,4.646609E1,5.5828213E1,1.8233893E2,1.0315399E2,4.7653503E1,2.997528E1,3.8402344E1,7.256508E-1,0E0,0E0,2.559043E0,5.180899E1,0E0,8.726034E-1,9.206244E1,2.8517725E1,0E0,0E0,0E0,0E0,0E0,0E0,0E0,0E0,0E0,0E0,0E0,0E0,0E0,0E0,0E0,0E0,0E0,0E0,0E0,0E0,0E0,0E0],"parents":[2147483647,0,0,1,1,2,2,3,3,4,4,5,5,6,6,7,7,8,8,10,10,11,11,12,12,14,14,15,15,16,16,18,18,22,22,24,24,25,25,26,26,27,27,28,28,29,29,30,30,31,31,32,32,35,35,36,36,38,38,39,39,40,40],"right_children":[2,4,6,8,10,12,14,16,18,-1,20,22,24,-1,26,28,30,-1,32,-1,-1,-1,34,-1,36,38,40,42,44,46,48,50,52,-1,-1,54,56,-1,58,60,62,-1,-1,-1,-1,-1,-1,-1,-1,-1,-1,-1,-1,-1,-1,-1,-1,-1,-1,-1,-1,-1,-1],"split_conditions":[1.8241699E3,1.82455E3,1.82319E3,1.906615E3,1.9487051E3,1.76097E3,1.81197E3,1.827735E3,1.94432E3,3.9180634E0,1.97836E3,1.7686E3,1.815345E3,1.3822193E0,1.82297E3,1.818325E3,1.8068301E3,2.6510835E0,1.9386299E3,7.123755E-1,-6.2991947E-1,1.1495118E0,1.74456E3,-2.7274294E0,1.8197949E3,1.96653E3,1.97438E3,1.79165E3,1.79373E3,1.763355E3,1.89962E3,1.82255E3,1.9244551E3,-5.8465578E-2,7.397461E-3,1.9676599E3,1.796335E3,1.6921631E0,1.965495E3,1.959835E3,1.952625E3,-5.555489E-4,6.4098734E-1,4.84433E-1,-1.4193319E0,-7.231201E-2,-1.2255578E0,-3.7697756E-1,6.662915E-1,1.0079041E-1,1.053654E0,-2.0950928E-1,-8.7082523E-1,6.6055906E-1,5.0189212E-2,7.041321E-2,-1.2901894E0,-2.3909913E-1,5.9674073E-2,-2.809361E-3,-8.951196E-1,6.739177E-1,6.248031E-2],"split_indices":[53,52,41,27,8,6,35,21,11,0,4,3,57,0,50,45,54,0,44,0,0,0,0,0,54,2,28,46,6,33,12,50,2,0,0,1,37,0,0,32,45,0,0,0,0,0,0,0,0,0,0,0,0,0,0,0,0,0,0,0,0,0,0],"split_type":[0,0,0,0,0,0,0,0,0,0,0,0,0,0,0,0,0,0,0,0,0,0,0,0,0,0,0,0,0,0,0,0,0,0,0,0,0,0,0,0,0,0,0,0,0,0,0,0,0,0,0,0,0,0,0,0,0,0,0,0,0,0,0],"sum_hessian":[6.58E2,5.39E2,1.19E2,5.31E2,8E0,2.5E1,9.4E1,5.1E2,2.1E1,3E0,5E0,4E0,2.1E1,4E0,9E1,4.79E2,3.1E1,3E0,1.8E1,4E0,1E0,2E0,2E0,3E0,1.8E1,4E0,8.6E1,4.68E2,1.1E1,2.3E1,8E0,1.5E1,3E0,1E0,1E0,3E0,1.5E1,2E0,2E0,4.8E1,3.8E1,4.25E2,4.3E1,3E0,8E0,4E0,1.9E1,4E0,4E0,7E0,8E0,1E0,2E0,2E0,1E0,3E0,1.2E1,1E0,1E0,3.4E1,1.4E1,8E0,3E1],"tree_param":{"num_deleted":"0","num_feature":"60","num_nodes":"63","size_leaf_vector":"0"}},{"base_weights":[5.7579864E-2,5.584239E-1,-5.3825434E-2,-7.292508E-2,2.1575103E0,-7.098275E-1,1.5170392E-1,1.9220632E-1,-4.4595213E0,5.843967E0,7.9844785E-1,-8.713619E-1,6.365072E0,2.080596E0,-2.7298538E-2,8.050612E-3,5.100342E0,-5.104553E0,-9.3969727E-1,-5.4707843E-1,7.748134E0,-1.7805054E0,2.2685115E0,-3.6471647E-1,-2.9238868E0,9.83011E-2,5.4276876E0,-5.629547E0,3.2531574E-2,2.2971706E-1,-2.8010662E0,-1.4536133E0,6.329956E-1,9.123316E0,2.8734539E0,-3.7474608E0,1.5537517E-1,4.729492E0,8.489787E-1,-7.0567906E-1,2.050077E0,-5.3335776E0,-1.4761747E0,-1.2954956E0,2.4103732E0,-1.2248129E0,6.7485795E0,-3.2936199E0,8.638124E-2,7.341382E-1,-7.129042E-1,-3.2403321E0,-3.0236816E-1,-4.1722107E0,-1.024231E0,-4.3011475E-1,8.8423663E-1,2.5361328E0,6.077474E0,-1.7882487E0,1.555249E0,9.627256E-1,-1.3878521E0,8.540405E0,7.9751587E-1,-6.1459785E0,-1.6601156E0,1.7377014E0,-2.288984E0,-3.0905304E0,6.6147614E-1,5.141195E0,-2.2884521E0,8.101044E0,2.3565063E0,2.7252197E-1,-4.0613527E0,4.402051E0,2.7187994E-2],"categories":[],"categories_nodes":[],"categories_segments":[],"categories_sizes":[],"default_left":[1,1,1,1,1,1,1,1,1,1,1,1,0,1,1,1,0,0,0,1,1,1,1,1,1,1,1,0,1,1,1,0,0,0,0,1,1,1,1,1,1,1,1,1,1,0,1,1,1,0,0,0,0,0,0,0,0,0,0,0,0,0,0,0,0,0,0,0,0,0,0,0,0,0,0,0,0,0,0],"id":31,"left_children":[1,3,5,7,9,11,13,15,17,19,21,23,-1,25,27,29,-1,-1,-1,31,33,35,37,39,41,43,45,-1,47,49,51,-1,-1,-1,-1,53,55,57,59,61,63,65,67,69,71,-1,73,75,77,-1,-1,-1,-1,-1,-1,-1,-1,-1,-1,-1,-1,-1,-1,-1,-1,-1,-1,-1,-1,-1,-1,-1,-1,-1,-1,-1,-1,-1,-1],"loss_changes":[3.6800068E1,1.2130711E2,7.2914635E1,1.0204028E2,1.6567815E2,1.529726E2,1.423107E2,7.4979416E1,6.555252E0,1.1376541E2,1.0261097E2,1.3100122E2,0E0,2.3168875E2,1.2688238E2,5.1081093E1,0E0,0E0,0E0,4.1294656E0,2.0709534E1,3.866017E1,5.537329E1,8.625219E1,7.934015E1,7.724148E1,1.2249979E2,0E0,6.745155E1,3.6659706E1,5.6057854E0,0E0,0E0,0E0,0E0,1.5101547E0,2.9407697E0,2.3263702E0,2.5132317E1,1.0490692E2,9.8872826E1,1.6655884E1,4.838613E1,5.4736797E1,1.2725026E2,0E0,4.625113E1,1.7533875E1,9.439997E1,0E0,0E0,0E0,0E0,0E0,0E0,0E0,0E0,0E0,0E0,0E0,0E0,0E0,0E0,0E0,0E0,0E0,0E0,0E0,0E0,0E0,0E0,0E0,0E0,0E0,0E0,0E0,0E0,0E0,0E0],"parents":[2147483647,0,0,1,1,2,2,3,3,4,4,5,5,6,6,7,7,8,8,9,9,10,10,11,11,13,13,14,14,15,15,19,19,20,20,21,21,22,22,23,23,24,24,25,25,26,26,28,28,29,29,30,30,35,35,36,36,37,37,38,38,39,39,40,40,41,41,42,42,43,43,44,44,46,46,47,47,48,48],"right_children":[2,4,6,8,10,12,14,16,18,20,22,24,-1,26,28,30,-1,-1,-1,32,34,36,38,40,42,44,46,-1,48,50,52,-1,-1,-1,-1,54,56,58,60,62,64,66,68,70,72,-1,74,76,78,-1,-1,-1,-1,-1,-1,-1,-1,-1,-1,-1,-1,-1,-1,-1,-1,-1,-1,-1,-1,-1,-1,-1,-1,-1,-1,-1,-1,-1,-1],"split_conditions":[1.12066E3,1.110595E3,1.221485E3,1.13666E3,1.124395E3,1.2447051E3,1.18195E3,1.14323E3,1.075225E3,1.0663201E3,1.10014E3,1.2203501E3,1.9095216E0,1.144815E3,1.18498E3,1.160315E3,1.5301026E0,-1.531366E0,-2.819092E-1,1.008355E3,1.1094099E3,1.11124E3,1.124395E3,1.22439E3,1.2225449E3,1.2255701E3,1.229145E3,-1.6888642E0,1.1901299E3,1.08251E3,1.104E3,-4.36084E-1,1.8989868E-1,2.7369947E0,8.6203617E-1,1.0961951E3,1.17079E3,1.12003E3,1.093935E3,1.09983E3,1.20549E3,1.225905E3,1.186235E3,1.22064E3,1.45613E3,-3.6744386E-1,1.229145E3,1.22375E3,1.19605E3,2.2024147E-1,-2.1387127E-1,-9.7209966E-1,-9.071045E-2,-1.2516632E0,-3.072693E-1,-1.2903443E-1,2.65271E-1,7.608399E-1,1.8232423E0,-5.3647465E-1,4.665747E-1,2.8881767E-1,-4.1635564E-1,2.5621216E0,2.3925477E-1,-1.8437936E0,-4.980347E-1,5.2131045E-1,-6.866952E-1,-9.2715913E-1,1.9844285E-1,1.5423585E0,-6.8653566E-1,2.430313E0,7.069519E-1,8.175659E-2,-1.2184058E0,1.3206153E0,8.156398E-3],"split_indices":[1,14,7,7,12,46,56,19,1,0,0,17,0,58,35,39,0,0,0,0,4,3,8,2,18,10,9,0,56,11,7,0,0,0,0,0,22,2,3,23,3,13,49,4,0,0,50,0,36,0,0,0,0,0,0,0,0,0,0,0,0,0,0,0,0,0,0,0,0,0,0,0,0,0,0,0,0,0,0],"split_type":[0,0,0,0,0,0,0,0,0,0,0,0,0,0,0,0,0,0,0,0,0,0,0,0,0,0,0,0,0,0,0,0,0,0,0,0,0,0,0,0,0,0,0,0,0,0,0,0,0,0,0,0,0,0,0,0,0,0,0,0,0,0,0,0,0,0,0,0,0,0,0,0,0,0,0,0,0,0,0],"sum_hessian":[6.58E2,1.19E2,5.39E2,8.6E1,3.3E1,1.28E2,4.11E2,8.2E1,4E0,8E0,2.5E1,1.26E2,2E0,3.4E1,3.77E2,8E1,2E0,3E0,1E0,2E0,6E0,9E0,1.6E1,1.02E2,2.4E1,2.2E1,1.2E1,3E0,3.74E2,7.5E1,5E0,1E0,1E0,4E0,2E0,4E0,5E0,5E0,1.1E1,9E1,1.2E1,8E0,1.6E1,1.4E1,8E0,2E0,1E1,5E0,3.69E2,4.9E1,2.6E1,4E0,1E0,3E0,1E0,3E0,2E0,3E0,2E0,2E0,9E0,2.6E1,6.4E1,1E0,1.1E1,6E0,2E0,3E0,1.3E1,7E0,7E0,5E0,3E0,7E0,3E0,1E0,4E0,4E0,3.65E2],"tree_param":{"num_deleted":"0","num_feature":"60","num_nodes":"79","size_leaf_vector":"0"}},{"base_weights":[5.028232E-2,1.8979868E-1,-2.662958E-1,-2.2272486E-2,2.001704E0,-3.7429721E0,-7.3552206E-3,1.9408955E-1,-1.2912252E0,-2.307654E0,3.0553417E0,3.47583E-1,-5.413953E0,-4.027466E0,1.0133617E-1,-1.802626E-2,4.375079E0,-2.0305302E0,1.5378418E0,1.2159119E0,-3.991455E0,5.460144E-1,5.411902E0,-1.876831E-1,1.2443237E0,-7.2090716E0,-9.1900635E-1,2.419816E0,-1.0263187E-1,7.651693E-2,-2.8183038E0,1.4400635E1,2.078296E0,-6.1806335E0,-1.6165093E0,4.1153564E0,-1.2593645E0,8.3862305E-2,2.3060303E0,4.5372925E0,-4.2522836E-1,8.491422E0,1.4832398E0,-1.423584E0,-2.762858E-1,1.0936168E0,4.8534913E0,-3.1275392E0,1.8702571E-1,-4.125535E-2,4.2293024E0,7.5398766E-2,-3.4697266E0,-1.2755432E0,3.023051E0,-1.12259716E-1,-2.6151845E0,1.847876E0,6.522705E0,-1.2960815E-1,-2.0742798E0,4.111328E-1,-2.8533936E-1,1.0408936E0,5.3557944E0,-1.6220337E0,1.1239319E0,7.1447754E-1,1.0140245E1,-1.6424967E0,2.469986E0,-3.607788E-1,-5.3649902E-2,2.2098591E0,-2.0489502E-1,-4.762549E0,1.1873373E-1,2.6634521E0,-3.6288556E-2],"categories":[],"categories_nodes":[],"categories_segments":[],"categories_sizes":[],"default_left":[1,1,1,1,1,1,1,1,1,1,1,1,1,0,1,1,1,1,1,1,0,1,1,0,0,0,1,1,1,1,1,0,1,0,1,1,1,1,0,1,1,1,1,0,1,1,0,1,1,0,0,0,0,0,0,0,0,0,0,0,0,0,0,0,0,0,0,0,0,0,0,0,0,0,0,0,0,0,0],"id":32,"left_children":[1,3,5,7,9,11,13,15,17,19,21,23,25,-1,27,29,31,33,35,37,-1,39,41,-1,-1,-1,43,45,47,49,51,-1,53,-1,55,57,59,61,-1,63,65,67,69,-1,71,73,-1,75,77,-1,-1,-1,-1,-1,-1,-1,-1,-1,-1,-1,-1,-1,-1,-1,-1,-1,-1,-1,-1,-1,-1,-1,-1,-1,-1,-1,-1,-1,-1],"loss_changes":[2.9157139E1,1.760324E2,1.8182349E2,1.1309197E2,2.2499477E2,9.757512E1,8.299194E1,3.1225146E2,1.2861525E2,6.41831E1,2.2766687E2,2.6335132E0,7.406445E1,0E0,8.773408E1,8.91707E1,3.615222E2,7.248398E1,9.891066E1,4.7428837E0,0E0,7.945939E1,2.2937305E2,0E0,0E0,0E0,9.038935E-1,4.3105217E1,1.5041295E2,1.5961555E2,2.0996864E1,0E0,5.1384377E1,0E0,6.7307976E1,2.6157173E1,6.175747E0,4.797988E-1,0E0,5.8724213E0,3.3341793E1,1.3380591E2,3.4900032E1,0E0,3.707777E-2,1.6396784E1,0E0,8.0180786E1,8.6921E1,0E0,0E0,0E0,0E0,0E0,0E0,0E0,0E0,0E0,0E0,0E0,0E0,0E0,0E0,0E0,0E0,0E0,0E0,0E0,0E0,0E0,0E0,0E0,0E0,0E0,0E0,0E0,0E0,0E0,0E0],"parents":[2147483647,0,0,1,1,2,2,3,3,4,4,5,5,6,6,7,7,8,8,9,9,10,10,11,11,12,12,14,14,15,15,16,16,17,17,18,18,19,19,21,21,22,22,26,26,27,27,28,28,29,29,30,30,32,32,34,34,35,35,36,36,37,37,39,39,40,40,41,41,42,42,44,44,45,45,47,47,48,48],"right_children":[2,4,6,8,10,12,14,16,18,20,22,24,26,-1,28,30,32,34,36,38,-1,40,42,-1,-1,-1,44,46,48,50,52,-1,54,-1,56,58,60,62,-1,64,66,68,70,-1,72,74,-1,76,78,-1,-1,-1,-1,-1,-1,-1,-1,-1,-1,-1,-1,-1,-1,-1,-1,-1,-1,-1,-1,-1,-1,-1,-1,-1,-1,-1,-1,-1,-1],"split_conditions":[1.79209E3,1.7743301E3,1.791905E3,1.762815E3,1.755875E3,1.7912949E3,1.755625E3,1.508355E3,1.87347E3,1.74581E3,1.77551E3,1.89456E3,1.812465E3,-1.2082398E0,1.776065E3,1.4621699E3,1.517675E3,1.528115E3,1.760635E3,1.76546E3,-1.1974366E0,1.795485E3,1.78736E3,-5.6304935E-2,3.7329713E-1,-2.1627216E0,1.77803E3,1.793615E3,1.786895E3,1.5114451E3,1.667325E3,4.3201904E0,1.466915E3,-1.8541901E0,1.76828E3,1.8589551E3,1.76027E3,1.762085E3,6.918091E-1,1.796785E3,1.76509E3,1.7667749E3,1.784985E3,-4.270752E-1,1.91406E3,1.80675E3,1.4560474E0,1.7828301E3,1.762005E3,-1.23766055E-2,1.2687907E0,2.2619631E-2,-1.040918E0,-3.8266298E-1,9.0691537E-1,-3.3677917E-2,-7.845554E-1,5.5436283E-1,1.9568115E0,-3.888245E-2,-6.2228394E-1,1.2333985E-1,-8.560181E-2,3.1226808E-1,1.6067384E0,-4.8661014E-1,3.3717957E-1,2.1434326E-1,3.0420737E0,-4.9274904E-1,7.409958E-1,-1.08233646E-1,-1.6094971E-2,6.629578E-1,-6.1468508E-2,-1.4287647E0,3.562012E-2,7.9903567E-1,-1.0886567E-2],"split_indices":[44,38,45,17,16,40,19,47,14,10,56,0,58,0,18,45,47,55,43,0,0,13,42,0,0,0,0,27,21,24,6,0,52,0,24,25,40,0,0,2,55,16,47,0,0,44,0,1,59,0,0,0,0,0,0,0,0,0,0,0,0,0,0,0,0,0,0,0,0,0,0,0,0,0,0,0,0,0,0],"split_type":[0,0,0,0,0,0,0,0,0,0,0,0,0,0,0,0,0,0,0,0,0,0,0,0,0,0,0,0,0,0,0,0,0,0,0,0,0,0,0,0,0,0,0,0,0,0,0,0,0,0,0,0,0,0,0,0,0,0,0,0,0,0,0,0,0,0,0,0,0,0,0,0,0,0,0,0,0,0,0],"sum_hessian":[6.58E2,4.57E2,2.01E2,4.1E2,4.7E1,1.3E1,1.88E2,3.51E2,5.9E1,9E0,3.8E1,4E0,9E0,4E0,1.84E2,3.35E2,1.6E1,4.7E1,1.2E1,3E0,6E0,1.9E1,1.9E1,3E0,1E0,6E0,3E0,1.4E1,1.7E2,3.25E2,1E1,2E0,1.4E1,3E0,4.4E1,6E0,6E0,2E0,1E0,3E0,1.6E1,1E1,9E0,1E0,2E0,1E1,4E0,1.4E1,1.56E2,3.17E2,8E0,2E0,8E0,3E0,1.1E1,1.8E1,2.6E1,4E0,2E0,3E0,3E0,1E0,1E0,1E0,2E0,9E0,7E0,2E0,8E0,2E0,7E0,1E0,1E0,5E0,5E0,9E0,5E0,1.2E1,1.44E2],"tree_param":{"num_deleted":"0","num_feature":"60","num_nodes":"79","size_leaf_vector":"0"}},{"base_weights":[4.566337E-2,1.0668463E0,7.056374E-3,1.4141846E-1,5.6586304E0,-2.8009338E0,4.2758863E-2,1.516626E0,-1.0163727E0,-5.54362E-1,-3.4573975E0,-1.6459177E0,8.106846E-2,3.386056E-1,3.1990051E0,-1.3945662E0,-4.0575156E-1,-3.746582E0,-1.0057373E0,-4.8543295E-1,-3.112325E0,8.1429833E-1,-1.1402214E-2,-7.7368164E-1,6.529338E-1,3.9267986E0,5.078125E-1,-7.698568E-2,-5.5088806E-1,-1.1601074E0,2.8632814E-1,-3.801001E0,1.6552734E-1,1.3300449E-1,3.2580893E0,-1.8365915E0,3.638106E-2,3.4143066E-1,8.5062665E-1,-1.0864258E-1,-6.8359375E-3,8.893738E-1,-8.677673E-2,-5.625785E-1,1.2859758E0,6.07254E-1,5.501663E0,-4.914856E-1,-3.111485E0,1.8853607E0,-2.0580586E-2],"categories":[],"categories_nodes":[],"categories_segments":[],"categories_sizes":[],"default_left":[1,1,1,1,0,1,1,1,1,0,1,1,1,1,1,0,1,0,0,1,1,1,1,0,1,0,0,1,0,0,1,0,0,1,1,1,1,0,0,0,0,0,0,0,0,0,0,0,0,0,0],"id":33,"left_children":[1,3,5,7,-1,9,11,13,15,-1,17,19,21,23,25,-1,27,-1,-1,29,31,33,35,-1,37,-1,-1,39,-1,-1,41,-1,-1,43,45,47,49,-1,-1,-1,-1,-1,-1,-1,-1,-1,-1,-1,-1,-1,-1],"loss_changes":[2.597342E1,1.0118451E2,6.3880188E1,3.4977722E1,0E0,9.881687E0,4.0825024E1,1.873557E1,2.205348E0,0E0,4.8582458E-1,2.2313583E1,4.1775475E1,2.9525254E0,5.8404503E0,0E0,2.438851E-1,0E0,0E0,5.0183587E0,1.4173443E1,1.14447495E2,4.785982E1,0E0,7.906151E-2,0E0,0E0,5.9194956E-3,0E0,0E0,1.2021732E0,0E0,0E0,4.483276E1,8.586926E1,2.247889E1,5.6385498E1,0E0,0E0,0E0,0E0,0E0,0E0,0E0,0E0,0E0,0E0,0E0,0E0,0E0,0E0],"parents":[2147483647,0,0,1,1,2,2,3,3,5,5,6,6,7,7,8,8,10,10,11,11,12,12,13,13,14,14,16,16,19,19,20,20,21,21,22,22,24,24,27,27,30,30,33,33,34,34,35,35,36,36],"right_children":[2,4,6,8,-1,10,12,14,16,-1,18,20,22,24,26,-1,28,-1,-1,30,32,34,36,-1,38,-1,-1,40,-1,-1,42,-1,-1,44,46,48,50,-1,-1,-1,-1,-1,-1,-1,-1,-1,-1,-1,-1,-1,-1],"split_conditions":[1.01916504E3,1.10249E3,1.0305349E3,9.91025E2,1.6975892E0,1.1427151E3,1.02193E3,1.09286E3,1.09977E3,-1.6630861E-1,1.20554E3,1.084935E3,1.0963201E3,1.06739E3,1.09798E3,-4.1836986E-1,1.12172E3,-1.1239747E0,-3.0172122E-1,1.09752E3,1.21571E3,1.110595E3,1.07044E3,-2.321045E-1,1.098085E3,1.1780397E0,1.5234375E-1,1.1187749E3,-1.6526642E-1,-3.4803224E-1,1.2050349E3,-1.1403004E0,4.9658205E-2,1.0829199E3,1.0863401E3,1.109395E3,1.0753899E3,1.024292E-1,2.5518802E-1,-3.2592773E-2,-2.0507814E-3,2.6681215E-1,-2.6033022E-2,-1.6877356E-1,3.8579276E-1,1.8217622E-1,1.650499E0,-1.4744568E-1,-9.334455E-1,5.6560826E-1,-6.174176E-3],"split_indices":[48,20,46,43,0,1,58,3,14,0,0,45,42,0,2,0,1,0,0,27,6,49,22,0,0,0,0,0,0,0,0,0,0,58,2,37,10,0,0,0,0,0,0,0,0,0,0,0,0,0,0],"split_type":[0,0,0,0,0,0,0,0,0,0,0,0,0,0,0,0,0,0,0,0,0,0,0,0,0,0,0,0,0,0,0,0,0,0,0,0,0,0,0,0,0,0,0,0,0,0,0,0,0,0,0],"sum_hessian":[6.58E2,2.3E1,6.35E2,2E1,3E0,7E0,6.28E2,9E0,1.1E1,2E0,5E0,1.3E1,6.15E2,6E0,3E0,6E0,5E0,4E0,1E0,8E0,5E0,6.8E1,5.47E2,1E0,5E0,2E0,1E0,2E0,3E0,4E0,4E0,4E0,1E0,5.4E1,1.4E1,1.3E1,5.34E2,3E0,2E0,1E0,1E0,1E0,3E0,3.4E1,2E1,7E0,7E0,7E0,6E0,1.5E1,5.19E2],"tree_param":{"num_deleted":"0","num_feature":"60","num_nodes":"51","size_leaf_vector":"0"}},{"base_weights":[3.3943605E-2,1.7517649E-2,2.178955E0,-3.0025834E-2,7.692308E-1,3.2871907E0,3.4440103E-1,1.255212E-1,-5.916284E-1,3.7147217E0,4.2058647E-1,5.4803467E-1,-3.1433105E-2,-3.93348E-2,1.7346572E0,-4.148163E0,-2.3983939E-1,1.1131592E0,4.210856E0,-1.121167E0,6.4834213E-1,5.936056E-2,-1.3433917E0,7.058252E0,1.0431296E0,-7.166178E0,-9.6869767E-1,4.287445E0,-3.887502E-1,-1.8548584E-1,-1.3087158E0,1.9486816E0,3.929836E-1,-2.9542716E-2,2.2504501E0,-6.2805176E-2,-3.3657532E0,8.827545E0,-9.460449E-3,3.8765463E-1,4.802124E0,-5.3289795E-1,-8.386255E0,-1.9076538E0,2.1243286E-1,5.681234E0,5.303955E-2,9.254891E-1,-7.802551E-1,-2.6666814E-2,1.6557443E0],"categories":[],"categories_nodes":[],"categories_segments":[],"categories_sizes":[],"default_left":[1,1,1,1,1,0,1,1,1,1,1,0,0,1,1,1,1,0,0,1,1,1,1,1,1,1,1,1,1,0,0,0,1,0,0,0,0,0,0,0,0,0,0,0,0,0,0,0,0,0,0],"id":34,"left_children":[1,3,5,7,9,-1,11,13,15,17,19,-1,-1,21,23,25,27,-1,-1,29,31,33,35,37,39,41,43,45,47,-1,-1,-1,49,-1,-1,-1,-1,-1,-1,-1,-1,-1,-1,-1,-1,-1,-1,-1,-1,-1,-1],"loss_changes":[2.3180944E1,2.3432182E1,9.03348E0,5.3972668E1,3.8487854E1,0E0,2.4682382E-1,1.2846167E2,1.6665915E2,4.7554398E-1,1.3368052E1,0E0,0E0,5.6709663E1,1.583009E2,1.0820624E2,8.458863E1,0E0,0E0,6.346812E-1,9.859892E0,7.993244E1,8.007268E1,6.2607788E1,9.9159424E1,4.408966E1,8.168456E0,2.330613E1,6.246585E1,0E0,0E0,0E0,1.4881857E1,0E0,0E0,0E0,0E0,0E0,0E0,0E0,0E0,0E0,0E0,0E0,0E0,0E0,0E0,0E0,0E0,0E0,0E0],"parents":[2147483647,0,0,1,1,2,2,3,3,4,4,6,6,7,7,8,8,9,9,10,10,13,13,14,14,15,15,16,16,19,19,20,20,21,21,22,22,23,23,24,24,25,25,26,26,27,27,28,28,32,32],"right_children":[2,4,6,8,10,-1,12,14,16,18,20,-1,-1,22,24,26,28,-1,-1,30,32,34,36,38,40,42,44,46,48,-1,-1,-1,50,-1,-1,-1,-1,-1,-1,-1,-1,-1,-1,-1,-1,-1,-1,-1,-1,-1,-1],"split_conditions":[1.99456E3,1.9835E3,1.9100249E3,1.803735E3,1.952565E3,9.8615724E-1,2.029335E3,1.788785E3,1.80521E3,1.97405E3,1.9370801E3,1.6441041E-1,-9.429932E-3,1.827765E3,1.75278E3,1.766425E3,1.7423E3,3.3394778E-1,1.2632568E0,1.99021E3,1.9502849E3,1.816495E3,1.775025E3,1.791895E3,1.82704E3,1.7555E3,1.79683E3,1.95595E3,1.82451E3,-5.5645753E-2,-3.9261475E-1,5.846045E-1,1.987595E3,-8.862815E-3,6.751351E-1,-1.8841553E-2,-1.009726E0,2.6482637E0,-2.8381348E-3,1.16296396E-1,1.4406372E0,-1.5986939E-1,-2.5158768E0,-5.7229614E-1,6.372986E-2,1.7043703E0,1.5911866E-2,2.7764675E-1,-2.3407653E-1,-8.000045E-3,4.9672332E-1],"split_indices":[48,5,0,33,11,0,0,35,34,0,31,0,0,0,4,0,43,0,0,4,30,0,41,1,17,1,2,0,34,0,0,0,37,0,0,0,0,0,0,0,0,0,0,0,0,0,0,0,0,0,0],"split_type":[0,0,0,0,0,0,0,0,0,0,0,0,0,0,0,0,0,0,0,0,0,0,0,0,0,0,0,0,0,0,0,0,0,0,0,0,0,0,0,0,0,0,0,0,0,0,0,0,0,0,0],"sum_hessian":[6.58E2,6.54E2,4E0,6.16E2,3.8E1,2E0,2E0,4.83E2,1.33E2,3E0,3.5E1,1E0,1E0,4.39E2,4.4E1,1.1E1,1.22E2,1E0,2E0,4E0,3.1E1,4.09E2,3E1,4E0,4E1,5E0,6E0,3E0,1.19E2,1E0,3E0,4E0,2.7E1,3.94E2,1.5E1,1.9E1,1.1E1,3E0,1E0,3.5E1,5E0,1E0,4E0,3E0,3E0,2E0,1E0,2.7E1,9.2E1,2.1E1,6E0],"tree_param":{"num_deleted":"0","num_feature":"60","num_nodes":"51","size_leaf_vector":"0"}},{"base_weights":[3.2570176E-2,7.473035E-1,-1.2368907E-2,1.5344408E-1,5.9052124E0,-1.0128512E0,6.567975E-2,-2.0891546E-1,2.000061E0,7.259359E0,9.213867E-1,-6.448277E-1,-4.623886E0,1.8128889E0,-2.0055864E-2,2.812278E-1,-1.2663391E0,-2.5811768E-1,2.5033202E0,-1.8282166E0,8.0322266E-2,-5.2221475E0,-1.4145508E0,2.6415725E0,-9.321464E-1,2.7438152E0,-5.039134E-2,-1.4889687E-1,2.254013E0,-1.9829508E0,-1.531372E-1,-9.7337925E-1,-4.1493835E0,-2.1248536E-1,2.4936116E0,3.5902328E0,-3.2845053E-1,2.3168945E-1,-1.8629456E0,3.2181885E0,1.8597412E-1,-9.710822E-1,5.681227E-2,1.2577393E0,-6.078491E-1,1.08184814E-1,-2.4551392E-1,6.0135907E-1,-1.3143643E0,4.4799805E-1,-7.6343644E-1,-1.3146973E-1,4.131295E0,-1.4764811E0,6.1468506E-1,-1.9445801E-1,7.550659E-1,1.1109117E-1,-2.4636993E0,3.9326477E0,2.4861235E-2],"categories":[],"categories_nodes":[],"categories_segments":[],"categories_sizes":[],"default_left":[1,1,1,1,1,1,1,1,1,0,0,1,1,1,1,1,1,0,0,1,1,0,0,1,1,1,1,1,0,0,1,1,0,1,0,1,1,1,0,0,0,1,1,0,0,0,0,0,0,0,0,0,0,0,0,0,0,0,0,0,0],"id":35,"left_children":[1,3,5,7,9,11,13,15,17,-1,-1,19,21,23,25,27,29,-1,-1,31,33,-1,-1,35,37,39,41,43,-1,-1,45,47,-1,49,-1,51,53,55,-1,-1,-1,57,59,-1,-1,-1,-1,-1,-1,-1,-1,-1,-1,-1,-1,-1,-1,-1,-1,-1,-1],"loss_changes":[2.1175968E1,1.1855372E2,4.855812E1,2.4506857E1,2.030664E1,5.682096E1,8.646983E1,1.6423092E1,7.4648476E0,0E0,0E0,3.618849E1,2.9309082E-1,6.3881004E1,4.6335945E1,1.9003576E1,7.67367E0,0E0,0E0,2.7708603E1,1.9608852E1,0E0,0E0,6.034761E1,8.014706E0,6.6817284E0,5.394612E1,1.3030513E1,0E0,0E0,1.4726122E-1,7.770914E0,0E0,9.439369E0,0E0,3.2761917E1,7.404062E0,1.0389708E0,0E0,0E0,0E0,9.234412E1,6.058234E1,0E0,0E0,0E0,0E0,0E0,0E0,0E0,0E0,0E0,0E0,0E0,0E0,0E0,0E0,0E0,0E0,0E0,0E0],"parents":[2147483647,0,0,1,1,2,2,3,3,4,4,5,5,6,6,7,7,8,8,11,11,12,12,13,13,14,14,15,15,16,16,19,19,20,20,23,23,24,24,25,25,26,26,27,27,30,30,31,31,33,33,35,35,36,36,37,37,41,41,42,42],"right_children":[2,4,6,8,10,12,14,16,18,-1,-1,20,22,24,26,28,30,-1,-1,32,34,-1,-1,36,38,40,42,44,-1,-1,46,48,-1,50,-1,52,54,56,-1,-1,-1,58,60,-1,-1,-1,-1,-1,-1,-1,-1,-1,-1,-1,-1,-1,-1,-1,-1,-1,-1],"split_conditions":[1.03875E3,1.11707E3,1.07729E3,1.03318E3,1.303905E3,1.0947151E3,1.0856E3,1.10427E3,1.0811951E3,2.1778078E0,2.7641603E-1,1.0673601E3,1.188335E3,1.141035E3,1.07539E3,1.11806E3,1.15899E3,-7.743531E-2,7.509961E-1,1.09249E3,1.13687E3,-1.5666443E0,-4.2436525E-1,1.11239E3,1.131375E3,1.1711699E3,1.12646E3,1.092125E3,6.7620397E-1,-5.948853E-1,1.20363E3,1.043845E3,-1.2448151E0,1.079825E3,7.480835E-1,9.5328503E2,1.105675E3,1.191175E3,-5.5888367E-1,9.654566E-1,5.579224E-2,1.109385E3,1.108865E3,3.773218E-1,-1.8235475E-1,3.2455444E-2,-7.3654175E-2,1.8040773E-1,-3.943093E-1,1.3439941E-1,-2.2903094E-1,-3.944092E-2,1.2393886E0,-4.4294435E-1,1.8440552E-1,-5.8337405E-2,2.2651978E-1,3.3327352E-2,-7.391098E-1,1.1797943E0,7.4583706E-3],"split_indices":[51,32,44,52,1,43,35,28,1,0,0,57,0,45,45,6,11,0,0,28,40,0,0,26,59,15,44,1,0,0,0,57,0,59,0,15,24,1,0,0,0,43,46,0,0,0,0,0,0,0,0,0,0,0,0,0,0,0,0,0,0],"split_type":[0,0,0,0,0,0,0,0,0,0,0,0,0,0,0,0,0,0,0,0,0,0,0,0,0,0,0,0,0,0,0,0,0,0,0,0,0,0,0,0,0,0,0,0,0,0,0,0,0,0,0,0,0,0,0,0,0,0,0,0,0],"sum_hessian":[6.58E2,3.8E1,6.2E2,3.5E1,3E0,4.4E1,5.76E2,3E1,5E0,2E0,1E0,4.1E1,3E0,2.6E1,5.5E2,2.1E1,9E0,1E0,4E0,1.5E1,2.6E1,2E0,1E0,2E1,6E0,5E0,5.45E2,1.8E1,3E0,5E0,4E0,1.2E1,3E0,2.4E1,2E0,1.5E1,5E0,3E0,3E0,4E0,1E0,5.6E1,4.89E2,4E0,1.4E1,1E0,3E0,2E0,1E1,1.1E1,1.3E1,2E0,1.3E1,2E0,3E0,2E0,1E0,3.3E1,2.3E1,3E0,4.86E2],"tree_param":{"num_deleted":"0","num_feature":"60","num_nodes":"61","size_leaf_vector":"0"}},{"base_weights":[2.6784431E-2,-1.3797157E-2,7.9702294E-1,3.244563E-2,-1.6750058E0,-4.4033813E0,1.0971413E0,-1.6738502E-2,1.1859912E0,-3.2811627E0,-5.006325E-1,3.280664E0,6.6804284E-1,2.542051E-2,-2.4518554E0,3.0445862E0,2.940606E-1,-9.694214E-1,-3.5048828E0,1.1951498E0,-1.0102675E0,1.3703492E0,2.6324785E-1,-2.114552E-2,1.3965551E0,-4.419629E0,-4.034017E-1,8.1381226E-1,4.2202883E0,7.764544E-1,-1.1154541E0,-1.2478899E0,-1.1905924E-1,4.6743774E-1,1.6905344E0,-2.8256226E-1,1.049057E0,2.6508793E-2,-3.3126068E0,3.8800862E0,8.761345E-1,-4.9205933E0,-1.2078857E0,-1.0861328E0,1.505127E0,1.1926676E0,-1.6137695E-1,8.991699E-1,4.825775E0,1.9577148E0,1.0817871E-1,-1.7738851E0,-8.520508E-2,4.5166016E-2,-2.2375488E-1,1.8182577E0,4.6209717E-1,-9.492798E-1,4.515245E-2,1.6173584E0,7.6416016E-2],"categories":[],"categories_nodes":[],"categories_segments":[],"categories_sizes":[],"default_left":[1,1,1,1,1,0,1,1,1,1,1,0,1,1,1,1,1,0,0,0,1,1,1,1,1,1,1,1,1,1,1,0,1,0,1,1,1,0,0,0,0,0,0,0,0,0,0,0,0,0,0,0,0,0,0,0,0,0,0,0,0],"id":36,"left_children":[1,3,5,7,9,-1,11,13,15,17,19,-1,21,23,25,27,29,-1,-1,-1,31,33,35,37,39,41,43,45,47,49,51,-1,53,-1,55,57,59,-1,-1,-1,-1,-1,-1,-1,-1,-1,-1,-1,-1,-1,-1,-1,-1,-1,-1,-1,-1,-1,-1,-1,-1],"loss_changes":[2.060969E1,4.8219807E1,5.6335434E1,3.468563E1,3.0423218E1,0E0,2.779065E1,6.0324993E1,4.0548145E1,2.2257233E-1,1.0713949E1,0E0,7.5993795E0,3.693384E1,3.852604E1,1.7547287E1,1.310504E1,0E0,0E0,0E0,1.7573671E0,2.100771E0,8.445573E0,8.792512E1,2.1157654E1,2.1013336E0,9.452839E0,1.6702917E0,5.715271E0,1.0839924E1,3.2405958E0,0E0,6.1687123E-2,0E0,2.5808716E-1,2.66478E0,4.2984333E0,0E0,0E0,0E0,0E0,0E0,0E0,0E0,0E0,0E0,0E0,0E0,0E0,0E0,0E0,0E0,0E0,0E0,0E0,0E0,0E0,0E0,0E0,0E0,0E0],"parents":[2147483647,0,0,1,1,2,2,3,3,4,4,6,6,7,7,8,8,9,9,10,10,12,12,13,13,14,14,15,15,16,16,20,20,21,21,22,22,23,23,24,24,25,25,26,26,27,27,28,28,29,29,30,30,32,32,34,34,35,35,36,36],"right_children":[2,4,6,8,10,-1,12,14,16,18,20,-1,22,24,26,28,30,-1,-1,-1,32,34,36,38,40,42,44,46,48,50,52,-1,54,-1,56,58,60,-1,-1,-1,-1,-1,-1,-1,-1,-1,-1,-1,-1,-1,-1,-1,-1,-1,-1,-1,-1,-1,-1,-1,-1],"split_conditions":[1.9783999E3,1.96705E3,1.89537E3,1.952475E3,1.9341299E3,-1.3210144E0,1.92473E3,1.955495E3,1.9636399E3,1.89025E3,1.95062E3,9.841992E-1,1.9822849E3,1.90563E3,1.9680449E3,1.834665E3,1.96653E3,-2.9082644E-1,-1.0514649E0,3.5854495E-1,2.052725E3,1.8979199E3,1.98701E3,1.89044E3,1.801425E3,1.97587E3,1.98646E3,1.98536E3,1.965285E3,1.806865E3,1.96444E3,-3.7436697E-1,2.02604E3,1.4023133E-1,2.03572E3,2.010845E3,2.06103E3,7.952638E-3,-9.937821E-1,1.1640259E0,2.6284036E-1,-1.476178E0,-3.6236572E-1,-3.2583985E-1,4.5153812E-1,3.578003E-1,-4.8413087E-2,2.6975098E-1,1.4477326E0,5.873145E-1,3.2453615E-2,-5.321656E-1,-2.5561525E-2,1.3549806E-2,-6.712647E-2,5.4547733E-1,1.3862915E-1,-2.8478396E-1,1.3545736E-2,4.8520756E-1,2.2924805E-2],"split_indices":[25,26,10,20,47,0,52,16,10,0,29,0,18,22,8,42,25,0,0,0,10,14,37,23,7,5,2,0,0,57,0,0,0,0,1,2,34,0,0,0,0,0,0,0,0,0,0,0,0,0,0,0,0,0,0,0,0,0,0,0,0],"split_type":[0,0,0,0,0,0,0,0,0,0,0,0,0,0,0,0,0,0,0,0,0,0,0,0,0,0,0,0,0,0,0,0,0,0,0,0,0,0,0,0,0,0,0,0,0,0,0,0,0,0,0,0,0,0,0,0,0,0,0,0,0],"sum_hessian":[6.58E2,6.26E2,3.2E1,6.1E2,1.6E1,1E0,3.1E1,5.86E2,2.4E1,6E0,1E1,4E0,2.7E1,5.77E2,9E0,7E0,1.7E1,1E0,5E0,2E0,8E0,9E0,1.8E1,5.59E2,1.8E1,4E0,5E0,3E0,4E0,1.3E1,4E0,6E0,2E0,3E0,6E0,1.1E1,7E0,5.52E2,7E0,2E0,1.6E1,3E0,1E0,4E0,1E0,2E0,1E0,1E0,3E0,4E0,9E0,2E0,2E0,1E0,1E0,5E0,1E0,3E0,8E0,4E0,3E0],"tree_param":{"num_deleted":"0","num_feature":"60","num_nodes":"61","size_leaf_vector":"0"}},{"base_weights":[1.8960817E-2,-5.51241E-2,3.358926E-1,3.134338E-2,-2.4050486E0,5.197357E0,1.7374708E-1,-2.4336567E-2,2.8567505E0,-6.143046E0,-6.3126045E-1,6.5966797E-1,6.490031E0,-3.5108235E0,2.6441345E-1,1.5221937E-1,-6.428482E-1,-2.2011718E-1,4.9446816E0,-7.4139404E0,-2.4008381E0,8.437805E-1,-2.2268414E0,2.5259874E0,8.0318995E-2,1.3300632E-2,2.6322777E0,-3.0141602E0,-4.0865618E-1,-5.4885864E-1,5.474243E-1,5.733545E0,5.001831E-1,2.1493733E0,5.0354004E-2,-2.6104534E0,3.741455E-2,4.0768127E0,1.071106E0,-1.39528E0,3.0535638E-1,5.0301313E-2,-3.4403381E0,9.7907715E0,8.952637E-1,-3.7501743E0,-9.725952E-1,-4.07843E0,-2.5927252E-1,3.248291E-1,-1.6809082E-1,3.393148E-1,1.3521729E0,-5.609029E-1,-3.549591E0,2.8384602E0,1.3864693E-1],"categories":[],"categories_nodes":[],"categories_segments":[],"categories_sizes":[],"default_left":[1,1,1,1,1,1,1,1,1,1,1,0,0,0,1,1,1,1,1,0,0,1,1,1,1,1,1,1,1,0,0,0,0,0,1,0,0,0,1,1,1,0,0,0,0,0,0,0,0,0,0,0,0,0,0,0,0],"id":37,"left_children":[1,3,5,7,9,11,13,15,17,19,21,-1,-1,-1,23,25,27,29,31,-1,-1,33,35,37,39,41,43,45,47,-1,-1,-1,-1,-1,49,-1,-1,-1,51,53,55,-1,-1,-1,-1,-1,-1,-1,-1,-1,-1,-1,-1,-1,-1,-1,-1],"loss_changes":[1.5491746E1,1.08783134E2,9.763005E1,8.1403206E1,1.2210003E2,1.918174E1,4.168444E1,5.557242E1,6.533129E1,1.0736038E1,3.482863E1,0E0,0E0,0E0,4.97583E1,1.363975E2,6.1521927E1,1.5620722E0,1.8168793E1,0E0,0E0,8.178906E0,6.1778374E0,1.5939701E1,3.7617332E1,4.822096E1,2.5235716E2,1.1378807E1,5.5955826E1,0E0,0E0,0E0,0E0,0E0,4.1434678E-1,0E0,0E0,0E0,7.752814E-1,2.4971642E1,4.0991108E1,0E0,0E0,0E0,0E0,0E0,0E0,0E0,0E0,0E0,0E0,0E0,0E0,0E0,0E0,0E0,0E0],"parents":[2147483647,0,0,1,1,2,2,3,3,4,4,5,5,6,6,7,7,8,8,9,9,10,10,14,14,15,15,16,16,17,17,18,18,21,21,22,22,23,23,24,24,25,25,26,26,27,27,28,28,34,34,38,38,39,39,40,40],"right_children":[2,4,6,8,10,12,14,16,18,20,22,-1,-1,-1,24,26,28,30,32,-1,-1,34,36,38,40,42,44,46,48,-1,-1,-1,-1,-1,50,-1,-1,-1,52,54,56,-1,-1,-1,-1,-1,-1,-1,-1,-1,-1,-1,-1,-1,-1,-1,-1],"split_conditions":[1.8463401E3,1.84603E3,1.75222E3,1.8306E3,1.8609199E3,1.78736E3,1.74208E3,1.77644E3,1.8127949E3,1.8532E3,1.9407849E3,1.979004E-1,1.9470093E0,-1.0532471E0,1.82701E3,1.77131E3,1.774815E3,1.871315E3,1.950255E3,-2.2241821E0,-7.2025144E-1,1.86947E3,1.9718501E3,1.86055E3,1.813385E3,1.7759851E3,1.7686E3,1.780365E3,1.778585E3,-1.646576E-1,1.642273E-1,1.7200636E0,1.5005493E-1,6.44812E-1,1.901845E3,-7.8313607E-1,1.1224366E-2,1.2230439E0,1.894365E3,1.7961799E3,1.76546E3,1.5090395E-2,-1.0321015E0,2.9372315E0,2.6857913E-1,-1.1250523E0,-2.9177856E-1,-1.2235291E0,-7.778176E-2,9.744874E-2,-5.0427247E-2,1.01794444E-1,4.0565187E-1,-1.6827087E-1,-1.0648774E0,8.515381E-1,4.159408E-2],"split_indices":[24,17,43,16,17,1,35,10,18,18,15,0,0,0,28,9,11,3,0,0,0,9,3,23,44,12,7,22,10,0,0,0,0,0,10,0,0,0,0,44,55,0,0,0,0,0,0,0,0,0,0,0,0,0,0,0,0],"split_type":[0,0,0,0,0,0,0,0,0,0,0,0,0,0,0,0,0,0,0,0,0,0,0,0,0,0,0,0,0,0,0,0,0,0,0,0,0,0,0,0,0,0,0,0,0,0,0,0,0,0,0,0,0,0,0,0,0],"sum_hessian":[6.58E2,5.34E2,1.24E2,5.16E2,1.8E1,3E0,1.21E2,5.07E2,9E0,5E0,1.3E1,1E0,2E0,2E0,1.19E2,3.95E2,1.12E2,4E0,5E0,3E0,2E0,7E0,6E0,8E0,1.11E2,3.75E2,2E1,9E0,1.03E2,3E0,1E0,4E0,1E0,2E0,5E0,5E0,1E0,3E0,5E0,1.4E1,9.7E1,3.72E2,3E0,3E0,1.7E1,6E0,3E0,3E0,1E2,2E0,3E0,2E0,3E0,1.1E1,3E0,5E0,9.2E1],"tree_param":{"num_deleted":"0","num_feature":"60","num_nodes":"57","size_leaf_vector":"0"}},{"base_weights":[1.4449865E-2,1.526904E-3,1.7044678E0,2.1899188E-1,-1.052321E-1,2.6315105E0,2.0926921E-1,8.572358E-2,2.6948354E0,-2.172237E0,3.5158616E-2,3.7194824E-1,-5.8044434E-2,-5.3668637E-3,3.748633E0,3.7817585E0,1.1587728E0,-7.648091E-1,-4.629126E0,2.5292697E0,-2.0352889E-2,-8.316564E-2,3.076538E0,8.5042316E-1,5.3972983E0,1.3968017E0,-1.5686035E-2,2.4580994E0,-1.5227356E0,-9.9209595E-1,-6.046125E0,-5.7006836E-2,5.776367E0,-1.7417457E0,7.359413E-2,4.043692E-2,-2.4109375E0,1.0686849E0,4.0588784E0,-2.1399448E0,1.865153E0,-1.294515E0,-4.2419434E-2,-1.1758627E0,7.963867E-1,1.4619751E0,-2.834282E0,3.0194004E0,-3.7467383E-2],"categories":[],"categories_nodes":[],"categories_segments":[],"categories_sizes":[],"default_left":[1,1,1,1,1,0,1,1,1,1,1,0,0,1,1,0,1,1,1,1,1,1,1,0,0,0,0,0,1,1,0,1,0,1,1,0,0,0,0,0,0,0,0,0,0,0,0,0,0],"id":38,"left_children":[1,3,5,7,9,-1,11,13,15,17,19,-1,-1,21,23,-1,25,27,29,31,33,35,37,-1,-1,-1,-1,-1,39,41,-1,43,-1,45,47,-1,-1,-1,-1,-1,-1,-1,-1,-1,-1,-1,-1,-1,-1],"loss_changes":[1.438998E1,1.5229751E1,6.3798704E0,7.10385E1,1.2775922E2,0E0,1.520485E-1,6.8753265E1,1.39832E1,9.328064E1,5.7232094E1,0E0,0E0,4.8689087E1,1.930091E1,0E0,1.6992416E0,5.0154865E1,4.5538345E1,7.5910324E1,6.5624664E1,5.706577E1,5.524315E0,0E0,0E0,0E0,0E0,0E0,3.7447906E1,1.0938883E0,0E0,6.665387E0,0E0,7.7647446E1,1.2607192E2,0E0,0E0,0E0,0E0,0E0,0E0,0E0,0E0,0E0,0E0,0E0,0E0,0E0,0E0],"parents":[2147483647,0,0,1,1,2,2,3,3,4,4,6,6,7,7,8,8,9,9,10,10,13,13,14,14,16,16,17,17,18,18,19,19,20,20,21,21,22,22,28,28,29,29,31,31,33,33,34,34],"right_children":[2,4,6,8,10,-1,12,14,16,18,20,-1,-1,22,24,-1,26,28,30,32,34,36,38,-1,-1,-1,-1,-1,40,42,-1,44,-1,46,48,-1,-1,-1,-1,-1,-1,-1,-1,-1,-1,-1,-1,-1,-1],"split_conditions":[1.99456E3,1.196365E3,1.9100249E3,1.230935E3,1.21456E3,7.894532E-1,2.029335E3,1.22752E3,1.21804E3,1.2236951E3,1.185205E3,1.1158448E-1,-1.7413331E-2,1.2265549E3,1.1499451E3,1.1345276E0,1.401315E3,1.131165E3,1.1833999E3,1.220505E3,1.209365E3,1.210105E3,1.090985E3,2.5512695E-1,1.6191896E0,4.1904053E-1,-4.705811E-3,7.3742986E-1,1.232155E3,1.336935E3,-1.8138375E0,1.17562E3,1.7329103E0,1.189575E3,1.1930701E3,1.2131076E-2,-7.2328126E-1,3.206055E-1,1.2176635E0,-6.4198345E-1,5.5954593E-1,-3.883545E-1,-1.2725831E-2,-3.5275882E-1,2.3891602E-1,4.3859255E-1,-8.5028464E-1,9.0582013E-1,-1.1240215E-2],"split_indices":[48,19,0,12,20,0,0,34,2,14,25,0,0,51,16,0,0,1,22,22,30,52,12,0,0,0,0,0,1,1,0,15,0,0,47,0,0,0,0,0,0,0,0,0,0,0,0,0,0],"split_type":[0,0,0,0,0,0,0,0,0,0,0,0,0,0,0,0,0,0,0,0,0,0,0,0,0,0,0,0,0,0,0,0,0,0,0,0,0,0,0,0,0,0,0,0,0,0,0,0,0],"sum_hessian":[6.58E2,6.54E2,4E0,2.15E2,4.39E2,2E0,2E0,2.05E2,1E1,2.7E1,4.12E2,1E0,1E0,2.01E2,4E0,5E0,5E0,1.8E1,9E0,8E0,4.04E2,1.97E2,4E0,2E0,2E0,4E0,1E0,3E0,1.5E1,3E0,6E0,5E0,3E0,2E1,3.84E2,1.88E2,9E0,2E0,2E0,1.3E1,2E0,2E0,1E0,2E0,3E0,5E0,1.5E1,1.3E1,3.71E2],"tree_param":{"num_deleted":"0","num_feature":"60","num_nodes":"49","size_leaf_vector":"0"}},{"base_weights":[1.873557E-2,5.804545E-1,-1.946982E-2,-4.2053223E-2,2.8676555E0,-2.1629868E0,8.627734E-3,5.9646946E-1,-7.1566236E-1,1.6442435E0,4.766398E0,-2.4926236E0,7.223511E-2,1.1722982E0,-2.062467E-2,1.1578776E-1,2.2499084E0,-1.1582438E0,2.8877768E-1,2.8302002E-1,1.8239441E0,-6.956177E-1,2.8936768E0,-5.822949E-1,5.6297157E-2,-3.548806E-1,1.1281006E0,2.5357258E0,6.96228E-1,3.5021973E-1,-1.3272151E0,1.0054117E0,-3.2089233E-1,9.6435547E-1,-1.8844726E0,5.132446E-1,4.219287E0,-1.9674486E-1,-2.702459E0,1.4193999E0,-4.974415E-2,-8.8875324E-1,2.3813884E-1,3.0963135E-1,1.25531E0,-1.6036682E0,-4.4250488E-1,7.8125E-2,-4.799398E-1,-2.6012573E0,-1.0549622E0,8.577067E-1,-2.600708E-1,2.0795314E-1,-1.4786621E0,-5.4064636E0,-1.0126495E0,-2.4215552E-1,3.2790256E0,-2.6476746E0,-6.521771E-3],"categories":[],"categories_nodes":[],"categories_segments":[],"categories_sizes":[],"default_left":[1,1,1,1,1,1,1,1,1,1,0,0,0,1,1,1,1,1,1,0,0,1,1,1,1,1,1,0,0,0,1,0,1,0,1,1,0,1,1,1,1,0,0,0,0,0,0,0,0,0,0,0,0,0,0,0,0,0,0,0,0],"id":39,"left_children":[1,3,5,7,9,11,13,15,17,19,-1,-1,-1,21,23,25,27,29,31,-1,-1,33,35,37,39,41,43,-1,-1,-1,45,-1,47,-1,49,51,-1,53,55,57,59,-1,-1,-1,-1,-1,-1,-1,-1,-1,-1,-1,-1,-1,-1,-1,-1,-1,-1,-1,-1],"loss_changes":[1.4153896E1,5.9920208E1,3.7239307E1,1.5050771E1,1.3069382E1,6.074547E0,2.0822714E1,1.4045488E1,7.8917656E0,1.1960754E0,0E0,0E0,0E0,5.024375E1,2.5825987E1,7.547295E0,1.083374E-2,3.5234604E0,2.944091E0,0E0,0E0,1.7605042E1,2.3078674E1,5.8323227E1,7.610138E1,3.694212E0,1.3190222E-1,0E0,0E0,0E0,1.9807606E0,0E0,2.9134604E-1,0E0,2.2867393E-1,1.2885759E0,0E0,3.247243E1,4.4786926E1,1.18209145E2,5.4891922E1,0E0,0E0,0E0,0E0,0E0,0E0,0E0,0E0,0E0,0E0,0E0,0E0,0E0,0E0,0E0,0E0,0E0,0E0,0E0,0E0],"parents":[2147483647,0,0,1,1,2,2,3,3,4,4,5,5,6,6,7,7,8,8,9,9,13,13,14,14,15,15,16,16,17,17,18,18,21,21,22,22,23,23,24,24,25,25,26,26,30,30,32,32,34,34,35,35,37,37,38,38,39,39,40,40],"right_children":[2,4,6,8,10,12,14,16,18,20,-1,-1,-1,22,24,26,28,30,32,-1,-1,34,36,38,40,42,44,-1,-1,-1,46,-1,48,-1,50,52,-1,54,56,58,60,-1,-1,-1,-1,-1,-1,-1,-1,-1,-1,-1,-1,-1,-1,-1,-1,-1,-1,-1,-1],"split_conditions":[1.071115E3,1.099585E3,1.075405E3,1.021625E3,1.0764651E3,1.124585E3,1.0798201E3,1.058325E3,1.13753E3,9.56565E2,1.4299195E0,-7.477871E-1,2.1670533E-2,1.09405E3,1.125505E3,1.082825E3,1.01245E3,9.2366003E2,1.078345E3,8.490601E-2,5.471833E-1,1.0829199E3,1.072895E3,1.16495E3,1.1512151E3,9.72315E2,1.0823301E3,7.607178E-1,2.0886841E-1,1.0506592E-1,1.05037E3,3.0162352E-1,1.09006E3,2.8930664E-1,1.087625E3,1.09861E3,1.2657862E0,1.14165E3,1.1531499E3,1.132835E3,1.148015E3,-2.6662597E-1,7.144166E-2,9.2889406E-2,3.7659302E-1,-4.8110047E-1,-1.3275146E-1,2.34375E-2,-1.4398195E-1,-7.803772E-1,-3.1648865E-1,2.5731203E-1,-7.802124E-2,6.2385943E-2,-4.4359866E-1,-1.6219392E0,-3.0379486E-1,-7.264666E-2,9.837077E-1,-7.943024E-1,-1.9565315E-3],"split_indices":[12,20,11,20,13,0,8,28,42,0,0,0,0,14,10,2,0,2,0,0,0,11,7,29,11,21,0,0,0,0,12,0,3,0,1,6,0,1,24,14,8,0,0,0,0,0,0,0,0,0,0,0,0,0,0,0,0,0,0,0,0],"split_type":[0,0,0,0,0,0,0,0,0,0,0,0,0,0,0,0,0,0,0,0,0,0,0,0,0,0,0,0,0,0,0,0,0,0,0,0,0,0,0,0,0,0,0,0,0,0,0,0,0,0,0,0,0,0,0,0,0,0,0,0,0],"sum_hessian":[6.58E2,4.1E1,6.17E2,3.3E1,8E0,7E0,6.1E2,1.7E1,1.6E1,6E0,2E0,6E0,1E0,1.4E1,5.96E2,1.4E1,3E0,1.1E1,5E0,1E0,5E0,7E0,7E0,7.1E1,5.25E2,1E1,4E0,2E0,1E0,1E0,1E1,2E0,3E0,3E0,4E0,3E0,4E0,6.1E1,1E1,3.7E1,4.88E2,5E0,5E0,1E0,3E0,7E0,3E0,1E0,2E0,1E0,3E0,2E0,1E0,4.7E1,1.4E1,3E0,7E0,2E1,1.7E1,7E0,4.81E2],"tree_param":{"num_deleted":"0","num_feature":"60","num_nodes":"61","size_leaf_vector":"0"}},{"base_weights":[1.4169789E-2,-7.948218E-3,9.0353394E-1,1.1315803E-2,-1.7625906E0,3.2113445E0,3.44465E-1,-4.7827265E-3,1.7078247E0,-2.4382813E0,-4.8909504E-2,6.547974E-1,-3.4509277E-1,6.795144E-2,-3.0998856E-1,6.887512E-1,2.4973145E0,2.72583E-1,-3.4594727E-1,3.2904926E-1,1.0611572E0,-2.5675455E-2,-5.494792E-1,-1.1152583E-2,1.6768646E0,-1.4907227E0,1.8215416E-1,1.8066406E-1,7.978923E-1,4.10319E-1,-7.928467E-2,-6.2683105E-2,2.4169922E-2,4.6889495E-2,-2.7960572E0,2.3869934E0,-1.4990234E0,1.14349365E-1,-3.2913532E0,9.784499E-1,-4.5534968E-1,1.07910156E-1,4.4921875E-1],"categories":[],"categories_nodes":[],"categories_segments":[],"categories_sizes":[],"default_left":[1,1,1,1,1,0,1,1,1,0,1,1,1,1,1,1,0,0,0,1,0,1,0,1,1,1,1,0,0,1,0,0,0,0,0,0,0,0,0,0,0,0,0],"id":40,"left_children":[1,3,5,7,9,-1,11,13,15,-1,17,19,21,23,25,27,-1,-1,-1,29,-1,31,-1,33,35,37,39,-1,-1,41,-1,-1,-1,-1,-1,-1,-1,-1,-1,-1,-1,-1,-1],"loss_changes":[1.29703455E1,2.1788092E1,1.9537407E1,1.7432775E1,7.9861736E0,0E0,3.2218552E0,1.4072963E1,3.1072598E0,0E0,3.8078558E-1,9.745369E-1,3.1231463E-1,6.518172E1,7.116448E1,7.766211E-2,0E0,0E0,0E0,2.6482844E-1,0E0,7.049027E-3,0E0,7.9173874E1,5.770511E1,1.0442146E2,4.461035E1,0E0,0E0,2.2106528E-2,0E0,0E0,0E0,0E0,0E0,0E0,0E0,0E0,0E0,0E0,0E0,0E0,0E0],"parents":[2147483647,0,0,1,1,2,2,3,3,4,4,6,6,7,7,8,8,10,10,11,11,12,12,13,13,14,14,15,15,19,19,21,21,23,23,24,24,25,25,26,26,29,29],"right_children":[2,4,6,8,10,-1,12,14,16,-1,18,20,22,24,26,28,-1,-1,-1,30,-1,32,-1,34,36,38,40,-1,-1,42,-1,-1,-1,-1,-1,-1,-1,-1,-1,-1,-1,-1,-1],"split_conditions":[1.98398E3,1.977625E3,1.9701951E3,1.981145E3,1.8880701E3,9.634034E-1,1.99752E3,1.8143601E3,1.987765E3,-7.314844E-1,1.9938049E3,1.9991001E3,2.02604E3,1.815425E3,1.82345E3,1.784315E3,7.491944E-1,8.1774905E-2,-1.0378418E-1,2.0280549E3,3.183472E-1,1.90271E3,-1.6484377E-1,1.813755E3,1.89639E3,1.8110901E3,1.829225E3,5.4199222E-2,2.393677E-1,1.784225E3,-2.3785401E-2,-1.8804932E-2,7.2509767E-3,1.4066849E-2,-8.388172E-1,7.1609807E-1,-4.4970706E-1,3.4304813E-2,-9.87406E-1,2.9353496E-1,-1.366049E-1,3.237305E-2,1.3476562E-1],"split_indices":[53,52,55,55,0,0,53,45,37,0,0,50,0,57,24,1,0,0,0,8,0,0,0,51,55,29,57,0,0,4,0,0,0,0,0,0,0,0,0,0,0,0,0],"split_type":[0,0,0,0,0,0,0,0,0,0,0,0,0,0,0,0,0,0,0,0,0,0,0,0,0,0,0,0,0,0,0,0,0,0,0,0,0,0,0,0,0,0,0],"sum_hessian":[6.58E2,6.43E2,1.5E1,6.37E2,6E0,2E0,1.3E1,6.32E2,5E0,4E0,2E0,9E0,4E0,5.11E2,1.21E2,3E0,2E0,1E0,1E0,6E0,3E0,2E0,2E0,4.88E2,2.3E1,3.5E1,8.6E1,1E0,2E0,5E0,1E0,1E0,1E0,4.79E2,9E0,1.9E1,4E0,1.9E1,1.6E1,3.8E1,4.8E1,1E0,4E0],"tree_param":{"num_deleted":"0","num_feature":"60","num_nodes":"43","size_leaf_vector":"0"}},{"base_weights":[1.02170445E-2,-1.08875774E-1,1.6027163E-1,-5.1981498E-2,-4.229004E0,9.140422E0,6.682087E-2,1.3980576E-1,-6.550848E-1,-5.2120667E0,-1.4837646E-1,1.1160645E1,2.5499878E0,2.959793E0,-1.5195382E-2,8.6937144E-2,4.9394937E0,-2.0272105E0,1.6518728E-1,-1.1385803E0,5.646533E0,-1.1830965E0,1.8192044E-1,1.2882973E-2,2.5568848E0,-1.3883841E0,-4.670532E0,2.5823505E0,-5.5272883E-1,-8.414713E-2,-2.15094E0,1.6833496E0,6.2164917E0,-2.9472E-1,-2.552765E0,1.5797175E0,4.2580545E-2,-2.8969213E-2,3.7194824E0,4.9675293E0,9.2541504E-1,-2.6624756E0,-1.0667317E-1,-1.7596639E0,5.5160675E0,-1.7612203E0,8.547247E-1,-4.0203857E-1,2.7581787E-1,-2.0538766E0,1.6224271E0,-3.3678823E0,7.345581E-1,3.5053155E0,-3.1705728E-1,-1.089055E0,1.9171731E-1],"categories":[],"categories_nodes":[],"categories_segments":[],"categories_sizes":[],"default_left":[1,1,1,1,1,1,1,1,1,0,0,0,0,1,1,1,0,1,1,1,1,1,1,1,1,1,0,1,1,1,0,0,0,1,1,1,1,0,0,0,0,0,0,0,0,0,0,0,0,0,0,0,0,0,0,0,0],"id":41,"left_children":[1,3,5,7,9,11,13,15,17,-1,-1,-1,-1,19,21,23,-1,25,27,29,31,33,35,37,39,41,-1,43,45,47,-1,-1,-1,49,51,53,55,-1,-1,-1,-1,-1,-1,-1,-1,-1,-1,-1,-1,-1,-1,-1,-1,-1,-1,-1,-1],"loss_changes":[1.1794059E1,8.6043686E1,2.4443619E2,4.2194565E1,1.928421E1,1.1482925E1,6.8853485E1,6.986012E1,9.938031E1,0E0,0E0,0E0,0E0,9.451914E1,6.5365166E1,5.026729E1,0E0,4.9240097E1,9.8605286E1,4.0888667E0,8.297119E-1,4.913568E1,4.7261574E1,4.16824E1,2.6866127E1,4.5440456E1,0E0,1.7530356E2,7.6344765E1,4.5417878E-1,0E0,0E0,0E0,9.101888E1,4.534678E1,8.1464745E1,3.767539E1,0E0,0E0,0E0,0E0,0E0,0E0,0E0,0E0,0E0,0E0,0E0,0E0,0E0,0E0,0E0,0E0,0E0,0E0,0E0,0E0],"parents":[2147483647,0,0,1,1,2,2,3,3,4,4,5,5,6,6,7,7,8,8,13,13,14,14,15,15,17,17,18,18,19,19,20,20,21,21,22,22,23,23,24,24,25,25,27,27,28,28,29,29,33,33,34,34,35,35,36,36],"right_children":[2,4,6,8,10,12,14,16,18,-1,-1,-1,-1,20,22,24,-1,26,28,30,32,34,36,38,40,42,-1,44,46,48,-1,-1,-1,50,52,54,56,-1,-1,-1,-1,-1,-1,-1,-1,-1,-1,-1,-1,-1,-1,-1,-1,-1,-1,-1,-1],"split_conditions":[1.766585E3,1.81002E3,1.528115E3,1.2261E3,1.761325E3,1.787745E3,1.76852E3,1.2447051E3,1.459405E3,-1.5636201E0,-4.4512942E-2,3.3481934E0,7.6499635E-1,1.7613799E3,1.755745E3,1.223625E3,1.4818481E0,1.4503049E3,1.4530701E3,1.768675E3,1.7571951E3,1.73744E3,1.764765E3,1.46724E3,1.1969451E3,1.2205449E3,-1.4011598E0,1.463475E3,1.77586E3,1.75851E3,-6.4528203E-1,5.050049E-1,1.8649476E0,1.542965E3,1.85929E3,1.7906699E3,1.763355E3,-8.690764E-3,1.1158447E0,1.4902588E0,2.7762452E-1,-7.987427E-1,-3.2001954E-2,-5.278992E-1,1.6548203E0,-5.2836615E-1,2.5641742E-1,-1.2061158E-1,8.2745366E-2,-6.16163E-1,4.8672816E-1,-1.0103648E0,2.2036745E-1,1.0515947E0,-9.511719E-2,-3.2671648E-1,5.7515197E-2],"split_indices":[1,27,37,36,0,0,1,46,16,0,0,0,0,2,29,36,0,7,37,0,0,30,25,10,26,6,0,18,21,0,0,0,0,51,16,59,40,0,0,0,0,0,0,0,0,0,0,0,0,0,0,0,0,0,0,0,0],"split_type":[0,0,0,0,0,0,0,0,0,0,0,0,0,0,0,0,0,0,0,0,0,0,0,0,0,0,0,0,0,0,0,0,0,0,0,0,0,0,0,0,0,0,0,0,0,0,0,0,0,0,0,0,0,0,0,0,0],"sum_hessian":[6.58E2,3.67E2,2.91E2,3.63E2,4E0,2E0,2.89E2,2.76E2,8.7E1,3E0,1E0,1E0,1E0,7E0,2.82E2,2.74E2,2E0,3.2E1,5.5E1,3E0,4E0,4E1,2.42E2,2.67E2,7E0,2.7E1,5E0,1.2E1,4.3E1,2E0,1E0,1E0,3E0,2.5E1,1.5E1,2.1E1,2.21E2,2.65E2,2E0,2E0,5E0,1.3E1,1.4E1,5E0,7E0,2.3E1,2E1,1E0,1E0,1.3E1,1.2E1,1.2E1,3E0,1E1,1.1E1,2.5E1,1.96E2],"tree_param":{"num_deleted":"0","num_feature":"60","num_nodes":"57","size_leaf_vector":"0"}},{"base_weights":[1.7674077E-2,4.2014936E-1,-1.89438E-2,-2.6897024E-2,2.7080417E0,-8.9674157E-1,4.645771E-2,-3.783238E-1,9.21321E-1,4.6990967E0,1.7537841E-1,2.5120785E-3,-1.5712866E0,1.3329897E0,-1.8194376E-2,1.1607361E0,-5.5888367E-1,2.050757E0,1.9148763E-1,9.468994E-1,-2.5422668E-1,-4.8956853E-1,6.036648E-1,-2.2612054E0,9.120178E-2,3.4316E-1,2.9813843E0,-4.5506692E-1,9.259005E-2,1.3354492E0,3.1829834E-1,-3.4570312E-1,-1.640918E0,-1.0348075E-1,8.1591797E-1,7.266235E-2,-3.874105E-1,4.918518E-1,-9.1908264E-1,-1.01379395E-1,9.730835E-1,-2.5810018E0,9.151205E-2,7.861328E-1,-4.829834E-1,1.8796387E0,-2.3009382E-1,3.52948E0,5.26001E-1,-2.933001E-1,-3.7611573E0,2.0514374E0,1.6845115E-2,-8.2839686E-1,-3.151788E-2,-1.8268738E0,-4.4854736E-1,-2.2433472E-1,4.324341E-2,-6.713867E-2,-1.1918741E0,6.958008E-2,-3.071289E-1,-1.736914E0,-3.5576477E0,2.6159668E-1,1.1798706E0,-2.2738647E-1,-7.5268555E-1,2.949829E-1,2.202057E0,2.8013915E-1,-1.204541E0,3.8696811E0,5.7403564E-1,-1.18896484E-1,9.0789795E-1,1.0307753E0,-5.6080073E-1,3.0341255E-2,4.068741E0,-2.1009889E0,6.896702E-2],"categories":[],"categories_nodes":[],"categories_segments":[],"categories_sizes":[],"default_left":[1,1,1,1,1,1,1,1,1,0,1,1,1,1,1,1,1,0,1,0,1,1,1,1,1,1,1,1,1,0,0,1,1,1,0,0,0,0,1,1,0,1,0,1,1,1,1,1,1,1,0,1,1,0,0,0,0,0,0,0,0,0,0,0,0,0,0,0,0,0,0,0,0,0,0,0,0,0,0,0,0,0,0],"id":42,"left_children":[1,3,5,7,9,11,13,15,17,-1,19,21,23,25,27,29,31,-1,33,-1,35,37,39,41,43,45,47,49,51,-1,-1,53,55,57,-1,-1,-1,-1,59,61,-1,63,-1,65,67,69,71,73,75,77,-1,79,81,-1,-1,-1,-1,-1,-1,-1,-1,-1,-1,-1,-1,-1,-1,-1,-1,-1,-1,-1,-1,-1,-1,-1,-1,-1,-1,-1,-1,-1,-1],"loss_changes":[9.720163E0,5.6326515E1,3.477429E1,1.601033E1,4.455992E1,2.5480602E1,4.693607E1,1.0374952E1,1.0323206E1,0E0,1.8979739E0,5.9160323E0,2.7733795E1,4.3030914E1,2.6080622E1,1.6366863E-1,6.814126E0,0E0,1.7421167E0,0E0,2.0229545E-1,5.0889254E0,2.4427588E0,1.3026833E1,3.5718417E0,1.6286755E1,1.1601341E1,5.7191772E1,6.376573E1,0E0,0E0,4.220238E0,2.892027E-1,1.3382638E-1,0E0,0E0,0E0,0E0,1.7792039E0,1.6206937E-1,0E0,6.1862946E0,0E0,5.1746845E-1,1.7352474E-1,1.9050407E0,7.29817E0,5.822235E0,8.467991E-1,3.7768116E1,0E0,6.511117E1,4.5954895E1,0E0,0E0,0E0,0E0,0E0,0E0,0E0,0E0,0E0,0E0,0E0,0E0,0E0,0E0,0E0,0E0,0E0,0E0,0E0,0E0,0E0,0E0,0E0,0E0,0E0,0E0,0E0,0E0,0E0,0E0],"parents":[2147483647,0,0,1,1,2,2,3,3,4,4,5,5,6,6,7,7,8,8,10,10,11,11,12,12,13,13,14,14,15,15,16,16,18,18,20,20,21,21,22,22,23,23,24,24,25,25,26,26,27,27,28,28,31,31,32,32,33,33,38,38,39,39,41,41,43,43,44,44,45,45,46,46,47,47,48,48,49,49,51,51,52,52],"right_children":[2,4,6,8,10,12,14,16,18,-1,20,22,24,26,28,30,32,-1,34,-1,36,38,40,42,44,46,48,50,52,-1,-1,54,56,58,-1,-1,-1,-1,60,62,-1,64,-1,66,68,70,72,74,76,78,-1,80,82,-1,-1,-1,-1,-1,-1,-1,-1,-1,-1,-1,-1,-1,-1,-1,-1,-1,-1,-1,-1,-1,-1,-1,-1,-1,-1,-1,-1,-1,-1],"split_conditions":[1.0584E3,1.14913E3,1.08462E3,1.05636E3,1.21378E3,1.115095E3,1.092675E3,1.072105E3,1.05714E3,1.409729E0,1.19226E3,1.02189E3,1.161505E3,1.12429E3,1.190955E3,1.0856699E3,1.0673049E3,6.152271E-1,1.08927E3,2.8406984E-1,1.20363E3,9.5861E2,1.072205E3,1.2181E3,1.16625E3,9.90935E2,1.178355E3,1.18616E3,1.177395E3,4.006348E-1,9.548951E-2,1.082165E3,1.164485E3,1.11031E3,2.447754E-1,2.1798708E-2,-1.1622315E-1,1.4755554E-1,1.001025E3,1.11147E3,2.9192507E-1,1.130075E3,2.7453614E-2,1.1589299E3,1.13876E3,9.50475E2,1.131375E3,1.128975E3,1.16585E3,1.092895E3,-1.1283473E0,1.138175E3,1.190185E3,-2.4851906E-1,-9.455364E-3,-5.4806215E-1,-1.3456422E-1,-6.730042E-2,1.2973023E-2,-2.0141602E-2,-3.5756224E-1,2.0874023E-2,-9.213868E-2,-5.2107424E-1,-1.0672944E0,7.847901E-2,3.539612E-1,-6.8215944E-2,-2.2580567E-1,8.8494875E-2,6.606171E-1,8.4041744E-2,-3.613623E-1,1.1609044E0,1.722107E-1,-3.5668947E-2,2.7236938E-1,3.092326E-1,-1.6824022E-1,9.102377E-3,1.2206223E0,-6.302967E-1,2.0690108E-2],"split_indices":[50,14,47,52,5,7,37,2,59,0,0,28,16,5,50,1,55,0,39,0,0,36,44,4,14,10,4,50,56,0,0,21,4,9,0,0,0,0,5,0,0,9,0,0,0,0,59,19,0,50,0,58,56,0,0,0,0,0,0,0,0,0,0,0,0,0,0,0,0,0,0,0,0,0,0,0,0,0,0,0,0,0,0],"split_type":[0,0,0,0,0,0,0,0,0,0,0,0,0,0,0,0,0,0,0,0,0,0,0,0,0,0,0,0,0,0,0,0,0,0,0,0,0,0,0,0,0,0,0,0,0,0,0,0,0,0,0,0,0,0,0,0,0,0,0,0,0,0,0,0,0,0,0,0,0,0,0,0,0,0,0,0,0,0,0,0,0,0,0],"sum_hessian":[6.58E2,5.4E1,6.04E2,4.6E1,8E0,4.1E1,5.63E2,3.4E1,1.2E1,4E0,4E0,1.8E1,2.3E1,2.6E1,5.37E2,3E0,3.1E1,4E0,8E0,1E0,3E0,1E1,8E0,1.6E1,7E0,1.7E1,9E0,1.08E2,4.29E2,2E0,1E0,2.7E1,4E0,6E0,2E0,1E0,2E0,3E0,7E0,3E0,5E0,1.4E1,2E0,3E0,4E0,4E0,1.3E1,7E0,2E0,1.04E2,4E0,1.5E1,4.14E2,1E1,1.7E1,3E0,1E0,3E0,3E0,2E0,5E0,2E0,1E0,9E0,5E0,2E0,1E0,3E0,1E0,1E0,3E0,9E0,4E0,6E0,1E0,1E0,1E0,1.7E1,8.7E1,8E0,7E0,9E0,4.05E2],"tree_param":{"num_deleted":"0","num_feature":"60","num_nodes":"83","size_leaf_vector":"0"}},{"base_weights":[1.574883E-2,1.040086E-1,-1.8022163E-1,3.0621115E-2,1.8839926E0,-1.3909302E0,4.3473165E-2,5.3613644E-2,-3.321167E0,3.9237836E-1,3.699463E0,-1.8029981E0,7.064819E-2,2.2470984E0,-1.3362932E-1,1.1697267E-2,2.2946777E0,-9.661255E-1,-4.015625E0,1.1340942E0,-1.189148E0,4.9703164E0,-7.5398766E-2,-1.1865913E0,-2.9645386E0,-4.9274904E-1,7.5723267E-1,3.9219797E0,2.5120327E-1,-1.4239502E0,7.930647E-2,1.1135426E-1,-9.6025085E-1,3.6404052E0,3.8848877E-2,2.631022E-1,1.3805746E0,1.418396E0,5.3970213E0,2.241211E-1,-3.3721924E-1,-5.261928E-1,-2.7983887E0,1.9124349E-3,-8.231608E-1,4.5613608E-1,5.2170897E0,7.9318845E-1,-7.3583984E-1,-7.476871E-1,-3.70896E0,1.020752E0,-1.1448839E-1,1.0368368E-2,2.8228061E0,3.5691833E-1,-1.7648292E0,3.6991373E-1,-4.7717285E-1,3.373413E-1,5.731201E-2,9.163005E-1,-8.4296674E-1,3.90625E-2,-3.6193848E-2,5.811096E0,1.4205322E0,1.1628113E0,-3.4265137E-1,-1.9783936E0,5.577881E-1,-9.6313477E-1,-4.1546326E0,-1.2430514E-1,2.1761677E0,-3.0234985E0,-6.334607E-2],"categories":[],"categories_nodes":[],"categories_segments":[],"categories_sizes":[],"default_left":[1,1,1,1,1,1,1,1,1,1,1,1,1,1,1,1,1,0,0,1,0,1,1,1,0,1,0,1,1,1,1,1,1,0,1,1,0,0,0,0,0,1,0,1,0,0,1,1,0,1,1,1,1,0,0,0,0,0,0,0,0,0,0,0,0,0,0,0,0,0,0,0,0,0,0,0,0],"id":43,"left_children":[1,3,5,7,9,11,13,15,17,19,21,23,25,27,29,31,33,-1,-1,35,-1,37,39,41,-1,43,-1,45,47,49,51,53,55,-1,57,59,-1,-1,-1,-1,-1,61,-1,63,-1,-1,65,67,-1,69,71,73,75,-1,-1,-1,-1,-1,-1,-1,-1,-1,-1,-1,-1,-1,-1,-1,-1,-1,-1,-1,-1,-1,-1,-1,-1],"loss_changes":[1.1417011E1,5.93783E1,5.5580456E1,3.393301E1,4.729207E1,1.9400005E1,6.8206825E1,4.0929813E1,1.0268364E0,1.4252081E1,3.8753128E1,1.4381844E1,3.4676838E0,4.247232E1,4.4623318E1,4.166048E1,2.4144424E1,0E0,0E0,1.3542271E0,0E0,1.4386292E0,3.1083924E-1,1.7687222E1,0E0,8.187841E-1,0E0,2.904084E1,4.328399E0,3.2768017E1,2.5659487E1,1.067599E2,4.3020535E1,0E0,8.598594E-1,2.6499316E-2,0E0,0E0,0E0,0E0,0E0,7.1696305E0,0E0,5.6607747E-3,0E0,0E0,3.0210571E0,2.4976003E0,0E0,3.1630001E1,2.117218E0,3.202292E1,1.7214975E1,0E0,0E0,0E0,0E0,0E0,0E0,0E0,0E0,0E0,0E0,0E0,0E0,0E0,0E0,0E0,0E0,0E0,0E0,0E0,0E0,0E0,0E0,0E0,0E0],"parents":[2147483647,0,0,1,1,2,2,3,3,4,4,5,5,6,6,7,7,8,8,9,9,10,10,11,11,12,12,13,13,14,14,15,15,16,16,19,19,21,21,22,22,23,23,25,25,27,27,28,28,29,29,30,30,31,31,32,32,34,34,35,35,41,41,43,43,46,46,47,47,49,49,50,50,51,51,52,52],"right_children":[2,4,6,8,10,12,14,16,18,20,22,24,26,28,30,32,34,-1,-1,36,-1,38,40,42,-1,44,-1,46,48,50,52,54,56,-1,58,60,-1,-1,-1,-1,-1,62,-1,64,-1,-1,66,68,-1,70,72,74,76,-1,-1,-1,-1,-1,-1,-1,-1,-1,-1,-1,-1,-1,-1,-1,-1,-1,-1,-1,-1,-1,-1,-1,-1],"split_conditions":[1.787865E3,1.7869451E3,1.796975E3,1.7957849E3,1.779875E3,1.84402E3,1.756875E3,1.791E3,1.8654751E3,1.789135E3,1.7977151E3,1.826385E3,1.81195E3,1.787865E3,1.773595E3,1.759905E3,1.949625E3,-2.8983766E-1,-1.2046876E0,1.82024E3,-3.567444E-1,1.7847849E3,1.875005E3,1.822645E3,-8.893616E-1,1.8719451E3,2.2716981E-1,1.7503899E3,1.75386E3,1.78419E3,1.794315E3,1.7868201E3,1.7818899E3,1.0921216E0,1.97514E3,1.832495E3,4.1417238E-1,4.255188E-1,1.6191064E0,6.7236334E-2,-1.0116578E-1,1.78639E3,-8.3951664E-1,1.8679751E3,-2.4694826E-1,1.3684084E-1,1.76586E3,1.76055E3,-2.2075196E-1,1.78598E3,1.735605E3,1.7840701E3,1.746955E3,3.1105105E-3,8.468419E-1,1.07075505E-1,-5.2944875E-1,1.10974126E-1,-1.4315186E-1,1.012024E-1,1.7193604E-2,2.7489015E-1,-2.5289002E-1,1.171875E-2,-1.0858155E-2,1.7433289E0,4.2615968E-1,3.488434E-1,-1.02795415E-1,-5.935181E-1,1.6733643E-1,-2.8894043E-1,-1.2463899E0,-3.729154E-2,6.5285033E-1,-9.070496E-1,-1.9003823E-2],"split_indices":[58,59,55,57,23,11,5,56,0,49,45,4,33,32,9,58,1,0,0,7,0,0,0,14,0,3,0,2,3,12,9,41,42,0,0,0,0,0,0,0,0,59,0,0,0,0,2,2,0,29,0,12,35,0,0,0,0,0,0,0,0,0,0,0,0,0,0,0,0,0,0,0,0,0,0,0,0],"split_type":[0,0,0,0,0,0,0,0,0,0,0,0,0,0,0,0,0,0,0,0,0,0,0,0,0,0,0,0,0,0,0,0,0,0,0,0,0,0,0,0,0,0,0,0,0,0,0,0,0,0,0,0,0,0,0,0,0,0,0,0,0,0,0,0,0,0,0,0,0,0,0,0,0,0,0,0,0],"sum_hessian":[6.58E2,4.54E2,2.04E2,4.37E2,1.7E1,3.1E1,1.73E2,4.35E2,2E0,1E1,7E0,2.4E1,7E0,1.2E1,1.61E2,4.28E2,7E0,1E0,1E0,7E0,3E0,5E0,2E0,1.7E1,7E0,4E0,3E0,6E0,6E0,2.2E1,1.39E2,3.89E2,3.9E1,4E0,3E0,2E0,5E0,1E0,4E0,1E0,1E0,1.3E1,4E0,2E0,2E0,2E0,4E0,4E0,2E0,1.8E1,4E0,2.3E1,1.16E2,3.76E2,1.3E1,1.5E1,2.4E1,2E0,1E0,1E0,1E0,2E0,1.1E1,1E0,1E0,3E0,1E0,3E0,1E0,9E0,9E0,1E0,3E0,1.2E1,1.1E1,1E0,1.15E2],"tree_param":{"num_deleted":"0","num_feature":"60","num_nodes":"77","size_leaf_vector":"0"}},{"base_weights":[1.1839895E-2,4.683431E-1,-1.9203754E-2,-1.2745577E-2,2.233751E0,-7.5733715E-1,2.2396257E-2,-2.609253E-1,7.0563424E-1,1.428009E0,4.3398438E0,-2.0539856E-1,-2.006256E0,1.2733994E0,-3.0972252E-2,2.8092042E-1,-5.6430954E-1,1.4725586E0,-2.0241699E-1,3.2043457E-1,1.5404576E0,-2.2946777E0,8.883944E-2,-3.0413818E-1,-3.0903118E0,2.0788002E0,-2.999132E-1,-1.7767792E0,-5.7970225E-3,1.0687662E0,-4.963684E-2,-9.118652E-2,-9.7473145E-1,2.9703777E-3,-3.4033203E-1,1.1026459E0,-4.5777994E-1,-7.1398926E-1,-2.31781E-2,9.247691E-1,4.432715E0,-1.5582682E0,2.8222656E-1,-9.2916435E-1,-3.8550415E0,-1.7351806E0,9.8781865E-3,2.0385742E-1,-3.5409546E-1,-6.5339357E-1,4.892578E-1,-2.769165E-1,-1.0273438E0,-4.7424316E-2,5.1879883E-2,1.7374512E0,3.3477783E-2,-7.067026E-1,7.734782E-1,1.9915771E-1,-1.6367595E-1,1.4373719E0,-1.0921631E0,-1.3330078E-1,8.806966E-1,-1.2084961E-2,-2.1629333E0,5.6002945E-1,-3.7698504E-2],"categories":[],"categories_nodes":[],"categories_segments":[],"categories_sizes":[],"default_left":[1,1,1,1,1,1,1,1,1,1,0,1,1,1,1,1,1,0,1,0,0,0,1,1,0,1,1,1,1,0,1,1,1,1,0,1,1,0,1,1,0,0,1,0,0,1,1,0,0,0,0,0,0,0,0,0,0,0,0,0,0,0,0,0,0,0,0,0,0],"id":44,"left_children":[1,3,5,7,9,11,13,15,17,19,-1,21,23,25,27,29,31,-1,33,-1,-1,-1,35,37,-1,39,41,43,45,-1,47,49,51,53,-1,55,57,-1,59,61,-1,-1,63,-1,-1,65,67,-1,-1,-1,-1,-1,-1,-1,-1,-1,-1,-1,-1,-1,-1,-1,-1,-1,-1,-1,-1,-1,-1],"loss_changes":[9.348028E0,3.5699818E1,1.899349E1,6.245886E0,9.075371E0,2.23357E1,3.9163242E1,4.4325995E0,6.5657306E0,5.027447E-1,0E0,1.4957746E1,1.7512024E1,3.1034992E1,2.4734163E1,2.657332E0,3.2121787E0,0E0,1.4264095E-1,0E0,0E0,0E0,1.2696427E1,5.5920994E-1,0E0,3.9364616E1,7.0326314E0,1.0510559E1,1.5089438E1,0E0,6.896131E-1,3.2566469E0,4.5933723E-2,9.854707E-3,0E0,5.371543E0,5.143939E0,0E0,1.5754813E-1,1.3976464E1,0E0,0E0,1.8581622E0,0E0,0E0,3.6591558E0,1.4469368E1,0E0,0E0,0E0,0E0,0E0,0E0,0E0,0E0,0E0,0E0,0E0,0E0,0E0,0E0,0E0,0E0,0E0,0E0,0E0,0E0,0E0,0E0],"parents":[2147483647,0,0,1,1,2,2,3,3,4,4,5,5,6,6,7,7,8,8,9,9,11,11,12,12,13,13,14,14,15,15,16,16,18,18,22,22,23,23,25,25,26,26,27,27,28,28,30,30,31,31,32,32,33,33,35,35,36,36,38,38,39,39,42,42,45,45,46,46],"right_children":[2,4,6,8,10,12,14,16,18,20,-1,22,24,26,28,30,32,-1,34,-1,-1,-1,36,38,-1,40,42,44,46,-1,48,50,52,54,-1,56,58,-1,60,62,-1,-1,64,-1,-1,66,68,-1,-1,-1,-1,-1,-1,-1,-1,-1,-1,-1,-1,-1,-1,-1,-1,-1,-1,-1,-1,-1,-1],"split_conditions":[1.071115E3,1.099585E3,1.089155E3,1.133155E3,1.06806E3,1.09938E3,1.09571E3,1.049095E3,1.11425E3,9.56565E2,1.3019532E0,1.0560549E3,1.087135E3,1.13884E3,1.08652E3,1.003245E3,1.080005E3,4.417676E-1,1.09006E3,9.613038E-2,4.621373E-1,-6.8840337E-1,1.07994E3,1.097635E3,-9.2709357E-1,1.1514551E3,1.104235E3,1.08327E3,1.09379E3,3.206299E-1,1.082165E3,1.0663999E3,9.5914E2,1.04554E3,-1.0209961E-1,1.09029E3,1.148085E3,-2.1419679E-1,1.09296E3,1.15046E3,1.3298146E0,-4.6748048E-1,1.108815E3,-2.7874932E-1,-1.1565125E0,1.0801E3,1.13753E3,6.115723E-2,-1.0622864E-1,-1.9601808E-1,1.4677735E-1,-8.307496E-2,-3.0820313E-1,-1.4227295E-2,1.5563966E-2,5.212354E-1,1.0043335E-2,-2.1201079E-1,2.3204347E-1,5.9747316E-2,-4.9102787E-2,4.3121156E-1,-3.2764894E-1,-3.9990235E-2,2.64209E-1,-3.6254884E-3,-6.4888E-1,1.6800883E-1,-1.1309551E-2],"split_indices":[12,20,11,46,12,3,6,30,35,0,0,9,32,21,3,2,32,0,3,0,0,0,10,2,0,31,14,3,10,0,1,32,3,0,0,16,39,0,0,29,0,0,4,0,0,0,3,0,0,0,0,0,0,0,0,0,0,0,0,0,0,0,0,0,0,0,0,0,0],"split_type":[0,0,0,0,0,0,0,0,0,0,0,0,0,0,0,0,0,0,0,0,0,0,0,0,0,0,0,0,0,0,0,0,0,0,0,0,0,0,0,0,0,0,0,0,0,0,0,0,0,0,0,0,0,0,0,0,0,0,0,0,0,0,0,0,0,0,0,0,0],"sum_hessian":[6.58E2,4.1E1,6.17E2,3.3E1,8E0,3.2E1,5.85E2,2.5E1,8E0,7E0,1E0,2.3E1,9E0,2.3E1,5.62E2,9E0,1.6E1,4E0,4E0,1E0,6E0,2E0,2.1E1,4E0,5E0,1.5E1,8E0,7E0,5.55E2,2E0,7E0,8E0,8E0,2E0,2E0,7E0,1.4E1,1E0,3E0,1.1E1,4E0,2E0,6E0,6E0,1E0,4E0,5.51E2,4E0,3E0,4E0,4E0,1E0,7E0,1E0,1E0,4E0,3E0,1.2E1,2E0,1E0,2E0,9E0,2E0,4E0,2E0,1E0,3E0,4.3E1,5.08E2],"tree_param":{"num_deleted":"0","num_feature":"60","num_nodes":"69","size_leaf_vector":"0"}},{"base_weights":[8.366355E-3,-1.1196951E-2,6.679302E-1,2.891481E-3,-3.0083008E0,1.6119385E0,1.0823881E-1,1.5372401E-2,-1.5827637E0,-3.7126465E0,-7.998047E-1,1.9720459E0,4.7444662E-1,6.541443E-1,-1.20947264E-1,-3.7297085E-3,9.2962176E-1,5.192566E-2,-5.41626E-1,2.6902372E-2,-1.2471435E0,1.7687378E0,1.8408203E-1,1.5463257E-1,-4.0625E-2,1.2489306E-2,1.7655029E0,-2.4982038E0,-1.3552517E-1,3.7074497E-1,-5.612793E-1,-9.448242E-2,2.6774088E-2],"categories":[],"categories_nodes":[],"categories_segments":[],"categories_sizes":[],"default_left":[1,1,1,1,1,1,1,1,0,0,0,0,0,0,1,1,1,1,0,1,1,0,1,0,1,0,0,0,0,0,0,0,0],"id":45,"left_children":[1,3,5,7,9,11,13,15,-1,-1,-1,-1,-1,-1,17,19,21,23,-1,25,27,-1,29,-1,31,-1,-1,-1,-1,-1,-1,-1,-1],"loss_changes":[8.51072E0,2.7074598E1,9.864239E0,1.2670419E1,1.6972427E0,1.9317036E0,1.7055981E0,1.1093165E1,0E0,0E0,0E0,0E0,0E0,0E0,7.5536394E-1,2.3762594E1,7.8071327E0,8.232668E-2,0E0,1.5238617E1,2.0521954E1,0E0,1.3211422E0,0E0,2.0679388E-2,0E0,0E0,0E0,0E0,0E0,0E0,0E0,0E0],"parents":[2147483647,0,0,1,1,2,2,3,3,4,4,5,5,6,6,7,7,14,14,15,15,16,16,17,17,19,19,20,20,22,22,24,24],"right_children":[2,4,6,8,10,12,14,16,-1,-1,-1,-1,-1,-1,18,20,22,24,-1,26,28,-1,30,-1,32,-1,-1,-1,-1,-1,-1,-1,-1],"split_conditions":[1.991825E3,1.99436E3,1.9795149E3,1.99752E3,1.931595E3,1.9546E3,1.9516799E3,1.9783999E3,-4.748291E-1,-1.113794E0,-2.3994142E-1,5.9161377E-1,1.42334E-1,1.962433E-1,2.02792E3,1.96705E3,1.9279451E3,2.05438E3,-1.624878E-1,1.9742251E3,1.9341299E3,5.3062135E-1,2.04275E3,4.6389773E-2,2.01113E3,3.746792E-3,5.296509E-1,-7.494612E-1,-4.065755E-2,1.112235E-1,-1.6838379E-1,-2.8344728E-2,8.032227E-3],"split_indices":[26,25,32,32,0,48,58,25,0,0,0,0,0,0,4,26,56,29,0,24,47,0,0,0,4,0,0,0,0,0,0,0,0],"split_type":[0,0,0,0,0,0,0,0,0,0,0,0,0,0,0,0,0,0,0,0,0,0,0,0,0,0,0,0,0,0,0,0,0],"sum_hessian":[6.58E2,6.4E2,1.8E1,6.38E2,2E0,6E0,1.2E1,6.34E2,4E0,1E0,1E0,4E0,2E0,3E0,9E0,6.22E2,1.2E1,7E0,2E0,6.08E2,1.4E1,5E0,7E0,3E0,4E0,6.04E2,4E0,6E0,8E0,6E0,1E0,2E0,2E0],"tree_param":{"num_deleted":"0","num_feature":"60","num_nodes":"33","size_leaf_vector":"0"}},{"base_weights":[4.5830086E-3,-6.1118778E-2,1.8110801E-1,1.3930976E-2,-1.7057291E0,1.3236887E0,-1.2592842E-1,-8.000536E-3,2.5216064E0,4.0671793E-1,-2.3912888E0,-5.036288E-1,1.9942888E0,-9.611726E-1,6.956745E-2,6.550226E-2,-8.7143624E-1,-9.4677734E-1,1.3201599E0,-3.2202148E-1,-2.5077717E0,-9.280599E-1,9.375407E-1,-8.562622E-1,2.3706055E0,-4.2957073E-1,-3.2143066E0,-1.807251E0,1.8836892E-1,-2.333202E-2,1.6114608E0,-4.104065E0,-4.5319527E-1,-2.900038E0,-1.6451765E0,-1.138977E0,-3.796692E-1,9.1693115E-1,-1.7529703E0,5.8625793E-1,3.0319486E0,-3.216874E-2,-1.8537842E0,-3.6117554E0,-8.1225586E-1,-2.631429E0,-9.5129395E-1,1.1732584E0,-8.548991E-2,-7.020721E-3,-3.2739258E0,8.442749E0,5.5882627E-1,-1.1862386E-1,-2.8491821E0,-7.5E-1,-3.0750427E0,-1.1853027E-1,8.409424E-1,4.287531E0,9.2652893E-1,-1.4226806E0,4.3347982E-1,-5.3344727E-1,-2.0505066E0,2.8466797E-1,2.3888183E0,-4.9468845E-1,2.7328947E-1],"categories":[],"categories_nodes":[],"categories_segments":[],"categories_sizes":[],"default_left":[1,1,1,1,1,1,1,1,0,1,1,1,1,1,1,1,1,0,0,0,1,1,0,1,1,1,1,1,1,1,1,0,1,1,0,0,0,0,0,1,1,1,1,0,0,0,0,1,1,0,0,0,0,0,0,0,0,0,0,0,0,0,0,0,0,0,0,0,0],"id":46,"left_children":[1,3,5,7,9,11,13,15,-1,17,19,21,23,25,27,29,31,-1,-1,-1,33,35,-1,37,39,41,43,45,47,49,51,-1,53,55,-1,-1,-1,-1,-1,57,59,61,63,-1,-1,-1,-1,65,67,-1,-1,-1,-1,-1,-1,-1,-1,-1,-1,-1,-1,-1,-1,-1,-1,-1,-1,-1,-1],"loss_changes":[7.6541567E0,5.9392437E1,6.2962383E1,2.5373844E1,3.1384953E1,4.7569557E1,2.3253592E1,2.9124025E1,0E0,8.667934E0,3.0490036E0,7.598542E0,3.2065735E1,3.0959024E1,2.6204807E1,5.812993E1,4.68127E1,0E0,0E0,0E0,3.0443573E-1,6.085501E-1,0E0,7.9675007E0,2.7724136E1,1.2958027E1,1.8397903E0,2.4349651E0,2.9769577E1,2.1238598E1,1.6067152E2,0E0,2.6115768E1,1.0801163E0,0E0,0E0,0E0,0E0,0E0,1.5356658E0,4.3610977E1,1.291901E1,2.048626E-1,0E0,0E0,0E0,0E0,2.5243221E1,1.2907837E1,0E0,0E0,0E0,0E0,0E0,0E0,0E0,0E0,0E0,0E0,0E0,0E0,0E0,0E0,0E0,0E0,0E0,0E0,0E0,0E0],"parents":[2147483647,0,0,1,1,2,2,3,3,4,4,5,5,6,6,7,7,9,9,10,10,11,11,12,12,13,13,14,14,15,15,16,16,20,20,21,21,23,23,24,24,25,25,26,26,27,27,28,28,29,29,30,30,32,32,33,33,39,39,40,40,41,41,42,42,47,47,48,48],"right_children":[2,4,6,8,10,12,14,16,-1,18,20,22,24,26,28,30,32,-1,-1,-1,34,36,-1,38,40,42,44,46,48,50,52,-1,54,56,-1,-1,-1,-1,-1,58,60,62,64,-1,-1,-1,-1,66,68,-1,-1,-1,-1,-1,-1,-1,-1,-1,-1,-1,-1,-1,-1,-1,-1,-1,-1,-1,-1],"split_conditions":[1.811315E3,1.810985E3,1.832675E3,1.909805E3,1.7686499E3,1.79285E3,1.82345E3,1.793735E3,7.5648195E-1,1.7552251E3,1.72903E3,1.85931E3,1.75278E3,1.82675E3,1.87679E3,1.787375E3,1.794855E3,-2.840332E-1,3.9604798E-1,-9.660645E-2,1.814875E3,1.8137949E3,2.8126222E-1,1.8448999E3,1.758E3,1.8255249E3,1.9395901E3,1.7689199E3,1.831385E3,1.84603E3,1.67564E3,-1.2312195E0,1.796335E3,1.799905E3,-4.9355298E-1,-3.4169313E-1,-1.1390076E-1,2.7507937E-1,-5.258911E-1,1.817875E3,1.7902051E3,1.751485E3,1.9099451E3,-1.0835266E0,-2.4367677E-1,-7.894287E-1,-2.853882E-1,1.8137749E3,1.975125E3,-2.1062165E-3,-9.821778E-1,2.5328248E0,1.6764788E-1,-3.5587158E-2,-8.547547E-1,-2.2500001E-1,-9.225128E-1,-3.5559084E-2,2.5228274E-1,1.2862593E0,2.779587E-1,-4.268042E-1,1.3004395E-1,-1.6003418E-1,-6.15152E-1,8.5400395E-2,7.166455E-1,-1.4840654E-1,8.1986845E-2],"split_indices":[10,14,11,31,36,16,24,4,0,34,42,4,52,45,11,3,4,0,0,0,18,11,0,0,48,34,5,38,33,17,24,0,59,13,0,0,0,0,0,8,49,30,0,0,0,0,0,46,12,0,0,0,0,0,0,0,0,0,0,0,0,0,0,0,0,0,0,0,0],"split_type":[0,0,0,0,0,0,0,0,0,0,0,0,0,0,0,0,0,0,0,0,0,0,0,0,0,0,0,0,0,0,0,0,0,0,0,0,0,0,0,0,0,0,0,0,0,0,0,0,0,0,0,0,0,0,0,0,0,0,0,0,0,0,0,0,0,0,0,0,0],"sum_hessian":[6.58E2,4.8E2,1.78E2,4.6E2,2E1,3.7E1,1.41E2,4.57E2,3E0,5E0,1.5E1,1E1,2.7E1,2.6E1,1.15E2,4.22E2,3.5E1,2E0,3E0,1E0,1.4E1,8E0,2E0,3E0,2.4E1,2.2E1,4E0,6E0,1.09E2,4E2,2.2E1,3E0,3.2E1,8E0,6E0,5E0,3E0,1E0,2E0,7E0,1.7E1,1.8E1,4E0,3E0,1E0,2E0,4E0,2.3E1,8.6E1,3.99E2,1E0,2E0,2E1,2.9E1,3E0,1E0,7E0,2E0,5E0,1E1,7E0,4E0,1.4E1,1E0,3E0,1.4E1,9E0,4E1,4.6E1],"tree_param":{"num_deleted":"0","num_feature":"60","num_nodes":"69","size_leaf_vector":"0"}},{"base_weights":[-8.3967333E-4,-2.1118164E-1,4.879315E-2,8.288281E-2,-1.5316826E0,1.32396E0,-1.38107E-2,-1.9872248E-1,1.2053572E0,-1.901991E-1,-2.2344604E0,2.3070679E0,3.8672748E-1,-1.2299118E0,2.552552E-2,-1.3548407E-1,-2.723755E0,3.7229004E0,7.4441046E-1,3.4438476E-1,-6.8674314E-1,-3.3070145E0,-8.825989E-1,1.2890625E-2,3.4525452E0,-5.668674E-1,1.7526652E0,-2.1147683E0,5.9731036E-1,1.7918258E0,-1.4587528E-2,7.884584E-2,-6.083937E-1,-5.2526854E-2,1.4669068E0,5.745036E-1,-5.289714E-4,-1.1158447E0,-2.8727213E-2,-8.262126E-1,-3.9962463E0,5.0480145E-1,-1.4291992E0,6.586914E-1,-6.3720703E-1,3.8993938E0,1.4079996E0,3.7036133E-1,-1.0972086E0,2.2155762E-1,2.0145752E0,-8.156738E-1,-4.184265E0,1.0515442E0,-2.0743816E-1,2.954834E0,-1.9475098E-1,-5.2565825E-1,4.668036E-2,-1.05695285E-1,1.4384592E0,-1.1663107E0,-1.2150065E-1,8.5461426E-1,-2.4827746E-1,1.880722E0,-1.2556966E-1,-1.1767578E-1,1.16882324E-1,-1.9683838E-1,1.5374756E-1,-1.8554688E-1,-1.053772E0,1.749878E-1,8.130493E-1,-3.5807292E-3,7.4609375E-1,-1.2331054E0,-2.088623E-1,3.0415854E-1,-1.2396444E0,4.708252E-1,1.3968506E0,-4.5776367E-1,1.4660645E-1,9.7542316E-1,3.5515137E0,-9.385579E-1,6.1397296E-1,8.750763E-1,-1.1171743E0,2.1182659E0,-1.2198374E-2],"categories":[],"categories_nodes":[],"categories_segments":[],"categories_sizes":[],"default_left":[1,1,1,1,1,1,1,1,1,1,1,1,1,1,1,1,0,0,1,1,1,1,1,1,1,1,1,1,1,1,1,1,1,1,1,0,1,0,1,1,0,0,0,1,0,0,0,1,1,0,0,1,0,1,1,1,1,1,1,0,0,0,0,0,0,0,0,0,0,0,0,0,0,0,0,0,0,0,0,0,0,0,0,0,0,0,0,0,0,0,0,0,0],"id":47,"left_children":[1,3,5,7,9,11,13,15,17,19,21,23,25,27,29,31,-1,-1,33,35,37,39,41,43,45,47,49,51,53,55,57,59,61,63,65,-1,67,-1,69,71,-1,-1,-1,73,-1,-1,-1,75,77,-1,-1,79,-1,81,83,85,87,89,91,-1,-1,-1,-1,-1,-1,-1,-1,-1,-1,-1,-1,-1,-1,-1,-1,-1,-1,-1,-1,-1,-1,-1,-1,-1,-1,-1,-1,-1,-1,-1,-1,-1,-1],"loss_changes":[6.890176E0,4.905431E1,4.2647694E1,3.311338E1,2.1258606E1,2.214281E1,2.4428171E1,1.3044013E1,2.1598154E1,2.6255038E0,1.8830406E1,3.1490627E1,1.9229244E1,2.7132444E1,3.5097725E1,8.460741E0,0E0,0E0,1.10169525E1,3.9715958E-1,1.3797233E0,1.0377029E1,6.7882895E0,2.5188906E0,1.8184738E0,4.8798237E0,1.9597301E0,2.6160194E1,2.4113944E0,2.598991E1,1.5210967E1,1.4704503E1,6.9210854E0,1.9879155E0,6.8260727E0,0E0,5.5017296E-2,0E0,1.2229156E-1,2.4184442E-1,0E0,0E0,0E0,8.1716776E-2,0E0,0E0,0E0,5.646802E-1,4.6679115E-1,0E0,0E0,4.1752563E0,0E0,1.4443159E-1,3.329903E-1,4.8032875E0,3.5839217E0,4.4062576E1,5.2961834E1,0E0,0E0,0E0,0E0,0E0,0E0,0E0,0E0,0E0,0E0,0E0,0E0,0E0,0E0,0E0,0E0,0E0,0E0,0E0,0E0,0E0,0E0,0E0,0E0,0E0,0E0,0E0,0E0,0E0,0E0,0E0,0E0,0E0,0E0],"parents":[2147483647,0,0,1,1,2,2,3,3,4,4,5,5,6,6,7,7,8,8,9,9,10,10,11,11,12,12,13,13,14,14,15,15,18,18,19,19,20,20,21,21,22,22,23,23,24,24,25,25,26,26,27,27,28,28,29,29,30,30,31,31,32,32,33,33,34,34,36,36,38,38,39,39,43,43,47,47,48,48,51,51,53,53,54,54,55,55,56,56,57,57,58,58],"right_children":[2,4,6,8,10,12,14,16,18,20,22,24,26,28,30,32,-1,-1,34,36,38,40,42,44,46,48,50,52,54,56,58,60,62,64,66,-1,68,-1,70,72,-1,-1,-1,74,-1,-1,-1,76,78,-1,-1,80,-1,82,84,86,88,90,92,-1,-1,-1,-1,-1,-1,-1,-1,-1,-1,-1,-1,-1,-1,-1,-1,-1,-1,-1,-1,-1,-1,-1,-1,-1,-1,-1,-1,-1,-1,-1,-1,-1,-1],"split_conditions":[1.10206E3,1.092895E3,1.106605E3,1.16701E3,1.0977849E3,1.131005E3,1.11987E3,1.182475E3,1.075625E3,1.079155E3,1.09259E3,1.106255E3,1.194395E3,1.11707E3,1.128385E3,1.070425E3,-8.171265E-1,1.1168702E0,1.10905E3,1.128785E3,1.08063E3,1.1228E3,1.06739E3,9.9094E2,1.11355E3,1.138365E3,1.137E3,1.20363E3,1.1126299E3,1.161595E3,1.183075E3,1.09205E3,1.08154E3,1.1092949E3,1.2234299E3,1.7235109E-1,1.1553049E3,-3.3475342E-1,1.07781E3,1.1751001E3,-1.198874E0,1.5144044E-1,-4.2875978E-1,1.01132E3,-1.9116212E-1,1.1698182E0,4.223999E-1,1.12623E3,1.236525E3,6.6467285E-2,6.043726E-1,1.10103E3,-1.2552795E0,1.15924E3,1.12005E3,1.00781995E3,1.23028E3,1.0806001E3,1.1901299E3,-3.1708587E-2,4.3153778E-1,-3.498932E-1,-3.6450196E-2,2.5638428E-1,-7.448324E-2,5.642166E-1,-3.76709E-2,-3.5302736E-2,3.5064697E-2,-5.9051517E-2,4.612427E-2,-5.5664066E-2,-3.161316E-1,5.249634E-2,2.439148E-1,-1.0742188E-3,2.2382814E-1,-3.6993164E-1,-6.26587E-2,9.1247566E-2,-3.7189335E-1,1.4124757E-1,4.190552E-1,-1.373291E-1,4.3981936E-2,2.9262695E-1,1.0654541E0,-2.815674E-1,1.841919E-1,2.625229E-1,-3.351523E-1,6.354798E-1,-3.6595121E-3],"split_indices":[49,50,51,10,5,15,51,18,46,5,52,11,24,50,51,50,0,0,33,0,3,12,59,10,48,1,12,19,53,41,43,44,55,2,2,0,0,0,0,0,0,0,0,0,0,0,0,0,4,0,0,54,0,0,0,0,1,17,45,0,0,0,0,0,0,0,0,0,0,0,0,0,0,0,0,0,0,0,0,0,0,0,0,0,0,0,0,0,0,0,0,0,0],"split_type":[0,0,0,0,0,0,0,0,0,0,0,0,0,0,0,0,0,0,0,0,0,0,0,0,0,0,0,0,0,0,0,0,0,0,0,0,0,0,0,0,0,0,0,0,0,0,0,0,0,0,0,0,0,0,0,0,0,0,0,0,0,0,0,0,0,0,0,0,0,0,0,0,0,0,0,0,0,0,0,0,0,0,0,0,0,0,0,0,0,0,0,0,0],"sum_hessian":[6.58E2,1.25E2,5.33E2,1.03E2,2.2E1,2.4E1,5.09E2,8.3E1,2E1,8E0,1.4E1,1.1E1,1.3E1,1.5E1,4.94E2,8.2E1,1E0,2E0,1.8E1,4E0,4E0,7E0,7E0,4E0,7E0,8E0,5E0,1E1,5E0,1E1,4.84E2,5.7E1,2.5E1,9E0,9E0,2E0,2E0,2E0,2E0,2E0,5E0,2E0,5E0,2E0,2E0,5E0,2E0,3E0,5E0,1E0,4E0,7E0,3E0,3E0,2E0,6E0,4E0,5.1E1,4.33E2,5.1E1,6E0,1.1E1,1.4E1,1E0,8E0,7E0,2E0,1E0,1E0,1E0,1E0,1E0,1E0,1E0,1E0,2E0,1E0,4E0,1E0,2E0,5E0,2E0,1E0,1E0,1E0,2E0,4E0,2E0,2E0,1.5E1,3.6E1,1.1E1,4.22E2],"tree_param":{"num_deleted":"0","num_feature":"60","num_nodes":"93","size_leaf_vector":"0"}},{"base_weights":[2.31276E-3,2.098325E-1,-4.1480053E-2,-4.364905E-2,1.0376112E0,-5.8602774E-1,8.701294E-3,1.2629066E-1,-1.7800751E0,1.9219157E0,-6.255634E-2,-1.8431011E-1,-2.2170546E0,1.8664687E0,-2.529994E-2,-4.5047335E-2,1.2362949E0,-1.0429077E0,-2.6610515E0,4.412435E-1,3.5510776E0,-9.854126E-1,6.374054E-1,-8.832746E-1,2.1448243E-1,1.2076823E-1,-2.9022565E0,-3.302816E-1,2.5412946E0,3.5601196E0,-3.9852973E-2,3.0583035E-2,-1.3384094E0,2.5457764E0,1.2433733E-1,9.011027E-1,-3.588562E-1,5.614624E-1,3.9557698E0,-2.5634766E-2,-1.1722412E0,-5.175171E-1,8.763253E-1,-3.10418E-1,-1.595347E0,4.0585193E-1,-1.3241781E0,-6.1340332E-2,2.4249268E-1,3.199646E0,1.2476196E0,-4.3995667E-1,5.227051E-2,-1.4070983E-1,9.465554E-1,-4.0625E-1,-1.5137125E0,6.0286456E-1,-1.8764648E-1,-5.065918E-2,-4.4470215E-1,2.9996744E-1,1.046875E0,3.959961E-2,-5.983521E-1,7.536214E-1,2.4261475E-2,-5.547316E-1,3.149943E0,1.8629913E0,-2.3115994E-2],"categories":[],"categories_nodes":[],"categories_segments":[],"categories_sizes":[],"default_left":[1,1,1,1,1,1,1,1,1,1,1,1,1,1,1,1,1,0,0,1,1,1,1,1,1,1,0,0,1,0,1,1,1,0,1,0,1,0,0,0,0,0,1,1,0,1,0,0,0,0,0,1,1,0,0,0,0,0,0,0,0,0,0,0,0,0,0,0,0,0,0],"id":48,"left_children":[1,3,5,7,9,11,13,15,17,19,21,23,25,27,29,31,33,-1,-1,35,37,39,41,43,45,47,-1,-1,49,-1,51,53,55,-1,57,-1,59,-1,-1,-1,-1,-1,61,63,-1,65,-1,-1,-1,-1,-1,67,69,-1,-1,-1,-1,-1,-1,-1,-1,-1,-1,-1,-1,-1,-1,-1,-1,-1,-1],"loss_changes":[5.997612E0,2.4175354E1,1.4897842E1,2.6487617E1,2.6388071E1,2.9731136E1,3.1630411E1,1.5650935E1,2.420185E0,3.461694E1,9.0256405E0,1.0781635E1,1.4767426E1,1.4181162E1,2.5813816E1,7.0837893E0,1.5700434E1,0E0,0E0,3.634765E0,6.2481003E0,1.0458331E0,2.6609855E0,5.2155905E0,7.8987384E0,8.137578E-2,0E0,0E0,1.9699097E0,0E0,1.8120739E1,1.0959257E1,3.869629E-2,0E0,1.1581748E0,0E0,8.330166E-2,0E0,0E0,0E0,0E0,0E0,3.740549E-1,9.307323E-1,0E0,3.033943E0,0E0,0E0,0E0,0E0,0E0,3.9654175E1,5.4644627E1,0E0,0E0,0E0,0E0,0E0,0E0,0E0,0E0,0E0,0E0,0E0,0E0,0E0,0E0,0E0,0E0,0E0,0E0],"parents":[2147483647,0,0,1,1,2,2,3,3,4,4,5,5,6,6,7,7,8,8,9,9,10,10,11,11,12,12,13,13,14,14,15,15,16,16,19,19,20,20,21,21,22,22,23,23,24,24,25,25,28,28,30,30,31,31,32,32,34,34,36,36,42,42,43,43,45,45,51,51,52,52],"right_children":[2,4,6,8,10,12,14,16,18,20,22,24,26,28,30,32,34,-1,-1,36,38,40,42,44,46,48,-1,-1,50,-1,52,54,56,-1,58,-1,60,-1,-1,-1,-1,-1,62,64,-1,66,-1,-1,-1,-1,-1,68,70,-1,-1,-1,-1,-1,-1,-1,-1,-1,-1,-1,-1,-1,-1,-1,-1,-1,-1],"split_conditions":[1.11851E3,1.13044E3,1.143575E3,1.12003E3,1.14858E3,1.1101799E3,1.143905E3,1.1101799E3,1.08265E3,1.11779E3,1.1210449E3,1.1126799E3,1.11123E3,1.06954E3,1.01307996E3,1.2033201E3,1.10906E3,-3.1287232E-1,-7.9831547E-1,1.10834E3,1.094855E3,1.08405E3,1.092245E3,1.1122849E3,1.183825E3,1.119175E3,-8.70677E-1,-9.908448E-2,1.15473E3,1.068036E0,1.227855E3,1.142595E3,1.065435E3,7.6373297E-1,1.138055E3,2.7033082E-1,1.0515801E3,1.6843873E-1,1.186731E0,-7.69043E-3,-3.5167238E-1,-1.5525514E-1,1.188585E3,1.113375E3,-4.7860414E-1,1.117475E3,-3.9725345E-1,-1.84021E-2,7.2747804E-2,9.598938E-1,3.742859E-1,1.242385E3,1.2367649E3,-4.2212952E-2,2.8396663E-1,-1.21875E-1,-4.5411378E-1,1.8085937E-1,-5.6293946E-2,-1.5197755E-2,-1.3341065E-1,8.9990236E-2,3.140625E-1,1.1879883E-2,-1.7950563E-1,2.2608642E-1,7.278443E-3,-1.6641949E-1,9.4498295E-1,5.5889744E-1,-6.934799E-3],"split_indices":[1,20,5,20,24,43,6,14,3,28,9,5,4,36,50,46,16,0,0,3,3,0,2,4,29,0,0,0,4,0,1,42,0,0,16,0,0,0,0,0,0,0,51,7,0,8,0,0,0,0,0,46,2,0,0,0,0,0,0,0,0,0,0,0,0,0,0,0,0,0,0],"split_type":[0,0,0,0,0,0,0,0,0,0,0,0,0,0,0,0,0,0,0,0,0,0,0,0,0,0,0,0,0,0,0,0,0,0,0,0,0,0,0,0,0,0,0,0,0,0,0,0,0,0,0,0,0,0,0,0,0,0,0,0,0,0,0,0,0,0,0,0,0,0,0],"sum_hessian":[6.58E2,1.14E2,5.44E2,8.8E1,2.6E1,4.5E1,4.99E2,8.1E1,7E0,1.4E1,1.2E1,3.7E1,8E0,8E0,4.91E2,7.1E1,1E1,5E0,2E0,8E0,6E0,5E0,7E0,1.3E1,2.4E1,2E0,6E0,2E0,6E0,1E0,4.9E2,6.8E1,3E0,4E0,6E0,5E0,3E0,1E0,5E0,1E0,4E0,1E0,6E0,8E0,5E0,2.2E1,2E0,1E0,1E0,3E0,3E0,9.1E1,3.99E2,5.8E1,1E1,1E0,2E0,2E0,4E0,1E0,2E0,2E0,4E0,4E0,4E0,1.1E1,1.1E1,8.9E1,2E0,1.5E1,3.84E2],"tree_param":{"num_deleted":"0","num_feature":"60","num_nodes":"71","size_leaf_vector":"0"}},{"base_weights":[5.9054988E-3,3.690414E-2,-2.6854375E-1,-9.7060995E-3,9.7777885E-1,-2.1984727E0,3.0403784E-2,1.9904733E-2,-1.2708365E0,3.003662E0,5.1497906E-1,-3.0292726E0,-9.279785E-1,1.7047468E0,-1.9130951E-1,-3.077868E-3,1.5888519E0,-2.4954135E0,1.3528879E-1,3.9719238E0,1.0341797E0,-3.4332275E-1,1.2676438E0,-3.7727866E-1,-1.1693522E0,4.8388672E-1,2.0963135E0,-1.5918579E0,-1.2255351E-2,2.570569E-2,-1.407959E0,4.8061523E-1,2.5769348E0,-2.6829426E0,-6.851196E-1,-2.921753E-1,5.2893066E-1,-6.8707955E-1,5.159607E-1,5.465088E-1,1.8076869E0,2.315796E0,6.091919E-1,-1.9999084E0,-5.171712E-1,-3.7479895E-1,1.8072891E-1,-7.4733896E-3,8.8375854E-1,-2.4333007E0,-4.74435E-1,-4.0352377E-1,2.0935059E-2,2.8033447E-1,-8.430481E-1,8.092448E-1,-1.819458E-1,2.8889975E-2,7.477783E-1,2.4037388E-1,-7.321999E-1,8.2991534E-1,2.9771592E-2],"categories":[],"categories_nodes":[],"categories_segments":[],"categories_sizes":[],"default_left":[1,1,1,1,1,1,1,1,1,1,1,0,1,1,1,1,1,1,1,0,0,1,1,0,0,0,1,1,1,1,1,0,0,0,0,1,0,1,1,1,0,0,0,0,0,1,1,0,0,0,0,0,0,0,0,0,0,0,0,0,0,0,0],"id":49,"left_children":[1,3,5,7,9,11,13,15,17,19,21,-1,23,25,27,29,31,33,35,-1,-1,37,39,-1,-1,-1,41,43,45,47,49,-1,-1,-1,-1,51,-1,53,55,57,-1,-1,-1,-1,-1,59,61,-1,-1,-1,-1,-1,-1,-1,-1,-1,-1,-1,-1,-1,-1,-1,-1],"loss_changes":[5.6163883E0,2.6015148E1,3.8722324E1,2.11615E1,2.4705374E1,6.688637E0,2.2228357E1,1.9981293E1,2.2722418E1,5.427189E0,1.5939537E1,0E0,2.2345066E-1,2.3319569E0,1.3271515E1,2.215549E1,7.521723E0,5.3824234E-1,1.3324147E0,0E0,0E0,3.89912E0,4.074856E0,0E0,0E0,0E0,2.2122192E-1,1.5968637E0,3.4260669E0,1.5294674E1,9.37455E0,0E0,0E0,0E0,0E0,1.4790523E-1,0E0,1.5943112E0,9.6597815E-1,7.0766306E-1,0E0,0E0,0E0,0E0,0E0,3.913679E0,3.1112742E0,0E0,0E0,0E0,0E0,0E0,0E0,0E0,0E0,0E0,0E0,0E0,0E0,0E0,0E0,0E0,0E0],"parents":[2147483647,0,0,1,1,2,2,3,3,4,4,5,5,6,6,7,7,8,8,9,9,10,10,12,12,13,13,14,14,15,15,16,16,17,17,18,18,21,21,22,22,26,26,27,27,28,28,29,29,30,30,35,35,37,37,38,38,39,39,45,45,46,46],"right_children":[2,4,6,8,10,12,14,16,18,20,22,-1,24,26,28,30,32,34,36,-1,-1,38,40,-1,-1,-1,42,44,46,48,50,-1,-1,-1,-1,52,-1,54,56,58,-1,-1,-1,-1,-1,60,62,-1,-1,-1,-1,-1,-1,-1,-1,-1,-1,-1,-1,-1,-1,-1,-1],"split_conditions":[1.954365E3,1.95185E3,1.956615E3,1.934325E3,1.829085E3,1.96769E3,1.9456499E3,1.909635E3,1.8427849E3,1.956825E3,1.816335E3,-9.087818E-1,1.9025E3,1.89299E3,1.9495049E3,1.87592E3,1.82197E3,1.9541951E3,1.9479299E3,1.1915772E0,3.1025392E-1,1.966525E3,1.942825E3,-1.131836E-1,-3.5080567E-1,1.4516602E-1,1.9714551E3,1.986835E3,1.976795E3,1.89787E3,1.8778401E3,1.4418457E-1,7.7308047E-1,-8.048828E-1,-2.055359E-1,1.967645E3,1.586792E-1,1.94351E3,1.99562E3,1.9479E3,5.423061E-1,6.947388E-1,1.8275757E-1,-5.9997255E-1,-1.5515137E-1,1.813495E3,1.955785E3,-2.242017E-3,2.6512757E-1,-7.2999024E-1,-1.4233051E-1,-1.2105714E-1,6.2805177E-3,8.410034E-2,-2.5291443E-1,2.4277346E-1,-5.4583743E-2,8.666993E-3,2.243335E-1,7.2112165E-2,-2.1965998E-1,2.489746E-1,8.9314785E-3],"split_indices":[16,3,12,4,20,22,5,4,18,1,46,0,0,0,1,3,35,9,5,0,0,11,16,0,0,0,2,5,16,27,0,0,0,0,0,1,0,4,0,12,0,0,0,0,0,56,29,0,0,0,0,0,0,0,0,0,0,0,0,0,0,0,0],"split_type":[0,0,0,0,0,0,0,0,0,0,0,0,0,0,0,0,0,0,0,0,0,0,0,0,0,0,0,0,0,0,0,0,0,0,0,0,0,0,0,0,0,0,0,0,0,0,0,0,0,0,0,0,0,0,0,0,0,0,0,0,0,0,0],"sum_hessian":[6.58E2,5.92E2,6.6E1,5.65E2,2.7E1,8E0,5.8E1,5.53E2,1.2E1,4E0,2.3E1,4E0,4E0,6E0,5.2E1,5.46E2,7E0,6E0,6E0,2E0,2E0,1.1E1,1.2E1,2E0,2E0,2E0,4E0,5E0,4.7E1,5.36E2,1E1,4E0,3E0,5E0,1E0,3E0,3E0,8E0,3E0,6E0,6E0,3E0,1E0,3E0,2E0,1.6E1,3.1E1,5.17E2,1.9E1,4E0,6E0,2E0,1E0,1E0,7E0,2E0,1E0,2E0,4E0,6E0,1E1,5E0,2.6E1],"tree_param":{"num_deleted":"0","num_feature":"60","num_nodes":"63","size_leaf_vector":"0"}},{"base_weights":[5.0763837E-3,1.2103383E-2,-1.1486206E0,6.6412287E-4,7.5101316E-1,-1.7086996E0,2.658081E-1,5.0038815E-2,-1.8522196E-1,1.2336426E0,2.1655273E-2,-2.7510377E-2,7.6714355E-1,-3.1100667E0,-1.183581E-1,1.2992351E-1,1.7530212E0,-1.4461263E-1,1.8070476E-1,1.5318881E-2,-1.7887962E0,2.8125489E0,5.281399E-1,-1.15448E0,2.501937E-3,-2.319336E-3,1.9720459E-1,-2.9588565E-2,1.3285888E0,-2.1768188E-1,-2.3507538E0,7.963867E-1,3.1174927E0,3.0562134E0,2.806879E-1,-6.143392E-1,-2.9302166E0,1.4085999E0,-9.6193545E-2],"categories":[],"categories_nodes":[],"categories_segments":[],"categories_sizes":[],"default_left":[1,1,1,1,1,0,0,1,1,1,1,1,1,0,1,1,0,0,0,1,1,1,1,1,1,0,0,0,0,0,0,0,0,0,0,0,0,0,0],"id":50,"left_children":[1,3,5,7,9,-1,-1,11,13,15,17,19,21,-1,23,25,-1,-1,-1,27,29,31,33,35,37,-1,-1,-1,-1,-1,-1,-1,-1,-1,-1,-1,-1,-1,-1],"loss_changes":[5.356434E0,5.5443945E0,3.6229534E0,5.9474783E0,3.4933805E0,0E0,0E0,2.8493881E1,2.6228928E1,3.21173E0,1.5835631E-1,3.4953606E1,2.2957554E1,0E0,1.6783136E1,2.714971E-2,0E0,0E0,0E0,2.6755259E1,9.20018E0,5.9135056E-1,2.7918686E1,1.162792E1,1.6927336E1,0E0,0E0,0E0,0E0,0E0,0E0,0E0,0E0,0E0,0E0,0E0,0E0,0E0,0E0],"parents":[2147483647,0,0,1,1,2,2,3,3,4,4,7,7,8,8,9,9,10,10,11,11,12,12,14,14,15,15,19,19,20,20,21,21,22,22,23,23,24,24],"right_children":[2,4,6,8,10,-1,-1,12,14,16,18,20,22,-1,24,26,-1,-1,-1,28,30,32,34,36,38,-1,-1,-1,-1,-1,-1,-1,-1,-1,-1,-1,-1,-1,-1],"split_conditions":[1.99752E3,1.98649E3,1.908745E3,1.8143601E3,1.892575E3,-5.126099E-1,7.974243E-2,1.791905E3,1.799995E3,1.77586E3,2.0326799E3,1.793145E3,1.77154E3,-9.3302006E-1,1.80479E3,1.789005E3,5.259064E-1,-4.338379E-2,5.421143E-2,1.7941599E3,1.77975E3,1.81427E3,1.738185E3,1.801355E3,1.78701E3,-6.958008E-4,5.916138E-2,-8.87657E-3,3.9857668E-1,-6.530457E-2,-7.052262E-1,2.3891602E-1,9.3524784E-1,9.1686404E-1,8.420637E-2,-1.8430176E-1,-8.79065E-1,4.2257997E-1,-2.8858064E-2],"split_indices":[46,50,0,45,0,0,0,45,44,7,0,44,52,0,38,0,0,0,0,40,36,0,4,38,22,0,0,0,0,0,0,0,0,0,0,0,0,0,0],"split_type":[0,0,0,0,0,0,0,0,0,0,0,0,0,0,0,0,0,0,0,0,0,0,0,0,0,0,0,0,0,0,0,0,0,0,0,0,0,0,0],"sum_hessian":[6.58E2,6.55E2,3E0,6.46E2,9E0,2E0,1E0,5.11E2,1.35E2,5E0,4E0,4.62E2,4.9E1,2E0,1.33E2,2E0,3E0,2E0,2E0,4.52E2,1E1,4E0,4.5E1,1.3E1,1.2E2,1E0,1E0,4.38E2,1.4E1,3E0,7E0,1E0,3E0,3E0,4.2E1,1.1E1,2E0,7E0,1.13E2],"tree_param":{"num_deleted":"0","num_feature":"60","num_nodes":"39","size_leaf_vector":"0"}},{"base_weights":[4.101118E-3,1.2835912E-1,-7.216504E-2,1.2421613E-2,1.0154524E0,-1.826123E0,-5.3763473E-3,1.3169141E-1,-7.305298E-1,4.493103E-1,2.0461915E0,-4.6484375E-1,-3.790568E0,2.5034912E0,-3.7445303E-2,8.8586934E-2,2.8321126E0,-1.3341844E0,9.777832E-2,-1.586914E-1,1.2100558E0,7.943115E-1,3.7254333E0,5.7881672E-2,-9.991455E-1,-1.1005859E0,-4.108447E0,-3.3447266E-2,3.1460876E0,-7.0580614E-1,7.174547E-2,-7.891981E-2,4.8375928E-1,-2.8270128E-1,-2.147101E0,9.7088623E-1,-9.1402763E-1,1.262207E0,-5.690918E-1,1.7379761E0,1.1566162E-1,-6.217041E-1,1.1339315E0,-1.7670898E-1,6.154175E-1,2.4457864E-1,-2.1425004E0,4.129439E0,-6.497127E-2,8.97144E-2,-7.5677943E-1,-1.248436E-1,1.2142029E0,5.5673826E-1,-1.0656006E0,-3.2859955E0,-1.1895752E0,1.5917969E-1,1.4260743E0,-1.4572449E0,-1.4230347E-1,-8.006134E-1,2.3799641E-1,3.6547852E-1,-8.943685E-2,3.523763E-1,1.436615E0,-2.3164876E-1,-6.286621E-2,-4.5152342E-1,1.960376E0,2.5024414E-2,-3.1556804E0,1.4487305E-1,6.3856378E0,-6.980998E-1,4.3797083E-2],"categories":[],"categories_nodes":[],"categories_segments":[],"categories_sizes":[],"default_left":[1,1,1,1,1,1,1,1,1,1,1,1,1,1,1,1,0,1,1,1,1,1,0,1,0,0,0,0,0,1,1,1,1,1,1,1,1,0,1,0,1,0,1,1,0,1,1,1,1,0,0,0,0,0,0,0,0,0,0,0,0,0,0,0,0,0,0,0,0,0,0,0,0,0,0,0,0],"id":51,"left_children":[1,3,5,7,9,11,13,15,17,19,21,23,25,27,29,31,-1,33,35,37,39,41,-1,43,-1,-1,-1,-1,-1,45,47,49,51,53,55,57,59,-1,61,-1,63,-1,65,67,-1,69,71,73,75,-1,-1,-1,-1,-1,-1,-1,-1,-1,-1,-1,-1,-1,-1,-1,-1,-1,-1,-1,-1,-1,-1,-1,-1,-1,-1,-1,-1],"loss_changes":[6.2543964E0,2.580208E1,4.7902313E1,1.9856606E1,1.6003422E1,3.835035E1,3.1874165E1,2.2214357E1,1.5630831E1,9.442718E0,1.8062939E1,2.8507633E0,6.0884094E-1,8.256367E0,2.8585361E1,1.2681239E1,0E0,1.47788315E1,1.3255238E1,7.7159586E0,4.9987593E0,4.0713205E0,0E0,8.9350593E-1,0E0,0E0,0E0,0E0,0E0,7.562169E1,1.872206E2,1.5499787E1,2.549094E1,6.5080304E0,6.996273E0,2.7288299E0,2.7271261E0,0E0,2.0591264E0,0E0,2.3763551E-1,0E0,9.1315365E-1,1.6709596E-2,0E0,4.149374E1,4.8392998E1,9.79646E1,2.2549217E1,0E0,0E0,0E0,0E0,0E0,0E0,0E0,0E0,0E0,0E0,0E0,0E0,0E0,0E0,0E0,0E0,0E0,0E0,0E0,0E0,0E0,0E0,0E0,0E0,0E0,0E0,0E0,0E0],"parents":[2147483647,0,0,1,1,2,2,3,3,4,4,5,5,6,6,7,7,8,8,9,9,10,10,11,11,12,12,13,13,14,14,15,15,17,17,18,18,19,19,20,20,21,21,23,23,29,29,30,30,31,31,32,32,33,33,34,34,35,35,36,36,38,38,40,40,42,42,43,43,45,45,46,46,47,47,48,48],"right_children":[2,4,6,8,10,12,14,16,18,20,22,24,26,28,30,32,-1,34,36,38,40,42,-1,44,-1,-1,-1,-1,-1,46,48,50,52,54,56,58,60,-1,62,-1,64,-1,66,68,-1,70,72,74,76,-1,-1,-1,-1,-1,-1,-1,-1,-1,-1,-1,-1,-1,-1,-1,-1,-1,-1,-1,-1,-1,-1,-1,-1,-1,-1,-1,-1],"split_conditions":[1.221605E3,1.202485E3,1.1883999E3,1.177795E3,1.224635E3,1.21973E3,1.1092949E3,1.22766E3,1.2127251E3,1.22451E3,1.22753E3,1.16549E3,1.224265E3,1.21263E3,1.5366951E3,1.136995E3,8.496338E-1,1.1997549E3,1.1851E3,1.0937E3,1.23424E3,1.13884E3,1.11763E0,1.14606E3,-2.9974365E-1,-3.301758E-1,-1.2325342E0,-1.003418E-2,9.438263E-1,1.23744E3,1.529755E3,1.1175349E3,1.1209299E3,1.22094E3,1.186635E3,1.142865E3,1.2266799E3,3.7866214E-1,1.2314851E3,5.213928E-1,1.1759751E3,-1.8651123E-1,1.1965249E3,1.11627E3,1.8462525E-1,1.229145E3,1.2187E3,1.46724E3,1.7595049E3,2.691432E-2,-2.2703384E-1,-3.745308E-2,3.6426088E-1,1.6702148E-1,-3.196802E-1,-9.8579866E-1,-3.5687256E-1,4.7753908E-2,4.278223E-1,-4.371735E-1,-4.269104E-2,-2.4018402E-1,7.139893E-2,1.09643556E-1,-2.6831057E-2,1.057129E-1,4.3098453E-1,-6.949463E-2,-1.8859863E-2,-1.3545704E-1,5.8811283E-1,7.5073247E-3,-9.4670415E-1,4.346192E-2,1.9156914E0,-2.0942995E-1,1.3139126E-2],"split_indices":[14,14,37,16,49,18,56,37,19,12,20,2,14,6,17,4,0,8,13,55,13,0,0,0,0,0,0,0,0,36,36,4,20,24,16,12,0,0,32,0,0,0,10,2,0,44,41,40,29,0,0,0,0,0,0,0,0,0,0,0,0,0,0,0,0,0,0,0,0,0,0,0,0,0,0,0,0],"split_type":[0,0,0,0,0,0,0,0,0,0,0,0,0,0,0,0,0,0,0,0,0,0,0,0,0,0,0,0,0,0,0,0,0,0,0,0,0,0,0,0,0,0,0,0,0,0,0,0,0,0,0,0,0,0,0,0,0,0,0,0,0,0,0,0,0,0,0,0,0,0,0,0,0,0,0,0,0],"sum_hessian":[6.58E2,2.5E2,4.08E2,2.22E2,2.8E1,1.4E1,3.94E2,1.92E2,3E1,1.9E1,9E0,9E0,5E0,4E0,3.9E2,1.9E2,2E0,1.7E1,1.3E1,1.1E1,8E0,6E0,3E0,5E0,4E0,1E0,4E0,1E0,3E0,5.4E1,3.36E2,1.34E2,5.6E1,8E0,9E0,7E0,6E0,2E0,9E0,5E0,3E0,1E0,5E0,4E0,1E0,3.3E1,2.1E1,1E1,3.26E2,1.08E2,2.6E1,3.1E1,2.5E1,4E0,4E0,3E0,6E0,3E0,4E0,3E0,3E0,7E0,2E0,1E0,2E0,2E0,3E0,2E0,2E0,2.4E1,9E0,7E0,1.4E1,4E0,6E0,4.7E1,2.79E2],"tree_param":{"num_deleted":"0","num_feature":"60","num_nodes":"77","size_leaf_vector":"0"}},{"base_weights":[6.208637E-3,7.172935E-2,-1.1309919E-1,-2.9880265E-2,7.1694E-1,-2.5429993E0,-2.6965708E-2,-9.219302E-3,-2.5474446E0,5.520935E0,3.5452327E-1,-6.510498E-1,-4.2721863E0,5.76553E-1,-1.5914379E-1,-3.271434E-2,1.6983643E0,7.2651367E0,2.5178223E0,2.8595886E0,1.5500817E-1,-8.1796265E-1,8.300781E-3,1.1083897E0,-5.2830285E-1,-8.237235E-1,-6.075591E-3,5.086257E-2,-7.932841E-1,2.720866E0,1.0974121E-1,-7.390625E-1,5.0385165E-1,-3.225708E-1,1.8031906E0,5.729736E-1,-1.0261109E0,-1.4934571E0,6.492615E-2,2.6121216E0,-1.1217767E-1,-2.3864368E-2,4.0651855E0,-2.1614532E0,-3.885035E-1,-4.5166016E-2,2.0977783E-1,8.925781E-1,-1.2213541E0,-5.586616E-1,8.058106E-1,9.4091797E-1,-9.984828E-1,8.6395735E-1,3.2898822E0,-1.2614288E0,-5.6559246E-2,-9.661778E-1,-2.3346646E0,4.3530273E-1,-8.369629E-1,3.562378E0,4.744059E-1,1.5412109E0,-1.6880798E-1],"categories":[],"categories_nodes":[],"categories_segments":[],"categories_sizes":[],"default_left":[1,1,1,1,1,1,1,1,0,1,1,1,0,1,1,1,1,0,0,0,1,0,0,1,1,1,1,1,1,0,1,1,1,1,1,0,1,1,1,1,1,0,0,0,0,0,0,0,0,0,0,0,0,0,0,0,0,0,0,0,0,0,0,0,0],"id":52,"left_children":[1,3,5,7,9,11,13,15,-1,17,19,21,-1,23,25,27,29,-1,-1,-1,31,-1,-1,33,35,37,39,41,43,-1,45,47,49,51,53,-1,55,57,59,61,63,-1,-1,-1,-1,-1,-1,-1,-1,-1,-1,-1,-1,-1,-1,-1,-1,-1,-1,-1,-1,-1,-1,-1,-1],"loss_changes":[5.1596036E0,2.7949814E1,4.890663E1,1.9170162E1,9.902349E1,2.339087E1,1.8199984E1,1.4779505E1,0E0,2.659813E0,2.7045649E1,5.5706024E-1,0E0,2.4677286E1,1.9017761E1,2.311483E1,7.8232565E0,0E0,0E0,0E0,1.6590694E1,0E0,0E0,2.842017E1,8.263073E0,2.092751E1,4.2795837E1,9.848982E1,1.9097368E1,0E0,5.5964015E-2,1.2894054E1,1.2641919E1,9.479563E0,2.3688332E1,0E0,2.210184E0,6.615322E0,5.708949E0,1.0498253E1,1.4117692E1,0E0,0E0,0E0,0E0,0E0,0E0,0E0,0E0,0E0,0E0,0E0,0E0,0E0,0E0,0E0,0E0,0E0,0E0,0E0,0E0,0E0,0E0,0E0,0E0],"parents":[2147483647,0,0,1,1,2,2,3,3,4,4,5,5,6,6,7,7,9,9,10,10,11,11,13,13,14,14,15,15,16,16,20,20,23,23,24,24,25,25,26,26,27,27,28,28,30,30,31,31,32,32,33,33,34,34,36,36,37,37,38,38,39,39,40,40],"right_children":[2,4,6,8,10,12,14,16,-1,18,20,22,-1,24,26,28,30,-1,-1,-1,32,-1,-1,34,36,38,40,42,44,-1,46,48,50,52,54,-1,56,58,60,62,64,-1,-1,-1,-1,-1,-1,-1,-1,-1,-1,-1,-1,-1,-1,-1,-1,-1,-1,-1,-1,-1,-1,-1,-1],"split_conditions":[1.784895E3,1.7699099E3,1.669315E3,1.800165E3,1.67144E3,1.7888201E3,1.7622151E3,1.7935901E3,-7.642334E-1,1.793865E3,1.7582849E3,1.815435E3,-1.2816559E0,1.837425E3,1.779175E3,1.463475E3,1.786915E3,2.179541E0,7.553467E-1,8.578766E-1,1.750615E3,-2.453888E-1,2.4902346E-3,1.7994451E3,1.815525E3,1.82682E3,1.78322E3,1.461095E3,1.494845E3,8.162598E-1,1.80752E3,1.5334199E3,1.755025E3,1.792425E3,1.791545E3,1.7189209E-1,1.979435E3,1.8241699E3,1.7759851E3,1.816895E3,1.7719099E3,-7.159311E-3,1.2195557E0,-6.48436E-1,-1.1655105E-1,-1.3549806E-2,6.2933356E-2,2.6777345E-1,-3.6640626E-1,-1.6759849E-1,2.4174318E-1,2.822754E-1,-2.9954487E-1,2.5918722E-1,9.869647E-1,-3.7842867E-1,-1.6967775E-2,-2.8985336E-1,-7.003994E-1,1.3059083E-1,-2.510889E-1,1.0687134E0,1.4232178E-1,4.6236327E-1,-5.0642397E-2],"split_indices":[19,8,47,7,28,14,57,31,0,1,6,0,0,22,59,45,1,0,0,0,20,0,0,1,30,18,58,41,45,0,0,47,16,10,40,0,1,25,58,4,12,0,0,0,0,0,0,0,0,0,0,0,0,0,0,0,0,0,0,0,0,0,0,0,0],"split_type":[0,0,0,0,0,0,0,0,0,0,0,0,0,0,0,0,0,0,0,0,0,0,0,0,0,0,0,0,0,0,0,0,0,0,0,0,0,0,0,0,0,0,0,0,0,0,0,0,0,0,0,0,0,0,0,0,0,0,0,0,0,0,0,0,0],"sum_hessian":[6.58E2,4.25E2,2.33E2,3.68E2,5.7E1,7E0,2.26E2,3.66E2,2E0,3E0,5.4E1,4E0,3E0,4E1,1.86E2,3.62E2,4E0,1E0,2E0,3E0,5.1E1,3E0,1E0,2.7E1,1.3E1,3.4E1,1.52E2,3.27E2,3.5E1,2E0,2E0,1.4E1,3.7E1,9E0,1.8E1,4E0,9E0,1.9E1,1.5E1,5E0,1.47E2,3.22E2,5E0,7E0,2.8E1,1E0,1E0,3E0,1.1E1,8E0,2.9E1,3E0,6E0,1.2E1,6E0,7E0,2E0,1.3E1,6E0,1.1E1,4E0,3E0,2E0,4E0,1.43E2],"tree_param":{"num_deleted":"0","num_feature":"60","num_nodes":"65","size_leaf_vector":"0"}},{"base_weights":[1.0910844E-2,-2.630501E-3,4.9327934E-1,1.1225951E-2,-1.1021576E0,1.3356934E0,6.652832E-2,2.0448714E-3,9.7336835E-1,-2.3942463E0,-2.7242026E-1,5.8483887E-1,-8.087713E-2,1.33918375E-2,-1.0097482E0,1.6736145E0,-2.8474936E-1,-4.5098877E-1,5.6477863E-2,4.8706055E-2,-4.4266763E-1,-7.3471566E-4,6.7739636E-1,-1.4491882E0,-3.178711E-1,-5.418091E-1,1.1468506E-1,-1.3665771E-1,-5.102132E-1,7.470703E-2,1.0009766E-2,1.2851563E-1,-4.0844727E-2,2.7368437E-2,-5.109596E-1,1.4169922E0,1.9124348E-1,-8.011881E-2,1.20442705E-2],"categories":[],"categories_nodes":[],"categories_segments":[],"categories_sizes":[],"default_left":[1,1,1,1,1,0,1,1,1,0,1,0,1,1,1,0,1,1,1,1,0,1,1,0,0,0,0,0,0,0,0,0,1,0,0,0,0,0,0],"id":53,"left_children":[1,3,5,7,9,-1,11,13,15,-1,17,-1,19,21,23,-1,25,27,29,31,-1,33,35,-1,-1,-1,-1,-1,-1,-1,-1,-1,37,-1,-1,-1,-1,-1,-1],"loss_changes":[4.305832E0,9.793592E0,6.382157E0,5.607286E0,7.924514E0,0E0,1.0405234E0,7.246414E0,5.762514E0,0E0,3.7785596E-1,0E0,5.372622E-1,5.853677E0,1.6676145E0,0E0,3.7017292E-1,4.7397614E-3,1.7934246E-3,6.957227E-2,0E0,8.789409E0,4.4032454E0,0E0,0E0,0E0,0E0,0E0,0E0,0E0,0E0,0E0,1.135081E-2,0E0,0E0,0E0,0E0,0E0,0E0],"parents":[2147483647,0,0,1,1,2,2,3,3,4,4,6,6,7,7,8,8,10,10,12,12,13,13,14,14,16,16,17,17,18,18,19,19,21,21,22,22,32,32],"right_children":[2,4,6,8,10,-1,12,14,16,-1,18,-1,20,22,24,-1,26,28,30,32,-1,34,36,-1,-1,-1,-1,-1,-1,-1,-1,-1,38,-1,-1,-1,-1,-1,-1],"split_conditions":[1.993685E3,1.99436E3,1.9795149E3,1.991825E3,1.906305E3,4.0070802E-1,1.953485E3,1.983225E3,1.811895E3,-7.1827394E-1,2.03497E3,1.7545167E-1,2.02792E3,1.9783999E3,1.9318E3,5.020844E-1,1.91839E3,1.942115E3,2.01244E3,2.056675E3,-1.328003E-1,1.95569E3,1.952735E3,-4.347565E-1,-9.536133E-2,-1.6254273E-1,3.440552E-2,-4.0997315E-2,-1.5306397E-1,2.241211E-2,3.0029297E-3,3.855469E-2,2.01113E3,8.210531E-3,-1.5328789E-1,4.2509767E-1,5.7373047E-2,-2.4035646E-2,3.6132813E-3],"split_indices":[26,21,32,38,3,0,53,38,3,0,2,0,4,21,0,0,0,0,0,29,0,16,42,0,0,0,0,0,0,0,0,0,4,0,0,0,0,0,0],"split_type":[0,0,0,0,0,0,0,0,0,0,0,0,0,0,0,0,0,0,0,0,0,0,0,0,0,0,0,0,0,0,0,0,0,0,0,0,0,0,0],"sum_hessian":[6.58E2,6.41E2,1.7E1,6.34E2,7E0,5E0,1.2E1,6.29E2,5E0,2E0,5E0,2E0,1E1,6.23E2,6E0,3E0,2E0,3E0,2E0,8E0,2E0,6.11E2,1.2E1,3E0,3E0,1E0,1E0,1E0,2E0,1E0,1E0,4E0,4E0,5.8E2,3.1E1,4E0,8E0,2E0,2E0],"tree_param":{"num_deleted":"0","num_feature":"60","num_nodes":"39","size_leaf_vector":"0"}},{"base_weights":[7.294118E-3,-4.143399E-2,1.3819315E-1,5.1852643E-2,-6.612064E-1,7.5763583E-1,-2.85464E-2,2.1896658E-2,1.5881042E0,-2.863973E0,-4.2193392E-1,-7.491048E-1,1.00863E0,-1.2674713E0,4.5082826E-2,5.336331E-2,-1.3930392E0,2.1846924E0,4.4534302E-1,-3.4169433E0,-4.9560547E-2,-9.2041016E-2,-1.1499159E0,-1.529541E-1,-8.377441E-1,1.5217896E0,3.6828613E-1,-1.4334106E-1,-1.9132812E0,-4.7097912E-1,1.4972302E-1,-1.518428E-2,9.402782E-1,-1.9274728E0,3.183187E-1,2.4501953E0,5.6134033E-1,1.0986328E-2,5.864665E-1,-1.2176846E0,3.1035E-1,-1.5013992E0,-1.9671631E-1,9.19274E-1,2.5736084E0,-7.0756024E-1,9.2163086E-1,8.081055E-2,-4.0789795E-1,-2.3108318E0,-8.779704E-1,-1.1308851E-1,-1.7367675E0,5.1056826E-1,-4.7351733E-2,-4.63307E-2,9.3345135E-1,5.2161865E0,4.303521E-1,4.744873E-1,2.9907227E-3,-3.5424805E-1,-1.8781738E0,5.732422E-1,-8.805745E-1,-1.837326E0,-8.0326337E-1,-5.2041626E-1,3.0045572E-1,-6.0180664E-2,1.1028275E0,3.3709717E-1,2.9534912E0,8.4350586E-2,-8.828125E-1,2.8178406E-1,1.9709167E0,1.0821533E-1,1.3000488E-2,6.9747925E-1,-3.086624E-1,-2.1160889E-1,-2.065155E0,1.840477E-1,1.6148003E0,-1.8946127E0,3.0275133E-2],"categories":[],"categories_nodes":[],"categories_segments":[],"categories_sizes":[],"default_left":[1,1,1,1,1,1,1,1,1,1,1,1,1,1,1,1,1,1,1,0,0,1,1,0,0,1,1,1,1,1,1,1,1,0,1,0,0,0,0,1,1,1,1,1,1,1,1,1,0,0,0,1,1,1,1,0,0,0,0,0,0,0,0,0,0,0,0,0,0,0,0,0,0,0,0,0,0,0,0,0,0,0,0,0,0,0,0],"id":54,"left_children":[1,3,5,7,9,11,13,15,17,19,21,23,25,27,29,31,33,35,37,-1,-1,39,41,-1,-1,43,45,47,49,51,53,55,57,-1,59,-1,-1,-1,-1,61,63,65,67,69,71,73,75,77,-1,-1,-1,79,81,83,85,-1,-1,-1,-1,-1,-1,-1,-1,-1,-1,-1,-1,-1,-1,-1,-1,-1,-1,-1,-1,-1,-1,-1,-1,-1,-1,-1,-1,-1,-1,-1,-1],"loss_changes":[4.209132E0,2.7844013E1,1.8509748E1,1.9247576E1,3.1996466E1,1.5126526E1,1.3010536E1,1.8417936E1,4.481125E0,9.168377E0,1.38232155E1,1.8891788E-1,1.02832985E1,5.5335436E0,7.3606277E0,2.457581E1,8.845013E0,7.7962875E-1,2.3874855E-1,0E0,0E0,1.8948812E1,5.7352543E0,0E0,0E0,9.04142E0,1.0177133E1,2.7016586E-1,2.909851E-2,1.0222909E1,8.06E0,1.1152769E1,6.0986725E1,0E0,1.4631394E-1,0E0,0E0,0E0,0E0,5.6078568E0,1.0210411E1,1.572937E0,1.1219695E0,2.4035406E0,4.1020584E0,9.071708E-1,6.829831E0,4.168108E-3,0E0,0E0,0E0,3.227278E0,2.0672092E0,1.4124978E1,1.0668743E1,0E0,0E0,0E0,0E0,0E0,0E0,0E0,0E0,0E0,0E0,0E0,0E0,0E0,0E0,0E0,0E0,0E0,0E0,0E0,0E0,0E0,0E0,0E0,0E0,0E0,0E0,0E0,0E0,0E0,0E0,0E0,0E0],"parents":[2147483647,0,0,1,1,2,2,3,3,4,4,5,5,6,6,7,7,8,8,9,9,10,10,11,11,12,12,13,13,14,14,15,15,16,16,17,17,18,18,21,21,22,22,25,25,26,26,27,27,28,28,29,29,30,30,31,31,32,32,34,34,39,39,40,40,41,41,42,42,43,43,44,44,45,45,46,46,47,47,51,51,52,52,53,53,54,54],"right_children":[2,4,6,8,10,12,14,16,18,20,22,24,26,28,30,32,34,36,38,-1,-1,40,42,-1,-1,44,46,48,50,52,54,56,58,-1,60,-1,-1,-1,-1,62,64,66,68,70,72,74,76,78,-1,-1,-1,80,82,84,86,-1,-1,-1,-1,-1,-1,-1,-1,-1,-1,-1,-1,-1,-1,-1,-1,-1,-1,-1,-1,-1,-1,-1,-1,-1,-1,-1,-1,-1,-1,-1,-1],"split_conditions":[1.811315E3,1.79097E3,1.832675E3,1.789295E3,1.776605E3,1.7566299E3,1.840655E3,1.78972E3,1.78494E3,1.8271799E3,1.810985E3,1.7606699E3,1.81631E3,1.813095E3,1.82345E3,1.77047E3,1.794855E3,1.809985E3,1.786585E3,-1.0250831E0,-1.4868164E-2,1.78928E3,1.80661E3,-4.5886233E-2,-2.5132325E-1,1.79916E3,1.825015E3,1.80563E3,1.802405E3,1.825015E3,1.936285E3,1.78921E3,1.674605E3,-5.782419E-1,1.815795E3,7.350586E-1,1.684021E-1,3.2958987E-3,1.7593995E-1,1.79063E3,1.9813E3,1.795985E3,1.813E3,1.72937E3,1.7761599E3,1.815345E3,1.82297E3,1.8015901E3,-1.22369386E-1,-6.932496E-1,-2.6339114E-1,1.7483049E3,1.931895E3,1.82512E3,1.93474E3,-1.3899211E-2,2.800354E-1,1.564856E0,1.2910563E-1,1.423462E-1,8.9721684E-4,-1.0627442E-1,-5.634522E-1,1.7197266E-1,-2.6417238E-1,-5.511978E-1,-2.4097902E-1,-1.5612489E-1,9.013672E-2,-1.80542E-2,3.3084828E-1,1.0112915E-1,8.860474E-1,2.5305176E-2,-2.6484376E-1,8.453522E-2,5.9127504E-1,3.24646E-2,3.9001466E-3,2.0924379E-1,-9.259873E-2,-6.348267E-2,-6.1954653E-1,5.5214312E-2,4.8444012E-1,-5.683838E-1,9.08254E-3],"split_indices":[10,16,11,15,11,22,9,12,4,1,14,0,15,19,24,9,4,0,4,0,0,21,2,0,0,35,15,2,1,48,29,31,24,0,0,0,0,0,0,28,45,5,5,38,0,9,10,0,0,0,0,18,0,52,28,0,0,0,0,0,0,0,0,0,0,0,0,0,0,0,0,0,0,0,0,0,0,0,0,0,0,0,0,0,0,0,0],"split_type":[0,0,0,0,0,0,0,0,0,0,0,0,0,0,0,0,0,0,0,0,0,0,0,0,0,0,0,0,0,0,0,0,0,0,0,0,0,0,0,0,0,0,0,0,0,0,0,0,0,0,0,0,0,0,0,0,0,0,0,0,0,0,0,0,0,0,0,0,0,0,0,0,0,0,0,0,0,0,0,0,0,0,0,0,0,0,0],"sum_hessian":[6.58E2,4.8E2,1.78E2,4.18E2,6.2E1,3.7E1,1.41E2,4.11E2,7E0,5E0,5.7E1,5E0,3.2E1,7E0,1.34E2,4.03E2,8E0,4E0,3E0,4E0,1E0,4E1,1.7E1,1E0,4E0,1.7E1,1.5E1,3E0,4E0,2.2E1,1.12E2,3.75E2,2.8E1,6E0,2E0,3E0,1E0,1E0,2E0,1E1,3E1,1.2E1,5E0,1.2E1,5E0,5E0,1E1,2E0,1E0,2E0,2E0,1.8E1,4E0,3.9E1,7.3E1,3.64E2,1.1E1,2E0,2.6E1,1E0,1E0,5E0,5E0,2.5E1,5E0,7E0,5E0,3E0,2E0,2E0,1E1,1E0,4E0,1E0,4E0,7E0,3E0,1E0,1E0,3E0,1.5E1,1E0,3E0,3.1E1,8E0,2E0,7.1E1],"tree_param":{"num_deleted":"0","num_feature":"60","num_nodes":"87","size_leaf_vector":"0"}},{"base_weights":[4.7526844E-3,1.9209051E-1,-3.231551E-2,9.6965306E-2,1.5643485E0,-9.1097295E-1,2.4945103E-3,-3.1765713E-3,6.846761E-1,2.4221497E0,3.154602E-1,2.9180909E-2,-1.6185201E0,2.072113E0,-1.3189143E-2,8.802643E-2,-7.324829E-1,9.2824143E-1,-5.98999E-1,4.3607584E-1,-2.319336E-2,-4.2318115E-1,4.012858E-1,-2.1469116E0,-4.4938964E-1,8.5880536E-1,2.856018E0,6.965547E-1,-3.6729097E-2,1.3693158E-1,-1.21285E0,-1.0158865E0,-5.340576E-2,4.9265543E-1,1.5266479E0,-1.16760254E-1,-7.817383E-1,-5.710042E-1,-1.3429768E-1,5.79834E-1,-2.4572754E-1,-3.4674072E-1,-2.3545444E0,-2.2094727E-2,-5.506897E-1,1.382272E-1,2.4765625E0,-2.4126095E-1,4.318775E-2,-6.4448684E-2,5.927226E-1,-3.3026123E-1,-1.4890137E0,-1.3256836E-1,9.2041016E-2,7.258911E-1,1.9638062E-2,9.9678546E-1,-4.4950357E-1,-6.022013E-2,-2.2276917E0,2.908783E0,1.1751769E-2],"categories":[],"categories_nodes":[],"categories_segments":[],"categories_sizes":[],"default_left":[1,1,1,1,1,1,1,1,1,0,1,1,1,1,1,1,1,1,1,0,0,1,1,1,1,0,0,1,1,1,1,0,1,1,0,0,0,0,0,0,0,0,0,0,0,1,0,1,1,0,0,0,0,0,0,0,0,0,0,0,0,0,0],"id":55,"left_children":[1,3,5,7,9,11,13,15,17,-1,19,21,23,25,27,29,31,33,35,-1,-1,37,39,41,43,-1,-1,45,47,49,51,-1,53,55,-1,-1,-1,-1,-1,-1,-1,-1,-1,-1,-1,57,-1,59,61,-1,-1,-1,-1,-1,-1,-1,-1,-1,-1,-1,-1,-1,-1],"loss_changes":[4.582485E0,1.4076773E1,1.6855206E1,6.0641847E0,6.734991E0,1.4016495E1,1.7263155E1,5.9843063E0,5.245898E0,0E0,1.7350173E-1,1.853078E0,6.448303E0,1.3517075E0,8.847059E0,5.255643E0,1.8702755E0,2.6364355E0,1.7309594E-1,0E0,0E0,1.3683373E-1,8.356194E-1,2.1737823E0,2.0425761E-1,0E0,0E0,1.6552736E1,8.379337E0,7.197611E0,2.3945332E-1,0E0,5.8257505E-2,9.786656E-1,0E0,0E0,0E0,0E0,0E0,0E0,0E0,0E0,0E0,0E0,0E0,7.5124745E0,0E0,5.1651855E1,3.3206367E1,0E0,0E0,0E0,0E0,0E0,0E0,0E0,0E0,0E0,0E0,0E0,0E0,0E0,0E0],"parents":[2147483647,0,0,1,1,2,2,3,3,4,4,5,5,6,6,7,7,8,8,10,10,11,11,12,12,13,13,14,14,15,15,16,16,17,17,18,18,21,21,22,22,23,23,24,24,27,27,28,28,29,29,30,30,32,32,33,33,45,45,47,47,48,48],"right_children":[2,4,6,8,10,12,14,16,18,-1,20,22,24,26,28,30,32,34,36,-1,-1,38,40,42,44,-1,-1,46,48,50,52,-1,54,56,-1,-1,-1,-1,-1,-1,-1,-1,-1,-1,-1,58,-1,60,62,-1,-1,-1,-1,-1,-1,-1,-1,-1,-1,-1,-1,-1,-1],"split_conditions":[1.1076699E3,1.16495E3,1.11877E3,1.1118E3,1.096115E3,1.086065E3,1.01916504E3,1.111265E3,1.17687E3,7.2664493E-1,1.08646E3,1.05714E3,1.112405E3,1.205015E3,1.125905E3,1.2033201E3,1.1090349E3,1.148375E3,1.137675E3,1.3082276E-1,-6.9580083E-3,1.1230249E3,1.113825E3,1.06466E3,1.0475249E3,2.576416E-1,8.5680544E-1,1.1647251E3,1.227575E3,1.0978049E3,1.0959651E3,-3.0476597E-1,1.0704099E3,1.12663E3,4.579944E-1,-3.5028078E-2,-2.345215E-1,-1.7130128E-1,-4.0289305E-2,1.739502E-1,-7.3718265E-2,-1.0402222E-1,-7.063633E-1,-6.6284183E-3,-1.6520691E-1,1.1238E3,7.429688E-1,1.459405E3,1.1635801E3,-1.9334607E-2,1.7781678E-1,-9.907837E-2,-4.4670412E-1,-3.977051E-2,2.7612306E-2,2.1776734E-1,5.8914186E-3,2.9903564E-1,-1.3485108E-1,-1.806604E-2,-6.6830754E-1,8.7263495E-1,3.525531E-3],"split_indices":[13,40,13,11,10,29,57,17,33,0,1,56,15,0,12,46,14,4,0,0,0,4,11,0,5,0,0,39,49,36,0,0,0,4,0,0,0,0,0,0,0,0,0,0,0,16,0,3,56,0,0,0,0,0,0,0,0,0,0,0,0,0,0],"split_type":[0,0,0,0,0,0,0,0,0,0,0,0,0,0,0,0,0,0,0,0,0,0,0,0,0,0,0,0,0,0,0,0,0,0,0,0,0,0,0,0,0,0,0,0,0,0,0,0,0,0,0,0,0,0,0,0,0,0,0,0,0,0,0],"sum_hessian":[6.58E2,1.08E2,5.5E2,1.02E2,6E0,2E1,5.3E2,8.8E1,1.4E1,3E0,3E0,9E0,1.1E1,3E0,5.27E2,7.9E1,9E0,1.2E1,2E0,2E0,1E0,4E0,5E0,7E0,4E0,2E0,1E0,1.6E1,5.11E2,7.7E1,2E0,6E0,3E0,8E0,4E0,1E0,1E0,2E0,2E0,4E0,1E0,1E0,6E0,1E0,3E0,1.3E1,3E0,1.43E2,3.68E2,5.4E1,2.3E1,1E0,1E0,2E0,1E0,5E0,3E0,5E0,8E0,1.32E2,1.1E1,3E0,3.65E2],"tree_param":{"num_deleted":"0","num_feature":"60","num_nodes":"63","size_leaf_vector":"0"}},{"base_weights":[5.8588195E-3,3.9877972E-1,-1.155834E-2,1.2500244E-1,2.0101929E0,-6.236921E-1,9.465137E-3,9.84904E-1,-1.3921814E-1,-1.022644E0,-1.6804089E-1,2.836325E-1,-1.920364E-2,2.0043945E-1,1.7025553E0,8.113752E-2,-5.600411E-1,-5.241089E-1,-2.1773682E0,2.1624756E-1,-3.3918E-1,1.0789137E-2,8.014954E-1,-2.6454225E-1,3.203921E-2,2.775472E-1,-1.54418945E-2,-1.5329997E-1,2.284139E-1,-7.4221194E-1,-6.9742836E-2,-7.522278E-1,-5.090332E-2,-4.4100952E-1,-2.2460938E-2,-5.424347E-1,1.4875793E-1,2.1850586E-1,1.4897597E0,-1.1064302E-1,-1.9436035E0,1.0226816E0,-2.7245251E-2,-3.5420737E-1,3.5705566E-2,3.1723458E-1,-5.4972332E-2,2.8747559E-2,-1.3336182E-1,-1.5161133E-1,-8.420288E-1,-1.6141765E-1,1.4031982E-1,2.8869629E-2,-6.2561035E-2,-9.237549E-1,6.982422E-2,6.860596E-1,4.749843E-2,1.0068766E0,-3.9855957E-2,1.5680847E0,4.315796E-1,-2.241784E-1,1.066925E0,-5.41687E-1,-2.676416E0,2.6635024E-1,2.2061768E0,-1.6498152E0,-7.062436E-4],"categories":[],"categories_nodes":[],"categories_segments":[],"categories_sizes":[],"default_left":[1,1,1,1,0,1,1,1,1,1,1,1,1,1,0,1,1,1,0,0,1,1,1,1,1,0,0,1,1,0,1,1,1,0,1,1,1,1,1,1,1,1,1,0,0,0,0,0,0,0,0,0,0,0,0,0,0,0,0,0,0,0,0,0,0,0,0,0,0,0,0],"id":56,"left_children":[1,3,5,7,-1,9,11,13,15,17,19,21,23,25,-1,27,29,31,-1,-1,33,35,37,39,41,-1,-1,43,45,-1,47,49,51,-1,53,55,57,59,61,63,65,67,69,-1,-1,-1,-1,-1,-1,-1,-1,-1,-1,-1,-1,-1,-1,-1,-1,-1,-1,-1,-1,-1,-1,-1,-1,-1,-1,-1,-1],"loss_changes":[4.514519E0,1.2101435E1,8.139225E0,5.817209E0,0E0,3.6455956E0,4.8157926E0,3.0365725E0,1.9000552E0,5.1911983E0,7.967815E-1,8.186488E0,6.9858527E0,7.087034E-2,0E0,5.183953E-1,5.73462E-1,9.3323326E-1,0E0,0E0,2.4810535E-1,3.0574691E0,7.6994953E0,2.4591953E1,2.7043528E1,0E0,0E0,2.404828E-1,2.4397418E-1,0E0,2.2631403E-2,1.9595456E-1,1.0718168E-1,0E0,7.981196E-3,1.9322338E0,1.7084341E0,2.4843488E0,6.918526E-2,1.2138094E1,6.768955E0,2.2685358E1,1.8730541E1,0E0,0E0,0E0,0E0,0E0,0E0,0E0,0E0,0E0,0E0,0E0,0E0,0E0,0E0,0E0,0E0,0E0,0E0,0E0,0E0,0E0,0E0,0E0,0E0,0E0,0E0,0E0,0E0],"parents":[2147483647,0,0,1,1,2,2,3,3,5,5,6,6,7,7,8,8,9,9,10,10,11,11,12,12,13,13,15,15,16,16,17,17,20,20,21,21,22,22,23,23,24,24,27,27,28,28,30,30,31,31,32,32,34,34,35,35,36,36,37,37,38,38,39,39,40,40,41,41,42,42],"right_children":[2,4,6,8,-1,10,12,14,16,18,20,22,24,26,-1,28,30,32,-1,-1,34,36,38,40,42,-1,-1,44,46,-1,48,50,52,-1,54,56,58,60,62,64,66,68,70,-1,-1,-1,-1,-1,-1,-1,-1,-1,-1,-1,-1,-1,-1,-1,-1,-1,-1,-1,-1,-1,-1,-1,-1,-1,-1,-1,-1],"split_conditions":[1.02286E3,1.157735E3,1.0499299E3,9.9094E2,6.0305786E-1,1.15899E3,1.09341E3,1.09002E3,1.09768E3,1.124975E3,1.02706E3,1.094605E3,1.162185E3,1.09798E3,5.107666E-1,1.079105E3,1.155E3,1.0541E3,-6.5321046E-1,6.487427E-2,1.2096E3,1.0428E3,1.1311001E3,1.220815E3,1.1901299E3,8.3264165E-2,-4.6325685E-3,1.08063E3,1.1095801E3,-2.226636E-1,1.164485E3,1.077855E3,1.111085E3,-1.3230287E-1,1.2451951E3,1.11453E3,1.021625E3,9.6046497E2,1.109825E3,1.22144E3,1.218505E3,1.19101E3,1.18779E3,-1.06262214E-1,1.071167E-2,9.517038E-2,-1.64917E-2,8.624268E-3,-4.0008545E-2,-4.54834E-2,-2.5260866E-1,-4.84253E-2,4.2095948E-2,8.660889E-3,-1.876831E-2,-2.7712646E-1,2.0947266E-2,2.058179E-1,1.424953E-2,3.02063E-1,-1.1956788E-2,4.7042543E-1,1.2947388E-1,-6.725352E-2,3.2007754E-1,-1.625061E-1,-8.029248E-1,7.990508E-2,6.618531E-1,-4.9494457E-1,-2.1187309E-4],"split_indices":[47,2,49,34,0,3,37,7,12,4,56,54,45,0,0,25,0,48,0,0,8,59,4,14,45,0,0,14,3,0,0,1,0,0,0,12,39,10,35,18,18,33,46,0,0,0,0,0,0,0,0,0,0,0,0,0,0,0,0,0,0,0,0,0,0,0,0,0,0,0,0],"split_type":[0,0,0,0,0,0,0,0,0,0,0,0,0,0,0,0,0,0,0,0,0,0,0,0,0,0,0,0,0,0,0,0,0,0,0,0,0,0,0,0,0,0,0,0,0,0,0,0,0,0,0,0,0,0,0,0,0,0,0,0,0,0,0,0,0,0,0,0,0,0,0],"sum_hessian":[6.58E2,2.7E1,6.31E2,2.4E1,3E0,2E1,6.11E2,5E0,1.9E1,1E1,1E1,5.7E1,5.54E2,3E0,2E0,1.3E1,6E0,8E0,2E0,3E0,7E0,3.8E1,1.9E1,9.5E1,4.59E2,2E0,1E0,5E0,8E0,4E0,2E0,5E0,3E0,5E0,2E0,7E0,3.1E1,1.1E1,8E0,8.8E1,7E0,2.5E1,4.34E2,2E0,3E0,6E0,2E0,1E0,1E0,1E0,4E0,2E0,1E0,1E0,1E0,4E0,3E0,4E0,2.7E1,2E0,9E0,7E0,1E0,8.1E1,7E0,3E0,4E0,1.6E1,9E0,6E0,4.28E2],"tree_param":{"num_deleted":"0","num_feature":"60","num_nodes":"71","size_leaf_vector":"0"}},{"base_weights":[4.537163E-3,9.641624E-2,-4.594228E-2,1.5893986E-2,2.1077068E0,-5.394165E-1,1.9627092E-2,-4.2324457E-2,9.730365E-1,6.959473E-1,3.0979247E0,6.368583E-2,-1.2501751E0,1.4748535E0,-7.882913E-3,4.3938078E-2,-8.3721054E-1,2.7323608E0,1.7200318E-1,3.5567627E0,6.312866E-1,-3.0004302E-1,1.0105133E0,4.4473267E-1,-2.019493E0,4.189148E-1,2.1620789E0,-1.2478272E0,2.6391467E-2,-2.0329738E-2,9.403076E-1,-1.4225793E0,1.0134549E-1,3.8519287E-1,3.3863525E0,-1.3044569E-1,1.4470215E0,-5.961263E-1,3.7728447E-1,1.9063232E0,-3.6187744E-1,1.1755371E0,-5.7995605E-1,-8.030134E-1,-2.6690795E0,-1.4001465E-1,6.518962E-1,1.120402E-1,-2.6301026E0,7.4820966E-1,-6.0575508E-2,3.280391E-2,-8.4929866E-1,-5.8186848E-2,1.57164E0,1.8188477E-2,-1.6861905E0,5.358538E-1,-9.4628906E-1,-4.4295654E-1,2.0815429E-1,3.8006592E-1,-6.9300187E-1,5.30249E-1,-3.4179688E-3,2.10437E0,5.570679E-1,-5.536702E-1,1.0675049E-1,2.166748E-2,-7.877197E-1,-1.1523031E0,6.463623E-1,-6.456299E-1,6.522827E-1,-7.2576904E-1,-2.9247437E0,2.0826632E-1,3.6831868E0,-8.0782515E-1,7.331592E-3],"categories":[],"categories_nodes":[],"categories_segments":[],"categories_sizes":[],"default_left":[1,1,1,1,1,1,1,1,1,0,1,1,1,1,1,1,1,1,1,0,0,1,1,1,1,1,0,1,1,1,1,1,1,0,0,1,0,1,1,1,1,0,1,1,0,0,0,1,1,1,1,0,0,0,0,0,0,0,0,0,0,0,0,0,0,0,0,0,0,0,0,0,0,0,0,0,0,0,0,0,0],"id":57,"left_children":[1,3,5,7,9,11,13,15,17,-1,19,21,23,25,27,29,31,33,35,-1,-1,37,39,41,43,45,-1,47,49,51,53,55,57,-1,-1,59,-1,61,63,65,67,-1,69,71,-1,-1,-1,73,75,77,79,-1,-1,-1,-1,-1,-1,-1,-1,-1,-1,-1,-1,-1,-1,-1,-1,-1,-1,-1,-1,-1,-1,-1,-1,-1,-1,-1,-1,-1,-1],"loss_changes":[3.060875E0,3.7863655E1,1.3794582E1,1.2634661E1,1.0425552E1,2.1512627E1,1.5104175E1,1.4710527E1,1.7850634E1,0E0,3.413601E0,9.9460745E0,3.0888367E1,4.1739473E0,1.57998085E1,1.1195011E1,1.1681599E1,4.8357105E0,4.0450363E0,0E0,0E0,4.436362E0,1.0525065E1,6.672536E0,1.0500038E1,6.1215556E-1,0E0,1.9091787E1,2.2769636E1,8.044258E0,8.286414E0,4.9681034E0,4.6039257E0,0E0,0E0,1.0445489E0,0E0,1.6819243E0,4.0945023E-1,1.638031E-1,4.1862243E-1,0E0,5.1705E-1,4.288569E0,0E0,0E0,0E0,2.8770866E0,6.8278885E-1,6.1037052E1,1.6446835E1,0E0,0E0,0E0,0E0,0E0,0E0,0E0,0E0,0E0,0E0,0E0,0E0,0E0,0E0,0E0,0E0,0E0,0E0,0E0,0E0,0E0,0E0,0E0,0E0,0E0,0E0,0E0,0E0,0E0,0E0],"parents":[2147483647,0,0,1,1,2,2,3,3,4,4,5,5,6,6,7,7,8,8,10,10,11,11,12,12,13,13,14,14,15,15,16,16,17,17,18,18,21,21,22,22,23,23,24,24,25,25,27,27,28,28,29,29,30,30,31,31,32,32,35,35,37,37,38,38,39,39,40,40,42,42,43,43,47,47,48,48,49,49,50,50],"right_children":[2,4,6,8,10,12,14,16,18,-1,20,22,24,26,28,30,32,34,36,-1,-1,38,40,42,44,46,-1,48,50,52,54,56,58,-1,-1,60,-1,62,64,66,68,-1,70,72,-1,-1,-1,74,76,78,80,-1,-1,-1,-1,-1,-1,-1,-1,-1,-1,-1,-1,-1,-1,-1,-1,-1,-1,-1,-1,-1,-1,-1,-1,-1,-1,-1,-1,-1,-1],"split_conditions":[1.20586E3,1.2103E3,1.232335E3,1.22662E3,1.195345E3,1.221765E3,1.19553E3,1.177395E3,1.232505E3,2.087842E-1,1.204215E3,1.2258049E3,1.21703E3,1.216865E3,1.2095249E3,1.1833E3,1.20349E3,1.19879E3,1.23346E3,1.0670289E0,1.89386E-1,1.219615E3,1.2325801E3,1.23489E3,1.20089E3,1.172905E3,6.486237E-1,1.221585E3,1.4687949E3,1.150495E3,1.118525E3,1.15899E3,1.2133201E3,1.15557864E-1,1.0159059E0,1.21975E3,4.3410647E-1,1.06572E3,1.22048E3,1.236575E3,1.45531E3,3.5266113E-1,1.207825E3,1.228125E3,-8.007239E-1,-4.2004395E-2,1.9556886E-1,1.2082151E3,1.34546E3,1.469115E3,1.75114E3,9.841174E-3,-2.5478962E-1,-1.7456055E-2,4.7149202E-1,5.456543E-3,-5.0585717E-1,1.6075614E-1,-2.8388673E-1,-1.3288696E-1,6.244629E-2,1.1401978E-1,-2.0790057E-1,1.5907471E-1,-1.0253907E-3,6.3131106E-1,1.6712037E-1,-1.6610107E-1,3.2025147E-2,6.5002446E-3,-2.3631592E-1,-3.4569094E-1,1.939087E-1,-1.9368897E-1,1.9568482E-1,-2.1773072E-1,-8.774231E-1,6.24799E-2,1.104956E0,-2.4234755E-1,2.1994777E-3],"split_indices":[28,27,27,2,29,30,35,29,2,0,28,20,32,16,46,25,30,0,14,0,0,36,3,10,44,1,0,50,56,26,35,32,0,0,0,12,0,10,1,2,0,0,0,31,0,0,0,30,0,53,20,0,0,0,0,0,0,0,0,0,0,0,0,0,0,0,0,0,0,0,0,0,0,0,0,0,0,0,0,0,0],"split_type":[0,0,0,0,0,0,0,0,0,0,0,0,0,0,0,0,0,0,0,0,0,0,0,0,0,0,0,0,0,0,0,0,0,0,0,0,0,0,0,0,0,0,0,0,0,0,0,0,0,0,0,0,0,0,0,0,0,0,0,0,0,0,0,0,0,0,0,0,0,0,0,0,0,0,0,0,0,0,0,0,0],"sum_hessian":[6.58E2,2.33E2,4.25E2,2.25E2,8E0,4.9E1,3.76E2,2.13E2,1.2E1,4E0,4E0,2.7E1,2.2E1,6E0,3.7E2,1.93E2,2E1,3E0,9E0,3E0,1E0,2E1,7E0,7E0,1.5E1,3E0,3E0,9E0,3.61E2,1.81E2,1.2E1,1.2E1,8E0,1E0,2E0,8E0,1E0,1.4E1,6E0,4E0,3E0,4E0,3E0,6E0,9E0,1E0,2E0,5E0,4E0,3.8E1,3.23E2,1.71E2,1E1,5E0,7E0,2E0,1E1,6E0,2E0,4E0,4E0,1E0,1.3E1,4E0,2E0,3E0,1E0,2E0,1E0,1E0,2E0,5E0,1E0,2E0,3E0,1E0,3E0,3.3E1,5E0,2.6E1,2.97E2],"tree_param":{"num_deleted":"0","num_feature":"60","num_nodes":"81","size_leaf_vector":"0"}},{"base_weights":[7.840841E-3,6.5897785E-2,-7.146932E-2,2.360037E-2,1.4864835E0,-9.4505775E-1,6.9898316E-3,-2.2375943E-2,7.2021484E-1,5.1893616E-1,3.0499573E0,-4.9782428E-1,-1.8961879E0,1.1732178E0,-2.5562301E-2,4.1964274E-2,-9.80613E-1,4.415568E0,1.580113E-1,-4.1259766E-2,1.4663492E0,-7.772968E-1,3.2836914E-1,7.739258E-2,-2.2380168E0,1.6320801E0,1.7374674E-2,-1.0361409E0,3.850623E-2,2.5435083E-3,2.588037E0,-1.5529879E0,-1.3846436E-1,5.4199934E-1,-1.1791503E0,-2.2237141E-1,1.04888916E-1,-2.145752E-1,-1.0035536E0,5.8988446E-1,-4.260254E-2,8.92334E-2,-6.317139E-2,-1.3183492E0,6.951904E-2,1.661377E0,1.7624876E-2,4.69764E-2,-1.1566263E0,3.3200989E0,-1.7010498E-1,-1.5634766E-1,-2.156345E0,1.7197964E-1,-6.4712524E-1,1.3913051E0,-4.774059E-2,-3.3744302E-1,-1.6278076E0,4.5450848E-2,1.4160156E-1,-4.2134604E-1,6.37207E-2,-1.0826874E0,-1.852417E-1,-8.514404E-2,2.1240234E-2,-1.6099854E0,-3.3258057E-1,-2.0015462E-1,4.3927002E-1,-4.8030442E-1,7.918934E-2],"categories":[],"categories_nodes":[],"categories_segments":[],"categories_sizes":[],"default_left":[1,1,1,1,1,1,1,1,1,1,0,1,1,1,1,1,1,0,1,1,0,1,1,0,0,0,1,1,1,1,1,1,1,1,1,0,1,1,1,0,1,0,0,1,1,0,1,0,0,0,0,0,0,0,0,0,0,0,0,0,0,0,0,0,0,0,0,0,0,0,0,0,0],"id":58,"left_children":[1,3,5,7,9,11,13,15,17,19,-1,21,23,25,27,29,31,-1,33,35,-1,37,39,-1,-1,-1,41,43,45,47,49,51,53,55,57,-1,59,61,63,-1,65,-1,-1,67,69,-1,71,-1,-1,-1,-1,-1,-1,-1,-1,-1,-1,-1,-1,-1,-1,-1,-1,-1,-1,-1,-1,-1,-1,-1,-1,-1,-1],"loss_changes":[3.039079E0,2.2858105E1,1.9129547E1,1.18984165E1,1.505735E1,8.839708E0,9.786534E0,2.1558111E1,4.7085724E1,4.306397E0,0E0,4.180512E0,4.8955936E0,3.6842537E0,1.6291216E1,3.291417E1,1.0389511E1,0E0,1.1421637E1,1.8213966E-1,0E0,1.4398165E0,5.102044E-1,0E0,0E0,0E0,2.3000808E-2,4.772045E0,8.002113E0,1.6742043E1,1.0660419E1,1.0617605E1,1.6903995E0,8.581203E0,1.3388982E0,0E0,2.2926033E-3,3.1456584E-1,3.8224697E-1,0E0,9.956382E-3,0E0,0E0,2.914381E0,4.8677033E-1,0E0,7.241901E0,0E0,0E0,0E0,0E0,0E0,0E0,0E0,0E0,0E0,0E0,0E0,0E0,0E0,0E0,0E0,0E0,0E0,0E0,0E0,0E0,0E0,0E0,0E0,0E0,0E0,0E0],"parents":[2147483647,0,0,1,1,2,2,3,3,4,4,5,5,6,6,7,7,8,8,9,9,11,11,12,12,13,13,14,14,15,15,16,16,18,18,19,19,21,21,22,22,26,26,27,27,28,28,29,29,30,30,31,31,32,32,33,33,34,34,36,36,37,37,38,38,40,40,43,43,44,44,46,46],"right_children":[2,4,6,8,10,12,14,16,18,20,-1,22,24,26,28,30,32,-1,34,36,-1,38,40,-1,-1,-1,42,44,46,48,50,52,54,56,58,-1,60,62,64,-1,66,-1,-1,68,70,-1,72,-1,-1,-1,-1,-1,-1,-1,-1,-1,-1,-1,-1,-1,-1,-1,-1,-1,-1,-1,-1,-1,-1,-1,-1,-1,-1],"split_conditions":[1.76703E3,1.810135E3,1.775345E3,1.7715801E3,1.76178E3,1.784405E3,1.76049E3,1.465415E3,1.676965E3,1.765655E3,9.149872E-1,1.795915E3,1.75312E3,1.78265E3,1.7706E3,1.461095E3,1.7636951E3,1.3246704E0,1.79486E3,1.768235E3,4.3990478E-1,1.7879E3,1.75618E3,2.3217775E-2,-6.714051E-1,4.8962405E-1,1.764765E3,1.7802E3,1.76884E3,1.51955E3,1.75651E3,1.5376E3,1.7686E3,1.7565549E3,1.81462E3,-6.6711426E-2,1.759515E3,1.799585E3,1.76789E3,1.7696534E-1,1.77871E3,2.677002E-2,-1.8951416E-2,1.904315E3,1.755345E3,4.9841312E-1,1.728915E3,1.409292E-2,-3.469879E-1,9.960297E-1,-5.1031496E-2,-4.69043E-2,-6.469035E-1,5.1593892E-2,-1.9413759E-1,4.1739154E-1,-1.43221775E-2,-1.0123291E-1,-4.8834231E-1,1.3635254E-2,4.248047E-2,-1.2640382E-1,1.9116212E-2,-3.248062E-1,-5.5572513E-2,-2.5543215E-2,6.3720704E-3,-4.8299563E-1,-9.9774174E-2,-6.0046386E-2,1.3178101E-1,-1.4409134E-1,2.3756802E-2],"split_indices":[13,57,11,4,2,16,3,45,20,13,0,30,5,7,2,41,28,0,59,0,0,49,0,0,0,0,0,4,3,8,0,23,18,11,4,0,2,0,11,0,0,0,0,52,1,0,50,0,0,0,0,0,0,0,0,0,0,0,0,0,0,0,0,0,0,0,0,0,0,0,0,0,0],"split_type":[0,0,0,0,0,0,0,0,0,0,0,0,0,0,0,0,0,0,0,0,0,0,0,0,0,0,0,0,0,0,0,0,0,0,0,0,0,0,0,0,0,0,0,0,0,0,0,0,0,0,0,0,0,0,0,0,0,0,0,0,0,0,0,0,0,0,0,0,0,0,0,0,0],"sum_hessian":[6.58E2,3.8E2,2.78E2,3.7E2,1E1,2.2E1,2.56E2,3.48E2,2.2E1,7E0,3E0,1.6E1,6E0,6E0,2.5E2,3.27E2,2.1E1,2E0,2E1,5E0,2E0,1.2E1,4E0,1E0,5E0,4E0,2E0,1.4E1,2.36E2,3.23E2,4E0,1.2E1,9E0,1.6E1,4E0,2E0,3E0,4E0,8E0,2E0,2E0,1E0,1E0,1.1E1,3E0,2E0,2.34E2,3.12E2,1.1E1,3E0,1E0,4E0,8E0,6E0,3E0,6E0,1E1,2E0,2E0,2E0,1E0,2E0,2E0,7E0,1E0,1E0,1E0,8E0,3E0,2E0,1E0,2.5E1,2.09E2],"tree_param":{"num_deleted":"0","num_feature":"60","num_nodes":"73","size_leaf_vector":"0"}},{"base_weights":[7.990326E-3,1.1672974E0,4.4544535E-3,9.139619E-3,-7.63855E-1,1.1424045E-3,5.8303493E-1,-1.1496989E0,1.9683838E-1,1.8602848E-2,-4.0049008E-1,1.3436686E0,1.7375837E-1,-7.865397E-4,5.4655874E-1,-2.0117188E0,-1.9112305E-1,5.687663E-1,-9.7998045E-2,9.516132E-3,-7.643738E-1,9.481608E-1,-2.74765E-1,5.463867E-1,-2.7901027E-1,-1.2063599E-1,-3.7231445E-3],"categories":[],"categories_nodes":[],"categories_segments":[],"categories_sizes":[],"default_left":[1,0,1,1,1,1,1,0,0,1,1,0,1,1,1,0,1,0,1,0,0,0,0,0,0,0,0],"id":59,"left_children":[1,-1,3,5,7,9,11,-1,-1,13,15,-1,17,19,21,-1,23,-1,25,-1,-1,-1,-1,-1,-1,-1,-1],"loss_changes":[2.6961484E0,0E0,2.3755558E0,3.0054982E0,1.7090156E0,4.5446553E0,2.5683122E0,0E0,0E0,6.3574457E0,8.723644E0,0E0,8.0715954E-1,4.727467E0,7.517119E0,0E0,1.7728897E0,0E0,1.0221802E-2,0E0,0E0,0E0,0E0,0E0,0E0,0E0,0E0],"parents":[2147483647,0,0,2,2,3,3,4,4,5,5,6,6,9,9,10,10,12,12,13,13,14,14,16,16,18,18],"right_children":[2,-1,4,6,8,10,12,-1,-1,14,16,-1,18,20,22,-1,24,-1,26,-1,-1,-1,-1,-1,-1,-1,-1],"split_conditions":[9.2677E2,3.501892E-1,1.99752E3,1.985125E3,1.908745E3,1.9783999E3,1.979705E3,-3.4490967E-1,5.9051517E-2,1.961365E3,1.934375E3,4.0310058E-1,1.969485E3,1.958225E3,1.95351E3,-6.035156E-1,1.900825E3,1.7062989E-1,2.015065E3,2.8548397E-3,-2.2931214E-1,2.8444827E-1,-8.2429506E-2,1.6391602E-1,-8.3703086E-2,-3.6190797E-2,-1.1169434E-3],"split_indices":[37,0,46,47,0,33,43,0,0,37,53,0,52,36,59,0,16,0,16,0,0,0,0,0,0,0,0],"split_type":[0,0,0,0,0,0,0,0,0,0,0,0,0,0,0,0,0,0,0,0,0,0,0,0,0,0,0],"sum_hessian":[6.58E2,1E0,6.57E2,6.54E2,3E0,6.46E2,8E0,2E0,1E0,6.2E2,2.6E1,2E0,6E0,5.99E2,2.1E1,2E0,2.4E1,2E0,4E0,5.92E2,7E0,1.4E1,7E0,2E0,2.2E1,3E0,1E0],"tree_param":{"num_deleted":"0","num_feature":"60","num_nodes":"27","size_leaf_vector":"0"}},{"base_weights":[5.715447E-3,-2.2656399E-1,2.1091443E-2,-6.062317E-2,-1.1844482E0,7.094917E-1,2.820754E-3,2.020128E-1,-3.062455E-1,-5.9259033E-1,-1.578776E0,2.8899038E-1,1.3621622E0,9.397125E-1,-3.4194922E-3,-1.7221409E-1,5.186157E-1,-5.33374E-1,-4.849243E-2,-8.482666E-2,5.147182E-1,4.202067E-1,1.7280884E0,1.2284342E0,3.677368E-2,-4.6447414E-1,1.0796952E-2,2.0352173E-1,-3.940023E-1,1.7120361E-2,7.3109657E-1,-6.6400146E-1,-7.2428384E-3,1.2595367E-1,-4.975179E-1,-2.1917725E-1,3.5552979E-3,2.1980794E-1,5.887207E-1,-2.0379639E-1,-1.3258972E0,6.395386E-1,-1.564623E-4,3.4448242E-1,4.1707356E-2,-4.3608397E-1,-9.1796875E-2,-2.3291016E-1,1.7810059E-1,1.7071533E-1,7.9604083E-1,-1.9006348E-1,-7.903035E-1,-9.6069336E-2,8.520508E-2,-1.4569092E-1,1.8557303E-1,7.684326E-2,-4.6488445E-2,9.5581055E-2,-4.1400146E-1,-1.2660435E-1,1.820404E0,-7.406878E-1,8.95404E-3],"categories":[],"categories_nodes":[],"categories_segments":[],"categories_sizes":[],"default_left":[1,1,1,1,1,1,1,1,1,0,0,1,1,1,1,1,1,1,1,1,1,0,0,0,0,1,1,1,1,1,1,1,1,1,0,0,1,0,0,1,0,1,1,0,0,0,0,0,0,0,0,0,0,0,0,0,0,0,0,0,0,0,0,0,0],"id":60,"left_children":[1,3,5,7,9,11,13,15,17,-1,-1,19,21,23,25,27,29,31,33,35,37,-1,-1,-1,-1,39,41,43,45,47,49,51,53,55,-1,-1,57,-1,-1,59,-1,61,63,-1,-1,-1,-1,-1,-1,-1,-1,-1,-1,-1,-1,-1,-1,-1,-1,-1,-1,-1,-1,-1,-1],"loss_changes":[2.3584154E0,6.4452314E0,7.7835E0,2.384199E0,4.6474838E-1,3.99753E0,3.53446E0,2.2219768E0,1.0864538E0,0E0,0E0,9.7185177E-1,1.3419628E0,9.976182E-1,3.944304E0,8.3019185E-1,1.0530651E0,6.8246245E-1,8.4597164E-1,6.015008E-2,2.3363233E-2,0E0,0E0,0E0,0E0,3.7717562E0,4.022031E0,7.687041E-2,3.6272764E-2,2.0248131E-1,1.18858576E-1,3.2866716E-1,3.282107E-2,1.5659851E-1,0E0,0E0,1.824274E-2,0E0,0E0,9.835306E-1,0E0,9.277588E0,3.885934E0,0E0,0E0,0E0,0E0,0E0,0E0,0E0,0E0,0E0,0E0,0E0,0E0,0E0,0E0,0E0,0E0,0E0,0E0,0E0,0E0,0E0,0E0],"parents":[2147483647,0,0,1,1,2,2,3,3,4,4,5,5,6,6,7,7,8,8,11,11,12,12,13,13,14,14,15,15,16,16,17,17,18,18,19,19,20,20,25,25,26,26,27,27,28,28,29,29,30,30,31,31,32,32,33,33,36,36,39,39,41,41,42,42],"right_children":[2,4,6,8,10,12,14,16,18,-1,-1,20,22,24,26,28,30,32,34,36,38,-1,-1,-1,-1,40,42,44,46,48,50,52,54,56,-1,-1,58,-1,-1,60,-1,62,64,-1,-1,-1,-1,-1,-1,-1,-1,-1,-1,-1,-1,-1,-1,-1,-1,-1,-1,-1,-1,-1,-1],"split_conditions":[1.07346E3,1.15553E3,1.0798201E3,1.01916504E3,1.0663201E3,1.14239E3,9.4855005E2,9.6507996E2,1.06051E3,-1.7777711E-1,-4.736328E-1,9.91815E2,1.09006E3,1.101075E3,1.092545E3,9.4855005E2,9.72905E2,1.11453E3,1.0954E3,1.070005E3,1.0847351E3,1.2606202E-1,5.1842654E-1,3.6853027E-1,1.10321045E-2,1.10465E3,1.04975E3,1.039615E3,1.04156E3,9.9308496E2,9.2677E2,1.0802051E3,1.1495249E3,1.081665E3,-1.4925538E-1,-6.575318E-2,1.088115E3,6.5942384E-2,1.766162E-1,1.0986799E3,-3.9776918E-1,1.13753E3,1.072965E3,1.0334473E-1,1.2512207E-2,-1.3082519E-1,-2.7539063E-2,-6.987305E-2,5.3430177E-2,5.12146E-2,2.3881225E-1,-5.7019044E-2,-2.3709106E-1,-2.8820802E-2,2.5561525E-2,-4.3707278E-2,5.567191E-2,2.305298E-2,-1.3946534E-2,2.8674318E-2,-1.2420044E-1,-3.7981305E-2,5.4612124E-1,-2.2220634E-1,2.686212E-3],"split_indices":[18,59,17,11,18,59,47,17,49,0,0,49,5,1,17,16,24,5,33,4,18,0,0,0,0,20,1,0,0,3,1,6,0,6,0,0,2,0,0,6,0,37,1,0,0,0,0,0,0,0,0,0,0,0,0,0,0,0,0,0,0,0,0,0,0],"split_type":[0,0,0,0,0,0,0,0,0,0,0,0,0,0,0,0,0,0,0,0,0,0,0,0,0,0,0,0,0,0,0,0,0,0,0,0,0,0,0,0,0,0,0,0,0,0,0,0,0,0,0,0,0,0,0,0,0,0,0,0,0,0,0,0,0],"sum_hessian":[6.58E2,4E1,6.18E2,3.5E1,5E0,1.5E1,6.03E2,1.7E1,1.8E1,3E0,2E0,1E1,5E0,3E0,6E2,8E0,9E0,9E0,9E0,4E0,6E0,2E0,3E0,2E0,1E0,1.7E1,5.83E2,3E0,5E0,3E0,6E0,7E0,2E0,7E0,2E0,1E0,3E0,2E0,4E0,1.4E1,3E0,9E0,5.74E2,1E0,2E0,4E0,1E0,1E0,2E0,1E0,5E0,2E0,5E0,1E0,1E0,1E0,6E0,1E0,2E0,6E0,8E0,6E0,3E0,6E0,5.68E2],"tree_param":{"num_deleted":"0","num_feature":"60","num_nodes":"65","size_leaf_vector":"0"}},{"base_weights":[4.228375E-3,-1.4489624E-2,1.8469828E-1,7.3334E-3,-9.253453E-1,1.7770507E0,4.424207E-2,-1.4909586E-2,6.70725E-1,-1.2587525E0,-7.346191E-2,-5.403704E-1,1.22089095E-1,1.9110544E-3,-1.1904907E0,1.6215088E0,3.0908203E-1,-6.4882815E-1,-1.5572306E0,-2.675171E-1,3.513794E-1,2.7349854E-1,-7.215983E-1,5.296544E-1,-2.734688E-2,1.1454707E-2,-5.836453E-1,-2.7485353E-1,-2.0374146E0,-6.454807E-2,7.45309E-1,-6.493327E-1,-1.8488464E0,-2.1972656E-2,-3.4204102E-1,-9.5633954E-1,-3.6514282E-1,8.352458E-1,-1.7008463E-2,-5.4067993E-1,1.0184097E-1,2.9899445E-3,1.1703796E0,-2.0600586E-1,-8.445557E-1,-5.772298E-1,1.19140625E-1,-4.6711427E-1,3.5092774E-1,8.3555096E-1,1.0192871E-1,1.0950928E0,4.083496E-1,-3.667806E-1,2.4957275E-1,8.26416E-2,-6.415318E-1,2.3526834E-1,-1.7427202E-1],"categories":[],"categories_nodes":[],"categories_segments":[],"categories_sizes":[],"default_left":[1,1,1,1,1,0,1,1,1,1,1,1,1,1,1,0,1,0,1,1,0,0,1,1,1,1,1,1,0,1,1,0,0,0,0,0,0,1,1,1,1,0,0,0,0,0,0,0,0,0,0,0,0,0,0,0,0,0,0],"id":61,"left_children":[1,3,5,7,9,-1,11,13,15,17,19,21,23,25,27,-1,29,-1,31,33,-1,-1,35,37,39,41,43,45,-1,47,49,-1,-1,-1,-1,-1,-1,51,53,55,57,-1,-1,-1,-1,-1,-1,-1,-1,-1,-1,-1,-1,-1,-1,-1,-1,-1,-1],"loss_changes":[2.2288015E0,1.1893606E1,1.378804E1,8.642148E0,3.8838654E0,0E0,2.705573E0,1.1214149E1,6.0318623E0,8.1011677E-1,5.0621325E-1,1.2298265E0,3.18154E0,3.1361592E0,5.6438093E0,0E0,2.492921E0,0E0,3.8802814E-1,6.5680206E-2,0E0,0E0,1.5284824E-1,2.3529825E0,2.6414027E0,5.411634E0,7.1278715E-1,6.6444397E-1,0E0,1.6692319E0,3.2125282E-1,0E0,0E0,0E0,0E0,0E0,0E0,5.5116844E-1,6.5099454E-1,5.5592227E-1,1.2199135E0,0E0,0E0,0E0,0E0,0E0,0E0,0E0,0E0,0E0,0E0,0E0,0E0,0E0,0E0,0E0,0E0,0E0,0E0],"parents":[2147483647,0,0,1,1,2,2,3,3,4,4,6,6,7,7,8,8,9,9,10,10,11,11,12,12,13,13,14,14,16,16,18,18,19,19,22,22,23,23,24,24,25,25,26,26,27,27,29,29,30,30,37,37,38,38,39,39,40,40],"right_children":[2,4,6,8,10,-1,12,14,16,18,20,22,24,26,28,-1,30,-1,32,34,-1,-1,36,38,40,42,44,46,-1,48,50,-1,-1,-1,-1,-1,-1,52,54,56,58,-1,-1,-1,-1,-1,-1,-1,-1,-1,-1,-1,-1,-1,-1,-1,-1,-1,-1],"split_conditions":[1.963345E3,1.954365E3,1.94808E3,1.92577E3,1.9495249E3,5.3311527E-1,1.813105E3,1.909865E3,1.9345449E3,1.83303E3,1.98301E3,1.95463E3,1.95185E3,1.930305E3,1.797465E3,4.8645267E-1,1.946075E3,-1.9464846E-1,1.907085E3,1.942115E3,1.05413824E-1,8.204956E-2,1.971E3,1.989725E3,1.96328E3,1.941355E3,1.810385E3,1.958425E3,-6.112244E-1,1.9327E3,1.982655E3,-1.9479983E-1,-5.5465394E-1,-6.5917973E-3,-1.0261231E-1,-2.8690186E-1,-1.09542854E-1,1.98227E3,1.945675E3,1.96953E3,1.976865E3,8.969834E-4,3.5111392E-1,-6.1801758E-2,-2.533667E-1,-1.7316894E-1,3.574219E-2,-1.4013429E-1,1.0527833E-1,2.506653E-1,3.0578615E-2,3.2852784E-1,1.2250488E-1,-1.1003419E-1,7.487183E-2,2.4792481E-2,-1.9245955E-1,7.0580505E-2,-5.2281607E-2],"split_indices":[12,16,9,16,39,0,48,14,14,38,3,9,33,7,46,0,17,0,0,0,0,0,0,6,23,3,39,0,0,25,8,0,0,0,0,0,0,15,0,6,48,0,0,0,0,0,0,0,0,0,0,0,0,0,0,0,0,0,0],"split_type":[0,0,0,0,0,0,0,0,0,0,0,0,0,0,0,0,0,0,0,0,0,0,0,0,0,0,0,0,0,0,0,0,0,0,0,0,0,0,0,0,0,0,0,0,0,0,0,0,0,0,0,0,0,0,0,0,0,0,0],"sum_hessian":[6.58E2,5.97E2,6.1E1,5.84E2,1.3E1,4E0,5.7E1,5.66E2,1.8E1,9E0,4E0,6E0,5.1E1,5.59E2,7E0,4E0,1.4E1,4E0,5E0,3E0,1E0,1E0,5E0,1.3E1,3.8E1,5.51E2,8E0,4E0,3E0,8E0,6E0,2E0,3E0,1E0,2E0,2E0,3E0,8E0,5E0,7E0,3.1E1,5.48E2,3E0,4E0,4E0,2E0,2E0,4E0,4E0,5E0,1E0,4E0,4E0,2E0,3E0,1E0,6E0,2.1E1,1E1],"tree_param":{"num_deleted":"0","num_feature":"60","num_nodes":"59","size_leaf_vector":"0"}},{"base_weights":[2.3247078E-3,4.300686E-2,-7.174761E-2,-9.755096E-3,3.9178684E-1,-1.5166168E0,-2.0511039E-2,2.342913E-2,-5.3724253E-1,3.4852703E0,2.1267135E-1,-3.885742E-1,-2.5475159E0,6.9974774E-1,-7.113719E-2,-1.7474383E-2,7.788425E-1,-1.7381287E0,-2.561485E-1,4.1691895E0,1.0587158E0,1.8661499E0,7.8816734E-2,-5.2005005E-1,6.866455E-2,-3.065389E-1,1.233545E0,-5.241585E-1,8.905767E-3,2.4586352E-2,-7.5490314E-1,2.1708984E0,2.2604807E-1,-6.1395943E-1,5.9892133E-2,-1.3537191E0,1.649145E-1,3.9347332E-2,-4.8931885E-1,2.053833E0,7.717438E-1,4.659695E-2,-1.1741211E0,1.4525757E0,-2.3404766E-2,-3.6801178E-2,1.3514317E0,-1.3241999E0,6.0439044E-1,-3.751587E-1,1.3832519E0,-7.321952E-1,-1.3342285E-1,3.9699706E-1,-1.8945312E-1,6.4463043E-1,-6.56846E-2,2.2798665E-1,9.1499835E-1,1.3505859E0,-2.008133E-1,-2.417277E0,-7.9692197E-1,7.269287E-2,1.8883057E0,1.0307617E0,-5.3390067E-2],"categories":[],"categories_nodes":[],"categories_segments":[],"categories_sizes":[],"default_left":[1,1,1,1,1,1,1,1,1,1,1,1,0,1,1,1,1,0,1,0,0,0,1,0,0,1,1,1,1,1,1,0,1,1,1,0,1,0,0,0,1,1,1,1,1,0,0,0,0,0,0,0,0,0,0,0,0,0,0,0,0,0,0,0,0,0,0],"id":62,"left_children":[1,3,5,7,9,11,13,15,17,19,21,23,-1,25,27,29,31,-1,33,-1,-1,-1,35,-1,-1,37,39,41,43,45,47,-1,49,51,53,-1,55,-1,-1,-1,57,59,61,63,65,-1,-1,-1,-1,-1,-1,-1,-1,-1,-1,-1,-1,-1,-1,-1,-1,-1,-1,-1,-1,-1,-1],"loss_changes":[1.9889303E0,7.843208E0,1.7291945E1,6.5066686E0,3.0287868E1,8.313286E0,8.327089E0,1.082828E1,6.9811435E0,5.6471634E-1,1.1804507E1,3.3628827E-1,0E0,8.435425E0,7.7282953E0,1.0347154E1,1.3360646E1,0E0,2.1853442E0,0E0,0E0,0E0,6.513493E0,0E0,0E0,3.9857978E-1,2.2030668E0,1.1925742E1,8.523522E0,2.5788488E1,1.4729481E1,0E0,1.0259002E1,4.1365814E-1,9.9982303E-1,0E0,5.462823E0,0E0,0E0,0E0,4.145584E-1,6.0783796E0,5.107378E0,2.2677593E0,5.713133E0,0E0,0E0,0E0,0E0,0E0,0E0,0E0,0E0,0E0,0E0,0E0,0E0,0E0,0E0,0E0,0E0,0E0,0E0,0E0,0E0,0E0,0E0],"parents":[2147483647,0,0,1,1,2,2,3,3,4,4,5,5,6,6,7,7,8,8,9,9,10,10,11,11,13,13,14,14,15,15,16,16,18,18,22,22,25,25,26,26,27,27,28,28,29,29,30,30,32,32,33,33,34,34,36,36,40,40,41,41,42,42,43,43,44,44],"right_children":[2,4,6,8,10,12,14,16,18,20,22,24,-1,26,28,30,32,-1,34,-1,-1,-1,36,-1,-1,38,40,42,44,46,48,-1,50,52,54,-1,56,-1,-1,-1,58,60,62,64,66,-1,-1,-1,-1,-1,-1,-1,-1,-1,-1,-1,-1,-1,-1,-1,-1,-1,-1,-1,-1,-1,-1],"split_conditions":[1.784895E3,1.7715801E3,1.669315E3,1.75397E3,1.6643049E3,1.7888201E3,1.72904E3,1.47094E3,1.759655E3,1.793105E3,1.7582849E3,1.815435E3,-7.642548E-1,1.7994451E3,1.79728E3,1.5334199E3,1.48954E3,-5.214386E-1,1.764895E3,1.2507569E0,3.1761476E-1,5.59845E-1,1.531185E3,-1.5601502E-1,2.0599365E-2,1.7966951E3,1.795405E3,1.7842151E3,1.79339E3,1.23909E3,1.52463E3,6.5126956E-1,1.7878201E3,1.767675E3,1.75984E3,-4.0611574E-1,1.75999E3,1.18042E-2,-1.4679566E-1,6.161499E-1,1.798015E3,1.7582849E3,1.78334E3,1.76893E3,1.7415449E3,-1.1040354E-2,4.0542954E-1,-3.9725998E-1,1.8131714E-1,-1.1254761E-1,4.1497558E-1,-2.1965857E-1,-4.002686E-2,1.19099125E-1,-5.683594E-2,1.9338913E-1,-1.9705381E-2,6.8395995E-2,2.744995E-1,4.051758E-1,-6.024399E-2,-7.251831E-1,-2.390766E-1,2.1807862E-2,5.664917E-1,3.0922854E-1,-1.6017022E-2],"split_indices":[19,9,47,13,32,14,56,48,13,0,6,0,0,1,15,8,44,0,16,0,0,0,45,0,0,4,7,12,19,38,38,0,29,9,18,0,27,0,0,0,6,16,11,0,43,0,0,0,0,0,0,0,0,0,0,0,0,0,0,0,0,0,0,0,0,0,0],"split_type":[0,0,0,0,0,0,0,0,0,0,0,0,0,0,0,0,0,0,0,0,0,0,0,0,0,0,0,0,0,0,0,0,0,0,0,0,0,0,0,0,0,0,0,0,0,0,0,0,0,0,0,0,0,0,0,0,0,0,0,0,0,0,0,0,0,0,0],"sum_hessian":[6.58E2,4.25E2,2.33E2,3.7E2,5.5E1,7E0,2.26E2,3.49E2,2.1E1,2E0,5.3E1,4E0,3E0,1.4E1,2.12E2,3.32E2,1.7E1,3E0,1.8E1,1E0,1E0,3E0,5E1,3E0,1E0,5E0,9E0,3.1E1,1.81E2,3.15E2,1.7E1,4E0,1.3E1,8E0,1E1,2E0,4.8E1,2E0,3E0,2E0,7E0,1.7E1,1.4E1,3E0,1.78E2,3.02E2,1.3E1,1.2E1,5E0,9E0,4E0,6E0,2E0,4E0,6E0,1.5E1,3.3E1,2E0,5E0,2E0,1.5E1,2E0,1.2E1,1E0,2E0,4E0,1.74E2],"tree_param":{"num_deleted":"0","num_feature":"60","num_nodes":"67","size_leaf_vector":"0"}},{"base_weights":[5.3864685E-3,-1.1848883E-3,4.801161E-1,7.5649716E-2,-4.7433764E-2,9.5304364E-1,2.0884487E-1,1.0294411E-1,-1.594574E0,-1.5667969E0,-9.139631E-3,2.8219604E-1,8.328247E-2,4.2629372E-2,1.3656783E0,-3.9937338E-1,-1.8087311E0,7.099554E-1,-5.1078495E-2,-1.2975252E-2,5.035547E-1,1.2231445E-1,2.381429E0,-5.0341797E-1,-9.564209E-2,-1.9142543E0,-5.350342E-1,1.0799154E-2,1.9321289E0,-1.2826039E0,-1.4027109E-2,2.2586599E-2,-1.4613037E0,9.4866943E-1,-2.589844E-1,-6.1846924E-1,3.9416504E-1,6.6697186E-1,-3.839844E-1,2.2768903E0,-2.4060059E-1,-4.6162924E-1,-1.8898112E0,6.3852763E-1,-3.4094546E-2],"categories":[],"categories_nodes":[],"categories_segments":[],"categories_sizes":[],"default_left":[1,1,1,1,1,0,1,1,0,1,1,0,0,1,1,1,1,1,1,1,1,1,0,0,0,0,0,1,1,1,1,0,0,0,0,0,0,0,0,0,0,0,0,0,0],"id":63,"left_children":[1,3,5,7,9,-1,11,13,-1,15,17,-1,-1,19,21,23,25,27,29,31,33,35,-1,-1,-1,-1,-1,37,39,41,43,-1,-1,-1,-1,-1,-1,-1,-1,-1,-1,-1,-1,-1,-1],"loss_changes":[2.0563972E0,2.3169258E0,9.5558643E-1,1.1333153E1,2.3666037E1,0E0,4.0969044E-2,1.8372862E1,0E0,2.1020374E0,1.2039158E1,0E0,0E0,5.952596E0,1.3601141E1,4.6656847E-2,5.1044464E-2,1.877792E1,1.7184414E1,1.0746097E1,8.731125E0,1.4520738E0,0E0,0E0,0E0,0E0,0E0,4.141799E0,6.540407E0,4.611128E0,4.827672E0,0E0,0E0,0E0,0E0,0E0,0E0,0E0,0E0,0E0,0E0,0E0,0E0,0E0,0E0],"parents":[2147483647,0,0,1,1,2,2,3,3,4,4,6,6,7,7,9,9,10,10,13,13,14,14,15,15,16,16,17,17,18,18,19,19,20,20,21,21,27,27,28,28,29,29,30,30],"right_children":[2,4,6,8,10,-1,12,14,-1,16,18,-1,-1,20,22,24,26,28,30,32,34,36,-1,-1,-1,-1,-1,38,40,42,44,-1,-1,-1,-1,-1,-1,-1,-1,-1,-1,-1,-1,-1,-1],"split_conditions":[1.9880901E3,1.197965E3,1.9859751E3,1.467975E3,1.19955E3,2.859131E-1,1.794335E3,1.2287051E3,-4.7837222E-1,1.13681E3,1.219615E3,8.465882E-2,2.4984742E-2,1.2223049E3,1.2345549E3,1.386515E3,1.24226E3,1.221435E3,1.22315E3,1.2201101E3,1.210165E3,1.188585E3,7.144287E-1,-1.510254E-1,-2.8692627E-2,-5.742763E-1,-1.6051026E-1,1.0939451E3,1.6744551E3,1.18536E3,1.189265E3,6.77598E-3,-4.3839112E-1,2.8460085E-1,-7.769532E-2,-1.8554078E-1,1.1824951E-1,2.0009157E-1,-1.1519532E-1,6.830671E-1,-7.218018E-2,-1.3848878E-1,-5.6694335E-1,1.915583E-1,-1.0228364E-2],"split_indices":[55,59,56,12,58,0,0,44,0,55,58,0,0,16,13,0,35,40,58,16,41,2,0,0,0,0,0,0,2,37,40,0,0,0,0,0,0,0,0,0,0,0,0,0,0],"split_type":[0,0,0,0,0,0,0,0,0,0,0,0,0,0,0,0,0,0,0,0,0,0,0,0,0,0,0,0,0,0,0,0,0,0,0,0,0,0,0,0,0,0,0,0,0],"sum_hessian":[6.58E2,6.5E2,8E0,2.44E2,4.06E2,2E0,6E0,2.41E2,3E0,9E0,3.97E2,3E0,3E0,2.31E2,1E1,2E0,7E0,2.1E1,3.76E2,2.07E2,2.4E1,5E0,5E0,1E0,1E0,6E0,1E0,1.4E1,7E0,1E1,3.66E2,2.03E2,4E0,1.5E1,9E0,1E0,4E0,5E0,9E0,6E0,1E0,5E0,5E0,1E1,3.56E2],"tree_param":{"num_deleted":"0","num_feature":"60","num_nodes":"45","size_leaf_vector":"0"}},{"base_weights":[3.1560455E-3,-3.5582837E-3,3.9901456E-1,1.944467E-2,-1.1644953E-1,5.5378723E-1,-1.0284424E-2,3.4998844E-3,9.5979816E-1,-1.8040161E0,-8.441666E-2,1.2072754E-1,6.780192E-1,1.0502116E-1,-1.7810059E-1,-1.7783098E-2,4.358301E-1,2.0498657E0,7.312012E-2,6.419678E-1,-1.3296302E-1,1.4855957E-1,3.253174E-2,-1.114644E-2,-1.6912842E0,1.4472046E0,2.3213334E-1,3.112549E-1,-5.5877686E-1,-4.6765137E-1,9.048462E-1,-5.1027834E-1,6.035581E-2,2.1385392E-2,-3.226776E-1,6.994629E-2,1.8829752E0,-4.044393E-1,4.4315115E-1,3.473816E-1,8.337402E-2,2.1252441E-1,1.0008056E0,1.4453997E-1,-9.037864E-1,8.6408025E-1,-9.05141E-2],"categories":[],"categories_nodes":[],"categories_segments":[],"categories_sizes":[],"default_left":[1,1,1,1,1,1,1,1,1,0,1,1,0,0,0,1,1,0,1,1,1,0,0,1,0,1,1,1,0,0,1,1,1,0,0,0,0,0,0,0,0,0,0,0,0,0,0],"id":64,"left_children":[1,3,5,7,9,11,13,15,17,-1,19,21,-1,-1,-1,23,25,-1,27,29,31,-1,-1,33,-1,35,37,39,-1,-1,41,43,45,-1,-1,-1,-1,-1,-1,-1,-1,-1,-1,-1,-1,-1,-1],"loss_changes":[1.752992E0,1.6876085E0,7.025267E-1,8.093258E0,5.794047E0,3.485434E-1,9.610489E-2,4.902829E0,8.548965E0,0E0,3.9290595E0,2.5311038E-3,0E0,0E0,0E0,5.623226E0,4.814398E0,0E0,1.0767819E0,2.465017E0,7.54384E0,0E0,0E0,5.145183E0,0E0,2.2689676E0,3.134447E0,1.2200326E-2,0E0,0E0,1.8591356E-1,9.1493025E0,8.445002E0,0E0,0E0,0E0,0E0,0E0,0E0,0E0,0E0,0E0,0E0,0E0,0E0,0E0,0E0],"parents":[2147483647,0,0,1,1,2,2,3,3,4,4,5,5,6,6,7,7,8,8,10,10,11,11,15,15,16,16,18,18,19,19,20,20,23,23,25,25,26,26,27,27,30,30,31,31,32,32],"right_children":[2,4,6,8,10,12,14,16,18,-1,20,22,-1,-1,-1,24,26,-1,28,30,32,-1,-1,34,-1,36,38,40,-1,-1,42,44,46,-1,-1,-1,-1,-1,-1,-1,-1,-1,-1,-1,-1,-1,-1],"split_conditions":[1.98495E3,1.8241699E3,1.947715E3,1.82455E3,1.74885E3,1.77874E3,2.011265E3,1.8793401E3,1.9487051E3,-5.4120487E-1,1.78138E3,1.78797E3,2.0340578E-1,3.150635E-2,-5.3430177E-2,1.884715E3,1.790765E3,6.149597E-1,1.97836E3,1.74319E3,1.909635E3,4.456787E-2,9.759522E-3,1.795645E3,-5.0738525E-1,1.78736E3,1.9244551E3,1.982995E3,-1.6763306E-1,-1.4029542E-1,1.737885E3,1.817235E3,1.9340149E3,6.415618E-3,-9.6803285E-2,2.0983888E-2,5.648926E-1,-1.21331796E-1,1.3294534E-1,1.0421448E-1,2.5012208E-2,6.375733E-2,3.002417E-1,4.336199E-2,-2.7113593E-1,2.592241E-1,-2.7154231E-2],"split_indices":[59,53,47,52,35,2,0,30,8,0,25,0,0,0,0,31,2,0,4,1,45,0,0,59,0,1,3,0,0,0,0,46,52,0,0,0,0,0,0,0,0,0,0,0,0,0,0],"split_type":[0,0,0,0,0,0,0,0,0,0,0,0,0,0,0,0,0,0,0,0,0,0,0,0,0,0,0,0,0,0,0,0,0,0,0,0,0,0,0,0,0,0,0,0,0,0,0],"sum_hessian":[6.58E2,6.48E2,1E1,5.39E2,1.09E2,7E0,3E0,5.31E2,8E0,1E0,1.08E2,2E0,5E0,2E0,1E0,5.07E2,2.4E1,3E0,5E0,6E0,1.02E2,1E0,1E0,5.06E2,1E0,3E0,2.1E1,4E0,1E0,1E0,5E0,3.4E1,6.8E1,4.59E2,4.7E1,1E0,2E0,5E0,1.6E1,3E0,1E0,1E0,4E0,1.3E1,2.1E1,1E1,5.8E1],"tree_param":{"num_deleted":"0","num_feature":"60","num_nodes":"47","size_leaf_vector":"0"}},{"base_weights":[2.9250565E-3,-2.4176287E-3,4.3798828E-1,2.595362E-3,-5.425822E-1,9.786377E-1,9.466553E-2,-3.4355437E-3,4.305013E-1,-8.4454346E-1,4.0893555E-2,1.19384766E-1,-1.4465332E-2,-2.2568186E-1,6.7382012E-3,7.1691895E-1,-3.8130698E-1,2.1148682E-1,-1.5014648E-1,2.9004968E-3,-1.0643005E0,1.2262268E0,-9.398405E-3,1.0740967E0,1.8051147E-1,-5.343628E-1,-3.7597656E-2,2.6643676E-1,-1.8554688E-1,-1.5313721E0,-4.4792175E-1,1.9117838E0,6.7907715E-1,-3.011322E-1,4.750288E-3,4.827881E-2,2.084961E-1],"categories":[],"categories_nodes":[],"categories_segments":[],"categories_sizes":[],"default_left":[1,1,1,1,1,0,1,1,1,0,1,0,0,1,1,1,1,0,0,1,1,1,1,0,1,0,0,0,0,0,0,0,0,0,0,0,0],"id":65,"left_children":[1,3,5,7,9,-1,11,13,15,-1,17,-1,-1,19,21,23,25,-1,-1,27,29,31,33,-1,35,-1,-1,-1,-1,-1,-1,-1,-1,-1,-1,-1,-1],"loss_changes":[1.5328424E0,1.76692E0,1.3922946E0,1.6711663E0,1.0916588E0,0E0,1.791273E-2,1.446349E0,2.3660119E0,0E0,1.2952442E-1,0E0,0E0,5.3705034E0,1.205471E1,1.147263E0,1.3772935E-1,0E0,0E0,1.1916791E0,1.0414228E0,1.702569E0,2.4986598E0,0E0,4.7359765E-3,0E0,0E0,0E0,0E0,0E0,0E0,0E0,0E0,0E0,0E0,0E0,0E0],"parents":[2147483647,0,0,1,1,2,2,3,3,4,4,6,6,7,7,8,8,10,10,13,13,14,14,15,15,16,16,19,19,20,20,21,21,22,22,24,24],"right_children":[2,4,6,8,10,-1,12,14,16,-1,18,-1,-1,20,22,24,26,-1,-1,28,30,32,34,-1,36,-1,-1,-1,-1,-1,-1,-1,-1,-1,-1,-1,-1],"split_conditions":[1.995385E3,1.988125E3,1.783925E3,1.9843E3,1.9969651E3,2.9359132E-1,2.01752E3,1.02189E3,1.987075E3,-2.5336304E-1,1.9176699E3,3.5815433E-2,-4.3396E-3,1.084935E3,1.03318E3,2.0161599E3,1.91025E3,6.3446045E-2,-4.5043945E-2,1.0802051E3,1.1930801E3,1.1150801E3,1.05636E3,3.2222903E-1,1.9733401E3,-1.6030884E-1,-1.1279297E-2,7.993103E-2,-5.5664066E-2,-4.5941165E-1,-1.3437653E-1,5.7353514E-1,2.0372315E-1,-9.033966E-2,1.4250865E-3,1.4483643E-2,6.254883E-2],"split_indices":[42,44,1,47,44,0,12,58,50,0,0,0,0,45,58,7,0,0,0,33,3,26,52,0,0,0,0,0,0,0,0,0,0,0,0,0,0],"split_type":[0,0,0,0,0,0,0,0,0,0,0,0,0,0,0,0,0,0,0,0,0,0,0,0,0,0,0,0,0,0,0,0,0,0,0,0,0],"sum_hessian":[6.58E2,6.51E2,7E0,6.46E2,5E0,2E0,5E0,6.38E2,8E0,3E0,2E0,4E0,1E0,2.7E1,6.11E2,6E0,2E0,1E0,1E0,2.2E1,5E0,7E0,6.04E2,3E0,3E0,1E0,1E0,9E0,1.3E1,2E0,3E0,2E0,5E0,2.7E1,5.77E2,1E0,2E0],"tree_param":{"num_deleted":"0","num_feature":"60","num_nodes":"37","size_leaf_vector":"0"}},{"base_weights":[2.6752662E-3,1.4083774E-1,-1.3721427E-2,-2.6081588E-2,6.244981E-1,-6.7334926E-1,1.1382317E-3,8.217986E-2,-6.453247E-1,2.1751052E-1,1.4022217E0,-1.2807268E0,3.0221121E-2,-3.892259E-1,1.0102181E-2,3.6374178E-2,7.266032E-1,-9.373291E-1,-1.1898804E-1,5.4120743E-1,-1.3725935E-1,2.002655E0,1.3423665E-1,-3.453369E-1,-1.895935E0,-1.8530273E-1,3.7935385E-1,-1.8595378E-1,-1.4142456E0,4.217464E-1,-1.13006765E-2,5.758972E-1,-1.714939E-2,-2.2460938E-2,-1.4367676E-1,7.385254E-3,6.2894696E-1,1.3012695E-1,-2.0351155E-1,2.1826172E-1,-1.6906738E-2,4.796753E-1,8.935547E-2,1.0784912E-1,-4.1122E-1,-3.8126627E-1,6.1289114E-1,-5.033224E-1,1.0609964E-2,2.3079427E-1,8.05603E-1,6.246338E-1,-4.8809815E-2,6.7966306E-1,1.876831E-1,-4.522705E-2,2.7600098E-1,-5.3171384E-1,-7.332357E-2,6.7220055E-2,-6.2231445E-1,5.417633E-2,8.539429E-1,-1.9875488E-1,-1.9003296E0,6.046214E-1,-9.5672915E-3],"categories":[],"categories_nodes":[],"categories_segments":[],"categories_sizes":[],"default_left":[1,1,1,1,1,1,1,1,1,1,1,1,1,1,1,1,0,0,1,1,1,0,1,0,0,0,1,1,0,1,1,1,1,0,0,0,1,0,0,0,0,0,0,1,1,1,1,1,1,0,0,0,0,0,0,0,0,0,0,0,0,0,0,0,0,0,0],"id":66,"left_children":[1,3,5,7,9,11,13,15,17,19,21,23,25,27,29,31,-1,-1,33,35,37,-1,39,-1,-1,-1,41,43,-1,45,47,49,51,-1,-1,-1,53,-1,-1,-1,-1,-1,-1,55,57,59,61,63,65,-1,-1,-1,-1,-1,-1,-1,-1,-1,-1,-1,-1,-1,-1,-1,-1,-1,-1],"loss_changes":[1.4948363E0,5.667547E0,5.783854E0,3.6061609E0,5.3924313E0,5.594033E0,2.0264719E0,1.3314099E0,1.1180098E0,1.5671787E0,4.2992134E0,3.3734808E0,5.970203E-1,2.4456687E0,4.991431E0,1.280473E0,0E0,0E0,6.3054077E-3,3.232162E-1,1.5048687E-1,0E0,4.1789595E-2,0E0,0E0,0E0,4.441756E-2,8.3855605E-1,0E0,4.531441E0,5.8160357E0,1.3116002E-1,8.635725E-1,0E0,0E0,0E0,6.713867E-3,0E0,0E0,0E0,0E0,0E0,0E0,1.6692296E-1,2.46014E-1,6.904729E-1,3.0513573E0,9.408411E0,6.202299E0,0E0,0E0,0E0,0E0,0E0,0E0,0E0,0E0,0E0,0E0,0E0,0E0,0E0,0E0,0E0,0E0,0E0,0E0],"parents":[2147483647,0,0,1,1,2,2,3,3,4,4,5,5,6,6,7,7,8,8,9,9,10,10,11,11,12,12,13,13,14,14,15,15,18,18,19,19,20,20,22,22,26,26,27,27,29,29,30,30,31,31,32,32,36,36,43,43,44,44,45,45,46,46,47,47,48,48],"right_children":[2,4,6,8,10,12,14,16,18,20,22,24,26,28,30,32,-1,-1,34,36,38,-1,40,-1,-1,-1,42,44,-1,46,48,50,52,-1,-1,-1,54,-1,-1,-1,-1,-1,-1,56,58,60,62,64,66,-1,-1,-1,-1,-1,-1,-1,-1,-1,-1,-1,-1,-1,-1,-1,-1,-1,-1],"split_conditions":[1.0786001E3,1.11978E3,1.07605E3,1.087685E3,1.073685E3,1.145925E3,1.02193E3,1.087875E3,1.0596001E3,1.109385E3,1.205345E3,1.123095E3,1.2115149E3,1.22362E3,1.0802051E3,9.44735E2,2.1798097E-1,-2.8119874E-1,1.136105E3,1.14615E3,1.130075E3,6.007965E-1,1.1757849E3,-1.03601076E-1,-5.6878054E-1,-5.5590823E-2,1.22028E3,1.09405E3,-4.242737E-1,1.10431E3,1.10206E3,1.10024E3,9.097E2,-6.7382813E-3,-4.3103028E-2,2.2155764E-3,1.21593E3,3.903809E-2,-6.1053466E-2,6.547852E-2,-5.072022E-3,1.439026E-1,2.6806641E-2,1.0994451E3,1.18646E3,1.04898E3,1.092895E3,1.098465E3,1.11877E3,6.923828E-2,2.4168092E-1,1.8739015E-1,-1.46429455E-2,2.0389892E-1,5.6304935E-2,-1.3568115E-2,8.28003E-2,-1.5951416E-1,-2.1997072E-2,2.0166017E-2,-1.8669434E-1,1.62529E-2,2.5618288E-1,-5.9626464E-2,-5.700989E-1,1.8138643E-1,-2.8701876E-3],"split_indices":[43,14,44,31,42,16,58,44,53,27,4,4,0,7,53,36,0,0,0,3,1,0,0,0,0,0,0,35,0,21,46,0,46,0,0,0,0,0,0,0,0,0,0,21,7,35,43,46,46,0,0,0,0,0,0,0,0,0,0,0,0,0,0,0,0,0,0],"split_type":[0,0,0,0,0,0,0,0,0,0,0,0,0,0,0,0,0,0,0,0,0,0,0,0,0,0,0,0,0,0,0,0,0,0,0,0,0,0,0,0,0,0,0,0,0,0,0,0,0,0,0,0,0,0,0,0,0,0,0,0,0,0,0,0,0,0,0],"sum_hessian":[6.58E2,6.9E1,5.89E2,5.2E1,1.7E1,1.2E1,5.77E2,4.5E1,7E0,1.2E1,5E0,6E0,6E0,1.2E1,5.65E2,4.3E1,2E0,4E0,3E0,6E0,6E0,3E0,2E0,3E0,3E0,4E0,2E0,1.1E1,1E0,2.7E1,5.38E2,3E0,4E1,1E0,2E0,1E0,5E0,1E0,5E0,1E0,1E0,1E0,1E0,5E0,6E0,5E0,2.2E1,2.2E1,5.16E2,2E0,1E0,1E0,3.9E1,4E0,1E0,3E0,2E0,4E0,2E0,2E0,3E0,7E0,1.5E1,1.9E1,3E0,1.6E1,5E2],"tree_param":{"num_deleted":"0","num_feature":"60","num_nodes":"67","size_leaf_vector":"0"}},{"base_weights":[1.6613788E-3,-5.3780887E-2,3.9324034E-2,-2.1595264E-2,-1.4502563E0,6.8003935E-1,1.0328055E-2,-4.5974318E-2,1.5623474E0,-3.6999512E-1,-1.8978882E0,2.6769206E-1,2.515096E0,1.6386719E0,1.6391835E-3,1.1065133E-2,-6.317298E-1,-2.9644775E-1,7.9837036E-1,-4.4050968E-1,3.848021E-2,4.193851E-2,-4.8369926E-1,-1.0072327E0,1.9824219E-1,-1.159668E-2,-4.6503907E-1,1.993815E-2,1.0545248E0,1.08418785E-1,-1.2271932E0,7.7350986E-1,-2.3272213E-2,-3.512543E-3,4.392939E-1,4.1711426E-1,-7.672951E-1,-1.8780518E-1,-1.6236979E0,-4.4401854E-1,9.5150757E-1,4.7892254E-2,-9.503174E-2,-5.539856E-1,-5.4626465E-2,2.1533203E-1,-1.854248E-1,-1.8003494E-1,7.1533203E-1,-6.7179364E-1,-1.5279367E0,2.6283404E-1,2.5170696E0,-1.4754639E0,4.287479E-3],"categories":[],"categories_nodes":[],"categories_segments":[],"categories_sizes":[],"default_left":[1,1,1,1,1,1,1,1,0,0,0,1,0,0,1,1,1,1,1,1,1,1,1,1,1,1,1,1,0,1,1,1,1,0,0,0,0,0,0,0,0,0,0,0,0,0,0,0,0,0,0,0,0,0,0],"id":67,"left_children":[1,3,5,7,9,11,13,15,-1,-1,-1,17,-1,-1,19,21,23,25,27,29,31,33,35,37,39,41,43,45,-1,47,49,51,53,-1,-1,-1,-1,-1,-1,-1,-1,-1,-1,-1,-1,-1,-1,-1,-1,-1,-1,-1,-1,-1,-1],"loss_changes":[1.3781747E0,1.1969379E1,7.2941966E0,1.0188965E1,2.1991463E0,1.21903E1,5.3312874E0,8.660483E0,0E0,0E0,0E0,4.7273264E0,0E0,0E0,6.1416965E0,3.6404717E0,7.3677845E0,3.7879443E-1,1.5741649E0,1.2656208E1,1.5813673E1,4.0470324E0,3.8965876E0,7.777437E0,4.2928295E0,2.4405135E-2,1.5226161E-1,1.603079E-1,0E0,3.2799797E0,9.779339E-1,2.3379059E1,1.2893395E1,0E0,0E0,0E0,0E0,0E0,0E0,0E0,0E0,0E0,0E0,0E0,0E0,0E0,0E0,0E0,0E0,0E0,0E0,0E0,0E0,0E0,0E0],"parents":[2147483647,0,0,1,1,2,2,3,3,4,4,5,5,6,6,7,7,11,11,14,14,15,15,16,16,17,17,18,18,19,19,20,20,21,21,22,22,23,23,24,24,25,25,26,26,27,27,29,29,30,30,31,31,32,32],"right_children":[2,4,6,8,10,12,14,16,-1,-1,-1,18,-1,-1,20,22,24,26,28,30,32,34,36,38,40,42,44,46,-1,48,50,52,54,-1,-1,-1,-1,-1,-1,-1,-1,-1,-1,-1,-1,-1,-1,-1,-1,-1,-1,-1,-1,-1,-1],"split_conditions":[1.234825E3,1.240265E3,1.19974E3,1.2433301E3,1.2204E3,1.190955E3,1.1110549E3,1.22295E3,4.6870425E-1,-1.1099854E-1,-5.6936646E-1,1.195195E3,7.545288E-1,4.916016E-1,1.2297849E3,1.22731E3,1.220585E3,1.2231699E3,1.2089E3,1.4621699E3,1.5473049E3,1.21036E3,1.08035E3,1.2256001E3,1.21074E3,1.26231E3,1.34455E3,1.3135549E3,3.1635743E-1,1.2192251E3,1.45737E3,1.5473049E3,1.52498E3,-1.053763E-3,1.3178818E-1,1.2513429E-1,-2.3018855E-1,-5.6341555E-2,-4.871094E-1,-1.3320556E-1,2.8545228E-1,1.4367676E-2,-2.8509522E-2,-1.6619569E-1,-1.638794E-2,6.459961E-2,-5.5627443E-2,-5.4010484E-2,2.1459962E-1,-2.015381E-1,-4.5838103E-1,7.885022E-2,7.5512093E-1,-4.4263917E-1,1.2862438E-3],"split_indices":[0,36,28,46,11,28,46,14,0,0,0,37,0,0,46,6,40,1,14,4,36,43,45,19,6,0,6,0,0,55,17,30,50,0,0,0,0,0,0,0,0,0,0,0,0,0,0,0,0,0,0,0,0,0,0],"split_type":[0,0,0,0,0,0,0,0,0,0,0,0,0,0,0,0,0,0,0,0,0,0,0,0,0,0,0,0,0,0,0,0,0,0,0,0,0,0,0,0,0,0,0,0,0,0,0,0,0,0,0,0,0,0,0],"sum_hessian":[6.58E2,2.66E2,3.92E2,2.61E2,5E0,1.6E1,3.76E2,2.58E2,3E0,2E0,3E0,1.4E1,2E0,1E0,3.75E2,2.36E2,2.2E1,7E0,7E0,2.8E1,3.47E2,2.23E2,1.3E1,1.5E1,7E0,3E0,4E0,2E0,5E0,1.7E1,1.1E1,2.6E1,3.21E2,2.01E2,2.2E1,3E0,1E1,7E0,8E0,4E0,3E0,2E0,1E0,3E0,1E0,1E0,1E0,1.2E1,5E0,5E0,6E0,2.1E1,5E0,5E0,3.16E2],"tree_param":{"num_deleted":"0","num_feature":"60","num_nodes":"55","size_leaf_vector":"0"}},{"base_weights":[2.1924495E-3,1.0392103E-1,-1.7935695E-2,2.060547E-2,6.246582E-1,-4.7785646E-1,-6.117283E-4,-6.110583E-2,3.3007812E-1,-3.0731201E-2,1.2019653E0,5.38737E-2,-8.368327E-1,-6.590169E-1,6.8855067E-3,5.06641E-2,-5.190145E-1,5.774028E-1,-3.636339E-2,3.1644693E-1,-1.9919841E-1,1.3810222E-1,1.5335693E0,-1.3881138E-1,4.855143E-1,-1.7559814E0,-1.5776062E-1,-1.2424316E0,-2.9384765E-1,6.769775E-1,4.6610786E-4,-1.770953E-1,1.3373466E-1,-1.1271973E0,-1.9538464E-1,8.780721E-1,2.3720005E-1,-9.033203E-2,5.368042E-2,-3.2747397E-1,-5.319214E-2,2.9248047E-1,-8.532715E-2,7.076009E-2,-2.36792E-1,-4.000651E-1,-1.0314941E-2,-3.632202E-1,-8.178711E-3,1.6665885E-1,-1.7844249E-2,-4.4267133E-2,-3.6052594E-1,8.1119794E-1,8.450456E-2,-7.611084E-2,-1.3709412E0,2.6835123E-1,-3.2825387E-1,2.9785156E-1,1.0937195E0,-2.5634766E-2,-9.814453E-2,6.315104E-2,1.2634277E-2,-7.5398766E-2,6.713867E-3,-3.0000815E-1,-9.464518E-2,-8.574219E-2,1.8341064E-1,1.2305218E-2,1.1571742E0,-3.7248534E-1,1.4958265E-2],"categories":[],"categories_nodes":[],"categories_segments":[],"categories_sizes":[],"default_left":[1,1,1,1,1,1,1,1,1,1,1,1,1,1,1,1,1,1,1,0,1,1,0,1,0,0,1,0,1,0,1,1,1,1,1,1,0,1,1,0,1,0,0,0,1,0,1,0,0,1,1,0,0,0,0,0,0,0,0,0,0,0,0,0,0,0,0,0,0,0,0,0,0,0,0],"id":68,"left_children":[1,3,5,7,9,11,13,15,17,19,21,23,25,27,29,31,33,35,37,-1,39,41,-1,43,-1,-1,45,-1,47,-1,49,51,53,55,57,59,-1,61,63,-1,65,-1,-1,-1,67,-1,69,-1,-1,71,73,-1,-1,-1,-1,-1,-1,-1,-1,-1,-1,-1,-1,-1,-1,-1,-1,-1,-1,-1,-1,-1,-1,-1,-1],"loss_changes":[1.3512373E0,4.7161493E0,4.389884E0,2.422474E0,5.712352E0,3.8626528E0,2.630606E0,3.916007E0,1.8335967E0,5.309408E-1,2.6104612E0,8.1593126E-1,7.2129946E0,9.131849E-1,2.2666216E0,1.19673E0,2.7321548E0,1.0191836E0,4.8584938E-2,0E0,9.4955176E-2,1.2843443E-1,0E0,1.60493E-1,0E0,0E0,2.8168738E-1,0E0,9.61172E-2,0E0,1.594488E0,3.9824146E-1,1.4656229E0,1.1766357E0,7.6586574E-1,4.2497206E-1,0E0,5.1677227E-4,7.570619E-4,0E0,5.8274586E-3,0E0,0E0,0E0,1.653555E-2,0E0,1.0339915E-1,0E0,0E0,7.9360223E0,5.496404E0,0E0,0E0,0E0,0E0,0E0,0E0,0E0,0E0,0E0,0E0,0E0,0E0,0E0,0E0,0E0,0E0,0E0,0E0,0E0,0E0,0E0,0E0,0E0,0E0],"parents":[2147483647,0,0,1,1,2,2,3,3,4,4,5,5,6,6,7,7,8,8,9,9,10,10,11,11,12,12,13,13,14,14,15,15,16,16,17,17,18,18,20,20,21,21,23,23,26,26,28,28,30,30,31,31,32,32,33,33,34,34,35,35,37,37,38,38,40,40,44,44,46,46,49,49,50,50],"right_children":[2,4,6,8,10,12,14,16,18,20,22,24,26,28,30,32,34,36,38,-1,40,42,-1,44,-1,-1,46,-1,48,-1,50,52,54,56,58,60,-1,62,64,-1,66,-1,-1,-1,68,-1,70,-1,-1,72,74,-1,-1,-1,-1,-1,-1,-1,-1,-1,-1,-1,-1,-1,-1,-1,-1,-1,-1,-1,-1,-1,-1,-1,-1],"split_conditions":[1.0963201E3,1.110595E3,1.0895901E3,1.148405E3,1.07877E3,1.1211699E3,1.051635E3,1.09352E3,1.100335E3,9.4658997E2,1.00245E3,1.1325801E3,1.154545E3,1.061475E3,1.0305349E3,1.0920701E3,1.07696E3,1.10022E3,1.20561E3,9.493408E-2,1.04824E3,9.9980005E2,4.6007082E-1,1.001025E3,1.456543E-1,-5.2679443E-1,1.082605E3,-3.727295E-1,1.18659E3,2.0309326E-1,1.1250701E3,1.05363E3,9.56565E2,1.13462E3,1.1149E3,1.144815E3,7.116002E-2,1.144775E3,1.218465E3,-9.824219E-2,1.1930701E3,8.774415E-2,-2.5598146E-2,2.1228028E-2,1.0505449E3,-1.2001953E-1,1.2152E3,-1.0896607E-1,-2.4536133E-3,1.11851E3,1.19617E3,-1.328014E-2,-1.08157784E-1,2.4335939E-1,2.535137E-2,-2.2833252E-2,-4.1128236E-1,8.050537E-2,-9.8476164E-2,8.935547E-2,3.2811585E-1,-7.69043E-3,-2.944336E-2,1.8945312E-2,3.7902833E-3,-2.2619631E-2,2.0141602E-3,-9.000245E-2,-2.8393555E-2,-2.5722658E-2,5.5023197E-2,3.6915655E-3,3.471523E-1,-1.117456E-1,4.4874796E-3],"split_indices":[42,49,48,15,42,25,22,35,39,22,0,1,23,20,57,3,44,36,7,0,26,0,0,5,0,0,54,0,1,0,8,47,44,0,7,11,0,13,0,0,0,0,0,0,33,0,3,0,0,7,5,0,0,0,0,0,0,0,0,0,0,0,0,0,0,0,0,0,0,0,0,0,0,0,0],"split_type":[0,0,0,0,0,0,0,0,0,0,0,0,0,0,0,0,0,0,0,0,0,0,0,0,0,0,0,0,0,0,0,0,0,0,0,0,0,0,0,0,0,0,0,0,0,0,0,0,0,0,0,0,0,0,0,0,0,0,0,0,0,0,0,0,0,0,0,0,0,0,0,0,0,0,0],"sum_hessian":[6.58E2,1.08E2,5.5E2,9.4E1,1.4E1,1.9E1,5.31E2,7.5E1,1.9E1,7E0,7E0,8E0,1.1E1,5E0,5.26E2,6.1E1,1.4E1,1.1E1,8E0,2E0,5E0,2E0,5E0,6E0,2E0,4E0,7E0,1E0,4E0,4E0,5.22E2,1.6E1,4.5E1,4E0,1E1,5E0,6E0,5E0,3E0,2E0,3E0,1E0,1E0,2E0,4E0,2E0,5E0,3E0,1E0,5.1E1,4.71E2,1E1,6E0,2E0,4.3E1,1E0,3E0,2E0,8E0,2E0,3E0,1E0,4E0,2E0,1E0,2E0,1E0,2E0,2E0,4E0,1E0,4.5E1,6E0,3.9E1,4.32E2],"tree_param":{"num_deleted":"0","num_feature":"60","num_nodes":"75","size_leaf_vector":"0"}},{"base_weights":[1.6052524E-3,-8.017056E-3,1.7872171E-1,1.6929173E-4,-1.2810364E0,6.793579E-1,-2.8681641E-2,4.698425E-3,-5.605713E-1,-5.696208E-1,-1.7076416E0,-2.142334E-2,7.5960284E-1,6.043294E-1,-1.1000127E-1,-2.5826897E-2,8.747251E-2,-8.0826825E-1,-1.2601726E-1,-5.101115E-1,2.947998E-2,1.0634513E-2,-5.4028726E-1,7.082723E-1,1.2393392E-2,-3.7231445E-2,-1.5179443E-1,-6.01532E-1,-2.1818034E-1,-1.7704265E-1,1.2253042E-1,-1.1867913E-2,3.8616943E-1,-1.1431526E-1,-1.018947E0,7.7667236E-3,1.1533425E0,1.0250244E0,-2.9594053E-2,-2.5249022E-1,1.00097656E-1,2.5569662E-1,7.3394775E-3],"categories":[],"categories_nodes":[],"categories_segments":[],"categories_sizes":[],"default_left":[1,1,1,1,1,1,1,1,1,0,0,0,0,0,1,1,1,0,1,1,1,1,1,1,1,0,0,0,0,1,1,0,0,0,0,0,0,0,0,0,0,0,0],"id":69,"left_children":[1,3,5,7,9,11,13,15,17,-1,-1,-1,-1,-1,19,21,23,-1,25,27,29,31,33,35,37,-1,-1,-1,-1,39,41,-1,-1,-1,-1,-1,-1,-1,-1,-1,-1,-1,-1],"loss_changes":[1.1245462E0,6.523999E0,3.5498283E0,1.5848476E0,2.4126673E-1,5.786147E-1,1.3533828E0,1.56629E0,4.3633294E-1,0E0,0E0,0E0,0E0,0E0,1.2986192E0,8.503098E0,7.774943E0,0E0,1.2144186E-3,2.8888464E-2,3.6759952E-1,3.587572E0,6.000389E0,5.6029778E0,6.4080033E0,0E0,0E0,0E0,0E0,1.5073107E-1,1.9753732E-1,0E0,0E0,0E0,0E0,0E0,0E0,0E0,0E0,0E0,0E0,0E0,0E0],"parents":[2147483647,0,0,1,1,2,2,3,3,4,4,5,5,6,6,7,7,8,8,14,14,15,15,16,16,18,18,19,19,20,20,21,21,22,22,23,23,24,24,29,29,30,30],"right_children":[2,4,6,8,10,12,14,16,18,-1,-1,-1,-1,-1,20,22,24,-1,26,28,30,32,34,36,38,-1,-1,-1,-1,40,42,-1,-1,-1,-1,-1,-1,-1,-1,-1,-1,-1,-1],"split_conditions":[1.97045E3,1.983405E3,1.953005E3,1.98826E3,1.84028E3,1.939515E3,1.80062E3,1.78879E3,1.968025E3,-1.7088625E-1,-5.122925E-1,-6.427002E-3,2.2788087E-1,1.8129882E-1,1.968245E3,1.7834099E3,1.76049E3,-2.4248049E-1,1.889165E3,1.811625E3,1.980105E3,1.768355E3,1.7713E3,1.75397E3,1.7843E3,-1.1169434E-2,-4.5538332E-2,-1.804596E-1,-6.54541E-2,2.06115E3,1.976795E3,-3.5603743E-3,1.15850836E-1,-3.429458E-2,-3.0568412E-1,2.3300173E-3,3.4600276E-1,3.0750734E-1,-8.878216E-3,-7.574707E-2,3.0029299E-2,7.670899E-2,2.2018433E-3],"split_indices":[40,37,53,31,0,43,5,47,25,0,0,0,0,0,15,49,3,0,0,4,40,47,23,2,48,0,0,0,0,1,44,0,0,0,0,0,0,0,0,0,0,0,0],"split_type":[0,0,0,0,0,0,0,0,0,0,0,0,0,0,0,0,0,0,0,0,0,0,0,0,0,0,0,0,0,0,0,0,0,0,0,0,0,0,0,0,0,0,0],"sum_hessian":[6.58E2,6.25E2,3.3E1,6.22E2,3E0,9E0,2.4E1,6.18E2,4E0,2E0,1E0,1E0,8E0,2E0,2.2E1,4.52E2,1.66E2,2E0,2E0,5E0,1.7E1,4.23E2,2.9E1,1.7E1,1.49E2,1E0,1E0,3E0,2E0,5E0,1.2E1,4E2,2.3E1,1.6E1,1.3E1,7E0,1E1,5E0,1.44E2,4E0,1E0,5E0,7E0],"tree_param":{"num_deleted":"0","num_feature":"60","num_nodes":"43","size_leaf_vector":"0"}},{"base_weights":[5.538547E-4,-2.9596926E-3,4.6071777E-1,1.1048018E-4,-6.702474E-1,8.7109375E-1,1.4035034E-1,4.5001775E-2,-3.2462653E-2,2.064616E-1,-2.89917E-2,9.934715E-3,1.6155192E0,-4.3122748E-1,1.323908E-2,-5.6507625E-3,1.3989258E0,2.1588135E-1,1.8522705E0,-1.6572265E-1,-1.1846192E0,5.8507746E-1,-2.6116181E-2,1.7031604E-2,-8.538121E-1,1.3966878E-1,-5.7582444E-1,-3.8381958E-1,-1.4729875E0,4.1585285E-2,2.4246337E0,-1.2328695E0,-1.464959E-2],"categories":[],"categories_nodes":[],"categories_segments":[],"categories_sizes":[],"default_left":[1,1,1,1,0,0,1,1,1,0,0,1,1,1,1,1,0,0,0,1,1,1,1,0,0,0,0,0,0,0,0,0,0],"id":70,"left_children":[1,3,5,7,-1,-1,9,11,13,-1,-1,15,17,19,21,23,-1,-1,-1,25,27,29,31,-1,-1,-1,-1,-1,-1,-1,-1,-1,-1],"loss_changes":[1.0668398E0,1.3419651E0,5.350971E-1,9.5631015E-1,0E0,0E0,5.0767332E-2,1.5129144E1,6.912697E0,0E0,0E0,5.852889E0,1.5883255E0,7.6048174E0,7.689433E0,5.170408E0,0E0,0E0,0E0,3.8376715E0,1.7438917E0,2.1894428E1,4.4098897E0,0E0,0E0,0E0,0E0,0E0,0E0,0E0,0E0,0E0,0E0],"parents":[2147483647,0,0,1,1,2,2,3,3,6,6,7,7,8,8,11,11,12,12,13,13,14,14,15,15,19,19,20,20,21,21,22,22],"right_children":[2,4,6,8,-1,-1,10,12,14,-1,-1,16,18,20,22,24,-1,-1,-1,26,28,30,32,-1,-1,-1,-1,-1,-1,-1,-1,-1,-1],"split_conditions":[1.99456E3,1.99752E3,1.776675E3,1.219615E3,-2.0107423E-1,2.6132813E-1,2.029335E3,1.21774E3,1.236575E3,6.193848E-2,-8.69751E-3,1.52463E3,1.076775E3,1.23144E3,1.528115E3,1.467975E3,4.1967776E-1,6.476441E-2,5.5568117E-1,1.220585E3,1.21845E3,1.542965E3,1.672165E3,5.1094815E-3,-2.5614363E-1,4.1900635E-2,-1.7274734E-1,-1.1514588E-1,-4.418963E-1,1.24755865E-2,7.2739017E-1,-3.6986086E-1,-4.3948772E-3],"split_indices":[48,46,3,58,0,0,0,58,54,0,0,22,5,40,37,12,0,0,0,28,57,27,13,0,0,0,0,0,0,0,0,0,0],"split_type":[0,0,0,0,0,0,0,0,0,0,0,0,0,0,0,0,0,0,0,0,0,0,0,0,0,0,0,0,0,0,0,0,0],"sum_hessian":[6.58E2,6.54E2,4E0,6.52E2,2E0,1E0,3E0,2.74E2,3.78E2,2E0,1E0,2.69E2,5E0,3.8E1,3.4E2,2.67E2,2E0,1E0,4E0,2.9E1,9E0,2.1E1,3.19E2,2.61E2,6E0,1.7E1,1.2E1,3E0,6E0,1.7E1,4E0,2E0,3.17E2],"tree_param":{"num_deleted":"0","num_feature":"60","num_nodes":"33","size_leaf_vector":"0"}},{"base_weights":[1.2616402E-3,-3.7405428E-3,2.9627573E-1,1.5672471E-2,-9.9006794E-2,5.373535E-1,8.175223E-2,3.3617523E-3,7.416314E-1,-4.3248573E-1,4.1633155E-3,1.307373E-1,6.0632324E-1,1.3319905E-1,-1.13464355E-1,-3.0614496E-3,8.5198975E-1,1.5903931E0,5.218506E-2,3.4354654E-1,-6.3361466E-1,1.0233154E0,-4.5602195E-2,3.2104492E-2,1.4699706E-1,1.803135E-2,-2.2492781E-1,2.5083008E-1,-4.7052002E-1,4.7333986E-1,-1.5270996E-1,-1.4582825E0,-4.1515434E-1,2.2155762E-1,1.2167155E0,7.1186525E-1,-9.357315E-2,4.4373586E-3,7.3499894E-1,-4.923643E-1,2.1843804E-1,2.758789E-1,7.531738E-2,3.7026978E-1,-5.969238E-1,1.2099609E0,-2.351888E-2,-4.7210428E-1,6.356593E-2],"categories":[],"categories_nodes":[],"categories_segments":[],"categories_sizes":[],"default_left":[1,1,1,1,1,1,1,1,1,1,1,0,0,1,0,1,0,0,1,1,1,1,1,0,0,1,1,1,0,0,0,0,1,0,0,1,1,0,0,0,0,0,0,0,0,0,0,0,0],"id":71,"left_children":[1,3,5,7,9,11,13,15,17,19,21,-1,-1,23,-1,25,-1,-1,27,29,31,33,35,-1,-1,37,39,41,-1,-1,-1,-1,43,-1,-1,45,47,-1,-1,-1,-1,-1,-1,-1,-1,-1,-1,-1,-1],"loss_changes":[9.736041E-1,1.2018156E0,5.249555E-1,4.8235283E0,3.786357E0,6.095195E-2,8.541625E-2,2.9024918E0,5.183585E0,4.275822E0,4.3577485E0,0E0,0E0,3.6501586E-3,0E0,2.4796607E0,0E0,0E0,7.4101716E-1,4.5874834E-1,3.1778889E0,3.5066748E-1,3.0461996E0,0E0,0E0,4.7140207E0,5.5618725E0,1.2034476E-3,0E0,0E0,0E0,0E0,2.7908134E0,0E0,0E0,1.8599153E0,4.6696086E0,0E0,0E0,0E0,0E0,0E0,0E0,0E0,0E0,0E0,0E0,0E0,0E0],"parents":[2147483647,0,0,1,1,2,2,3,3,4,4,5,5,6,6,7,7,8,8,9,9,10,10,13,13,15,15,18,18,19,19,20,20,21,21,22,22,25,25,26,26,27,27,32,32,35,35,36,36],"right_children":[2,4,6,8,10,12,14,16,18,20,22,-1,-1,24,-1,26,-1,-1,28,30,32,34,36,-1,-1,38,40,42,-1,-1,-1,-1,44,-1,-1,46,48,-1,-1,-1,-1,-1,-1,-1,-1,-1,-1,-1,-1],"split_conditions":[1.98495E3,1.8241699E3,1.97173E3,1.82455E3,1.82319E3,1.777175E3,2.011265E3,1.82171E3,1.9487051E3,1.7618301E3,1.78752E3,3.9221194E-2,1.8189698E-1,1.775085E3,-3.4039307E-2,1.7991E3,2.5559694E-1,4.7711793E-1,1.97836E3,1.780085E3,1.815345E3,1.76662E3,1.82297E3,9.631348E-3,4.4099122E-2,1.80276E3,1.81605E3,1.982995E3,-1.4115602E-1,1.4200196E-1,-4.581299E-2,-4.3748477E-1,1.8258049E3,6.6467285E-2,3.6501464E-1,1.96653E3,1.9386299E3,1.3312076E-3,2.204997E-1,-1.477093E-1,6.553142E-2,8.276367E-2,2.2595216E-2,1.1108094E-1,-1.7907715E-1,3.629883E-1,-7.0556644E-3,-1.4163129E-1,1.906978E-2],"split_indices":[59,53,54,52,41,2,0,53,8,6,16,0,0,1,0,53,0,0,4,1,57,1,50,0,0,54,59,0,0,0,0,0,58,0,0,2,49,0,0,0,0,0,0,0,0,0,0,0,0],"split_type":[0,0,0,0,0,0,0,0,0,0,0,0,0,0,0,0,0,0,0,0,0,0,0,0,0,0,0,0,0,0,0,0,0,0,0,0,0,0,0,0,0,0,0,0,0,0,0,0,0],"sum_hessian":[6.58E2,6.48E2,1E1,5.39E2,1.09E2,4E0,6E0,5.31E2,8E0,2.5E1,8.4E1,1E0,3E0,5E0,1E0,5.28E2,3E0,3E0,5E0,5E0,2E1,3E0,8.1E1,1E0,4E0,4.83E2,4.5E1,4E0,1E0,4E0,1E0,3E0,1.7E1,1E0,2E0,4E0,7.7E1,4.75E2,8E0,2.8E1,1.7E1,3E0,1E0,3E0,1.4E1,2E0,2E0,2.2E1,5.5E1],"tree_param":{"num_deleted":"0","num_feature":"60","num_nodes":"49","size_leaf_vector":"0"}},{"base_weights":[2.8987532E-3,-2.2517024E-2,5.5128876E-2,-4.238067E-3,-6.802063E-1,1.6753174E0,1.665684E-2,-2.1744577E-2,4.533844E-1,-1.8070883E0,-2.741211E-1,1.07177734E-1,2.0405579E0,-4.9626723E-1,6.680581E-2,1.384859E-2,-3.886323E-1,6.058698E-1,-4.0934244E-1,1.3570149E-1,-7.11084E-1,-7.9316056E-1,2.7919516E-1,3.6104238E-1,-1.9374417E-2,4.467254E-4,7.317418E-1,-5.46988E-1,3.5389293E-2,8.355713E-1,2.5680107E-1,-2.6468912E-1,4.020691E-1,-8.531189E-1,-7.147217E-2,6.8847656E-2,-1.0345126E0,5.2493286E-1,-1.4152019E-1,1.3043736E-1,1.1320556E0,-2.6532573E-1,4.3798022E-2,2.9100666E-2,-4.4059423E-1,1.2158203E-1,9.5148927E-1,-3.187372E-1,-1.1535994E0,4.0667725E-1,-1.5467834E-1,3.71875E-1,1.2062988E0,8.480835E-2,3.645935E-1,-3.328247E-1,-6.4208984E-2,2.1575928E-1,-5.2042644E-2,-1.153795E0,-3.318278E-1,-1.9592285E-2,-1.9268799E-1,3.023288E-1,-9.6137697E-1,-1.9250488E-1,1.4872589E0,1.6667175E-1,-3.9826965E-1,1.1233155E0,-2.7095436E-3],"categories":[],"categories_nodes":[],"categories_segments":[],"categories_sizes":[],"default_left":[1,1,1,1,1,1,1,1,1,0,1,0,0,1,1,1,1,1,0,1,1,1,1,1,1,1,1,1,1,1,1,1,0,0,0,1,1,0,1,1,1,1,1,0,0,0,0,0,0,0,0,0,0,0,0,0,0,0,0,0,0,0,0,0,0,0,0,0,0,0,0],"id":72,"left_children":[1,3,5,7,9,11,13,15,17,-1,19,-1,-1,21,23,25,27,29,-1,31,33,35,37,39,41,43,45,47,49,51,53,55,-1,-1,-1,57,59,-1,61,63,65,67,69,-1,-1,-1,-1,-1,-1,-1,-1,-1,-1,-1,-1,-1,-1,-1,-1,-1,-1,-1,-1,-1,-1,-1,-1,-1,-1,-1,-1],"loss_changes":[8.760435E-1,5.3348293E0,1.3435796E1,3.4787831E0,4.9959598E0,2.6450386E0,5.4863477E0,5.463917E0,2.3528607E0,0E0,1.8872677E0,0E0,0E0,4.5958104E0,4.926326E0,3.674936E0,2.503769E0,9.079666E-1,0E0,7.4632984E-1,3.932619E-1,2.9838877E0,6.946023E-1,7.6755166E0,2.3577597E0,4.764545E0,8.228836E-1,3.3707132E0,8.3917224E-1,9.266472E-1,9.885609E-2,1.9609153E-2,0E0,0E0,0E0,8.2269445E-2,5.3913593E-1,0E0,1.4941152E-2,6.8592253E0,4.991186E0,1.846755E0,6.077936E0,0E0,0E0,0E0,0E0,0E0,0E0,0E0,0E0,0E0,0E0,0E0,0E0,0E0,0E0,0E0,0E0,0E0,0E0,0E0,0E0,0E0,0E0,0E0,0E0,0E0,0E0,0E0,0E0],"parents":[2147483647,0,0,1,1,2,2,3,3,4,4,5,5,6,6,7,7,8,8,10,10,13,13,14,14,15,15,16,16,17,17,19,19,20,20,21,21,22,22,23,23,24,24,25,25,26,26,27,27,28,28,29,29,30,30,31,31,35,35,36,36,38,38,39,39,40,40,41,41,42,42],"right_children":[2,4,6,8,10,12,14,16,18,-1,20,-1,-1,22,24,26,28,30,-1,32,34,36,38,40,42,44,46,48,50,52,54,56,-1,-1,-1,58,60,-1,62,64,66,68,70,-1,-1,-1,-1,-1,-1,-1,-1,-1,-1,-1,-1,-1,-1,-1,-1,-1,-1,-1,-1,-1,-1,-1,-1,-1,-1,-1,-1],"split_conditions":[1.7886951E3,1.79277E3,1.78972E3,1.79051E3,1.7633899E3,1.778625E3,1.763355E3,1.76414E3,1.814245E3,-5.421265E-1,1.8205249E3,3.2153323E-2,6.1216736E-1,1.8053049E3,1.796975E3,1.793585E3,1.83504E3,1.777895E3,-1.22802734E-1,1.77072E3,1.9718501E3,1.78774E3,1.77145E3,1.801435E3,1.8212849E3,1.78872E3,1.756275E3,1.81462E3,1.86048E3,1.768385E3,1.7856951E3,1.7693201E3,1.20620735E-1,-2.5593567E-1,-2.1441652E-2,1.75618E3,1.893275E3,1.5747987E-1,1.760965E3,1.81229E3,1.79298E3,1.798925E3,1.814875E3,8.7302E-3,-1.3217828E-1,3.647461E-2,2.854468E-1,-9.562117E-2,-3.4607983E-1,1.22003175E-1,-4.6403505E-2,1.115625E-1,3.6188966E-1,2.5442505E-2,1.09378055E-1,-9.984741E-2,-1.9262696E-2,6.472778E-2,-1.5612794E-2,-3.461385E-1,-9.954834E-2,-5.8776857E-3,-5.78064E-2,9.0698645E-2,-2.884131E-1,-5.7751466E-2,4.461777E-1,5.0001528E-2,-1.194809E-1,3.3699465E-1,-8.128631E-4],"split_indices":[35,32,35,30,46,0,1,34,45,0,6,0,0,34,11,57,2,33,0,3,0,39,3,8,18,10,28,7,9,39,21,0,0,0,0,0,54,0,0,18,47,13,16,0,0,0,0,0,0,0,0,0,0,0,0,0,0,0,0,0,0,0,0,0,0,0,0,0,0,0,0],"split_type":[0,0,0,0,0,0,0,0,0,0,0,0,0,0,0,0,0,0,0,0,0,0,0,0,0,0,0,0,0,0,0,0,0,0,0,0,0,0,0,0,0,0,0,0,0,0,0,0,0,0,0,0,0,0,0,0,0,0,0,0,0,0,0,0,0,0,0,0,0,0,0],"sum_hessian":[6.58E2,4.43E2,2.15E2,4.32E2,1.1E1,4E0,2.11E2,4.17E2,1.5E1,2E0,9E0,1E0,3E0,1.8E1,1.93E2,3.81E2,3.6E1,1.3E1,2E0,5E0,4E0,1.3E1,5E0,4.3E1,1.5E2,3.75E2,6E0,2.6E1,1E1,7E0,6E0,2E0,3E0,3E0,1E0,3E0,1E1,3E0,2E0,3.4E1,9E0,3E1,1.2E2,3.53E2,2.2E1,2E0,4E0,2E1,6E0,3E0,7E0,4E0,3E0,3E0,3E0,1E0,1E0,1E0,2E0,8E0,2E0,1E0,1E0,3E1,4E0,2E0,7E0,7E0,2.3E1,4E0,1.16E2],"tree_param":{"num_deleted":"0","num_feature":"60","num_nodes":"71","size_leaf_vector":"0"}},{"base_weights":[2.4621526E-3,-4.481084E-2,3.318344E-2,-1.7179701E-2,-8.135037E-1,9.4166785E-1,1.6958633E-2,-5.407639E-2,7.2526044E-1,-1.2042032E0,-2.407837E-2,1.7792969E0,2.5075683E-1,-1.0427246E0,2.5025193E-2,3.5066452E-2,-2.8138193E-1,1.2198792E0,-2.1118164E-1,1.7901611E-1,-1.5144856E-1,-1.9083658E-2,4.3701172E-1,-1.4257202E0,-1.383667E-1,1.8735734E-1,-1.6545402E-2,9.374429E-3,1.1246338E0,-3.681473E-1,5.273089E-1,3.5766602E-1,1.4476725E0,1.0559082E-2,-2.692566E-1,-4.248047E-2,1.38549805E-2,8.648681E-3,1.3075618E0,-9.768288E-1,1.8370979E-2,-2.69587E-2,5.970337E-1,-6.762886E-2,-6.6648424E-1,6.193115E-1,1.9820149E-1,1.778337E-1,-4.2320555E-1,2.4820862E0,5.5685425E-1,-1.3646938E0,-2.3845215E-1,2.725546E-1,-2.3576407E-2],"categories":[],"categories_nodes":[],"categories_segments":[],"categories_sizes":[],"default_left":[1,1,1,1,1,1,1,1,1,0,1,0,1,1,1,1,1,1,1,0,0,1,0,0,0,1,1,1,0,1,1,0,0,0,0,0,0,1,1,1,1,0,0,0,0,0,0,0,0,0,0,0,0,0,0],"id":73,"left_children":[1,3,5,7,9,11,13,15,17,-1,19,-1,21,23,25,27,29,31,33,-1,-1,35,-1,-1,-1,37,39,41,-1,43,45,-1,-1,-1,-1,-1,-1,47,49,51,53,-1,-1,-1,-1,-1,-1,-1,-1,-1,-1,-1,-1,-1,-1],"loss_changes":[9.585442E-1,5.508387E0,5.8800244E0,6.9424024E0,2.7468581E0,3.604919E0,3.3940055E0,4.8931684E0,5.8157973E0,0E0,1.3058448E-1,0E0,2.5963533E-1,8.4182286E-1,2.6484113E0,4.860272E0,4.9654408E0,1.0534678E0,6.7231E-2,0E0,0E0,2.9005432E-3,0E0,0E0,0E0,1.6003908E1,1.0512717E1,3.6672018E0,0E0,5.513583E0,8.920288E-2,0E0,0E0,0E0,0E0,0E0,0E0,5.189689E0,8.316807E0,2.8248806E0,3.2371147E0,0E0,0E0,0E0,0E0,0E0,0E0,0E0,0E0,0E0,0E0,0E0,0E0,0E0,0E0],"parents":[2147483647,0,0,1,1,2,2,3,3,4,4,5,5,6,6,7,7,8,8,10,10,12,12,13,13,14,14,15,15,16,16,17,17,18,18,21,21,25,25,26,26,27,27,29,29,30,30,37,37,38,38,39,39,40,40],"right_children":[2,4,6,8,10,12,14,16,18,-1,20,-1,22,24,26,28,30,32,34,-1,-1,36,-1,-1,-1,38,40,42,-1,44,46,-1,-1,-1,-1,-1,-1,48,50,52,54,-1,-1,-1,-1,-1,-1,-1,-1,-1,-1,-1,-1,-1,-1],"split_conditions":[1.227855E3,1.23761E3,1.233E3,1.227415E3,1.2405549E3,1.171325E3,1.2338401E3,1.1594299E3,1.2265549E3,-3.6126098E-1,1.2236951E3,5.337891E-1,1.230135E3,1.232625E3,1.5473049E3,1.225E3,1.2307051E3,1.14862E3,1.19672E3,5.3704835E-2,-4.543457E-2,1.2122251E3,1.3110352E-1,-4.2771608E-1,-4.1510012E-2,1.508355E3,1.665185E3,1.15995E3,3.3739015E-1,1.1465701E3,1.2172051E3,1.0729981E-1,4.3430176E-1,3.1677247E-3,-8.077698E-2,-1.2744141E-2,4.1564945E-3,1.2287051E3,1.51955E3,1.796865E3,1.7622151E3,-8.087611E-3,1.7911011E-1,-2.028866E-2,-1.9994529E-1,1.8579346E-1,5.946045E-2,5.3350113E-2,-1.2696168E-1,7.4462587E-1,1.6705628E-1,-4.0940815E-1,-7.153565E-2,8.176638E-2,-7.0729223E-3],"split_indices":[1,25,1,23,26,54,1,15,8,0,0,0,1,0,48,37,12,3,0,0,0,0,0,0,0,46,51,18,0,34,2,0,0,0,0,0,0,55,48,6,57,0,0,0,0,0,0,0,0,0,0,0,0,0,0],"split_type":[0,0,0,0,0,0,0,0,0,0,0,0,0,0,0,0,0,0,0,0,0,0,0,0,0,0,0,0,0,0,0,0,0,0,0,0,0,0,0,0,0,0,0,0,0,0,0,0,0,0,0,0,0,0,0],"sum_hessian":[6.58E2,2.59E2,3.99E2,2.51E2,8E0,6E0,3.93E2,2.4E2,1.1E1,5E0,3E0,2E0,4E0,2E0,3.91E2,1.73E2,6.7E1,7E0,4E0,1E0,2E0,2E0,2E0,1E0,1E0,7.9E1,3.12E2,1.7E2,3E0,6.1E1,6E0,2E0,5E0,1E0,3E0,1E0,1E0,6.9E1,1E1,1E1,3.02E2,1.61E2,9E0,3.1E1,3E1,4E0,2E0,5E1,1.9E1,3E0,7E0,6E0,4E0,4.2E1,2.6E2],"tree_param":{"num_deleted":"0","num_feature":"60","num_nodes":"55","size_leaf_vector":"0"}},{"base_weights":[3.635065E-3,-7.649172E-2,1.8616272E-2,3.426351E-2,-3.5083008E-1,5.9568095E-1,6.956331E-3,-3.9776348E-2,7.5919014E-1,-9.85616E-1,6.8552114E-2,1.8429565E-1,1.2695312E0,1.6931778E-1,-5.52212E-3,8.892638E-3,-8.328705E-1,1.026001E0,6.144206E-2,-1.8354492E-1,-1.3637085E0,-4.2811584E-1,3.9395142E-1,3.425537E-1,-5.960083E-2,-1.5554574E-1,3.1946254E-1,-3.4764403E-1,1.2160877E-2,5.2498374E-2,-3.6614117E-1,1.4327393E0,5.661316E-1,1.9689941E-1,-1.0473633E-1,-2.1588135E-1,-2.709961E-2,-1.6185791E0,-7.041931E-1,3.5736084E-2,-7.1357423E-1,5.9313965E-1,-3.540039E-3,1.01867676E-1,3.772583E-1,7.0129395E-2,-1.262207E-1,2.4099731E-1,-2.986084E-1,1.9983971E-1,8.0583495E-1,-1.1089274E-1,-6.388827E-1,4.839325E-1,4.2230696E-3,1.09885475E-2,4.2425537E-1,-5.235901E-1,-1.1715698E-1,-1.3964844E-1,1.4074707E-1,7.86499E-1,8.707683E-3,1.0430908E-1,-5.657959E-2,3.764038E-1,7.039388E-2,-3.7882486E-1,-1.4262696E-1,3.808406E-1,-3.223766E-2,9.3566895E-1,1.4324951E-1,-2.3693378E-1,4.7224936E-1,-8.041382E-2,-8.3825684E-1,1.075358E0,1.0756429E-1,-3.3547974E-1,1.5978528E-2],"categories":[],"categories_nodes":[],"categories_segments":[],"categories_sizes":[],"default_left":[1,1,1,1,1,1,1,1,1,1,1,1,0,1,1,1,0,1,1,1,1,1,1,1,1,1,1,1,1,1,1,0,0,0,0,0,0,0,0,1,0,1,1,0,0,0,0,1,1,1,1,1,1,1,1,0,0,0,0,0,0,0,0,0,0,0,0,0,0,0,0,0,0,0,0,0,0,0,0,0,0],"id":74,"left_children":[1,3,5,7,9,11,13,15,17,19,21,23,-1,25,27,29,-1,31,33,35,37,39,41,43,45,47,49,51,53,55,57,-1,-1,-1,-1,-1,-1,-1,-1,59,-1,61,63,-1,-1,-1,-1,65,67,69,71,73,75,77,79,-1,-1,-1,-1,-1,-1,-1,-1,-1,-1,-1,-1,-1,-1,-1,-1,-1,-1,-1,-1,-1,-1,-1,-1,-1,-1],"loss_changes":[7.9248494E-1,3.1719992E0,3.7369244E0,4.055708E0,8.054104E0,2.815364E0,1.1071416E0,2.6707435E0,1.2401276E0,3.3887835E0,3.2393496E0,3.2920516E-1,0E0,1.9519767E0,3.077496E0,1.098561E0,0E0,1.2411356E-1,8.815277E-2,1.9444108E-2,2.0493603E-1,1.0847838E0,9.522071E-1,3.334105E-3,4.3422226E-2,8.094604E-1,1.4098558E0,1.6529307E0,1.810455E0,9.212321E-1,2.1307379E-1,0E0,0E0,0E0,0E0,0E0,0E0,0E0,0E0,9.332432E-2,0E0,8.971946E-1,3.450311E-2,0E0,0E0,0E0,0E0,6.590673E-2,7.109219E-2,9.784202E-1,2.9609632E-1,1.2143893E0,1.1573792E0,1.66508E0,1.9101942E0,0E0,0E0,0E0,0E0,0E0,0E0,0E0,0E0,0E0,0E0,0E0,0E0,0E0,0E0,0E0,0E0,0E0,0E0,0E0,0E0,0E0,0E0,0E0,0E0,0E0,0E0],"parents":[2147483647,0,0,1,1,2,2,3,3,4,4,5,5,6,6,7,7,8,8,9,9,10,10,11,11,13,13,14,14,15,15,17,17,18,18,19,19,20,20,21,21,22,22,23,23,24,24,25,25,26,26,27,27,28,28,29,29,30,30,39,39,41,41,42,42,47,47,48,48,49,49,50,50,51,51,52,52,53,53,54,54],"right_children":[2,4,6,8,10,12,14,16,18,20,22,24,-1,26,28,30,-1,32,34,36,38,40,42,44,46,48,50,52,54,56,58,-1,-1,-1,-1,-1,-1,-1,-1,60,-1,62,64,-1,-1,-1,-1,66,68,70,72,74,76,78,80,-1,-1,-1,-1,-1,-1,-1,-1,-1,-1,-1,-1,-1,-1,-1,-1,-1,-1,-1,-1,-1,-1,-1,-1,-1,-1],"split_conditions":[1.11049E3,1.10761E3,1.0948501E3,1.16495E3,1.138095E3,1.0770549E3,1.086895E3,1.107115E3,1.105235E3,1.079825E3,1.09056E3,1.10203E3,3.808594E-1,1.03185E3,1.116595E3,1.10972E3,-2.4986115E-1,1.0618999E3,1.06916E3,1.077425E3,1.159065E3,1.099655E3,1.124395E3,1.0688201E3,1.09776E3,1.11337E3,1.1103E3,1.0761799E3,1.092925E3,1.1005E3,1.10987E3,4.298218E-1,1.6983949E-1,5.9069827E-2,-3.14209E-2,-6.476441E-2,-8.129884E-3,-4.8557377E-1,-2.1125795E-1,1.04731E3,-2.1407227E-1,1.2231699E3,1.10395E3,3.0560303E-2,1.1317749E-1,2.103882E-2,-3.7866212E-2,1.128605E3,1.032265E3,1.082825E3,1.19728E3,1.17641E3,1.074895E3,1.14615E3,1.1454299E3,3.2965643E-3,1.2727661E-1,-1.5707703E-1,-3.5147097E-2,-4.1894533E-2,4.2224124E-2,2.3594971E-1,2.6123049E-3,3.1292725E-2,-1.6973877E-2,1.1292115E-1,2.1118166E-2,-1.1364746E-1,-4.278809E-2,1.1425219E-1,-9.671299E-3,2.8070068E-1,4.2974856E-2,-7.108014E-2,1.4167482E-1,-2.4124147E-2,-2.5147706E-1,3.2260743E-1,3.2269288E-2,-1.00643925E-1,4.7935587E-3],"split_indices":[0,13,8,40,13,7,35,0,11,0,39,15,0,35,21,5,0,0,0,0,30,1,3,6,3,3,49,58,39,8,29,0,0,0,0,0,0,0,0,1,0,32,1,0,0,0,0,0,37,41,0,9,23,12,5,0,0,0,0,0,0,0,0,0,0,0,0,0,0,0,0,0,0,0,0,0,0,0,0,0,0],"split_type":[0,0,0,0,0,0,0,0,0,0,0,0,0,0,0,0,0,0,0,0,0,0,0,0,0,0,0,0,0,0,0,0,0,0,0,0,0,0,0,0,0,0,0,0,0,0,0,0,0,0,0,0,0,0,0,0,0,0,0,0,0,0,0,0,0,0,0,0,0,0,0,0,0,0,0,0,0,0,0,0,0],"sum_hessian":[6.58E2,1.03E2,5.55E2,7.4E1,2.9E1,1E1,5.45E2,6.8E1,6E0,1.1E1,1.8E1,7E0,3E0,3.8E1,5.07E2,6.5E1,3E0,4E0,2E0,4E0,7E0,7E0,1.1E1,4E0,3E0,1.2E1,2.6E1,2.4E1,4.83E2,5.9E1,6E0,1E0,3E0,1E0,1E0,3E0,1E0,4E0,3E0,3E0,4E0,7E0,4E0,1E0,3E0,1E0,2E0,3E0,9E0,2.2E1,4E0,1.4E1,1E1,7E0,4.76E2,5.4E1,5E0,3E0,3E0,1E0,2E0,5E0,2E0,1E0,3E0,1E0,2E0,5E0,4E0,1.2E1,1E1,3E0,1E0,1.2E1,2E0,3E0,7E0,2E0,5E0,1.5E1,4.61E2],"tree_param":{"num_deleted":"0","num_feature":"60","num_nodes":"81","size_leaf_vector":"0"}},{"base_weights":[3.405558E-3,2.8019616E-2,-4.4519152E-2,1.7113863E-2,9.6467286E-1,-4.1541016E-1,2.0648194E-3,-1.2185733E-2,2.4637775E-1,-1.7116699E-1,-7.1070445E-1,8.753418E-1,-2.022319E-2,8.353883E-4,-6.2428284E-1,2.4249268E0,1.50472E-1,-3.694458E-1,1.8782552E-1,-1.2175598E0,-3.6843872E-1,1.1278381E0,-6.732178E-2,-4.059683E-1,7.1404497E-3,-1.2444483E-2,3.7362906E-1,-8.267415E-1,-1.1271159E-2,3.1338003E-2,9.79187E-1,-6.8603516E-2,-5.585734E-1,2.6394653E-1,2.372233E-2,-4.7038922E-1,1.7260742E-1,3.805881E-2,-1.1240234E0,6.0103065E-1,-4.1523896E-2,-5.375854E-4,-6.213204E-1,1.0319824E0,7.292481E-2,-9.6798706E-1,-3.6283365E-1,-1.6259766E-1,1.4569092E-1,4.2866734E-1,-1.5512696E-1,-1.7769368E-1,6.335449E-2,-8.7801105E-1,-1.793518E-1,4.510498E-2,-9.521484E-3,-1.574707E-1,-5.640625E-1,-7.810465E-2,2.027893E-1,-1.3588461E0,-5.1452637E-1,8.791097E-2,8.763292E-1,-2.816665E-1,1.7942566E-2],"categories":[],"categories_nodes":[],"categories_segments":[],"categories_sizes":[],"default_left":[1,1,1,1,0,1,1,1,1,1,1,1,1,1,1,0,1,1,1,0,1,0,0,1,1,1,1,1,1,1,0,1,1,0,1,1,0,1,1,1,1,0,0,0,0,0,0,0,0,0,0,0,0,0,0,0,0,0,0,0,0,0,0,0,0,0,0],"id":75,"left_children":[1,3,5,7,-1,9,11,13,15,17,19,21,23,25,27,-1,29,31,33,-1,35,-1,-1,37,39,41,43,45,47,49,-1,51,53,-1,55,57,-1,59,61,63,65,-1,-1,-1,-1,-1,-1,-1,-1,-1,-1,-1,-1,-1,-1,-1,-1,-1,-1,-1,-1,-1,-1,-1,-1,-1,-1],"loss_changes":[7.7861804E-1,4.437191E0,3.8710346E0,2.9048927E0,0E0,1.6814413E0,3.9104233E0,3.0610747E0,9.87295E0,1.1371005E0,1.4596753E0,1.2660241E0,2.0717552E0,1.8710455E0,9.8355794E-1,0E0,4.708265E0,5.306556E-1,6.8688765E-2,0E0,5.2247214E-1,0E0,0E0,4.1876464E0,5.342792E0,2.6458519E0,2.4983482E0,4.1931152E-2,9.494656E-2,3.252282E0,0E0,8.32343E-2,5.693531E-1,0E0,2.5619888E-3,1.1636138E-1,0E0,1.8805978E-1,1.6456604E-2,1.9006166E0,2.4470074E0,0E0,0E0,0E0,0E0,0E0,0E0,0E0,0E0,0E0,0E0,0E0,0E0,0E0,0E0,0E0,0E0,0E0,0E0,0E0,0E0,0E0,0E0,0E0,0E0,0E0,0E0],"parents":[2147483647,0,0,1,1,2,2,3,3,5,5,6,6,7,7,8,8,9,9,10,10,11,11,12,12,13,13,14,14,16,16,17,17,18,18,20,20,23,23,24,24,25,25,26,26,27,27,28,28,29,29,31,31,32,32,34,34,35,35,37,37,38,38,39,39,40,40],"right_children":[2,4,6,8,-1,10,12,14,16,18,20,22,24,26,28,-1,30,32,34,-1,36,-1,-1,38,40,42,44,46,48,50,-1,52,54,-1,56,58,-1,60,62,64,66,-1,-1,-1,-1,-1,-1,-1,-1,-1,-1,-1,-1,-1,-1,-1,-1,-1,-1,-1,-1,-1,-1,-1,-1,-1,-1],"split_conditions":[1.78862E3,1.787865E3,1.788855E3,1.7878201E3,2.8940186E-1,1.7786599E3,1.7822251E3,1.79051E3,1.7278999E3,1.785885E3,1.789245E3,1.832915E3,1.7844651E3,1.774075E3,1.7764751E3,7.27478E-1,1.790855E3,1.75809E3,1.819325E3,-3.6526796E-1,1.787335E3,3.3835146E-1,-2.0196535E-2,1.78385E3,1.79351E3,1.771E3,1.76828E3,1.79349E3,1.79785E3,1.781755E3,2.9375613E-1,1.815435E3,1.769725E3,7.9183966E-2,1.8958049E3,1.7900349E3,5.1782228E-2,1.7980449E3,1.782825E3,1.80694E3,1.82184E3,-1.6127563E-4,-1.8639614E-1,3.0959475E-1,2.1877443E-2,-2.9039612E-1,-1.088501E-1,-4.8779298E-2,4.3707278E-2,1.2860021E-1,-4.653809E-2,-5.3308107E-2,1.900635E-2,-2.6340333E-1,-5.3805545E-2,1.3531495E-2,-2.8564455E-3,-4.7241215E-2,-1.6921875E-1,-2.3431396E-2,6.0836796E-2,-4.0765384E-1,-1.5435791E-1,2.6373293E-2,2.6289877E-1,-8.449995E-2,5.38277E-3],"split_indices":[20,20,23,5,0,24,24,16,13,34,26,0,10,11,3,0,25,34,8,0,23,0,0,12,11,5,12,11,0,9,0,0,22,0,0,20,0,18,10,19,24,0,0,0,0,0,0,0,0,0,0,0,0,0,0,0,0,0,0,0,0,0,0,0,0,0,0],"split_type":[0,0,0,0,0,0,0,0,0,0,0,0,0,0,0,0,0,0,0,0,0,0,0,0,0,0,0,0,0,0,0,0,0,0,0,0,0,0,0,0,0,0,0,0,0,0,0,0,0,0,0,0,0,0,0,0,0,0,0,0,0,0,0,0,0,0,0],"sum_hessian":[6.58E2,4.35E2,2.23E2,4.31E2,4E0,2.4E1,1.99E2,3.83E2,4.8E1,1.4E1,1E1,4E0,1.95E2,3.76E2,7E0,1E0,4.7E1,9E0,5E0,3E0,7E0,3E0,1E0,1.2E1,1.83E2,3.64E2,1.2E1,5E0,2E0,4.2E1,5E0,4E0,5E0,3E0,2E0,6E0,1E0,8E0,4E0,1.3E1,1.7E2,3.58E2,6E0,3E0,9E0,3E0,2E0,1E0,1E0,1.3E1,2.9E1,2E0,2E0,2E0,3E0,1E0,1E0,2E0,4E0,5E0,3E0,2E0,2E0,5E0,8E0,3.3E1,1.37E2],"tree_param":{"num_deleted":"0","num_feature":"60","num_nodes":"67","size_leaf_vector":"0"}},{"base_weights":[2.890788E-3,4.126892E-1,3.8761046E-4,1.7679851E-1,5.6018066E-1,-4.4088323E-2,2.5816703E-2,-8.943001E-3,-6.0828507E-1,6.0463053E-1,4.2621875E-3,-3.2861672E-2,3.2970378E-1,-2.6555717E-1,-1.0209961E0,1.6804643E-1,1.4441894E0,8.094657E-1,-9.910392E-3,-2.0018369E-2,-9.2093915E-1,-1.05566405E-1,4.975808E-1,5.3466797E-2,-3.64345E-1,-1.2623596E0,-3.5884604E-1,3.2450357E-1,-3.5734048E-1,1.6150208E0,3.8043213E-1,1.2905029E0,-2.6208496E-1,-3.0631423E-1,2.8742544E-2,4.0805493E-3,-5.024048E-1,4.345703E-2,-1.5368652E-1,6.8348694E-1,1.373291E-3,9.93042E-2,-1.9104004E-2,4.4030762E-1,-5.38737E-2,1.4573975E0,3.114624E-1,-3.312378E-1,-6.188965E-2,2.3934501E-3,-7.4513006E-1,4.763394E-1,-1.1285307E-2],"categories":[],"categories_nodes":[],"categories_segments":[],"categories_sizes":[],"default_left":[1,1,1,0,0,1,1,1,1,1,1,1,1,1,1,1,1,1,1,1,0,1,1,1,0,0,0,1,0,0,0,1,1,1,1,0,0,0,0,0,0,0,0,0,0,0,0,0,0,0,0,0,0],"id":76,"left_children":[1,3,5,-1,-1,7,9,11,13,15,17,19,21,23,25,27,29,31,33,35,-1,37,39,41,-1,-1,-1,43,-1,-1,-1,45,47,49,51,-1,-1,-1,-1,-1,-1,-1,-1,-1,-1,-1,-1,-1,-1,-1,-1,-1,-1],"loss_changes":[6.758411E-1,4.012829E-2,7.430628E-1,0E0,0E0,4.733662E0,5.2124124E0,1.8414304E0,1.7091331E0,5.2553806E0,4.6183934E0,2.3996043E0,1.1486056E0,3.031215E-1,5.059204E-1,1.0201643E0,2.9420948E-1,3.9464116E0,4.568642E0,2.4432983E0,0E0,4.2533886E-2,1.0137897E0,1.1876479E-2,0E0,0E0,0E0,4.180796E-1,0E0,0E0,0E0,3.630581E-1,2.103202E-2,6.233211E0,6.3298435E0,0E0,0E0,0E0,0E0,0E0,0E0,0E0,0E0,0E0,0E0,0E0,0E0,0E0,0E0,0E0,0E0,0E0,0E0],"parents":[2147483647,0,0,1,1,2,2,5,5,6,6,7,7,8,8,9,9,10,10,11,11,12,12,13,13,14,14,15,15,16,16,17,17,18,18,19,19,21,21,22,22,23,23,27,27,31,31,32,32,33,33,34,34],"right_children":[2,4,6,-1,-1,8,10,12,14,16,18,20,22,24,26,28,30,32,34,36,-1,38,40,42,-1,-1,-1,44,-1,-1,-1,46,48,50,52,-1,-1,-1,-1,-1,-1,-1,-1,-1,-1,-1,-1,-1,-1,-1,-1,-1,-1],"split_conditions":[9.44735E2,1.10024E3,1.20284E3,5.3039555E-2,1.6805421E-1,1.245635E3,1.163925E3,1.22439E3,1.1966E3,1.23103E3,1.18359E3,1.223435E3,1.18779E3,1.21378E3,1.4530701E3,1.144815E3,1.5385449E3,1.47172E3,1.233885E3,1.223625E3,-2.7628174E-1,1.112015E3,1.241435E3,1.31678E3,-1.0930351E-1,-3.7870792E-1,-1.0765382E-1,1.243995E3,-1.0720215E-1,4.8450625E-1,1.1412964E-1,1.4904099E3,1.505155E3,1.221335E3,1.66658E3,1.2241649E-3,-1.5072145E-1,1.303711E-2,-4.610596E-2,2.0504609E-1,4.1198733E-4,2.979126E-2,-5.7312013E-3,1.320923E-1,-1.616211E-2,4.3721926E-1,9.343872E-2,-9.9371344E-2,-1.8566895E-2,7.1803504E-4,-2.2353902E-1,1.4290182E-1,-3.3855923E-3],"split_indices":[36,0,44,0,0,4,54,15,52,21,49,15,20,29,0,56,2,1,50,21,0,0,1,0,0,0,0,8,0,0,0,0,0,14,21,0,0,0,0,0,0,0,0,0,0,0,0,0,0,0,0,0,0],"split_type":[0,0,0,0,0,0,0,0,0,0,0,0,0,0,0,0,0,0,0,0,0,0,0,0,0,0,0,0,0,0,0,0,0,0,0,0,0,0,0,0,0,0,0,0,0,0,0,0,0,0,0,0,0],"sum_hessian":[6.58E2,3E0,6.55E2,2E0,1E0,2.38E2,4.17E2,2.25E2,1.3E1,1.4E1,4.03E2,2.11E2,1.4E1,8E0,5E0,1E1,4E0,6E0,3.97E2,2.09E2,2E0,4E0,1E1,2E0,6E0,3E0,2E0,8E0,2E0,3E0,1E0,4E0,2E0,4.5E1,3.52E2,2E2,9E0,1E0,3E0,7E0,3E0,1E0,1E0,6E0,2E0,3E0,1E0,1E0,1E0,2.7E1,1.8E1,2.8E1,3.24E2],"tree_param":{"num_deleted":"0","num_feature":"60","num_nodes":"53","size_leaf_vector":"0"}},{"base_weights":[2.541804E-3,-1.804585E-2,5.7849735E-2,-2.2401623E-4,-4.084182E-1,3.9695174E-1,-2.4401434E-2,5.901753E-3,-7.015686E-1,6.033761E-3,-5.7460123E-1,7.171631E-1,1.5718348E-2,-4.3404874E-1,9.157986E-3,1.1348515E-4,6.628418E-1,-2.5272623E-1,1.6008301E-1,-6.2403214E-1,5.871582E-2,4.6355438E-1,1.5523071E0,2.575175E-1,-4.7049966E-1,-8.8554686E-1,-4.954311E-2,2.6131836E-1,-4.7717396E-2,1.2190023E-2,-4.884477E-1,-3.935089E-1,-7.9833984E-1,7.427368E-1,-1.499721E-3,3.1433105E-2,4.145159E-1,1.6373698E-1,-8.2855225E-1,-9.7717285E-1,-2.5952148E-1,2.1450195E-1,-4.7310385E-1,3.4075373E-1,-2.4090576E-1,-1.1670837E0,-5.8175544E-3,5.197538E-3,6.264893E-1,-7.527771E-1,1.62323E-1,1.9221191E-1,1.0777181E0,1.1494955E-1,-3.5009766E-1,-1.03149414E-1,1.2451172E-1,1.77653E-1,4.7373047E-1,2.6794434E-2,2.1881104E-1,4.0039062E-2,2.4810791E-1,2.054946E-1,6.671956E-1,-2.956543E-1,-3.8330078E-2,-1.3342285E0,-3.328247E-1,-1.5485637E-1,6.776073E-2],"categories":[],"categories_nodes":[],"categories_segments":[],"categories_sizes":[],"default_left":[1,1,1,1,1,1,1,1,0,1,1,1,1,1,1,1,0,0,0,1,0,1,0,1,1,1,1,1,1,1,1,0,0,1,1,1,1,1,0,0,0,1,0,1,1,1,1,0,0,0,0,0,0,0,0,0,0,0,0,0,0,0,0,0,0,0,0,0,0,0,0],"id":77,"left_children":[1,3,5,7,9,11,13,15,-1,17,19,21,23,25,27,29,-1,-1,-1,31,-1,33,-1,35,37,39,41,43,45,47,49,-1,-1,51,53,55,57,59,-1,-1,-1,61,-1,63,65,67,69,-1,-1,-1,-1,-1,-1,-1,-1,-1,-1,-1,-1,-1,-1,-1,-1,-1,-1,-1,-1,-1,-1,-1,-1],"loss_changes":[7.514213E-1,3.3462982E0,5.002271E0,1.9847233E0,1.4498396E0,4.261361E0,1.9973664E0,1.7414904E0,0E0,3.1948966E-1,5.0622225E-1,3.304618E0,2.1198027E0,1.8657665E0,1.9486014E0,2.6905124E0,0E0,0E0,0E0,2.4839401E-1,0E0,2.0784726E0,0E0,4.1290915E-1,1.498205E0,3.3203363E-2,8.8435555E-1,1.0794485E0,5.1992517E0,1.9082317E0,2.0143888E0,0E0,0E0,1.6370053E0,3.2440138E-1,8.800384E-2,1.4020443E-2,1.6763024E-2,0E0,0E0,0E0,1.9380957E-2,0E0,8.3428836E-1,3.3030435E-2,1.1370373E-1,1.1948233E0,0E0,0E0,0E0,0E0,0E0,0E0,0E0,0E0,0E0,0E0,0E0,0E0,0E0,0E0,0E0,0E0,0E0,0E0,0E0,0E0,0E0,0E0,0E0,0E0],"parents":[2147483647,0,0,1,1,2,2,3,3,4,4,5,5,6,6,7,7,9,9,10,10,11,11,12,12,13,13,14,14,15,15,19,19,21,21,23,23,24,24,25,25,26,26,27,27,28,28,29,29,30,30,33,33,34,34,35,35,36,36,37,37,41,41,43,43,44,44,45,45,46,46],"right_children":[2,4,6,8,10,12,14,16,-1,18,20,22,24,26,28,30,-1,-1,-1,32,-1,34,-1,36,38,40,42,44,46,48,50,-1,-1,52,54,56,58,60,-1,-1,-1,62,-1,64,66,68,70,-1,-1,-1,-1,-1,-1,-1,-1,-1,-1,-1,-1,-1,-1,-1,-1,-1,-1,-1,-1,-1,-1,-1,-1],"split_conditions":[1.811315E3,1.810985E3,1.829585E3,1.862915E3,1.789755E3,1.7874751E3,1.840655E3,1.909805E3,-2.1047059E-1,1.7587E3,1.8167E3,1.82478E3,1.82073E3,1.76836E3,1.89639E3,1.82455E3,1.9885255E-1,-7.581787E-2,4.8024904E-2,1.7983201E3,1.7614746E-2,1.82628E3,4.6569216E-1,1.78439E3,1.8298201E3,1.830115E3,1.83303E3,1.9479299E3,1.9046001E3,1.836975E3,1.80464E3,-1.1805268E-1,-2.3950197E-1,1.799785E3,1.93206E3,1.8079199E3,1.798905E3,1.83749E3,-2.4856569E-1,-2.9315186E-1,-7.785645E-2,1.8334299E3,-1.4193116E-1,1.93592E3,1.800425E3,1.906135E3,1.81652E3,1.5592615E-3,1.879468E-1,-2.2583313E-1,4.86969E-2,5.7663575E-2,3.2331544E-1,3.4484867E-2,-1.050293E-1,-3.0944826E-2,3.7353516E-2,5.3295903E-2,1.4211915E-1,8.038331E-3,6.564331E-2,1.2011719E-2,7.443237E-2,6.164838E-2,2.001587E-1,-8.869629E-2,-1.1499024E-2,-4.0026858E-1,-9.984741E-2,-4.645691E-2,2.032822E-2],"split_indices":[10,14,11,3,24,56,9,31,0,34,5,37,1,37,3,25,0,0,0,9,0,7,0,1,3,0,20,53,3,2,9,0,0,2,4,11,0,0,0,0,0,10,0,44,1,1,50,0,0,0,0,0,0,0,0,0,0,0,0,0,0,0,0,0,0,0,0,0,0,0,0],"split_type":[0,0,0,0,0,0,0,0,0,0,0,0,0,0,0,0,0,0,0,0,0,0,0,0,0,0,0,0,0,0,0,0,0,0,0,0,0,0,0,0,0,0,0,0,0,0,0,0,0,0,0,0,0,0,0,0,0,0,0,0,0,0,0,0,0,0,0,0,0,0,0],"sum_hessian":[6.58E2,4.8E2,1.78E2,4.6E2,2E1,3.4E1,1.44E2,4.57E2,3E0,6E0,1.4E1,1.8E1,1.6E1,1E1,1.34E2,4.54E2,3E0,2E0,4E0,1.3E1,1E0,1.5E1,3E0,1.1E1,5E0,4E0,6E0,2.4E1,1.1E2,4.44E2,1E1,7E0,6E0,9E0,6E0,5E0,6E0,2E0,3E0,3E0,1E0,4E0,2E0,2.1E1,3E0,3E0,1.07E2,4.4E2,4E0,7E0,3E0,4E0,5E0,5E0,1E0,2E0,3E0,2E0,4E0,1E0,1E0,1E0,3E0,1.6E1,5E0,2E0,1E0,2E0,1E0,3.5E1,7.2E1],"tree_param":{"num_deleted":"0","num_feature":"60","num_nodes":"71","size_leaf_vector":"0"}},{"base_weights":[1.2175541E-3,1.07405735E-2,-1.03557795E-1,3.897487E-3,5.947789E-1,-1.1526611E0,1.3260187E-3,1.1413678E-2,-4.9009874E-1,7.3413086E-1,1.6426595E-1,-1.4627991E0,4.3945312E-2,4.4538227E-1,-6.777886E-2,-1.631933E-4,2.441973E-1,-5.686035E-1,6.896973E-2,1.00626625E-1,5.6315917E-1,-2.170139E-1,3.0578613E-2,4.192679E-3,-4.879883E-1,6.1320496E-1,9.199451E-2,4.744466E-2,-3.223783E-1,4.0197754E-1,-3.006836E-2,-1.3638883E-3,5.174764E-1,-5.729065E-1,-7.4157715E-2,2.6909178E-1,8.9004517E-1,-1.08662926E-1,3.23584E-1,-9.899902E-2,9.65332E-2,-2.0111084E-2,-4.1104737E-1,-2.564209E-1,2.5256928E-2],"categories":[],"categories_nodes":[],"categories_segments":[],"categories_sizes":[],"default_left":[1,1,1,1,1,1,1,1,1,0,0,0,0,1,1,1,1,0,0,0,0,1,1,1,1,1,1,1,1,0,1,0,0,0,0,0,0,0,0,0,0,0,0,0,0],"id":78,"left_children":[1,3,5,7,9,11,13,15,17,-1,-1,-1,-1,19,21,23,25,-1,-1,-1,-1,27,29,31,33,35,37,39,41,-1,43,-1,-1,-1,-1,-1,-1,-1,-1,-1,-1,-1,-1,-1,-1],"loss_changes":[6.586478E-1,2.4156396E0,6.053396E0,2.229663E0,2.9935718E-1,1.9198489E0,1.5951966E0,1.5927293E0,4.3422222E-1,0E0,0E0,0E0,0E0,2.27561E-1,6.6716313E-1,1.2004918E0,1.5161802E0,0E0,0E0,0E0,0E0,5.1685643E-1,6.42765E-1,1.5978794E0,1.332233E-1,5.2261114E-1,1.0110347E0,5.268893E-2,3.401562E-1,0E0,3.1955191E-1,0E0,0E0,0E0,0E0,0E0,0E0,0E0,0E0,0E0,0E0,0E0,0E0,0E0,0E0],"parents":[2147483647,0,0,1,1,2,2,3,3,4,4,5,5,6,6,7,7,8,8,13,13,14,14,15,15,16,16,21,21,22,22,23,23,24,24,25,25,26,26,27,27,28,28,30,30],"right_children":[2,4,6,8,10,12,14,16,18,-1,-1,-1,-1,20,22,24,26,-1,-1,-1,-1,28,30,32,34,36,38,40,42,-1,44,-1,-1,-1,-1,-1,-1,-1,-1,-1,-1,-1,-1,-1,-1],"split_conditions":[1.959075E3,1.9776399E3,1.9355349E3,1.96545E3,2.00773E3,1.997405E3,1.846405E3,1.90801E3,1.982195E3,2.2023927E-1,4.9279787E-2,-4.3883973E-1,1.3183595E-2,1.97311E3,1.970915E3,1.96244E3,1.934325E3,-1.7058106E-1,2.0690918E-2,3.0187989E-2,1.6894776E-1,1.946485E3,1.803765E3,1.930815E3,1.9718501E3,1.8589551E3,1.971015E3,1.809635E3,1.97045E3,1.20593265E-1,1.9415449E3,-4.091665E-4,1.5524292E-1,-1.7187196E-1,-2.2247314E-2,8.072754E-2,2.6701355E-1,-3.259888E-2,9.70752E-2,-2.9699707E-2,2.8959962E-2,-6.0333256E-3,-1.2331422E-1,-7.6926276E-2,7.577079E-3],"split_indices":[36,25,41,25,0,0,59,27,1,0,0,0,0,1,40,13,20,0,0,0,0,45,5,20,5,35,13,2,35,0,55,0,0,0,0,0,0,0,0,0,0,0,0,0,0],"split_type":[0,0,0,0,0,0,0,0,0,0,0,0,0,0,0,0,0,0,0,0,0,0,0,0,0,0,0,0,0,0,0,0,0,0,0,0,0,0,0,0,0,0,0,0,0],"sum_hessian":[6.58E2,6.04E2,5.4E1,5.98E2,6E0,4E0,5E1,5.9E2,8E0,4E0,2E0,3E0,1E0,6E0,4.4E1,5.63E2,2.7E1,7E0,1E0,2E0,4E0,1.7E1,2.7E1,5.59E2,4E0,7E0,2E1,5E0,1.2E1,3E0,2.4E1,5.54E2,5E0,3E0,1E0,4E0,3E0,1.1E1,9E0,1E0,4E0,3E0,9E0,4E0,2E1],"tree_param":{"num_deleted":"0","num_feature":"60","num_nodes":"45","size_leaf_vector":"0"}},{"base_weights":[1.1025227E-3,3.3029786E-1,-1.4121019E-3,4.4396973E-1,1.06526695E-1,-1.1837972E-1,1.0365531E-2,4.3519484E-3,-4.0499538E-1,1.2166748E0,6.293289E-3,-1.4757513E-1,3.6630484E-1,-1.6299875E-1,-1.0015869E0,3.0056328E-1,-7.961837E-4,8.296342E-2,-2.6130605E-1,5.2946776E-1,-1.3317871E-1,-2.53125E-1,4.9853515E-2,5.727539E-1,2.482605E-2,-3.6964926E-1,4.988614E-3,2.2383626E-1,-7.1736656E-2,-3.6294556E-1,5.328369E-2,5.816379E-1,2.9968262E-2,-1.6691081E-1,-1.5991211E-2,1.0986328E-2,-3.2052612E-1,1.1923218E-1,-1.1383057E-1,1.2723796E-1,7.255127E-1,-1.694336E-1,1.7526856E-1,-7.6275635E-1,9.7387694E-2,3.5860375E-1,-1.91698E-3],"categories":[],"categories_nodes":[],"categories_segments":[],"categories_sizes":[],"default_left":[1,1,1,0,0,1,1,1,1,0,1,1,1,1,0,1,1,1,1,1,1,1,1,1,1,1,1,0,0,0,0,0,0,0,0,0,0,0,0,0,0,0,0,0,0,0,0],"id":79,"left_children":[1,3,5,-1,-1,7,9,11,13,-1,15,17,19,21,-1,23,25,27,29,31,33,35,37,39,41,43,45,-1,-1,-1,-1,-1,-1,-1,-1,-1,-1,-1,-1,-1,-1,-1,-1,-1,-1,-1,-1],"loss_changes":[5.4598844E-1,7.988781E-2,9.0355617E-1,0E0,0E0,2.1123717E0,2.9201236E0,2.4186466E0,2.435459E0,0E0,1.2415396E0,8.344789E-1,1.1299773E0,2.811892E-1,0E0,1.036524E0,1.243681E0,2.5578067E-1,6.90809E-1,2.4315906E-1,1.3142817E-2,1.8153542E-1,7.035318E-2,3.8408256E-1,2.6349562E-1,1.7266431E0,1.4023509E0,0E0,0E0,0E0,0E0,0E0,0E0,0E0,0E0,0E0,0E0,0E0,0E0,0E0,0E0,0E0,0E0,0E0,0E0,0E0,0E0],"parents":[2147483647,0,0,1,1,2,2,5,5,6,6,7,7,8,8,10,10,11,11,12,12,13,13,15,15,16,16,17,17,18,18,19,19,20,20,21,21,22,22,23,23,24,24,25,25,26,26],"right_children":[2,4,6,-1,-1,8,10,12,14,-1,16,18,20,22,-1,24,26,28,30,32,34,36,38,40,42,44,46,-1,-1,-1,-1,-1,-1,-1,-1,-1,-1,-1,-1,-1,-1,-1,-1,-1,-1,-1,-1],"split_conditions":[9.53995E2,9.6126E2,1.08785E3,1.3319093E-1,3.195801E-2,1.0798201E3,1.05037E3,1.141035E3,1.104915E3,3.6500245E-1,1.091615E3,1.06079E3,1.1091E3,1.13666E3,-3.0047607E-1,1.088645E3,1.09144E3,1.0823301E3,1.136135E3,1.08265E3,1.076475E3,1.0352151E3,1.08564E3,1.084575E3,1.1049099E3,1.07732E3,1.09571E3,6.715088E-2,-2.1520998E-2,-1.0888367E-1,1.5985109E-2,1.7449138E-1,8.990479E-3,-5.0073247E-2,-4.7973637E-3,3.2958987E-3,-9.615784E-2,3.5769656E-2,-3.414917E-2,3.817139E-2,2.1765381E-1,-5.083008E-2,5.258057E-2,-2.2882691E-1,2.921631E-2,1.0758113E-1,-5.75094E-4],"split_indices":[3,4,3,0,0,3,1,33,19,0,4,34,18,50,0,23,5,9,24,2,1,46,1,4,0,6,6,0,0,0,0,0,0,0,0,0,0,0,0,0,0,0,0,0,0,0,0],"split_type":[0,0,0,0,0,0,0,0,0,0,0,0,0,0,0,0,0,0,0,0,0,0,0,0,0,0,0,0,0,0,0,0,0,0,0,0,0,0,0,0,0,0,0,0,0,0,0],"sum_hessian":[6.58E2,4E0,6.54E2,2E0,2E0,5.9E1,5.95E2,4.2E1,1.7E1,1E0,5.94E2,3E1,1.2E1,1.3E1,4E0,1.3E1,5.81E2,1E1,2E1,9E0,3E0,9E0,4E0,6E0,7E0,8E0,5.73E2,5E0,5E0,1.5E1,5E0,8E0,1E0,2E0,1E0,2E0,7E0,3E0,1E0,2E0,4E0,3E0,4E0,4E0,4E0,1E1,5.63E2],"tree_param":{"num_deleted":"0","num_feature":"60","num_nodes":"47","size_leaf_vector":"0"}},{"base_weights":[1.3850998E-3,1.2207235E-1,-4.3641105E-3,-2.6261764E-2,4.7110325E-1,-2.1801503E-1,4.090562E-3,-2.1714275E-1,4.2652804E-2,7.8549194E-1,1.8299358E-1,-9.55682E-2,-5.694275E-1,-5.376282E-1,7.671331E-3,-7.745361E-2,-2.676239E-1,1.0530443E-1,-1.2877198E-1,2.4789429E-1,3.5461426E-2,-3.5836357E-3,-2.9427084E-1,-9.5096844E-1,-1.4091492E-1,-9.371338E-1,-9.20817E-2,3.803188E-1,3.2964088E-3,2.4765626E-1,1.4519585E-2,-1.6700745E-1,1.2084961E-2,5.2520752E-2,6.713867E-4,-8.3618164E-2,8.839635E-2,-3.2685548E-1,-6.567383E-2,-4.300944E-2,-2.1731567E-1,4.9049887E-1,-1.4038086E-1,3.692383E-1,2.1054046E-4,2.956848E-1,2.7770996E-2,-8.53068E-2,5.5228096E-2,4.6569824E-2,-1.0886928E-1,1.8612671E-1,-3.1433105E-2,-1.2817383E-2,-5.1696777E-2,1.3098145E-1,5.3620607E-1,-7.4401855E-2,4.9874878E-1,-1.5466309E-1,7.002874E-3],"categories":[],"categories_nodes":[],"categories_segments":[],"categories_sizes":[],"default_left":[1,1,1,1,1,1,1,1,1,0,1,1,1,1,1,0,0,1,1,0,1,1,1,0,1,0,0,1,1,1,1,0,0,0,0,1,1,0,0,1,0,1,0,1,1,0,0,0,0,0,0,0,0,0,0,0,0,0,0,0,0],"id":80,"left_children":[1,3,5,7,9,11,13,15,17,-1,19,21,23,25,27,-1,-1,29,31,-1,33,35,37,-1,39,-1,-1,41,43,45,47,-1,-1,-1,-1,49,51,-1,-1,53,-1,55,-1,57,59,-1,-1,-1,-1,-1,-1,-1,-1,-1,-1,-1,-1,-1,-1,-1,-1],"loss_changes":[4.577841E-1,1.5655676E0,1.1388915E0,2.986603E-1,6.714659E-1,9.7828496E-1,1.1815645E0,2.158156E-2,1.9614094E-1,0E0,4.8658967E-2,3.4621936E-1,8.4696496E-1,6.2570035E-1,9.834497E-1,0E0,0E0,1.6440818E-1,2.8946936E-2,0E0,1.7452221E-3,1.10453576E-1,2.3226619E-2,0E0,2.0573586E-2,0E0,0E0,4.7045183E-1,6.7521286E-1,4.459238E-2,4.128539E-2,0E0,0E0,0E0,0E0,3.1369157E-2,8.782737E-2,0E0,0E0,1.2424821E-4,0E0,2.8362036E-2,0E0,3.243881E-1,6.259433E-1,0E0,0E0,0E0,0E0,0E0,0E0,0E0,0E0,0E0,0E0,0E0,0E0,0E0,0E0,0E0,0E0],"parents":[2147483647,0,0,1,1,2,2,3,3,4,4,5,5,6,6,7,7,8,8,10,10,11,11,12,12,13,13,14,14,17,17,18,18,20,20,21,21,22,22,24,24,27,27,28,28,29,29,30,30,35,35,36,36,39,39,41,41,43,43,44,44],"right_children":[2,4,6,8,10,12,14,16,18,-1,20,22,24,26,28,-1,-1,30,32,-1,34,36,38,-1,40,-1,-1,42,44,46,48,-1,-1,-1,-1,50,52,-1,-1,54,-1,56,-1,58,60,-1,-1,-1,-1,-1,-1,-1,-1,-1,-1,-1,-1,-1,-1,-1,-1],"split_conditions":[1.0301499E3,1.019675E3,1.0499299E3,1.07825E3,1.161725E3,1.115975E3,1.024425E3,1.1052849E3,1.005895E3,2.3564759E-1,1.2058501E3,1.05627E3,1.1980801E3,1.1945549E3,1.0414099E3,-2.3236085E-2,-8.028717E-2,1.09977E3,1.208725E3,7.436829E-2,1.20363E3,1.021635E3,1.157735E3,-2.8529054E-1,1.222665E3,-2.8114015E-1,-2.7624512E-2,1.34512E3,1.0499299E3,1.1694299E3,1.0692151E3,-5.0102238E-2,3.6254884E-3,1.5756227E-2,2.0141603E-4,1.079025E3,1.056645E3,-9.805665E-2,-1.970215E-2,1.2451951E3,-6.51947E-2,1.1217051E3,-4.2114258E-2,1.1070549E3,1.0760549E3,8.870545E-2,8.331299E-3,-2.5592042E-2,1.656843E-2,1.3970948E-2,-3.2660786E-2,5.5838015E-2,-9.429932E-3,-3.845215E-3,-1.5509034E-2,3.9294437E-2,1.6086182E-1,-2.2320557E-2,1.4962465E-1,-4.6398927E-2,2.1008623E-3],"split_indices":[55,56,49,21,8,27,57,6,59,0,1,51,0,0,57,0,0,9,5,0,0,50,1,0,3,0,0,3,50,3,15,0,0,0,0,0,45,0,0,0,0,0,0,4,52,0,0,0,0,0,0,0,0,0,0,0,0,0,0,0,0],"split_type":[0,0,0,0,0,0,0,0,0,0,0,0,0,0,0,0,0,0,0,0,0,0,0,0,0,0,0,0,0,0,0,0,0,0,0,0,0,0,0,0,0,0,0,0,0,0,0,0,0,0,0,0,0,0,0,0,0,0,0,0,0],"sum_hessian":[6.58E2,2.9E1,6.29E2,2.1E1,8E0,2.3E1,6.06E2,5E0,1.6E1,3E0,5E0,1.8E1,5E0,3E0,6.03E2,2E0,3E0,1.2E1,4E0,3E0,2E0,1.3E1,5E0,2E0,3E0,1E0,2E0,6E0,5.97E2,4E0,8E0,3E0,1E0,1E0,1E0,7E0,6E0,4E0,1E0,2E0,1E0,5E0,1E0,4E0,5.93E2,3E0,1E0,2E0,6E0,1E0,6E0,3E0,3E0,1E0,1E0,1E0,4E0,1E0,3E0,2.4E1,5.69E2],"tree_param":{"num_deleted":"0","num_feature":"60","num_nodes":"61","size_leaf_vector":"0"}},{"base_weights":[5.9164275E-4,3.6632054E-2,-2.0686653E-2,5.212301E-2,-7.173584E-1,-6.390015E-1,-5.4062717E-3,5.9209805E-4,4.4410488E-1,-9.069824E-2,-8.513489E-1,-9.498779E-1,-2.734375E-1,5.2571106E-1,-1.604169E-2,1.3753063E-2,-9.296468E-1,5.9629315E-1,-3.7521973E-1,-3.2958984E-2,-3.149414E-1,-1.842041E-1,7.930501E-1,-2.6198426E-1,1.132982E-2,-1.7610457E-2,2.2048514E-1,-1.4471436E0,5.267334E-2,1.1704451E0,3.3988443E-1,-6.007385E-1,2.6342773E-1,-3.244629E-1,4.815674E-2,1.0570883E0,3.9675903E-1,-5.295504E-2,-6.0683596E-1,5.2633667E-1,-3.738187E-4,6.799907E-2,-1.8854548E-1,2.949782E-1,-4.9861655E-1,1.9616699E-1,1.5209229E0,-1.687622E-1,5.4849946E-1,-5.7907104E-1,4.084579E-2,-7.973633E-2,-7.9125977E-1,8.657227E-2,9.44458E-1,-9.399007E-1,7.6573906E-3],"categories":[],"categories_nodes":[],"categories_segments":[],"categories_sizes":[],"default_left":[1,1,1,1,1,1,1,1,1,0,0,0,1,1,1,1,1,1,1,0,0,1,1,1,1,1,1,0,0,1,1,0,0,0,0,0,0,1,1,1,1,0,0,0,0,0,0,0,0,0,0,0,0,0,0,0,0],"id":81,"left_children":[1,3,5,7,9,11,13,15,17,-1,-1,-1,19,21,23,25,27,29,31,-1,-1,33,35,37,39,41,43,-1,-1,45,47,-1,-1,-1,-1,-1,-1,49,51,53,55,-1,-1,-1,-1,-1,-1,-1,-1,-1,-1,-1,-1,-1,-1,-1,-1],"loss_changes":[5.0613075E-1,2.898999E0,3.917501E0,4.86774E0,3.4261656E-1,8.767204E-1,2.3017874E0,2.6327536E0,3.715105E0,0E0,0E0,0E0,4.9504638E-2,1.6643877E0,2.6889641E0,1.3784581E0,1.6012683E0,3.1354046E0,8.7838626E-1,0E0,0E0,1.1339702E-1,2.0840645E-1,2.8512282E0,2.1700804E0,2.7200491E0,1.6469876E0,0E0,0E0,2.0918846E0,2.0025702E0,0E0,0E0,0E0,0E0,0E0,0E0,1.3067557E0,1.3950534E0,1.389235E0,2.6707718E0,0E0,0E0,0E0,0E0,0E0,0E0,0E0,0E0,0E0,0E0,0E0,0E0,0E0,0E0,0E0,0E0],"parents":[2147483647,0,0,1,1,2,2,3,3,4,4,5,5,6,6,7,7,8,8,12,12,13,13,14,14,15,15,16,16,17,17,18,18,21,21,22,22,23,23,24,24,25,25,26,26,29,29,30,30,37,37,38,38,39,39,40,40],"right_children":[2,4,6,8,10,12,14,16,18,-1,-1,-1,20,22,24,26,28,30,32,-1,-1,34,36,38,40,42,44,-1,-1,46,48,-1,-1,-1,-1,-1,-1,50,52,54,56,-1,-1,-1,-1,-1,-1,-1,-1,-1,-1,-1,-1,-1,-1,-1,-1],"split_conditions":[1.197965E3,1.2333E3,1.19955E3,1.22701E3,1.147635E3,1.21074E3,1.1971101E3,1.22439E3,1.2333E3,-2.7209474E-2,-2.5540468E-1,-2.849634E-1,1.217745E3,1.204285E3,1.225015E3,1.192885E3,1.218415E3,1.209365E3,1.4885349E3,-9.887695E-3,-9.448243E-2,1.15372E3,1.210165E3,1.2150449E3,1.2242051E3,1.12E3,1.25699E3,-4.341431E-1,1.5802003E-2,1.179905E3,1.193425E3,-1.8022156E-1,7.902832E-2,-9.733887E-2,1.4447022E-2,3.1712648E-1,1.1902771E-1,1.10422E3,1.22753E3,1.21763E3,1.223595E3,2.0399723E-2,-5.6563646E-2,8.849347E-2,-1.4958496E-1,5.88501E-2,4.562769E-1,-5.0628666E-2,1.6454984E-1,-1.7372131E-1,1.2253737E-2,-2.39209E-2,-2.3737794E-1,2.597168E-2,2.833374E-1,-2.8197023E-1,2.2972173E-3],"split_indices":[59,52,58,20,0,9,56,20,54,0,0,0,2,27,54,24,0,42,13,0,0,0,29,23,55,25,4,0,0,0,48,0,0,0,0,0,0,28,8,11,57,0,0,0,0,0,0,0,0,0,0,0,0,0,0,0,0],"split_type":[0,0,0,0,0,0,0,0,0,0,0,0,0,0,0,0,0,0,0,0,0,0,0,0,0,0,0,0,0,0,0,0,0,0,0,0,0,0,0,0,0,0,0,0,0,0,0,0,0,0,0,0,0,0,0,0,0],"sum_hessian":[6.58E2,2.44E2,4.14E2,2.4E2,4E0,9E0,4.05E2,2.13E2,2.7E1,1E0,3E0,4E0,5E0,7E0,3.98E2,2.11E2,2E0,2.3E1,4E0,1E0,4E0,2E0,5E0,3.9E1,3.59E2,1.84E2,2.7E1,1E0,1E0,6E0,1.7E1,3E0,1E0,1E0,1E0,2E0,3E0,2.5E1,1.4E1,7E0,3.52E2,1.23E2,6.1E1,2.5E1,2E0,2E0,4E0,5E0,1.2E1,3E0,2.2E1,4E0,1E1,4E0,3E0,2E0,3.5E2],"tree_param":{"num_deleted":"0","num_feature":"60","num_nodes":"57","size_leaf_vector":"0"}},{"base_weights":[-6.587907E-4,1.51802795E-2,-4.594912E-2,6.529879E-3,7.104492E-1,-5.0190616E-1,-8.380626E-3,-4.892657E-3,2.7177733E-1,2.5146484E-2,1.046814E0,-1.550293E-1,-8.8075763E-1,2.918773E-1,-4.4017017E-2,4.4530123E-3,-3.5806274E-1,6.0137067E-2,6.5623254E-1,-1.4416504E-1,1.8188477E-1,-3.623047E-1,1.4282227E-1,1.1731829E-1,8.298645E-1,-5.4575604E-1,-2.1883314E-2,-5.898443E-3,2.8819275E-1,-6.8251956E-1,-1.1051941E-1,5.0097656E-1,-5.508423E-2,2.400716E-3,9.1728514E-1,3.144357E-1,-6.982422E-2,-7.761841E-1,-5.6599934E-2,-2.545689E-1,1.9712286E-2,1.4506122E-2,-2.5737602E-1,4.5587158E-1,-1.71875E-1,-8.404541E-1,-2.5390625E-2,-3.8553873E-1,4.5410156E-2,1.451416E-1,-2.1883719E-1,9.70459E-2,-9.3444824E-2,4.2041016E-1,1.298523E-1,1.4957683E-1,-1.6788737E-1,-2.9269747E-2,-3.9096305E-1,5.046692E-1,-1.541715E-2],"categories":[],"categories_nodes":[],"categories_segments":[],"categories_sizes":[],"default_left":[1,1,1,1,1,1,1,1,1,1,0,1,0,1,1,1,1,1,1,0,0,0,0,1,0,1,1,1,1,1,1,0,1,1,0,1,1,0,0,1,1,0,0,0,0,0,0,0,0,0,0,0,0,0,0,0,0,0,0,0,0],"id":82,"left_children":[1,3,5,7,9,11,13,15,17,19,-1,21,-1,23,25,27,29,31,33,-1,-1,-1,-1,35,-1,37,39,41,43,45,47,-1,49,51,-1,53,55,-1,-1,57,59,-1,-1,-1,-1,-1,-1,-1,-1,-1,-1,-1,-1,-1,-1,-1,-1,-1,-1,-1,-1],"loss_changes":[4.734356E-1,2.9363804E0,2.9249587E0,1.4677522E0,1.3567462E0,1.5718493E0,1.714165E0,1.5363785E0,1.5878603E0,1.05834216E-1,0E0,5.4564357E-1,0E0,1.4991205E0,1.576121E0,1.335152E0,8.8837373E-1,7.387133E-1,1.1925893E0,0E0,0E0,0E0,0E0,5.3840184E-1,0E0,6.3235986E-1,1.3406783E0,2.2563698E0,1.3126509E0,4.975772E-1,3.605765E-1,0E0,4.2521328E-1,3.6282394E-2,0E0,8.2336664E-2,1.9723332E-1,0E0,0E0,6.338757E-1,2.0180597E0,0E0,0E0,0E0,0E0,0E0,0E0,0E0,0E0,0E0,0E0,0E0,0E0,0E0,0E0,0E0,0E0,0E0,0E0,0E0,0E0],"parents":[2147483647,0,0,1,1,2,2,3,3,4,4,5,5,6,6,7,7,8,8,9,9,11,11,13,13,14,14,15,15,16,16,17,17,18,18,23,23,25,25,26,26,27,27,28,28,29,29,30,30,32,32,33,33,35,35,36,36,39,39,40,40],"right_children":[2,4,6,8,10,12,14,16,18,20,-1,22,-1,24,26,28,30,32,34,-1,-1,-1,-1,36,-1,38,40,42,44,46,48,-1,50,52,-1,54,56,-1,-1,58,60,-1,-1,-1,-1,-1,-1,-1,-1,-1,-1,-1,-1,-1,-1,-1,-1,-1,-1,-1,-1],"split_conditions":[1.811315E3,1.809975E3,1.8149299E3,1.80823E3,1.8139099E3,1.808505E3,1.80716E3,1.807025E3,1.8156699E3,1.79426E3,3.140442E-1,1.8128E3,-2.642273E-1,1.7961799E3,1.753825E3,1.81537E3,1.76828E3,1.782365E3,1.775925E3,-4.3249514E-2,5.4565433E-2,-1.0869141E-1,4.284668E-2,1.78265E3,2.4895936E-1,1.86201E3,1.8288601E3,1.788785E3,1.81105E3,1.9143301E3,1.76466E3,1.5029298E-1,1.8113049E3,1.7707849E3,2.7518556E-1,1.86038E3,1.81058E3,-2.3285523E-1,-1.6979981E-2,1.80177E3,1.759415E3,4.3518366E-3,-7.721281E-2,1.3676149E-1,-5.1562503E-2,-2.5213623E-1,-7.6171877E-3,-1.1566162E-1,1.3623048E-2,4.3542482E-2,-6.5651156E-2,2.9113771E-2,-2.8033448E-2,1.2612306E-1,3.895569E-2,4.487305E-2,-5.0366215E-2,-8.780925E-3,-1.1728892E-1,1.5140076E-1,-4.6251453E-3],"split_indices":[22,22,22,26,1,27,28,20,27,0,0,22,0,28,37,12,37,23,0,0,0,0,0,40,0,26,25,10,38,0,0,0,26,0,0,17,0,0,0,41,52,0,0,0,0,0,0,0,0,0,0,0,0,0,0,0,0,0,0,0,0],"split_type":[0,0,0,0,0,0,0,0,0,0,0,0,0,0,0,0,0,0,0,0,0,0,0,0,0,0,0,0,0,0,0,0,0,0,0,0,0,0,0,0,0,0,0,0,0,0,0,0,0,0,0,0,0,0,0,0,0,0,0,0,0],"sum_hessian":[6.58E2,4.88E2,1.7E2,4.83E2,5E0,1.2E1,1.58E2,4.64E2,1.9E1,2E0,3E0,7E0,5E0,1.6E1,1.42E2,4.53E2,1.1E1,1.3E1,6E0,1E0,1E0,4E0,3E0,1.3E1,3E0,5E0,1.37E2,4.38E2,1.5E1,4E0,7E0,2E0,1.1E1,2E0,4E0,6E0,7E0,3E0,2E0,2E1,1.17E2,4.06E2,3.2E1,1.1E1,4E0,3E0,1E0,2E0,5E0,5E0,6E0,1E0,1E0,3E0,3E0,2E0,5E0,8E0,1.2E1,7E0,1.1E2],"tree_param":{"num_deleted":"0","num_feature":"60","num_nodes":"61","size_leaf_vector":"0"}},{"base_weights":[-1.2957236E-4,-2.1520996E-2,2.6338222E-2,-7.0590805E-4,-3.310016E-1,1.9850464E0,1.2924091E-2,-1.8879019E-2,3.101871E-1,-5.1266277E-1,8.544922E-3,-8.5339355E-1,2.1780353E-2,5.88804E-3,-6.1374134E-1,8.6679685E-1,1.03971355E-1,2.7478027E-1,-5.8853585E-1,1.8404134E-1,-2.5683594E-1,1.1347046E0,1.4056543E-2,-7.2114323E-3,8.142578E-1,-7.899292E-1,-1.9836426E-2,2.3278809E-1,9.6710205E-1,-9.366122E-2,5.179688E-1,-2.7677408E-1,-7.3098415E-1,2.706604E-1,7.2021484E-3,4.8276097E-1,-8.989206E-4,1.038196E-3,-6.365051E-1,-1.4139812E-1,-9.343872E-1,1.9213867E-1,-1.5454102E-1,-1.5261501E-1,1.1442057E-1,6.8636066E-1,1.7692058E-1,-3.152832E-1,-4.2114258E-2,-7.2631836E-2,6.518206E-1,-4.276554E-1,2.6276207E-2],"categories":[],"categories_nodes":[],"categories_segments":[],"categories_sizes":[],"default_left":[1,1,1,1,1,0,1,1,1,1,1,0,1,1,1,1,1,0,1,1,0,0,1,1,0,1,1,0,0,1,1,1,0,0,0,1,1,0,0,0,0,0,0,0,0,0,0,0,0,0,0,0,0],"id":83,"left_children":[1,3,5,7,9,-1,11,13,15,17,19,-1,21,23,25,27,29,-1,31,33,-1,-1,35,37,-1,39,41,-1,-1,43,45,47,-1,-1,-1,49,51,-1,-1,-1,-1,-1,-1,-1,-1,-1,-1,-1,-1,-1,-1,-1,-1],"loss_changes":[3.7368196E-1,2.3510475E0,7.7252836E0,1.9437693E0,1.4230762E0,0E0,2.274254E0,4.791836E0,2.0907302E0,1.0579042E0,4.6642894E-1,0E0,2.4940867E0,3.320297E0,1.3446355E0,9.28421E-2,1.2758042E0,0E0,4.1942167E-1,8.995651E-2,0E0,0E0,2.040254E0,1.6048156E0,0E0,8.047347E-1,1.4390938E-1,0E0,0E0,1.5240161E-1,1.657176E-1,4.0941328E-2,0E0,0E0,0E0,8.923936E-1,3.2932336E0,0E0,0E0,0E0,0E0,0E0,0E0,0E0,0E0,0E0,0E0,0E0,0E0,0E0,0E0,0E0,0E0],"parents":[2147483647,0,0,1,1,2,2,3,3,4,4,6,6,7,7,8,8,9,9,10,10,12,12,13,13,14,14,15,15,16,16,18,18,19,19,22,22,23,23,25,25,26,26,29,29,30,30,31,31,35,35,36,36],"right_children":[2,4,6,8,10,-1,12,14,16,18,20,-1,22,24,26,28,30,-1,32,34,-1,-1,36,38,-1,40,42,-1,-1,44,46,48,-1,-1,-1,50,52,-1,-1,-1,-1,-1,-1,-1,-1,-1,-1,-1,-1,-1,-1,-1,-1],"split_conditions":[1.76484E3,1.75397E3,1.6643049E3,1.549655E3,1.78655E3,5.9551394E-1,1.672165E3,1.242285E3,1.5434651E3,1.7828501E3,1.807095E3,-2.5601807E-1,1.728585E3,1.241665E3,1.47172E3,1.669315E3,1.7884199E3,8.243409E-2,1.787615E3,1.7817649E3,-7.705078E-2,3.404114E-1,1.5334199E3,1.535265E3,2.4427734E-1,1.14945E3,1.668205E3,6.983643E-2,2.9013062E-1,1.7679299E3,1.7673899E3,1.769715E3,-2.1929525E-1,8.1198126E-2,2.1606446E-3,1.77154E3,1.7352949E3,3.1145883E-4,-1.9095154E-1,-4.2419437E-2,-2.8031617E-1,5.7641603E-2,-4.6362307E-2,-4.5784503E-2,3.4326173E-2,2.0590821E-1,5.3076174E-2,-9.4584964E-2,-1.2634278E-2,-2.178955E-2,1.955462E-1,-1.2829663E-1,7.882862E-3],"split_indices":[1,3,21,17,15,0,13,45,24,39,31,0,5,46,38,2,27,0,33,6,0,0,47,8,0,0,0,0,0,0,0,3,0,0,0,2,28,0,0,0,0,0,0,0,0,0,0,0,0,0,0,0,0],"split_type":[0,0,0,0,0,0,0,0,0,0,0,0,0,0,0,0,0,0,0,0,0,0,0,0,0,0,0,0,0,0,0,0,0,0,0,0,0,0,0,0,0,0,0,0,0,0,0,0,0,0,0,0,0],"sum_hessian":[6.58E2,3.64E2,2.94E2,3.42E2,2.2E1,1E0,2.93E2,3.24E2,1.8E1,1.4E1,8E0,2E0,2.91E2,3.12E2,1.2E1,4E0,1.4E1,1E0,1.3E1,5E0,3E0,1E0,2.9E2,3.08E2,4E0,9E0,3E0,1E0,3E0,1E1,4E0,5E0,8E0,3E0,2E0,8E0,2.82E2,3.05E2,3E0,2E0,7E0,1E0,2E0,8E0,2E0,2E0,2E0,4E0,1E0,2E0,6E0,1.6E1,2.66E2],"tree_param":{"num_deleted":"0","num_feature":"60","num_nodes":"53","size_leaf_vector":"0"}},{"base_weights":[1.1467015E-3,1.0072447E-2,-7.786993E-2,1.3338965E-2,-9.61853E-1,-3.4588888E-1,6.0847983E-2,7.995294E-3,6.390869E-1,-2.3200074E-1,-8.288574E-1,3.586989E-1,-5.8331113E-2,-8.449119E-3,8.11598E-2,7.0632935E-1,1.850586E-1,-3.910578E-1,-3.3837892E-2,6.0339355E-1,-2.734375E-2,-2.749159E-1,2.1972656E-2,1.4097945E-2,-1.479802E-1,6.2198895E-1,4.8867233E-2,-4.168457E-1,-6.6589355E-2,1.8338013E-1,-1.5312849E-1,7.1417236E-1,1.8070476E-1,4.9926758E-2,-1.2125651E-1,-5.432129E-2,-4.4052735E-1,-1.3757324E-1,7.9596266E-2,-8.4837265E-3,2.520684E-1,-8.665161E-1,-1.00759506E-1,2.237854E-1,9.4559735E-1,-1.529134E-1,1.0879059E-1,-4.4029406E-1,-1.0290527E-1,-2.4887696E-1,5.7495117E-2,8.1848145E-2,1.2003581E-2,-1.2386068E-1,3.3325195E-2,-4.9398804E-1,-1.13342285E-1,-2.1780396E-1,-2.2949219E-2,4.043579E-2,2.1633911E-1],"categories":[],"categories_nodes":[],"categories_segments":[],"categories_sizes":[],"default_left":[1,1,1,1,0,1,1,1,1,1,0,1,1,1,1,0,0,1,1,1,1,1,1,1,1,1,1,1,0,0,1,0,0,1,0,1,1,1,1,0,0,0,0,0,0,0,0,0,0,0,0,0,0,0,0,0,0,0,0,0,0],"id":84,"left_children":[1,3,5,7,-1,9,11,13,15,17,-1,19,21,23,25,-1,-1,27,29,31,33,35,37,39,41,43,45,47,-1,-1,49,-1,-1,51,-1,53,55,57,59,-1,-1,-1,-1,-1,-1,-1,-1,-1,-1,-1,-1,-1,-1,-1,-1,-1,-1,-1,-1,-1,-1],"loss_changes":[4.655654E-1,1.8954935E0,2.5120416E0,1.9744148E0,0E0,1.0728056E0,1.6183156E0,7.081364E-1,2.193737E-2,6.171514E-1,0E0,1.2445123E0,5.7999563E-1,1.51532E0,1.8557994E0,0E0,0E0,6.428361E-2,2.8720137E-1,2.4554539E-1,4.9594063E-2,3.048669E-1,2.407906E-1,2.2322533E0,2.1859841E0,5.615611E-1,1.2620469E0,2.8305173E-2,0E0,0E0,1.5547745E-1,0E0,0E0,3.8597705E-3,0E0,3.4602094E-2,3.1467974E-2,5.9376135E-2,9.299554E-2,0E0,0E0,0E0,0E0,0E0,0E0,0E0,0E0,0E0,0E0,0E0,0E0,0E0,0E0,0E0,0E0,0E0,0E0,0E0,0E0,0E0,0E0],"parents":[2147483647,0,0,1,1,2,2,3,3,5,5,6,6,7,7,8,8,9,9,11,11,12,12,13,13,14,14,17,17,18,18,19,19,20,20,21,21,22,22,23,23,24,24,25,25,26,26,27,27,30,30,33,33,35,35,36,36,37,37,38,38],"right_children":[2,4,6,8,-1,10,12,14,16,18,-1,20,22,24,26,-1,-1,28,30,32,34,36,38,40,42,44,46,48,-1,-1,50,-1,-1,52,-1,54,56,58,60,-1,-1,-1,-1,-1,-1,-1,-1,-1,-1,-1,-1,-1,-1,-1,-1,-1,-1,-1,-1,-1,-1],"split_conditions":[1.954365E3,1.9871799E3,1.975125E3,1.959725E3,-2.8855592E-1,1.987505E3,1.97881E3,1.811315E3,1.97999E3,1.9691001E3,-2.4865724E-1,1.944395E3,1.95157E3,1.78639E3,1.80146E3,2.1189882E-1,5.551758E-2,1.9754551E3,1.94428E3,1.9638601E3,2.01275E3,1.99021E3,1.9532E3,1.77131E3,1.528115E3,1.805495E3,1.766855E3,1.99191E3,-1.9976808E-2,5.501404E-2,1.9958201E3,2.1425171E-1,5.421143E-2,1.9244551E3,-3.6376953E-2,1.966515E3,2.03313E3,2.005995E3,2.057695E3,-2.545118E-3,7.5620525E-2,-2.5995484E-1,-3.0227853E-2,6.7135625E-2,2.8367922E-1,-4.5874022E-2,3.263718E-2,-1.3208823E-1,-3.0871583E-2,-7.466309E-2,1.7248536E-2,2.4554444E-2,3.6010745E-3,-3.7158206E-2,9.997559E-3,-1.4819641E-1,-3.4002688E-2,-6.534119E-2,-6.884766E-3,1.2130738E-2,6.490174E-2],"split_indices":[16,19,12,20,0,14,6,10,0,16,0,48,43,13,9,0,0,10,31,32,0,9,56,9,55,8,53,6,0,0,18,0,0,5,0,0,4,9,26,0,0,0,0,0,0,0,0,0,0,0,0,0,0,0,0,0,0,0,0,0,0],"split_type":[0,0,0,0,0,0,0,0,0,0,0,0,0,0,0,0,0,0,0,0,0,0,0,0,0,0,0,0,0,0,0,0,0,0,0,0,0,0,0,0,0,0,0,0,0,0,0,0,0,0,0,0,0,0,0,0,0,0,0,0,0],"sum_hessian":[6.58E2,5.92E2,6.6E1,5.91E2,1E0,2.2E1,4.4E1,5.87E2,4E0,1.9E1,3E0,1.2E1,3.2E1,4.8E2,1.07E2,3E0,1E0,1E1,9E0,7E0,5E0,8E0,2.4E1,4.14E2,6.6E1,5E0,1.02E2,9E0,1E0,3E0,6E0,5E0,2E0,3E0,2E0,4E0,4E0,6E0,1.8E1,3.79E2,3.5E1,3E0,6.3E1,3E0,2E0,2.3E1,7.9E1,8E0,1E0,4E0,2E0,1E0,2E0,2E0,2E0,3E0,1E0,3E0,3E0,1.5E1,3E0],"tree_param":{"num_deleted":"0","num_feature":"60","num_nodes":"61","size_leaf_vector":"0"}},{"base_weights":[4.0427686E-4,1.3368155E-2,-4.1132253E-2,5.141468E-3,3.4954834E-1,-3.0921283E-1,-1.4783223E-2,1.0832299E-2,-4.5762125E-1,-1.0467529E-1,5.1258683E-1,-4.187554E-1,-9.336344E-2,-8.2836914E-1,-3.3010202E-3,-3.1570368E-4,1.8066406E-1,1.2573242E-2,-6.958618E-1,-1.9730632E-1,8.660889E-2,8.67218E-1,1.9073486E-1,-1.1315918E-1,-5.5269367E-1,2.9988607E-2,-1.6253662E-1,-3.728434E-1,1.2789961E-2,1.1713023E-2,-2.3923562E-1,1.0040039E0,1.5380859E-2,7.702637E-2,-5.8166504E-2,2.6800537E-1,2.4129232E-2,8.056641E-3,3.692627E-2,-5.311279E-1,-1.6091919E-1,3.3447266E-1,-1.7705962E-2,3.0636496E-3,3.177897E-1,-9.7347006E-2,-4.753723E-1,1.1801758E0,1.496582E-1,4.2770997E-1,-7.902943E-2,5.0109863E-2,-1.3916016E-2,-4.9621582E-2,-1.8147786E-1,-9.78597E-3,5.8176965E-1,-5.452474E-1,8.383829E-3],"categories":[],"categories_nodes":[],"categories_segments":[],"categories_sizes":[],"default_left":[1,1,1,1,1,1,1,1,1,1,1,1,1,0,1,1,1,1,0,0,0,0,1,0,0,1,0,1,1,1,1,1,1,0,0,0,1,0,0,0,1,1,1,0,0,0,0,0,0,0,0,0,0,0,0,0,0,0,0],"id":85,"left_children":[1,3,5,7,9,11,13,15,17,19,21,23,25,-1,27,29,31,33,-1,-1,-1,-1,35,-1,-1,37,-1,39,41,43,45,47,49,-1,-1,-1,51,-1,-1,-1,53,55,57,-1,-1,-1,-1,-1,-1,-1,-1,-1,-1,-1,-1,-1,-1,-1,-1],"loss_changes":[3.554046E-1,1.3893244E0,1.1044239E0,1.3006414E0,9.423263E-1,2.9192948E-1,1.3424788E0,9.2208683E-1,6.808655E-1,8.796388E-2,8.6184E-1,3.058368E-1,5.6070168E-2,0E0,8.5508955E-1,1.3190495E0,4.067085E0,1.8158548E-2,0E0,0E0,0E0,0E0,7.077542E-2,0E0,0E0,1.5896815E-4,0E0,1.1579728E-1,1.3597037E0,1.1559279E0,6.908363E-1,5.7593536E-1,1.0459325E0,0E0,0E0,0E0,3.6626481E-3,0E0,0E0,0E0,1.4731288E-4,1.0273027E0,1.7525289E0,0E0,0E0,0E0,0E0,0E0,0E0,0E0,0E0,0E0,0E0,0E0,0E0,0E0,0E0,0E0,0E0],"parents":[2147483647,0,0,1,1,2,2,3,3,4,4,5,5,6,6,7,7,8,8,9,9,10,10,11,11,12,12,14,14,15,15,16,16,17,17,22,22,25,25,27,27,28,28,29,29,30,30,31,31,32,32,36,36,40,40,41,41,42,42],"right_children":[2,4,6,8,10,12,14,16,18,20,22,24,26,-1,28,30,32,34,-1,-1,-1,-1,36,-1,-1,38,-1,40,42,44,46,48,50,-1,-1,-1,52,-1,-1,-1,54,56,58,-1,-1,-1,-1,-1,-1,-1,-1,-1,-1,-1,-1,-1,-1,-1,-1],"split_conditions":[1.81225E3,1.813095E3,1.810985E3,1.87994E3,1.81631E3,1.8274451E3,1.741705E3,1.80716E3,1.81719E3,1.95631E3,1.95103E3,1.81628E3,1.920635E3,-2.4851075E-1,1.78379E3,1.79529E3,1.782825E3,1.78945E3,-2.0875855E-1,-5.9191898E-2,2.5982667E-2,2.6016542E-1,1.9808899E3,-3.3947755E-2,-1.6580811E-1,1.835815E3,-4.8760988E-2,1.81884E3,1.8113501E3,1.7958999E3,1.7899751E3,1.820355E3,1.78231E3,2.310791E-2,-1.7449953E-2,8.0401614E-2,1.98241E3,2.4169923E-3,1.1077881E-2,-1.5933838E-1,1.8381951E3,1.81412E3,1.81721E3,9.1909495E-4,9.5336914E-2,-2.9204102E-2,-1.426117E-1,3.5405275E-1,4.4897463E-2,1.2831299E-1,-2.3708832E-2,1.5032959E-2,-4.174805E-3,-1.4886475E-2,-5.444336E-2,-2.9357912E-3,1.745309E-1,-1.6357422E-1,2.5151488E-3],"split_indices":[41,39,42,24,27,18,51,57,9,0,0,41,0,0,45,59,44,0,0,0,0,0,1,0,0,0,0,15,47,54,38,1,40,0,0,0,0,0,0,0,0,35,47,0,0,0,0,0,0,0,0,0,0,0,0,0,0,0,0],"split_type":[0,0,0,0,0,0,0,0,0,0,0,0,0,0,0,0,0,0,0,0,0,0,0,0,0,0,0,0,0,0,0,0,0,0,0,0,0,0,0,0,0,0,0,0,0,0,0,0,0,0,0,0,0,0,0,0,0,0,0],"sum_hessian":[6.58E2,5.02E2,1.56E2,4.91E2,1.1E1,1.3E1,1.43E2,4.86E2,5E0,3E0,8E0,8E0,5E0,1E0,1.42E2,4.57E2,2.9E1,2E0,3E0,2E0,1E0,3E0,5E0,3E0,5E0,2E0,3E0,5E0,1.37E2,4.36E2,2.1E1,4E0,2.5E1,1E0,1E0,3E0,2E0,1E0,1E0,2E0,3E0,1.1E1,1.26E2,4.25E2,1.1E1,1.4E1,7E0,3E0,1E0,4E0,2.1E1,1E0,1E0,1E0,2E0,5E0,6E0,5E0,1.21E2],"tree_param":{"num_deleted":"0","num_feature":"60","num_nodes":"59","size_leaf_vector":"0"}},{"base_weights":[-3.7973314E-6,-4.707409E-2,1.1102684E-2,1.3440059E-2,-3.186566E-1,2.7383128E-1,-5.079239E-3,-3.888487E-2,1.641032E-1,-8.4102374E-1,-1.2683105E-1,3.9921987E-1,-2.9406738E-2,-1.0568542E0,3.3283043E-3,-1.3344964E-1,6.416883E-2,2.6873168E-1,-1.1798096E-1,-2.1984863E-1,-1.0966492E0,-2.5337103E-1,1.6847737E-1,1.5294471E-1,6.794556E-1,-1.6914368E-1,3.5302734E-1,-6.3476562E-3,-1.4049072E0,2.3480988E-1,-4.2993366E-3,-7.639513E-2,-6.421051E-1,2.9299927E-1,-3.9910212E-2,5.933838E-1,1.9969347E-1,8.8897705E-2,-2.598877E-1,-4.598999E-2,-4.8765054E-1,2.2741699E-1,-6.311035E-2,4.7395834E-1,-1.06933594E-1,8.101196E-1,1.04532875E-1,-2.114781E-1,6.359863E-2,7.128906E-2,4.5825195E-1,3.3325195E-2,8.309326E-1,-3.657308E-1,7.1959416E-3,-4.1448258E-2,-2.9875487E-1,-7.508545E-1,-1.5792847E-1,4.7651672E-1,-5.9228517E-2,-1.0035095E-1,1.1618042E-1,2.4034831E-1,-2.6855469E-3,1.7700195E-3,1.1735026E-1,-3.354899E-1,-9.765625E-2,-1.0126604E-1,1.7047119E-1,6.4767456E-1,8.4350586E-2,5.444336E-2,-2.1464844E-1,-8.2845055E-2,-2.463623E-1,1.8815918E-1,-3.6209106E-1,9.7509766E-1,1.9921875E-1,-5.9814453E-3,-6.048991E-1,2.1591187E-1,-7.965296E-3],"categories":[],"categories_nodes":[],"categories_segments":[],"categories_sizes":[],"default_left":[1,1,1,1,1,1,1,1,1,1,1,1,1,1,1,1,1,1,1,0,0,1,1,1,1,1,1,0,0,1,1,1,1,1,1,0,1,1,1,1,0,0,0,1,1,0,0,1,0,0,0,1,1,1,1,0,0,0,0,0,0,0,0,0,0,0,0,0,0,0,0,0,0,0,0,0,0,0,0,0,0,0,0,0,0],"id":86,"left_children":[1,3,5,7,9,11,13,15,17,19,21,23,25,27,29,31,33,35,37,-1,-1,39,41,43,45,47,49,-1,-1,51,53,55,57,59,61,-1,63,65,67,69,-1,-1,-1,71,73,-1,-1,75,-1,-1,-1,77,79,81,83,-1,-1,-1,-1,-1,-1,-1,-1,-1,-1,-1,-1,-1,-1,-1,-1,-1,-1,-1,-1,-1,-1,-1,-1,-1,-1,-1,-1,-1,-1],"loss_changes":[3.4503818E-1,2.0750403E0,2.2716672E0,8.2625866E-1,2.1980097E0,1.1904399E0,4.460311E0,7.686928E-1,8.2858425E-1,7.1163225E-1,7.15317E-1,1.414413E0,5.94114E-1,1.45361E0,8.856043E-1,1.140811E0,9.1671884E-1,3.297732E-1,2.579632E-1,0E0,0E0,6.0917974E-1,9.6250504E-2,1.1352003E0,6.6653347E-1,9.227382E-2,5.626905E-2,0E0,0E0,1.8940625E0,2.021843E0,2.829067E-1,9.203422E-2,8.0390275E-1,2.663831E-1,0E0,1.4874381E-1,9.708308E-3,2.8562605E-2,1.12983905E-1,0E0,0E0,0E0,3.5145545E-1,1.5074773E-1,0E0,0E0,1.1000931E-2,0E0,0E0,0E0,8.6404115E-1,1.7002654E-1,1.2869911E0,1.4953126E0,0E0,0E0,0E0,0E0,0E0,0E0,0E0,0E0,0E0,0E0,0E0,0E0,0E0,0E0,0E0,0E0,0E0,0E0,0E0,0E0,0E0,0E0,0E0,0E0,0E0,0E0,0E0,0E0,0E0,0E0],"parents":[2147483647,0,0,1,1,2,2,3,3,4,4,5,5,6,6,7,7,8,8,9,9,10,10,11,11,12,12,13,13,14,14,15,15,16,16,17,17,18,18,21,21,22,22,23,23,24,24,25,25,26,26,29,29,30,30,31,31,32,32,33,33,34,34,36,36,37,37,38,38,39,39,43,43,44,44,47,47,51,51,52,52,53,53,54,54],"right_children":[2,4,6,8,10,12,14,16,18,20,22,24,26,28,30,32,34,36,38,-1,-1,40,42,44,46,48,50,-1,-1,52,54,56,58,60,62,-1,64,66,68,70,-1,-1,-1,72,74,-1,-1,76,-1,-1,-1,78,80,82,84,-1,-1,-1,-1,-1,-1,-1,-1,-1,-1,-1,-1,-1,-1,-1,-1,-1,-1,-1,-1,-1,-1,-1,-1,-1,-1,-1,-1,-1,-1],"split_conditions":[1.10206E3,1.092895E3,1.112275E3,1.1058049E3,1.09502E3,1.204875E3,1.115225E3,1.05636E3,1.1222849E3,1.124605E3,1.1336699E3,1.13315E3,1.2450701E3,1.19553E3,1.1235801E3,1.115975E3,1.05636E3,1.027145E3,1.131005E3,-6.5954596E-2,-3.2899475E-1,1.14615E3,1.22451E3,1.09025E3,1.201155E3,1.3236951E3,1.3616799E3,-1.9042969E-3,-4.214722E-1,1.116105E3,1.136815E3,1.0499451E3,1.20712E3,1.071345E3,1.15623E3,1.7801514E-1,1.16701E3,1.13919E3,1.205815E3,1.1513201E3,-1.4629517E-1,6.82251E-2,-1.8933106E-2,1.0782051E3,1.104365E3,2.430359E-1,3.1359863E-2,1.211345E3,1.907959E-2,2.138672E-2,1.374756E-1,1.2388501E3,1.23092E3,1.1090349E3,1.17281E3,-1.2434478E-2,-8.962646E-2,-2.2525635E-1,-4.7378544E-2,1.4295502E-1,-1.7768556E-2,-3.0105287E-2,3.485413E-2,7.21045E-2,-8.056641E-4,5.310059E-4,3.5205077E-2,-1.0064697E-1,-2.9296877E-2,-3.0379813E-2,5.114136E-2,1.9430238E-1,2.5305176E-2,1.6333008E-2,-6.439453E-2,-2.4853518E-2,-7.3908694E-2,5.6447756E-2,-1.0862733E-1,2.925293E-1,5.9765626E-2,-1.7944337E-3,-1.8146974E-1,6.477356E-2,-2.3895889E-3],"split_indices":[49,50,51,32,50,3,51,52,38,5,17,34,4,0,52,27,50,47,20,0,0,0,0,28,7,1,0,0,0,52,53,52,0,52,12,0,18,6,0,1,0,0,0,38,48,0,0,0,0,0,0,6,0,32,55,0,0,0,0,0,0,0,0,0,0,0,0,0,0,0,0,0,0,0,0,0,0,0,0,0,0,0,0,0,0],"split_type":[0,0,0,0,0,0,0,0,0,0,0,0,0,0,0,0,0,0,0,0,0,0,0,0,0,0,0,0,0,0,0,0,0,0,0,0,0,0,0,0,0,0,0,0,0,0,0,0,0,0,0,0,0,0,0,0,0,0,0,0,0,0,0,0,0,0,0,0,0,0,0,0,0,0,0,0,0,0,0,0,0,0,0,0,0],"sum_hessian":[6.58E2,1.25E2,5.33E2,1.03E2,2.2E1,3E1,5.03E2,7.7E1,2.6E1,5E0,1.7E1,2.1E1,9E0,3E0,5E2,4E1,3.7E1,1.9E1,7E0,2E0,3E0,1.2E1,5E0,1.2E1,9E0,7E0,2E0,1E0,2E0,1.5E1,4.85E2,3.7E1,3E0,1.1E1,2.6E1,2E0,1.7E1,3E0,4E0,7E0,5E0,4E0,1E0,5E0,7E0,7E0,2E0,6E0,1E0,1E0,1E0,1.2E1,3E0,1.4E1,4.71E2,3.3E1,4E0,2E0,1E0,7E0,4E0,1.9E1,7E0,1.4E1,3E0,1E0,2E0,2E0,2E0,6E0,1E0,3E0,2E0,3E0,4E0,2E0,4E0,9E0,3E0,2E0,1E0,6E0,8E0,3.1E1,4.4E2],"tree_param":{"num_deleted":"0","num_feature":"60","num_nodes":"85","size_leaf_vector":"0"}},{"base_weights":[-3.9223654E-4,-2.5569731E-2,1.9342536E-2,-1.2080448E-2,-5.691964E-1,9.805501E-1,1.1454043E-2,5.4277694E-3,-2.5655967E-1,2.9760742E-1,-7.6326495E-1,4.260254E-1,1.0579427E-3,-7.2014467E-3,5.5389404E-1,-5.404785E-1,5.3015135E-2,-4.711914E-2,6.7045087E-1,-4.0683594E-1,1.2675837E-2,6.9390247E-3,-4.5526123E-1,8.769124E-1,1.7315674E-1,-9.5581055E-2,-7.174944E-1,4.251465E-1,-2.6593018E-1,-1.1779785E-1,1.570638E-2,1.5765381E-1,7.414795E-1,-8.47168E-2,-6.074626E-1,2.4820682E-1,-8.510153E-3,-1.9154219E-2,1.7075545E-1,4.2053223E-2,-5.3231376E-1,-4.260254E-2,2.5927734E-1,-1.1665853E-1,-1.6174316E-2,-1.0331726E0,-2.2244263E-1,8.526611E-2,-3.5322267E-1,2.8747559E-2,-5.1879883E-3,-1.053772E-1,-1.0375977E-3,-7.1760255E-1,-2.8381348E-2,1.2021665E-1,1.3173828E0,-6.800537E-1,-2.2075332E-3],"categories":[],"categories_nodes":[],"categories_segments":[],"categories_sizes":[],"default_left":[1,1,1,1,1,0,1,1,1,0,0,1,1,1,1,1,1,1,1,1,1,1,1,0,1,1,1,0,1,0,1,0,0,1,1,1,1,0,0,0,0,0,0,0,0,0,0,0,0,0,0,0,0,0,0,0,0,0,0],"id":87,"left_children":[1,3,5,7,9,-1,11,13,15,-1,-1,17,19,21,23,25,27,29,31,33,35,37,39,-1,41,43,45,-1,47,-1,49,-1,-1,51,53,55,57,-1,-1,-1,-1,-1,-1,-1,-1,-1,-1,-1,-1,-1,-1,-1,-1,-1,-1,-1,-1,-1,-1],"loss_changes":[3.279333E-1,2.119733E0,2.794286E0,1.2170248E0,1.4046886E0,0E0,1.5856018E0,1.8464909E0,1.6986418E0,0E0,0E0,1.0724282E0,1.7111495E0,1.6567967E0,5.860677E-1,7.189603E-1,1.2999548E0,1.9611886E-2,1.0164285E-1,5.947944E-1,1.7535872E0,1.088994E0,3.2894015E-1,0E0,8.537115E-2,4.8079006E-3,8.641176E-1,0E0,2.1405867E-1,0E0,9.666036E-4,0E0,0E0,8.53489E-3,3.623135E-1,3.8101056E0,1.3655908E0,0E0,0E0,0E0,0E0,0E0,0E0,0E0,0E0,0E0,0E0,0E0,0E0,0E0,0E0,0E0,0E0,0E0,0E0,0E0,0E0,0E0,0E0],"parents":[2147483647,0,0,1,1,2,2,3,3,4,4,6,6,7,7,8,8,11,11,12,12,13,13,14,14,15,15,16,16,17,17,18,18,19,19,20,20,21,21,22,22,24,24,25,25,26,26,28,28,30,30,33,33,34,34,35,35,36,36],"right_children":[2,4,6,8,10,-1,12,14,16,-1,-1,18,20,22,24,26,28,30,32,34,36,38,40,-1,42,44,46,-1,48,-1,50,-1,-1,52,54,56,58,-1,-1,-1,-1,-1,-1,-1,-1,-1,-1,-1,-1,-1,-1,-1,-1,-1,-1,-1,-1,-1,-1],"split_conditions":[1.227575E3,1.2376951E3,1.227925E3,1.22364E3,1.11425E3,2.9416505E-1,1.148085E3,1.4621699E3,1.220925E3,8.928223E-2,-2.289795E-1,1.22253E3,1.224245E3,1.24771E3,1.469115E3,1.08205E3,1.221675E3,1.1018501E3,1.1422849E3,1.218755E3,1.47254E3,1.1948301E3,1.2222451E3,2.6307374E-1,1.4925549E3,1.077735E3,1.22697E3,1.2754396E-1,1.15324E3,-3.5339355E-2,1.13197E3,4.7296144E-2,2.2244386E-1,1.18837E3,1.2367151E3,1.79221E3,1.67144E3,-5.746266E-3,5.1226635E-2,1.2615968E-2,-1.5969414E-1,-1.2780762E-2,7.7783205E-2,-3.499756E-2,-4.852295E-3,-3.0995178E-1,-6.6732794E-2,2.5579834E-2,-1.0596681E-1,8.624268E-3,-1.5563966E-3,-3.161316E-2,-3.1127932E-4,-2.1528077E-1,-8.514404E-3,3.6064997E-2,3.9521486E-1,-2.0401612E-1,-6.6226E-4],"split_indices":[49,51,49,55,0,0,1,8,27,0,0,23,7,10,0,0,40,0,8,17,56,56,13,0,0,0,55,0,0,0,0,0,0,0,12,1,13,0,0,0,0,0,0,0,0,0,0,0,0,0,0,0,0,0,0,0,0,0,0],"split_type":[0,0,0,0,0,0,0,0,0,0,0,0,0,0,0,0,0,0,0,0,0,0,0,0,0,0,0,0,0,0,0,0,0,0,0,0,0,0,0,0,0,0,0,0,0,0,0,0,0,0,0,0,0,0,0,0,0,0,0],"sum_hessian":[6.58E2,2.89E2,3.69E2,2.83E2,6E0,2E0,3.67E2,2.65E2,1.8E1,1E0,5E0,8E0,3.59E2,2.6E2,5E0,9E0,9E0,3E0,5E0,9E0,3.5E2,2.53E2,7E0,2E0,3E0,3E0,6E0,4E0,5E0,1E0,2E0,1E0,4E0,4E0,5E0,2.8E1,3.22E2,2.19E2,3.4E1,1E0,6E0,1E0,2E0,2E0,1E0,3E0,3E0,1E0,4E0,1E0,1E0,3E0,1E0,4E0,1E0,2.6E1,2E0,2E0,3.2E2],"tree_param":{"num_deleted":"0","num_feature":"60","num_nodes":"59","size_leaf_vector":"0"}},{"base_weights":[3.769546E-5,6.484225E-3,-6.687348E-2,1.0587504E-2,-4.028727E-1,-4.5256042E-1,-5.0623277E-3,1.1437364E-3,1.8297552E-1,-6.1279297E-1,-1.4471436E-1,-6.148885E-1,2.2949219E-2,-2.9193115E-1,1.8948874E-2,4.934676E-3,-2.3444282E-1,2.2391063E-1,-2.7372232E-1,-1.6748047E-1,-3.8208008E-2,7.507324E-2,-4.0649414E-2,-3.3390298E-1,-8.300781E-2,3.416748E-1,-2.5104026E-3,1.0736238E-3,3.6061606E-1,2.8930664E-2,-3.7095132E-1,3.1241122E-1,-4.7454834E-2,2.111206E-1,-2.2324674E-2,1.0004443E-2,-1.1711551E-1,5.84554E-1,1.02508545E-1,-4.3701172E-2,1.23413086E-1,4.4278657E-1,1.1168213E-1,1.5323894E-1,-1.3989258E-1,2.52889E-1,4.2907715E-2,-8.313458E-2,6.675211E-2],"categories":[],"categories_nodes":[],"categories_segments":[],"categories_sizes":[],"default_left":[1,1,1,1,1,1,1,1,1,0,1,0,1,1,1,1,1,1,0,0,0,0,0,0,0,0,1,1,1,1,0,1,1,1,1,0,0,0,0,0,0,0,0,0,0,0,0,0,0],"id":88,"left_children":[1,3,5,7,9,11,13,15,17,-1,19,-1,21,23,25,27,29,31,-1,-1,-1,-1,-1,-1,-1,-1,33,35,37,39,-1,41,43,45,47,-1,-1,-1,-1,-1,-1,-1,-1,-1,-1,-1,-1,-1,-1],"loss_changes":[2.8468993E-1,1.0154482E0,1.3804148E0,9.717021E-1,2.3647606E-1,6.316198E-1,3.5682306E-1,5.075414E-1,6.408336E-1,0E0,3.2998472E-3,0E0,1.2996733E-2,7.3590577E-3,3.3328006E-1,7.6729E-1,3.343064E-1,7.112895E-1,0E0,0E0,0E0,0E0,0E0,0E0,0E0,0E0,1.9942856E-1,5.859329E-1,2.8687865E-1,3.2843024E-2,0E0,5.262914E-1,1.6985044E-1,1.7253026E-2,2.3846969E-1,0E0,0E0,0E0,0E0,0E0,0E0,0E0,0E0,0E0,0E0,0E0,0E0,0E0,0E0],"parents":[2147483647,0,0,1,1,2,2,3,3,4,4,5,5,6,6,7,7,8,8,10,10,12,12,13,13,14,14,15,15,16,16,17,17,26,26,27,27,28,28,29,29,31,31,32,32,33,33,34,34],"right_children":[2,4,6,8,10,12,14,16,18,-1,20,-1,22,24,26,28,30,32,-1,-1,-1,-1,-1,-1,-1,-1,34,36,38,40,-1,42,44,46,48,-1,-1,-1,-1,-1,-1,-1,-1,-1,-1,-1,-1,-1,-1],"split_conditions":[1.9557649E3,1.995385E3,1.945975E3,1.90801E3,2.000395E3,2.004975E3,1.81215E3,1.9484299E3,1.99402E3,-1.8383789E-1,2.067865E3,-1.8446656E-1,1.98385E3,1.8020549E3,1.8906499E3,1.95363E3,1.7333049E3,1.987075E3,-8.21167E-2,-5.024414E-2,-1.14624025E-2,2.2521973E-2,-1.2194824E-2,-1.001709E-1,-2.4902346E-2,1.0250244E-1,1.94428E3,1.82452E3,1.946395E3,1.976865E3,-1.112854E-1,1.823235E3,1.98646E3,2.0064299E3,1.987765E3,3.001333E-3,-3.5134654E-2,1.7536621E-1,3.0752564E-2,-1.3110352E-2,3.7023928E-2,1.3283598E-1,3.3504643E-2,4.5971684E-2,-4.1967776E-2,7.586671E-2,1.2872315E-2,-2.4940373E-2,2.0025635E-2],"split_indices":[31,1,35,27,0,12,7,13,16,0,0,0,0,0,11,7,58,6,0,0,0,0,0,0,0,0,33,27,10,0,0,52,5,0,30,0,0,0,0,0,0,0,0,0,0,0,0,0,0],"split_type":[0,0,0,0,0,0,0,0,0,0,0,0,0,0,0,0,0,0,0,0,0,0,0,0,0,0,0,0,0,0,0,0,0,0,0,0,0,0,0,0,0,0,0,0,0,0,0,0,0],"sum_hessian":[6.58E2,6.01E2,5.7E1,5.96E2,5E0,7E0,5E1,5.66E2,3E1,2E0,3E0,5E0,2E0,3E0,4.7E1,5.58E2,8E0,2.8E1,2E0,2E0,1E0,1E0,1E0,2E0,1E0,2E0,4.5E1,5.53E2,5E0,3E0,5E0,2.1E1,7E0,3E0,4.2E1,5.15E2,3.8E1,2E0,3E0,2E0,1E0,1.2E1,9E0,2E0,5E0,2E0,1E0,2.5E1,1.7E1],"tree_param":{"num_deleted":"0","num_feature":"60","num_nodes":"49","size_leaf_vector":"0"}},{"base_weights":[-2.8794887E-4,-2.4478227E-2,1.6777255E-2,2.4897878E-3,-2.605373E-1,8.5701495E-1,1.0186371E-2,-1.1634378E-2,3.7571886E-1,4.9682617E-2,-5.327067E-1,1.908081E-1,2.8849952E-4,-4.9358304E-3,-5.347087E-1,5.2841794E-1,1.4787598E-1,-1.2541504E-1,3.899414E-1,-7.363281E-1,-1.0455322E-1,6.047507E-2,6.970215E-1,-2.4635416E-1,1.0798021E-2,-1.2408815E-2,3.4279785E-1,1.7160034E-1,2.6489258E-2,-3.4005303E-2,-2.5402832E-1,5.3877765E-1,1.1112467E-1,-2.380371E-3,-8.1761336E-1,2.5512695E-2,-2.4312337E-1,2.73298E-1,-8.045543E-2,1.5285644E-1,-4.054177E-1,3.0972725E-1,-1.5789921E-3,1.6685445E-2,-1.3041355E-1,4.630534E-2,-7.539062E-2,-8.736725E-1,-1.8457031E-1,5.110677E-2,-2.5634766E-2,-7.5642906E-2,4.2800292E-1,6.626674E-3,-1.862793E-1,-1.7293295E-2,2.7205405E-1,-2.0968191E-1,-5.9836423E-1,-1.2962124E-1,6.554413E-1,-4.6033823E-1,1.3764262E-2],"categories":[],"categories_nodes":[],"categories_segments":[],"categories_sizes":[],"default_left":[1,1,1,1,1,0,1,1,1,1,1,1,1,1,0,0,1,1,1,1,1,1,0,1,1,1,0,0,0,1,0,0,0,0,1,1,0,1,1,1,1,1,1,0,0,0,0,0,0,0,0,0,0,0,0,0,0,0,0,0,0,0,0],"id":89,"left_children":[1,3,5,7,9,-1,11,13,15,17,19,21,23,25,-1,-1,27,29,31,33,35,37,-1,39,41,43,-1,-1,-1,45,-1,-1,-1,-1,47,49,-1,51,53,55,57,59,61,-1,-1,-1,-1,-1,-1,-1,-1,-1,-1,-1,-1,-1,-1,-1,-1,-1,-1,-1,-1],"loss_changes":[2.724538E-1,1.7385788E0,2.1344411E0,1.3011724E0,2.3905725E0,0E0,6.882367E-1,8.312742E-1,2.3498225E-1,8.830037E-1,1.2307329E0,1.277374E0,9.513674E-1,6.175254E-1,0E0,0E0,9.853542E-3,1.0892674E-1,1.4761871E-1,5.946455E-1,1.1434225E-1,5.3187335E-1,0E0,1.0144684E0,1.3028367E0,7.9869246E-1,0E0,0E0,0E0,2.675676E-2,0E0,0E0,0E0,0E0,1.5813637E-1,6.5463977E-3,0E0,4.1025555E-1,1.02603436E-1,1.061119E-1,2.8996587E-1,2.2114043E0,2.39251E0,0E0,0E0,0E0,0E0,0E0,0E0,0E0,0E0,0E0,0E0,0E0,0E0,0E0,0E0,0E0,0E0,0E0,0E0,0E0,0E0],"parents":[2147483647,0,0,1,1,2,2,3,3,4,4,6,6,7,7,8,8,9,9,10,10,11,11,12,12,13,13,16,16,17,17,18,18,19,19,20,20,21,21,23,23,24,24,25,25,29,29,34,34,35,35,37,37,38,38,39,39,40,40,41,41,42,42],"right_children":[2,4,6,8,10,-1,12,14,16,18,20,22,24,26,-1,-1,28,30,32,34,36,38,-1,40,42,44,-1,-1,-1,46,-1,-1,-1,-1,48,50,-1,52,54,56,58,60,62,-1,-1,-1,-1,-1,-1,-1,-1,-1,-1,-1,-1,-1,-1,-1,-1,-1,-1,-1,-1],"split_conditions":[1.2383899E3,1.2234551E3,1.201245E3,1.224995E3,1.19823E3,2.571045E-1,1.170485E3,1.2433301E3,1.21897E3,1.2077549E3,1.2334751E3,1.218865E3,1.4660349E3,1.24238E3,-1.6041261E-1,1.5852539E-1,1.23671E3,1.16549E3,1.19617E3,1.2033799E3,1.22873E3,1.17495E3,2.0910646E-1,1.241165E3,1.45559E3,1.17327E3,1.0283936E-1,5.1480103E-2,7.946778E-3,1.216985E3,-7.62085E-2,1.616333E-1,3.3337403E-2,-7.141114E-4,1.24573E3,1.21977E3,-7.293701E-2,1.21378E3,1.20878E3,1.203865E3,1.463725E3,1.201705E3,1.67144E3,5.0056335E-3,-3.9124064E-2,1.3891603E-2,-2.2617187E-2,-2.6210177E-1,-5.5371094E-2,1.5332031E-2,-7.69043E-3,-2.2692872E-2,1.2840088E-1,1.9880023E-3,-5.588379E-2,-5.1879887E-3,8.1616215E-2,-6.2904574E-2,-1.7950928E-1,-3.8886372E-2,1.966324E-1,-1.3810147E-1,4.129279E-3],"split_indices":[0,14,11,15,2,0,59,50,25,34,15,46,13,47,0,0,2,2,3,17,0,46,0,8,36,14,0,0,0,16,0,0,0,0,6,0,0,6,33,18,11,44,13,0,0,0,0,0,0,0,0,0,0,0,0,0,0,0,0,0,0,0,0],"split_type":[0,0,0,0,0,0,0,0,0,0,0,0,0,0,0,0,0,0,0,0,0,0,0,0,0,0,0,0,0,0,0,0,0,0,0,0,0,0,0,0,0,0,0,0,0,0,0,0,0,0,0,0,0,0,0,0,0,0,0,0,0,0,0],"sum_hessian":[6.58E2,2.72E2,3.86E2,2.45E2,2.7E1,2E0,3.84E2,2.37E2,8E0,1.3E1,1.4E1,1.9E1,3.65E2,2.35E2,2E0,4E0,4E0,9E0,4E0,9E0,5E0,1.6E1,3E0,1.4E1,3.51E2,2.31E2,4E0,3E0,1E0,6E0,3E0,2E0,2E0,1E0,8E0,3E0,2E0,6E0,1E1,4E0,1E1,1.3E1,3.38E2,1.86E2,4.5E1,2E0,4E0,7E0,1E0,2E0,1E0,2E0,4E0,6E0,4E0,2E0,2E0,6E0,4E0,6E0,7E0,1E1,3.28E2],"tree_param":{"num_deleted":"0","num_feature":"60","num_nodes":"63","size_leaf_vector":"0"}},{"base_weights":[1.3827844E-4,-7.6597795E-2,5.8870097E-3,-8.775984E-3,-6.3098145E-1,3.536682E-1,3.6005748E-3,4.395718E-2,-2.787214E-1,-8.222656E-1,6.707764E-2,-5.306295E-2,1.7413627E-2,1.0374069E-2,2.5009766E-1,-5.53304E-1,-5.822754E-2,-3.670316E-2,-9.9993896E-1,3.9082336E-1,4.851847E-3,9.246108E-2,-7.749176E-2,1.1022949E-1,-1.2789917E-1,9.381038E-3,-1.9407824E-1,-6.994629E-2,6.066229E-1,-1.4515305E-1,1.5603651E-2,2.6437612E-2,2.4562988E-1,-1.4805909E-1,3.4388952E-2,-1.776123E-2,-1.586914E-1,-4.2077105E-2,1.5103027E-1,-6.371663E-1,-6.4414285E-2,2.0141602E-1,-1.6450195E-1,8.74939E-2,7.903595E-1,1.1474609E-2,-3.7495306E-1,5.8955383E-1,5.108879E-3],"categories":[],"categories_nodes":[],"categories_segments":[],"categories_sizes":[],"default_left":[1,1,1,1,1,0,1,1,1,0,0,1,1,1,0,0,1,1,0,1,1,1,1,0,1,1,1,1,1,1,1,0,0,0,0,0,0,0,0,0,0,0,0,0,0,0,0,0,0],"id":90,"left_children":[1,3,5,7,9,-1,11,13,15,-1,-1,17,19,21,-1,-1,23,25,-1,27,29,31,33,-1,35,37,39,41,43,45,47,-1,-1,-1,-1,-1,-1,-1,-1,-1,-1,-1,-1,-1,-1,-1,-1,-1,-1],"loss_changes":[2.9115894E-1,1.7240305E0,4.869666E-1,6.10125E-1,7.2279394E-1,0E0,4.7915143E-1,2.4662769E-1,3.9158893E-1,0E0,0E0,1.822182E0,2.305924E0,2.3796956E-1,0E0,0E0,7.278164E-2,8.648685E-1,0E0,1.633373E0,7.715816E-1,1.6542263E-1,1.3141355E-1,0E0,1.0747023E-2,6.8423253E-1,1.5101763E0,1.8708639E-1,9.8006105E-1,1.1560795E0,2.6834586E0,0E0,0E0,0E0,0E0,0E0,0E0,0E0,0E0,0E0,0E0,0E0,0E0,0E0,0E0,0E0,0E0,0E0,0E0],"parents":[2147483647,0,0,1,1,2,2,3,3,4,4,6,6,7,7,8,8,11,11,12,12,13,13,16,16,17,17,19,19,20,20,21,21,22,22,24,24,25,25,26,26,27,27,28,28,29,29,30,30],"right_children":[2,4,6,8,10,-1,12,14,16,-1,-1,18,20,22,-1,-1,24,26,-1,28,30,32,34,-1,36,38,40,42,44,46,48,-1,-1,-1,-1,-1,-1,-1,-1,-1,-1,-1,-1,-1,-1,-1,-1,-1,-1],"split_conditions":[1.07877E3,1.1495449E3,1.0798201E3,1.183825E3,1.111145E3,1.0610047E-1,1.110565E3,1.141035E3,1.091085E3,-2.466797E-1,2.0123292E-2,1.11046E3,1.10449E3,1.098905E3,7.50293E-2,-1.6599122E-1,1.054345E3,1.092895E3,-2.999817E-1,1.077625E3,1.182425E3,1.093385E3,1.10806E3,3.306885E-2,1.080315E3,1.149285E3,1.09502E3,1.08189E3,1.040395E3,1.146095E3,1.184825E3,7.931284E-3,7.368897E-2,-4.4417728E-2,1.0316686E-2,-5.3283693E-3,-4.7607426E-2,-1.2623132E-2,4.530908E-2,-1.911499E-1,-1.9324286E-2,6.042481E-2,-4.9350586E-2,2.624817E-2,2.3710786E-1,3.442383E-3,-1.1248592E-1,1.7686616E-1,1.5326637E-3],"split_indices":[6,37,6,58,0,0,49,33,21,0,0,49,26,48,0,0,3,50,0,11,26,50,40,0,0,14,50,6,26,25,25,0,0,0,0,0,0,0,0,0,0,0,0,0,0,0,0,0,0],"split_type":[0,0,0,0,0,0,0,0,0,0,0,0,0,0,0,0,0,0,0,0,0,0,0,0,0,0,0,0,0,0,0,0,0,0,0,0,0,0,0,0,0,0,0,0,0,0,0,0,0],"sum_hessian":[6.58E2,4.5E1,6.13E2,4.1E1,4E0,3E0,6.1E2,3.5E1,6E0,3E0,1E0,1.19E2,4.91E2,3.1E1,4E0,2E0,4E0,1.18E2,1E0,1.5E1,4.76E2,1.6E1,1.5E1,1E0,3E0,9.2E1,2.6E1,5E0,1E1,3.1E1,4.45E2,1.2E1,4E0,9E0,6E0,1E0,2E0,6.8E1,2.4E1,5E0,2.1E1,1E0,4E0,3E0,7E0,1.9E1,1.2E1,7E0,4.38E2],"tree_param":{"num_deleted":"0","num_feature":"60","num_nodes":"49","size_leaf_vector":"0"}},{"base_weights":[-4.2604207E-4,1.1162818E-2,-3.3563625E-2,4.800844E-3,5.2250165E-1,-4.2708915E-1,-1.6665187E-2,-3.9595916E-4,2.7912056E-1,-9.643555E-2,6.6557616E-1,-6.5096027E-1,-2.0734863E-1,1.6242133E-1,-3.833338E-2,6.5730372E-3,-2.1501465E-1,4.7416177E-1,-8.3221436E-2,1.807251E-1,7.4160767E-1,8.143616E-2,5.4020184E-1,-3.31604E-1,-2.576025E-2,-7.2536957E-3,1.9259644E-1,-4.5889717E-1,-1.437717E-3,5.194092E-1,1.239624E-1,7.714844E-2,-1.6239421E-1,1.7509766E-1,-6.399972E-2,-4.7763062E-1,-2.6367188E-2,-1.4465821E-1,-5.652163E-4,-1.1412422E-3,-3.30307E-1,5.0416565E-1,8.519043E-2,-9.1674805E-2,-5.048218E-1,-7.2387695E-2,6.97998E-2,6.1950684E-3,2.4659947E-1,-1.3022462E-1,6.7708336E-2,-3.3203125E-2,-6.3476562E-3,-7.72799E-3,-2.7046087E-1,5.2783203E-1,-9.516312E-3],"categories":[],"categories_nodes":[],"categories_segments":[],"categories_sizes":[],"default_left":[1,1,1,1,1,1,1,1,1,0,1,0,0,1,1,1,1,1,1,0,0,1,0,1,1,1,1,1,1,0,0,0,0,1,1,0,1,1,1,0,0,0,0,0,0,0,0,0,0,0,0,0,0,0,0,0,0],"id":91,"left_children":[1,3,5,7,9,11,13,15,17,-1,19,-1,-1,21,23,25,27,29,31,-1,-1,33,-1,35,37,39,41,43,45,-1,-1,-1,-1,47,49,-1,51,53,55,-1,-1,-1,-1,-1,-1,-1,-1,-1,-1,-1,-1,-1,-1,-1,-1,-1,-1],"loss_changes":[2.5344834E-1,1.5882694E0,1.1300268E0,6.900939E-1,5.9551E-1,2.093792E-1,6.4650553E-1,7.133555E-1,6.755051E-1,0E0,5.029273E-2,0E0,0E0,5.067111E-1,5.3718245E-1,1.1897053E0,7.8065544E-1,3.0686498E-2,6.331617E-2,0E0,0E0,2.2915408E-1,0E0,2.5484246E-1,4.2829448E-1,8.5069644E-1,1.0279107E0,7.177234E-2,5.0541352E-2,0E0,0E0,0E0,0E0,1.192407E-1,6.987375E-2,0E0,1.9979477E-4,4.285645E-1,5.678614E-1,0E0,0E0,0E0,0E0,0E0,0E0,0E0,0E0,0E0,0E0,0E0,0E0,0E0,0E0,0E0,0E0,0E0,0E0],"parents":[2147483647,0,0,1,1,2,2,3,3,4,4,5,5,6,6,7,7,8,8,10,10,13,13,14,14,15,15,16,16,17,17,18,18,21,21,23,23,24,24,25,25,26,26,27,27,28,28,33,33,34,34,36,36,37,37,38,38],"right_children":[2,4,6,8,10,12,14,16,18,-1,20,-1,-1,22,24,26,28,30,32,-1,-1,34,-1,36,38,40,42,44,46,-1,-1,-1,-1,48,50,-1,52,54,56,-1,-1,-1,-1,-1,-1,-1,-1,-1,-1,-1,-1,-1,-1,-1,-1,-1,-1],"split_conditions":[1.811315E3,1.809975E3,1.81325E3,1.81391E3,1.791155E3,1.7823E3,1.80286E3,1.87679E3,1.818395E3,-2.8930666E-2,1.8139099E3,-1.9528809E-1,-6.2204592E-2,1.7971299E3,1.753825E3,1.79696E3,1.907245E3,1.8336951E3,1.7707849E3,5.4217532E-2,2.2248231E-1,1.86201E3,1.6206056E-1,1.86201E3,1.8288601E3,1.8097749E3,1.78747E3,1.7599199E3,1.784395E3,1.5582275E-1,3.7188724E-2,2.3144532E-2,-4.8718266E-2,1.8074199E3,1.92577E3,-1.432892E-1,1.881925E3,1.93034E3,1.742835E3,-3.423727E-4,-9.90921E-2,1.512497E-1,2.555713E-2,-2.7502442E-2,-1.5144654E-1,-2.171631E-2,2.0939942E-2,1.8585206E-3,7.397984E-2,-3.9067388E-2,2.0312501E-2,-9.960938E-3,-1.9042969E-3,-2.3183972E-3,-8.113827E-2,1.5834962E-1,-2.8548937E-3],"split_indices":[22,22,22,26,0,10,28,44,25,0,1,0,0,28,37,35,53,8,0,0,0,19,0,26,25,20,45,1,1,0,0,0,0,1,9,0,0,0,42,0,0,0,0,0,0,0,0,0,0,0,0,0,0,0,0,0,0],"split_type":[0,0,0,0,0,0,0,0,0,0,0,0,0,0,0,0,0,0,0,0,0,0,0,0,0,0,0,0,0,0,0,0,0,0,0,0,0,0,0,0,0,0,0,0,0,0,0,0,0,0,0,0,0,0,0,0,0],"sum_hessian":[6.58E2,4.88E2,1.7E2,4.83E2,5E0,6E0,1.64E2,4.75E2,8E0,1E0,4E0,2E0,4E0,1.7E1,1.47E2,4.61E2,1.4E1,5E0,3E0,1E0,3E0,1.5E1,2E0,5E0,1.42E2,4.3E2,3.1E1,6E0,8E0,4E0,1E0,1E0,2E0,9E0,6E0,3E0,2E0,2.4E1,1.18E2,4.23E2,7E0,7E0,2.4E1,1E0,5E0,4E0,4E0,3E0,6E0,4E0,2E0,1E0,1E0,1.2E1,1.2E1,1E0,1.17E2],"tree_param":{"num_deleted":"0","num_feature":"60","num_nodes":"57","size_leaf_vector":"0"}},{"base_weights":[2.408064E-6,4.2501073E-3,-8.3358765E-2,8.108535E-4,2.7069092E-1,-7.265625E-1,-3.9172757E-2,4.571323E-3,-1.7541504E-1,-9.967041E-2,3.3783832E-1,-1.8943278E-1,-2.9907227E-3,2.754438E-3,2.7868652E-1,-3.7862143E-1,-1.083374E-3,4.7001138E-1,1.909668E-1,-2.178711E-1,-2.3620605E-2,1.887207E-1,-3.620181E-2,6.298787E-3,-1.3731283E-1,3.5847983E-1,1.965332E-2,-1.2817383E-1,-4.7180176E-1,-5.847168E-2,7.092285E-2,4.9926758E-2,-1.0629507E-1,-7.839994E-3,4.838818E-2,-1.9059245E-1,5.6854248E-2,-8.3740234E-2,2.130127E-2,-2.2867838E-2,1.1440023E-1,-1.7971802E-1,9.318034E-3],"categories":[],"categories_nodes":[],"categories_segments":[],"categories_sizes":[],"default_left":[1,1,1,1,1,0,1,1,1,0,1,1,1,1,1,1,1,0,0,0,0,0,1,1,1,0,0,0,0,1,0,1,1,0,0,0,0,0,0,0,0,0,0],"id":92,"left_children":[1,3,5,7,9,-1,11,13,15,-1,17,19,21,23,25,27,29,-1,-1,-1,-1,-1,31,33,35,-1,-1,-1,-1,37,-1,39,41,-1,-1,-1,-1,-1,-1,-1,-1,-1,-1],"loss_changes":[2.3370169E-1,5.75253E-1,8.809979E-1,4.1233364E-1,2.3262286E-1,0E0,1.6797157E-1,3.025361E-1,4.6011883E-1,0E0,4.6130657E-2,2.3146272E-2,1.7237258E-1,3.0171192E-1,7.563114E-2,7.954812E-2,3.7205502E-2,0E0,0E0,0E0,0E0,0E0,1.4415872E-1,3.5267425E-1,1.6601321E-1,0E0,0E0,0E0,0E0,1.1862509E-2,0E0,5.4242603E-2,1.1202711E-1,0E0,0E0,0E0,0E0,0E0,0E0,0E0,0E0,0E0,0E0],"parents":[2147483647,0,0,1,1,2,2,3,3,4,4,6,6,7,7,8,8,10,10,11,11,12,12,13,13,14,14,15,15,16,16,22,22,23,23,24,24,29,29,31,31,32,32],"right_children":[2,4,6,8,10,-1,12,14,16,-1,18,20,22,24,26,28,30,-1,-1,-1,-1,-1,32,34,36,-1,-1,-1,-1,38,-1,40,42,-1,-1,-1,-1,-1,-1,-1,-1,-1,-1],"split_conditions":[1.977625E3,1.973025E3,1.9538301E3,1.993685E3,1.9495049E3,-2.1796876E-1,1.942265E3,1.9991001E3,2.02952E3,-2.9901125E-2,1.9755E3,1.967135E3,1.942265E3,1.9754551E3,1.95744E3,1.991035E3,1.96172E3,1.4100341E-1,5.7290044E-2,-6.5361336E-2,-7.086182E-3,5.6616213E-2,1.987245E3,1.7873401E3,1.98646E3,1.0754395E-1,5.8959965E-3,-3.845215E-2,-1.4154053E-1,2.07145E3,2.1276856E-2,1.963985E3,1.9858049E3,-2.3519981E-3,1.4516454E-2,-5.7177737E-2,1.7056275E-2,-2.512207E-2,6.390381E-3,-6.8603517E-3,3.432007E-2,-5.3915408E-2,2.7954103E-3],"split_indices":[33,33,35,1,19,0,52,8,3,0,0,0,53,9,0,2,57,0,0,0,0,0,33,46,13,0,0,0,0,0,0,42,37,0,0,0,0,0,0,0,0,0,0],"split_type":[0,0,0,0,0,0,0,0,0,0,0,0,0,0,0,0,0,0,0,0,0,0,0,0,0,0,0,0,0,0,0,0,0,0,0,0,0,0,0,0,0,0,0],"sum_hessian":[6.58E2,6.27E2,3.1E1,6.2E2,7E0,1E0,3E1,6.08E2,1.2E1,1E0,6E0,5E0,2.5E1,6.05E2,3E0,5E0,7E0,2E0,4E0,4E0,1E0,3E0,2.2E1,5.91E2,1.4E1,2E0,1E0,2E0,3E0,4E0,3E0,1E1,1.2E1,4.43E2,1.48E2,1.1E1,3E0,3E0,1E0,5E0,5E0,7E0,5E0],"tree_param":{"num_deleted":"0","num_feature":"60","num_nodes":"43","size_leaf_vector":"0"}},{"base_weights":[-2.954509E-4,1.3313925E-2,-2.1099456E-2,-6.7946645E-3,1.506587E-1,5.175537E-1,-3.149699E-2,6.400699E-3,-3.2299805E-1,1.449585E0,9.568848E-2,1.4119466E-2,8.4847003E-1,-1.838884E-1,-1.2060973E-2,-7.158142E-3,2.4633789E-1,-6.93185E-1,4.1290283E-2,3.7932128E-1,2.4175877E-2,-5.7250977E-2,7.8430176E-2,-5.9399414E-1,-7.369995E-2,3.9005533E-1,-2.2778103E-2,9.866864E-3,-1.9164588E-1,5.820661E-1,2.9968262E-2,-7.6694745E-1,-1.2530518E-1,2.020752E-1,-1.7001343E-1,5.053536E-1,6.3934326E-2,-4.8490396E-1,1.0835096E-1,-1.2223307E-1,-7.993164E-1,-1.4085083E-1,2.0964356E-1,6.770833E-1,7.727051E-2,-2.0869778E-1,-1.4962677E-3,6.209849E-4,3.8753837E-1,-4.0486652E-2,-4.4456786E-1,6.515503E-1,8.258057E-2,-1.1959839E-1,2.6328126E-1,-2.2351074E-1,-8.309326E-1,-5.529785E-2,2.8024292E-1,-1.8147787E-2,1.5509033E-1,1.2512207E-1,-6.3193357E-1,2.2872648E-1,-7.542317E-2,-2.9693604E-2,-2.7341038E-1,2.4295044E-1,3.8208008E-2,1.6308594E-1,-9.008789E-2,1.7712402E-1,-3.257107E-1,2.9350397E-1,-2.167262E-2],"categories":[],"categories_nodes":[],"categories_segments":[],"categories_sizes":[],"default_left":[1,1,1,1,1,1,1,1,1,0,1,1,0,1,1,1,1,1,1,1,1,0,0,1,1,1,1,1,1,1,1,1,0,1,0,0,1,1,1,0,0,1,1,0,1,1,1,0,0,0,0,0,0,0,0,0,0,0,0,0,0,0,0,0,0,0,0,0,0,0,0,0,0,0,0],"id":93,"left_children":[1,3,5,7,9,11,13,15,17,-1,19,21,-1,23,25,27,29,31,33,35,37,-1,-1,39,41,43,45,47,49,51,53,55,-1,57,-1,-1,59,61,63,-1,-1,65,67,-1,69,71,73,-1,-1,-1,-1,-1,-1,-1,-1,-1,-1,-1,-1,-1,-1,-1,-1,-1,-1,-1,-1,-1,-1,-1,-1,-1,-1,-1,-1],"loss_changes":[1.8686327E-1,1.1029857E0,1.478075E0,1.4582415E0,3.5028071E0,8.209932E-1,7.589858E-1,1.0948621E0,1.9165889E0,0E0,1.0049956E0,1.8259855E-2,0E0,1.2667013E0,9.957677E-1,1.0038395E0,1.2901016E0,1.9711494E-1,3.061511E-1,3.6518025E-1,1.8094653E0,0E0,0E0,4.834752E-1,4.8617086E-1,4.8634952E-1,8.859912E-1,1.0228875E0,1.0142514E0,1.8913913E-1,4.502381E-1,2.2908926E-2,0E0,1.1608815E-1,0E0,0E0,3.2743655E-2,6.1722016E-1,8.136399E-1,0E0,0E0,2.865805E-1,1.9267261E-2,0E0,7.21398E-2,1.0960524E0,1.2086709E0,0E0,0E0,0E0,0E0,0E0,0E0,0E0,0E0,0E0,0E0,0E0,0E0,0E0,0E0,0E0,0E0,0E0,0E0,0E0,0E0,0E0,0E0,0E0,0E0,0E0,0E0,0E0,0E0],"parents":[2147483647,0,0,1,1,2,2,3,3,4,4,5,5,6,6,7,7,8,8,10,10,11,11,13,13,14,14,15,15,16,16,17,17,18,18,19,19,20,20,23,23,24,24,25,25,26,26,27,27,28,28,29,29,30,30,31,31,33,33,36,36,37,37,38,38,41,41,42,42,44,44,45,45,46,46],"right_children":[2,4,6,8,10,12,14,16,18,-1,20,22,-1,24,26,28,30,32,34,36,38,-1,-1,40,42,44,46,48,50,52,54,56,-1,58,-1,-1,60,62,64,-1,-1,66,68,-1,70,72,74,-1,-1,-1,-1,-1,-1,-1,-1,-1,-1,-1,-1,-1,-1,-1,-1,-1,-1,-1,-1,-1,-1,-1,-1,-1,-1,-1,-1],"split_conditions":[1.7622151E3,1.79126E3,1.73759E3,1.51955E3,1.77E3,1.75135E3,1.7755801E3,1.5133201E3,1.7856951E3,4.3487552E-1,1.79106E3,1.7553049E3,2.54541E-1,1.7953201E3,1.77326E3,1.2338401E3,1.5366951E3,1.793635E3,1.78384E3,1.79461E3,1.791255E3,-1.7175294E-2,2.3529055E-2,1.79186E3,1.83651E3,1.76414E3,1.776755E3,1.2405549E3,1.22604E3,1.6773049E3,1.53485E3,1.6773049E3,-3.7591554E-2,1.773755E3,-5.100403E-2,1.516061E-1,1.806825E3,1.790215E3,1.83651E3,-3.666992E-2,-2.3979492E-1,1.7723201E3,1.97926E3,2.03125E-1,1.9563701E3,1.7454199E3,1.782485E3,1.8629547E-4,1.1626152E-1,-1.2145996E-2,-1.3337037E-1,1.954651E-1,2.4774171E-2,-3.587952E-2,7.898438E-2,-6.705323E-2,-2.492798E-1,-1.6589357E-2,8.407288E-2,-5.444336E-3,4.6527103E-2,3.753662E-2,-1.8958008E-1,6.861795E-2,-2.2626953E-2,-8.908082E-3,-8.2023114E-2,7.288513E-2,1.14624025E-2,4.8925783E-2,-2.7026368E-2,5.313721E-2,-9.771322E-2,8.805119E-2,-6.501786E-3],"split_indices":[57,1,4,42,7,2,55,24,6,0,10,0,0,7,54,36,24,11,0,8,18,0,0,42,33,50,45,52,51,7,31,1,0,0,0,0,0,0,17,0,0,45,0,0,0,38,44,0,0,0,0,0,0,0,0,0,0,0,0,0,0,0,0,0,0,0,0,0,0,0,0,0,0,0,0],"split_type":[0,0,0,0,0,0,0,0,0,0,0,0,0,0,0,0,0,0,0,0,0,0,0,0,0,0,0,0,0,0,0,0,0,0,0,0,0,0,0,0,0,0,0,0,0,0,0,0,0,0,0,0,0,0,0,0,0,0,0,0,0,0,0,0,0,0,0,0,0,0,0,0,0,0,0],"sum_hessian":[6.58E2,3.98E2,2.6E2,3.48E2,5E1,4E0,2.56E2,3.35E2,1.3E1,1E0,4.9E1,2E0,2E0,2.8E1,2.28E2,3.18E2,1.7E1,6E0,7E0,9E0,4E1,1E0,1E0,5E0,2.3E1,5E0,2.23E2,2.92E2,2.6E1,6E0,1.1E1,5E0,1E0,4E0,3E0,6E0,3E0,5E0,3.5E1,2E0,3E0,1.9E1,4E0,2E0,3E0,2.2E1,2.01E2,2.86E2,6E0,1.7E1,9E0,5E0,1E0,7E0,4E0,1E0,4E0,1E0,3E0,2E0,1E0,1E0,4E0,2.1E1,1.4E1,1.1E1,8E0,3E0,1E0,2E0,1E0,5E0,1.7E1,1.2E1,1.89E2],"tree_param":{"num_deleted":"0","num_feature":"60","num_nodes":"75","size_leaf_vector":"0"}},{"base_weights":[7.5983675E-4,-5.7533596E-2,5.1258598E-3,-5.2708215E-3,-4.8503417E-1,2.5305176E-1,2.6748232E-3,3.654141E-2,-2.1955217E-1,-6.354065E-1,5.822754E-2,-2.130127E-1,5.3933716E-1,2.7593994E-1,8.6667907E-4,1.1110306E-2,1.919922E-1,-3.8519287E-1,9.765625E-4,-3.5968018E-1,4.0161133E-2,7.5665283E-1,2.1468098E-1,3.1722006E-1,7.6049805E-2,-5.404872E-2,8.372217E-3,-7.045201E-2,7.06241E-2,-4.4099936E-1,-1.0888672E-1,-6.1971027E-2,9.490967E-2,4.473518E-3,-1.8146548E-1,1.6682303E-1,-2.736084E-3,2.7791342E-2,-1.2811957E-1,1.6511674E-1,-5.271403E-2,-1.38549805E-2,-7.910156E-2,-4.311218E-2,1.6271973E-1,-2.5979275E-1,8.376058E-2,2.0887248E-1,-7.122803E-2,-3.6242676E-1,3.8491846E-3],"categories":[],"categories_nodes":[],"categories_segments":[],"categories_sizes":[],"default_left":[1,1,1,1,1,1,1,1,1,0,0,1,1,1,1,1,0,1,1,0,0,0,0,0,0,1,1,1,1,0,0,1,0,1,1,1,1,0,0,0,0,0,0,0,0,0,0,0,0,0,0],"id":94,"left_children":[1,3,5,7,9,11,13,15,17,-1,-1,19,21,23,25,27,-1,29,31,-1,-1,-1,-1,-1,-1,33,35,37,39,-1,-1,41,-1,43,45,47,49,-1,-1,-1,-1,-1,-1,-1,-1,-1,-1,-1,-1,-1,-1],"loss_changes":[1.6801731E-1,1.0251923E0,3.7243584E-1,3.8432518E-1,4.454558E-1,9.1545033E-1,3.006694E-1,1.4018516E-1,2.560759E-1,0E0,0E0,1.2584226E-1,1.1977255E-1,8.88145E-3,2.502273E-1,1.6030626E-1,0E0,1.3659716E-2,2.95331E-2,0E0,0E0,0E0,0E0,0E0,0E0,5.451519E-1,9.403602E-1,8.287699E-2,2.3014033E-1,0E0,0E0,1.3768105E-3,0E0,3.910583E-1,4.995724E-1,3.6522454E-1,1.1857249E0,0E0,0E0,0E0,0E0,0E0,0E0,0E0,0E0,0E0,0E0,0E0,0E0,0E0,0E0],"parents":[2147483647,0,0,1,1,2,2,3,3,4,4,5,5,6,6,7,7,8,8,11,11,12,12,13,13,14,14,15,15,17,17,18,18,25,25,26,26,27,27,28,28,31,31,33,33,34,34,35,35,36,36],"right_children":[2,4,6,8,10,12,14,16,18,-1,-1,20,22,24,26,28,-1,30,32,-1,-1,-1,-1,-1,-1,34,36,38,40,-1,-1,42,-1,44,46,48,50,-1,-1,-1,-1,-1,-1,-1,-1,-1,-1,-1,-1,-1,-1],"split_conditions":[1.07877E3,1.1495449E3,1.051635E3,1.183825E3,1.111145E3,1.0425901E3,1.0798201E3,1.141035E3,1.08336E3,-1.9062196E-1,1.7468262E-2,1.057875E3,1.0575E3,1.1006101E3,1.081895E3,1.021625E3,5.759766E-2,1.093315E3,1.081895E3,-1.07904054E-1,1.204834E-2,2.2699586E-1,6.44043E-2,9.516602E-2,2.2814943E-2,1.076395E3,1.10123E3,9.61725E2,1.09409E3,-1.3229981E-1,-3.2666016E-2,1.080315E3,2.8472902E-2,1.11707E3,1.08361E3,1.111145E3,1.102105E3,8.337403E-3,-3.8435873E-2,4.9535025E-2,-1.581421E-2,-4.1564945E-3,-2.373047E-2,-1.2933655E-2,4.881592E-2,-7.793783E-2,2.5128176E-2,6.2661745E-2,-2.1368409E-2,-1.0872803E-1,1.1547555E-3],"split_indices":[6,37,1,58,0,1,6,33,14,0,0,0,0,3,47,18,0,2,0,0,0,0,0,0,0,56,45,23,13,0,0,0,0,15,48,50,46,0,0,0,0,0,0,0,0,0,0,0,0,0,0],"split_type":[0,0,0,0,0,0,0,0,0,0,0,0,0,0,0,0,0,0,0,0,0,0,0,0,0,0,0,0,0,0,0,0,0,0,0,0,0,0,0,0,0,0,0,0,0,0,0,0,0,0,0],"sum_hessian":[6.58E2,4.5E1,6.13E2,4.1E1,4E0,5E0,6.08E2,3.5E1,6E0,3E0,1E0,2E0,3E0,3E0,6.05E2,3.1E1,4E0,3E0,3E0,1E0,1E0,1E0,2E0,2E0,1E0,7.2E1,5.33E2,1.3E1,1.8E1,2E0,1E0,2E0,1E0,5E1,2.2E1,3.4E1,4.99E2,5E0,8E0,1E1,8E0,1E0,1E0,3.9E1,1.1E1,1.7E1,5E0,2.9E1,5E0,8E0,4.91E2],"tree_param":{"num_deleted":"0","num_feature":"60","num_nodes":"51","size_leaf_vector":"0"}},{"base_weights":[5.0448935E-4,2.4910795E-3,-1.2867431E-1,1.2091177E-3,2.7856445E-1,-2.446045E-1,-1.0620117E-2,4.400498E-3,-7.849609E-2,-2.708435E-1,-6.982422E-2,3.597005E-2,-4.2907715E-2,1.9765317E-3,2.1777344E-1,-6.1486816E-1,-3.052775E-2,7.6904297E-3,4.626465E-2,4.286124E-3,-2.002302E-1,3.499756E-1,9.4897464E-2,-1.22333236E-1,7.147217E-2,-6.3921264E-3,4.24249E-2,-3.9846802E-1,4.8065186E-2,1.22151695E-1,3.6010742E-2,-2.0547922E-1,-2.1711078E-2,1.4106096E-1,-2.1626791E-2],"categories":[],"categories_nodes":[],"categories_segments":[],"categories_sizes":[],"default_left":[1,1,1,1,0,1,1,1,1,0,0,1,0,1,1,0,1,0,0,1,1,0,1,1,1,0,0,0,0,0,0,0,0,0,0],"id":95,"left_children":[1,3,5,7,-1,9,11,13,15,-1,-1,17,-1,19,21,-1,23,-1,-1,25,27,-1,29,31,33,-1,-1,-1,-1,-1,-1,-1,-1,-1,-1],"loss_changes":[1.6943663E-1,2.2970825E-1,1.3426271E-1,1.6517693E-1,0E0,4.018873E-3,1.05691E-2,3.2230783E-1,6.244514E-1,0E0,0E0,5.1758694E-4,1.4901161E-8,2.8947353E-1,8.04995E-2,0E0,2.3348308E-1,0E0,0E0,2.495115E-1,3.637032E-1,0E0,3.6257878E-3,1.04301095E-1,8.0794424E-2,0E0,0E0,0E0,0E0,0E0,0E0,0E0,0E0,0E0,0E0],"parents":[2147483647,0,0,1,1,2,2,3,3,5,5,6,6,7,7,8,8,11,11,13,13,14,14,16,16,19,19,20,20,22,22,23,23,24,24],"right_children":[2,4,6,8,-1,10,12,14,16,-1,-1,18,-1,20,22,-1,24,-1,-1,26,28,-1,30,32,34,-1,-1,-1,-1,-1,-1,-1,-1,-1,-1],"split_conditions":[1.995385E3,1.9978401E3,1.971505E3,1.98171E3,8.356934E-2,2.0126499E3,1.974605E3,1.9912051E3,1.892415E3,-8.125305E-2,-2.0947266E-2,1.9733401E3,-1.2872315E-2,1.98826E3,1.9747251E3,-1.8446046E-1,1.9754551E3,2.307129E-3,1.3879395E-2,1.811315E3,1.98287E3,1.0499268E-1,2.03136E3,1.9618E3,2.038415E3,-1.917638E-3,1.272747E-2,-1.1954041E-1,1.4419557E-2,3.664551E-2,1.0803223E-2,-6.1643768E-2,-6.5133236E-3,4.2318292E-2,-6.4880378E-3],"split_indices":[35,36,50,22,0,0,0,17,10,0,0,0,0,14,0,0,34,0,0,10,11,0,1,41,13,0,0,0,0,0,0,0,0,0,0],"split_type":[0,0,0,0,0,0,0,0,0,0,0,0,0,0,0,0,0,0,0,0,0,0,0,0,0,0,0,0,0,0,0,0,0,0,0],"sum_hessian":[6.58E2,6.49E2,9E0,6.47E2,2E0,4E0,5E0,6.23E2,2.4E1,3E0,1E0,2E0,3E0,6.17E2,6E0,1E0,2.3E1,1E0,1E0,6.11E2,6E0,2E0,4E0,1.2E1,1.1E1,4.78E2,1.33E2,3E0,3E0,2E0,2E0,6E0,6E0,6E0,5E0],"tree_param":{"num_deleted":"0","num_feature":"60","num_nodes":"35","size_leaf_vector":"0"}},{"base_weights":[1.17717274E-4,1.3905422E-2,-1.9306267E-2,7.409604E-3,4.2407227E-1,2.612023E-1,-3.315094E-2,1.1922038E-2,-2.3538645E-1,6.612549E-1,-3.3528645E-2,-1.8173218E-2,5.9016925E-1,-3.296897E-1,-2.0075237E-2,-2.225203E-3,1.5860632E-1,-4.1630045E-1,-7.9760745E-2,6.1950684E-2,-1.1224365E-1,3.6706543E-1,-1.2564524E-1,7.9937744E-1,1.1450195E-1,1.3500976E-2,-5.277274E-1,-1.3464952E-1,2.1776883E-3,7.6335724E-3,-4.1601562E-1,1.232544E0,8.652878E-2,-6.3476562E-3,-2.135315E-1,-3.5888672E-2,1.05529785E-1,-5.8239746E-1,-9.9853516E-2,-3.4459227E-1,-6.4834595E-2,1.739143E-1,-1.2728944E-2,-1.7253734E-3,2.403001E-1,-5.888875E-1,6.840006E-2,-5.886078E-2,2.1827608E-1,1.9734701E-2,-4.2297363E-2,-3.112793E-3,-4.5776367E-2,-5.4052734E-1,-4.055176E-2,-9.5825195E-3,-2.607945E-1,3.3850098E-1,-9.996202E-3,3.550415E-1,-2.0285176E-2],"categories":[],"categories_nodes":[],"categories_segments":[],"categories_sizes":[],"default_left":[1,1,1,1,1,1,1,1,1,0,1,1,1,1,1,1,1,0,0,0,0,0,1,0,0,1,1,1,1,1,1,0,1,1,0,1,0,0,0,1,1,1,1,0,0,0,0,0,0,0,0,0,0,0,0,0,0,0,0,0,0],"id":96,"left_children":[1,3,5,7,9,11,13,15,17,-1,19,21,23,25,27,29,31,-1,-1,-1,-1,-1,33,-1,-1,35,37,39,41,43,45,-1,47,49,-1,51,-1,-1,-1,53,55,57,59,-1,-1,-1,-1,-1,-1,-1,-1,-1,-1,-1,-1,-1,-1,-1,-1,-1,-1],"loss_changes":[1.7675667E-1,1.0253042E0,1.0727519E0,4.202303E-1,6.7338085E-1,1.2054945E0,1.0092742E0,7.7854466E-1,1.6387963E-1,0E0,2.9500538E-2,3.77339E-1,5.055506E-1,7.547364E-1,6.427956E-1,1.4024328E0,2.4477735E0,0E0,0E0,0E0,0E0,0E0,7.20369E-2,0E0,0E0,2.6513677E-2,1.05588794E-1,5.786012E-1,5.4493684E-1,7.320592E-1,7.1021485E-1,0E0,6.257977E-1,4.5853383E-3,0E0,1.1538193E-3,0E0,0E0,0E0,5.738026E-1,3.4397107E-1,5.179604E-1,5.51878E-1,0E0,0E0,0E0,0E0,0E0,0E0,0E0,0E0,0E0,0E0,0E0,0E0,0E0,0E0,0E0,0E0,0E0,0E0],"parents":[2147483647,0,0,1,1,2,2,3,3,4,4,5,5,6,6,7,7,8,8,10,10,11,11,12,12,13,13,14,14,15,15,16,16,22,22,25,25,26,26,27,27,28,28,29,29,30,30,32,32,33,33,35,35,39,39,40,40,41,41,42,42],"right_children":[2,4,6,8,10,12,14,16,18,-1,20,22,24,26,28,30,32,-1,-1,-1,-1,-1,34,-1,-1,36,38,40,42,44,46,-1,48,50,-1,52,-1,-1,-1,54,56,58,60,-1,-1,-1,-1,-1,-1,-1,-1,-1,-1,-1,-1,-1,-1,-1,-1,-1,-1],"split_conditions":[1.76097E3,1.7648501E3,1.750575E3,1.7948999E3,1.89148E3,1.76527E3,1.75114E3,1.79128E3,1.805785E3,1.9837648E-1,1.95294E3,1.730425E3,1.789405E3,1.776345E3,1.77754E3,1.51955E3,1.73394E3,-1.2489014E-1,-2.3928225E-2,1.8585205E-2,-3.3673096E-2,1.1011963E-1,1.763125E3,2.3981324E-1,3.435059E-2,1.8465901E3,1.8724199E3,1.79165E3,1.757295E3,1.45581E3,1.78676E3,3.697632E-1,1.7893049E3,1.791895E3,-6.405945E-2,1.75134E3,3.1658936E-2,-1.7471924E-1,-2.9956056E-2,1.786895E3,1.7739451E3,1.791135E3,1.75397E3,-5.1761203E-4,7.209004E-2,-1.7666626E-1,2.052002E-2,-1.7658234E-2,6.5482825E-2,5.9204106E-3,-1.268921E-2,-9.338379E-4,-1.3732911E-2,-1.621582E-1,-1.2165529E-2,-2.874756E-3,-7.823835E-2,1.01550296E-1,-2.9988608E-3,1.0651246E-1,-6.085553E-3],"split_indices":[34,35,5,59,0,16,20,1,1,0,0,1,1,47,40,42,10,0,0,0,0,0,14,0,0,0,0,18,58,42,6,0,14,2,0,3,0,0,0,48,56,49,20,0,0,0,0,0,0,0,0,0,0,0,0,0,0,0,0,0,0],"split_type":[0,0,0,0,0,0,0,0,0,0,0,0,0,0,0,0,0,0,0,0,0,0,0,0,0,0,0,0,0,0,0,0,0,0,0,0,0,0,0,0,0,0,0,0,0,0,0,0,0,0,0,0,0,0,0,0,0,0,0,0,0],"sum_hessian":[6.58E2,3.85E2,2.73E2,3.8E2,5E0,1.2E1,2.61E2,3.74E2,6E0,3E0,2E0,7E0,5E0,1E1,2.51E2,3.42E2,3.2E1,2E0,4E0,1E0,1E0,1E0,6E0,3E0,2E0,4E0,6E0,4E1,2.11E2,3.35E2,7E0,1E0,3.1E1,3E0,3E0,3E0,1E0,5E0,1E0,9E0,3.1E1,1.6E1,1.95E2,3.23E2,1.2E1,5E0,2E0,1.5E1,1.6E1,2E0,1E0,1E0,2E0,5E0,4E0,2.5E1,6E0,8E0,8E0,3E0,1.92E2],"tree_param":{"num_deleted":"0","num_feature":"60","num_nodes":"61","size_leaf_vector":"0"}},{"base_weights":[7.393682E-4,3.1164551E-2,-7.828381E-3,1.0428608E-2,3.84964E-1,-5.6863403E-1,-3.431797E-3,-3.9346606E-2,8.625932E-2,6.126709E-1,2.0694987E-1,2.1070014E-1,-7.2487723E-3,-2.406646E-2,-4.4388834E-1,1.6204669E-1,-6.586657E-2,3.057774E-1,-8.138021E-2,-1.8701172E-1,1.790784E-4,2.1984436E-2,-1.24098554E-1,1.9813406E-1,-3.1298828E-1,-2.8768486E-1,5.86407E-2,3.225708E-2,3.4598795E-1,-1.965332E-2,-1.0241699E-1,-2.6200867E-1,9.038086E-2,2.1562703E-1,-5.275678E-3,-1.3551258E-2,1.138916E-1,-2.51475E-1,-1.39241535E-2,1.9132487E-2,3.1655738E-1,-4.280599E-2,-3.770752E-1,1.5581055E-1,-1.8581814E-3,-1.19989015E-1,-4.2746407E-1,-3.112793E-2,1.2854004E-1,1.6601562E-2,3.1306458E-1,-1.7145865E-1,5.145796E-3],"categories":[],"categories_nodes":[],"categories_segments":[],"categories_sizes":[],"default_left":[1,1,1,1,1,0,1,1,1,0,0,1,1,1,0,1,1,1,1,1,1,1,1,1,0,1,1,0,0,0,0,1,1,1,1,0,0,0,0,0,0,0,0,0,0,0,0,0,0,0,0,0,0],"id":97,"left_children":[1,3,5,7,9,-1,11,13,15,-1,-1,17,19,21,-1,23,25,27,29,31,33,35,37,39,-1,41,43,-1,-1,-1,-1,45,47,49,51,-1,-1,-1,-1,-1,-1,-1,-1,-1,-1,-1,-1,-1,-1,-1,-1,-1,-1],"loss_changes":[1.7202902E-1,1.0597583E0,1.2678477E0,5.242736E-1,1.9748807E-1,0E0,4.2000353E-1,5.0855947E-1,6.447805E-1,0E0,0E0,2.7481607E-1,6.730007E-1,3.8046676E-1,0E0,6.96296E-1,5.4161185E-1,6.5828204E-2,1.882771E-3,4.3975246E-1,5.711174E-1,1.877045E-1,3.6137268E-1,7.3587215E-1,0E0,1.3708752E-1,7.67122E-2,0E0,0E0,0E0,0E0,3.2467568E-1,2.7184565E-2,2.2751325E-1,8.2178944E-1,0E0,0E0,0E0,0E0,0E0,0E0,0E0,0E0,0E0,0E0,0E0,0E0,0E0,0E0,0E0,0E0,0E0,0E0],"parents":[2147483647,0,0,1,1,2,2,3,3,4,4,6,6,7,7,8,8,11,11,12,12,13,13,15,15,16,16,17,17,18,18,19,19,20,20,21,21,22,22,23,23,25,25,26,26,31,31,32,32,33,33,34,34],"right_children":[2,4,6,8,10,-1,12,14,16,-1,-1,18,20,22,-1,24,26,28,30,32,34,36,38,40,-1,42,44,-1,-1,-1,-1,46,48,50,52,-1,-1,-1,-1,-1,-1,-1,-1,-1,-1,-1,-1,-1,-1,-1,-1,-1,-1],"split_conditions":[1.13876E3,1.136995E3,1.102395E3,1.10131E3,1.09788E3,-1.7059022E-1,1.0895901E3,1.14165E3,1.125385E3,1.8380128E-1,6.2084965E-2,1.11131E3,1.110125E3,1.14831E3,-1.331665E-1,1.2265549E3,1.12547E3,1.13813E3,1.199415E3,1.13354E3,1.0538049E3,1.079825E3,1.1073999E3,1.109845E3,-9.3896486E-2,1.0804451E3,1.08889E3,9.677124E-3,1.03796385E-1,-5.8959965E-3,-3.07251E-2,1.09352E3,1.16113E3,1.0295449E3,1.18473E3,-4.0653776E-3,3.4167483E-2,-7.544251E-2,-4.1772462E-3,5.7397466E-3,9.4967216E-2,-1.2841797E-2,-1.1312256E-1,4.6743166E-2,-5.574545E-4,-3.5996705E-2,-1.2823923E-1,-9.338379E-3,3.8562015E-2,4.980469E-3,9.3919374E-2,-5.1437598E-2,1.5437389E-3],"split_indices":[3,4,7,14,9,0,19,7,8,0,0,48,20,59,0,49,7,4,0,17,45,45,27,15,0,5,40,0,0,0,0,35,8,49,14,0,0,0,0,0,0,0,0,0,0,0,0,0,0,0,0,0,0],"split_type":[0,0,0,0,0,0,0,0,0,0,0,0,0,0,0,0,0,0,0,0,0,0,0,0,0,0,0,0,0,0,0,0,0,0,0,0,0,0,0,0,0,0,0,0,0,0,0,0,0,0,0,0,0],"sum_hessian":[6.58E2,1.44E2,5.14E2,1.37E2,7E0,3E0,5.11E2,8.3E1,5.4E1,2E0,5E0,8E0,5.03E2,8.1E1,2E0,3.6E1,1.8E1,6E0,2E0,1.9E1,4.84E2,5.6E1,2.5E1,3.4E1,2E0,6E0,1.2E1,1E0,5E0,1E0,1E0,1.5E1,4E0,1.1E1,4.73E2,4.1E1,1.5E1,1.1E1,1.4E1,1.4E1,2E1,2E0,4E0,4E0,8E0,9E0,6E0,1E0,3E0,4E0,7E0,2.7E1,4.46E2],"tree_param":{"num_deleted":"0","num_feature":"60","num_nodes":"53","size_leaf_vector":"0"}},{"base_weights":[1.9755385E-4,-1.0981669E-3,1.6989747E-1,1.184801E-2,-2.1193212E-2,3.505249E-1,3.7109375E-2,6.176479E-3,3.8230386E-1,-2.4175471E-1,-1.1284832E-2,5.965169E-2,-1.5258789E-2,1.0113212E-2,-3.0212402E-1,5.001221E-1,1.9836426E-1,3.8838703E-2,-4.8205566E-1,-9.8251715E-2,5.9950086E-3,-1.177082E-3,1.1786053E-1,1.3607788E-1,-1.03759766E-1,-5.333252E-1,-1.12854004E-1,-3.359893E-2,-3.2439506E-1,1.4742605E-1,-9.919682E-3,6.8605286E-3,-2.7835694E-1,1.046875E0,6.297472E-2,3.35083E-2,1.5909831E-1,-1.0561625E-1,1.4260253E-1,-1.4680989E-1,-5.096741E-1,3.19737E-2,3.3103943E-1,1.8144532E-1,-2.0614795E-2],"categories":[],"categories_nodes":[],"categories_segments":[],"categories_sizes":[],"default_left":[1,1,1,1,1,0,1,1,1,1,1,0,0,1,0,0,0,1,1,1,1,1,1,1,0,0,0,1,1,1,1,0,0,0,0,0,0,0,0,0,0,0,0,0,0],"id":98,"left_children":[1,3,5,7,9,-1,11,13,15,17,19,-1,-1,21,-1,-1,-1,23,25,27,29,31,33,35,-1,-1,-1,37,39,41,43,-1,-1,-1,-1,-1,-1,-1,-1,-1,-1,-1,-1,-1,-1],"loss_changes":[1.4508992E-1,1.7065197E-1,1.069181E-1,8.359584E-1,5.5892146E-1,0E0,5.6322115E-3,4.81252E-1,3.0822277E-2,7.60418E-1,3.717742E-1,0E0,0E0,4.7457334E-1,0E0,0E0,0E0,9.7316355E-2,5.33849E-2,5.885534E-1,4.6738452E-1,7.905734E-1,1.820693E0,4.113674E-3,0E0,0E0,0E0,4.3381655E-1,2.2129995E-1,4.3458596E-1,3.864678E-1,0E0,0E0,0E0,0E0,0E0,0E0,0E0,0E0,0E0,0E0,0E0,0E0,0E0,0E0],"parents":[2147483647,0,0,1,1,2,2,3,3,4,4,6,6,7,7,8,8,9,9,10,10,13,13,17,17,18,18,19,19,20,20,21,21,22,22,23,23,27,27,28,28,29,29,30,30],"right_children":[2,4,6,8,10,-1,12,14,16,18,20,-1,-1,22,-1,-1,-1,24,26,28,30,32,34,36,-1,-1,-1,38,40,42,44,-1,-1,-1,-1,-1,-1,-1,-1,-1,-1,-1,-1,-1,-1],"split_conditions":[1.99456E3,1.77121E3,1.776675E3,1.7690701E3,1.665185E3,1.0515747E-1,2.029335E3,1.788715E3,1.7790349E3,1.5473049E3,1.784245E3,1.7895509E-2,-4.5776367E-3,1.7715801E3,-9.063721E-2,1.5003663E-1,5.950928E-2,1.8023E3,1.811595E3,1.787925E3,1.79373E3,1.764465E3,1.673675E3,1.797885E3,-3.1127932E-2,-1.5999757E-1,-3.3856202E-2,1.775065E3,1.858305E3,1.81305E3,1.751525E3,2.0581586E-3,-8.350708E-2,3.140625E-1,1.8892417E-2,1.0052491E-2,4.7729496E-2,-3.1684875E-2,4.278076E-2,-4.4042967E-2,-1.5290223E-1,9.59211E-3,9.9311836E-2,5.4433595E-2,-6.1844387E-3],"split_indices":[48,18,3,18,51,0,0,23,10,53,10,0,0,4,0,0,0,6,2,12,11,3,17,1,0,0,0,11,43,26,33,0,0,0,0,0,0,0,0,0,0,0,0,0,0],"split_type":[0,0,0,0,0,0,0,0,0,0,0,0,0,0,0,0,0,0,0,0,0,0,0,0,0,0,0,0,0,0,0,0,0,0,0,0,0,0,0,0,0,0,0,0,0],"sum_hessian":[6.58E2,6.54E2,4E0,3.98E2,2.56E2,1E0,3E0,3.93E2,5E0,1E1,2.46E2,2E0,1E0,3.89E2,4E0,2E0,3E0,5E0,5E0,4E1,2.06E2,3.53E2,3.6E1,3E0,2E0,4E0,1E0,3.2E1,8E0,2E1,1.86E2,3.44E2,9E0,1E0,3.5E1,1E0,2E0,2.3E1,9E0,5E0,3E0,1.3E1,7E0,9E0,1.77E2],"tree_param":{"num_deleted":"0","num_feature":"60","num_nodes":"45","size_leaf_vector":"0"}},{"base_weights":[5.845112E-4,1.4892578E-1,-7.773116E-4,2.8727213E-2,2.0184326E-1,-5.6711372E-2,3.2519451E-3,-2.6970096E-2,-3.473816E-1,1.240921E-1,2.4577914E-6,-6.0644902E-2,9.9500865E-2,5.6152344E-3,-4.6691895E-1,2.182094E-1,-3.56486E-1,-1.0412919E-1,3.4254661E-3,3.1914204E-2,-1.4963666E-1,1.4922224E-1,-4.9682617E-2,9.3286134E-2,4.2441407E-1,2.7197266E-2,-1.4096273E-1,1.0285848E-1,-2.0142712E-3,2.3382568E-1,4.6806335E-3,-2.3687744E-1,-6.488037E-2,-9.521484E-3,-6.500244E-2,2.5820923E-1,-1.4282227E-2,1.3838704E-1,5.689697E-1,5.1330566E-2,-3.466797E-2,-6.3591E-2,-2.0071411E-1,9.280396E-3,2.6364967E-1,-2.9313964E-1,6.602996E-4],"categories":[],"categories_nodes":[],"categories_segments":[],"categories_sizes":[],"default_left":[1,1,1,0,0,1,1,1,1,1,1,1,1,0,0,1,0,1,1,1,1,0,1,1,1,1,1,1,1,0,0,0,0,0,0,0,0,0,0,0,0,0,0,0,0,0,0],"id":99,"left_children":[1,3,5,-1,-1,7,9,11,13,15,17,19,21,-1,-1,23,-1,25,27,29,31,-1,33,35,37,39,41,43,45,-1,-1,-1,-1,-1,-1,-1,-1,-1,-1,-1,-1,-1,-1,-1,-1,-1,-1],"loss_changes":[1.3324332E-1,3.2365233E-2,1.4757816E-1,0E0,0E0,3.710068E-1,2.3992018E-1,1.806485E-1,1.714071E-1,8.0148E-1,2.1279702E-1,2.7659646E-1,7.417221E-2,0E0,0E0,3.2104468E-1,0E0,9.5740944E-2,3.1284133E-1,9.238465E-2,1.1033279E-1,0E0,1.2268648E-3,1.8109286E-1,1.2799615E-1,9.244588E-3,5.658242E-2,4.489492E-1,4.2766443E-1,0E0,0E0,0E0,0E0,0E0,0E0,0E0,0E0,0E0,0E0,0E0,0E0,0E0,0E0,0E0,0E0,0E0,0E0],"parents":[2147483647,0,0,1,1,2,2,5,5,6,6,7,7,8,8,9,9,10,10,11,11,12,12,15,15,17,17,18,18,19,19,20,20,22,22,23,23,24,24,25,25,26,26,27,27,28,28],"right_children":[2,4,6,-1,-1,8,10,12,14,16,18,20,22,-1,-1,24,-1,26,28,30,32,-1,34,36,38,40,42,44,46,-1,-1,-1,-1,-1,-1,-1,-1,-1,-1,-1,-1,-1,-1,-1,-1,-1,-1],"split_conditions":[9.52745E2,9.9191E2,1.07877E3,8.618164E-3,6.055298E-2,1.15091E3,1.0755549E3,1.141035E3,1.0459E3,1.14165E3,1.02286E3,1.0820901E3,1.081005E3,1.6845703E-3,-1.4007568E-1,1.149E3,-1.06945805E-1,1.07884E3,1.0907051E3,9.2366003E2,1.0752949E3,4.4766672E-2,1.080315E3,1.0759651E3,1.07927E3,1.09761E3,1.0499451E3,1.1076699E3,1.07877E3,7.014771E-2,1.4041901E-3,-7.1063235E-2,-1.9464113E-2,-2.8564455E-3,-1.9500732E-2,7.746277E-2,-4.2846682E-3,4.1516114E-2,1.7069092E-1,1.539917E-2,-1.0400391E-2,-1.9077301E-2,-6.0214236E-2,2.7841188E-3,7.90949E-2,-8.794189E-2,1.980899E-4],"split_indices":[36,24,6,0,0,35,1,33,0,7,37,33,10,0,0,37,0,11,26,3,14,0,0,14,2,0,52,15,28,0,0,0,0,0,0,0,0,0,0,0,0,0,0,0,0,0,0],"split_type":[0,0,0,0,0,0,0,0,0,0,0,0,0,0,0,0,0,0,0,0,0,0,0,0,0,0,0,0,0,0,0,0,0,0,0,0,0,0,0,0,0,0,0,0,0,0,0],"sum_hessian":[6.58E2,5E0,6.53E2,2E0,3E0,4.3E1,6.1E2,4E1,3E0,1.5E1,5.95E2,3.2E1,8E0,1E0,2E0,1.3E1,2E0,1.8E1,5.77E2,1.6E1,1.6E1,6E0,2E0,9E0,4E0,4E0,1.4E1,2.9E1,5.48E2,1E0,1.5E1,7E0,9E0,1E0,1E0,3E0,6E0,2E0,2E0,3E0,1E0,7E0,7E0,1.9E1,1E1,4E0,5.44E2],"tree_param":{"num_deleted":"0","num_feature":"60","num_nodes":"47","size_leaf_vector":"0"}}]},"name":"gbtree"},"learner_model_param":{"base_score":"5E-1","num_class":"0","num_feature":"60","num_target":"1"},"objective":{"name":"reg:squarederror","reg_loss_param":{"scale_pos_weight":"1"}}},"version":[1,6,1]}