{"learner":{"attributes":{"best_iteration":"99","best_ntree_limit":"100","scikit_learn":"{\"n_estimators\": 100, \"objective\": \"reg:squarederror\", \"max_depth\": null, \"max_leaves\": null, \"max_bin\": null, \"grow_policy\": null, \"learning_rate\": null, \"verbosity\": null, \"booster\": null, \"tree_method\": null, \"gamma\": null, \"min_child_weight\": null, \"max_delta_step\": null, \"subsample\": null, \"sampling_method\": null, \"colsample_bytree\": null, \"colsample_bylevel\": null, \"colsample_bynode\": null, \"reg_alpha\": null, \"reg_lambda\": null, \"scale_pos_weight\": null, \"base_score\": null, \"missing\": NaN, \"num_parallel_tree\": null, \"random_state\": null, \"n_jobs\": null, \"monotone_constraints\": null, \"interaction_constraints\": null, \"importance_type\": null, \"gpu_id\": null, \"validate_parameters\": null, \"predictor\": null, \"enable_categorical\": false, \"max_cat_to_onehot\": null, \"eval_metric\": null, \"early_stopping_rounds\": null, \"callbacks\": null, \"_estimator_type\": \"regressor\"}"},"feature_names":[],"feature_types":[],"gradient_booster":{"model":{"gbtree_model_param":{"num_parallel_tree":"1","num_trees":"100","size_leaf_vector":"0"},"tree_info":[0,0,0,0,0,0,0,0,0,0,0,0,0,0,0,0,0,0,0,0,0,0,0,0,0,0,0,0,0,0,0,0,0,0,0,0,0,0,0,0,0,0,0,0,0,0,0,0,0,0,0,0,0,0,0,0,0,0,0,0,0,0,0,0,0,0,0,0,0,0,0,0,0,0,0,0,0,0,0,0,0,0,0,0,0,0,0,0,0,0,0,0,0,0,0,0,0,0,0,0],"trees":[{"base_weights":[3.7324734E1,3.1660337E1,4.107809E1,2.8936337E1,3.3118202E1,3.9198765E1,4.5075882E1],"categories":[],"categories_nodes":[],"categories_segments":[],"categories_sizes":[],"default_left":[1,1,1,0,0,0,0],"id":0,"left_children":[1,3,5,-1,-1,-1,-1],"loss_changes":[1.2710125E4,1.0196875E2,1.18575E3,0E0,0E0,0E0,0E0],"parents":[2147483647,0,0,1,1,2,2],"right_children":[2,4,6,-1,-1,-1,-1],"split_conditions":[3.666E1,3.165E1,4.2870003E1,8.680902E0,9.935461E0,1.175963E1,1.3522765E1],"split_indices":[59,59,59,0,0,0,0],"split_type":[0,0,0,0,0,0,0],"sum_hessian":[6.58E2,2.66E2,3.92E2,1E2,1.66E2,2.74E2,1.18E2],"tree_param":{"num_deleted":"0","num_feature":"60","num_nodes":"7","size_leaf_vector":"0"}},{"base_weights":[2.6193928E1,2.2756853E1,2.935178E1,2.1092724E1,2.4745785E1,2.806232E1,3.200803E1],"categories":[],"categories_nodes":[],"categories_segments":[],"categories_sizes":[],"default_left":[1,1,1,0,0,0,0],"id":1,"left_children":[1,3,5,-1,-1,-1,-1],"loss_changes":[6.4847188E3,5.371875E2,2.663125E2,0E0,0E0,0E0,0E0],"parents":[2147483647,0,0,1,1,2,2],"right_children":[2,4,6,-1,-1,-1,-1],"split_conditions":[3.8315002E1,3.372E1,4.3985E1,6.3278174E0,7.4237356E0,8.418696E0,9.602409E0],"split_indices":[59,59,59,0,0,0,0],"split_type":[0,0,0,0,0,0,0],"sum_hessian":[6.58E2,3.19E2,3.39E2,1.8E2,1.39E2,2.36E2,1.03E2],"tree_param":{"num_deleted":"0","num_feature":"60","num_nodes":"7","size_leaf_vector":"0"}},{"base_weights":[1.8383963E1,1.6391136E1,2.1176678E1,1.4668992E1,1.7607311E1,2.0416344E1,2.3510244E1],"categories":[],"categories_nodes":[],"categories_segments":[],"categories_sizes":[],"default_left":[1,1,1,0,0,0,0],"id":2,"left_children":[1,3,5,-1,-1,-1,-1],"loss_changes":[3.3204844E3,5.564453E2,8.359375E-1,0E0,0E0,0E0,0E0],"parents":[2147483647,0,0,1,1,2,2],"right_children":[2,4,6,-1,-1,-1,-1],"split_conditions":[3.9525E1,3.3045E1,4.561E1,4.4006977E0,5.2821937E0,6.124903E0,7.0530734E0],"split_indices":[59,59,59,0,0,0,0],"split_type":[0,0,0,0,0,0,0],"sum_hessian":[6.58E2,3.88E2,2.7E2,1.66E2,2.22E2,2.11E2,5.9E1],"tree_param":{"num_deleted":"0","num_feature":"60","num_nodes":"7","size_leaf_vector":"0"}},{"base_weights":[1.2903464E1,1.0689501E1,1.4204823E1,8.541423E0,1.1136383E1,1.3090451E1,1.5475641E1],"categories":[],"categories_nodes":[],"categories_segments":[],"categories_sizes":[],"default_left":[1,1,1,0,0,0,0],"id":3,"left_children":[1,3,5,-1,-1,-1,-1],"loss_changes":[1.7468438E3,1.4294336E2,3.808828E2,0E0,0E0,0E0,0E0],"parents":[2147483647,0,0,1,1,2,2],"right_children":[2,4,6,-1,-1,-1,-1],"split_conditions":[3.582E1,2.961E1,4.1075E1,2.562427E0,3.340915E0,3.9271355E0,4.6426926E0],"split_indices":[59,59,59,0,0,0,0],"split_type":[0,0,0,0,0,0,0],"sum_hessian":[6.58E2,2.47E2,4.11E2,4.6E1,2.01E2,2.25E2,1.86E2],"tree_param":{"num_deleted":"0","num_feature":"60","num_nodes":"7","size_leaf_vector":"0"}},{"base_weights":[9.054387E0,8.130863E0,1.0664497E1,7.311414E0,8.919545E0,1.0232995E1,1.2862514E1,5.5760264E0,7.5763645E0],"categories":[],"categories_nodes":[],"categories_segments":[],"categories_sizes":[],"default_left":[1,1,1,1,0,0,0,0,0],"id":4,"left_children":[1,3,5,7,-1,-1,-1,-1,-1],"loss_changes":[8.9320703E2,2.0816406E2,9.316016E1,5.5689453E1,0E0,0E0,0E0,0E0,0E0],"parents":[2147483647,0,0,1,1,2,2,3,3],"right_children":[2,4,6,8,-1,-1,-1,-1,-1],"split_conditions":[4.0225E1,3.4695E1,4.682E1,2.914E1,2.6758637E0,3.0698986E0,3.8587542E0,1.672808E0,2.2729094E0],"split_indices":[59,59,59,59,0,0,0,0,0],"split_type":[0,0,0,0,0,0,0,0,0],"sum_hessian":[6.58E2,4.22E2,2.36E2,2.12E2,2.1E2,2.02E2,3.4E1,3.1E1,1.81E2],"tree_param":{"num_deleted":"0","num_feature":"60","num_nodes":"9","size_leaf_vector":"0"}},{"base_weights":[6.3586326E0,5.542404E0,7.2764506E0,4.323525E0,5.818054E0,7.023228E0,9.233108E0,2.8366804E0,4.527453E0],"categories":[],"categories_nodes":[],"categories_segments":[],"categories_sizes":[],"default_left":[1,1,1,1,0,0,0,0,0],"id":5,"left_children":[1,3,5,7,-1,-1,-1,-1,-1],"loss_changes":[4.5336133E2,9.344824E1,8.7262695E1,8.078491E0,0E0,0E0,0E0,0E0,0E0],"parents":[2147483647,0,0,1,1,2,2,3,3],"right_children":[2,4,6,8,-1,-1,-1,-1,-1],"split_conditions":[3.9010002E1,3.034E1,4.7425003E1,2.7759998E1,1.7454163E0,2.1069686E0,2.7699323E0,8.510042E-1,1.358236E0],"split_indices":[59,59,59,59,0,0,0,0,0],"split_type":[0,0,0,0,0,0,0,0,0],"sum_hessian":[6.58E2,3.52E2,3.06E2,6.8E1,2.84E2,2.75E2,3.1E1,1E1,5.8E1],"tree_param":{"num_deleted":"0","num_feature":"60","num_nodes":"9","size_leaf_vector":"0"}},{"base_weights":[4.4644446E0,4.0010653E0,5.389848E0,3.5577762E0,4.4185767E0,5.168694E0,6.7546864E0,2.0630407E0,3.6191301E0,2.1479106E0,6.07172E-1,3.227954E0,3.7876635E0],"categories":[],"categories_nodes":[],"categories_segments":[],"categories_sizes":[],"default_left":[1,1,1,1,0,0,0,1,1,0,0,0,0],"id":6,"left_children":[1,3,5,7,-1,-1,-1,9,11,-1,-1,-1,-1],"loss_changes":[2.6102246E2,6.626904E1,3.0586426E1,1.2709473E1,0E0,0E0,0E0,5.5000305E-2,1.6181641E0,0E0,0E0,0E0,0E0],"parents":[2147483647,0,0,1,1,2,2,3,3,7,7,8,8],"right_children":[2,4,6,8,-1,-1,-1,10,12,-1,-1,-1,-1],"split_conditions":[4.048E1,3.485E1,4.9989998E1,2.7759998E1,1.3255731E0,1.5506083E0,2.026406E0,3.3195E1,3.1005001E1,6.443732E-1,1.8215162E-1,9.6838623E-1,1.1362991E0],"split_indices":[59,58,11,59,0,0,0,28,59,0,0,0,0],"split_type":[0,0,0,0,0,0,0,0,0,0,0,0,0],"sum_hessian":[6.58E2,4.42E2,2.16E2,2.19E2,2.23E2,1.9E2,2.6E1,1E1,2.09E2,9E0,1E0,6.9E1,1.4E2],"tree_param":{"num_deleted":"0","num_feature":"60","num_nodes":"13","size_leaf_vector":"0"}},{"base_weights":[3.1369982E0,2.8627048E0,3.9608324E0,2.4906406E0,3.1320345E0,3.7470007E0,4.850348E0,1.8085251E0,2.5633116E0,1.8793026E0,6.866481E-1,1.7550167E0,2.6029572E0,5.160961E-1,1.9196413E0,2.6098282E0,6.865339E-1],"categories":[],"categories_nodes":[],"categories_segments":[],"categories_sizes":[],"default_left":[1,1,1,1,0,0,0,1,1,1,0,0,1,0,0,0,0],"id":7,"left_children":[1,3,5,7,-1,-1,-1,9,11,13,-1,-1,15,-1,-1,-1,-1],"loss_changes":[1.3757715E2,4.210254E1,1.263916E1,5.972168E0,0E0,0E0,0E0,6.152725E-1,1.5524902E0,2.1904755E-1,0E0,0E0,5.7836914E-1,0E0,0E0,0E0,0E0],"parents":[2147483647,0,0,1,1,2,2,3,3,7,7,8,8,9,9,12,12],"right_children":[2,4,6,8,-1,-1,-1,10,12,14,-1,-1,16,-1,-1,-1,-1],"split_conditions":[4.1545E1,3.471E1,4.886E1,2.8575E1,9.396104E-1,1.1241002E0,1.4551045E0,3.4254997E1,2.7915E1,2.6380001E1,2.0599443E-1,5.2650505E-1,4.042E1,1.5482885E-1,5.758924E-1,7.829485E-1,2.0596018E-1],"split_indices":[59,59,38,56,0,0,0,22,27,43,0,0,16,0,0,0,0],"split_type":[0,0,0,0,0,0,0,0,0,0,0,0,0,0,0,0,0],"sum_hessian":[6.58E2,4.97E2,1.61E2,2.13E2,2.84E2,1.34E2,2.7E1,2.3E1,1.9E2,2.1E1,2E0,1.1E1,1.79E2,1E0,2E1,1.78E2,1E0],"tree_param":{"num_deleted":"0","num_feature":"60","num_nodes":"17","size_leaf_vector":"0"}},{"base_weights":[2.2049596E0,2.0107043E0,2.788504E0,1.6065929E0,2.1375527E0,2.6593518E0,3.8008087E0,1.8668933E0,1.4090036E0,1.1933585E0,2.1548357E0,2.6674592E0,7.378273E-1,1.9142324E0,4.8717055E-1,6.442379E-1,1.4435011E0,5.5801773E-1,2.1576662E0,1.937427E0,4.120407E-1,7.6324385E-1,1.4731644E0,4.1283798E-1,1.9615955E0,4.1426945E-1,1.4830818E0],"categories":[],"categories_nodes":[],"categories_segments":[],"categories_sizes":[],"default_left":[1,1,1,1,1,1,0,1,1,0,1,0,0,1,0,0,1,0,0,1,0,0,1,0,0,0,0],"id":8,"left_children":[1,3,5,7,9,11,-1,13,15,-1,17,-1,-1,19,-1,-1,21,-1,-1,23,-1,-1,25,-1,-1,-1,-1],"loss_changes":[6.9095215E1,2.209375E1,1.1072388E1,3.6957703E0,3.564331E0,3.218994E-1,0E0,2.3331757E0,1.0223389E0,0E0,4.593506E-1,0E0,0E0,8.7416077E-1,0E0,0E0,2.881317E-1,0E0,0E0,9.219818E-1,0E0,0E0,7.8689575E-2,0E0,0E0,0E0,0E0],"parents":[2147483647,0,0,1,1,2,2,3,3,4,4,5,5,7,7,8,8,10,10,13,13,16,16,19,19,22,22],"right_children":[2,4,6,8,10,12,-1,14,16,-1,18,-1,-1,20,-1,-1,22,-1,-1,24,-1,-1,26,-1,-1,-1,-1],"split_conditions":[4.1545E1,3.2144997E1,5.1395E1,3.1005001E1,2.909E1,5.0129997E1,1.1402427E0,3.1779999E1,3.1384998E1,3.5800758E-1,2.7855E1,8.0023783E-1,2.213482E-1,3.1865E1,1.4615117E-1,1.9327137E-1,2.6925E1,1.6740532E-1,6.472999E-1,2.6380001E1,1.2361222E-1,2.2897317E-1,2.655E1,1.23851396E-1,5.884787E-1,1.2428084E-1,4.4492456E-1],"split_indices":[59,59,21,3,31,27,0,59,3,0,40,0,0,1,0,0,59,0,0,4,0,0,28,0,0,0,0],"split_type":[0,0,0,0,0,0,0,0,0,0,0,0,0,0,0,0,0,0,0,0,0,0,0,0,0,0,0],"sum_hessian":[6.58E2,4.97E2,1.61E2,1.22E2,3.75E2,1.46E2,1.5E1,4.9E1,7.3E1,8E0,3.67E2,1.45E2,1E0,4.7E1,2E0,4E0,6.9E1,1E0,3.66E2,4.6E1,1E0,4E0,6.5E1,1E0,4.5E1,1E0,6.4E1],"tree_param":{"num_deleted":"0","num_feature":"60","num_nodes":"27","size_leaf_vector":"0"}},{"base_weights":[1.5515255E0,1.4618225E0,2.2738295E0,1.227475E0,1.6064311E0,2.1209514E0,2.848734E0,1.3052788E0,9.968542E-1,6.7083055E-1,1.615035E0,1.1168929E0,1.4316549E0,4.0642357E-1,1.0646104E0,3.0177307E-1,1.6178763E0,1.3716514E0,8.787949E-1,3.9671263E-1,1.4492673E0,4.9465466E-1,9.448687E-2,5.7540894E-2,1.0821942E0,1.6278715E0,9.795985E-1,1.5305672E0,5.627406E-1,9.058855E-1,-8.8869095E-2,1.4594382E0,2.466011E-1,1.1185366E0,5.023323E-1,1.6302801E0,3.9484596E-1],"categories":[],"categories_nodes":[],"categories_segments":[],"categories_sizes":[],"default_left":[1,1,1,1,1,0,0,1,1,0,1,1,1,1,1,0,1,1,1,0,1,0,0,0,1,1,0,0,0,0,0,0,0,0,0,0,0],"id":9,"left_children":[1,3,5,7,9,-1,-1,11,13,-1,15,17,19,21,23,-1,25,27,29,-1,31,-1,-1,-1,33,35,-1,-1,-1,-1,-1,-1,-1,-1,-1,-1,-1],"loss_changes":[3.937451E1,1.7988647E1,1.9818115E-1,2.8078308E0,1.8225098E0,0E0,0E0,2.4006348E0,2.0476494E0,0E0,8.438721E-1,3.1619415E0,1.1931458E0,1.7344177E-1,9.116783E-1,0E0,6.765137E-1,3.3807907E0,1.1290894E0,0E0,8.021698E-1,0E0,0E0,0E0,5.7609177E-1,3.9276123E-1,0E0,0E0,0E0,0E0,0E0,0E0,0E0,0E0,0E0,0E0,0E0],"parents":[2147483647,0,0,1,1,2,2,3,3,4,4,7,7,8,8,10,10,11,11,12,12,13,13,14,14,16,16,17,17,18,18,20,20,24,24,25,25],"right_children":[2,4,6,8,10,-1,-1,12,14,-1,16,18,20,22,24,-1,26,28,30,-1,32,-1,-1,-1,34,36,-1,-1,-1,-1,-1,-1,-1,-1,-1,-1,-1],"split_conditions":[4.5045E1,3.521E1,5.214E1,3.711E1,2.9215E1,6.362854E-1,8.546202E-1,3.1095001E1,3.7480003E1,2.0124917E-1,2.7945E1,2.9400002E1,2.8545E1,3.7565002E1,3.175E1,9.053192E-2,4.9445E1,3.1985E1,3.3825E1,1.19013794E-1,3.8575E1,1.483964E-1,2.8346062E-2,1.7262269E-2,3.946E1,5.0345E1,2.9387957E-1,4.5917016E-1,1.688222E-1,2.7176568E-1,-2.666073E-2,4.378315E-1,7.398033E-2,3.3556098E-1,1.506997E-1,4.8908406E-1,1.1845379E-1],"split_indices":[59,59,24,5,4,0,0,59,0,0,1,57,19,9,40,0,18,29,4,0,27,0,0,0,25,9,0,0,0,0,0,0,0,0,0,0,0],"split_type":[0,0,0,0,0,0,0,0,0,0,0,0,0,0,0,0,0,0,0,0,0,0,0,0,0,0,0,0,0,0,0,0,0,0,0,0,0],"sum_hessian":[6.58E2,5.88E2,7E1,2.28E2,3.6E2,5.9E1,1.1E1,1.67E2,6.1E1,4E0,3.56E2,7.1E1,9.6E1,7E0,5.4E1,1E0,3.55E2,3.2E1,3.9E1,2E0,9.4E1,5E0,2E0,1E0,5.3E1,3.48E2,7E0,2.6E1,6E0,3.8E1,1E0,9.3E1,1E0,4.9E1,4E0,3.47E2,1E0],"tree_param":{"num_deleted":"0","num_feature":"60","num_nodes":"37","size_leaf_vector":"0"}},{"base_weights":[1.0934563E0,9.813786E-1,1.4177727E0,8.448247E-1,1.0649447E0,1.2814373E0,1.6868443E0,8.7727135E-1,5.032169E-1,1.1423564E0,9.565938E-1,-1.0261536E-3,1.292696E0,5.4435605E-1,1.7209741E0,5.366592E-1,9.205145E-1,2.0026861E-1,6.276339E-1,1.1471676E0,1.6223145E-1,6.6234386E-1,1.0403503E0,8.502388E-2,1.3026309E0,6.8308705E-1,3.2813245E-1,6.115789E-1,9.6237266E-1,6.1621983E-2,2.4340287E-1,4.2928505E-1,9.6659756E-1,1.1516695E0,1.9316483E-1,8.6960363E-1,2.444439E-1,1.0703397E0,5.5793047E-1,1.4064804E0,1.0606521E0,7.3609525E-1,4.9998283E-2,4.890442E-3,3.5996762E-1,1.137237E0,4.963919E-1,1.4476472E0,9.067524E-1,1.1551911E0,2.8002357E-1,4.0419388E-1,1.0288213E0,2.5072098E-3,5.826538E-1,3.4305063E-1,1.0824215E0,1.0261917E-1,1.4224969E0,3.3163223E-1,1.1366653E0],"categories":[],"categories_nodes":[],"categories_segments":[],"categories_sizes":[],"default_left":[1,1,1,1,1,1,1,1,1,1,1,0,1,0,0,1,1,1,1,1,0,1,1,0,1,1,1,1,1,0,0,0,0,1,0,1,1,1,0,1,1,0,0,0,0,0,0,0,0,0,0,0,0,0,0,0,0,0,0,0,0],"id":10,"left_children":[1,3,5,7,9,11,13,15,17,19,21,-1,23,-1,-1,25,27,29,31,33,-1,35,37,-1,39,41,43,45,47,-1,-1,-1,-1,49,-1,51,53,55,-1,57,59,-1,-1,-1,-1,-1,-1,-1,-1,-1,-1,-1,-1,-1,-1,-1,-1,-1,-1,-1,-1],"loss_changes":[2.2562378E1,4.726074E0,3.9646301E0,1.686676E0,1.4403076E0,1.661789E0,1.1298065E0,2.0688782E0,5.9045124E-1,6.2023926E-1,2.5641174E0,0E0,1.2570496E0,0E0,0E0,4.4760752E-1,1.3899384E0,2.6863992E-2,4.5908403E-1,5.076904E-1,0E0,2.5590734E0,8.6403656E-1,0E0,1.3478394E0,3.6590338E-1,1.1143458E-1,7.0701313E-1,2.2771606E0,0E0,0E0,0E0,0E0,1.9526672E-1,0E0,1.1402874E0,9.804438E-1,4.5465088E-1,0E0,1.4411469E0,1.7288208E0,0E0,0E0,0E0,0E0,0E0,0E0,0E0,0E0,0E0,0E0,0E0,0E0,0E0,0E0,0E0,0E0,0E0,0E0,0E0,0E0],"parents":[2147483647,0,0,1,1,2,2,3,3,4,4,5,5,6,6,7,7,8,8,9,9,10,10,12,12,15,15,16,16,17,17,18,18,19,19,21,21,22,22,24,24,25,25,26,26,27,27,28,28,33,33,35,35,36,36,37,37,39,39,40,40],"right_children":[2,4,6,8,10,12,14,16,18,20,22,-1,24,-1,-1,26,28,30,32,34,-1,36,38,-1,40,42,44,46,48,-1,-1,-1,-1,50,-1,52,54,56,-1,58,60,-1,-1,-1,-1,-1,-1,-1,-1,-1,-1,-1,-1,-1,-1,-1,-1,-1,-1,-1,-1],"split_conditions":[4.1715E1,3.4375E1,4.6010002E1,3.7405E1,3.9915E1,4.0395E1,4.4725E1,2.8490002E1,3.7440002E1,4.535E1,3.832E1,-3.078461E-4,3.884E1,1.6330682E-1,5.162923E-1,2.8005001E1,2.8575E1,3.7379997E1,3.427E1,4.44E1,4.8669435E-2,4.0260002E1,4.1415E1,2.5507165E-2,4.534E1,3.4515E1,2.655E1,2.91E1,2.934E1,1.8486595E-2,7.302086E-2,1.2878552E-1,2.8997928E-1,4.3955E1,5.794945E-2,3.9955E1,3.918E1,4.0105E1,1.6737914E-1,3.8555E1,4.589E1,2.2082858E-1,1.4999486E-2,1.4671326E-3,1.0799029E-1,3.411711E-1,1.4891757E-1,4.342942E-1,2.7202573E-1,3.4655732E-1,8.400708E-2,1.2125817E-1,3.086464E-1,7.5216294E-4,1.7479615E-1,1.0291519E-1,3.2472646E-1,3.0785752E-2,4.2674908E-1,9.9489674E-2,3.409996E-1],"split_indices":[47,48,57,16,16,49,59,24,13,0,44,0,37,0,0,25,56,7,51,58,0,29,47,0,36,40,13,33,56,0,0,0,0,54,0,11,35,16,0,34,36,0,0,0,0,0,0,0,0,0,0,0,0,0,0,0,0,0,0,0,0],"split_type":[0,0,0,0,0,0,0,0,0,0,0,0,0,0,0,0,0,0,0,0,0,0,0,0,0,0,0,0,0,0,0,0,0,0,0,0,0,0,0,0,0,0,0,0,0,0,0,0,0,0,0,0,0,0,0,0,0,0,0,0,0],"sum_hessian":[6.58E2,4.92E2,1.66E2,1.91E2,3.01E2,1.14E2,5.2E1,1.73E2,1.8E1,1.7E2,1.31E2,1E0,1.13E2,2E0,5E1,2.1E1,1.52E2,6E0,1.2E1,1.69E2,1E0,3.1E1,1E2,1E0,1.12E2,1.1E1,1E1,2E1,1.32E2,2E0,4E0,9E0,3E0,1.68E2,1E0,2E1,1.1E1,9.3E1,7E0,7.5E1,3.7E1,1E1,1E0,1E0,9E0,2E0,1.8E1,1.1E1,1.21E2,1.67E2,1E0,6E0,1.4E1,7E0,4E0,2E0,9.1E1,1E0,7.4E1,4E0,3.3E1],"tree_param":{"num_deleted":"0","num_feature":"60","num_nodes":"61","size_leaf_vector":"0"}},{"base_weights":[7.7360195E-1,7.0864683E-1,1.0811845E0,6.2529397E-1,7.969303E-1,1.009844E0,1.5974804E0,7.355171E-1,5.6207985E-1,9.534135E-1,7.4776644E-1,1.188362E0,8.419833E-1,1.0837543E0,6.763867E-1,1.10161304E-1,6.010776E-1,1.6289394E-1,9.7829324E-1,5.70272E-1,8.2666475E-1,1.2121379E0,4.733467E-2,3.9960784E-1,9.181912E-1,3.96876E-1,1.1725616E0,4.4270936E-1,7.8195226E-1,5.394513E-2,3.35783E-1,6.226698E-1,2.3040286E-1,9.942622E-1,3.5943094E-1,6.0038584E-1,8.280639E-2,8.4861064E-1,1.9876225E-1,3.5990906E-1,1.2426958E0,4.8842382E-1,2.9562632E-2,1.6511917E-1,9.309728E-1,1.3512118E0,6.8793905E-1,5.0076455E-1,-5.984068E-2,3.0926195E-1,8.487265E-1,1.3974544E-1,-2.7873278E-2,2.7355888E-1,6.4397806E-1,3.7172556E-1,-1.09843254E-1,8.617622E-1,1.1538411E0,6.325028E-1,1.0775223E-1,-1.3275528E-1,1.6988564E-1,-7.5531006E-4,8.550025E-1,-2.4335098E-1,3.358551E-1,6.8821526E-1,-1.4835167E-1,1.2621583E0,2.0290565E-1,5.223247E-1,1.2555885E-1],"categories":[],"categories_nodes":[],"categories_segments":[],"categories_sizes":[],"default_left":[1,1,1,1,1,1,0,1,1,1,1,1,1,1,1,1,1,0,1,1,1,1,0,1,1,0,1,1,1,1,0,1,1,1,0,1,1,1,1,1,1,1,0,0,0,0,0,0,0,0,0,0,0,0,0,0,0,0,0,0,0,0,0,0,0,0,0,0,0,0,0,0,0],"id":11,"left_children":[1,3,5,7,9,11,-1,13,15,17,19,21,23,25,27,29,31,-1,33,35,37,39,-1,41,43,-1,45,47,49,51,-1,53,55,57,-1,59,61,63,65,67,69,71,-1,-1,-1,-1,-1,-1,-1,-1,-1,-1,-1,-1,-1,-1,-1,-1,-1,-1,-1,-1,-1,-1,-1,-1,-1,-1,-1,-1,-1,-1,-1],"loss_changes":[1.2399994E1,3.526886E0,2.5489197E0,1.5793304E0,1.3027191E0,2.0559616E0,0E0,1.3466911E0,3.2118149E0,1.0010529E0,2.3853912E0,1.2176819E0,1.5209808E0,3.2763577E-1,1.8492966E0,1.8482354E-1,1.2251625E0,0E0,2.0594025E-1,9.191284E-1,1.7467346E0,7.5068665E-1,0E0,3.142202E-1,2.9867172E-1,0E0,2.2805214E-2,9.0523577E-1,1.6313324E0,1.0217579E-1,0E0,1.0215034E0,5.6976104E-1,1.6859055E-1,0E0,9.1280174E-1,1.1640795E-1,7.2813416E-1,4.4539404E-1,6.026933E-1,6.3433075E-1,3.2829046E-2,0E0,0E0,0E0,0E0,0E0,0E0,0E0,0E0,0E0,0E0,0E0,0E0,0E0,0E0,0E0,0E0,0E0,0E0,0E0,0E0,0E0,0E0,0E0,0E0,0E0,0E0,0E0,0E0,0E0,0E0,0E0],"parents":[2147483647,0,0,1,1,2,2,3,3,4,4,5,5,7,7,8,8,9,9,10,10,11,11,12,12,13,13,14,14,15,15,16,16,18,18,19,19,20,20,21,21,23,23,24,24,26,26,27,27,28,28,29,29,31,31,32,32,33,33,35,35,36,36,37,37,38,38,39,39,40,40,41,41],"right_children":[2,4,6,8,10,12,-1,14,16,18,20,22,24,26,28,30,32,-1,34,36,38,40,-1,42,44,-1,46,48,50,52,-1,54,56,58,-1,60,62,64,66,68,70,72,-1,-1,-1,-1,-1,-1,-1,-1,-1,-1,-1,-1,-1,-1,-1,-1,-1,-1,-1,-1,-1,-1,-1,-1,-1,-1,-1,-1,-1,-1,-1],"split_conditions":[4.3925E1,3.7545E1,4.936E1,3.175E1,3.8410004E1,4.4395E1,4.7924414E-1,2.8545E1,3.175E1,3.02E1,4.0114998E1,4.7815002E1,4.6285E1,2.7744999E1,3.118E1,3.16E1,3.9739998E1,4.8868183E-2,4.1695E1,4.0760002E1,4.4325E1,4.2075E1,1.42004015E-2,4.6325E1,4.386E1,1.190628E-1,2.9685E1,3.1619999E1,2.891E1,2.9724998E1,1.00734904E-1,3.2445E1,4.0375E1,3.7760002E1,1.0782929E-1,4.5585E1,4.02E1,3.8800003E1,4.086E1,4.068E1,4.7815002E1,4.67E1,8.86879E-3,4.9535755E-2,2.7929187E-1,4.0536356E-1,2.0638172E-1,1.5022936E-1,-1.7952204E-2,9.2778586E-2,2.5461796E-1,4.1923635E-2,-8.361984E-3,8.206767E-2,1.9319342E-1,1.11517675E-1,-3.295298E-2,2.5852868E-1,3.4615237E-1,1.8975085E-1,3.232567E-2,-3.9826587E-2,5.0965693E-2,-2.2659302E-4,2.5650078E-1,-7.30053E-2,1.0075653E-1,2.0646459E-1,-4.4505503E-2,3.786475E-1,6.0871698E-2,1.566974E-1,3.766766E-2],"split_indices":[49,55,54,1,22,3,0,46,7,0,34,49,34,8,57,26,30,0,42,32,53,55,0,4,43,0,55,50,39,56,0,0,12,29,0,1,0,31,15,0,56,0,0,0,0,0,0,0,0,0,0,0,0,0,0,0,0,0,0,0,0,0,0,0,0,0,0,0,0,0,0,0,0],"split_type":[0,0,0,0,0,0,0,0,0,0,0,0,0,0,0,0,0,0,0,0,0,0,0,0,0,0,0,0,0,0,0,0,0,0,0,0,0,0,0,0,0,0,0,0,0,0,0,0,0,0,0,0,0,0,0,0,0,0,0,0,0,0,0,0,0,0,0,0,0,0,0,0,0],"sum_hessian":[6.58E2,5.46E2,1.12E2,2.85E2,2.61E2,1.01E2,1.1E1,1E2,1.85E2,5.8E1,2.03E2,4.6E1,5.5E1,1.2E1,8.8E1,1.5E1,1.7E2,2E0,5.6E1,6.5E1,1.38E2,4.5E1,1E0,9E0,4.6E1,2E0,1E1,2.9E1,5.9E1,1.3E1,2E0,1.6E2,1E1,5.4E1,2E0,6.1E1,4E0,1.33E2,5E0,2E0,4.3E1,7E0,2E0,1E0,4.5E1,6E0,4E0,2.6E1,3E0,8E0,5.1E1,6E0,7E0,1E1,1.5E2,7E0,3E0,3.3E1,2.1E1,5.7E1,4E0,1E0,3E0,1E0,1.32E2,1E0,4E0,1E0,1E0,4.2E1,1E0,6E0,1E0],"tree_param":{"num_deleted":"0","num_feature":"60","num_nodes":"73","size_leaf_vector":"0"}},{"base_weights":[5.485081E-1,4.9874717E-1,7.634498E-1,3.6643398E-1,5.2486366E-1,7.090807E-1,1.2027429E0,5.896434E-1,2.6464477E-1,9.206073E-1,5.1647544E-1,8.385366E-1,5.93244E-1,8.0900043E-1,1.770916E-1,1.3949797E-1,3.444991E-1,5.142666E-1,1.1983814E0,8.296223E-2,5.2533543E-1,-2.2605896E-2,8.565723E-1,3.3167395E-1,6.626254E-1,5.15399E-1,1.1967458E0,-3.4371853E-2,2.6068687E-1,2.7592835E-1,1.195844E-2,5.8487624E-1,2.2917679E-1,1.494871E-1,-5.4196835E-2,9.440508E-1,5.1416844E-1,1.0837133E0,7.536154E-1,4.096999E-1,9.3682095E-2,6.851242E-1,9.67687E-2,5.504719E-1,6.4798355E-2,1.2889906E0,3.216381E-1,2.7087212E-2,-6.3887276E-2,6.358083E-2,3.1579208E-1,3.1979244E-2,3.1737554E-1,1.181523E-1,-5.295372E-2,5.3442E-2,6.2833005E-1,2.6475084E-1,-1.5552394E-1,6.0877483E-2,1.7275544E-1,-3.7638345E-4,-1.07829094E-1,1.0904713E0,4.5180225E-1,7.209349E-2,5.2145135E-1,-8.042145E-2,8.035724E-1,1.4366531E-1,4.5285586E-1,3.7854195E-2,1.5849686E-1,7.0174193E-1,2.1302287E-1,1.8837547E-1,-4.3222427E-2],"categories":[],"categories_nodes":[],"categories_segments":[],"categories_sizes":[],"default_left":[1,1,1,1,1,1,0,1,1,1,1,1,1,1,1,1,1,0,0,1,1,0,1,1,1,1,1,1,1,1,1,1,1,1,1,1,1,0,1,1,1,1,1,0,0,0,0,0,0,0,0,0,0,0,0,0,0,0,0,0,0,0,0,0,0,0,0,0,0,0,0,0,0,0,0,0,0],"id":12,"left_children":[1,3,5,7,9,11,-1,13,15,17,19,21,23,25,27,29,31,-1,-1,33,35,-1,37,39,41,43,45,47,49,51,53,55,57,59,61,63,65,-1,67,69,71,73,75,-1,-1,-1,-1,-1,-1,-1,-1,-1,-1,-1,-1,-1,-1,-1,-1,-1,-1,-1,-1,-1,-1,-1,-1,-1,-1,-1,-1,-1,-1,-1,-1,-1,-1],"loss_changes":[6.667694E0,1.6667633E0,2.0610046E0,1.9342213E0,1.0083847E0,1.1670685E0,0E0,2.390625E0,6.0152197E-1,2.8667974E-1,1.6464157E0,7.9592896E-1,9.0540695E-1,1.4323645E0,2.034111E-1,4.6650755E-1,9.47073E-1,0E0,0E0,9.9346615E-2,1.5298767E0,0E0,3.2920074E-1,2.4016142E-1,5.447941E-1,1.5397692E-1,1.5048218E-1,8.98649E-3,6.6814244E-2,1.21293485E-1,1.0965569E-1,2.4353504E-1,4.2436528E-1,3.9156675E-3,1.1505464E-2,2.2807503E-1,1.3210907E0,0E0,1.606266E0,6.1231136E-2,1.209259E-2,2.1139526E-1,4.6614453E-2,0E0,0E0,0E0,0E0,0E0,0E0,0E0,0E0,0E0,0E0,0E0,0E0,0E0,0E0,0E0,0E0,0E0,0E0,0E0,0E0,0E0,0E0,0E0,0E0,0E0,0E0,0E0,0E0,0E0,0E0,0E0,0E0,0E0,0E0],"parents":[2147483647,0,0,1,1,2,2,3,3,4,4,5,5,7,7,8,8,9,9,10,10,11,11,12,12,13,13,14,14,15,15,16,16,19,19,20,20,22,22,23,23,24,24,25,25,26,26,27,27,28,28,29,29,30,30,31,31,32,32,33,33,34,34,35,35,36,36,38,38,39,39,40,40,41,41,42,42],"right_children":[2,4,6,8,10,12,-1,14,16,18,20,22,24,26,28,30,32,-1,-1,34,36,-1,38,40,42,44,46,48,50,52,54,56,58,60,62,64,66,-1,68,70,72,74,76,-1,-1,-1,-1,-1,-1,-1,-1,-1,-1,-1,-1,-1,-1,-1,-1,-1,-1,-1,-1,-1,-1,-1,-1,-1,-1,-1,-1,-1,-1,-1,-1,-1,-1],"split_conditions":[4.302E1,3.1349998E1,5.214E1,2.8825E1,2.9494999E1,4.487E1,3.608229E-1,3.392E1,3.0175E1,2.9880001E1,2.9845001E1,3.6870003E1,4.6675003E1,3.0845E1,3.24E1,3.0215E1,3.115E1,1.5427999E-1,3.5951445E-1,2.996E1,2.914E1,-6.781769E-3,4.112E1,4.6285E1,5.0345E1,3.2864998E1,3.155E1,3.4195E1,2.755E1,2.9135E1,2.851E1,2.7645E1,3.7565002E1,2.9119999E1,3.134E1,3.341E1,3.1645E1,3.25114E-1,4.1510002E1,4.4879997E1,4.6425003E1,5.0205E1,5.158E1,1.6514158E-1,1.9439507E-2,3.866972E-1,9.649143E-2,8.126164E-3,-1.9166183E-2,1.907425E-2,9.473763E-2,9.593774E-3,9.521267E-2,3.544569E-2,-1.5886117E-2,1.60326E-2,1.8849902E-1,7.942525E-2,-4.6657182E-2,1.8263245E-2,5.1826634E-2,-1.1291504E-4,-3.234873E-2,3.271414E-1,1.3554068E-1,2.1628046E-2,1.5643542E-1,-2.4126435E-2,2.4107173E-1,4.3099597E-2,1.3585676E-1,1.1356259E-2,4.7549058E-2,2.1052259E-1,6.390686E-2,5.6512643E-2,-1.2966729E-2],"split_indices":[49,58,24,46,48,12,0,0,49,29,44,2,28,26,16,35,48,0,0,23,10,0,12,28,33,3,32,0,47,44,49,26,14,23,0,32,55,0,20,44,0,28,0,0,0,0,0,0,0,0,0,0,0,0,0,0,0,0,0,0,0,0,0,0,0,0,0,0,0,0,0,0,0,0,0,0,0],"split_type":[0,0,0,0,0,0,0,0,0,0,0,0,0,0,0,0,0,0,0,0,0,0,0,0,0,0,0,0,0,0,0,0,0,0,0,0,0,0,0,0,0,0,0,0,0,0,0,0,0,0,0,0,0,0,0,0,0,0,0,0,0,0,0,0,0,0,0,0,0,0,0,0,0,0,0,0,0],"sum_hessian":[6.58E2,5.37E2,1.21E2,9.1E1,4.46E2,1.1E2,1.1E1,2.7E1,6.4E1,7E0,4.39E2,4.9E1,6.1E1,1.7E1,1E1,2.6E1,3.8E1,4E0,3E0,9E0,4.3E2,1E0,4.8E1,1.4E1,4.7E1,1.1E1,6E0,3E0,7E0,1.2E1,1.4E1,1.1E1,2.7E1,6E0,3E0,9E0,4.21E2,1.2E1,3.6E1,1E1,4E0,4.5E1,2E0,1E1,1E0,5E0,1E0,1E0,2E0,2E0,5E0,2E0,1E1,5E0,9E0,1E0,1E1,2.5E1,2E0,2E0,4E0,2E0,1E0,6E0,3E0,7E0,4.14E2,2E0,3.4E1,2E0,8E0,3E0,1E0,4.3E1,2E0,1E0,1E0],"tree_param":{"num_deleted":"0","num_feature":"60","num_nodes":"77","size_leaf_vector":"0"}},{"base_weights":[3.8968512E-1,3.3356842E-1,5.001472E-1,3.4151366E-1,1.2832366E-1,4.765236E-1,9.4859046E-1,3.222999E-1,5.126689E-1,-2.2570165E-1,1.8668318E-1,3.8629627E-1,5.331598E-1,3.3012682E-1,-2.6569366E-3,-7.79953E-3,5.691465E-1,-1.0981878E-1,2.368848E-1,4.0592557E-1,-2.8554663E-1,8.2986784E-1,4.6308893E-1,3.4342965E-1,1.6613999E-1,2.3019715E-1,-1.9625919E-1,-2.2153981E-1,2.085406E-1,7.8701144E-1,4.4670326E-1,2.7544308E-1,3.6900837E-3,4.3694255E-1,6.7492896E-3,9.4172305E-1,2.388443E-1,3.4264383E-1,5.410969E-1,3.1432718E-1,4.7377026E-1,-5.579168E-2,2.798954E-1,6.2463123E-2,3.211988E-1,-2.3489857E-1,-7.9320274E-2,-2.732296E-1,-5.9080124E-2,9.667914E-2,5.4687655E-1,6.0144424E-2,2.89548E-1,3.6405563E-2,-3.0870438E-2,-1.941719E-1,4.478016E-1,-8.894348E-2,1.0075474E-1,4.566835E-1,1.0823313E0,6.2018013E-1,-1.1534691E-2,6.098433E-1,2.233864E-1,1.6336727E-1,5.575346E-1],"categories":[],"categories_nodes":[],"categories_segments":[],"categories_sizes":[],"default_left":[1,1,1,1,1,1,0,1,1,0,1,1,1,1,1,1,1,0,1,1,0,1,1,1,1,1,1,1,0,0,1,1,1,1,1,1,1,1,1,0,0,0,0,0,0,0,0,0,0,0,0,0,0,0,0,0,0,0,0,0,0,0,0,0,0,0,0],"id":13,"left_children":[1,3,5,7,9,11,-1,13,15,-1,17,19,21,23,25,27,29,-1,31,33,-1,35,37,39,41,43,45,47,-1,-1,49,51,53,55,57,59,61,63,65,-1,-1,-1,-1,-1,-1,-1,-1,-1,-1,-1,-1,-1,-1,-1,-1,-1,-1,-1,-1,-1,-1,-1,-1,-1,-1,-1,-1],"loss_changes":[3.9181595E0,6.736946E-1,1.8786201E0,1.2258186E0,4.140281E-1,8.722801E-1,0E0,9.750023E-1,1.2096272E0,0E0,2.641725E-1,1.2368746E0,2.2561035E0,7.588234E-1,4.95989E-1,2.7740306E-1,6.3545513E-1,0E0,1.2486577E-1,1.0246944E0,0E0,1.2955828E0,8.0114365E-1,1.1597481E0,7.729937E-1,5.6257278E-2,8.478478E-3,9.050086E-3,0E0,0E0,8.58768E-1,1.9026577E-2,4.5158477E-3,6.146536E-1,7.1930975E-2,8.01527E-1,4.8454604E-1,1.2658525E0,2.9387474E-1,0E0,0E0,0E0,0E0,0E0,0E0,0E0,0E0,0E0,0E0,0E0,0E0,0E0,0E0,0E0,0E0,0E0,0E0,0E0,0E0,0E0,0E0,0E0,0E0,0E0,0E0,0E0,0E0],"parents":[2147483647,0,0,1,1,2,2,3,3,4,4,5,5,7,7,8,8,10,10,11,11,12,12,13,13,14,14,15,15,16,16,18,18,19,19,21,21,22,22,23,23,24,24,25,25,26,26,27,27,30,30,31,31,32,32,33,33,34,34,35,35,36,36,37,37,38,38],"right_children":[2,4,6,8,10,12,-1,14,16,-1,18,20,22,24,26,28,30,-1,32,34,-1,36,38,40,42,44,46,48,-1,-1,50,52,54,56,58,60,62,64,66,-1,-1,-1,-1,-1,-1,-1,-1,-1,-1,-1,-1,-1,-1,-1,-1,-1,-1,-1,-1,-1,-1,-1,-1,-1,-1,-1,-1],"split_conditions":[4.043E1,4.158E1,5.261E1,4.0335E1,4.2185E1,4.207E1,2.8457716E-1,4.3055E1,3.9510002E1,-6.77105E-2,3.964E1,4.2015E1,4.2440002E1,4.0254997E1,4.2199997E1,4.261E1,3.8275E1,-3.2945637E-2,4.5975E1,4.3945E1,-8.566399E-2,4.2739998E1,4.567E1,3.7715E1,3.858E1,4.4155E1,4.283E1,4.09E1,6.256218E-2,2.3610345E-1,3.9025E1,4.053E1,4.5595E1,3.417E1,4.1205E1,4.2005E1,4.1315002E1,4.2754997E1,4.165E1,9.429816E-2,1.4213109E-1,-1.6737504E-2,8.3968624E-2,1.8738938E-2,9.635964E-2,-7.046957E-2,-2.3796083E-2,-8.196888E-2,-1.7724037E-2,2.9003745E-2,1.6406298E-1,1.8043328E-2,8.6864404E-2,1.0921669E-2,-9.261131E-3,-5.8251575E-2,1.3434048E-1,-2.6683046E-2,3.0226422E-2,1.3700505E-1,3.246994E-1,1.8605405E-1,-3.4604075E-3,1.82953E-1,6.701592E-2,4.9010184E-2,1.6726038E-1],"split_indices":[59,48,21,37,41,46,0,8,40,0,29,46,55,31,17,0,58,0,2,59,0,59,50,48,45,0,19,0,0,0,56,35,0,9,22,48,42,37,4,0,0,0,0,0,0,0,0,0,0,0,0,0,0,0,0,0,0,0,0,0,0,0,0,0,0,0,0],"split_type":[0,0,0,0,0,0,0,0,0,0,0,0,0,0,0,0,0,0,0,0,0,0,0,0,0,0,0,0,0,0,0,0,0,0,0,0,0,0,0,0,0,0,0,0,0,0,0,0,0,0,0,0,0,0,0,0,0,0,0,0,0,0,0,0,0,0,0],"sum_hessian":[6.58E2,4.39E2,2.19E2,4.22E2,1.7E1,2.1E2,9E0,3.82E2,4E1,2E0,1.5E1,8.4E1,1.26E2,3.73E2,9E0,4E0,3.6E1,2E0,1.3E1,8.2E1,2E0,2.2E1,1.04E2,3.44E2,2.9E1,4E0,5E0,2E0,2E0,1.1E1,2.5E1,1.1E1,2E0,7.6E1,6E0,1.8E1,4E0,4.3E1,6.1E1,2.84E2,6E1,1E1,1.9E1,2E0,2E0,3E0,2E0,1E0,1E0,6E0,1.9E1,1E0,1E1,1E0,1E0,1E0,7.5E1,3E0,3E0,5E0,1.3E1,1E0,3E0,1.2E1,3.1E1,3E0,5.8E1],"tree_param":{"num_deleted":"0","num_feature":"60","num_nodes":"67","size_leaf_vector":"0"}},{"base_weights":[2.7598345E-1,2.3990068E-1,3.7675324E-1,2.442202E-1,-1.478049E-1,7.264045E-1,3.483522E-1,2.3438285E-1,4.721228E-1,-2.2872448E-1,9.356181E-3,2.7467424E-1,9.179354E-1,3.2070422E-1,6.962152E-1,2.3982818E-1,-1.5615845E-1,6.077277E-1,2.0970011E-1,3.1339645E-2,-1.7305374E-2,3.0730247E-1,7.208061E-2,1.8812327E-1,3.520208E-1,2.4513651E-1,-1.3795798E-1,4.3689728E-2,-2.4483566E-1,7.691795E-1,4.3085432E-1,8.565267E-3,2.7531752E-1,3.4726143E-1,-2.9920306E-2,4.4988963E-1,2.5477824E-1,2.2511004E-1,3.4000462E-1,-4.737218E-2,-1.6471787E-1,5.237198E-2,1.3162613E-2,-2.804184E-2,4.088974E-2,3.931353E-1,-1.3153076E-2,5.747948E-2,-1.987358E-1,6.800461E-1,3.829778E-1,1.5954399E-1,3.4205067E-1],"categories":[],"categories_nodes":[],"categories_segments":[],"categories_sizes":[],"default_left":[1,1,1,1,1,1,1,1,1,0,1,1,0,1,0,1,1,1,1,0,0,0,0,1,1,1,1,1,0,0,0,1,0,1,1,1,1,0,0,0,0,0,0,0,0,0,0,0,0,0,0,0,0],"id":14,"left_children":[1,3,5,7,9,11,13,15,17,-1,19,21,-1,23,-1,25,27,29,31,-1,-1,-1,-1,33,35,37,39,41,-1,-1,-1,43,-1,45,47,49,51,-1,-1,-1,-1,-1,-1,-1,-1,-1,-1,-1,-1,-1,-1,-1,-1],"loss_changes":[2.3057747E0,8.533516E-1,1.4549961E0,9.72208E-1,7.844445E-2,7.861104E-1,1.3251705E0,1.0263329E0,5.4868984E-1,0E0,2.3006843E-3,1.0900825E-2,0E0,5.6072617E-1,0E0,9.5430374E-1,1.3475066E-1,1.1273861E-2,1.0322541E-1,0E0,0E0,0E0,0E0,1.0860609E0,1.0369377E0,7.841034E-1,9.165421E-3,1.05780084E-4,0E0,0E0,0E0,4.6965396E-3,0E0,3.0277586E-1,2.1798536E-1,6.481676E-1,4.6904135E-1,0E0,0E0,0E0,0E0,0E0,0E0,0E0,0E0,0E0,0E0,0E0,0E0,0E0,0E0,0E0,0E0],"parents":[2147483647,0,0,1,1,2,2,3,3,4,4,5,5,6,6,7,7,8,8,10,10,11,11,13,13,15,15,16,16,17,17,18,18,23,23,24,24,25,25,26,26,27,27,31,31,33,33,34,34,35,35,36,36],"right_children":[2,4,6,8,10,12,14,16,18,-1,20,22,-1,24,-1,26,28,30,32,-1,-1,-1,-1,34,36,38,40,42,-1,-1,-1,44,-1,46,48,50,52,-1,-1,-1,-1,-1,-1,-1,-1,-1,-1,-1,-1,-1,-1,-1,-1],"split_conditions":[4.1405E1,4.2155E1,4.1735E1,4.1385002E1,4.135E1,3.8059998E1,4.942E1,4.1205E1,4.16E1,-6.8617344E-2,4.097E1,3.8125E1,2.753806E-1,4.1075E1,2.0886457E-1,4.1165E1,3.831E1,4.0385002E1,4.828E1,9.401894E-3,-5.1916125E-3,9.219074E-2,2.1624185E-2,3.7575E1,4.555E1,3.9510002E1,4.0715E1,3.7085E1,-7.34507E-2,2.3075387E-1,1.2925631E-1,4.334E1,8.259526E-2,4.295E1,4.3824997E1,4.3945E1,4.9394997E1,6.7533016E-2,1.0200139E-1,-1.4211655E-2,-4.941536E-2,1.5711594E-2,3.948784E-3,-8.412552E-3,1.2266923E-2,1.179406E-1,-3.945923E-3,1.7243844E-2,-5.962074E-2,2.0401384E-1,1.1489335E-1,4.78632E-2,1.0261521E-1],"split_indices":[52,56,52,58,48,2,55,57,30,0,0,0,0,20,0,52,10,49,1,0,0,0,0,1,11,55,53,0,0,0,0,0,0,59,1,59,2,0,0,0,0,0,0,0,0,0,0,0,0,0,0,0,0],"split_type":[0,0,0,0,0,0,0,0,0,0,0,0,0,0,0,0,0,0,0,0,0,0,0,0,0,0,0,0,0,0,0,0,0,0,0,0,0,0,0,0,0,0,0,0,0,0,0,0,0,0,0,0,0],"sum_hessian":[6.58E2,4.87E2,1.71E2,4.82E2,5E0,1.1E1,1.6E2,4.64E2,1.8E1,3E0,2E0,4E0,7E0,1.5E2,1E1,4.58E2,6E0,1.1E1,7E0,1E0,1E0,3E0,1E0,3E1,1.2E2,4.52E2,6E0,2E0,4E0,4E0,7E0,2E0,5E0,1.7E1,1.3E1,5.8E1,6.2E1,3.76E2,7.6E1,2E0,4E0,1E0,1E0,1E0,1E0,1.5E1,2E0,9E0,4E0,1.1E1,4.7E1,3.1E1,3.1E1],"tree_param":{"num_deleted":"0","num_feature":"60","num_nodes":"53","size_leaf_vector":"0"}},{"base_weights":[1.955761E-1,1.6170536E-1,2.5520375E-1,2.3960823E-1,1.3522923E-1,2.422187E-1,5.2574235E-1,1.8666092E-1,5.742148E-1,-7.1149063E-3,1.6118453E-1,6.29611E-1,2.342552E-1,7.381449E-1,3.2926342E-1,2.412322E-1,-1.3850798E-1,1.7597453E-1,7.759067E-1,1.2281381E-1,-9.7827844E-2,7.4064445E-1,1.4740445E-1,1.3235563E-1,2.486569E-1,6.9886036E-2,3.6005214E-1,-2.5192022E-2,-2.4822508E-1,4.4257164E-2,2.929395E-1,9.2905915E-1,1.5991528E-1,1.6027005E-1,-7.644272E-2,-1.5533963E-1,3.1483364E-1,8.32061E-1,1.4178085E-1,-9.701449E-2,1.635646E-1,2.4154282E-1,2.172041E-2,3.6214235E-1,2.199707E-1,2.0052887E-1,-5.7381418E-2,3.016475E-1,1.1161041E0,8.320554E-2,-7.519213E-2,-3.0381316E-1,-7.2836556E-2,6.643995E-2,-1.1145592E-2,1.0110836E0,2.1845627E-1,3.084809E-1,7.953659E-2,-1.2432289E-1,3.35989E-2,-9.261858E-2,-3.213114E-1,1.8945694E-1,9.453478E-1,1.520176E-1,-2.1344598E-1,4.250701E-1,1.2285513E-1,3.5516357E-1,6.095287E-2,1.6420822E-1,-3.9459545E-2,2.3340851E-1,5.661569E-1,-2.106196E-2,2.4338807E-1],"categories":[],"categories_nodes":[],"categories_segments":[],"categories_sizes":[],"default_left":[1,1,1,1,1,1,1,1,1,1,1,0,1,0,0,1,1,1,1,1,1,1,1,1,1,1,1,1,1,1,0,1,0,1,1,1,0,1,0,1,1,1,1,1,1,0,0,0,0,0,0,0,0,0,0,0,0,0,0,0,0,0,0,0,0,0,0,0,0,0,0,0,0,0,0,0,0],"id":15,"left_children":[1,3,5,7,9,11,13,15,17,19,21,-1,23,-1,-1,25,27,29,31,33,35,37,39,41,43,45,47,49,51,53,-1,55,-1,57,59,61,-1,63,-1,65,67,69,71,73,75,-1,-1,-1,-1,-1,-1,-1,-1,-1,-1,-1,-1,-1,-1,-1,-1,-1,-1,-1,-1,-1,-1,-1,-1,-1,-1,-1,-1,-1,-1,-1,-1],"loss_changes":[1.289671E0,8.4006405E-1,7.0522594E-1,1.7707677E0,1.1760249E0,5.558901E-1,1.7428207E-1,1.6836867E0,9.879656E-1,6.0132545E-1,2.038794E0,0E0,2.9728222E-1,0E0,0E0,1.6035848E0,1.6780448E-1,7.947324E-2,7.0049477E-1,1.689829E-1,7.60893E-1,2.1050572E-1,1.0586276E0,3.5715204E-1,5.5841064E-1,5.7681036E-1,1.7387061E0,4.961552E-2,4.6117872E-2,5.656461E-3,0E0,1.8712997E-1,0E0,1.9084486E-1,2.5252357E-2,2.5130856E-1,0E0,1.8489003E-1,0E0,5.253656E-1,2.5879245E0,2.861333E-1,1.4595795E-1,8.6587E-1,9.025779E-1,0E0,0E0,0E0,0E0,0E0,0E0,0E0,0E0,0E0,0E0,0E0,0E0,0E0,0E0,0E0,0E0,0E0,0E0,0E0,0E0,0E0,0E0,0E0,0E0,0E0,0E0,0E0,0E0,0E0,0E0,0E0,0E0],"parents":[2147483647,0,0,1,1,2,2,3,3,4,4,5,5,6,6,7,7,8,8,9,9,10,10,12,12,15,15,16,16,17,17,18,18,19,19,20,20,21,21,22,22,23,23,24,24,25,25,26,26,27,27,28,28,29,29,31,31,33,33,34,34,35,35,37,37,39,39,40,40,41,41,42,42,43,43,44,44],"right_children":[2,4,6,8,10,12,14,16,18,20,22,-1,24,-1,-1,26,28,30,32,34,36,38,40,42,44,46,48,50,52,54,-1,56,-1,58,60,62,-1,64,-1,66,68,70,72,74,76,-1,-1,-1,-1,-1,-1,-1,-1,-1,-1,-1,-1,-1,-1,-1,-1,-1,-1,-1,-1,-1,-1,-1,-1,-1,-1,-1,-1,-1,-1,-1,-1],"split_conditions":[4.0275E1,3.1810001E1,5.261E1,3.168E1,3.1885E1,4.0315002E1,5.228E1,3.134E1,3.077E1,3.0925E1,3.189E1,1.8888332E-1,4.0355003E1,2.2144347E-1,9.877903E-2,2.9865E1,3.1305E1,2.9575E1,3.4195E1,3.3260002E1,3.935E1,3.9135002E1,3.3305E1,4.06E1,4.1050003E1,2.9535E1,3.1385E1,2.8369999E1,3.2585E1,3.3655E1,8.7881856E-2,3.4155E1,4.7974586E-2,3.259E1,3.45E1,3.1895E1,9.4450094E-2,3.6145E1,4.253426E-2,3.2184998E1,3.534E1,4.009E1,4.0245E1,3.7645E1,4.1135002E1,6.0158666E-2,-1.7214427E-2,9.049426E-2,3.3483124E-1,2.4961663E-2,-2.255764E-2,-9.114395E-2,-2.1850968E-2,1.9931985E-2,-3.3436776E-3,3.033251E-1,6.553689E-2,9.254427E-2,2.3860978E-2,-3.729687E-2,1.0079671E-2,-2.7785575E-2,-9.639343E-2,5.6837086E-2,2.8360435E-1,4.560528E-2,-6.40338E-2,1.2752104E-1,3.685654E-2,1.0654908E-1,1.8285861E-2,4.9262468E-2,-1.1837864E-2,7.002255E-2,1.6984709E-1,-6.3185883E-3,7.301643E-2],"split_indices":[56,11,21,7,53,56,13,4,15,31,50,0,59,0,0,27,30,55,0,18,0,7,11,57,28,36,5,29,0,0,0,3,0,6,0,51,0,1,0,14,1,10,58,6,20,0,0,0,0,0,0,0,0,0,0,0,0,0,0,0,0,0,0,0,0,0,0,0,0,0,0,0,0,0,0,0,0],"split_type":[0,0,0,0,0,0,0,0,0,0,0,0,0,0,0,0,0,0,0,0,0,0,0,0,0,0,0,0,0,0,0,0,0,0,0,0,0,0,0,0,0,0,0,0,0,0,0,0,0,0,0,0,0,0,0,0,0,0,0,0,0,0,0,0,0,0,0,0,0,0,0,0,0,0,0,0,0],"sum_hessian":[6.58E2,4.22E2,2.36E2,1.05E2,3.17E2,2.27E2,9E0,9.2E1,1.3E1,4.9E1,2.68E2,3E0,2.24E2,3E0,6E0,7.9E1,1.3E1,5E0,8E0,2E1,2.9E1,5E0,2.63E2,2.9E1,1.95E2,3.3E1,4.6E1,7E0,6E0,3E0,2E0,6E0,2E0,1.7E1,3E0,2.6E1,3E0,4E0,1E0,1.6E1,2.47E2,1.4E1,1.5E1,3.7E1,1.58E2,1.6E1,1.7E1,4.4E1,2E0,2E0,5E0,4E0,2E0,2E0,1E0,5E0,1E0,5E0,1.2E1,2E0,1E0,2E1,6E0,1E0,3E0,5E0,1.1E1,3.2E1,2.15E2,8E0,6E0,4E0,1.1E1,2.4E1,1.3E1,1.4E1,1.44E2],"tree_param":{"num_deleted":"0","num_feature":"60","num_nodes":"77","size_leaf_vector":"0"}},{"base_weights":[1.4061336E-1,9.8702624E-2,1.7228678E-1,1.4891304E-1,2.3834657E-2,3.3652347E-1,1.5593562E-1,1.1991529E-1,6.0378534E-1,1.979128E-3,3.186369E-1,3.9360678E-1,-6.1864473E-2,-3.0500475E-1,1.6367956E-1,1.5080307E-1,-1.7136097E-1,7.897982E-1,1.2731647E-1,9.913295E-2,-9.880963E-2,1.0656484E-1,3.7156677E-1,7.845906E-2,4.7240797E-1,1.296444E-1,-1.4215279E-1,-3.4904402E-1,-4.2404175E-2,3.6481476E-1,1.5051483E-1,1.2174363E-1,4.99016E-1,-2.9214516E-1,2.5668008E-2,4.205958E-2,1.9154358E-1,6.342803E-2,7.087771E-1,-1.4827232E-1,8.666579E-2,2.2911835E-1,-2.7628327E-2,3.6364746E-1,7.9121625E-1,1.6155067E-1,6.4951706E-1,6.6326745E-2,1.8193491E-1,2.696196E-1,7.953971E-2,5.06382E-2,5.387899E-1,-1.456713E-1,-4.7543812E-1,9.8947525E-2,-5.402851E-2,-1.7200144E-2,2.9502282E-1,2.4308269E-1,-1.7329165E-1,9.20995E-3,2.3927498E-1,1.5004475E-4,-4.6197254E-2,7.117971E-2,3.938684E-1,8.8002586E-1,2.1798897E-1,-2.2160847E-1,2.513622E-1,1.512065E-1,-7.972151E-2,1.6871443E-1,3.748011E-1],"categories":[],"categories_nodes":[],"categories_segments":[],"categories_sizes":[],"default_left":[1,1,1,1,1,1,1,1,1,1,1,1,1,1,1,1,1,0,1,1,1,0,0,1,1,0,0,0,0,1,1,1,1,1,1,0,0,1,0,1,1,0,1,1,1,1,0,1,1,0,0,0,0,0,0,0,0,0,0,0,0,0,0,0,0,0,0,0,0,0,0,0,0,0,0],"id":16,"left_children":[1,3,5,7,9,11,13,15,17,19,21,23,25,27,29,31,33,-1,35,37,39,-1,-1,41,43,-1,-1,-1,-1,45,47,49,51,53,55,-1,-1,57,-1,59,61,-1,63,65,67,69,-1,71,73,-1,-1,-1,-1,-1,-1,-1,-1,-1,-1,-1,-1,-1,-1,-1,-1,-1,-1,-1,-1,-1,-1,-1,-1,-1,-1],"loss_changes":[8.5778904E-1,1.071568E0,9.518862E-1,2.1831336E0,7.467642E-1,7.748134E-1,1.27069E0,1.4833364E0,7.857392E-1,1.0771247E0,5.020362E-2,6.831217E-1,9.530894E-2,5.4587543E-2,8.3742905E-1,1.4267228E0,3.882665E-1,0E0,1.3846971E-2,1.1740121E0,5.082522E-1,0E0,0E0,1.182115E-1,5.097723E-1,0E0,0E0,0E0,0E0,1.0524652E0,8.291049E-1,8.335643E-1,1.6888785E-1,1.9921857E-1,4.622684E-2,0E0,0E0,1.01342E0,0E0,4.631561E-1,1.3964196E-1,0E0,2.5860046E-3,1.3989878E-1,6.270456E-2,5.0306135E-1,0E0,1.1029499E0,5.2576494E-1,0E0,0E0,0E0,0E0,0E0,0E0,0E0,0E0,0E0,0E0,0E0,0E0,0E0,0E0,0E0,0E0,0E0,0E0,0E0,0E0,0E0,0E0,0E0,0E0,0E0,0E0],"parents":[2147483647,0,0,1,1,2,2,3,3,4,4,5,5,6,6,7,7,8,8,9,9,10,10,11,11,12,12,13,13,14,14,15,15,16,16,18,18,19,19,20,20,23,23,24,24,29,29,30,30,31,31,32,32,33,33,34,34,37,37,39,39,40,40,42,42,43,43,44,44,45,45,47,47,48,48],"right_children":[2,4,6,8,10,12,14,16,18,20,22,24,26,28,30,32,34,-1,36,38,40,-1,-1,42,44,-1,-1,-1,-1,46,48,50,52,54,56,-1,-1,58,-1,60,62,-1,64,66,68,70,-1,72,74,-1,-1,-1,-1,-1,-1,-1,-1,-1,-1,-1,-1,-1,-1,-1,-1,-1,-1,-1,-1,-1,-1,-1,-1,-1,-1],"split_conditions":[3.7545E1,3.5195E1,3.8254997E1,3.6025E1,3.8285E1,3.8675E1,3.7805E1,3.5995E1,3.768E1,3.2964996E1,4.0510002E1,3.729E1,3.4605E1,4.2135002E1,3.707E1,3.3695E1,3.7275E1,2.3693947E-1,3.4485E1,3.7455E1,3.8125E1,3.1969454E-2,1.11470036E-1,3.709E1,4.064E1,3.889332E-2,-4.2645838E-2,-1.0471321E-1,-1.2721253E-2,3.5980003E1,4.0275E1,2.8875E1,2.7165E1,3.7010002E1,3.7965E1,1.2617875E-2,5.7463076E-2,3.2480003E1,2.1263315E-1,3.1815E1,4.0125E1,6.873551E-2,3.457E1,3.48E1,4.065E1,3.438E1,1.9485512E-1,3.9545E1,4.9655E1,8.088589E-2,2.3861913E-2,1.519146E-2,1.6163698E-1,-4.3701388E-2,-1.4263144E-1,2.9684259E-2,-1.6208554E-2,-5.1600435E-3,8.850685E-2,7.292481E-2,-5.19875E-2,2.7629852E-3,7.17825E-2,4.501343E-5,-1.3859177E-2,2.1353913E-2,1.1816052E-1,2.6400778E-1,6.53967E-2,-6.6482544E-2,7.540867E-2,4.536195E-2,-2.3916455E-2,5.061433E-2,1.1244033E-1],"split_indices":[55,0,57,13,48,59,59,40,20,59,0,53,17,7,23,27,40,0,0,25,41,0,0,51,19,0,0,0,0,14,56,46,11,39,40,0,0,59,0,53,5,0,0,19,4,15,0,59,37,0,0,0,0,0,0,0,0,0,0,0,0,0,0,0,0,0,0,0,0,0,0,0,0,0,0],"split_type":[0,0,0,0,0,0,0,0,0,0,0,0,0,0,0,0,0,0,0,0,0,0,0,0,0,0,0,0,0,0,0,0,0,0,0,0,0,0,0,0,0,0,0,0,0,0,0,0,0,0,0,0,0,0,0,0,0,0,0,0,0,0,0,0,0,0,0,0,0,0,0,0,0,0,0],"sum_hessian":[6.58E2,2.85E2,3.73E2,1.7E2,1.15E2,3.2E1,3.41E2,1.61E2,9E0,1.08E2,7E0,2.8E1,4E0,5E0,3.36E2,1.46E2,1.5E1,6E0,3E0,5.5E1,5.3E1,2E0,5E0,6E0,2.2E1,1E0,3E0,4E0,1E0,1.9E1,3.17E2,1.36E2,1E1,9E0,6E0,2E0,1E0,5.3E1,2E0,4.2E1,1.1E1,2E0,4E0,1.8E1,4E0,1.2E1,7E0,8.7E1,2.3E2,2.9E1,1.07E2,1E0,9E0,6E0,3E0,3E0,3E0,4E1,1.3E1,2E0,4E1,8E0,3E0,2E0,2E0,2E0,1.6E1,3E0,1E0,2E0,1E1,5.5E1,3.2E1,2.17E2,1.3E1],"tree_param":{"num_deleted":"0","num_feature":"60","num_nodes":"75","size_leaf_vector":"0"}},{"base_weights":[1.01072475E-1,9.749384E-2,3.2357636E-1,2.527361E-1,9.292535E-2,4.6039504E-1,1.5563138E-1,1.646123E-1,6.384843E-1,-5.6075715E-2,1.01213865E-1,2.0245552E-1,-6.68602E-2,1.0889159E-1,-1.1102302E-1,2.0795739E-1,9.176558E-2,1.2243907E-2,2.3313713E-1,-1.0721207E-1,1.859515E-1,-1.7561758E-1,1.3356178E-1,4.4745472E-1,1.0621681E-1,-9.15319E-2,1.00254565E-1,-1.2796402E-2,3.1162262E-2,2.5101158E-1,1.8259048E-2,-1.3445759E-1,-2.6360512E-2,2.0541191E-1,3.4594536E-2,-2.0180044E-1,1.7401981E-1,1.593235E-1,2.3765564E-3,-4.7257613E-2,6.500654E-1,4.505533E-2,5.6895447E-1,-5.8964174E-2,-4.3657875E-1,4.222996E-2,1.1772943E-1],"categories":[],"categories_nodes":[],"categories_segments":[],"categories_sizes":[],"default_left":[1,1,1,1,1,0,0,1,0,1,1,1,0,1,1,1,1,1,1,1,1,1,1,1,1,1,1,0,0,0,0,0,0,0,0,0,0,0,0,0,0,0,0,0,0,0,0],"id":17,"left_children":[1,3,5,7,9,-1,-1,11,-1,13,15,17,-1,19,21,23,25,27,29,31,33,35,37,39,41,43,45,-1,-1,-1,-1,-1,-1,-1,-1,-1,-1,-1,-1,-1,-1,-1,-1,-1,-1,-1,-1],"loss_changes":[4.9318838E-1,4.3750954E-1,1.5812814E-1,5.0678253E-1,7.8742933E-1,0E0,0E0,1.5369087E-1,0E0,3.2028282E-1,5.860424E-1,7.8849435E-2,0E0,1.698126E-1,4.3422583E-1,1.1220696E0,8.696494E-1,1.8199292E-3,4.1506767E-2,3.0641593E-3,1.3512164E-2,2.2736192E-1,1.9898713E-2,1.4339969E0,9.6492577E-1,2.5519234E-1,5.3141975E-1,0E0,0E0,0E0,0E0,0E0,0E0,0E0,0E0,0E0,0E0,0E0,0E0,0E0,0E0,0E0,0E0,0E0,0E0,0E0,0E0],"parents":[2147483647,0,0,1,1,2,2,3,3,4,4,7,7,9,9,10,10,11,11,13,13,14,14,15,15,16,16,17,17,18,18,19,19,20,20,21,21,22,22,23,23,24,24,25,25,26,26],"right_children":[2,4,6,8,10,-1,-1,12,-1,14,16,18,-1,20,22,24,26,28,30,32,34,36,38,40,42,44,46,-1,-1,-1,-1,-1,-1,-1,-1,-1,-1,-1,-1,-1,-1,-1,-1,-1,-1,-1,-1],"split_conditions":[5.261E1,2.8095001E1,5.1620003E1,2.8575E1,2.9515E1,1.3811852E-1,4.6689413E-2,3.289E1,1.915453E-1,2.826E1,3.16E1,2.6380001E1,-2.005806E-2,2.8075E1,3.384E1,3.0015E1,3.2345E1,2.835E1,2.85E1,2.9005001E1,3.0055E1,3.473E1,2.9349998E1,2.952E1,3.155E1,3.232E1,3.486E1,-3.8389207E-3,9.348679E-3,7.530348E-2,5.477715E-3,-4.033728E-2,-7.908154E-3,6.1623577E-2,1.0378361E-2,-6.0540132E-2,5.2205946E-2,4.779705E-2,7.1296695E-4,-1.4177284E-2,1.9501963E-1,1.3516599E-2,1.7068635E-1,-1.7689252E-2,-1.3097364E-1,1.2668989E-2,3.5318833E-2],"split_indices":[21,2,2,1,2,0,0,56,0,12,1,2,0,5,14,32,4,0,1,0,0,23,2,43,0,4,58,0,0,0,0,0,0,0,0,0,0,0,0,0,0,0,0,0,0,0,0],"split_type":[0,0,0,0,0,0,0,0,0,0,0,0,0,0,0,0,0,0,0,0,0,0,0,0,0,0,0,0,0,0,0,0,0,0,0,0,0,0,0,0,0,0,0,0,0,0,0],"sum_hessian":[6.58E2,6.49E2,9E0,1.7E1,6.32E2,4E0,5E0,1.5E1,2E0,3.3E1,5.99E2,1.3E1,2E0,8E0,2.5E1,4.7E1,5.52E2,2E0,1.1E1,2E0,6E0,2E1,5E0,1.3E1,3.4E1,2.4E1,5.28E2,1E0,1E0,1E1,1E0,1E0,1E0,5E0,1E0,1.9E1,1E0,4E0,1E0,4E0,9E0,3.1E1,3E0,2.3E1,1E0,1.23E2,4.05E2],"tree_param":{"num_deleted":"0","num_feature":"60","num_nodes":"47","size_leaf_vector":"0"}},{"base_weights":[7.191967E-2,4.7448254E-1,7.058678E-2,-3.5521675E-2,7.6246135E-2,1.1857913E-2,-1.684492E-1,2.6908082E-1,7.203227E-2,6.846574E-2,-8.556118E-2,-7.9238415E-2,-1.9984818E-1,1.4528656E-1,6.332995E-1,-3.942836E-2,7.926053E-2,-7.0071794E-2,1.1648281E-1,-2.0418486E-2,-1.4662018E-1,-2.5488535E-2,1.8606864E-1,4.731888E-2,-1.9151783E-1,1.8398482E-1,6.6953525E-2,4.6660104E-3,-1.2145233E-1,7.818187E-2,2.1809196E-1,-3.863907E-2,3.5342216E-2,-3.519249E-2,-3.0403137E-3,4.2081833E-2,1.9880676E-1,-1.0941922E-1,1.5910555E-1,-2.7564022E-1,-9.3971014E-2,1.965149E-2,2.929945E-1,-5.6758948E-2,8.2406506E-2],"categories":[],"categories_nodes":[],"categories_segments":[],"categories_sizes":[],"default_left":[1,0,1,1,1,1,1,1,1,1,1,0,0,1,0,1,1,1,1,1,0,1,1,1,1,1,1,0,0,0,0,0,0,0,0,0,0,0,0,0,0,0,0,0,0],"id":18,"left_children":[1,-1,3,5,7,9,11,13,15,17,19,-1,-1,21,-1,23,25,27,29,31,-1,33,35,37,39,41,43,-1,-1,-1,-1,-1,-1,-1,-1,-1,-1,-1,-1,-1,-1,-1,-1,-1,-1],"loss_changes":[3.2011032E-1,0E0,3.9784145E-1,2.1613117E-1,4.8847914E-1,1.4923976E-1,9.374499E-3,4.941364E-1,4.9699783E-1,1.21248975E-1,3.6781713E-2,0E0,0E0,8.1352815E-2,0E0,5.104094E-1,7.300546E-1,1.9767042E-2,3.3541605E-2,7.4615455E-3,0E0,5.4651324E-4,8.140951E-3,4.5543995E-1,8.897996E-2,1.0690775E0,9.930396E-1,0E0,0E0,0E0,0E0,0E0,0E0,0E0,0E0,0E0,0E0,0E0,0E0,0E0,0E0,0E0,0E0,0E0,0E0],"parents":[2147483647,0,0,2,2,3,3,4,4,5,5,6,6,7,7,8,8,9,9,10,10,13,13,15,15,16,16,17,17,18,18,19,19,21,21,22,22,23,23,24,24,25,25,26,26],"right_children":[2,-1,4,6,8,10,12,14,16,18,20,-1,-1,22,-1,24,26,28,30,32,-1,34,36,38,40,42,44,-1,-1,-1,-1,-1,-1,-1,-1,-1,-1,-1,-1,-1,-1,-1,-1,-1,-1],"split_conditions":[2.6235E1,1.4234477E-1,2.9215E1,2.9125E1,2.854E1,3.175E1,3.0855E1,3.0189999E1,3.1060001E1,2.7189999E1,2.801E1,-2.3771526E-2,-5.9954453E-2,2.8085E1,1.8998986E-1,3.1215E1,3.2575E1,2.74E1,3.427E1,3.752E1,-4.3986056E-2,3.0845001E1,2.7654999E1,2.9135E1,3.021E1,3.1845001E1,3.4385002E1,1.3998032E-3,-3.64357E-2,2.3454562E-2,6.5427594E-2,-1.1591721E-2,1.0602665E-2,-1.0557747E-2,-9.1209414E-4,1.2624551E-2,5.964203E-2,-3.2825768E-2,4.7731668E-2,-8.269207E-2,-2.8191306E-2,5.895447E-3,8.789835E-2,-1.7027685E-2,2.4721952E-2],"split_indices":[56,0,55,57,45,31,18,30,55,12,54,0,0,40,0,51,55,13,7,0,0,0,10,50,56,53,51,0,0,0,0,0,0,0,0,0,0,0,0,0,0,0,0,0,0],"split_type":[0,0,0,0,0,0,0,0,0,0,0,0,0,0,0,0,0,0,0,0,0,0,0,0,0,0,0,0,0,0,0,0,0,0,0,0,0,0,0,0,0,0,0,0,0],"sum_hessian":[6.58E2,1E0,6.57E2,3.3E1,6.24E2,2.5E1,8E0,1.2E1,6.12E2,1.6E1,9E0,3E0,5E0,1E1,2E0,3.7E1,5.75E2,4E0,1.2E1,5E0,4E0,2E0,8E0,2.4E1,1.3E1,5.9E1,5.16E2,2E0,2E0,1E1,2E0,4E0,1E0,1E0,1E0,1E0,7E0,1E1,1.4E1,6E0,7E0,2.4E1,3.5E1,5.7E1,4.59E2],"tree_param":{"num_deleted":"0","num_feature":"60","num_nodes":"45","size_leaf_vector":"0"}},{"base_weights":[5.083439E-2,4.924647E-2,3.8164392E-1,1.7132896E-1,4.5735955E-2,1.08309016E-1,6.213341E-1,-1.5855885E-1,4.8245627E-2,1.4739124E-1,-1.4966583E-2,-4.0649414E-2,-2.2117463E-1,1.6285576E-1,4.4046823E-2,6.579685E-2,1.9016314E-1,3.326543E-2,-5.8209736E-2,2.6885033E-2,2.5492126E-1,-8.902525E-2,5.105917E-2,8.9641094E-2,1.2072246E-2,-4.7097016E-2,8.40559E-2,3.7680164E-1,9.6623555E-2,7.767868E-2,-1.09660625E-1,2.6911646E-1,4.362274E-2],"categories":[],"categories_nodes":[],"categories_segments":[],"categories_sizes":[],"default_left":[1,1,0,1,1,1,0,1,1,1,1,0,0,1,1,1,0,0,0,1,1,1,1,0,0,0,0,0,0,0,0,0,0],"id":19,"left_children":[1,3,-1,5,7,9,-1,11,13,15,17,-1,-1,19,21,23,-1,-1,-1,25,27,29,31,-1,-1,-1,-1,-1,-1,-1,-1,-1,-1],"loss_changes":[3.2737732E-1,2.7373624E-1,0E0,4.4317132E-1,3.357861E-1,8.410999E-2,0E0,5.0073296E-2,2.9744256E-1,3.285718E-2,1.2364895E-2,0E0,0E0,2.6854712E-1,5.756321E-1,6.6039674E-3,0E0,0E0,0E0,4.625496E-2,2.1440601E-1,1.15158245E-1,9.3201303E-1,0E0,0E0,0E0,0E0,0E0,0E0,0E0,0E0,0E0,0E0],"parents":[2147483647,0,0,1,1,3,3,4,4,5,5,7,7,8,8,9,9,10,10,13,13,14,14,15,15,19,19,20,20,21,21,22,22],"right_children":[2,4,-1,6,8,10,-1,12,14,16,18,-1,-1,20,22,24,-1,-1,-1,26,28,30,32,-1,-1,-1,-1,-1,-1,-1,-1,-1,-1],"split_conditions":[5.383E1,2.8095001E1,1.14493184E-1,2.9335E1,2.82E1,3.2645E1,1.8640023E-1,2.844E1,2.9195E1,2.7505001E1,2.739E1,-1.2194824E-2,-6.635239E-2,3.117E1,3.0305E1,2.7970001E1,5.7048943E-2,9.97963E-3,-1.7462922E-2,2.871E1,3.1965E1,2.8465E1,3.13E1,2.6892329E-2,3.621674E-3,-1.4129105E-2,2.5216771E-2,1.130405E-1,2.8987067E-2,2.3303606E-2,-3.2898188E-2,8.073494E-2,1.3086823E-2],"split_indices":[20,2,0,0,5,57,0,2,8,6,2,0,0,41,16,0,0,0,0,30,54,12,13,0,0,0,0,0,0,0,0,0,0],"split_type":[0,0,0,0,0,0,0,0,0,0,0,0,0,0,0,0,0,0,0,0,0,0,0,0,0,0,0,0,0,0,0,0,0],"sum_hessian":[6.58E2,6.56E2,2E0,1.7E1,6.39E2,1.6E1,1E0,7E0,6.32E2,1.2E1,4E0,3E0,4E0,2.1E1,6.11E2,5E0,7E0,2E0,2E0,9E0,1.2E1,3E1,5.81E2,3E0,2E0,4E0,5E0,6E0,6E0,3E0,2.7E1,1.8E1,5.63E2],"tree_param":{"num_deleted":"0","num_feature":"60","num_nodes":"33","size_leaf_vector":"0"}},{"base_weights":[3.6402132E-2,2.9324196E-2,9.460637E-2,3.6138043E-2,-1.3992691E-1,4.9685478E-1,6.9553435E-2,3.1256463E-2,2.0229387E-1,-2.1100998E-1,-4.3199018E-2,6.5440243E-1,1.2105942E-2,2.7887017E-1,4.4799067E-2,2.7942898E-2,3.281339E-1,3.5070077E-1,-3.861509E-2,8.402761E-2,-2.7229205E-1,-6.919534E-2,1.8356324E-3,2.709961E-2,3.1631532E-1,-1.6869672E-1,6.648636E-2,3.938399E-2,-9.460879E-2,3.692085E-1,6.1380386E-2,-2.0267487E-2,4.4597626E-1,-1.21266365E-1,5.3689957E-2,8.664131E-3,-1.27391815E-2,-2.7451834E-2,-2.324562E-1,2.5551453E-1,2.5720358E-2,2.9980727E-2,2.9003927E-1,1.7842007E-1,-1.172794E-1,-4.0994644E-2,1.0593414E-2,5.1171005E-1,-7.080078E-3,2.8394063E-3,1.3069153E-2,-8.089066E-3,-3.3088684E-2,3.09506E-1,9.71508E-2,-9.358215E-2,1.219772E-1],"categories":[],"categories_nodes":[],"categories_segments":[],"categories_sizes":[],"default_left":[1,1,1,1,1,1,1,1,1,1,1,0,0,1,1,1,1,1,1,0,0,0,1,0,0,1,1,1,1,0,0,1,1,0,0,1,0,1,0,1,1,0,0,0,0,0,0,0,0,0,0,0,0,0,0,0,0],"id":20,"left_children":[1,3,5,7,9,11,13,15,17,19,21,-1,-1,23,25,27,29,31,33,-1,-1,-1,35,-1,-1,37,39,41,43,-1,-1,45,47,-1,-1,49,-1,51,-1,53,55,-1,-1,-1,-1,-1,-1,-1,-1,-1,-1,-1,-1,-1,-1,-1,-1],"loss_changes":[2.687112E-1,6.843216E-1,6.809449E-1,4.5357227E-1,1.4902604E-1,2.97562E-1,3.3984908E-1,5.3384626E-1,5.8558315E-1,2.5792676E-1,1.3005106E-2,0E0,0E0,5.742109E-2,2.98285E-1,7.706884E-1,4.307866E-2,3.6248064E-1,5.9914693E-2,0E0,0E0,0E0,6.079944E-4,0E0,0E0,4.7652856E-2,4.3266568E-1,1.1721501E0,3.118423E-1,0E0,0E0,2.3532496E-3,2.4187171E-1,0E0,0E0,6.552352E-5,0E0,5.9778336E-5,0E0,5.5434167E-2,5.626317E-1,0E0,0E0,0E0,0E0,0E0,0E0,0E0,0E0,0E0,0E0,0E0,0E0,0E0,0E0,0E0,0E0],"parents":[2147483647,0,0,1,1,2,2,3,3,4,4,5,5,6,6,7,7,8,8,9,9,10,10,13,13,14,14,15,15,16,16,17,17,18,18,22,22,25,25,26,26,27,27,28,28,31,31,32,32,35,35,37,37,39,39,40,40],"right_children":[2,4,6,8,10,12,14,16,18,20,22,-1,-1,24,26,28,30,32,34,-1,-1,-1,36,-1,-1,38,40,42,44,-1,-1,46,48,-1,-1,50,-1,52,-1,54,56,-1,-1,-1,-1,-1,-1,-1,-1,-1,-1,-1,-1,-1,-1,-1,-1],"split_conditions":[4.567E1,4.461E1,4.3085E1,4.4235E1,4.482E1,4.2465E1,4.5495E1,4.9035E1,4.56E1,4.1565002E1,4.616E1,1.9632074E-1,3.6317827E-3,4.0925E1,4.43E1,4.1955E1,5.0019997E1,4.297E1,4.4879997E1,2.5208285E-2,-8.1687614E-2,-2.0758603E-2,4.4915E1,8.129884E-3,9.48946E-2,4.1515E1,4.404E1,4.1915E1,3.9015E1,1.1076256E-1,1.8414117E-2,3.9684998E1,4.4845E1,-3.637991E-2,1.6106987E-2,4.4775E1,-3.8217546E-3,4.1675E1,-6.973687E-2,4.6335E1,4.96E1,8.994218E-3,8.7011784E-2,5.352602E-2,-3.518382E-2,-1.2298394E-2,3.1780244E-3,1.5351301E-1,-2.1240236E-3,8.518219E-4,3.920746E-3,-2.4267198E-3,-9.926606E-3,9.28518E-2,2.9145243E-2,-2.8074646E-2,3.659316E-2],"split_indices":[50,54,18,49,51,0,45,6,11,4,47,0,0,0,18,42,5,45,44,0,0,0,6,0,0,4,2,40,58,0,0,0,50,0,0,1,0,0,0,58,19,0,0,0,0,0,0,0,0,0,0,0,0,0,0,0,0],"split_type":[0,0,0,0,0,0,0,0,0,0,0,0,0,0,0,0,0,0,0,0,0,0,0,0,0,0,0,0,0,0,0,0,0,0,0,0,0,0,0,0,0,0,0,0,0,0,0,0,0,0,0,0,0,0,0,0,0],"sum_hessian":[6.58E2,5.88E2,7E1,5.66E2,2.2E1,3E0,6.7E1,5.51E2,1.5E1,1.2E1,1E1,2E0,1E0,6E0,6.1E1,5.46E2,5E0,9E0,6E0,2E0,1E1,6E0,4E0,1E0,5E0,5E0,5.6E1,5E2,4.6E1,4E0,1E0,2E0,7E0,3E0,3E0,3E0,1E0,2E0,3E0,9E0,4.7E1,4.83E2,1.7E1,3E0,4.3E1,1E0,1E0,6E0,1E0,2E0,1E0,1E0,1E0,6E0,3E0,2.1E1,2.6E1],"tree_param":{"num_deleted":"0","num_feature":"60","num_nodes":"57","size_leaf_vector":"0"}},{"base_weights":[2.6452908E-2,3.9226913E-1,2.5300803E-2,1.5655844E-2,5.7581186E-2,3.294517E-2,-3.5929233E-2,5.935745E-1,4.270582E-2,2.4581403E-2,2.1058229E-1,-2.4521883E-1,-1.0138072E-2,-1.482029E-1,5.323464E-2,2.978383E-2,-1.4554977E-1,4.491024E-1,1.2739208E-1,-3.2199517E-1,-4.2622376E-2,1.6585033E-1,-6.3413896E-2,-2.7248383E-2,-2.1532592E-1,1.7708416E-1,3.2495093E-2,2.3750965E-2,2.0024395E-1,-2.5937435E-1,4.291458E-2,1.6150093E-1,3.3695985E-2,-1.0083262E-1,-3.6468172E-1,5.630493E-2,-8.1430435E-2,3.7490256E-2,2.66039E-1,-1.0210398E-1,1.194911E-1,-1.1901855E-3,-3.553772E-2,-2.4008179E-1,-5.8151245E-2,2.8053284E-1,1.9476572E-2,-1.8326092E-1,4.722164E-2],"categories":[],"categories_nodes":[],"categories_segments":[],"categories_sizes":[],"default_left":[1,0,1,1,1,1,1,0,1,1,1,1,1,1,1,1,1,0,1,1,1,1,1,1,1,1,1,0,0,0,0,0,0,0,0,0,0,0,0,0,0,0,0,0,0,0,0,0,0],"id":21,"left_children":[1,-1,3,5,7,9,11,-1,13,15,17,19,21,23,25,27,29,-1,31,33,35,37,39,41,43,45,47,-1,-1,-1,-1,-1,-1,-1,-1,-1,-1,-1,-1,-1,-1,-1,-1,-1,-1,-1,-1,-1,-1],"loss_changes":[2.6781666E-1,0E0,2.039622E-1,4.5425433E-1,1.1785887E0,5.608814E-1,6.884351E-1,0E0,3.0537605E-1,3.273947E-1,2.80111E-1,2.0404047E-1,1.0887488E0,5.9083372E-2,3.5641584E-1,3.6031276E-1,2.4710155E-1,0E0,3.9300203E-2,5.763483E-2,2.3780819E-2,3.3725238E-1,6.4201874E-1,8.217243E-4,5.493909E-3,3.2062215E-1,3.9628953E-1,0E0,0E0,0E0,0E0,0E0,0E0,0E0,0E0,0E0,0E0,0E0,0E0,0E0,0E0,0E0,0E0,0E0,0E0,0E0,0E0,0E0,0E0],"parents":[2147483647,0,0,2,2,3,3,4,4,5,5,6,6,8,8,9,9,10,10,11,11,12,12,13,13,14,14,15,15,16,16,18,18,19,19,20,20,21,21,22,22,23,23,24,24,25,25,26,26],"right_children":[2,-1,4,6,8,10,12,-1,14,16,18,20,22,24,26,28,30,-1,32,34,36,38,40,42,44,46,48,-1,-1,-1,-1,-1,-1,-1,-1,-1,-1,-1,-1,-1,-1,-1,-1,-1,-1,-1,-1,-1,-1],"split_conditions":[2.6235E1,1.1768074E-1,4.207E1,3.997E1,4.157E1,4.0434998E1,3.797E1,1.7807236E-1,3.939E1,3.9510002E1,3.8129997E1,4.0894997E1,3.9205E1,3.766E1,4.207E1,3.9765E1,3.963E1,1.3473073E-1,4.0845E1,3.91E1,3.8905E1,3.8425003E1,4.4795E1,3.6355003E1,3.8745003E1,4.25E1,4.133E1,7.1252896E-3,6.0073186E-2,-7.781231E-2,1.2874375E-2,4.845028E-2,1.0108796E-2,-3.0249787E-2,-1.0940452E-1,1.689148E-2,-2.4429131E-2,1.1247077E-2,7.981171E-2,-3.0631194E-2,3.5847332E-2,-3.570557E-4,-1.0661316E-2,-7.202454E-2,-1.7445374E-2,8.415985E-2,5.8429716E-3,-5.4978278E-2,1.4166492E-2],"split_indices":[56,0,46,24,45,32,48,0,24,25,54,23,47,2,32,22,36,0,50,1,0,53,23,0,1,59,11,0,0,0,0,0,0,0,0,0,0,0,0,0,0,0,0,0,0,0,0,0,0],"split_type":[0,0,0,0,0,0,0,0,0,0,0,0,0,0,0,0,0,0,0,0,0,0,0,0,0,0,0,0,0,0,0,0,0,0,0,0,0,0,0,0,0,0,0,0,0,0,0,0,0],"sum_hessian":[6.58E2,1E0,6.57E2,5.07E2,1.5E2,3.8E2,1.27E2,3E0,1.47E2,3.64E2,1.6E1,1.3E1,1.14E2,7E0,1.4E2,3.54E2,1E1,3E0,1.3E1,9E0,4E0,2.6E1,8.8E1,3E0,4E0,1.9E1,1.21E2,3.43E2,1.1E1,6E0,4E0,9E0,4E0,2E0,7E0,1E0,3E0,1.2E1,1.4E1,7.3E1,1.5E1,1E0,2E0,3E0,1E0,1.1E1,8E0,7E0,1.14E2],"tree_param":{"num_deleted":"0","num_feature":"60","num_nodes":"49","size_leaf_vector":"0"}},{"base_weights":[1.9107055E-2,3.3342838E-1,1.8122632E-2,1.6936392E-2,2.7147293E-1,1.1950959E-1,1.4020502E-2,6.535452E-2,5.2007294E-1,-6.912012E-2,1.8517405E-2,1.4016373E-1,2.2503695E-2,-5.065373E-4,-1.1369362E-1,1.6466548E-1,1.4789347E-2,1.5075684E-2,1.6216621E-1,4.41988E-2,-5.7314556E-2,-1.0009352E-1,6.5941066E-2,-1.4594133E-1,-3.295626E-2,2.061685E-2,5.55645E-1,-5.569779E-2,2.224368E-2],"categories":[],"categories_nodes":[],"categories_segments":[],"categories_sizes":[],"default_left":[1,0,1,1,0,1,1,1,0,1,1,1,1,1,1,1,1,0,0,0,0,0,0,0,0,0,0,0,0],"id":22,"left_children":[1,-1,3,5,-1,7,9,11,-1,13,15,17,19,21,23,25,27,-1,-1,-1,-1,-1,-1,-1,-1,-1,-1,-1,-1],"loss_changes":[1.9786838E-1,0E0,1.9315378E-1,1.9452892E-1,0E0,3.5647658E-1,2.4018626E-1,5.1341616E-2,0E0,1.0086788E-1,3.2828775E-1,1.406873E-2,2.3313217E-2,9.924272E-2,4.726222E-2,8.333453E-1,3.128217E-1,0E0,0E0,0E0,0E0,0E0,0E0,0E0,0E0,0E0,0E0,0E0,0E0],"parents":[2147483647,0,0,2,2,3,3,5,5,6,6,7,7,9,9,10,10,11,11,12,12,13,13,14,14,15,15,16,16],"right_children":[2,-1,4,6,-1,8,10,12,-1,14,16,18,20,22,24,26,28,-1,-1,-1,-1,-1,-1,-1,-1,-1,-1,-1,-1],"split_conditions":[2.6235E1,1.0002852E-1,5.383E1,2.8095001E1,8.144188E-2,2.9335E1,2.9305E1,2.7345001E1,1.560219E-1,2.955E1,2.9404999E1,2.6720001E1,3.289E1,2.8475E1,3.155E1,2.9154999E1,3.1885E1,4.5227055E-3,4.8649866E-2,1.3259641E-2,-1.7194368E-2,-3.0028058E-2,1.978232E-2,-4.37824E-2,-9.886879E-3,6.1850552E-3,1.6669351E-1,-1.6709339E-2,6.6731046E-3],"split_indices":[56,0,20,2,0,0,50,4,0,34,47,0,56,53,35,47,42,0,0,0,0,0,0,0,0,0,0,0,0],"split_type":[0,0,0,0,0,0,0,0,0,0,0,0,0,0,0,0,0,0,0,0,0,0,0,0,0,0,0,0,0],"sum_hessian":[6.58E2,1E0,6.57E2,6.55E2,2E0,1.7E1,6.38E2,1.6E1,1E0,3.2E1,6.06E2,5E0,1.1E1,1.3E1,1.9E1,1.4E1,5.92E2,1E0,4E0,9E0,2E0,5E0,8E0,1.3E1,6E0,1.1E1,3E0,5.6E1,5.36E2],"tree_param":{"num_deleted":"0","num_feature":"60","num_nodes":"29","size_leaf_vector":"0"}},{"base_weights":[1.4112805E-2,3.903166E-2,-1.6014009E-4,2.7688647E-2,4.1263634E-1,-9.8290026E-2,1.1877554E-2,2.2108234E-2,4.5001093E-1,6.821289E-1,3.9984703E-2,-5.0103585E-3,-2.7287626E-1,4.1568804E-1,3.0667887E-3,3.279795E-2,-9.2842676E-2,8.717092E-2,-5.0786972E-2,-1.00917436E-1,3.3823067E-1,-3.1287003E-1,1.6351509E-1,8.871206E-2,5.0989467E-1,-1.6878618E-1,9.83545E-3,8.84665E-3,1.9746816E-1,-3.4435716E-1,1.3952637E-2,-1.5818024E-1,7.947922E-4,6.224928E-1,-3.0589104E-2,-3.4932503E-1,-5.060832E-2,5.353775E-2,-2.6306954E-1,1.5863419E-1,2.8042288E-3,3.13298E-2,-1.255472E-1,3.9240032E-1,9.473881E-2,-4.402008E-1,-1.0177994E-1,-4.895096E-2,1.1646652E-1,-5.4877144E-3,-2.4924698E-1,-1.1593552E-1,9.7937584E-2,-1.3217545E-1,4.7331493E-2,-3.6456728E-1,-8.320904E-2,-6.022072E-2,-1.5691757E-2,8.182653E-2,7.4030557E-3,-3.2922092E-1,-8.153725E-2,-7.35906E-2,2.7088097E-1,-8.843575E-2,1.8471563E-2],"categories":[],"categories_nodes":[],"categories_segments":[],"categories_sizes":[],"default_left":[1,1,1,1,1,1,1,1,0,0,1,1,1,1,1,1,1,0,0,1,1,1,0,0,0,1,1,1,1,1,1,1,1,0,1,1,1,1,1,1,1,0,0,0,0,0,0,0,0,0,0,0,0,0,0,0,0,0,0,0,0,0,0,0,0,0,0],"id":23,"left_children":[1,3,5,7,9,11,13,15,-1,-1,17,19,21,23,25,27,29,-1,-1,31,33,35,-1,-1,-1,37,39,41,43,45,47,49,51,-1,53,55,57,59,61,63,65,-1,-1,-1,-1,-1,-1,-1,-1,-1,-1,-1,-1,-1,-1,-1,-1,-1,-1,-1,-1,-1,-1,-1,-1,-1,-1],"loss_changes":[2.3438975E-1,1.0056471E0,4.972956E-1,5.415264E-1,6.757132E-1,7.477587E-1,1.3329298E0,2.8812498E-1,0E0,0E0,2.1559834E-2,1.05463E0,3.3040595E-1,2.0119274E-1,4.2972305E-1,8.3833903E-1,5.420161E-1,0E0,0E0,1.457339E-1,7.5293195E-1,1.2573254E-1,0E0,0E0,0E0,3.075444E-1,3.7096924E-1,5.6897205E-1,5.035063E-1,9.46933E-2,1.02428526E-1,2.2111559E-1,1.2474953E-1,0E0,3.7918735E-2,2.2395372E-2,6.19269E-5,5.919705E-3,9.324229E-2,4.36998E-1,4.8765922E-1,0E0,0E0,0E0,0E0,0E0,0E0,0E0,0E0,0E0,0E0,0E0,0E0,0E0,0E0,0E0,0E0,0E0,0E0,0E0,0E0,0E0,0E0,0E0,0E0,0E0,0E0],"parents":[2147483647,0,0,1,1,2,2,3,3,4,4,5,5,6,6,7,7,10,10,11,11,12,12,13,13,14,14,15,15,16,16,19,19,20,20,21,21,25,25,26,26,27,27,28,28,29,29,30,30,31,31,32,32,34,34,35,35,36,36,37,37,38,38,39,39,40,40],"right_children":[2,4,6,8,10,12,14,16,-1,-1,18,20,22,24,26,28,30,-1,-1,32,34,36,-1,-1,-1,38,40,42,44,46,48,50,52,-1,54,56,58,60,62,64,66,-1,-1,-1,-1,-1,-1,-1,-1,-1,-1,-1,-1,-1,-1,-1,-1,-1,-1,-1,-1,-1,-1,-1,-1,-1,-1],"split_conditions":[3.72E1,3.7395E1,3.735E1,3.922E1,3.6965E1,3.522E1,3.7355E1,3.74E1,1.3500328E-1,2.0463867E-1,3.7315E1,3.4385002E1,3.8699997E1,3.7325E1,3.4434998E1,3.5165E1,3.4935E1,2.6151277E-2,-1.5236092E-2,3.8235E1,3.4760002E1,3.7775E1,4.905453E-2,2.661362E-2,1.529684E-1,3.388E1,3.7760002E1,3.4165E1,3.4644997E1,3.4715E1,4.1425E1,2.844E1,3.4905E1,1.8674785E-1,3.77E1,4.0105E1,3.9925E1,3.7645E1,4.075E1,4.029E1,3.9239998E1,9.39894E-3,-3.766416E-2,1.17720105E-1,2.8421644E-2,-1.3206024E-1,-3.0533982E-2,-1.4685288E-2,3.493996E-2,-1.6463144E-3,-7.47741E-2,-3.478066E-2,2.9381277E-2,-3.9652634E-2,1.4199449E-2,-1.0937019E-1,-2.4962712E-2,-1.8066216E-2,-4.7075273E-3,2.454796E-2,2.2209168E-3,-9.876628E-2,-2.4461174E-2,-2.207718E-2,8.1264295E-2,-2.6530726E-2,5.541469E-3],"split_indices":[7,10,26,0,9,39,23,29,0,0,1,41,42,19,56,26,6,0,0,5,40,32,0,0,0,59,37,23,9,5,59,59,30,0,0,9,0,26,0,1,35,0,0,0,0,0,0,0,0,0,0,0,0,0,0,0,0,0,0,0,0,0,0,0,0,0,0],"split_type":[0,0,0,0,0,0,0,0,0,0,0,0,0,0,0,0,0,0,0,0,0,0,0,0,0,0,0,0,0,0,0,0,0,0,0,0,0,0,0,0,0,0,0,0,0,0,0,0,0,0,0,0,0,0,0,0,0,0,0,0,0,0,0,0,0,0,0],"sum_hessian":[6.58E2,2.39E2,4.19E2,2.33E2,6E0,4.5E1,3.74E2,2.31E2,2E0,3E0,3E0,3E1,1.5E1,7E0,3.67E2,2.12E2,1.9E1,2E0,1E0,2.4E1,6E0,1.4E1,1E0,2E0,5E0,1.3E1,3.54E2,1.86E2,2.6E1,5E0,1.4E1,1.5E1,9E0,3E0,3E0,1.2E1,2E0,4E0,9E0,1.5E1,3.39E2,1.6E2,2.6E1,8E0,1.8E1,3E0,2E0,9E0,5E0,6E0,9E0,4E0,5E0,1E0,2E0,1.1E1,1E0,1E0,1E0,2E0,2E0,6E0,3E0,5E0,1E1,4.9E1,2.9E2],"tree_param":{"num_deleted":"0","num_feature":"60","num_nodes":"67","size_leaf_vector":"0"}},{"base_weights":[1.0513807E-2,2.7871418E-1,9.682629E-3,-5.2172154E-2,1.3032038E-2,-1.7382255E-2,-1.468794E-1,1.0863089E-1,9.364035E-3,2.250806E-2,-8.345757E-2,-2.7830759E-2,-1.7691748E-1,4.2508975E-2,2.8889146E-1,-7.3342085E-2,1.397458E-2,-1.4652839E-2,1.1462478E-1,-9.621535E-2,1.5681267E-2,1.0140495E-1,-2.7654223E-2,4.4636488E-1,-1.7370224E-2,-1.0569618E-2,-1.7708206E-1,8.537915E-2,5.5959267E-3,4.7738265E-2,-4.7686473E-2,2.6062965E-2,1.302495E-1,-1.0937582E-1,-3.343582E-2,3.525384E-2,1.605053E-1,-4.9945287E-2,3.357633E-2,-6.290817E-2,3.6852837E-2,-9.404831E-2,5.987676E-2,-2.1744633E-1,1.6492844E-2,-1.819725E-2,1.5493557E-1,-7.489033E-2,1.4256954E-2],"categories":[],"categories_nodes":[],"categories_segments":[],"categories_sizes":[],"default_left":[1,0,1,1,1,1,1,1,1,1,1,0,0,1,1,1,1,1,1,1,0,1,1,0,1,1,1,1,1,0,0,0,0,0,0,0,0,0,0,0,0,0,0,0,0,0,0,0,0],"id":24,"left_children":[1,-1,3,5,7,9,11,13,15,17,19,-1,-1,21,23,25,27,29,31,33,-1,35,37,-1,39,41,43,45,47,-1,-1,-1,-1,-1,-1,-1,-1,-1,-1,-1,-1,-1,-1,-1,-1,-1,-1,-1,-1],"loss_changes":[1.4420691E-1,0E0,1.3700232E-1,1.0947201E-1,2.1814328E-1,7.040835E-2,2.7260184E-2,2.6186058E-1,2.3096105E-1,5.9872963E-2,1.4156707E-2,0E0,0E0,7.718621E-2,2.9712188E-1,2.0651275E-1,3.4173506E-1,2.9069532E-2,3.52408E-3,3.7788004E-3,0E0,3.343711E-2,1.3961025E-2,0E0,9.725966E-3,1.291275E-1,9.734842E-2,4.3508363E-1,3.5867676E-1,0E0,0E0,0E0,0E0,0E0,0E0,0E0,0E0,0E0,0E0,0E0,0E0,0E0,0E0,0E0,0E0,0E0,0E0,0E0,0E0],"parents":[2147483647,0,0,2,2,3,3,4,4,5,5,6,6,7,7,8,8,9,9,10,10,13,13,14,14,15,15,16,16,17,17,18,18,19,19,21,21,22,22,24,24,25,25,26,26,27,27,28,28],"right_children":[2,-1,4,6,8,10,12,14,16,18,20,-1,-1,22,24,26,28,30,32,34,-1,36,38,-1,40,42,44,46,48,-1,-1,-1,-1,-1,-1,-1,-1,-1,-1,-1,-1,-1,-1,-1,-1,-1,-1,-1,-1],"split_conditions":[2.6235E1,8.361426E-2,2.9215E1,2.9125E1,2.9404999E1,3.175E1,3.0855E1,3.017E1,3.1060001E1,3.136E1,3.7695E1,-8.349228E-3,-5.3075247E-2,2.996E1,3.1455E1,3.1314999E1,3.259E1,2.8169998E1,3.252E1,3.295E1,4.7043804E-3,2.8130001E1,2.9675E1,1.3390946E-1,3.1375E1,2.936E1,3.375E1,3.1845001E1,3.425E1,1.432148E-2,-1.4305943E-2,7.81889E-3,3.9074853E-2,-3.2812748E-2,-1.0030746E-2,1.0576153E-2,4.815159E-2,-1.4983587E-2,1.0072899E-2,-1.8872453E-2,1.1055851E-2,-2.8214494E-2,1.7963028E-2,-6.52339E-2,4.9478533E-3,-5.459175E-3,4.648067E-2,-2.24671E-2,4.2770864E-3],"split_indices":[56,0,55,57,45,31,8,38,55,30,0,0,0,24,1,50,55,50,0,30,0,46,41,0,0,50,45,53,51,0,0,0,0,0,0,0,0,0,0,0,0,0,0,0,0,0,0,0,0],"split_type":[0,0,0,0,0,0,0,0,0,0,0,0,0,0,0,0,0,0,0,0,0,0,0,0,0,0,0,0,0,0,0,0,0,0,0,0,0,0,0,0,0,0,0,0,0,0,0,0,0],"sum_hessian":[6.58E2,1E0,6.57E2,3.3E1,6.24E2,2.5E1,8E0,2.2E1,6.02E2,1.6E1,9E0,2E0,6E0,1.7E1,5E0,3.1E1,5.71E2,1.2E1,4E0,8E0,1E0,9E0,8E0,3E0,2E0,2E1,1.1E1,5.9E1,5.12E2,4E0,8E0,1E0,3E0,6E0,2E0,5E0,4E0,6E0,2E0,1E0,1E0,9E0,1.1E1,9E0,2E0,2.4E1,3.5E1,4.9E1,4.63E2],"tree_param":{"num_deleted":"0","num_feature":"60","num_nodes":"49","size_leaf_vector":"0"}},{"base_weights":[7.6078377E-3,2.3496073E-2,-6.147552E-3,6.8231584E-3,1.152293E-1,-3.3878002E-2,2.768736E-2,2.118816E-2,-1.0833214E-1,2.2320598E-1,1.1281585E-2,-3.8987435E-2,4.7867584E-1,3.4186783E-1,6.697345E-3,8.354803E-3,2.367382E-1,-1.484787E-1,1.1406708E-1,2.3447884E-2,3.2818043E-1,-1.21240996E-1,9.34031E-2,-2.9208757E-2,-2.3674816E-1,4.4757843E-2,4.105506E-1,2.4638812E-1,-3.1988327E-3,2.4573335E-2,-1.084878E-1,5.264282E-4,3.4166273E-1,-6.394577E-2,-2.9165438E-1,2.1353722E-1,3.581524E-2,1.2314148E-1,-8.0935284E-2,4.196087E-1,6.140213E-2,-7.7400208E-3,-1.4864874E-1,1.591561E-1,-4.2711258E-2,-5.5850994E-2,7.264406E-2,-3.6250368E-1,1.1072159E-2,-3.3272934E-1,3.6886004E-3,6.4073247E-3,2.4092725E-1,-1.4108819E-1,1.9934464E-1,5.4211933E-2,-5.3334553E-2,2.209865E-1,5.09353E-1,6.639589E-2,-1.4107722E-1,-3.6572725E-1,-1.5925065E-1,4.9817402E-2,-3.0956268E-3,2.9384613E-2,1.3923454E-1,-1.0055971E-1,-1.2187958E-3,8.501434E-2,4.4456673E-1,-9.256363E-3,8.1380844E-2,-1.499176E-3,-1.0110855E-2,-2.3536682E-2,-1.8642998E-1,4.5194626E-2,2.4659157E-1,5.238533E-2,-7.2207645E-2,8.964569E-3,-1.0139943E-1,4.1575527E-1,3.2502703E-2,2.837499E-2,-2.0418167E-2,2.0306167E-1,-1.1107098E-2],"categories":[],"categories_nodes":[],"categories_segments":[],"categories_sizes":[],"default_left":[1,1,1,1,1,1,1,1,1,1,1,1,0,1,1,1,1,1,1,1,1,1,1,1,1,0,0,0,1,1,1,1,1,1,1,0,1,1,1,1,1,1,1,1,1,1,1,0,1,0,1,0,0,0,0,0,0,0,0,0,0,0,0,0,0,0,0,0,0,0,0,0,0,0,0,0,0,0,0,0,0,0,0,0,0,0,0,0,0],"id":25,"left_children":[1,3,5,7,9,11,13,15,17,19,21,23,-1,25,27,29,31,33,35,37,39,41,43,45,47,-1,-1,-1,49,51,53,55,57,59,61,-1,63,65,67,69,71,73,75,77,79,81,83,-1,85,-1,87,-1,-1,-1,-1,-1,-1,-1,-1,-1,-1,-1,-1,-1,-1,-1,-1,-1,-1,-1,-1,-1,-1,-1,-1,-1,-1,-1,-1,-1,-1,-1,-1,-1,-1,-1,-1,-1,-1],"loss_changes":[1.4416814E-1,4.6722865E-1,3.330811E-1,4.3238893E-1,5.2500653E-1,5.293398E-1,1.0528548E0,6.397877E-1,2.758649E-1,4.746033E-1,2.8339818E-1,3.6824948E-1,0E0,1.8568802E-1,3.5896355E-1,4.1956934E-1,3.220175E-1,2.8392637E-1,3.127072E-2,1.03623495E-1,3.4010148E-1,2.9957503E-2,1.499966E-1,5.087845E-1,2.8449667E-1,0E0,0E0,0E0,3.325917E-1,7.609321E-1,2.9908243E-1,1.7349139E-2,6.956589E-2,1.8027544E-1,3.0025423E-2,0E0,2.3335614E-3,3.4528226E-3,7.6993927E-3,5.4064274E-2,7.811617E-3,2.9230068E-5,3.3427164E-2,9.84624E-2,2.0612653E-2,4.3784165E-1,5.236319E-1,0E0,2.7588527E-3,0E0,4.2703584E-1,0E0,0E0,0E0,0E0,0E0,0E0,0E0,0E0,0E0,0E0,0E0,0E0,0E0,0E0,0E0,0E0,0E0,0E0,0E0,0E0,0E0,0E0,0E0,0E0,0E0,0E0,0E0,0E0,0E0,0E0,0E0,0E0,0E0,0E0,0E0,0E0,0E0,0E0],"parents":[2147483647,0,0,1,1,2,2,3,3,4,4,5,5,6,6,7,7,8,8,9,9,10,10,11,11,13,13,14,14,15,15,16,16,17,17,18,18,19,19,20,20,21,21,22,22,23,23,24,24,28,28,29,29,30,30,31,31,32,32,33,33,34,34,36,36,37,37,38,38,39,39,40,40,41,41,42,42,43,43,44,44,45,45,46,46,48,48,50,50],"right_children":[2,4,6,8,10,12,14,16,18,20,22,24,-1,26,28,30,32,34,36,38,40,42,44,46,48,-1,-1,-1,50,52,54,56,58,60,62,-1,64,66,68,70,72,74,76,78,80,82,84,-1,86,-1,88,-1,-1,-1,-1,-1,-1,-1,-1,-1,-1,-1,-1,-1,-1,-1,-1,-1,-1,-1,-1,-1,-1,-1,-1,-1,-1,-1,-1,-1,-1,-1,-1,-1,-1,-1,-1,-1,-1],"split_conditions":[3.8515E1,3.7525E1,4.218E1,3.6870003E1,3.8105003E1,4.558E1,4.2010002E1,3.5515E1,3.829E1,3.7260002E1,3.7325E1,4.2870003E1,1.4360276E-1,3.8105003E1,3.912E1,3.521E1,3.549E1,3.6315002E1,3.8045E1,3.7440002E1,3.8355E1,3.796E1,3.871E1,4.2690002E1,4.3895E1,1.3427353E-2,1.2316518E-1,7.391644E-2,3.9135002E1,3.483E1,3.5465E1,3.4705E1,3.6585E1,3.45E1,3.859E1,6.4061165E-2,3.9955E1,3.7214996E1,4.0004997E1,3.7565002E1,3.5225E1,4.086E1,3.8059998E1,3.7515E1,3.6760002E1,3.954E1,4.1745E1,-1.0875111E-1,4.5105003E1,-9.98188E-2,4.1434998E1,1.9221975E-3,7.227818E-2,-4.2326458E-2,5.9803393E-2,1.626358E-2,-1.6000366E-2,6.629595E-2,1.528059E-1,1.991877E-2,-4.232317E-2,-1.0971818E-1,-4.7775198E-2,1.4945221E-2,-9.286881E-4,8.8153845E-3,4.1770365E-2,-3.0167915E-2,-3.6563876E-4,2.5504304E-2,1.3337003E-1,-2.776909E-3,2.4414254E-2,-4.497528E-4,-3.0332566E-3,-7.061005E-3,-5.5928994E-2,1.3558389E-2,7.397747E-2,1.5715599E-2,-2.1662295E-2,2.689371E-3,-3.041983E-2,1.24726586E-1,9.750811E-3,8.512498E-3,-6.1254506E-3,6.0918503E-2,-3.3321297E-3],"split_indices":[19,20,26,27,21,13,25,26,8,29,34,23,0,0,52,19,22,8,1,18,24,20,15,0,22,0,0,0,51,27,31,17,7,1,37,0,1,12,2,20,0,0,12,8,2,27,3,0,9,0,0,0,0,0,0,0,0,0,0,0,0,0,0,0,0,0,0,0,0,0,0,0,0,0,0,0,0,0,0,0,0,0,0,0,0,0,0,0,0],"split_type":[0,0,0,0,0,0,0,0,0,0,0,0,0,0,0,0,0,0,0,0,0,0,0,0,0,0,0,0,0,0,0,0,0,0,0,0,0,0,0,0,0,0,0,0,0,0,0,0,0,0,0,0,0,0,0,0,0,0,0,0,0,0,0,0,0,0,0,0,0,0,0,0,0,0,0,0,0,0,0,0,0,0,0,0,0,0,0,0,0],"sum_hessian":[6.58E2,3.05E2,3.53E2,2.59E2,4.6E1,1.94E2,1.59E2,2.31E2,2.8E1,2.2E1,2.4E1,1.93E2,1E0,9E0,1.5E2,2.19E2,1.2E1,2.4E1,4E0,8E0,1.4E1,9E0,1.5E1,1.85E2,8E0,2E0,7E0,5E0,1.45E2,1.93E2,2.6E1,4E0,8E0,1.6E1,8E0,1E0,3E0,4E0,4E0,1E1,4E0,2E0,7E0,1E1,5E0,1.47E2,3.8E1,5E0,3E0,2E0,1.43E2,1.79E2,1.4E1,2.4E1,2E0,2E0,2E0,6E0,2E0,6E0,1E1,4E0,4E0,2E0,1E0,1E0,3E0,3E0,1E0,1E0,9E0,1E0,3E0,1E0,1E0,2E0,5E0,5E0,5E0,1E0,4E0,6.1E1,8.6E1,3E0,3.5E1,2E0,1E0,9E0,1.34E2],"tree_param":{"num_deleted":"0","num_feature":"60","num_nodes":"89","size_leaf_vector":"0"}},{"base_weights":[6.4434693E-3,4.6417117E-3,1.2291336E-1,8.63334E-3,-1.0454891E-1,3.5196304E-2,2.0359115E-1,5.8299326E-3,2.251687E-1,-3.0566177E-1,-4.61219E-2,4.523163E-2,-7.490158E-3,1.0921895E-2,-7.721785E-2,1.3978958E-2,2.5334167E-1,4.5215607E-2,-1.16659686E-1,5.7825083E-3,1.489205E-1,-1.1042772E-1,5.2820206E-2,-8.17248E-2,9.3159266E-2,-2.6189532E-2,-2.1998596E-1,2.8729055E-3,1.6726914E-1,4.651863E-1,4.714113E-2,-2.9142094E-1,-7.83354E-2,9.868908E-2,5.561066E-3,1.10853575E-1,3.261566E-2,2.6233673E-2,-7.206535E-2],"categories":[],"categories_nodes":[],"categories_segments":[],"categories_sizes":[],"default_left":[1,1,1,1,1,1,0,1,1,0,1,0,0,1,1,0,0,1,1,1,1,1,1,0,1,1,0,0,0,0,0,0,0,0,0,0,0,0,0],"id":26,"left_children":[1,3,5,7,9,11,-1,13,15,-1,17,-1,-1,19,21,-1,-1,23,25,27,29,31,33,-1,35,37,-1,-1,-1,-1,-1,-1,-1,-1,-1,-1,-1,-1,-1],"loss_changes":[1.3772096E-1,2.8420407E-1,6.360254E-2,3.7990648E-1,2.5616202E-1,2.9090266E-3,0E0,2.6344946E-1,4.405731E-2,0E0,1.27687E-1,0E0,0E0,4.1474664E-1,1.6130054E-1,0E0,0E0,6.2387317E-2,9.706606E-2,2.654613E-1,6.540467E-1,1.4561778E-1,1.6792968E-2,0E0,3.8833767E-3,1.8725242E-2,0E0,0E0,0E0,0E0,0E0,0E0,0E0,0E0,0E0,0E0,0E0,0E0,0E0],"parents":[2147483647,0,0,1,1,2,2,3,3,4,4,5,5,7,7,8,8,10,10,13,13,14,14,17,17,18,18,19,19,20,20,21,21,22,22,24,24,25,25],"right_children":[2,4,6,8,10,12,-1,14,16,-1,18,-1,-1,20,22,-1,-1,24,26,28,30,32,34,-1,36,38,-1,-1,-1,-1,-1,-1,-1,-1,-1,-1,-1,-1,-1],"split_conditions":[4.9545E1,4.96E1,5.2395E1,4.971E1,4.9225E1,5.1805E1,6.107735E-2,4.6239998E1,4.8105003E1,-9.1698535E-2,5.167E1,1.3569489E-2,-2.2470476E-3,4.5975E1,4.9565002E1,4.193688E-3,7.600251E-2,4.964E1,4.9595E1,4.6555E1,4.5699997E1,4.4845E1,4.9684998E1,-2.4517441E-2,5.154E1,5.2335E1,-6.599579E-2,8.618717E-4,5.0180744E-2,1.395559E-1,1.414234E-2,-8.742628E-2,-2.350062E-2,2.9606724E-2,1.6683198E-3,3.3256073E-2,9.7846985E-3,7.870102E-3,-2.1619607E-2],"split_indices":[55,14,26,3,6,0,0,18,19,0,8,0,0,45,1,0,0,7,35,11,53,31,1,0,6,2,0,0,0,0,0,0,0,0,0,0,0,0,0],"split_type":[0,0,0,0,0,0,0,0,0,0,0,0,0,0,0,0,0,0,0,0,0,0,0,0,0,0,0,0,0,0,0,0,0,0,0,0,0,0,0],"sum_hessian":[6.58E2,6.49E2,9E0,6.27E2,2.2E1,5E0,4E0,6.2E2,7E0,4E0,1.8E1,4E0,1E0,5.85E2,3.5E1,1E0,6E0,8E0,1E1,5.65E2,2E1,2.8E1,7E0,2E0,6E0,6E0,4E0,5.56E2,9E0,4E0,1.6E1,3E0,2.5E1,3E0,4E0,4E0,2E0,3E0,3E0],"tree_param":{"num_deleted":"0","num_feature":"60","num_nodes":"39","size_leaf_vector":"0"}},{"base_weights":[4.699591E-3,1.7304713E-2,-9.72152E-3,6.6017793E-3,2.0454025E-1,-1.2404025E-1,1.2583631E-3,-1.9527222E-4,1.7445168E-1,3.6633968E-1,7.9628944E-2,2.9870987E-2,-2.3172116E-1,-3.7649594E-2,2.3857074E-2,8.526872E-3,-1.2561871E-1,2.4822274E-1,-5.3588867E-2,4.8321E-1,1.2866688E-1,-3.0848911E-2,1.9524829E-1,1.8298994E-1,-1.5374629E-1,-2.7625626E-1,-2.905178E-2,-4.911667E-3,-1.308314E-1,1.9544856E-1,8.11326E-3,1.7326862E-3,1.2232747E-1,-3.2974625E-1,-5.8191862E-2,3.360475E-1,9.318848E-2,-9.739685E-2,-6.5205893E-3,5.518627E-2,-1.0917187E-1,2.386879E-1,-1.0974884E-2,7.899284E-3,3.123331E-1,-1.4550336E-1,-3.397889E-1,-6.958262E-2,4.627037E-2,-1.4198805E-2,2.3199971E-1,1.7254965E-2,-1.7396346E-1,3.7635803E-2,3.2883024E-1,-1.7554691E-1,1.6147902E-2,1.7666347E-2,-7.2033525E-2,1.988628E-1,-1.0112991E-1,-3.7665176E-1,-7.106209E-2,-8.870844E-2,3.278961E-2,-1.8709183E-2,1.2584019E-1,9.09996E-3,-1.8880844E-2,7.6994576E-2,-5.1193237E-3,-1.5780067E-1,-4.036204E-2,5.325826E-2,-6.408882E-2,2.3066951E-2,-8.675091E-2,2.9102707E-1,5.6972504E-2,-1.18948616E-1,9.552612E-2,-2.4579214E-1,4.8070634E-3,1.3265705E-1,-4.5908354E-2,3.6444473E-1,3.9764404E-2,2.266407E-2,-3.2987118E-1,9.344601E-2,-1.0871596E-3],"categories":[],"categories_nodes":[],"categories_segments":[],"categories_sizes":[],"default_left":[1,1,1,1,1,1,1,1,1,1,1,1,1,1,1,1,1,1,1,0,0,1,1,1,0,1,1,1,1,1,1,1,1,1,1,0,1,0,1,1,1,0,0,1,0,0,0,0,0,1,1,1,1,1,1,1,1,0,0,0,0,0,0,0,0,0,0,0,0,0,0,0,0,0,0,0,0,0,0,0,0,0,0,0,0,0,0,0,0,0,0],"id":27,"left_children":[1,3,5,7,9,11,13,15,17,19,21,23,25,27,29,31,33,35,37,-1,-1,39,41,43,-1,45,47,49,51,53,55,57,59,61,63,-1,65,-1,67,69,71,-1,-1,73,-1,-1,-1,-1,-1,75,77,79,81,83,85,87,89,-1,-1,-1,-1,-1,-1,-1,-1,-1,-1,-1,-1,-1,-1,-1,-1,-1,-1,-1,-1,-1,-1,-1,-1,-1,-1,-1,-1,-1,-1,-1,-1,-1,-1],"loss_changes":[1.19961165E-1,7.0404696E-1,3.8675964E-1,3.8108945E-1,3.548298E-1,4.5440093E-1,2.4885227E-1,3.5332665E-1,2.3199826E-1,1.6004205E-1,1.5930372E-1,3.6551744E-1,1.3638866E-1,3.1661767E-1,4.8198357E-1,2.3328911E-1,2.6984864E-1,1.0484266E-1,7.6127797E-3,0E0,0E0,5.3194497E-2,5.6369096E-2,1.5606026E-1,0E0,5.855161E-2,1.5431093E-2,1.7491196E-1,1.7545801E-1,3.0336416E-1,2.4631593E-1,3.3742723E-1,3.1085157E-1,3.3902943E-2,5.010825E-2,0E0,2.0622615E-2,0E0,7.5103686E-4,5.654812E-3,7.0154034E-3,0E0,0E0,1.6474485E-2,0E0,0E0,0E0,0E0,0E0,2.0748296E-1,1.441364E-2,8.598839E-2,2.708394E-1,6.9597825E-2,6.786752E-2,2.2159755E-1,2.1192735E-1,0E0,0E0,0E0,0E0,0E0,0E0,0E0,0E0,0E0,0E0,0E0,0E0,0E0,0E0,0E0,0E0,0E0,0E0,0E0,0E0,0E0,0E0,0E0,0E0,0E0,0E0,0E0,0E0,0E0,0E0,0E0,0E0,0E0,0E0],"parents":[2147483647,0,0,1,1,2,2,3,3,4,4,5,5,6,6,7,7,8,8,9,9,10,10,11,11,12,12,13,13,14,14,15,15,16,16,17,17,18,18,21,21,22,22,23,23,25,25,26,26,27,27,28,28,29,29,30,30,31,31,32,32,33,33,34,34,36,36,38,38,39,39,40,40,43,43,49,49,50,50,51,51,52,52,53,53,54,54,55,55,56,56],"right_children":[2,4,6,8,10,12,14,16,18,20,22,24,26,28,30,32,34,36,38,-1,-1,40,42,44,-1,46,48,50,52,54,56,58,60,62,64,-1,66,-1,68,70,72,-1,-1,74,-1,-1,-1,-1,-1,76,78,80,82,84,86,88,90,-1,-1,-1,-1,-1,-1,-1,-1,-1,-1,-1,-1,-1,-1,-1,-1,-1,-1,-1,-1,-1,-1,-1,-1,-1,-1,-1,-1,-1,-1,-1,-1,-1,-1],"split_conditions":[3.9015E1,4.068E1,3.9145E1,3.8735E1,4.071E1,3.8620003E1,4.1385002E1,3.883E1,3.9995E1,3.8565002E1,3.9059998E1,3.9905E1,4.002E1,4.1005E1,4.1739998E1,3.8699997E1,3.74E1,3.998E1,3.6215E1,1.4496301E-1,3.8600065E-2,3.922E1,4.6415E1,3.9045E1,-4.612389E-2,3.92E1,4.37E1,4.218E1,4.0269997E1,4.1205E1,4.089E1,3.6125E1,3.865E1,4.0865E1,3.917E1,1.0081425E-1,3.9335E1,-2.9219056E-2,3.864E1,4.1625E1,3.919E1,7.1606375E-2,-3.2924653E-3,4.0495003E1,9.369993E-2,-4.3651007E-2,-1.01936676E-1,-2.0874787E-2,1.38811115E-2,4.041E1,3.867E1,4.03E1,4.192E1,3.7635002E1,4.847E1,4.052E1,4.171E1,5.2999044E-3,-2.1610059E-2,5.9658844E-2,-3.0338975E-2,-1.12995535E-1,-2.1318628E-2,-2.6612533E-2,9.836883E-3,-5.612755E-3,3.775206E-2,2.7299882E-3,-5.6642536E-3,2.3098374E-2,-1.5357971E-3,-4.7340203E-2,-1.2108613E-2,1.5977478E-2,-1.9226648E-2,6.9200858E-3,-2.6025275E-2,8.730812E-2,1.7091751E-2,-3.5684586E-2,2.8657837E-2,-7.373764E-2,1.442119E-3,3.9797116E-2,-1.3772507E-2,1.09333426E-1,1.1929322E-2,6.7992215E-3,-9.896136E-2,2.8033804E-2,-3.2614789E-4],"split_indices":[43,20,50,43,21,53,37,31,51,42,57,21,56,39,37,52,44,18,0,0,0,38,0,20,0,52,0,35,58,13,40,40,46,9,40,0,0,0,0,0,0,0,0,14,0,0,0,0,0,28,0,37,29,1,0,45,50,0,0,0,0,0,0,0,0,0,0,0,0,0,0,0,0,0,0,0,0,0,0,0,0,0,0,0,0,0,0,0,0,0,0],"split_type":[0,0,0,0,0,0,0,0,0,0,0,0,0,0,0,0,0,0,0,0,0,0,0,0,0,0,0,0,0,0,0,0,0,0,0,0,0,0,0,0,0,0,0,0,0,0,0,0,0,0,0,0,0,0,0,0,0,0,0,0,0,0,0,0,0,0,0,0,0,0,0,0,0,0,0,0,0,0,0,0,0,0,0,0,0,0,0,0,0,0,0],"sum_hessian":[6.58E2,3.51E2,3.07E2,3.33E2,1.8E1,2.6E1,2.81E2,3.21E2,1.2E1,7E0,1.1E1,1.1E1,1.5E1,1.03E2,1.78E2,3.01E2,2E1,9E0,3E0,4E0,3E0,6E0,5E0,6E0,5E0,1.2E1,3E0,7.7E1,2.6E1,1.4E1,1.64E2,2.85E2,1.6E1,4E0,1.6E1,5E0,4E0,1E0,2E0,3E0,3E0,4E0,1E0,3E0,3E0,5E0,7E0,2E0,1E0,7.5E1,2E0,6E0,2E1,7E0,7E0,6E0,1.58E2,2.35E2,5E1,1.2E1,4E0,3E0,1E0,1.2E1,4E0,1E0,3E0,1E0,1E0,2E0,1E0,1E0,2E0,2E0,1E0,5E1,2.5E1,1E0,1E0,2E0,4E0,1.4E1,6E0,3E0,4E0,6E0,1E0,3E0,3E0,2.8E1,1.3E2],"tree_param":{"num_deleted":"0","num_feature":"60","num_nodes":"91","size_leaf_vector":"0"}},{"base_weights":[3.5280683E-3,2.3286438E-1,2.8256355E-3,6.781422E-2,5.76696E-4,3.3328645E-2,3.9600563E-1,-9.0585314E-2,4.1390928E-3,5.0117046E-2,-3.0417632E-2,-3.135693E-2,-1.8581517E-1,9.100151E-2,2.9773096E-4,1.0115517E-2,8.455001E-2,-5.7271323E-3,-4.496892E-2,1.5902886E-2,-1.771121E-1,-1.9974637E-1,-3.7182808E-2,3.382969E-1,5.6297857E-2,-9.363058E-2,4.107349E-3,2.8849602E-2,-2.0514488E-2,3.7340928E-2,1.1484909E-1,2.0618439E-3,-1.0652542E-2,-5.3667385E-2,6.609273E-2,-2.1175449E-1,-3.6592484E-2,-2.1709251E-1,-3.9161682E-2,4.339921E-3,2.1144836E-1,1.234293E-1,-1.6078217E-1,1.2496317E-1,1.2690914E-3],"categories":[],"categories_nodes":[],"categories_segments":[],"categories_sizes":[],"default_left":[1,0,1,1,1,1,0,1,1,1,1,1,1,1,1,1,1,1,0,1,1,1,0,0,1,1,1,0,0,0,0,0,0,0,0,0,0,0,0,0,0,0,0,0,0],"id":28,"left_children":[1,-1,3,5,7,9,-1,11,13,15,17,19,21,23,25,27,29,31,-1,33,35,37,-1,-1,39,41,43,-1,-1,-1,-1,-1,-1,-1,-1,-1,-1,-1,-1,-1,-1,-1,-1,-1,-1],"loss_changes":[1.0550251E-1,0E0,9.6131146E-2,2.357948E-1,2.0724402E-1,2.3998596E-2,0E0,1.2954085E-1,2.0484626E-1,2.2560041E-2,1.5388504E-3,1.1303039E-1,1.1208504E-2,2.0408796E-1,2.1114704E-1,5.756261E-3,8.584961E-3,1.3705555E-4,0E0,4.89394E-2,1.1723116E-2,1.3782501E-2,0E0,0E0,1.9255355E-1,3.550913E-1,1.9433373E-1,0E0,0E0,0E0,0E0,0E0,0E0,0E0,0E0,0E0,0E0,0E0,0E0,0E0,0E0,0E0,0E0,0E0,0E0],"parents":[2147483647,0,0,2,2,3,3,4,4,5,5,7,7,8,8,9,9,10,10,11,11,12,12,13,13,14,14,15,15,16,16,17,17,19,19,20,20,21,21,24,24,25,25,26,26],"right_children":[2,-1,4,6,8,10,-1,12,14,16,18,20,22,24,26,28,30,32,-1,34,36,38,-1,-1,40,42,44,-1,-1,-1,-1,-1,-1,-1,-1,-1,-1,-1,-1,-1,-1,-1,-1,-1,-1],"split_conditions":[2.6235E1,6.985932E-2,2.8310001E1,2.95E1,2.925E1,3.439E1,1.1880169E-1,3.0395E1,3.028E1,2.9415E1,2.824E1,2.9085E1,2.9585E1,2.9675E1,3.1255001E1,2.9555E1,3.1435E1,2.721E1,-1.3490677E-2,2.9244999E1,2.9735E1,3.2265E1,-1.1154843E-2,1.01489075E-1,3.2805E1,2.9224998E1,3.1654999E1,8.654881E-3,-6.1543467E-3,1.1202279E-2,3.445473E-2,6.185532E-4,-3.1957629E-3,-1.6100217E-2,1.982782E-2,-6.352635E-2,-1.0977745E-2,-6.512776E-2,-1.1748505E-2,1.3019763E-3,6.343451E-2,3.702879E-2,-4.8234653E-2,3.7488952E-2,3.8072743E-4],"split_indices":[56,0,2,0,1,59,0,5,0,18,3,0,2,40,0,43,53,0,0,14,0,4,0,0,23,8,0,0,0,0,0,0,0,0,0,0,0,0,0,0,0,0,0,0,0],"split_type":[0,0,0,0,0,0,0,0,0,0,0,0,0,0,0,0,0,0,0,0,0,0,0,0,0,0,0,0,0,0,0,0,0,0,0,0,0,0,0,0,0,0,0,0,0],"sum_hessian":[6.58E2,1E0,6.57E2,2.1E1,6.36E2,2E1,1E0,2.3E1,6.13E2,1.6E1,4E0,1.5E1,8E0,2.5E1,5.88E2,8E0,8E0,2E0,2E0,1.2E1,3E0,7E0,1E0,2E0,2.3E1,2.2E1,5.66E2,5E0,3E0,4E0,4E0,1E0,1E0,5E0,7E0,2E0,1E0,6E0,1E0,1.8E1,5E0,5E0,1.7E1,1.2E1,5.54E2],"tree_param":{"num_deleted":"0","num_feature":"60","num_nodes":"45","size_leaf_vector":"0"}},{"base_weights":[2.8556858E-3,2.0785572E-3,1.7209499E-1,5.0513484E-3,-4.6479575E-2,2.6053318E-3,1.4023486E-1,-2.0286103E-1,9.047804E-3,1.3502397E-3,2.5610223E-1,2.8453445E-1,5.0555706E-2,-2.4393208E-1,-1.1300354E-1,3.8148087E-2,-1.0886129E-1,-1.5838572E-4,1.8332215E-1,7.503891E-2,7.3127747E-3,5.6846794E-2,-1.11691795E-1,-1.6703542E-1,-3.8015366E-2,1.3203041E-3,-2.2229195E-1,2.8339133E-1,2.214559E-2,1.40139265E-2,-6.39534E-3,-3.105545E-2,6.718979E-2,-5.027135E-2,-6.23703E-4],"categories":[],"categories_nodes":[],"categories_segments":[],"categories_sizes":[],"default_left":[1,1,0,1,1,1,1,1,1,1,0,0,1,0,0,1,1,1,1,0,1,1,0,0,1,0,0,0,0,0,0,0,0,0,0],"id":29,"left_children":[1,3,-1,5,7,9,11,13,15,17,-1,-1,19,-1,-1,21,23,25,27,-1,29,31,-1,-1,33,-1,-1,-1,-1,-1,-1,-1,-1,-1,-1],"loss_changes":[8.631444E-2,9.507483E-2,0E0,2.046445E-1,3.3180663E-1,1.9373302E-1,1.279625E-1,9.340256E-3,1.0365729E-1,1.6694173E-1,0E0,0E0,7.921062E-3,0E0,0E0,7.359281E-2,1.8378489E-2,1.9868736E-1,7.436815E-2,0E0,4.5706442E-4,2.2088401E-2,0E0,0E0,1.8017325E-3,0E0,0E0,0E0,0E0,0E0,0E0,0E0,0E0,0E0,0E0],"parents":[2147483647,0,0,1,1,3,3,4,4,5,5,6,6,7,7,8,8,9,9,12,12,15,15,16,16,17,17,18,18,20,20,21,21,24,24],"right_children":[2,4,-1,6,8,10,12,14,16,18,-1,-1,20,-1,-1,22,24,26,28,-1,30,32,-1,-1,34,-1,-1,-1,-1,-1,-1,-1,-1,-1,-1],"split_conditions":[5.383E1,4.7915E1,5.1628496E-2,4.67E1,4.8415E1,5.0205E1,4.5815002E1,4.965E1,5.362E1,4.6945E1,7.683067E-2,8.536034E-2,4.3739998E1,-7.3179625E-2,-3.3901062E-2,5.3765E1,5.3465E1,4.7245003E1,4.2325E1,2.2511674E-2,5.0895E1,4.858E1,-3.350754E-2,-5.0110627E-2,5.2625E1,3.9609126E-4,-6.6687584E-2,8.50174E-2,6.643677E-3,4.204178E-3,-1.918602E-3,-9.316635E-3,2.0156939E-2,-1.5081406E-2,-1.8711091E-4],"split_indices":[20,41,0,42,42,3,35,6,12,47,0,0,0,0,0,33,9,52,3,0,1,42,0,0,0,0,0,0,0,0,0,0,0,0,0],"split_type":[0,0,0,0,0,0,0,0,0,0,0,0,0,0,0,0,0,0,0,0,0,0,0,0,0,0,0,0,0,0,0,0,0,0,0],"sum_hessian":[6.58E2,6.56E2,2E0,6.19E2,3.7E1,6.09E2,1E1,9E0,2.8E1,6.07E2,2E0,3E0,7E0,5E0,4E0,2.3E1,5E0,6.03E2,4E0,4E0,3E0,2.1E1,2E0,2E0,3E0,6E2,3E0,2E0,2E0,2E0,1E0,2E0,1.9E1,2E0,1E0],"tree_param":{"num_deleted":"0","num_feature":"60","num_nodes":"35","size_leaf_vector":"0"}},{"base_weights":[2.1028996E-3,1.9773674E-1,1.505072E-3,-5.1131472E-2,4.366092E-3,-3.129387E-2,-1.599308E-1,2.9727133E-2,-2.4845866E-3,-4.0264457E-2,1.1442661E-1,1.1429535E-2,2.8055742E-1,-2.433153E-1,9.821475E-4,4.842949E-2,-4.8628066E-2,2.14595E-2,-1.3794112E-1,3.5594687E-1,9.733391E-2,3.3982658E-1,-4.1429495E-4,1.258049E-2,-5.9820008E-2,8.728663E-3,1.954174E-1,-9.485245E-3,-1.7917888E-1,1.02674484E-1,3.8606644E-1,1.4017105E-2,1.2043381E-1,-2.1128654E-1,1.3329168E-3],"categories":[],"categories_nodes":[],"categories_segments":[],"categories_sizes":[],"default_left":[1,0,1,1,1,1,0,1,1,1,0,1,1,0,1,0,1,1,1,1,1,0,1,0,0,0,0,0,0,0,0,0,0,0,0],"id":30,"left_children":[1,-1,3,5,7,9,-1,11,13,15,-1,17,19,-1,21,-1,23,25,27,29,31,-1,33,-1,-1,-1,-1,-1,-1,-1,-1,-1,-1,-1,-1],"loss_changes":[7.6775946E-2,0E0,9.9314235E-2,6.837796E-2,1.0866158E-1,4.382328E-2,0E0,6.07209E-1,4.118427E-1,2.3867272E-2,0E0,1.9023293E-1,8.967239E-2,0E0,2.3057786E-1,0E0,1.9248717E-2,2.5962055E-1,4.0678293E-2,6.1315894E-3,6.010305E-3,0E0,1.7934273E-1,0E0,0E0,0E0,0E0,0E0,0E0,0E0,0E0,0E0,0E0,0E0,0E0],"parents":[2147483647,0,0,2,2,3,3,4,4,5,5,7,7,8,8,9,9,11,11,12,12,14,14,16,16,17,17,18,18,19,19,20,20,22,22],"right_children":[2,-1,4,6,8,10,-1,12,14,16,-1,18,20,-1,22,-1,24,26,28,30,32,-1,34,-1,-1,-1,-1,-1,-1,-1,-1,-1,-1,-1,-1],"split_conditions":[2.6235E1,5.9321024E-2,2.9215E1,3.07E1,3.425E1,3.7775E1,-4.797924E-2,3.45E1,3.416E1,2.667E1,3.4327984E-2,3.403E1,3.452E1,-7.299459E-2,3.1085E1,1.4528847E-2,2.8650002E1,3.603E1,3.2184998E1,3.4550003E1,3.4215E1,1.0194798E-1,3.243E1,3.774147E-3,-1.7946003E-2,2.6185992E-3,5.8625225E-2,-2.8455735E-3,-5.3753667E-2,3.0802347E-2,1.1581994E-1,4.205132E-3,3.6130145E-2,-6.338596E-2,3.9987505E-4],"split_indices":[56,0,55,58,7,0,0,4,9,41,0,4,21,0,50,0,1,42,13,0,0,0,4,0,0,0,0,0,0,0,0,0,0,0,0],"split_type":[0,0,0,0,0,0,0,0,0,0,0,0,0,0,0,0,0,0,0,0,0,0,0,0,0,0,0,0,0,0,0,0,0,0,0],"sum_hessian":[6.58E2,1E0,6.57E2,3.3E1,6.24E2,2.9E1,4E0,1.32E2,4.92E2,2.8E1,1E0,1.24E2,8E0,6E0,4.86E2,2E0,2.6E1,1.17E2,7E0,5E0,3E0,1E0,4.85E2,4E0,2.2E1,1.1E2,7E0,2E0,5E0,1E0,4E0,1E0,2E0,3E0,4.82E2],"tree_param":{"num_deleted":"0","num_feature":"60","num_nodes":"35","size_leaf_vector":"0"}},{"base_weights":[1.780604E-3,6.279593E-3,-2.0487193E-2,3.9796072E-5,1.0384612E-1,-1.1038767E-1,9.723527E-3,2.22163E-3,-2.238243E-1,2.9107985E-1,6.0015816E-2,-7.043316E-2,-1.7526245E-1,1.3961537E-1,-1.8249348E-2,-1.2032695E-3,1.16008505E-1,6.498718E-2,3.2330093E-1,-4.8718173E-3,1.4693864E-1,-1.1299168E-1,-1.0591295E-2,-1.9540071E-1,-6.3139595E-2,1.75052E-1,-1.5983582E-3,-1.387207E-1,1.7992238E-3,3.5396544E-3,-7.8193404E-2,2.1789424E-1,4.3276213E-2,1.1382294E-1,-6.381321E-2,1.7779084E-1,-4.881541E-3,-1.7063904E-1,-3.6512375E-2,-4.0375393E-2,3.6732674E-2,1.052851E-1,2.272714E-1,2.327919E-2,-1.7650604E-2,-3.1663258E-2,-1.6152716E-1,1.0719999E-1,-9.525844E-3,1.731169E-3,2.850863E-1,-2.692356E-1,-4.5794852E-2,-3.534317E-3,2.6288682E-1,9.5239006E-2,-2.7734375E-2,4.9962044E-2,1.6102982E-1,-1.9585952E-1,2.669239E-2,4.8302967E-2,2.0412493E-1,-3.9916992E-2,3.259468E-2,-1.8911743E-1,-3.9123535E-2,1.8704733E-2,-6.879711E-2,-1.0187785E-2,-5.292225E-2,2.5448456E-1,4.56028E-2,-1.373291E-3,-2.5102615E-2,-1.7555182E-1,-3.1677246E-2,2.2687912E-2,1.1956482E-1,-3.0773073E-2,5.6413922E-2],"categories":[],"categories_nodes":[],"categories_segments":[],"categories_sizes":[],"default_left":[1,1,1,1,1,1,1,1,0,1,1,1,1,1,1,1,1,0,0,1,1,1,1,0,0,1,1,1,1,1,1,1,1,1,1,1,1,1,1,1,0,0,1,0,1,0,1,1,1,0,0,0,0,0,0,0,0,0,0,0,0,0,0,0,0,0,0,0,0,0,0,0,0,0,0,0,0,0,0,0,0],"id":31,"left_children":[1,3,5,7,9,11,13,15,-1,17,19,21,23,25,27,29,31,-1,-1,33,35,37,39,-1,-1,41,43,45,47,49,51,53,55,57,59,61,63,65,67,69,-1,-1,71,-1,73,-1,75,77,79,-1,-1,-1,-1,-1,-1,-1,-1,-1,-1,-1,-1,-1,-1,-1,-1,-1,-1,-1,-1,-1,-1,-1,-1,-1,-1,-1,-1,-1,-1,-1,-1],"loss_changes":[6.614896E-2,3.3422443E-1,3.0254465E-1,2.5301778E-1,2.533455E-1,6.0232818E-2,3.0775756E-1,2.000601E-1,0E0,2.2699296E-2,1.5864193E-1,4.719212E-2,1.0242075E-2,7.534188E-2,1.693191E-1,1.8249078E-1,1.017261E-1,0E0,0E0,1.2619598E-1,5.707571E-2,4.2266697E-2,1.4168611E-2,0E0,0E0,1.9789934E-2,2.008254E-3,1.9301519E-2,7.383509E-2,2.3932695E-1,1.6716562E-1,6.0704976E-2,3.9540477E-2,1.004266E-2,1.4863913E-1,2.42396E-2,5.2400706E-3,7.1822256E-3,1.1982849E-2,1.7333971E-3,0E0,0E0,1.8057466E-2,0E0,3.2942294E-4,0E0,9.007826E-3,3.5571903E-3,8.019412E-2,0E0,0E0,0E0,0E0,0E0,0E0,0E0,0E0,0E0,0E0,0E0,0E0,0E0,0E0,0E0,0E0,0E0,0E0,0E0,0E0,0E0,0E0,0E0,0E0,0E0,0E0,0E0,0E0,0E0,0E0,0E0,0E0],"parents":[2147483647,0,0,1,1,2,2,3,3,4,4,5,5,6,6,7,7,9,9,10,10,11,11,12,12,13,13,14,14,15,15,16,16,19,19,20,20,21,21,22,22,25,25,26,26,27,27,28,28,29,29,30,30,31,31,32,32,33,33,34,34,35,35,36,36,37,37,38,38,39,39,42,42,44,44,46,46,47,47,48,48],"right_children":[2,4,6,8,10,12,14,16,-1,18,20,22,24,26,28,30,32,-1,-1,34,36,38,40,-1,-1,42,44,46,48,50,52,54,56,58,60,62,64,66,68,70,-1,-1,72,-1,74,-1,76,78,80,-1,-1,-1,-1,-1,-1,-1,-1,-1,-1,-1,-1,-1,-1,-1,-1,-1,-1,-1,-1,-1,-1,-1,-1,-1,-1,-1,-1,-1,-1,-1,-1],"split_conditions":[4.4815E1,4.3235E1,4.5739998E1,4.541E1,4.2075E1,4.6995003E1,4.534E1,4.417E1,-6.714729E-2,4.1535E1,4.4775E1,4.5945E1,4.8375E1,4.917E1,4.4239998E1,4.2015E1,4.3955E1,1.9496156E-2,9.699028E-2,4.241E1,4.8515E1,4.5195E1,4.2335E1,-5.862022E-2,-1.894188E-2,4.589E1,4.966E1,4.622E1,4.468E1,4.4934998E1,3.8995003E1,4.4055E1,4.4725E1,4.427E1,4.643E1,4.4614998E1,4.8455E1,4.5855E1,4.566E1,4.693E1,1.1019803E-2,3.1585533E-2,4.9995E1,6.9837575E-3,4.961E1,-9.498978E-3,4.9595E1,4.72E1,4.9655E1,5.193507E-4,8.552589E-2,-8.0770686E-2,-1.3738456E-2,-1.0602952E-3,7.886605E-2,2.8571703E-2,-8.320313E-3,1.4988613E-2,4.8308946E-2,-5.875786E-2,8.007717E-3,1.449089E-2,6.123748E-2,-1.1975098E-2,9.778405E-3,-5.6735232E-2,-1.1737061E-2,5.61142E-3,-2.0639135E-2,-3.0563357E-3,-1.5876675E-2,7.634537E-2,1.368084E-2,-4.1198733E-4,-7.5307847E-3,-5.2665547E-2,-9.503175E-3,6.806374E-3,3.5869446E-2,-9.231922E-3,1.6924178E-2],"split_indices":[18,20,23,3,25,8,36,1,0,11,23,7,12,7,51,6,5,0,0,31,2,30,38,0,0,26,1,0,52,47,47,0,10,17,53,24,0,7,12,0,0,0,0,0,0,0,1,0,37,0,0,0,0,0,0,0,0,0,0,0,0,0,0,0,0,0,0,0,0,0,0,0,0,0,0,0,0,0,0,0,0],"split_type":[0,0,0,0,0,0,0,0,0,0,0,0,0,0,0,0,0,0,0,0,0,0,0,0,0,0,0,0,0,0,0,0,0,0,0,0,0,0,0,0,0,0,0,0,0,0,0,0,0,0,0,0,0,0,0,0,0,0,0,0,0,0,0,0,0,0,0,0,0,0,0,0,0,0,0,0,0,0,0,0,0],"sum_hessian":[6.58E2,5.48E2,1.1E2,5.16E2,3.2E1,2.7E1,8.3E1,5.12E2,4E0,5E0,2.7E1,1.8E1,9E0,1.4E1,6.9E1,4.98E2,1.4E1,1E0,4E0,1.6E1,1.1E1,1E1,8E0,7E0,2E0,1.1E1,3E0,9E0,6E1,4.7E2,2.8E1,5E0,9E0,5E0,1.1E1,9E0,2E0,5E0,5E0,5E0,3E0,6E0,5E0,1E0,2E0,2E0,7E0,5E0,5.5E1,4.68E2,2E0,3E0,2.5E1,1E0,4E0,5E0,4E0,3E0,2E0,4E0,7E0,2E0,7E0,1E0,1E0,4E0,1E0,2E0,3E0,2E0,3E0,4E0,1E0,1E0,1E0,6E0,1E0,1E0,4E0,4.2E1,1.3E1],"tree_param":{"num_deleted":"0","num_feature":"60","num_nodes":"81","size_leaf_vector":"0"}},{"base_weights":[1.4825077E-3,3.549611E-2,-1.2476869E-3,-1.1687395E-3,1.9858085E-1,-5.631256E-2,2.8119138E-3,-1.4847596E-2,8.109919E-2,3.433346E-1,1.4110947E-2,-6.9163996E-3,-1.3614905E-1,1.7842817E-1,1.5680391E-3,-2.366195E-2,8.999761E-2,1.7266845E-2,2.0013046E-1,-1.4879863E-2,3.8398106E-2,-4.3057486E-2,1.0249492E-1,-2.1079847E-1,-3.5149813E-2,-4.175186E-2,2.6573882E-1,3.6599018E-2,-4.7713853E-3,1.3781786E-2,-5.3948153E-2,3.989029E-2,-1.1112213E-2,-1.808548E-2,-4.234314E-3,4.5510292E-2,1.2086868E-2,-5.9671603E-2,7.651774E-2,2.1009159E-1,-3.072548E-2,-2.5566646E-1,-3.584035E-2,5.1986696E-3,-7.679796E-2,3.4028204E-4,1.6634922E-1,-1.0409021E-1,5.4668714E-3,-4.8109055E-2,3.1764984E-2,2.2424426E-2,-9.092199E-2,-1.335144E-5,-1.6654968E-2,-1.4294518E-2,-9.1373615E-2,-3.542455E-2,-8.314133E-3,-2.7359262E-1,-7.405472E-2,7.881165E-3,-6.1641693E-2,8.288066E-3,3.7638345E-4,3.9370935E-2,-8.4832974E-2,2.2515953E-1,-1.10479355E-1,-1.8845071E-1,-4.6140943E-2,1.6952488E-1,3.6968377E-5],"categories":[],"categories_nodes":[],"categories_segments":[],"categories_sizes":[],"default_left":[1,1,1,1,1,1,1,1,1,0,1,1,1,1,1,1,0,1,0,1,1,1,1,1,1,0,0,1,1,1,1,0,1,0,0,0,0,1,0,0,1,1,1,1,0,1,1,1,1,0,0,0,0,0,0,0,0,0,0,0,0,0,0,0,0,0,0,0,0,0,0,0,0],"id":32,"left_children":[1,3,5,7,9,11,13,15,17,-1,19,21,23,25,27,29,-1,31,-1,33,35,37,39,41,43,-1,-1,45,47,49,51,-1,53,-1,-1,-1,-1,55,-1,-1,57,59,61,63,-1,65,67,69,71,-1,-1,-1,-1,-1,-1,-1,-1,-1,-1,-1,-1,-1,-1,-1,-1,-1,-1,-1,-1,-1,-1,-1,-1],"loss_changes":[6.12415E-2,2.9322648E-1,1.3674214E-1,4.734271E-2,2.3547953E-1,1.6469021E-1,1.24233656E-1,3.539866E-2,4.213265E-2,0E0,4.0918807E-3,1.11177765E-1,1.13223016E-1,8.799133E-2,1.2609185E-1,3.930047E-2,0E0,3.6534297E-3,0E0,2.5797053E-5,1.1314172E-5,4.628531E-2,1.06793664E-1,6.148699E-2,1.3842765E-2,0E0,0E0,4.0924165E-1,4.8967463E-1,1.9336108E-2,5.5690832E-2,0E0,1.8433243E-4,0E0,0E0,0E0,0E0,2.6026204E-2,0E0,0E0,1.2672576E-4,2.5283992E-3,3.8700295E-3,7.137026E-5,0E0,2.3272133E-1,3.3420265E-1,2.1129301E-1,3.8928166E-1,0E0,0E0,0E0,0E0,0E0,0E0,0E0,0E0,0E0,0E0,0E0,0E0,0E0,0E0,0E0,0E0,0E0,0E0,0E0,0E0,0E0,0E0,0E0,0E0],"parents":[2147483647,0,0,1,1,2,2,3,3,4,4,5,5,6,6,7,7,8,8,10,10,11,11,12,12,13,13,14,14,15,15,17,17,19,19,20,20,21,21,22,22,23,23,24,24,27,27,28,28,29,29,30,30,32,32,37,37,40,40,41,41,42,42,43,43,45,45,46,46,47,47,48,48],"right_children":[2,4,6,8,10,12,14,16,18,-1,20,22,24,26,28,30,-1,32,-1,34,36,38,40,42,44,-1,-1,46,48,50,52,-1,54,-1,-1,-1,-1,56,-1,-1,58,60,62,64,-1,66,68,70,72,-1,-1,-1,-1,-1,-1,-1,-1,-1,-1,-1,-1,-1,-1,-1,-1,-1,-1,-1,-1,-1,-1,-1,-1],"split_conditions":[2.957E1,3.094E1,3.1095001E1,3.346E1,3.3975E1,3.0965E1,2.7855E1,3.345E1,3.1224998E1,1.0300038E-1,3.4434998E1,3.155E1,3.2645E1,2.823E1,3.2995E1,3.0625E1,2.6999285E-2,2.824E1,6.003914E-2,3.4239998E1,3.394E1,3.334E1,3.1654999E1,3.0915E1,3.1485E1,-1.2525559E-2,7.9721645E-2,3.2480003E1,3.4870003E1,2.833E1,2.9415E1,1.1967087E-2,2.904E1,-5.425644E-3,-1.2702942E-3,1.3653088E-2,3.6260607E-3,2.8900002E1,2.2955323E-2,6.302748E-2,2.9585E1,3.396E1,3.248E1,2.8849998E1,-2.303939E-2,3.4004997E1,3.392E1,3.4165E1,3.4805E1,-1.4432717E-2,9.529496E-3,6.727328E-3,-2.7276598E-2,-4.0054324E-6,-4.9964907E-3,-4.288356E-3,-2.7412085E-2,-1.0627365E-2,-2.49424E-3,-8.207779E-2,-2.2216417E-2,2.3643496E-3,-1.8492509E-2,2.4864199E-3,1.1291504E-4,1.1811282E-2,-2.5449893E-2,6.754786E-2,-3.3143807E-2,-5.6535214E-2,-1.3842284E-2,5.0857466E-2,1.1090513E-5],"split_indices":[34,26,35,58,3,31,3,8,1,0,3,14,18,1,59,5,0,4,0,0,0,49,5,35,0,0,0,59,52,24,58,0,0,0,0,0,0,6,0,0,0,9,0,0,0,38,50,59,41,0,0,0,0,0,0,0,0,0,0,0,0,0,0,0,0,0,0,0,0,0,0,0,0],"split_type":[0,0,0,0,0,0,0,0,0,0,0,0,0,0,0,0,0,0,0,0,0,0,0,0,0,0,0,0,0,0,0,0,0,0,0,0,0,0,0,0,0,0,0,0,0,0,0,0,0,0,0,0,0,0,0,0,0,0,0,0,0,0,0,0,0,0,0,0,0,0,0,0,0],"sum_hessian":[6.58E2,4.8E1,6.1E2,4E1,8E0,4.1E1,5.69E2,3.5E1,5E0,4E0,4E0,2.6E1,1.5E1,3E0,5.66E2,3.3E1,2E0,4E0,1E0,2E0,2E0,2E1,6E0,8E0,7E0,1E0,2E0,8.6E1,4.8E2,1.5E1,1.8E1,2E0,2E0,1E0,1E0,1E0,1E0,1.8E1,2E0,3E0,3E0,6E0,2E0,4E0,3E0,6.8E1,1.8E1,4.4E1,4.36E2,3E0,1.2E1,6E0,1.2E1,1E0,1E0,8E0,1E1,2E0,1E0,5E0,1E0,1E0,1E0,2E0,2E0,4.7E1,2.1E1,1.5E1,3E0,1.7E1,2.7E1,1.3E1,4.23E2],"tree_param":{"num_deleted":"0","num_feature":"60","num_nodes":"73","size_leaf_vector":"0"}},{"base_weights":[1.2665027E-3,9.414911E-3,-8.050077E-3,3.0711903E-3,1.7460339E-1,-3.9226595E-2,1.289013E-2,-1.5369159E-3,1.1910101E-1,3.2757664E-1,9.595375E-2,-1.3191627E-1,-2.4273343E-2,1.3199085E-1,5.2611034E-5,8.1608776E-4,-2.5671768E-1,-1.1189524E-1,1.7127262E-1,5.973816E-2,3.9694342E-1,1.4610164E-1,1.658554E-2,1.3475418E-2,-1.6403416E-1,8.835484E-2,-3.927223E-2,3.1680998E-1,3.653658E-2,2.0355606E-1,-6.152083E-3,-4.361805E-3,6.9218844E-2,-1.3498497E-1,-3.2857895E-2,3.0767822E-1,1.067738E-1,7.01561E-2,-1.4346123E-2,5.4854076E-2,-5.5330276E-2,-2.78478E-1,-1.2175369E-1,1.5482289E-1,-4.895859E-2,-6.434298E-2,3.0700684E-2,1.5437126E-1,-5.6406498E-2,-5.718603E-2,9.692964E-3,3.2889026E-3,-7.989339E-2,1.4472662E-1,-4.3413926E-2,1.329204E-1,1.0173798E-2,-3.0097961E-3,-1.7121634E-2,-5.121708E-2,-1.3957511E-1,9.2411585E-2,2.488416E-1,6.751633E-2,-9.49564E-2,7.916927E-3,-1.2054233E-1,-1.6049992E-2,2.3026352E-1,4.6117783E-2,1.667984E-1,3.390789E-2,-1.1737671E-1,1.5290832E-2,-9.838471E-2,4.7517095E-2,-2.0276675E-2],"categories":[],"categories_nodes":[],"categories_segments":[],"categories_sizes":[],"default_left":[1,1,1,1,1,1,1,1,1,1,1,1,1,1,1,1,0,1,1,0,0,0,1,1,1,1,1,0,1,0,1,1,1,0,0,0,1,0,1,0,0,0,1,1,1,1,1,1,1,1,1,0,0,0,0,0,0,0,0,0,0,0,0,0,0,0,0,0,0,0,0,0,0,0,0,0,0],"id":33,"left_children":[1,3,5,7,9,11,13,15,17,19,21,23,25,27,29,31,-1,33,35,-1,-1,-1,37,39,41,43,45,-1,47,-1,49,51,53,-1,-1,-1,55,-1,57,-1,-1,-1,59,61,63,65,67,69,71,73,75,-1,-1,-1,-1,-1,-1,-1,-1,-1,-1,-1,-1,-1,-1,-1,-1,-1,-1,-1,-1,-1,-1,-1,-1,-1,-1],"loss_changes":[5.0103966E-2,3.6832792E-1,2.0158118E-1,1.8197347E-1,1.2497458E-1,1.6866344E-1,2.8285027E-1,1.9715424E-1,1.758334E-1,5.0603718E-2,3.737831E-2,8.1594884E-2,1.8591401E-1,3.059768E-1,2.1338198E-1,1.15765296E-1,0E0,1.0395311E-3,6.392601E-2,0E0,0E0,0E0,9.291601E-3,1.4423439E-2,3.3836633E-2,1.2623031E-1,1.7038564E-1,0E0,1.5108247E-1,0E0,1.331705E-1,1.7593525E-1,2.0189008E-1,0E0,0E0,0E0,2.1379553E-2,0E0,7.4323674E-5,0E0,0E0,0E0,7.93612E-3,2.981463E-2,3.319906E-2,2.892825E-1,2.4626786E-1,3.7932396E-4,4.8031896E-2,1.17956445E-1,1.4379399E-1,0E0,0E0,0E0,0E0,0E0,0E0,0E0,0E0,0E0,0E0,0E0,0E0,0E0,0E0,0E0,0E0,0E0,0E0,0E0,0E0,0E0,0E0,0E0,0E0,0E0,0E0],"parents":[2147483647,0,0,1,1,2,2,3,3,4,4,5,5,6,6,7,7,8,8,9,9,10,10,11,11,12,12,13,13,14,14,15,15,17,17,18,18,22,22,23,23,24,24,25,25,26,26,28,28,30,30,31,31,32,32,36,36,38,38,42,42,43,43,44,44,45,45,46,46,47,47,48,48,49,49,50,50],"right_children":[2,4,6,8,10,12,14,16,18,20,22,24,26,28,30,32,-1,34,36,-1,-1,-1,38,40,42,44,46,-1,48,-1,50,52,54,-1,-1,-1,56,-1,58,-1,-1,-1,60,62,64,66,68,70,72,74,76,-1,-1,-1,-1,-1,-1,-1,-1,-1,-1,-1,-1,-1,-1,-1,-1,-1,-1,-1,-1,-1,-1,-1,-1,-1,-1],"split_conditions":[3.9015E1,3.9435E1,4.1309998E1,4.068E1,3.9695E1,3.8955E1,4.0845E1,4.1225E1,3.8815002E1,3.782E1,4.0465E1,3.7300003E1,3.906E1,4.1945E1,4.12E1,3.8855E1,-7.701531E-2,3.919E1,3.8025E1,1.7921448E-2,1.1908303E-1,4.383049E-2,4.172E1,4.0394997E1,3.9035E1,4.0955E1,4.139E1,9.5042996E-2,3.9235E1,6.106682E-2,4.283E1,3.8295E1,3.919E1,-4.0495493E-2,-9.857369E-3,9.230347E-2,4.1050003E1,2.104683E-2,3.94E1,1.6456224E-2,-1.6599083E-2,-8.3543405E-2,3.9525E1,3.8985E1,3.888E1,3.958E1,4.171E1,3.9145E1,4.216E1,4.1550003E1,4.6045E1,9.866708E-4,-2.3968017E-2,4.3417986E-2,-1.3024178E-2,3.9876122E-2,3.0521394E-3,-9.029389E-4,-5.1364903E-3,-1.5365125E-2,-4.1872535E-2,2.7723476E-2,7.4652486E-2,2.0254899E-2,-2.848692E-2,2.3750784E-3,-3.61627E-2,-4.814998E-3,6.907906E-2,1.3835335E-2,5.0039522E-2,1.0172367E-2,-3.5213012E-2,4.58725E-3,-2.9515414E-2,1.4255129E-2,-6.083003E-3],"split_indices":[43,40,40,20,8,50,47,15,5,0,36,54,41,30,41,51,0,0,42,0,0,0,0,2,3,57,52,0,52,0,45,27,49,0,0,0,32,0,17,0,0,0,3,41,35,59,33,7,36,30,32,0,0,0,0,0,0,0,0,0,0,0,0,0,0,0,0,0,0,0,0,0,0,0,0,0,0],"split_type":[0,0,0,0,0,0,0,0,0,0,0,0,0,0,0,0,0,0,0,0,0,0,0,0,0,0,0,0,0,0,0,0,0,0,0,0,0,0,0,0,0,0,0,0,0,0,0,0,0,0,0,0,0,0,0,0,0,0,0,0,0,0,0,0,0,0,0,0,0,0,0,0,0,0,0,0,0],"sum_hessian":[6.58E2,3.51E2,3.07E2,3.39E2,1.2E1,1.23E2,1.84E2,3.27E2,1.2E1,3E0,9E0,1.6E1,1.07E2,1.7E1,1.67E2,3.25E2,2E0,2E0,1E1,1E0,2E0,5E0,4E0,3E0,1.3E1,1.2E1,9.5E1,5E0,1.2E1,4E0,1.63E2,3.03E2,2.2E1,1E0,1E0,2E0,8E0,1E0,3E0,2E0,1E0,2E0,1.1E1,8E0,4E0,7E1,2.5E1,5E0,7E0,3.8E1,1.25E2,2.76E2,2.7E1,1.3E1,9E0,6E0,2E0,1E0,2E0,3E0,8E0,6E0,2E0,1E0,3E0,3.1E1,3.9E1,2.1E1,4E0,1E0,4E0,3E0,4E0,1.4E1,2.4E1,5.5E1,7E1],"tree_param":{"num_deleted":"0","num_feature":"60","num_nodes":"77","size_leaf_vector":"0"}},{"base_weights":[1.4522767E-3,-1.3151663E-2,7.309373E-3,5.3918613E-3,-1.7011404E-1,1.02627225E-1,-5.776729E-4,-8.926102E-3,8.503466E-2,5.9423447E-2,-1.989195E-1,7.0178986E-2,4.3616486E-1,-1.6928482E-1,2.1700659E-3,6.4476384E-3,-9.517236E-2,3.2059383E-1,4.037069E-2,4.4851303E-3,8.465004E-2,-2.2795513E-1,-7.783584E-2,1.4882553E-1,-8.640846E-2,1.4647484E-2,-2.0238145E-1,1.9824696E-1,3.2819796E-4,-3.8536135E-3,2.096812E-1,3.4519833E-2,-1.0986757E-1,7.427841E-2,-6.80809E-2,-2.3952514E-1,-3.8772583E-2,2.3080376E-1,1.9173432E-2,2.7295794E-2,-2.0466201E-1,8.853022E-2,2.6369858E-1,-7.773124E-2,3.7543972E-3,2.6543993E-3,-9.448409E-2,-2.0469666E-2,2.598053E-1,-1.2021828E-1,4.3397903E-2,9.218562E-3,1.544509E-1,-1.4359951E-2,-1.17015205E-1,-1.0366949E-1,-2.5480166E-1,1.0310364E-1,3.437748E-1,-5.432701E-2,1.0353927E-1,-8.193461E-2,8.737488E-2,-2.5510454E-1,-6.918462E-2,-1.2475014E-1,1.3977051E-2,1.7630005E-1,1.1888952E-3],"categories":[],"categories_nodes":[],"categories_segments":[],"categories_sizes":[],"default_left":[1,1,1,1,1,1,1,1,1,1,1,1,0,1,1,1,1,0,1,0,0,1,0,1,1,0,0,1,1,1,1,0,1,1,1,1,0,1,1,1,1,0,0,1,1,0,0,0,0,0,0,0,0,0,0,0,0,0,0,0,0,0,0,0,0,0,0,0,0],"id":34,"left_children":[1,3,5,7,9,11,13,15,17,19,21,23,-1,25,27,29,31,-1,33,-1,-1,35,-1,37,39,-1,-1,41,43,45,47,-1,49,51,53,55,-1,57,59,61,63,-1,-1,65,67,-1,-1,-1,-1,-1,-1,-1,-1,-1,-1,-1,-1,-1,-1,-1,-1,-1,-1,-1,-1,-1,-1,-1,-1],"loss_changes":[5.6464806E-2,5.510274E-1,3.5414588E-1,1.9461389E-1,1.4405912E-1,3.5900792E-1,2.0248091E-1,1.9287315E-1,2.6060364E-1,3.7780544E-3,4.5540273E-2,4.3157184E-1,0E0,4.5577154E-2,1.5522848E-1,2.6040947E-1,4.572141E-2,0E0,8.96359E-2,0E0,0E0,2.1356761E-2,0E0,2.4003363E-1,1.6693762E-1,0E0,0E0,5.3792447E-3,1.1449178E-1,7.04399E-2,7.4534744E-2,0E0,3.6945313E-2,9.246435E-2,1.4092449E-2,5.6505203E-4,0E0,1.6652536E-1,6.763425E-2,5.3096265E-2,2.3353606E-2,0E0,0E0,7.9360045E-2,1.8128355E-1,0E0,0E0,0E0,0E0,0E0,0E0,0E0,0E0,0E0,0E0,0E0,0E0,0E0,0E0,0E0,0E0,0E0,0E0,0E0,0E0,0E0,0E0,0E0,0E0],"parents":[2147483647,0,0,1,1,2,2,3,3,4,4,5,5,6,6,7,7,8,8,9,9,10,10,11,11,13,13,14,14,15,15,16,16,18,18,21,21,23,23,24,24,27,27,28,28,29,29,30,30,32,32,33,33,34,34,35,35,37,37,38,38,39,39,40,40,43,43,44,44],"right_children":[2,4,6,8,10,12,14,16,18,20,22,24,-1,26,28,30,32,-1,34,-1,-1,36,-1,38,40,-1,-1,42,44,46,48,-1,50,52,54,56,-1,58,60,62,64,-1,-1,66,68,-1,-1,-1,-1,-1,-1,-1,-1,-1,-1,-1,-1,-1,-1,-1,-1,-1,-1,-1,-1,-1,-1,-1,-1],"split_conditions":[3.4845E1,3.4165E1,3.625E1,3.345E1,3.132E1,3.717E1,3.4945E1,3.3695E1,3.2605E1,3.2465E1,3.7245003E1,3.5515E1,1.3084947E-1,3.502E1,3.3885002E1,3.3135002E1,3.1295E1,9.617815E-2,3.7375E1,1.3455391E-3,2.5395013E-2,3.814E1,-2.3350753E-2,3.5940002E1,3.5415E1,4.3942453E-3,-6.0714435E-2,4.0125E1,3.72E1,3.45E1,2.9585E1,1.035595E-2,3.4769997E1,3.4795E1,3.7825E1,3.384E1,-1.1631776E-2,3.447E1,3.479E1,3.447E1,3.5145E1,2.6559068E-2,7.910958E-2,3.854E1,3.6785004E1,7.963198E-4,-2.834523E-2,-6.1409E-3,7.794159E-2,-3.6065485E-2,1.3019372E-2,2.765569E-3,4.633527E-2,-4.3079853E-3,-3.510456E-2,-3.1100847E-2,-7.64405E-2,3.0931093E-2,1.0313244E-1,-1.6298104E-2,3.1061783E-2,-2.4580384E-2,2.6212465E-2,-7.6531366E-2,-2.0755388E-2,-3.742504E-2,4.1931155E-3,5.2890018E-2,3.5666858E-4],"split_indices":[23,23,22,22,40,15,28,41,24,0,2,20,0,25,37,41,53,0,4,0,0,0,0,30,18,0,0,1,21,8,0,0,16,15,4,20,0,32,19,0,28,0,0,40,18,0,0,0,0,0,0,0,0,0,0,0,0,0,0,0,0,0,0,0,0,0,0,0,0],"split_type":[0,0,0,0,0,0,0,0,0,0,0,0,0,0,0,0,0,0,0,0,0,0,0,0,0,0,0,0,0,0,0,0,0,0,0,0,0,0,0,0,0,0,0,0,0,0,0,0,0,0,0,0,0,0,0,0,0,0,0,0,0,0,0,0,0,0,0,0,0],"sum_hessian":[6.58E2,1.88E2,4.7E2,1.69E2,1.9E1,3.5E1,4.35E2,1.44E2,2.5E1,2E0,1.7E1,3.3E1,2E0,6E0,4.29E2,1.23E2,2.1E1,3E0,2.2E1,1E0,1E0,1.3E1,4E0,2.2E1,1.1E1,1E0,5E0,3E0,4.26E2,1.18E2,5E0,2E0,1.9E1,1.7E1,5E0,1.2E1,1E0,1.3E1,9E0,6E0,5E0,2E0,1E0,1.7E1,4.09E2,1.11E2,7E0,1E0,4E0,1.8E1,1E0,1E1,7E0,3E0,2E0,2E0,1E1,7E0,6E0,5E0,4E0,2E0,4E0,3E0,2E0,1.1E1,6E0,5E0,4.04E2],"tree_param":{"num_deleted":"0","num_feature":"60","num_nodes":"69","size_leaf_vector":"0"}},{"base_weights":[1.4348847E-3,8.459309E-4,1.2993748E-1,2.8343294E-3,-3.254978E-2,3.4173805E-4,8.179213E-2,-1.1604818E-1,7.2398554E-3,2.7503606E-3,-6.654249E-2,1.4857413E-1,-8.918338E-3,3.8490295E-2,-1.508049E-1,1.9979635E-2,-9.7091675E-2,3.124918E-4,7.9255E-2,-1.881485E-1,-1.678133E-2,-2.1546364E-2,2.1506262E-1,-8.1178285E-2,6.512527E-2,-1.6905975E-1,6.7443848E-3,3.4067243E-2,-5.897522E-2,2.4431655E-3,-9.051103E-2,1.5835626E-1,2.6508013E-2,-4.739295E-2,1.975441E-2,3.1692505E-2,-4.9856823E-2,2.5218454E-1,6.913122E-2,-1.5546799E-2,-9.3699455E-2,8.8256836E-2,2.0285288E-2,-1.9978778E-1,-8.070278E-2,-2.4630547E-2,4.5218572E-2],"categories":[],"categories_nodes":[],"categories_segments":[],"categories_sizes":[],"default_left":[1,1,0,1,1,1,1,1,1,1,1,1,1,0,1,1,0,1,1,0,1,1,1,1,1,1,0,1,0,0,0,0,0,0,0,0,0,0,0,0,0,0,0,0,0,0,0],"id":35,"left_children":[1,3,-1,5,7,9,11,13,15,17,19,21,23,-1,25,27,-1,29,31,-1,33,35,37,39,41,43,-1,45,-1,-1,-1,-1,-1,-1,-1,-1,-1,-1,-1,-1,-1,-1,-1,-1,-1,-1,-1],"loss_changes":[4.9764592E-2,4.371967E-2,0E0,1.22190766E-1,1.2376788E-1,9.732563E-2,1.16423756E-1,7.025954E-2,3.6498036E-2,1.0870956E-1,1.23918995E-1,1.2905541E-1,5.344025E-2,0E0,2.9900596E-2,2.8703969E-2,0E0,1.0975079E-1,7.0904635E-2,0E0,1.883091E-2,7.6089553E-3,2.5904208E-2,2.652187E-3,3.395779E-3,8.3118975E-3,0E0,1.4859481E-2,0E0,0E0,0E0,0E0,0E0,0E0,0E0,0E0,0E0,0E0,0E0,0E0,0E0,0E0,0E0,0E0,0E0,0E0,0E0],"parents":[2147483647,0,0,1,1,3,3,4,4,5,5,6,6,7,7,8,8,9,9,10,10,11,11,12,12,14,14,15,15,17,17,18,18,20,20,21,21,22,22,23,23,24,24,25,25,27,27],"right_children":[2,4,-1,6,8,10,12,14,16,18,20,22,24,-1,26,28,-1,30,32,-1,34,36,38,40,42,44,-1,46,-1,-1,-1,-1,-1,-1,-1,-1,-1,-1,-1,-1,-1,-1,-1,-1,-1,-1,-1],"split_conditions":[5.383E1,4.7245003E1,3.8981248E-2,4.5995003E1,4.886E1,4.497E1,4.6045E1,4.2395E1,5.3765E1,4.7425003E1,4.5405E1,4.136E1,4.64E1,1.1547089E-2,5.214E1,5.3655E1,-2.9127503E-2,4.567E1,4.933E1,-5.644455E-2,4.5965E1,4.0975E1,4.4295E1,4.422E1,4.3445E1,4.9545E1,2.0233155E-3,4.896E1,-1.7692566E-2,7.329497E-4,-2.7153311E-2,4.750688E-2,7.952404E-3,-1.4217885E-2,5.926323E-3,9.507752E-3,-1.4957047E-2,7.565536E-2,2.0739365E-2,-4.6640397E-3,-2.8109837E-2,2.6477052E-2,6.0855867E-3,-5.9936337E-2,-2.4210835E-2,-7.389164E-3,1.3565572E-2],"split_indices":[20,52,0,56,38,55,38,4,33,25,55,1,51,0,3,8,0,27,0,0,54,1,10,7,0,24,0,39,0,0,0,0,0,0,0,0,0,0,0,0,0,0,0,0,0,0,0],"split_type":[0,0,0,0,0,0,0,0,0,0,0,0,0,0,0,0,0,0,0,0,0,0,0,0,0,0,0,0,0,0,0,0,0,0,0,0,0,0,0,0,0,0,0,0,0,0,0],"sum_hessian":[6.58E2,6.56E2,2E0,6.2E2,3.6E1,6.02E2,1.8E1,1.1E1,2.5E1,5.82E2,2E1,1E1,8E0,2E0,9E0,2.3E1,2E0,5.65E2,1.7E1,5E0,1.5E1,3E0,7E0,4E0,4E0,8E0,1E0,2E1,3E0,5.53E2,1.2E1,6E0,1.1E1,8E0,7E0,1E0,2E0,5E0,2E0,1E0,3E0,2E0,2E0,5E0,3E0,3E0,1.7E1],"tree_param":{"num_deleted":"0","num_feature":"60","num_nodes":"47","size_leaf_vector":"0"}},{"base_weights":[9.787246E-4,-2.7401153E-2,2.9058703E-3,1.6235844E-3,-1.0009829E-1,4.6044867E-2,-7.256142E-4,-1.35648595E-2,1.0753679E-1,-1.5462849E-1,-1.979669E-2,7.273817E-2,-3.1416968E-2,-3.619102E-2,5.126572E-3,-2.1474361E-3,-6.5655515E-2,3.9987564E-2,1.5509224E-1,-4.1502E-2,4.436493E-2,2.5256304E-2,1.7835547E-1,-7.96864E-2,3.8178444E-2,-2.322842E-2,-1.9435215E-1,4.9707152E-2,-2.652685E-3,-3.2192994E-2,1.8026097E-2,-7.3186874E-2,-1.7765045E-2,-8.775711E-3,-4.7489643E-2,1.9110838E-3,2.0359929E-1,1.2391662E-2,2.714217E-1,-2.6517868E-2,-1.0628395E-1,7.915449E-2,-2.9182434E-2,-3.327314E-2,1.2606125E-1,-2.6355934E-1,-3.7291843E-2,-4.1911337E-3,9.94606E-2,-8.552152E-2,1.7154808E-3,-4.128806E-2,-1.4840317E-2,1.7770767E-3,4.210345E-2,2.9702377E-2,-1.0963631E-1,4.644521E-2,-2.579244E-2,-3.5095215E-2,-3.9291382E-4,5.289977E-2,-4.1908555E-2,-4.983902E-3,-5.0953865E-2,-4.4444047E-2,8.0018364E-2,2.3011208E-1,5.0978694E-2,-1.1286859E-1,2.4562836E-2,2.2425365E-1,-5.3671154E-4],"categories":[],"categories_nodes":[],"categories_segments":[],"categories_sizes":[],"default_left":[1,1,1,1,1,1,1,1,1,0,1,1,1,1,1,1,1,0,0,1,0,1,1,1,1,1,1,1,1,1,1,0,0,0,0,1,0,1,0,1,0,0,0,1,0,0,1,1,1,1,1,0,0,0,0,0,0,0,0,0,0,0,0,0,0,0,0,0,0,0,0,0,0],"id":36,"left_children":[1,3,5,7,9,11,13,15,17,-1,19,21,23,25,27,29,31,-1,-1,33,-1,35,37,39,41,43,45,47,49,51,53,-1,-1,-1,-1,55,-1,57,-1,59,-1,-1,-1,61,-1,-1,63,65,67,69,71,-1,-1,-1,-1,-1,-1,-1,-1,-1,-1,-1,-1,-1,-1,-1,-1,-1,-1,-1,-1,-1,-1],"loss_changes":[3.6121756E-2,8.878316E-2,9.684842E-2,5.132708E-2,4.94852E-2,1.01535395E-1,1.186967E-1,1.6511759E-2,6.6475756E-3,0E0,1.019712E-2,1.7603205E-1,4.6713613E-2,1.6155007E-1,1.7041253E-1,1.5127315E-2,5.032327E-4,0E0,0E0,5.630115E-4,0E0,1.07860774E-1,1.665385E-1,8.494794E-3,1.8871017E-2,1.18162006E-1,5.5389628E-2,1.9617553E-1,1.5181835E-1,9.6550956E-4,5.7936804E-3,0E0,0E0,0E0,0E0,7.765757E-2,0E0,7.699456E-3,0E0,8.8254176E-4,0E0,0E0,0E0,5.579494E-2,0E0,0E0,1.0702261E-3,1.2558474E-1,2.2897002E-1,6.599255E-2,2.0009866E-1,0E0,0E0,0E0,0E0,0E0,0E0,0E0,0E0,0E0,0E0,0E0,0E0,0E0,0E0,0E0,0E0,0E0,0E0,0E0,0E0,0E0,0E0],"parents":[2147483647,0,0,1,1,2,2,3,3,4,4,5,5,6,6,7,7,8,8,10,10,11,11,12,12,13,13,14,14,15,15,16,16,19,19,21,21,22,22,23,23,24,24,25,25,26,26,27,27,28,28,29,29,30,30,35,35,37,37,39,39,43,43,46,46,47,47,48,48,49,49,50,50],"right_children":[2,4,6,8,10,12,14,16,18,-1,20,22,24,26,28,30,32,-1,-1,34,-1,36,38,40,42,44,46,48,50,52,54,-1,-1,-1,-1,56,-1,58,-1,60,-1,-1,-1,62,-1,-1,64,66,68,70,72,-1,-1,-1,-1,-1,-1,-1,-1,-1,-1,-1,-1,-1,-1,-1,-1,-1,-1,-1,-1,-1,-1],"split_conditions":[2.9415E1,3.204E1,3.1224998E1,3.3695E1,2.9535E1,3.161E1,3.4385002E1,3.1575E1,2.9720001E1,-4.6388548E-2,3.155E1,3.073E1,3.1095001E1,3.5254997E1,3.72E1,2.902E1,3.0475E1,1.199627E-2,4.6527673E-2,2.851E1,1.330948E-2,3.5215E1,2.9305E1,3.011E1,3.0925E1,3.808E1,3.7315002E1,3.534E1,3.75E1,2.975E1,2.9535E1,-2.1956064E-2,-5.329514E-3,-2.6327134E-3,-1.4246893E-2,3.1154999E1,6.107979E-2,3.14E1,8.1426516E-2,3.1375E1,-3.1885184E-2,2.3746349E-2,-8.75473E-3,2.7130001E1,3.7818376E-2,-7.9067804E-2,3.7405E1,3.6269997E1,3.541E1,4.085E1,3.6705E1,-1.2386418E-2,-4.4520954E-3,5.3312303E-4,1.2631035E-2,8.910714E-3,-3.2890894E-2,1.3933564E-2,-7.7377325E-3,-1.0528564E-2,-1.1787415E-4,1.5869932E-2,-1.2572567E-2,-1.4951706E-3,-1.528616E-2,-1.3333214E-2,2.400551E-2,6.903362E-2,1.5293608E-2,-3.386058E-2,7.368851E-3,6.72761E-2,-1.6101346E-4],"split_indices":[15,51,16,33,17,1,14,37,0,0,0,2,14,9,7,58,3,0,0,2,0,54,31,45,21,55,0,2,8,31,51,0,0,0,0,18,0,0,0,0,0,0,0,44,0,0,0,13,4,48,2,0,0,0,0,0,0,0,0,0,0,0,0,0,0,0,0,0,0,0,0,0,0],"split_type":[0,0,0,0,0,0,0,0,0,0,0,0,0,0,0,0,0,0,0,0,0,0,0,0,0,0,0,0,0,0,0,0,0,0,0,0,0,0,0,0,0,0,0,0,0,0,0,0,0,0,0,0,0,0,0,0,0,0,0,0,0,0,0,0,0,0,0,0,0,0,0,0,0],"sum_hessian":[6.58E2,4.1E1,6.17E2,3E1,1.1E1,4.7E1,5.7E2,2.7E1,3E0,6E0,5E0,3.5E1,1.2E1,8E1,4.9E2,2.3E1,4E0,2E0,1E0,4E0,1E0,2.5E1,1E1,7E0,5E0,7.5E1,5E0,7.2E1,4.18E2,9E0,1.4E1,3E0,1E0,1E0,3E0,2.3E1,2E0,4E0,6E0,3E0,4E0,3E0,2E0,7.1E1,4E0,3E0,2E0,3.5E1,3.7E1,2E1,3.98E2,5E0,4E0,9E0,5E0,1.9E1,4E0,2E0,2E0,2E0,1E0,6E0,6.5E1,1E0,1E0,2.4E1,1.1E1,9E0,2.8E1,1.6E1,4E0,3E0,3.95E2],"tree_param":{"num_deleted":"0","num_feature":"60","num_nodes":"73","size_leaf_vector":"0"}},{"base_weights":[9.208442E-4,4.4850563E-4,1.0405604E-1,7.3741185E-3,-7.519678E-3,-5.741717E-4,8.17309E-2,-1.4267285E-1,-4.8006126E-3,1.6914963E-3,-1.1904844E-1,1.9166225E-1,4.053424E-2,-7.0124306E-2,-6.43475E-4,-3.5759746E-3,1.148213E-1,-1.6022873E-1,-5.8401108E-2,2.4537823E-1,2.4375916E-3,-2.5330862E-2,9.052404E-2,7.600479E-2,-1.1730439E-1,5.3516388E-2,-6.541657E-3,4.8535364E-3,-4.598919E-2,1.6272007E-1,-4.560566E-2,3.7591934E-2,2.7374396E-1,4.258728E-2,-3.8930893E-2,3.3702E-2,-1.5182209E-1,1.1721628E-1,1.3696289E-2,-1.6052246E-2,1.427269E-1,-2.2340138E-1,-8.1004776E-2,-4.113715E-2,8.120086E-2,-7.852007E-2,5.30876E-4],"categories":[],"categories_nodes":[],"categories_segments":[],"categories_sizes":[],"default_left":[1,1,0,1,1,1,1,0,1,1,1,1,1,1,1,1,1,0,0,1,1,1,1,1,1,1,1,0,0,0,0,0,0,0,0,0,0,0,0,0,0,0,0,0,0,0,0],"id":37,"left_children":[1,3,-1,5,7,9,11,-1,13,15,17,19,21,23,25,27,29,-1,-1,31,33,35,37,39,41,43,45,-1,-1,-1,-1,-1,-1,-1,-1,-1,-1,-1,-1,-1,-1,-1,-1,-1,-1,-1,-1],"loss_changes":[3.205634E-2,3.6311705E-2,0E0,2.080822E-1,1.1176713E-1,8.582842E-2,1.4621049E-1,0E0,8.169432E-2,1.8752567E-1,5.6273118E-3,9.088132E-2,8.790022E-2,1.3301459E-1,9.107238E-2,1.0783753E-1,1.15000516E-1,0E0,0E0,3.0967504E-2,6.6407565E-3,9.472238E-2,2.915515E-2,3.3002287E-2,3.5821334E-2,7.6712504E-2,1.3087259E-1,0E0,0E0,0E0,0E0,0E0,0E0,0E0,0E0,0E0,0E0,0E0,0E0,0E0,0E0,0E0,0E0,0E0,0E0,0E0,0E0],"parents":[2147483647,0,0,1,1,3,3,4,4,5,5,6,6,8,8,9,9,10,10,11,11,12,12,13,13,14,14,15,15,16,16,19,19,20,20,21,21,22,22,23,23,24,24,25,25,26,26],"right_children":[2,4,-1,6,8,10,12,-1,14,16,18,20,22,24,26,28,30,-1,-1,32,34,36,38,40,42,44,46,-1,-1,-1,-1,-1,-1,-1,-1,-1,-1,-1,-1,-1,-1,-1,-1,-1,-1,-1,-1],"split_conditions":[5.383E1,3.9015E1,3.1216813E-2,3.8515E1,3.872E1,4.1205E1,3.8925E1,-4.2801857E-2,3.897E1,4.064E1,3.9269997E1,4.1E1,4.053E1,3.7965E1,3.958E1,3.7045E1,3.823E1,-4.806862E-2,-1.7520333E-2,3.4715E1,3.8260002E1,3.9715E1,4.0465E1,4.0004997E1,3.9035E1,3.904E1,4.017E1,1.4560609E-3,-1.3796757E-2,4.881602E-2,-1.3681699E-2,1.1277581E-2,8.212319E-2,1.2776185E-2,-1.1679268E-2,1.0110601E-2,-4.554663E-2,3.5164885E-2,4.1088867E-3,-4.815674E-3,4.281807E-2,-6.7020416E-2,-2.4301434E-2,-1.2341146E-2,2.436026E-2,-2.3556022E-2,1.592628E-4],"split_indices":[20,43,0,41,45,13,11,0,50,13,0,56,13,51,46,38,59,0,0,14,0,31,36,0,3,45,44,0,0,0,0,0,0,0,0,0,0,0,0,0,0,0,0,0,0,0,0],"split_type":[0,0,0,0,0,0,0,0,0,0,0,0,0,0,0,0,0,0,0,0,0,0,0,0,0,0,0,0,0,0,0,0,0,0,0,0,0,0,0,0,0,0,0,0,0,0,0],"sum_hessian":[6.58E2,6.56E2,2E0,3.51E2,3.05E2,3.18E2,3.3E1,5E0,3E2,3.13E2,5E0,8E0,2.5E1,1.7E1,2.83E2,3E2,1.3E1,2E0,3E0,6E0,2E0,1.1E1,1.4E1,4E0,1.3E1,2.7E1,2.56E2,2.51E2,4.9E1,1E1,3E0,1E0,5E0,1E0,1E0,8E0,3E0,1E1,4E0,2E0,2E0,2E0,1.1E1,6E0,2.1E1,2.2E1,2.34E2],"tree_param":{"num_deleted":"0","num_feature":"60","num_nodes":"47","size_leaf_vector":"0"}},{"base_weights":[6.1271334E-4,-1.2363236E-2,3.3785175E-3,1.2182901E-2,-8.006016E-2,1.0160971E-1,1.1605948E-3,5.224159E-3,1.5353107E-1,-8.897235E-2,3.2777786E-2,2.6227951E-2,1.5170696E-1,8.859539E-2,-5.1022304E-4,-1.3563642E-2,3.4101546E-2,-6.1283804E-2,-1.5399432E-1,1.0706425E-2,3.8180668E-2,2.0541954E-1,6.0067654E-2,2.2452688E-1,-1.7362322E-3,-1.7895953E-1,5.163251E-4,5.463818E-2,-2.3871401E-2,1.21758655E-1,1.7812334E-2,-9.844446E-2,-1.5173652E-2,-1.7714627E-1,-5.6358974E-2,4.572423E-2,-2.9865265E-2,-6.8388805E-2,2.4105401E-3,1.1359358E-1,-1.797676E-2,-3.0987717E-2,8.608627E-2,1.8635051E-1,1.6580582E-2,-1.5505622E-2,6.001179E-2,-2.0828247E-3,-1.0701526E-1,1.0951757E-2,-6.363106E-2,5.6106567E-2,1.2479782E-2,-1.5785217E-2,-4.3092728E-2,-3.2397185E-2,-1.5026855E-1,1.00670815E-1,4.405136E-4],"categories":[],"categories_nodes":[],"categories_segments":[],"categories_sizes":[],"default_left":[1,1,1,1,1,1,1,1,0,1,0,1,1,1,1,1,1,1,1,0,0,0,0,0,1,0,1,1,1,1,1,1,1,0,0,1,1,1,1,0,0,0,0,0,0,0,0,0,0,0,0,0,0,0,0,0,0,0,0],"id":38,"left_children":[1,3,5,7,9,11,13,15,-1,17,-1,19,21,23,25,27,29,31,33,-1,-1,-1,-1,-1,35,-1,37,39,41,43,45,47,49,-1,-1,51,53,55,57,-1,-1,-1,-1,-1,-1,-1,-1,-1,-1,-1,-1,-1,-1,-1,-1,-1,-1,-1,-1],"loss_changes":[2.3692578E-2,1.9373232E-1,1.18402906E-1,8.3788E-2,3.4090966E-2,4.1338056E-2,7.790991E-2,4.5493573E-2,0E0,4.2773202E-2,0E0,7.043681E-4,2.2116214E-2,1.23178944E-1,9.6082285E-2,3.7157692E-2,4.4950746E-2,3.6202878E-2,8.099794E-3,0E0,0E0,0E0,0E0,0E0,1.0710685E-2,0E0,6.829689E-2,3.200935E-2,3.7879832E-2,3.0878432E-2,4.170451E-2,9.687863E-3,1.4622537E-2,0E0,0E0,3.352668E-4,2.5098817E-4,3.6389507E-2,9.848551E-2,0E0,0E0,0E0,0E0,0E0,0E0,0E0,0E0,0E0,0E0,0E0,0E0,0E0,0E0,0E0,0E0,0E0,0E0,0E0,0E0],"parents":[2147483647,0,0,1,1,2,2,3,3,4,4,5,5,6,6,7,7,9,9,11,11,12,12,13,13,14,14,15,15,16,16,17,17,18,18,24,24,26,26,27,27,28,28,29,29,30,30,31,31,32,32,35,35,36,36,37,37,38,38],"right_children":[2,4,6,8,10,12,14,16,-1,18,-1,20,22,24,26,28,30,32,34,-1,-1,-1,-1,-1,36,-1,38,40,42,44,46,48,50,-1,-1,52,54,56,58,-1,-1,-1,-1,-1,-1,-1,-1,-1,-1,-1,-1,-1,-1,-1,-1,-1,-1,-1,-1],"split_conditions":[3.1885E1,3.1095001E1,3.1880001E1,3.1545E1,3.4345E1,3.184E1,2.9415E1,3.0025002E1,4.6059325E-2,3.393E1,9.833336E-3,3.1725E1,3.199E1,3.392E1,3.1744999E1,2.7235E1,2.9215E1,3.146E1,3.435E1,3.2119276E-3,1.14542E-2,6.1625864E-2,1.8020296E-2,6.735807E-2,2.9865E1,-5.3687863E-2,3.0055E1,2.8490002E1,3.094E1,3.1369999E1,3.0175E1,2.825E1,3.1914999E1,-5.3143885E-2,-1.6907694E-2,2.902E1,3.055E1,3.25E1,3.1765E1,3.4078076E-2,-5.3930283E-3,-9.296316E-3,2.5825882E-2,5.5905156E-2,4.974175E-3,-4.6516866E-3,1.8003538E-2,-6.248474E-4,-3.2104578E-2,3.2855275E-3,-1.9089319E-2,1.6831972E-2,3.7439347E-3,-4.7355653E-3,-1.2927819E-2,-9.719156E-3,-4.508057E-2,3.0201245E-2,1.3215409E-4],"split_indices":[42,42,43,43,31,44,13,50,0,23,0,41,44,39,44,45,57,17,29,0,0,0,0,0,7,0,2,35,42,1,44,9,45,0,0,0,0,25,32,0,0,0,0,0,0,0,0,0,0,0,0,0,0,0,0,0,0,0,0],"split_type":[0,0,0,0,0,0,0,0,0,0,0,0,0,0,0,0,0,0,0,0,0,0,0,0,0,0,0,0,0,0,0,0,0,0,0,0,0,0,0,0,0,0,0,0,0,0,0,0,0,0,0,0,0,0,0,0,0,0,0],"sum_hessian":[6.58E2,1.15E2,5.43E2,8.5E1,3E1,1.1E1,5.32E2,8.2E1,3E0,2.8E1,2E0,5E0,6E0,9E0,5.23E2,5E1,3.2E1,2.1E1,7E0,3E0,2E0,3E0,3E0,3E0,6E0,2E0,5.21E2,6E0,4.4E1,4E0,2.8E1,1.1E1,1E1,5E0,2E0,2E0,4E0,1.3E1,5.08E2,3E0,3E0,4.2E1,2E0,2E0,2E0,1.6E1,1.2E1,1E0,1E1,7E0,3E0,1E0,1E0,3E0,1E0,1E1,3E0,9E0,4.99E2],"tree_param":{"num_deleted":"0","num_feature":"60","num_nodes":"59","size_leaf_vector":"0"}},{"base_weights":[6.451932E-4,1.211878E-3,-6.1230976E-2,3.8427033E-4,6.7993164E-2,-4.7864914E-3,-1.16079964E-1,2.3002562E-3,-2.5925724E-2,9.0459185E-3,8.613459E-2,8.894603E-3,-2.2914886E-2,-7.541565E-5,6.231507E-2,-1.1947123E-1,-1.8191867E-3,1.2299778E-3,-9.3891144E-2,8.8760376E-2,-5.0640106E-2,-5.6809235E-2,-1.5823898E-1,9.5619746E-2,-2.4494298E-2,-5.3272076E-4,9.1656774E-2,-1.0243988E-1,-1.7024994E-2,4.1152954E-2,1.2749176E-1,-1.3122559E-3,-6.2644005E-2,1.3202286E-1,3.074646E-3,-4.9285315E-2,2.2807034E-2],"categories":[],"categories_nodes":[],"categories_segments":[],"categories_sizes":[],"default_left":[1,1,1,1,1,1,0,1,1,0,0,0,0,1,1,1,1,1,1,1,1,0,0,1,1,0,0,0,0,0,0,0,0,0,0,0,0],"id":39,"left_children":[1,3,5,7,9,11,-1,13,15,-1,-1,-1,-1,17,19,21,23,25,27,29,31,-1,-1,33,35,-1,-1,-1,-1,-1,-1,-1,-1,-1,-1,-1,-1],"loss_changes":[2.3181567E-2,3.6119606E-2,1.8019922E-2,3.267463E-2,7.7759326E-3,1.1958838E-3,0E0,8.61203E-2,9.9005215E-2,0E0,0E0,0E0,0E0,7.139095E-2,7.319893E-2,1.2873948E-2,8.188193E-2,9.170106E-2,3.5128295E-3,2.9787466E-2,2.8784284E-3,0E0,0E0,2.3176573E-2,3.6303498E-2,0E0,0E0,0E0,0E0,0E0,0E0,0E0,0E0,0E0,0E0,0E0,0E0],"parents":[2147483647,0,0,1,1,2,2,3,3,4,4,5,5,7,7,8,8,13,13,14,14,15,15,16,16,17,17,18,18,19,19,20,20,23,23,24,24],"right_children":[2,4,6,8,10,12,-1,14,16,-1,-1,-1,-1,18,20,22,24,26,28,30,32,-1,-1,34,36,-1,-1,-1,-1,-1,-1,-1,-1,-1,-1,-1,-1],"split_conditions":[4.971E1,4.975E1,4.9595E1,4.5815002E1,5.1535E1,5.241E1,-3.482399E-2,4.567E1,4.43E1,2.7137757E-3,2.5840377E-2,2.668381E-3,-6.8744663E-3,4.8614998E1,4.692E1,4.2525E1,4.478E1,4.8775E1,4.9595E1,4.5965E1,4.4975E1,-1.7042771E-2,-4.7471695E-2,4.409E1,4.858E1,-1.5981623E-4,2.7497033E-2,-3.0731965E-2,-5.1074983E-3,1.2345887E-2,3.824753E-2,-3.9367678E-4,-1.8793203E-2,3.9606858E-2,9.223938E-4,-1.4785595E-2,6.8421103E-3],"split_indices":[51,41,35,59,7,1,0,50,25,0,0,0,0,16,53,23,25,1,1,51,0,0,0,4,55,0,0,0,0,0,0,0,0,0,0,0,0],"split_type":[0,0,0,0,0,0,0,0,0,0,0,0,0,0,0,0,0,0,0,0,0,0,0,0,0,0,0,0,0,0,0,0,0,0,0,0,0],"sum_hessian":[6.58E2,6.53E2,5E0,6.46E2,7E0,3E0,2E0,6.03E2,4.3E1,2E0,5E0,2E0,1E0,5.81E2,2.2E1,8E0,3.5E1,5.74E2,7E0,1.8E1,4E0,4E0,4E0,6E0,2.9E1,5.64E2,1E1,6E0,1E0,9E0,9E0,1E0,3E0,4E0,2E0,1.9E1,1E1],"tree_param":{"num_deleted":"0","num_feature":"60","num_nodes":"37","size_leaf_vector":"0"}},{"base_weights":[4.2240683E-4,4.096239E-3,-1.0253771E-2,1.1763284E-3,1.1136862E-1,-9.581809E-2,2.5345313E-3,1.1337153E-4,2.5463486E-1,1.7949785E-1,2.732958E-2,-1.5002577E-1,-8.485582E-4,1.0975393E-1,-1.9819087E-3,1.9362626E-3,-1.0722351E-1,2.6517868E-2,2.0057487E-1,4.798444E-2,-4.829979E-2,3.0434927E-2,-1.8263881E-1,5.696678E-2,-8.735943E-2,5.702305E-2,1.4347713E-1,8.084221E-2,-8.148023E-3,-2.690898E-3,5.186119E-2,-1.701889E-1,5.4448444E-2,-1.9695836E-1,-1.2561798E-2,8.55128E-3,7.903671E-2,9.085634E-2,-4.6424866E-3,-6.548462E-2,1.8944119E-3,1.9163499E-3,-7.1870595E-2,9.873082E-2,-3.2836914E-2,-2.029314E-1,-6.9802605E-2,-1.0164261E-2,9.183693E-2,1.6361237E-2,-3.534317E-3,1.044693E-1,4.7722816E-2,-1.1096916E-1,-1.8181888E-2,8.1038386E-2,-6.414904E-3],"categories":[],"categories_nodes":[],"categories_segments":[],"categories_sizes":[],"default_left":[1,1,1,1,1,1,1,1,0,1,1,1,1,1,1,1,1,0,0,0,0,0,1,1,0,0,0,1,1,1,1,1,1,0,0,1,0,1,0,1,1,0,0,0,0,0,0,0,0,0,0,0,0,0,0,0,0],"id":40,"left_children":[1,3,5,7,9,11,13,15,-1,17,19,21,23,25,27,29,31,-1,-1,-1,-1,-1,33,35,-1,-1,-1,37,39,41,43,45,47,-1,-1,49,-1,51,-1,53,55,-1,-1,-1,-1,-1,-1,-1,-1,-1,-1,-1,-1,-1,-1,-1,-1],"loss_changes":[2.588962E-2,1.5366285E-1,1.8516642E-1,1.2902114E-1,6.9526106E-2,1.13130406E-1,7.188652E-2,9.3734734E-2,0E0,1.725173E-2,1.3252437E-2,8.7953776E-2,4.999148E-2,2.488017E-3,7.368923E-2,1.0894557E-1,9.0704426E-2,0E0,0E0,0E0,0E0,0E0,2.6751012E-2,5.735295E-3,0E0,0E0,0E0,8.982353E-3,7.728112E-2,1.3782823E-1,1.6203275E-1,5.5562407E-3,8.180769E-3,0E0,0E0,3.4098973E-4,0E0,2.9899925E-4,0E0,4.101324E-2,7.6147564E-2,0E0,0E0,0E0,0E0,0E0,0E0,0E0,0E0,0E0,0E0,0E0,0E0,0E0,0E0,0E0,0E0],"parents":[2147483647,0,0,1,1,2,2,3,3,4,4,5,5,6,6,7,7,9,9,10,10,11,11,12,12,13,13,14,14,15,15,16,16,22,22,23,23,27,27,28,28,29,29,30,30,31,31,32,32,35,35,37,37,39,39,40,40],"right_children":[2,4,6,8,10,12,14,16,-1,18,20,22,24,26,28,30,32,-1,-1,-1,-1,-1,34,36,-1,-1,-1,38,40,42,44,46,48,-1,-1,50,-1,52,-1,54,56,-1,-1,-1,-1,-1,-1,-1,-1,-1,-1,-1,-1,-1,-1,-1,-1],"split_conditions":[4.183E1,4.2275E1,4.236E1,4.558E1,4.2989998E1,4.2185E1,3.9235E1,4.221E1,7.639046E-2,3.8845E1,4.4765E1,4.021E1,4.18E1,4.146E1,4.234E1,4.091E1,4.3745003E1,7.955361E-3,6.0172465E-2,1.4395333E-2,-1.4489938E-2,9.130479E-3,4.26E1,4.103E1,-2.6207829E-2,1.7106915E-2,4.304314E-2,4.4945E1,4.4059998E1,4.0449997E1,4.1375E1,3.8745003E1,4.011E1,-5.908751E-2,-3.7685395E-3,4.0894997E1,2.3711015E-2,4.436E1,-1.392746E-3,4.417E1,4.4309998E1,5.7490496E-4,-2.156118E-2,2.9619247E-2,-9.851075E-3,-6.0879424E-2,-2.0940783E-2,-3.0492784E-3,2.755108E-2,4.9083713E-3,-1.0602952E-3,3.1340793E-2,1.4316846E-2,-3.329075E-2,-5.454567E-3,2.4311516E-2,-1.9244712E-3],"split_indices":[30,26,30,13,26,43,52,33,0,11,24,24,22,42,32,34,39,0,0,0,0,0,34,5,0,0,0,18,34,28,24,1,0,0,0,0,0,16,0,30,35,0,0,0,0,0,0,0,0,0,0,0,0,0,0,0,0],"split_type":[0,0,0,0,0,0,0,0,0,0,0,0,0,0,0,0,0,0,0,0,0,0,0,0,0,0,0,0,0,0,0,0,0,0,0,0,0,0,0,0,0,0,0,0,0,0,0,0,0,0,0,0,0,0,0,0,0],"sum_hessian":[6.58E2,4.9E2,1.68E2,4.78E2,1.2E1,2.1E1,1.47E2,4.77E2,1E0,6E0,6E0,1.3E1,8E0,5E0,1.42E2,4.7E2,7E0,1E0,5E0,5E0,1E0,2E0,1.1E1,5E0,3E0,3E0,2E0,9E0,1.33E2,4.31E2,3.9E1,5E0,2E0,1E1,1E0,2E0,3E0,8E0,1E0,1.9E1,1.14E2,4.05E2,2.6E1,2.5E1,1.4E1,3E0,2E0,1E0,1E0,1E0,1E0,5E0,3E0,9E0,1E1,1E1,1.04E2],"tree_param":{"num_deleted":"0","num_feature":"60","num_nodes":"57","size_leaf_vector":"0"}},{"base_weights":[4.793523E-4,-8.349141E-3,4.020978E-3,2.2429747E-3,-9.796467E-2,6.529246E-2,-1.0473575E-3,-2.4786522E-3,9.816575E-2,4.9374264E-2,-1.1707868E-1,3.542018E-2,2.4341659E-1,2.2285461E-1,-2.0743841E-3,-4.3811915E-3,1.5286636E-1,1.391552E-1,2.2387505E-2,1.1124611E-2,6.293678E-2,-6.3265085E-2,-1.4557232E-1,8.590941E-2,-6.87783E-2,3.2314777E-1,-3.775406E-2,-6.686826E-2,1.3737794E-3,5.4177423E-3,-4.143064E-2,3.3952076E-2,-6.1531067E-3,-7.047176E-2,-2.7763367E-2,-1.604432E-1,-5.243556E-2,1.2969373E-1,-6.9248676E-3,1.0603224E-2,-1.6615677E-1,4.3718338E-2,-8.011284E-2,9.28291E-2,-1.1197411E-3,6.2353513E-4,1.2418938E-1,-5.4160237E-2,1.08161926E-1,6.447029E-2,1.9502476E-1,-6.286955E-2,3.921585E-2,-9.171486E-2,4.2942047E-2,-1.8377447E-1,-4.784298E-2,-1.10303335E-1,-8.287157E-3,-2.9365063E-2,1.4232254E-1,-1.2198721E-1,1.008882E-3],"categories":[],"categories_nodes":[],"categories_segments":[],"categories_sizes":[],"default_left":[1,1,1,1,1,1,1,1,1,1,1,1,1,0,1,1,0,0,1,0,0,1,1,1,1,0,0,1,1,1,1,0,0,0,0,0,0,1,1,1,1,0,1,1,1,0,0,0,0,0,0,0,0,0,0,0,0,0,0,0,0,0,0],"id":41,"left_children":[1,3,5,7,9,11,13,15,17,19,21,23,25,-1,27,29,-1,-1,31,-1,-1,33,35,37,39,-1,-1,41,43,45,47,-1,-1,-1,-1,-1,-1,49,51,53,55,-1,57,59,61,-1,-1,-1,-1,-1,-1,-1,-1,-1,-1,-1,-1,-1,-1,-1,-1,-1,-1],"loss_changes":[2.0638673E-2,1.7962193E-1,1.4633483E-1,7.7238284E-2,6.2105417E-2,1.8293323E-1,1.0072192E-1,4.884439E-2,2.173353E-2,8.5613783E-4,1.8390566E-2,1.7425752E-1,1.24290496E-1,0E0,9.727951E-2,5.903777E-2,0E0,0E0,1.5291506E-3,0E0,0E0,9.0263784E-5,6.8223625E-3,9.03212E-2,8.679237E-2,0E0,0E0,3.5725206E-2,9.451487E-2,7.337721E-2,7.060267E-2,0E0,0E0,0E0,0E0,0E0,0E0,5.134338E-2,2.3116104E-2,2.7100349E-2,1.6297698E-3,0E0,4.2454958E-2,7.070522E-2,1.0406471E-1,0E0,0E0,0E0,0E0,0E0,0E0,0E0,0E0,0E0,0E0,0E0,0E0,0E0,0E0,0E0,0E0,0E0,0E0],"parents":[2147483647,0,0,1,1,2,2,3,3,4,4,5,5,6,6,7,7,8,8,9,9,10,10,11,11,12,12,14,14,15,15,18,18,21,21,22,22,23,23,24,24,27,27,28,28,29,29,30,30,37,37,38,38,39,39,40,40,42,42,43,43,44,44],"right_children":[2,4,6,8,10,12,14,16,18,20,22,24,26,-1,28,30,-1,-1,32,-1,-1,34,36,38,40,-1,-1,42,44,46,48,-1,-1,-1,-1,-1,-1,50,52,54,56,-1,58,60,62,-1,-1,-1,-1,-1,-1,-1,-1,-1,-1,-1,-1,-1,-1,-1,-1,-1,-1],"split_conditions":[3.4845E1,3.4165E1,3.625E1,3.4364998E1,3.132E1,3.6185E1,3.1755001E1,3.605E1,3.4165E1,3.2465E1,3.2105E1,3.5515E1,3.79E1,6.6856384E-2,3.72E1,3.2635002E1,4.585991E-2,4.174656E-2,3.678E1,3.3373835E-3,1.8881036E-2,3.7465E1,3.747E1,3.562E1,3.5415E1,9.694434E-2,-1.1326218E-2,3.502E1,3.716E1,3.3655E1,3.603E1,1.0185624E-2,-1.8459321E-3,-2.114153E-2,-8.329011E-3,-4.8132963E-2,-1.5730668E-2,3.507E1,3.618E1,3.2955E1,3.8995003E1,1.3115502E-2,3.854E1,3.6295E1,3.7205E1,1.8706055E-4,3.7256815E-2,-1.6248072E-2,3.244858E-2,1.9341089E-2,5.850743E-2,-1.8860865E-2,1.1764756E-2,-2.751446E-2,1.28826145E-2,-5.5132344E-2,-1.4352894E-2,-3.3091E-2,-2.4861472E-3,-8.809519E-3,4.2696763E-2,-3.6596164E-2,3.026646E-4],"split_indices":[23,23,22,24,40,18,50,42,27,0,48,20,0,0,21,42,0,0,0,0,0,3,47,12,18,0,0,25,23,39,34,0,0,0,0,0,0,13,12,1,2,0,40,27,24,0,0,0,0,0,0,0,0,0,0,0,0,0,0,0,0,0,0],"split_type":[0,0,0,0,0,0,0,0,0,0,0,0,0,0,0,0,0,0,0,0,0,0,0,0,0,0,0,0,0,0,0,0,0,0,0,0,0,0,0,0,0,0,0,0,0,0,0,0,0,0,0,0,0,0,0,0,0,0,0,0,0,0,0],"sum_hessian":[6.58E2,1.88E2,4.7E2,1.69E2,1.9E1,3.5E1,4.35E2,1.62E2,7E0,2E0,1.7E1,3.1E1,4E0,1E0,4.34E2,1.61E2,1E0,4E0,3E0,1E0,1E0,7E0,1E1,2.1E1,1E1,3E0,1E0,2.1E1,4.13E2,1.28E2,3.3E1,2E0,1E0,5E0,2E0,8E0,2E0,1.4E1,7E0,6E0,4E0,2E0,1.9E1,1E1,4.03E2,1.24E2,4E0,3.1E1,2E0,8E0,6E0,3E0,4E0,1E0,5E0,3E0,1E0,1.3E1,6E0,3E0,7E0,6E0,3.97E2],"tree_param":{"num_deleted":"0","num_feature":"60","num_nodes":"63","size_leaf_vector":"0"}},{"base_weights":[6.2877964E-4,2.295846E-3,-1.5751572E-2,3.3938762E-4,8.402361E-2,-1.0216713E-1,-2.6575725E-3,-6.7494775E-4,7.370949E-2,6.6855294E-3,1.4119148E-1,-2.929306E-2,-1.2157631E-1,4.8591234E-2,-1.3987139E-2,9.176797E-5,-1.1091328E-1,1.4715385E-1,4.2195458E-2,3.2053374E-2,-3.7822723E-2,6.2229156E-2,1.7612305E-1,-3.0338287E-2,7.21159E-2,-1.0416603E-1,-1.1062622E-4,-7.6310954E-4,9.78714E-2,-1.251971E-1,-3.4030914E-2,1.8732706E-2,4.7834016E-2,-5.26371E-2,-4.096985E-3,1.9550991E-1,4.9287796E-2,7.8283586E-2,1.4471054E-2,-5.3524017E-2,-1.369667E-1,-2.7691364E-2,1.7545471E-2,3.8935856E-3,-1.930227E-2,1.3617706E-1,2.6941935E-2,-2.244568E-3,-6.008802E-2,4.196879E-2,-1.73541E-2],"categories":[],"categories_nodes":[],"categories_segments":[],"categories_sizes":[],"default_left":[1,1,1,1,1,1,1,1,1,1,1,0,0,1,1,1,1,0,1,0,1,0,1,0,1,1,1,1,1,0,0,0,0,0,0,0,0,0,0,0,0,1,1,0,0,0,0,0,0,0,0],"id":42,"left_children":[1,3,5,7,9,11,13,15,17,19,21,-1,-1,23,25,27,29,-1,31,-1,33,-1,35,-1,37,39,41,43,45,-1,-1,-1,-1,-1,-1,-1,-1,-1,-1,-1,-1,47,49,-1,-1,-1,-1,-1,-1,-1,-1],"loss_changes":[1.8031564E-2,9.5749766E-2,6.875154E-2,4.3660976E-2,6.095361E-2,7.754065E-3,3.2033496E-2,4.8948105E-2,1.2307003E-2,9.115895E-3,1.1106238E-2,0E0,0E0,2.0755777E-2,5.6300066E-2,4.82223E-2,1.3212115E-4,0E0,3.001187E-5,0E0,1.2832242E-3,0E0,2.6584268E-3,0E0,1.7114356E-3,2.635546E-3,1.9964585E-2,4.945661E-2,9.916127E-3,0E0,0E0,0E0,0E0,0E0,0E0,0E0,0E0,0E0,0E0,0E0,0E0,1.3055386E-2,2.2037413E-2,0E0,0E0,0E0,0E0,0E0,0E0,0E0,0E0],"parents":[2147483647,0,0,1,1,2,2,3,3,4,4,5,5,6,6,7,7,8,8,9,9,10,10,13,13,14,14,15,15,16,16,18,18,20,20,22,22,24,24,25,25,26,26,27,27,28,28,41,41,42,42],"right_children":[2,4,6,8,10,12,14,16,18,20,22,-1,-1,24,26,28,30,-1,32,-1,34,-1,36,-1,38,40,42,44,46,-1,-1,-1,-1,-1,-1,-1,-1,-1,-1,-1,-1,48,50,-1,-1,-1,-1,-1,-1,-1,-1],"split_conditions":[4.7915E1,4.7815002E1,4.8375E1,4.6845E1,4.5114998E1,4.3905E1,4.4085E1,4.6575E1,4.1715E1,4.8675E1,4.1345E1,-8.787919E-3,-3.6472894E-2,4.807E1,4.9415E1,4.6845E1,4.285E1,4.4146158E-2,4.2465E1,9.616013E-3,4.8695E1,1.8668748E-2,4.9505E1,-9.101487E-3,5.0205E1,4.925E1,4.9035E1,4.1239998E1,4.3184998E1,-3.755913E-2,-1.02092745E-2,5.619812E-3,1.4350206E-2,-1.5791131E-2,-1.2290955E-3,5.8652975E-2,1.4786339E-2,2.3485078E-2,4.3413164E-3,-1.6057206E-2,-4.109001E-2,4.928E1,4.9510002E1,1.1680757E-3,-5.790681E-3,4.085312E-2,8.082581E-3,-6.7337044E-4,-1.8026406E-2,1.2590637E-2,-5.20623E-3],"split_indices":[11,0,6,47,13,26,44,47,0,1,57,0,0,9,7,41,1,0,7,0,0,0,0,0,0,7,38,19,0,0,0,0,0,0,0,0,0,0,0,0,0,29,53,0,0,0,0,0,0,0,0],"split_type":[0,0,0,0,0,0,0,0,0,0,0,0,0,0,0,0,0,0,0,0,0,0,0,0,0,0,0,0,0,0,0,0,0,0,0,0,0,0,0,0,0,0,0,0,0,0,0,0,0,0,0],"sum_hessian":[6.58E2,5.98E2,6E1,5.85E2,1.3E1,7E0,5.3E1,5.78E2,7E0,6E0,7E0,2E0,5E0,9E0,4.4E1,5.75E2,3E0,1E0,6E0,4E0,2E0,3E0,4E0,2E0,7E0,5E0,3.9E1,5.71E2,4E0,2E0,1E0,2E0,4E0,1E0,1E0,3E0,1E0,6E0,1E0,3E0,2E0,1.5E1,2.4E1,4.57E2,1.14E2,2E0,2E0,9E0,6E0,1.4E1,1E1],"tree_param":{"num_deleted":"0","num_feature":"60","num_nodes":"51","size_leaf_vector":"0"}},{"base_weights":[5.171346E-4,-3.5487677E-3,8.988515E-3,-3.2366274E-4,-6.880333E-2,1.3774548E-1,6.576765E-4,-3.0699256E-3,1.1422787E-1,-1.8889745E-1,-4.6219874E-2,1.8379135E-1,-1.1805534E-2,-1.3166618E-1,6.082975E-3,-1.20911776E-4,-9.47069E-2,1.0271835E-2,1.8181992E-1,-1.771164E-2,-1.2250061E-1,2.6296693E-1,8.717982E-2,3.0264536E-2,-6.900787E-2,-2.0528793E-2,-1.9424286E-1,1.2590313E-1,3.5550396E-3,-4.1384017E-3,7.3538825E-2,4.556529E-2,-1.2435324E-1,-4.868412E-2,3.7181854E-2,2.2201443E-1,6.76206E-2,-7.106345E-2,2.5752174E-2,-2.7198792E-2,-2.593994E-4,1.5808995E-1,1.4671326E-2,-1.0055008E-1,6.304883E-3,2.8204797E-3,-3.549366E-2,1.529185E-1,1.2926836E-2,-1.5966415E-1,-5.00473E-2,4.852931E-2,1.5697479E-3,1.893425E-2,-8.921877E-2,8.4609985E-2,-3.151485E-3,-9.5300674E-2,8.46768E-3],"categories":[],"categories_nodes":[],"categories_segments":[],"categories_sizes":[],"default_left":[1,1,1,1,1,1,1,1,1,0,1,1,1,1,1,1,1,1,1,1,0,0,0,0,0,1,0,1,1,1,1,0,1,0,1,0,0,1,1,0,0,0,0,0,1,0,0,0,0,0,0,0,0,0,0,0,0,0,0],"id":43,"left_children":[1,3,5,7,9,11,13,15,17,-1,19,21,23,25,27,29,31,33,35,37,-1,-1,-1,-1,-1,39,-1,41,43,45,47,-1,49,-1,51,-1,-1,53,55,-1,-1,-1,-1,-1,57,-1,-1,-1,-1,-1,-1,-1,-1,-1,-1,-1,-1,-1,-1],"loss_changes":[2.2730362E-2,9.383969E-2,2.2945724E-1,1.3436541E-1,4.822412E-2,9.169042E-2,1.45816E-1,1.12678096E-1,6.8398386E-2,0E0,3.9148267E-2,5.356732E-2,1.1714517E-2,5.1649302E-2,5.8617447E-2,1.20154865E-1,5.9727415E-2,9.742695E-3,1.2528375E-2,3.6613137E-2,0E0,0E0,0E0,0E0,0E0,5.33732E-4,0E0,1.2001403E-2,5.559833E-2,8.4106155E-2,9.906181E-2,0E0,2.0871162E-2,0E0,1.5402478E-3,0E0,0E0,1.312685E-2,1.5577502E-2,0E0,0E0,0E0,0E0,0E0,4.212038E-2,0E0,0E0,0E0,0E0,0E0,0E0,0E0,0E0,0E0,0E0,0E0,0E0,0E0,0E0],"parents":[2147483647,0,0,1,1,2,2,3,3,4,4,5,5,6,6,7,7,8,8,10,10,11,11,12,12,13,13,14,14,15,15,16,16,17,17,18,18,19,19,25,25,27,27,28,28,29,29,30,30,32,32,34,34,37,37,38,38,44,44],"right_children":[2,4,6,8,10,12,14,16,18,-1,20,22,24,26,28,30,32,34,36,38,-1,-1,-1,-1,-1,40,-1,42,44,46,48,-1,50,-1,52,-1,-1,54,56,-1,-1,-1,-1,-1,58,-1,-1,-1,-1,-1,-1,-1,-1,-1,-1,-1,-1,-1,-1],"split_conditions":[4.1260002E1,4.1050003E1,3.878E1,4.0825E1,4.0525E1,4.0455E1,4.107E1,4.059E1,3.9215E1,-5.6669235E-2,4.1795E1,4.0795E1,4.5025E1,4.172E1,4.065E1,4.0425E1,3.9445E1,4.039E1,4.0445E1,3.815E1,-3.6750186E-2,7.8890085E-2,2.6153946E-2,9.079361E-3,-2.0702362E-2,4.2965E1,-5.827286E-2,4.2160004E1,3.904E1,3.8985E1,3.9215E1,1.3669587E-2,3.8300003E1,-1.4605236E-2,4.0985E1,6.660433E-2,2.028618E-2,4.025E1,4.1050003E1,-8.159637E-3,-7.781983E-5,4.7426987E-2,4.401398E-3,-3.0165024E-2,4.063E1,8.461439E-4,-1.0648099E-2,4.5875553E-2,3.8780507E-3,-4.789925E-2,-1.5014191E-2,1.4558793E-2,4.709244E-4,5.680275E-3,-2.6765633E-2,2.5382997E-2,-9.4544556E-4,-2.8590204E-2,2.540304E-3],"split_indices":[3,2,53,2,1,28,5,3,19,0,12,11,0,1,7,6,7,0,0,51,0,0,0,0,0,0,0,3,31,17,23,0,38,0,0,0,0,5,3,0,0,0,0,0,8,0,0,0,0,0,0,0,0,0,0,0,0,0,0],"split_type":[0,0,0,0,0,0,0,0,0,0,0,0,0,0,0,0,0,0,0,0,0,0,0,0,0,0,0,0,0,0,0,0,0,0,0,0,0,0,0,0,0,0,0,0,0,0,0,0,0,0,0,0,0,0,0,0,0,0,0],"sum_hessian":[6.58E2,4.45E2,2.13E2,4.25E2,2E1,1.2E1,2.01E2,4.16E2,9E0,2E0,1.8E1,9E0,3E0,7E0,1.94E2,4.04E2,1.2E1,4E0,5E0,1.4E1,4E0,4E0,5E0,2E0,1E0,3E0,4E0,3E0,1.91E2,3.84E2,2E1,2E0,1E1,1E0,3E0,3E0,2E0,6E0,8E0,2E0,1E0,2E0,1E0,4E0,1.87E2,3.15E2,6.9E1,8E0,1.2E1,6E0,4E0,2E0,1E0,1E0,5E0,2E0,6E0,3E0,1.84E2],"tree_param":{"num_deleted":"0","num_feature":"60","num_nodes":"59","size_leaf_vector":"0"}},{"base_weights":[3.7734825E-4,-1.1583748E-2,2.742833E-3,-3.1779038E-3,-6.4048514E-2,4.2319324E-2,-2.712525E-4,-6.7301006E-3,7.931709E-2,1.1609077E-2,-8.3930336E-2,3.2249733E-3,1.2025995E-1,-2.7218513E-2,2.827394E-3,2.3669952E-3,-5.3586323E-2,1.8184027E-2,-4.057884E-3,2.166748E-2,-9.54999E-2,-1.084439E-2,8.683491E-2,2.1418877E-1,5.4715052E-2,6.913093E-3,-7.203857E-2,1.0716629E-1,9.825955E-4,-3.3060797E-3,8.5855104E-2,-1.1803436E-1,-1.9420277E-2,-1.211956E-1,-6.350299E-2,1.7323421E-2,-4.045582E-2,1.2635295E-1,-1.5859604E-2,-2.960205E-3,1.014473E-1,3.173776E-2,-4.8392486E-2,-1.2623279E-1,-1.1841138E-2,-5.36143E-2,1.6969554E-1,-5.9486642E-2,3.0418136E-3,-8.26481E-3,8.553791E-2,4.2757988E-2,1.2912178E-1,-3.4805086E-2,3.3207577E-2,-1.8802261E-2,1.0330677E-1,-5.688985E-2,6.634712E-3,1.5227318E-2,-3.785515E-2,1.4168422E-1,2.7394613E-2,-1.736589E-2,7.410463E-2,-2.7532578E-3,-6.755883E-2,-4.8007965E-3,-1.500391E-1,-3.545151E-2,7.080714E-2,-3.0784607E-3,-7.734299E-2,2.1709633E-1,4.9929302E-2,-3.950882E-3,-1.421318E-1,9.725571E-2,1.9544023E-3],"categories":[],"categories_nodes":[],"categories_segments":[],"categories_sizes":[],"default_left":[1,1,1,1,1,1,1,1,0,1,1,1,1,1,1,1,1,0,0,0,1,1,1,0,1,1,1,1,1,1,1,0,1,0,0,1,1,0,0,1,1,1,1,1,1,1,1,1,1,0,0,0,0,0,0,0,0,0,0,0,0,0,0,0,0,0,0,0,0,0,0,0,0,0,0,0,0,0,0],"id":44,"left_children":[1,3,5,7,9,11,13,15,-1,17,19,21,23,25,27,29,31,-1,-1,-1,33,35,37,-1,39,41,43,45,47,49,51,-1,53,-1,-1,55,57,-1,-1,59,61,63,65,67,69,71,73,75,77,-1,-1,-1,-1,-1,-1,-1,-1,-1,-1,-1,-1,-1,-1,-1,-1,-1,-1,-1,-1,-1,-1,-1,-1,-1,-1,-1,-1,-1,-1],"loss_changes":[1.8677382E-2,4.786662E-2,6.573857E-2,2.8372465E-2,2.3537513E-2,1.1844665E-1,4.2912476E-2,3.9342348E-2,0E0,4.8582657E-4,1.6729899E-2,3.270281E-2,6.831586E-2,8.157638E-2,8.862994E-2,3.7227318E-2,3.0736756E-2,0E0,0E0,0E0,1.3477281E-3,2.0718971E-2,1.8237052E-2,0E0,2.4557952E-2,4.409709E-2,7.353937E-2,8.952603E-2,5.6712735E-2,3.330791E-2,3.802359E-3,0E0,1.0062156E-2,0E0,0E0,4.2323098E-2,9.664096E-3,0E0,0E0,3.7496954E-3,1.10168755E-2,4.7054987E-2,8.561363E-3,3.3969864E-2,2.5926497E-2,3.3593504E-3,2.322261E-2,6.8284884E-2,4.4887587E-2,0E0,0E0,0E0,0E0,0E0,0E0,0E0,0E0,0E0,0E0,0E0,0E0,0E0,0E0,0E0,0E0,0E0,0E0,0E0,0E0,0E0,0E0,0E0,0E0,0E0,0E0,0E0,0E0,0E0,0E0],"parents":[2147483647,0,0,1,1,2,2,3,3,4,4,5,5,6,6,7,7,9,9,10,10,11,11,12,12,13,13,14,14,15,15,16,16,20,20,21,21,22,22,24,24,25,25,26,26,27,27,28,28,29,29,30,30,32,32,35,35,36,36,39,39,40,40,41,41,42,42,43,43,44,44,45,45,46,46,47,47,48,48],"right_children":[2,4,6,8,10,12,14,16,-1,18,20,22,24,26,28,30,32,-1,-1,-1,34,36,38,-1,40,42,44,46,48,50,52,-1,54,-1,-1,56,58,-1,-1,60,62,64,66,68,70,72,74,76,78,-1,-1,-1,-1,-1,-1,-1,-1,-1,-1,-1,-1,-1,-1,-1,-1,-1,-1,-1,-1,-1,-1,-1,-1,-1,-1,-1,-1,-1,-1],"split_conditions":[3.1735E1,3.1985E1,3.2575E1,3.2004997E1,2.9415E1,3.335E1,3.4375E1,3.2004997E1,2.379513E-2,2.9055E1,2.844E1,3.908E1,3.3434998E1,3.4175E1,3.429E1,3.175E1,3.1985E1,5.455208E-3,-1.2173653E-3,6.5002446E-3,3.3035E1,3.24E1,3.992E1,6.425663E-2,3.2455E1,3.2805E1,3.759E1,3.496E1,3.4465E1,3.2015E1,2.983E1,-3.541031E-2,3.2010002E1,-3.635868E-2,-1.9050898E-2,3.1919998E1,3.4175E1,3.7905887E-2,-4.757881E-3,3.534E1,3.9805E1,3.004E1,2.992E1,3.1845001E1,3.427E1,3.264E1,3.7155E1,3.735E1,3.4525E1,-2.479443E-3,2.5661374E-2,1.2827397E-2,3.8736537E-2,-1.0441526E-2,9.962274E-3,-5.6406786E-3,3.0992033E-2,-1.7066956E-2,1.9904138E-3,4.5681954E-3,-1.1356545E-2,4.2505268E-2,8.218384E-3,-5.2097673E-3,2.2231389E-2,-8.2597736E-4,-2.026765E-2,-1.440239E-3,-4.5011733E-2,-1.0635453E-2,2.1242142E-2,-9.2353823E-4,-2.3202896E-2,6.51289E-2,1.4978792E-2,-1.1852646E-3,-4.2639542E-2,2.9176714E-2,5.863207E-4],"split_indices":[58,52,55,53,17,46,48,40,0,0,59,0,47,23,46,49,44,0,0,0,50,39,0,0,36,42,13,6,56,44,0,0,57,0,0,4,40,0,0,1,0,19,9,41,51,0,25,31,45,0,0,0,0,0,0,0,0,0,0,0,0,0,0,0,0,0,0,0,0,0,0,0,0,0,0,0,0,0,0],"split_type":[0,0,0,0,0,0,0,0,0,0,0,0,0,0,0,0,0,0,0,0,0,0,0,0,0,0,0,0,0,0,0,0,0,0,0,0,0,0,0,0,0,0,0,0,0,0,0,0,0,0,0,0,0,0,0,0,0,0,0,0,0,0,0,0,0,0,0,0,0,0,0,0,0,0,0,0,0,0,0],"sum_hessian":[6.58E2,1.08E2,5.5E2,9.4E1,1.4E1,3.8E1,5.12E2,9.1E1,3E0,3E0,1.1E1,2.6E1,1.2E1,5.2E1,4.6E2,7.7E1,1.4E1,2E0,1E0,1E0,1E1,2.3E1,3E0,4E0,8E0,3E1,2.2E1,7E0,4.53E2,7.3E1,4E0,4E0,1E1,4E0,6E0,1.2E1,1.1E1,2E0,1E0,4E0,4E0,2.1E1,9E0,1.1E1,1.1E1,2E0,5E0,1.4E1,4.39E2,7E1,3E0,3E0,1E0,8E0,2E0,9E0,3E0,8E0,3E0,3E0,1E0,2E0,2E0,1E1,1.1E1,3E0,6E0,2E0,9E0,9E0,2E0,1E0,1E0,3E0,2E0,9E0,5E0,4E0,4.35E2],"tree_param":{"num_deleted":"0","num_feature":"60","num_nodes":"79","size_leaf_vector":"0"}},{"base_weights":[5.2381464E-4,2.4190552E-3,-1.4491519E-2,-1.3639936E-3,2.4732837E-2,-6.437801E-2,-3.7977158E-3,-2.1068284E-3,1.853981E-1,1.080871E-1,9.550121E-3,-3.0545807E-2,-1.32864E-1,4.466591E-2,-1.287014E-2,8.0599275E-4,-4.482305E-2,4.030927E-2,1.4540958E-1,-1.39282625E-2,3.406758E-2,1.7528534E-2,-4.475546E-2,7.7926E-2,-4.179382E-3,-5.092948E-2,7.7238085E-4,-2.9326228E-3,4.7355432E-2,-8.450749E-2,5.0933458E-2,2.3460388E-4,4.827728E-2,1.6492952E-1,4.3849945E-3,3.759416E-2,-3.6311254E-2,5.549771E-2,-3.572464E-3,3.736496E-3,2.2556305E-2,-3.2081604E-3,-5.8069866E-2,9.830475E-3,-1.6796112E-2,2.0183563E-2,-8.139305E-2,8.592987E-3,-4.497655E-2,-7.636603E-4,-8.666403E-2,9.715533E-2,5.147743E-3,-1.0353249E-1,4.6890257E-3,8.920888E-2,-2.878189E-2,6.783676E-2,-7.57459E-2,-6.633268E-2,-3.6961692E-3,7.491437E-2,4.147121E-4,3.119278E-2,-4.2793818E-2,-6.565094E-3,1.7528534E-3,9.822845E-4,1.3763428E-2,5.5337906E-2,-2.439499E-3,-8.6109586E-2,-1.9472122E-2,-3.939374E-2,1.79039E-2,-2.872467E-3,-8.6123146E-2],"categories":[],"categories_nodes":[],"categories_segments":[],"categories_sizes":[],"default_left":[1,1,1,1,1,1,1,1,0,1,1,1,0,1,1,1,1,1,1,1,1,1,1,0,1,1,1,1,1,1,1,0,0,0,0,1,1,1,1,0,0,1,0,1,0,1,1,1,1,0,0,0,0,0,0,0,0,0,0,0,0,0,0,0,0,0,0,0,0,0,0,0,0,0,0,0,0],"id":45,"left_children":[1,3,5,7,9,11,13,15,-1,17,19,21,-1,23,25,27,29,31,33,35,37,39,41,-1,43,45,47,49,51,53,55,-1,-1,-1,-1,57,59,61,63,-1,-1,65,-1,67,-1,69,71,73,75,-1,-1,-1,-1,-1,-1,-1,-1,-1,-1,-1,-1,-1,-1,-1,-1,-1,-1,-1,-1,-1,-1,-1,-1,-1,-1,-1,-1],"loss_changes":[1.8788658E-2,4.9500413E-2,3.9232757E-2,7.003476E-2,1.0653901E-1,2.6062973E-2,2.783518E-2,6.237291E-2,0E0,2.7023926E-2,4.249551E-2,7.615694E-3,0E0,1.657167E-2,2.7558282E-2,8.193319E-2,1.2590563E-1,1.9045668E-3,2.1299124E-2,4.5187682E-2,2.9236976E-2,1.2374803E-4,4.2391233E-3,0E0,1.0489067E-3,3.197181E-2,1.4697858E-2,7.91159E-2,7.3067725E-2,3.9515644E-2,3.3078983E-2,0E0,0E0,0E0,0E0,4.627074E-2,2.6191909E-2,2.456808E-2,2.0424418E-2,0E0,0E0,6.146903E-5,0E0,9.087892E-5,0E0,4.111491E-3,1.243785E-3,1.6343312E-2,1.0147254E-2,0E0,0E0,0E0,0E0,0E0,0E0,0E0,0E0,0E0,0E0,0E0,0E0,0E0,0E0,0E0,0E0,0E0,0E0,0E0,0E0,0E0,0E0,0E0,0E0,0E0,0E0,0E0,0E0],"parents":[2147483647,0,0,1,1,2,2,3,3,4,4,5,5,6,6,7,7,9,9,10,10,11,11,13,13,14,14,15,15,16,16,17,17,18,18,19,19,20,20,21,21,22,22,24,24,25,25,26,26,27,27,28,28,29,29,30,30,35,35,36,36,37,37,38,38,41,41,43,43,45,45,46,46,47,47,48,48],"right_children":[2,4,6,8,10,12,14,16,-1,18,20,22,-1,24,26,28,30,32,34,36,38,40,42,-1,44,46,48,50,52,54,56,-1,-1,-1,-1,58,60,62,64,-1,-1,66,-1,68,-1,70,72,74,76,-1,-1,-1,-1,-1,-1,-1,-1,-1,-1,-1,-1,-1,-1,-1,-1,-1,-1,-1,-1,-1,-1,-1,-1,-1,-1,-1,-1],"split_conditions":[4.6239998E1,4.2225E1,4.733E1,4.558E1,4.2265E1,4.628E1,4.1525E1,4.184E1,5.5619434E-2,4.1195E1,4.4809998E1,4.6305E1,-3.98592E-2,4.4665E1,4.9364998E1,4.091E1,4.2675003E1,3.9965E1,4.425E1,4.1434998E1,4.6129997E1,4.5035E1,4.4809998E1,2.3377802E-2,4.772E1,4.8405E1,4.971E1,4.1045E1,4.1E1,4.2144997E1,4.221E1,7.038117E-5,1.4483185E-2,4.947886E-2,1.3154984E-3,4.397E1,4.37E1,4.641E1,4.5915E1,1.1209488E-3,6.7668916E-3,4.48E1,-1.742096E-2,4.5795E1,-5.0388337E-3,4.652E1,5.3309998E1,4.9565002E1,4.9595E1,-2.2909809E-4,-2.5999209E-2,2.91466E-2,1.5443229E-3,-3.105975E-2,1.4067078E-3,2.6762664E-2,-8.634567E-3,2.035103E-2,-2.2723772E-2,-1.9899806E-2,-1.1088508E-3,2.2474313E-2,1.2441364E-4,9.357834E-3,-1.2838146E-2,-1.9695284E-3,5.2585604E-4,2.9468536E-4,4.1290284E-3,1.6601373E-2,-7.318497E-4,-2.5832877E-2,-5.841637E-3,-1.1818123E-2,5.37117E-3,-8.6174015E-4,-2.5836945E-2],"split_indices":[18,26,16,13,25,3,58,34,0,48,23,17,0,43,7,34,43,15,32,0,14,0,2,0,0,9,51,37,7,19,11,0,0,0,0,24,0,36,21,0,0,0,0,0,0,0,0,1,35,0,0,0,0,0,0,0,0,0,0,0,0,0,0,0,0,0,0,0,0,0,0,0,0,0,0,0,0],"split_type":[0,0,0,0,0,0,0,0,0,0,0,0,0,0,0,0,0,0,0,0,0,0,0,0,0,0,0,0,0,0,0,0,0,0,0,0,0,0,0,0,0,0,0,0,0,0,0,0,0,0,0,0,0,0,0,0,0,0,0,0,0,0,0,0,0,0,0,0,0,0,0,0,0,0,0,0,0],"sum_hessian":[6.58E2,5.85E2,7.3E1,5.01E2,8.4E1,1.2E1,6.1E1,5E2,1E0,1.2E1,7.2E1,9E0,3E0,9E0,5.2E1,4.69E2,3.1E1,5E0,7E0,3.7E1,3.5E1,2E0,7E0,5E0,4E0,1.3E1,3.9E1,4.35E2,3.4E1,2.2E1,9E0,1E0,4E0,6E0,1E0,1.1E1,2.6E1,2.2E1,1.3E1,1E0,1E0,2E0,5E0,2E0,2E0,4E0,9E0,3.4E1,5E0,4.25E2,1E1,1.5E1,1.9E1,1.8E1,4E0,6E0,3E0,9E0,2E0,1.3E1,1.3E1,1.6E1,6E0,7E0,6E0,1E0,1E0,1E0,1E0,1E0,3E0,8E0,1E0,5E0,2.9E1,3E0,2E0],"tree_param":{"num_deleted":"0","num_feature":"60","num_nodes":"77","size_leaf_vector":"0"}},{"base_weights":[4.159612E-4,2.0055998E-2,-9.1947167E-4,-3.8963556E-4,7.7710934E-2,-3.379031E-2,9.925419E-4,-1.4853821E-2,4.4859648E-2,-1.9187927E-4,1.2225424E-1,-2.0715078E-2,-1.0548363E-1,1.7102454E-2,-1.2660305E-3,4.68198E-3,-5.0104354E-2,1.09625496E-1,5.0001144E-3,1.0669072E-2,-1.0988872E-2,3.3261616E-2,1.5119895E-1,4.8414376E-3,-3.8021725E-2,7.06778E-3,1.263059E-1,-2.5476363E-2,2.0503197E-3,1.897049E-2,-7.217026E-3,-6.0637474E-2,-2.1778584E-2,1.9295374E-2,-6.9713593E-3,1.4291763E-2,1.7118454E-3,-1.4297485E-2,-2.1858215E-3,-2.4353981E-2,2.6132822E-2,2.3563385E-3,-7.86616E-2,1.7224481E-2,-4.0919144E-2,1.8103886E-1,1.1226654E-2,-3.0115316E-2,1.2874985E-1,1.1034066E-1,3.49911E-4,2.4228096E-2,2.13178E-3,-1.3048887E-2,1.074028E-2,-6.268819E-4,-1.3002396E-2,-6.017685E-4,-2.898407E-2,-4.696846E-3,3.1208038E-2,3.27816E-2,-1.5366145E-2,1.1266391E-2,1.1872864E-1,-4.86056E-4,-6.973048E-2,3.020668E-2,-1.3366699E-2,-1.9594157E-2,-1.08479366E-1,3.6761474E-2,1.9619243E-1,-7.417079E-2,1.5319859E-3],"categories":[],"categories_nodes":[],"categories_segments":[],"categories_sizes":[],"default_left":[1,1,1,1,1,1,1,1,1,1,1,1,0,1,1,1,1,0,1,1,1,0,0,1,1,1,1,1,1,1,1,0,0,0,1,0,0,0,0,1,1,1,0,1,1,0,1,1,0,1,1,0,0,0,0,0,0,0,0,0,0,0,0,0,0,0,0,0,0,0,0,0,0,0,0],"id":46,"left_children":[1,3,5,7,9,11,13,15,17,19,21,23,-1,25,27,29,31,-1,33,35,37,-1,-1,39,41,43,45,47,49,51,53,-1,-1,-1,55,-1,-1,-1,-1,57,59,61,-1,63,65,-1,67,69,-1,71,73,-1,-1,-1,-1,-1,-1,-1,-1,-1,-1,-1,-1,-1,-1,-1,-1,-1,-1,-1,-1,-1,-1,-1,-1],"loss_changes":[1.730266E-2,4.953953E-2,3.8874518E-2,2.1610146E-2,3.8193993E-2,2.9686723E-2,2.130711E-2,1.7450772E-2,2.0104153E-2,7.035691E-4,1.3001941E-2,1.3453007E-2,0E0,7.80064E-2,4.1321266E-2,3.0272345E-3,1.3646297E-3,0E0,1.161327E-3,7.288251E-5,5.6125922E-5,0E0,0E0,8.7173795E-3,2.9722624E-2,3.3359867E-2,3.5759307E-2,4.823512E-2,8.337584E-2,6.566015E-4,1.1873939E-3,0E0,0E0,0E0,1.4490412E-4,0E0,0E0,0E0,0E0,6.4240745E-4,1.398317E-3,5.895839E-3,0E0,3.2529537E-2,1.3945289E-2,0E0,1.8041111E-3,4.816775E-2,0E0,3.7006E-2,3.9489437E-2,0E0,0E0,0E0,0E0,0E0,0E0,0E0,0E0,0E0,0E0,0E0,0E0,0E0,0E0,0E0,0E0,0E0,0E0,0E0,0E0,0E0,0E0,0E0,0E0],"parents":[2147483647,0,0,1,1,2,2,3,3,4,4,5,5,6,6,7,7,8,8,9,9,10,10,11,11,13,13,14,14,15,15,16,16,18,18,19,19,20,20,23,23,24,24,25,25,26,26,27,27,28,28,29,29,30,30,34,34,39,39,40,40,41,41,43,43,44,44,46,46,47,47,49,49,50,50],"right_children":[2,4,6,8,10,12,14,16,18,20,22,24,-1,26,28,30,32,-1,34,36,38,-1,-1,40,42,44,46,48,50,52,54,-1,-1,-1,56,-1,-1,-1,-1,58,60,62,-1,64,66,-1,68,70,-1,72,74,-1,-1,-1,-1,-1,-1,-1,-1,-1,-1,-1,-1,-1,-1,-1,-1,-1,-1,-1,-1,-1,-1,-1,-1],"split_conditions":[2.932E1,2.8955E1,3.0255E1,3.31E1,3.041E1,3.01E1,3.2575E1,3.225E1,3.272E1,3.0404999E1,3.0195E1,3.0925E1,-3.164509E-2,3.9510002E1,3.479E1,2.8185001E1,3.3965E1,3.288765E-2,3.392E1,2.8895E1,3.1255001E1,9.978485E-3,4.5359686E-2,2.9720001E1,2.8695E1,3.4129997E1,3.7300003E1,3.6265E1,3.429E1,2.961E1,3.0650002E1,-1.8191243E-2,-6.5335752E-3,5.788612E-3,3.4239998E1,4.2875293E-3,5.135536E-4,-4.2892457E-3,-6.557465E-4,2.8345001E1,2.699E1,3.725E1,-2.3598481E-2,3.4324997E1,3.1779999E1,5.431166E-2,4.014E1,3.514E1,3.8624957E-2,3.6125E1,3.389E1,7.2684293E-3,6.39534E-4,-3.9146664E-3,3.2220841E-3,-1.8806457E-4,-3.9007189E-3,-1.8053055E-4,-8.6952215E-3,-1.4090538E-3,9.362412E-3,9.8344805E-3,-4.6098437E-3,3.3799175E-3,3.5618592E-2,-1.4581681E-4,-2.0919146E-2,9.062004E-3,-4.01001E-3,-5.8782473E-3,-3.2543812E-2,1.10284425E-2,5.885773E-2,-2.2251237E-2,4.595958E-4],"split_indices":[46,47,56,14,16,56,55,11,12,0,0,13,0,2,48,46,2,0,13,0,0,0,0,46,58,38,21,45,46,37,34,0,0,0,9,0,0,0,0,1,17,2,0,37,54,0,0,45,0,7,55,0,0,0,0,0,0,0,0,0,0,0,0,0,0,0,0,0,0,0,0,0,0,0,0],"split_type":[0,0,0,0,0,0,0,0,0,0,0,0,0,0,0,0,0,0,0,0,0,0,0,0,0,0,0,0,0,0,0,0,0,0,0,0,0,0,0,0,0,0,0,0,0,0,0,0,0,0,0,0,0,0,0,0,0,0,0,0,0,0,0,0,0,0,0,0,0,0,0,0,0,0,0],"sum_hessian":[6.58E2,4.1E1,6.17E2,3.1E1,1E1,3.3E1,5.84E2,2.4E1,7E0,4E0,6E0,2.9E1,4E0,7.1E1,5.13E2,1.6E1,8E0,2E0,5E0,2E0,2E0,2E0,4E0,1.2E1,1.7E1,6.6E1,5E0,6.1E1,4.52E2,7E0,9E0,5E0,3E0,2E0,3E0,1E0,1E0,1E0,1E0,5E0,7E0,9E0,8E0,5.5E1,1.1E1,3E0,2E0,6E1,1E0,6E0,4.46E2,5E0,2E0,7E0,2E0,2E0,1E0,1E0,4E0,1E0,6E0,3E0,6E0,5.3E1,2E0,5E0,6E0,1E0,1E0,5.4E1,6E0,4E0,2E0,6E0,4.4E2],"tree_param":{"num_deleted":"0","num_feature":"60","num_nodes":"75","size_leaf_vector":"0"}},{"base_weights":[5.153401E-4,1.9852251E-3,-1.3926897E-2,-2.4441164E-4,3.0114608E-2,-5.80101E-2,-6.178298E-3,1.4004981E-3,-5.5847645E-2,9.937583E-2,1.1962784E-2,-8.131027E-2,-3.2808304E-2,-1.1170991E-2,4.3985747E-2,6.086786E-4,8.616181E-2,-9.0888344E-2,-3.165748E-2,3.589058E-2,1.6975975E-1,-5.988455E-2,3.137023E-2,-8.987427E-3,-3.5774995E-2,3.3126832E-3,-3.2337952E-2,1.4333089E-2,5.897649E-2,-2.4215004E-3,1.7452007E-2,9.853935E-2,1.8325806E-2,-4.990101E-2,-1.15242004E-1,-1.3712883E-2,-5.96323E-2,4.578781E-2,1.0730743E-2,2.1185556E-2,-9.043884E-2,-2.0204544E-2,4.295683E-2,-2.8454462E-2,1.0804291E-2,-8.760643E-2,-8.074697E-3,3.8985186E-3,-4.119253E-2,8.5969925E-2,3.2968936E-3,6.6541038E-3,-2.1610895E-2,6.2217712E-3,2.5556564E-2,9.206772E-3,-2.7928162E-2,5.153552E-2,-3.427251E-2,8.737564E-3,-3.764038E-2,4.2801995E-2,-1.5529833E-3,-2.3506165E-2,-9.572525E-2,2.7386593E-3,-5.224101E-2],"categories":[],"categories_nodes":[],"categories_segments":[],"categories_sizes":[],"default_left":[1,1,1,1,1,1,1,1,1,1,1,0,1,1,1,1,1,1,1,1,0,1,1,0,0,1,1,0,0,1,1,0,0,0,0,1,0,0,0,1,0,1,1,1,1,1,1,0,0,0,0,0,0,0,0,0,0,0,0,0,0,0,0,0,0,0,0],"id":47,"left_children":[1,3,5,7,9,11,13,15,17,19,21,-1,23,25,27,29,31,33,35,37,-1,39,41,-1,-1,43,45,-1,-1,47,49,-1,-1,-1,-1,51,-1,-1,-1,53,-1,55,57,59,61,63,65,-1,-1,-1,-1,-1,-1,-1,-1,-1,-1,-1,-1,-1,-1,-1,-1,-1,-1,-1,-1],"loss_changes":[1.4017182E-2,3.7575625E-2,2.0478163E-2,5.0931253E-2,5.412876E-2,2.6172027E-3,1.376541E-2,3.625712E-2,1.0684945E-2,3.412229E-2,5.207602E-2,0E0,1.0248972E-4,1.5129318E-2,1.3772612E-3,2.7449828E-2,2.3924E-3,2.3845956E-4,4.704236E-3,1.0027392E-3,0E0,2.1732315E-2,1.8197635E-2,0E0,0E0,7.44704E-3,2.6112469E-2,0E0,0E0,1.11895934E-1,7.924664E-2,0E0,0E0,0E0,0E0,1.430671E-3,0E0,0E0,0E0,3.721332E-5,0E0,1.6200985E-3,1.7666891E-2,2.3787427E-3,9.95158E-3,8.7238103E-4,7.3068608E-3,0E0,0E0,0E0,0E0,0E0,0E0,0E0,0E0,0E0,0E0,0E0,0E0,0E0,0E0,0E0,0E0,0E0,0E0,0E0,0E0],"parents":[2147483647,0,0,1,1,2,2,3,3,4,4,5,5,6,6,7,7,8,8,9,9,10,10,12,12,13,13,14,14,15,15,16,16,17,17,18,18,19,19,21,21,22,22,25,25,26,26,29,29,30,30,35,35,39,39,41,41,42,42,43,43,44,44,45,45,46,46],"right_children":[2,4,6,8,10,12,14,16,18,20,22,-1,24,26,28,30,32,34,36,38,-1,40,42,-1,-1,44,46,-1,-1,48,50,-1,-1,-1,-1,52,-1,-1,-1,54,-1,56,58,60,62,64,66,-1,-1,-1,-1,-1,-1,-1,-1,-1,-1,-1,-1,-1,-1,-1,-1,-1,-1,-1,-1],"split_conditions":[4.7915E1,4.577E1,4.842E1,4.4945E1,4.4815E1,4.828E1,5.362E1,4.505E1,4.5225E1,4.4504997E1,4.1989998E1,-2.4393084E-2,4.7885002E1,4.9684998E1,5.175E1,4.184E1,4.4885E1,4.4605E1,4.6185E1,4.79E1,5.0927926E-2,4.064E1,3.9655E1,-2.6962282E-3,-1.0732499E-2,4.9035E1,4.9989998E1,4.299927E-3,1.7692948E-2,3.9995E1,4.1575E1,2.9561806E-2,5.497742E-3,-1.49703035E-2,-3.45726E-2,4.5945E1,-1.7889692E-2,1.3736344E-2,3.219223E-3,4.617E1,-2.7131654E-2,4.6285E1,4.472E1,4.8485E1,4.422E1,5.058E1,5.3765E1,1.1695556E-3,-1.235776E-2,2.5790978E-2,9.890681E-4,1.9962313E-3,-6.483269E-3,1.8665314E-3,7.6669697E-3,2.7620317E-3,-8.378449E-3,1.5460657E-2,-1.0281754E-2,2.6212693E-3,-1.1292115E-2,1.2840599E-2,-4.6589502E-4,-7.0518497E-3,-2.8717577E-2,8.215978E-4,-1.5672304E-2],"split_indices":[11,0,6,3,10,10,25,4,6,11,29,0,1,22,0,49,1,0,4,3,0,57,47,0,0,1,23,0,0,45,43,0,0,0,0,6,0,0,0,0,0,2,54,4,44,0,33,0,0,0,0,0,0,0,0,0,0,0,0,0,0,0,0,0,0,0,0],"split_type":[0,0,0,0,0,0,0,0,0,0,0,0,0,0,0,0,0,0,0,0,0,0,0,0,0,0,0,0,0,0,0,0,0,0,0,0,0,0,0,0,0,0,0,0,0,0,0,0,0,0,0,0,0,0,0,0,0,0,0,0,0,0,0,0,0,0,0],"sum_hessian":[6.58E2,5.98E2,6E1,5.55E2,4.3E1,8E0,5.2E1,5.4E2,1.5E1,8E0,3.5E1,3E0,5E0,4.8E1,4E0,5.36E2,4E0,5E0,1E1,5E0,3E0,7E0,2.8E1,1E0,4E0,2.9E1,1.9E1,2E0,2E0,4.55E2,8.1E1,3E0,1E0,3E0,2E0,7E0,3E0,3E0,2E0,2E0,5E0,5E0,2.3E1,5E0,2.4E1,5E0,1.4E1,3.92E2,6.3E1,1.3E1,6.8E1,2E0,5E0,1E0,1E0,1E0,4E0,2.1E1,2E0,1E0,4E0,6E0,1.8E1,1E0,4E0,1.2E1,2E0],"tree_param":{"num_deleted":"0","num_feature":"60","num_nodes":"67","size_leaf_vector":"0"}},{"base_weights":[3.0859397E-4,-6.9319005E-3,3.21336E-3,8.5163116E-4,-6.0479164E-2,1.0180337E-1,1.7222989E-3,-4.820155E-3,6.797497E-2,-1.8592142E-2,-8.9070454E-2,4.7873497E-2,1.302824E-1,8.5766114E-2,4.368327E-4,-1.8621611E-3,-7.747364E-2,3.1900026E-2,1.411686E-1,-3.707232E-2,1.0998535E-2,-1.0810263E-1,-1.4464378E-2,-3.0068398E-2,1.1008326E-1,-1.2743759E-1,1.2753151E-3,6.544325E-4,-6.1950047E-2,-3.4630775E-2,-1.0877291E-1,-6.8969727E-3,4.951259E-2,-8.602142E-3,-4.0383656E-2,-1.3896942E-2,3.2227833E-2,-1.2069464E-1,-5.5892944E-2,1.7606735E-2,-3.102366E-2,1.22039795E-1,2.51503E-2,9.548051E-2,-1.8967758E-4,-2.2072897E-3,4.957962E-2,-8.692312E-2,-8.002599E-3,-2.0710945E-2,4.6113334E-3,6.6075325E-2,2.0571709E-2,-1.1749268E-3,-1.9670486E-2,1.4460278E-1,2.2488117E-2,-4.2767018E-2,1.4747005E-3],"categories":[],"categories_nodes":[],"categories_segments":[],"categories_sizes":[],"default_left":[1,1,1,1,1,1,1,1,1,1,1,0,0,1,1,1,1,1,0,1,1,1,1,0,1,0,1,1,1,0,0,1,1,0,0,1,0,0,0,0,0,0,0,1,1,0,0,0,0,0,0,0,0,0,0,0,0,0,0],"id":48,"left_children":[1,3,5,7,9,11,13,15,17,19,21,-1,-1,23,25,27,29,31,-1,33,35,37,39,-1,41,-1,43,45,47,-1,-1,49,51,-1,-1,53,-1,-1,-1,-1,-1,-1,-1,55,57,-1,-1,-1,-1,-1,-1,-1,-1,-1,-1,-1,-1,-1,-1],"loss_changes":[1.3882325E-2,7.8824215E-2,6.9063425E-2,6.3525386E-2,2.7086489E-2,4.514016E-3,5.019903E-2,3.295165E-2,2.9822648E-2,6.4229914E-3,1.8315181E-2,0E0,0E0,2.3027387E-2,4.9376708E-2,2.2571843E-2,4.2788126E-3,7.1746344E-3,0E0,3.125351E-4,3.090436E-3,4.8570335E-4,2.670524E-3,0E0,3.023684E-3,0E0,6.308865E-2,2.027092E-2,7.387791E-3,0E0,0E0,7.3140673E-4,1.996098E-3,0E0,0E0,1.9724196E-4,0E0,0E0,0E0,0E0,0E0,0E0,0E0,2.1847017E-2,3.202309E-2,0E0,0E0,0E0,0E0,0E0,0E0,0E0,0E0,0E0,0E0,0E0,0E0,0E0,0E0],"parents":[2147483647,0,0,1,1,2,2,3,3,4,4,5,5,6,6,7,7,8,8,9,9,10,10,13,13,14,14,15,15,16,16,17,17,19,19,20,20,21,21,22,22,24,24,26,26,27,27,28,28,31,31,32,32,35,35,43,43,44,44],"right_children":[2,4,6,8,10,12,14,16,18,20,22,-1,-1,24,26,28,30,32,-1,34,36,38,40,-1,42,-1,44,46,48,-1,-1,50,52,-1,-1,54,-1,-1,-1,-1,-1,-1,-1,56,58,-1,-1,-1,-1,-1,-1,-1,-1,-1,-1,-1,-1,-1,-1],"split_conditions":[3.4845E1,3.4835E1,3.465E1,3.416E1,3.2489998E1,3.3434998E1,3.3864998E1,3.3824997E1,3.4805E1,3.185E1,3.7095E1,1.4362049E-2,3.908472E-2,3.4905E1,3.465E1,3.4485E1,3.4760002E1,2.9529999E1,4.235058E-2,2.854E1,3.021E1,3.554E1,3.6235E1,-9.020519E-3,3.8895E1,-3.823128E-2,3.5125E1,3.4175E1,3.49E1,-1.0389233E-2,-3.2631874E-2,2.684E1,3.2190002E1,-2.5806427E-3,-1.2115098E-2,2.9705E1,9.66835E-3,-3.620839E-2,-1.6767884E-2,5.2820207E-3,-9.307099E-3,3.661194E-2,7.54509E-3,3.8135002E1,3.5465E1,-6.6218694E-4,1.48738865E-2,-2.6076937E-2,-2.4007796E-3,-6.2132836E-3,1.3834E-3,1.9822598E-2,6.171513E-3,-3.5247803E-4,-5.901146E-3,4.3380834E-2,6.7464355E-3,-1.2830106E-2,4.4241018E-4],"split_indices":[23,49,24,49,25,0,37,50,46,11,50,0,0,24,25,27,52,9,0,10,0,17,0,0,10,0,25,26,28,0,0,0,30,0,0,0,0,0,0,0,0,0,0,1,26,0,0,0,0,0,0,0,0,0,0,0,0,0,0],"split_type":[0,0,0,0,0,0,0,0,0,0,0,0,0,0,0,0,0,0,0,0,0,0,0,0,0,0,0,0,0,0,0,0,0,0,0,0,0,0,0,0,0,0,0,0,0,0,0,0,0,0,0,0,0,0,0,0,0,0,0],"sum_hessian":[6.58E2,1.88E2,4.7E2,1.65E2,2.3E1,6E0,4.64E2,1.53E2,1.2E1,1E1,1.3E1,3E0,3E0,6E0,4.58E2,1.48E2,5E0,9E0,3E0,6E0,4E0,1E1,3E0,1E0,5E0,2E0,4.56E2,1.43E2,5E0,3E0,2E0,3E0,6E0,1E0,5E0,2E0,2E0,7E0,3E0,1E0,2E0,4E0,1E0,6E0,4.5E2,1.36E2,7E0,3E0,2E0,1E0,2E0,3E0,3E0,1E0,1E0,3E0,3E0,1.6E1,4.34E2],"tree_param":{"num_deleted":"0","num_feature":"60","num_nodes":"59","size_leaf_vector":"0"}},{"base_weights":[2.5550366E-4,3.6764436E-3,-4.749213E-3,-3.989839E-3,2.0083541E-2,-7.924832E-2,2.9536657E-4,1.0590092E-3,-6.3424334E-2,5.54342E-2,5.1615424E-3,-9.3061686E-2,7.08828E-2,6.36016E-2,-2.0409098E-3,-7.7656336E-4,1.13223076E-1,-8.703274E-2,5.8669567E-2,2.8481204E-3,9.536416E-2,-3.491745E-2,2.5115013E-2,-1.6091665E-2,-1.2658519E-1,-1.9252777E-2,1.3373566E-1,-4.6466544E-2,3.4707095E-3,-2.9920554E-3,7.49776E-2,1.4254634E-1,1.2626648E-2,-1.0940143E-1,-6.993866E-3,7.871691E-2,-7.362366E-4,7.7459335E-2,-3.469483E-2,1.8354906E-1,4.7853597E-2,6.995455E-2,-5.8690034E-2,1.20507374E-1,1.22842435E-2,1.8226624E-2,-3.7807465E-2,-1.7856827E-1,-7.13708E-2,-4.561742E-2,1.352946E-2,1.4777565E-1,3.878784E-2,-5.981735E-2,8.027903E-2,9.409269E-2,9.016834E-4,-9.940561E-4,-6.906945E-2,1.4465332E-1,1.817665E-2,-1.368744E-1,-3.2575227E-2,-1.386261E-2,1.0240555E-2,9.368229E-2,2.4393082E-2,1.5652657E-2,1.3404846E-1,-6.2141147E-2,3.1083424E-3,2.7906418E-2,2.0483844E-1,7.110558E-2,1.1247E-3,1.03303276E-1,2.7454376E-2,-8.510908E-2,8.089066E-3,5.569458E-3,2.0531845E-1,-3.3376694E-2,2.7576167E-2,-4.7341663E-2,-4.6024323E-3,1.7204285E-3,1.8573761E-2,-2.3716737E-2,-1.0360753E-1,1.02630615E-1,1.7787933E-2,1.9182205E-2,1.0523834E-1,-4.208242E-2,6.841497E-3],"categories":[],"categories_nodes":[],"categories_segments":[],"categories_sizes":[],"default_left":[1,1,1,1,1,1,1,1,1,1,1,1,0,1,1,1,1,1,1,1,1,1,1,1,1,1,1,1,1,1,1,0,0,1,1,1,0,1,1,1,1,1,1,1,1,0,1,0,0,0,1,0,0,1,1,1,1,0,0,0,0,0,0,0,0,0,0,0,0,0,0,0,0,0,0,0,0,0,0,0,0,0,0,0,0,0,0,0,0,0,0,0,0,0,0],"id":49,"left_children":[1,3,5,7,9,11,13,15,17,19,21,23,-1,25,27,29,31,33,35,37,39,41,43,45,47,49,51,53,55,57,59,-1,-1,61,63,65,-1,67,69,71,73,75,77,79,81,-1,83,-1,-1,-1,85,-1,-1,87,89,91,93,-1,-1,-1,-1,-1,-1,-1,-1,-1,-1,-1,-1,-1,-1,-1,-1,-1,-1,-1,-1,-1,-1,-1,-1,-1,-1,-1,-1,-1,-1,-1,-1,-1,-1,-1,-1,-1,-1],"loss_changes":[1.1300091E-2,4.938646E-2,1.00742266E-1,8.048747E-2,6.5651685E-2,4.1851364E-2,3.7400823E-2,5.1147476E-2,6.563747E-2,7.741951E-2,7.2051585E-2,3.92479E-2,0E0,5.4873005E-2,5.9906427E-2,4.134336E-2,9.9993795E-3,3.1461433E-2,4.8216684E-3,5.030657E-2,7.9200506E-2,7.889798E-2,7.195711E-2,5.160597E-3,1.8827781E-2,4.9386392E-3,9.334311E-4,5.0490286E-2,5.066779E-2,3.1484738E-2,2.5074214E-2,0E0,0E0,2.5090277E-2,7.3385495E-4,1.5373155E-4,0E0,1.88873E-2,1.264385E-2,1.7478421E-2,1.6218115E-2,5.66783E-3,4.4794448E-2,6.709256E-2,3.8625553E-2,0E0,1.0484471E-3,0E0,0E0,0E0,1.4675007E-4,0E0,0E0,3.7064075E-2,2.364738E-3,2.990853E-3,5.4670546E-2,0E0,0E0,0E0,0E0,0E0,0E0,0E0,0E0,0E0,0E0,0E0,0E0,0E0,0E0,0E0,0E0,0E0,0E0,0E0,0E0,0E0,0E0,0E0,0E0,0E0,0E0,0E0,0E0,0E0,0E0,0E0,0E0,0E0,0E0,0E0,0E0,0E0,0E0],"parents":[2147483647,0,0,1,1,2,2,3,3,4,4,5,5,6,6,7,7,8,8,9,9,10,10,11,11,13,13,14,14,15,15,16,16,17,17,18,18,19,19,20,20,21,21,22,22,23,23,24,24,25,25,26,26,27,27,28,28,29,29,30,30,33,33,34,34,35,35,37,37,38,38,39,39,40,40,41,41,42,42,43,43,44,44,46,46,50,50,53,53,54,54,55,55,56,56],"right_children":[2,4,6,8,10,12,14,16,18,20,22,24,-1,26,28,30,32,34,36,38,40,42,44,46,48,50,52,54,56,58,60,-1,-1,62,64,66,-1,68,70,72,74,76,78,80,82,-1,84,-1,-1,-1,86,-1,-1,88,90,92,94,-1,-1,-1,-1,-1,-1,-1,-1,-1,-1,-1,-1,-1,-1,-1,-1,-1,-1,-1,-1,-1,-1,-1,-1,-1,-1,-1,-1,-1,-1,-1,-1,-1,-1,-1,-1,-1,-1],"split_conditions":[3.9545E1,3.9045E1,3.967E1,3.847E1,3.9809998E1,4.771E1,3.9535E1,3.8665E1,3.911E1,3.9129997E1,4.0370003E1,3.9074997E1,2.126484E-2,3.9655E1,4.041E1,3.8245003E1,3.8705E1,4.2870003E1,4.029E1,3.7955E1,3.9605003E1,3.7225E1,3.7155E1,3.8845E1,4.1535E1,3.889E1,4.102E1,4.2015E1,3.8955E1,3.791E1,3.8285E1,4.2763904E-2,3.7879946E-3,4.0235E1,3.8515E1,3.839E1,-2.2087098E-4,3.907E1,3.8120003E1,3.874E1,3.915E1,4.0295E1,4.1809998E1,4.021E1,4.053E1,5.467987E-3,4.0335E1,-5.3570483E-2,-2.1411242E-2,-1.3685226E-2,4.083E1,4.4332698E-2,1.1636353E-2,4.014E1,3.6645E1,3.411E1,3.964E1,-2.9821685E-4,-2.0720836E-2,4.3395996E-2,5.452995E-3,-4.1062318E-2,-9.772569E-3,-4.1587832E-3,3.0721666E-3,2.8104687E-2,7.317925E-3,4.6957973E-3,4.021454E-2,-1.8642345E-2,9.3250273E-4,8.371926E-3,6.1451536E-2,2.1331673E-2,3.3741E-4,3.0990984E-2,8.236313E-3,-2.5532724E-2,2.4267198E-3,1.6708375E-3,6.1595537E-2,-1.00130085E-2,8.272851E-3,-1.42025E-2,-1.3807297E-3,5.1612855E-4,5.5721286E-3,-7.1150213E-3,-3.108226E-2,3.0789185E-2,5.33638E-3,5.7546617E-3,3.1571504E-2,-1.2624727E-2,2.0524492E-3],"split_indices":[59,8,55,10,10,3,53,22,6,19,12,4,0,50,54,11,6,40,0,14,14,37,42,57,12,47,38,46,44,9,0,0,0,22,0,0,0,0,56,5,42,8,5,1,8,0,0,0,0,0,0,0,0,46,0,1,32,0,0,0,0,0,0,0,0,0,0,0,0,0,0,0,0,0,0,0,0,0,0,0,0,0,0,0,0,0,0,0,0,0,0,0,0,0,0],"split_type":[0,0,0,0,0,0,0,0,0,0,0,0,0,0,0,0,0,0,0,0,0,0,0,0,0,0,0,0,0,0,0,0,0,0,0,0,0,0,0,0,0,0,0,0,0,0,0,0,0,0,0,0,0,0,0,0,0,0,0,0,0,0,0,0,0,0,0,0,0,0,0,0,0,0,0,0,0,0,0,0,0,0,0,0,0,0,0,0,0,0,0,0,0,0,0],"sum_hessian":[6.58E2,3.91E2,2.67E2,2.67E2,1.24E2,1.6E1,2.51E2,2.47E2,2E1,3.6E1,8.8E1,1.5E1,1E0,8E0,2.43E2,2.44E2,3E0,1.7E1,3E0,1.6E1,2E1,2.9E1,5.9E1,5E0,1E1,4E0,4E0,2.6E1,2.17E2,2.38E2,6E0,2E0,1E0,1.3E1,4E0,2E0,1E0,5E0,1.1E1,6E0,1.4E1,5E0,2.4E1,6E0,5.3E1,2E0,3E0,4E0,6E0,2E0,2E0,3E0,1E0,2.4E1,2E0,5E0,2.12E2,2.32E2,6E0,2E0,4E0,9E0,4E0,3E0,1E0,1E0,1E0,3E0,2E0,6E0,5E0,1E0,5E0,9E0,5E0,2E0,3E0,1.7E1,7E0,3E0,3E0,1.3E1,4E1,2E0,1E0,1E0,1E0,1.4E1,1E1,1E0,1E0,1E0,4E0,2.5E1,1.87E2],"tree_param":{"num_deleted":"0","num_feature":"60","num_nodes":"95","size_leaf_vector":"0"}},{"base_weights":[5.7796715E-4,2.2383258E-3,-1.2578088E-2,1.6703557E-3,6.790237E-2,-5.051422E-2,-5.1525054E-3,2.922339E-3,-3.558169E-2,9.746679E-2,1.5703836E-2,-2.6444754E-2,-9.204197E-2,2.5873184E-2,-9.492738E-3,5.9835793E-4,4.9121574E-2,-6.914711E-2,-1.0239601E-2,4.234314E-3,1.9321442E-2,3.7899017E-3,-4.219373E-2,-5.306244E-3,5.8379173E-2,-1.8489838E-2,1.2235305E-2,2.8752577E-3,-2.9436514E-2,1.0984293E-1,1.7773477E-2,-2.8058624E-2,-1.0322094E-1,4.811096E-3,-5.699539E-2,4.8319498E-4,6.855011E-3,-7.5511932E-3,-4.7612E-2,-1.1659622E-2,-8.029938E-4,-9.768568E-3,-6.628227E-2,3.824234E-2,-1.5131209E-2,1.08875E-3,5.3674135E-2,-5.929217E-2,1.5320778E-2,-2.6054382E-2,1.300869E-1,7.42178E-2,2.5515556E-3,1.5197118E-2,-8.614349E-3,1.2054443E-3,-4.8065186E-4,2.4929047E-3,-2.7325947E-3,1.7411973E-2,-1.846695E-2,-9.473419E-2,-2.8372765E-2,1.3666535E-2,5.516968E-2,7.069397E-3,-3.4305573E-2],"categories":[],"categories_nodes":[],"categories_segments":[],"categories_sizes":[],"default_left":[1,1,1,1,1,1,1,1,1,0,1,1,0,1,1,1,1,1,1,0,0,1,1,1,0,1,1,1,1,1,1,0,0,1,0,1,0,0,0,0,1,1,1,1,1,0,0,0,0,0,0,0,0,0,0,0,0,0,0,0,0,0,0,0,0,0,0],"id":50,"left_children":[1,3,5,7,9,11,13,15,17,-1,19,21,-1,23,25,27,29,31,33,-1,-1,35,37,39,-1,41,43,45,47,49,51,-1,-1,53,-1,55,-1,-1,-1,-1,57,59,61,63,65,-1,-1,-1,-1,-1,-1,-1,-1,-1,-1,-1,-1,-1,-1,-1,-1,-1,-1,-1,-1,-1,-1],"loss_changes":[1.4423197E-2,2.1741575E-2,2.058537E-2,2.7247839E-2,6.1854925E-3,9.560587E-3,8.729106E-3,6.0525108E-2,1.5453704E-2,0E0,4.2663538E-5,4.4453945E-3,0E0,8.417919E-3,1.1173634E-2,3.6876515E-2,4.944218E-2,8.304097E-3,8.718696E-3,0E0,0E0,3.7229365E-5,7.66688E-4,1.3369163E-4,0E0,1.6024947E-2,1.2677925E-2,4.540861E-2,5.1686224E-2,2.8149232E-2,1.6135259E-2,0E0,0E0,1.525283E-3,0E0,2.6678124E-6,0E0,0E0,0E0,0E0,3.2251177E-5,8.596482E-3,3.7837178E-3,2.9900484E-3,4.0736618E-3,0E0,0E0,0E0,0E0,0E0,0E0,0E0,0E0,0E0,0E0,0E0,0E0,0E0,0E0,0E0,0E0,0E0,0E0,0E0,0E0,0E0,0E0],"parents":[2147483647,0,0,1,1,2,2,3,3,4,4,5,5,6,6,7,7,8,8,10,10,11,11,13,13,14,14,15,15,16,16,17,17,18,18,21,21,22,22,23,23,25,25,26,26,27,27,28,28,29,29,30,30,33,33,35,35,40,40,41,41,42,42,43,43,44,44],"right_children":[2,4,6,8,10,12,14,16,18,-1,20,22,-1,24,26,28,30,32,34,-1,-1,36,38,40,-1,42,44,46,48,50,52,-1,-1,54,-1,56,-1,-1,-1,-1,58,60,62,64,66,-1,-1,-1,-1,-1,-1,-1,-1,-1,-1,-1,-1,-1,-1,-1,-1,-1,-1,-1,-1,-1,-1],"split_conditions":[4.6239998E1,4.7375E1,4.7275E1,4.5815002E1,4.4105E1,4.628E1,4.799E1,4.4235E1,4.6239998E1,2.9240038E-2,4.3705E1,4.592E1,-2.7612591E-2,4.692E1,4.9629997E1,4.2050003E1,4.189E1,4.6075E1,4.727E1,1.2702942E-3,5.7964325E-3,4.5445E1,4.475E1,4.555E1,1.7513752E-2,5.241E1,4.9445E1,4.1915E1,4.1575E1,3.692E1,4.4614998E1,-8.417588E-3,-3.0966284E-2,4.6465E1,-1.7098619E-2,4.448E1,2.0565034E-3,-2.265358E-3,-1.42836E-2,-3.4978867E-3,4.5684998E1,4.829E1,4.9625E1,4.9595E1,5.167E1,3.26625E-4,1.6102241E-2,-1.7787652E-2,4.5962334E-3,-7.816315E-3,3.902607E-2,2.226534E-2,7.654667E-4,4.5591355E-3,-2.584305E-3,3.616333E-4,-1.4419557E-4,7.478714E-4,-8.197785E-4,5.2235923E-3,-5.540085E-3,-2.8420258E-2,-8.51183E-3,4.0999604E-3,1.6550904E-2,2.1208192E-3,-1.0291672E-2],"split_indices":[18,55,16,59,4,3,11,49,59,0,0,26,0,2,39,42,3,58,57,0,0,0,2,0,0,0,53,40,25,4,58,0,0,58,0,0,0,0,0,0,2,21,23,24,8,0,0,0,0,0,0,0,0,0,0,0,0,0,0,0,0,0,0,0,0,0,0],"split_type":[0,0,0,0,0,0,0,0,0,0,0,0,0,0,0,0,0,0,0,0,0,0,0,0,0,0,0,0,0,0,0,0,0,0,0,0,0,0,0,0,0,0,0,0,0,0,0,0,0,0,0,0,0,0,0,0,0,0,0,0,0,0,0,0,0,0,0],"sum_hessian":[6.58E2,5.85E2,7.3E1,5.81E2,4E0,1.1E1,6.2E1,5.63E2,1.8E1,2E0,2E0,8E0,3E0,7E0,5.5E1,5.37E2,2.6E1,7E0,1.1E1,1E0,1E0,3E0,5E0,4E0,3E0,3.9E1,1.6E1,5E2,3.7E1,8E0,1.8E1,4E0,3E0,9E0,2E0,2E0,1E0,1E0,4E0,1E0,3E0,3.4E1,5E0,8E0,8E0,4.84E2,1.6E1,2.2E1,1.5E1,1E0,7E0,3E0,1.5E1,5E0,4E0,1E0,1E0,1E0,2E0,8E0,2.6E1,2E0,3E0,4E0,4E0,4E0,4E0],"tree_param":{"num_deleted":"0","num_feature":"60","num_nodes":"67","size_leaf_vector":"0"}},{"base_weights":[3.8340891E-4,2.3570738E-3,-8.5925255E-3,4.477292E-4,6.1183482E-2,-8.001709E-2,-1.3057113E-3,3.4223164E-3,-9.841078E-3,9.754285E-2,-4.6931677E-3,-8.934021E-4,-1.25103E-1,7.3754884E-2,-4.86759E-3,9.575657E-4,9.229036E-2,-1.4024448E-1,-5.2197333E-3,1.5197983E-1,4.4724602E-2,-4.5578003E-2,2.0776367E-2,3.9342243E-2,-4.083125E-2,-1.4231046E-1,-1.0929108E-2,-6.515312E-2,1.03347156E-4,3.3429225E-3,-3.329996E-2,1.9581604E-1,2.8991222E-2,-1.0067749E-1,-2.639264E-3,3.7176132E-2,1.7138672E-1,5.0771713E-2,4.2209625E-3,2.6168823E-3,3.2010395E-2,-7.5841084E-2,4.831314E-3,1.3387839E-2,-1.2401731E-2,6.921615E-4,7.669537E-2,4.364252E-3,-8.5057E-2,-2.2955576E-2,5.013275E-2,6.090927E-2,-8.061145E-3,6.8454742E-3,5.8187865E-2,-2.0503998E-3,5.9757233E-3,-4.598552E-3,3.8798712E-2,-3.280676E-2,1.8210872E-3],"categories":[],"categories_nodes":[],"categories_segments":[],"categories_sizes":[],"default_left":[1,1,1,1,1,1,1,1,1,1,1,1,1,0,1,1,1,0,1,1,1,0,1,0,0,0,0,1,1,1,1,0,1,0,1,0,0,1,0,1,0,0,0,1,1,0,0,0,0,0,0,0,0,0,0,0,0,0,0,0,0],"id":51,"left_children":[1,3,5,7,9,11,13,15,17,19,21,23,25,-1,27,29,31,-1,33,35,37,-1,39,-1,-1,-1,-1,41,43,45,47,-1,49,-1,51,-1,-1,53,-1,55,-1,-1,-1,57,59,-1,-1,-1,-1,-1,-1,-1,-1,-1,-1,-1,-1,-1,-1,-1,-1],"loss_changes":[1.169476E-2,6.0737666E-2,6.182997E-2,1.610128E-2,4.117675E-2,3.9129227E-2,2.9500892E-2,8.927895E-2,7.0379384E-2,2.4830692E-2,8.23617E-3,9.641019E-3,1.2197174E-2,0E0,3.1472668E-2,3.2634452E-2,6.6406995E-2,0E0,2.8061751E-2,4.7684163E-3,1.5002051E-3,0E0,9.3625346E-4,0E0,0E0,0E0,0E0,6.350342E-3,1.6446145E-2,7.247296E-2,5.1055297E-2,0E0,9.936705E-3,0E0,3.9425448E-2,0E0,0E0,1.5562577E-3,0E0,5.9282596E-5,0E0,0E0,0E0,2.2116814E-2,1.4860811E-2,0E0,0E0,0E0,0E0,0E0,0E0,0E0,0E0,0E0,0E0,0E0,0E0,0E0,0E0,0E0,0E0],"parents":[2147483647,0,0,1,1,2,2,3,3,4,4,5,5,6,6,7,7,8,8,9,9,10,10,11,11,12,12,14,14,15,15,16,16,18,18,19,19,20,20,22,22,27,27,28,28,29,29,30,30,32,32,34,34,37,37,39,39,43,43,44,44],"right_children":[2,4,6,8,10,12,14,16,18,20,22,24,26,-1,28,30,32,-1,34,36,38,-1,40,-1,-1,-1,-1,42,44,46,48,-1,50,-1,52,-1,-1,54,-1,56,-1,-1,-1,58,60,-1,-1,-1,-1,-1,-1,-1,-1,-1,-1,-1,-1,-1,-1,-1,-1],"split_conditions":[4.2870003E1,4.2225E1,4.3620003E1,4.0675E1,4.302E1,4.2635002E1,4.3945E1,4.0684998E1,3.733E1,4.3745003E1,4.44E1,4.5105E1,4.755E1,2.2126466E-2,4.2015E1,4.0965E1,4.0075E1,-4.2073347E-2,3.8045E1,3.7155E1,4.1205E1,-1.3673401E-2,4.6510002E1,1.1802673E-2,-1.2249376E-2,-4.2693138E-2,-3.2787325E-3,4.5525E1,4.6845E1,4.0305E1,3.846E1,5.8744814E-2,4.0865E1,-3.0203247E-2,3.8875E1,1.115284E-2,5.1416017E-2,3.727E1,1.2662888E-3,4.8475E1,9.6031185E-3,-2.2752326E-2,1.4493943E-3,4.5975E1,4.842E1,2.0764845E-4,2.3008611E-2,1.3092756E-3,-2.55171E-2,-6.886673E-3,1.5039826E-2,1.8272782E-2,-2.4183437E-3,2.0536424E-3,1.745636E-2,-6.1511993E-4,1.792717E-3,-1.3795656E-3,1.1639614E-2,-9.842029E-3,5.4632616E-4],"split_indices":[59,58,59,15,41,52,59,14,44,52,39,0,0,0,36,52,0,0,1,0,14,0,27,0,0,0,0,6,30,51,13,0,14,0,0,0,0,0,0,0,0,0,0,45,42,0,0,0,0,0,0,0,0,0,0,0,0,0,0,0,0],"split_type":[0,0,0,0,0,0,0,0,0,0,0,0,0,0,0,0,0,0,0,0,0,0,0,0,0,0,0,0,0,0,0,0,0,0,0,0,0,0,0,0,0,0,0,0,0,0,0,0,0,0,0,0,0,0,0,0,0,0,0,0,0],"sum_hessian":[6.58E2,5.4E2,1.18E2,5.24E2,1.6E1,1E1,1.08E2,4.07E2,1.17E2,1E1,6E0,4E0,6E0,4E0,1.04E2,3.97E2,1E1,3E0,1.14E2,4E0,6E0,2E0,4E0,2E0,2E0,5E0,1E0,7E0,9.7E1,3.72E2,2.5E1,3E0,7E0,2E0,1.12E2,1E0,3E0,5E0,1E0,2E0,2E0,6E0,1E0,4.7E1,5E1,3.6E2,1.2E1,1.5E1,1E1,2E0,5E0,8E0,1.04E2,1E0,4E0,1E0,1E0,2.8E1,1.9E1,2E1,3E1],"tree_param":{"num_deleted":"0","num_feature":"60","num_nodes":"61","size_leaf_vector":"0"}},{"base_weights":[3.3782067E-4,-2.190733E-2,1.0324537E-3,-7.174683E-3,-5.5087727E-2,4.0356487E-2,-1.7042251E-4,-2.0793067E-2,1.1359624E-2,-6.4201735E-2,-4.758835E-3,1.3869013E-2,9.543451E-2,-2.1368679E-2,1.2068496E-3,-2.7590616E-2,1.9989014E-3,-2.0828247E-3,1.7153168E-2,4.488802E-2,1.328555E-3,-1.5029907E-3,1.151226E-1,-8.1917215E-3,-5.2967418E-2,7.51915E-2,6.962904E-4,-3.3721447E-2,-1.456213E-2,-5.0354004E-4,3.501892E-3,-9.900729E-3,1.2336413E-2,-1.6527342E-2,2.5126776E-2,6.055832E-3,-6.675657E-2,5.3310394E-3,9.67013E-2,-8.721669E-3,2.6212528E-3,6.1035156E-5,-1.489687E-2,1.6020775E-2,3.311793E-3,2.6872808E-3,-3.1514533E-2,-1.736164E-2,3.7096787E-2,8.052826E-3,1.0309219E-3,-8.165795E-2,-9.734471E-3,-4.5850277E-3,-1.05820656E-1,4.1396387E-2,3.2965897E-4],"categories":[],"categories_nodes":[],"categories_segments":[],"categories_sizes":[],"default_left":[1,1,1,1,1,1,1,1,1,0,0,1,1,1,1,1,1,0,0,0,1,0,0,1,1,1,1,0,0,0,0,1,1,1,1,1,1,0,0,1,1,0,0,0,0,0,0,0,0,0,0,0,0,0,0,0,0],"id":52,"left_children":[1,3,5,7,9,11,13,15,17,-1,-1,19,21,23,25,27,29,-1,-1,-1,31,-1,-1,33,35,37,39,-1,-1,-1,-1,41,43,45,47,49,51,-1,-1,53,55,-1,-1,-1,-1,-1,-1,-1,-1,-1,-1,-1,-1,-1,-1,-1,-1],"loss_changes":[1.020563E-2,9.381464E-3,3.0280124E-2,4.022311E-3,2.4466645E-3,2.639509E-2,1.8185556E-2,1.4495167E-3,5.80883E-4,0E0,0E0,5.3862594E-3,1.1624113E-2,1.5388364E-2,2.2045165E-2,6.807223E-5,1.30467815E-5,0E0,0E0,0E0,1.4818535E-3,0E0,0E0,8.191727E-3,9.356948E-3,5.4952223E-3,1.0574066E-2,0E0,0E0,0E0,0E0,2.9953144E-4,1.4644221E-4,6.7080734E-3,3.695582E-3,2.1802305E-5,6.8524815E-3,0E0,0E0,3.9279517E-2,4.2993072E-2,0E0,0E0,0E0,0E0,0E0,0E0,0E0,0E0,0E0,0E0,0E0,0E0,0E0,0E0,0E0,0E0],"parents":[2147483647,0,0,1,1,2,2,3,3,4,4,5,5,6,6,7,7,8,8,11,11,12,12,13,13,14,14,15,15,16,16,20,20,23,23,24,24,25,25,26,26,31,31,32,32,33,33,34,34,35,35,36,36,39,39,40,40],"right_children":[2,4,6,8,10,12,14,16,18,-1,-1,20,22,24,26,28,30,-1,-1,-1,32,-1,-1,34,36,38,40,-1,-1,-1,-1,42,44,46,48,50,52,-1,-1,54,56,-1,-1,-1,-1,-1,-1,-1,-1,-1,-1,-1,-1,-1,-1,-1,-1],"split_conditions":[2.833E1,2.9884998E1,2.8875E1,2.8365E1,3.45E1,3.136E1,3.043E1,3.703E1,2.7029999E1,-1.9260522E-2,-1.4276505E-3,2.7475E1,3.016E1,3.0265E1,2.9494999E1,3.4195E1,3.7465E1,-6.248474E-4,5.1459507E-3,1.3466407E-2,2.9585E1,-4.5089723E-4,3.4536783E-2,3.0705E1,2.9895E1,3.1145E1,3.4435E1,-1.0116435E-2,-4.368639E-3,-1.5106202E-4,1.0505677E-3,2.844E1,2.8095001E1,3.0925E1,2.9955E1,3.497E1,3.0455E1,1.599312E-3,2.901039E-2,3.5254997E1,3.5145E1,1.8310548E-5,-4.4690613E-3,4.8062326E-3,9.93538E-4,8.0618425E-4,-9.45436E-3,-5.2084923E-3,1.1129037E-2,2.415848E-3,3.092766E-4,-2.4497388E-2,-2.9203414E-3,-1.3755084E-3,-3.1746197E-2,1.2418916E-2,9.88977E-5],"split_indices":[51,56,46,56,0,20,56,0,8,0,0,43,3,53,48,4,0,0,0,0,55,0,0,49,54,0,14,0,0,0,0,24,4,13,27,0,55,0,0,9,17,0,0,0,0,0,0,0,0,0,0,0,0,0,0,0,0],"split_type":[0,0,0,0,0,0,0,0,0,0,0,0,0,0,0,0,0,0,0,0,0,0,0,0,0,0,0,0,0,0,0,0,0,0,0,0,0,0,0,0,0,0,0,0,0,0,0,0,0,0,0,0,0,0,0,0,0],"sum_hessian":[6.58E2,1.9E1,6.39E2,1.4E1,5E0,1.8E1,6.21E2,8E0,6E0,4E0,1E0,1.3E1,5E0,3.7E1,5.84E2,6E0,2E0,2E0,4E0,3E0,1E1,1E0,4E0,2.7E1,1E1,3E0,5.81E2,3E0,3E0,1E0,1E0,5E0,5E0,2.2E1,5E0,2E0,8E0,1E0,2E0,9.8E1,4.83E2,2E0,3E0,3E0,2E0,1E1,1.2E1,1E0,4E0,1E0,1E0,6E0,2E0,9.5E1,3E0,2.6E1,4.57E2],"tree_param":{"num_deleted":"0","num_feature":"60","num_nodes":"57","size_leaf_vector":"0"}},{"base_weights":[2.3898875E-4,3.0270114E-3,-3.7389223E-3,-1.938654E-3,1.5128752E-2,-4.8164733E-2,-2.193451E-5,1.1810547E-3,-2.9612541E-2,6.84059E-2,4.9816966E-3,3.0851364E-2,-7.478547E-2,4.50414E-2,-1.6840169E-3,-1.7984223E-3,6.58096E-2,-7.912731E-2,-9.33965E-3,9.2310905E-2,1.7653601E-2,-8.700295E-2,9.926713E-3,8.506775E-2,2.9945374E-3,-8.688583E-2,5.3359985E-2,-2.0597076E-2,1.016716E-1,-3.5912972E-2,2.563074E-3,-3.3864733E-3,9.234619E-2,1.4059067E-1,2.0192862E-2,-1.02913536E-1,-5.179087E-3,-4.1964214E-2,1.396502E-2,1.391824E-1,3.894806E-2,-6.6227913E-3,3.7516594E-2,-1.1098623E-1,4.465103E-3,6.6236325E-2,2.2519275E-3,1.1426926E-2,-1.5367508E-2,-1.05213925E-1,-4.1858036E-2,-3.6916096E-2,2.5876362E-3,-6.608609E-2,-3.1746456E-3,3.4719467E-2,-2.1643713E-3,7.867953E-4,-3.0015647E-2,1.153005E-1,1.1741638E-2,3.986041E-2,-2.5873184E-2,-9.487152E-3,1.7185211E-3,5.9661865E-3,-8.150177E-2,3.38192E-2,-1.4834722E-2,6.5250397E-3,1.6440888E-1,6.546402E-2,2.6950836E-3,1.2512207E-3,-9.6645355E-3,4.601415E-2,6.011963E-3,1.7242432E-2,1.0419083E-1,-3.5378456E-2,1.7521033E-2,-4.0585835E-2,-1.1629772E-1,-4.228592E-3,-4.8538208E-2,-5.0144196E-3,8.895874E-3,-2.7676772E-2,-1.296875E-1,3.8639706E-2,-3.0698141E-2,-3.8562775E-2,4.1839745E-2,-5.082185E-2,1.6747807E-3],"categories":[],"categories_nodes":[],"categories_segments":[],"categories_sizes":[],"default_left":[1,1,1,1,1,1,1,1,1,1,1,1,1,1,1,1,1,1,1,1,1,1,1,0,1,1,0,1,0,1,1,1,1,0,1,0,1,1,1,1,1,1,1,0,0,1,1,0,0,1,1,0,1,1,1,1,1,0,0,0,0,0,0,0,0,0,0,0,0,0,0,0,0,0,0,0,0,0,0,0,0,0,0,0,0,0,0,0,0,0,0,0,0,0,0],"id":53,"left_children":[1,3,5,7,9,11,13,15,17,19,21,23,25,27,29,31,33,35,37,39,41,43,45,-1,47,49,-1,51,-1,53,55,57,59,-1,61,-1,63,65,67,69,71,73,75,-1,-1,77,79,-1,-1,81,83,-1,85,87,89,91,93,-1,-1,-1,-1,-1,-1,-1,-1,-1,-1,-1,-1,-1,-1,-1,-1,-1,-1,-1,-1,-1,-1,-1,-1,-1,-1,-1,-1,-1,-1,-1,-1,-1,-1,-1,-1,-1,-1],"loss_changes":[7.319961E-3,2.3345489E-2,4.4914357E-2,2.3863288E-2,6.0747705E-2,4.648004E-2,1.8950393E-2,4.8065607E-2,2.7367588E-2,2.0208597E-2,4.453075E-2,8.80704E-3,2.9445931E-2,3.5548218E-2,3.556318E-2,3.604477E-2,3.4685027E-2,1.3538595E-2,1.655243E-2,2.4593472E-2,3.623877E-3,1.1464089E-2,3.9609943E-2,0E0,9.4978284E-4,7.975049E-3,0E0,1.9872847E-3,0E0,2.646127E-2,3.3214983E-2,2.625046E-2,6.04707E-3,0E0,8.279365E-3,0E0,1.0544989E-4,1.754171E-2,7.935036E-3,1.9006073E-2,6.552547E-3,1.0789538E-4,7.942142E-4,0E0,0E0,1.8658426E-2,4.773562E-2,0E0,0E0,2.4432018E-3,1.302978E-3,0E0,1.8847437E-4,3.0611087E-2,1.7298447E-2,1.6223576E-2,3.5764575E-2,0E0,0E0,0E0,0E0,0E0,0E0,0E0,0E0,0E0,0E0,0E0,0E0,0E0,0E0,0E0,0E0,0E0,0E0,0E0,0E0,0E0,0E0,0E0,0E0,0E0,0E0,0E0,0E0,0E0,0E0,0E0,0E0,0E0,0E0,0E0,0E0,0E0,0E0],"parents":[2147483647,0,0,1,1,2,2,3,3,4,4,5,5,6,6,7,7,8,8,9,9,10,10,11,11,12,12,13,13,14,14,15,15,16,16,17,17,18,18,19,19,20,20,21,21,22,22,24,24,25,25,27,27,29,29,30,30,31,31,32,32,34,34,36,36,37,37,38,38,39,39,40,40,41,41,42,42,45,45,46,46,49,49,50,50,52,52,53,53,54,54,55,55,56,56],"right_children":[2,4,6,8,10,12,14,16,18,20,22,24,26,28,30,32,34,36,38,40,42,44,46,-1,48,50,-1,52,-1,54,56,58,60,-1,62,-1,64,66,68,70,72,74,76,-1,-1,78,80,-1,-1,82,84,-1,86,88,90,92,94,-1,-1,-1,-1,-1,-1,-1,-1,-1,-1,-1,-1,-1,-1,-1,-1,-1,-1,-1,-1,-1,-1,-1,-1,-1,-1,-1,-1,-1,-1,-1,-1,-1,-1,-1,-1,-1,-1],"split_conditions":[3.9510002E1,3.922E1,3.967E1,3.847E1,3.96E1,3.9135E1,3.9535E1,3.819E1,3.8745003E1,3.963E1,3.96E1,3.888E1,4.7575E1,3.9655E1,4.041E1,3.8265E1,3.782E1,3.868E1,3.881E1,3.9215E1,3.9690002E1,4.0225E1,3.7325E1,2.5520327E-2,4.225E1,4.0955E1,1.6007997E-2,3.889E1,3.0501481E-2,3.9975E1,4.0835E1,3.5475E1,3.942E1,4.21772E-2,3.8739998E1,-3.0874062E-2,3.935E1,3.8455E1,4.015E1,3.772E1,3.9465E1,3.893E1,4.0585E1,-3.329587E-2,1.339531E-3,3.741E1,4.0275E1,3.4280778E-3,-4.6102526E-3,3.8665E1,4.077E1,-1.1074829E-2,4.083E1,3.9165E1,4.053E1,3.5019997E1,4.0504997E1,2.360386E-4,-9.004694E-3,3.459015E-2,3.5224915E-3,1.1958123E-2,-7.7619557E-3,-2.8461458E-3,5.1555637E-4,1.789856E-3,-2.4450531E-2,1.014576E-2,-4.4504167E-3,1.957512E-3,4.9322665E-2,1.9639207E-2,8.0852513E-4,3.7536622E-4,-2.8993608E-3,1.3804245E-2,1.8035889E-3,5.1727295E-3,3.125725E-2,-1.0613537E-2,5.25631E-3,-1.2175751E-2,-3.4889318E-2,-1.2685776E-3,-1.4561463E-2,-1.5043259E-3,2.6687623E-3,-8.303032E-3,-3.8906254E-2,1.1591912E-2,-9.209443E-3,-1.1568833E-2,1.2551924E-2,-1.5246555E-2,5.0243427E-4],"split_indices":[59,9,55,10,10,57,53,16,9,14,9,51,3,50,54,11,13,12,5,41,5,2,37,0,0,1,0,47,0,28,50,21,0,0,14,0,0,6,37,1,1,2,0,0,0,45,13,0,0,46,2,0,0,38,59,3,46,0,0,0,0,0,0,0,0,0,0,0,0,0,0,0,0,0,0,0,0,0,0,0,0,0,0,0,0,0,0,0,0,0,0,0,0,0,0],"split_type":[0,0,0,0,0,0,0,0,0,0,0,0,0,0,0,0,0,0,0,0,0,0,0,0,0,0,0,0,0,0,0,0,0,0,0,0,0,0,0,0,0,0,0,0,0,0,0,0,0,0,0,0,0,0,0,0,0,0,0,0,0,0,0,0,0,0,0,0,0,0,0,0,0,0,0,0,0,0,0,0,0,0,0,0,0,0,0,0,0,0,0,0,0,0,0],"sum_hessian":[6.58E2,3.87E2,2.71E2,2.75E2,1.12E2,2E1,2.51E2,2.48E2,2.7E1,1.7E1,9.5E1,5E0,1.5E1,8E0,2.43E2,2.38E2,1E1,7E0,2E1,1.1E1,6E0,4E0,9.1E1,1E0,4E0,1.4E1,1E0,4E0,4E0,2.6E1,2.17E2,2.35E2,3E0,3E0,7E0,5E0,2E0,8E0,1.2E1,5E0,6E0,3E0,3E0,3E0,1E0,1E1,8.1E1,3E0,1E0,9E0,5E0,2E0,2E0,1.3E1,1.3E1,2.7E1,1.9E2,2.04E2,3.1E1,2E0,1E0,5E0,2E0,1E0,1E0,4E0,4E0,7E0,5E0,1E0,4E0,3E0,3E0,1E0,2E0,2E0,1E0,5E0,5E0,2.3E1,5.8E1,2E0,7E0,1E0,4E0,1E0,1E0,9E0,4E0,5E0,8E0,2E0,2.5E1,1.3E1,1.77E2],"tree_param":{"num_deleted":"0","num_feature":"60","num_nodes":"95","size_leaf_vector":"0"}},{"base_weights":[2.4114501E-4,1.7877709E-3,-6.7921807E-3,3.434935E-4,4.6285294E-2,-6.0442492E-2,-1.3156156E-3,-6.842288E-4,1.861E-2,7.53094E-2,-5.936214E-3,-3.606415E-3,-9.240504E-2,5.6313325E-2,-4.047321E-3,1.1272348E-3,-2.2642136E-2,6.911087E-2,7.3135695E-3,1.1841812E-1,3.375898E-2,-3.6865234E-2,1.3808441E-2,2.7056376E-2,-3.3067066E-2,-1.16551206E-1,-2.1359762E-2,-5.0705433E-2,-1.971965E-4,1.2540711E-4,4.2099692E-2,3.0342102E-2,-3.352487E-2,8.474922E-2,3.2787323E-3,-1.8316269E-3,4.243164E-2,3.1297684E-2,1.3237381E-1,3.8290024E-2,3.2863617E-3,-2.193451E-3,2.520752E-2,-5.9036255E-2,3.8051605E-3,3.9596133E-2,-4.1743387E-3,1.2820562E-3,-3.6070142E-2,1.05233766E-1,-9.010315E-3,6.3676834E-2,-1.05781555E-2,-6.511933E-2,-8.480273E-3,-1.0796491E-2,3.672695E-2,5.5179596E-3,4.3740846E-2,1.4867783E-3,5.8403015E-2,-4.0459823E-2,3.5688613E-4],"categories":[],"categories_nodes":[],"categories_segments":[],"categories_sizes":[],"default_left":[1,1,1,1,1,1,1,1,1,1,1,1,1,0,1,1,1,1,1,1,1,0,1,0,0,0,0,1,1,1,1,1,1,0,0,1,0,0,0,1,0,0,0,0,0,1,1,0,0,0,0,0,0,0,0,0,0,0,0,0,0,0,0],"id":54,"left_children":[1,3,5,7,9,11,13,15,17,19,21,23,25,-1,27,29,31,33,35,37,39,-1,41,-1,-1,-1,-1,43,45,47,49,51,53,-1,-1,55,-1,-1,-1,57,-1,-1,-1,-1,-1,59,61,-1,-1,-1,-1,-1,-1,-1,-1,-1,-1,-1,-1,-1,-1,-1,-1],"loss_changes":[7.180694E-3,3.475242E-2,3.4884993E-2,9.8685045E-3,2.6213665E-2,1.964964E-2,1.7387277E-2,1.9833947E-2,1.5467981E-2,1.5705362E-2,4.783831E-3,5.4114047E-3,9.518791E-3,0E0,1.8852154E-2,1.8917544E-2,2.2928525E-2,4.8696604E-3,7.7855987E-3,1.9361377E-3,8.4067415E-4,0E0,9.673255E-4,0E0,0E0,0E0,0E0,3.8575865E-3,1.5675133E-2,1.8927608E-2,3.64428E-2,1.0222044E-2,2.476843E-2,0E0,0E0,7.3099704E-3,0E0,0E0,0E0,8.304473E-4,0E0,0E0,0E0,0E0,0E0,6.3636303E-3,1.4812031E-2,0E0,0E0,0E0,0E0,0E0,0E0,0E0,0E0,0E0,0E0,0E0,0E0,0E0,0E0,0E0,0E0],"parents":[2147483647,0,0,1,1,2,2,3,3,4,4,5,5,6,6,7,7,8,8,9,9,10,10,11,11,12,12,14,14,15,15,16,16,17,17,18,18,19,19,20,20,22,22,27,27,28,28,29,29,30,30,31,31,32,32,35,35,39,39,45,45,46,46],"right_children":[2,4,6,8,10,12,14,16,18,20,22,24,26,-1,28,30,32,34,36,38,40,-1,42,-1,-1,-1,-1,44,46,48,50,52,54,-1,-1,56,-1,-1,-1,58,-1,-1,-1,-1,-1,60,62,-1,-1,-1,-1,-1,-1,-1,-1,-1,-1,-1,-1,-1,-1,-1,-1],"split_conditions":[4.2870003E1,4.2225E1,4.3620003E1,4.2050003E1,4.302E1,4.2635002E1,4.3945E1,4.1120003E1,4.0525E1,4.3745003E1,4.44E1,4.5105E1,4.5434998E1,1.6893998E-2,4.2325E1,4.1225E1,4.0114998E1,3.723E1,4.828E1,3.7155E1,4.1205E1,-1.1059571E-2,4.6510002E1,8.116913E-3,-9.92012E-3,-3.4965362E-2,-6.407929E-3,4.5525E1,4.179E1,4.1105003E1,4.1165E1,3.7215E1,4.1135002E1,2.5424767E-2,9.836197E-4,4.1955E1,1.2729493E-2,9.3893055E-3,3.9712146E-2,3.727E1,9.859086E-4,-6.580353E-4,7.562256E-3,-1.7710878E-2,1.1415482E-3,4.1335E1,4.25E1,3.8461687E-4,-1.0821043E-2,3.1570133E-2,-2.7030946E-3,1.910305E-2,-3.1734467E-3,-1.95358E-2,-2.544082E-3,-3.2389474E-3,1.1018086E-2,1.6553879E-3,1.3122254E-2,4.460335E-4,1.7520905E-2,-1.2137948E-2,1.0706584E-4],"split_indices":[59,58,59,51,41,52,59,59,44,52,39,0,0,0,40,56,53,0,19,0,14,0,27,0,0,0,0,6,22,51,45,7,54,0,0,58,0,0,0,0,0,0,0,0,0,7,22,0,0,0,0,0,0,0,0,0,0,0,0,0,0,0,0],"split_type":[0,0,0,0,0,0,0,0,0,0,0,0,0,0,0,0,0,0,0,0,0,0,0,0,0,0,0,0,0,0,0,0,0,0,0,0,0,0,0,0,0,0,0,0,0,0,0,0,0,0,0,0,0,0,0,0,0,0,0,0,0,0,0],"sum_hessian":[6.58E2,5.4E2,1.18E2,5.24E2,1.6E1,1E1,1.08E2,4.97E2,2.7E1,1E1,6E0,4E0,6E0,4E0,1.04E2,4.6E2,3.7E1,4E0,2.3E1,4E0,6E0,2E0,4E0,2E0,2E0,4E0,2E0,7E0,9.7E1,4.5E2,1E1,6E0,3.1E1,3E0,1E0,1.9E1,4E0,1E0,3E0,5E0,1E0,2E0,2E0,6E0,1E0,8E0,8.9E1,4.37E2,1.3E1,4E0,6E0,3E0,3E0,1.3E1,1.8E1,1.6E1,3E0,1E0,4E0,3E0,5E0,9E0,8E1],"tree_param":{"num_deleted":"0","num_feature":"60","num_nodes":"63","size_leaf_vector":"0"}},{"base_weights":[2.9436554E-4,-5.274929E-3,2.5285531E-3,3.848478E-4,-4.420193E-2,7.7159606E-2,1.3996371E-3,-2.9744322E-3,6.710243E-2,-1.48230465E-2,-6.4128056E-2,4.2884447E-2,1.0856501E-1,-4.0019035E-2,2.8691906E-3,9.496331E-3,-1.1257291E-2,1.5267181E-2,1.1512089E-1,-2.1091651E-2,2.3931503E-2,-7.537425E-2,-1.7168999E-2,-7.9591274E-2,-3.9715238E-4,2.5766015E-2,-9.247782E-4,-6.195504E-3,2.7486928E-2,-2.0957194E-2,1.566388E-2,1.889038E-2,3.8719177E-4,1.5260696E-2,-2.6826434E-2,-8.262338E-2,-2.8502146E-2,3.8471222E-3,-2.5456747E-2,-1.0815354E-1,-2.3990631E-2,2.7653504E-2,-2.8368378E-2,3.3234989E-3,4.9549226E-2,-7.090505E-2,1.7680922E-4,2.6583536E-2,-1.38940485E-2,9.268988E-3,6.299591E-2,4.1127205E-6,-3.720231E-2,-9.151899E-3,3.7588257E-2,-3.213215E-2,-1.2161255E-2,-5.1021576E-3,-2.858607E-2,6.1149597E-3,-5.3395588E-2,3.7594955E-2,-1.470176E-2,9.931353E-2,2.7921926E-2,4.835081E-2,-8.513743E-4],"categories":[],"categories_nodes":[],"categories_segments":[],"categories_sizes":[],"default_left":[1,1,1,1,1,1,1,1,1,1,1,0,0,1,1,1,1,1,0,1,0,1,1,1,1,1,1,1,1,1,1,0,0,0,1,0,0,0,0,0,1,0,1,1,1,0,1,0,0,0,0,0,0,0,0,0,0,0,0,0,0,0,0,0,0,0,0],"id":55,"left_children":[1,3,5,7,9,11,13,15,17,19,21,-1,-1,23,25,27,29,31,-1,33,-1,35,37,39,41,43,45,47,49,51,53,-1,-1,-1,55,-1,-1,-1,-1,-1,57,-1,59,61,63,-1,65,-1,-1,-1,-1,-1,-1,-1,-1,-1,-1,-1,-1,-1,-1,-1,-1,-1,-1,-1,-1],"loss_changes":[8.2131745E-3,4.165714E-2,3.9574787E-2,3.7404016E-2,1.3099205E-2,2.8792284E-3,2.8417958E-2,1.653058E-2,1.8154819E-2,3.1770617E-3,6.0994513E-3,0E0,0E0,2.5055217E-2,3.9115258E-2,1.8237846E-2,2.539702E-2,2.622517E-4,0E0,2.4941182E-3,0E0,1.3826527E-3,7.946406E-4,1.0109972E-2,7.845987E-3,3.3995654E-2,2.984613E-2,9.201634E-3,1.8823106E-2,2.4176992E-2,1.4489837E-2,0E0,0E0,0E0,3.095162E-4,0E0,0E0,0E0,0E0,0E0,2.0135264E-4,0E0,4.64162E-3,2.1556275E-2,3.0591264E-2,0E0,1.896228E-2,0E0,0E0,0E0,0E0,0E0,0E0,0E0,0E0,0E0,0E0,0E0,0E0,0E0,0E0,0E0,0E0,0E0,0E0,0E0,0E0],"parents":[2147483647,0,0,1,1,2,2,3,3,4,4,5,5,6,6,7,7,8,8,9,9,10,10,13,13,14,14,15,15,16,16,17,17,19,19,21,21,22,22,23,23,24,24,25,25,26,26,27,27,28,28,29,29,30,30,34,34,40,40,42,42,43,43,44,44,46,46],"right_children":[2,4,6,8,10,12,14,16,18,20,22,-1,-1,24,26,28,30,32,-1,34,-1,36,38,40,42,44,46,48,50,52,54,-1,-1,-1,56,-1,-1,-1,-1,-1,58,-1,60,62,64,-1,66,-1,-1,-1,-1,-1,-1,-1,-1,-1,-1,-1,-1,-1,-1,-1,-1,-1,-1,-1,-1],"split_conditions":[3.4845E1,3.4835E1,3.465E1,3.4795E1,3.2489998E1,3.4475E1,3.49E1,3.028E1,3.1974998E1,3.2095E1,3.7095E1,1.2865335E-2,3.2569505E-2,3.735E1,3.7335E1,2.914E1,3.259E1,3.3129997E1,3.453627E-2,2.7945E1,7.179451E-3,3.6025E1,3.6235E1,3.484E1,3.4515E1,3.4275E1,3.7085E1,2.7380001E1,3.179E1,3.1095001E1,3.1724998E1,5.6671146E-3,1.16157535E-4,4.578209E-3,3.5805E1,-2.4787014E-2,-8.550644E-3,1.1541367E-3,-7.6370244E-3,-3.2446064E-2,3.299E1,8.296052E-3,3.4905E1,3.4015E1,3.5335E1,-2.1271516E-2,3.6825E1,7.975061E-3,-4.1682147E-3,2.7806964E-3,1.8898774E-2,1.2338162E-6,-1.1160693E-2,-2.74557E-3,1.1276478E-2,-9.639645E-3,-3.6483766E-3,-1.5306474E-3,-8.575821E-3,1.834488E-3,-1.6018678E-2,1.1278487E-2,-4.410528E-3,2.979406E-2,8.376578E-3,1.4505244E-2,-2.554123E-4],"split_indices":[23,49,24,45,25,12,11,32,34,6,50,0,0,52,32,31,37,0,0,8,0,17,0,15,10,54,28,43,56,42,52,0,0,0,48,0,0,0,0,0,0,0,1,38,38,0,18,0,0,0,0,0,0,0,0,0,0,0,0,0,0,0,0,0,0,0,0],"split_type":[0,0,0,0,0,0,0,0,0,0,0,0,0,0,0,0,0,0,0,0,0,0,0,0,0,0,0,0,0,0,0,0,0,0,0,0,0,0,0,0,0,0,0,0,0,0,0,0,0,0,0,0,0,0,0,0,0,0,0,0,0,0,0,0,0,0,0],"sum_hessian":[6.58E2,1.88E2,4.7E2,1.65E2,2.3E1,6E0,4.64E2,1.58E2,7E0,1E1,1.3E1,4E0,2E0,1.5E1,4.49E2,6.3E1,9.5E1,4E0,3E0,9E0,1E0,1E1,3E0,7E0,8E0,6.3E1,3.86E2,3.4E1,2.9E1,7E1,2.5E1,3E0,1E0,1E0,8E0,8E0,2E0,1E0,2E0,4E0,3E0,4E0,4E0,3.3E1,3E1,5E0,3.81E2,6E0,2.8E1,2E1,9E0,3.1E1,3.9E1,1.2E1,1.3E1,5E0,3E0,1E0,2E0,2E0,2E0,1.1E1,2.2E1,8E0,2.2E1,7E0,3.74E2],"tree_param":{"num_deleted":"0","num_feature":"60","num_nodes":"67","size_leaf_vector":"0"}},{"base_weights":[2.92354E-4,-1.7537594E-2,8.4908307E-4,-7.2055818E-3,-4.044469E-2,2.9086057E-2,7.8445824E-5,-1.7240524E-2,6.725856E-3,-4.7624588E-2,-2.272606E-3,5.569935E-3,7.127062E-2,-8.722847E-3,1.3887882E-3,-2.3108618E-2,2.198537E-3,-1.6180674E-3,1.0387039E-2,2.1644974E-2,-5.1732063E-3,-2.9792786E-3,8.671646E-2,5.126093E-3,-3.1225204E-2,2.0854294E-2,1.7185844E-4,-2.7991295E-2,-1.2448788E-2,-3.6296844E-3,1.2025833E-3,3.007698E-2,5.997976E-3,-9.583282E-3,1.6326904E-3,-1.0903677E-3,7.84421E-2,-6.2223163E-2,-2.1296768E-2,4.2612478E-2,-1.0164261E-2,-2.7631178E-2,1.4738911E-3,1.1196136E-3,7.87735E-3,-2.3962657E-3,-1.35758715E-2,-1.4782729E-2,1.5763456E-2,1.1806488E-3,-8.782081E-2,1.6007995E-2,-2.9164722E-2,1.4760589E-2,6.620312E-2,-5.142355E-2,5.7631405E-3,-9.535726E-3,-5.4720137E-2,3.2618124E-2,-1.2639853E-4],"categories":[],"categories_nodes":[],"categories_segments":[],"categories_sizes":[],"default_left":[1,1,1,1,1,1,1,1,1,0,0,1,1,1,1,1,0,1,0,1,1,0,0,1,1,1,1,0,0,0,0,0,1,1,0,1,0,1,1,1,1,1,1,0,0,0,0,0,0,0,0,0,0,0,0,0,0,0,0,0,0],"id":56,"left_children":[1,3,5,7,9,11,13,15,17,-1,-1,19,21,23,25,27,-1,29,-1,31,33,-1,-1,35,37,39,41,-1,-1,-1,-1,-1,43,45,-1,47,-1,49,51,53,55,57,59,-1,-1,-1,-1,-1,-1,-1,-1,-1,-1,-1,-1,-1,-1,-1,-1,-1,-1],"loss_changes":[6.5564215E-3,4.442101E-3,1.3924414E-2,2.212975E-3,1.536198E-3,1.6467325E-2,7.2085233E-3,1.0774373E-3,2.3064736E-4,0E0,0E0,2.184331E-3,7.139461E-3,2.5402399E-2,1.2882772E-2,1.5881844E-5,5.011125E-7,2.1387204E-5,0E0,4.79277E-4,2.5576272E-4,0E0,0E0,2.33296E-2,8.215446E-3,2.203016E-2,1.8611563E-2,0E0,0E0,0E0,0E0,0E0,1.8685205E-5,1.1094264E-4,0E0,1.1309922E-2,0E0,1.1464611E-2,7.804674E-3,1.1506639E-2,9.496506E-3,1.0752505E-2,2.447546E-2,0E0,0E0,0E0,0E0,0E0,0E0,0E0,0E0,0E0,0E0,0E0,0E0,0E0,0E0,0E0,0E0,0E0,0E0],"parents":[2147483647,0,0,1,1,2,2,3,3,4,4,5,5,6,6,7,7,8,8,11,11,12,12,13,13,14,14,15,15,17,17,19,19,20,20,23,23,24,24,25,25,26,26,32,32,33,33,35,35,37,37,38,38,39,39,40,40,41,41,42,42],"right_children":[2,4,6,8,10,12,14,16,18,-1,-1,20,22,24,26,28,-1,30,-1,32,34,-1,-1,36,38,40,42,-1,-1,-1,-1,-1,44,46,-1,48,-1,50,52,54,56,58,60,-1,-1,-1,-1,-1,-1,-1,-1,-1,-1,-1,-1,-1,-1,-1,-1,-1,-1],"split_conditions":[2.833E1,2.9884998E1,2.864E1,2.8365E1,3.45E1,3.136E1,3.1885E1,3.703E1,2.7029999E1,-1.4287377E-2,-6.817818E-4,2.809E1,3.016E1,3.1095001E1,3.2635002E1,3.4195E1,6.5956113E-4,2.8275002E1,3.1161117E-3,3.014E1,3.024E1,-8.937836E-4,2.6014939E-2,3.1545E1,3.1215E1,3.2805E1,3.237E1,-8.397389E-3,-3.7346364E-3,-1.0889054E-3,3.60775E-4,9.023095E-3,2.9405E1,2.792E1,4.8980716E-4,3.0105E1,2.353263E-2,3.1075E1,3.1375E1,3.2050003E1,3.1765E1,3.1885E1,3.4559998E1,3.358841E-4,2.363205E-3,-7.1887975E-4,-4.0727616E-3,-4.434819E-3,4.729037E-3,3.5419466E-4,-2.6346246E-2,4.802399E-3,-8.749417E-3,4.428177E-3,1.9860936E-2,-1.5427065E-2,1.7289423E-3,-2.860718E-3,-1.6416041E-2,9.785438E-3,-3.7919563E-5],"split_indices":[51,56,46,56,0,20,42,0,8,0,0,43,3,42,42,4,0,0,0,18,20,0,0,43,45,53,22,0,0,0,0,0,0,8,0,44,0,17,45,53,41,24,20,0,0,0,0,0,0,0,0,0,0,0,0,0,0,0,0,0,0],"split_type":[0,0,0,0,0,0,0,0,0,0,0,0,0,0,0,0,0,0,0,0,0,0,0,0,0,0,0,0,0,0,0,0,0,0,0,0,0,0,0,0,0,0,0,0,0,0,0,0,0,0,0,0,0,0,0,0,0,0,0,0,0],"sum_hessian":[6.58E2,1.9E1,6.39E2,1.4E1,5E0,1.6E1,6.23E2,8E0,6E0,4E0,1E0,1.1E1,5E0,8E1,5.43E2,6E0,2E0,2E0,4E0,4E0,7E0,1E0,4E0,5E1,3E1,3.1E1,5.12E2,3E0,3E0,1E0,1E0,2E0,2E0,4E0,3E0,4.7E1,3E0,6E0,2.4E1,1.8E1,1.3E1,2.2E1,4.9E2,1E0,1E0,2E0,2E0,2.6E1,2.1E1,2E0,4E0,4E0,2E1,9E0,9E0,3E0,1E1,1.4E1,8E0,2.3E1,4.67E2],"tree_param":{"num_deleted":"0","num_feature":"60","num_nodes":"61","size_leaf_vector":"0"}},{"base_weights":[2.1011515E-4,1.1334128E-3,-9.949979E-3,1.295141E-4,6.085243E-2,-3.4296162E-2,-8.0015603E-4,5.964053E-4,-3.9241247E-2,1.1267624E-1,7.5238547E-3,-2.1094395E-2,-8.007177E-2,3.522873E-2,-4.5716134E-3,-9.057405E-4,7.707577E-3,2.7402241E-3,-5.6581877E-2,2.5676727E-2,-7.971764E-3,-3.9625805E-2,-4.55904E-3,-1.1990777E-2,1.7401123E-2,3.7348698E-4,-4.4243403E-2,6.026681E-2,7.682469E-4,-6.2847137E-3,1.039505E-2,-6.526184E-2,-1.0931015E-2,-1.0777791E-2,2.2315979E-4,-9.153366E-3,-4.388962E-2,9.400685E-3,-1.0779063E-2,-3.9152144E-3,-2.6942825E-2,3.790436E-2,-2.5850933E-3,-9.4017613E-4,2.8818402E-2,-1.2768337E-2,-6.625366E-2,8.937931E-2,1.6334534E-3,-3.249709E-2,5.68696E-3,2.1095276E-3,1.1991501E-2,-1.2252808E-2,-1.7051697E-3,-1.5033028E-2,8.705902E-3,1.7725626E-3,-3.4343243E-2,4.2197227E-2,1.036644E-2,4.8322678E-3,-1.161321E-2],"categories":[],"categories_nodes":[],"categories_segments":[],"categories_sizes":[],"default_left":[1,1,1,1,1,1,1,1,1,0,1,1,0,0,1,1,1,1,1,0,1,1,1,1,1,1,1,1,1,0,0,0,0,0,0,0,0,1,1,1,1,1,1,0,0,0,0,0,0,0,0,0,0,0,0,0,0,0,0,0,0,0,0],"id":57,"left_children":[1,3,5,7,9,11,13,15,17,-1,19,21,-1,-1,23,25,27,29,31,-1,33,35,37,39,41,43,45,47,49,-1,-1,-1,-1,-1,-1,-1,-1,51,53,55,57,59,61,-1,-1,-1,-1,-1,-1,-1,-1,-1,-1,-1,-1,-1,-1,-1,-1,-1,-1,-1,-1],"loss_changes":[6.1932188E-3,3.626299E-2,1.2224537E-2,1.0978993E-2,2.678914E-2,7.375719E-3,5.73219E-3,6.309371E-3,5.250944E-3,0E0,1.8924288E-3,3.802848E-3,0E0,0E0,6.4033875E-3,2.7070623E-2,3.7520472E-2,2.725829E-4,1.2678597E-3,0E0,9.4385905E-5,3.778357E-4,7.9596904E-4,3.396153E-3,4.195807E-3,1.7776437E-2,8.852892E-3,2.033757E-2,1.5238092E-2,0E0,0E0,0E0,0E0,0E0,0E0,0E0,0E0,3.1373726E-5,5.9342477E-5,2.9372605E-3,2.1859342E-3,1.536482E-4,4.5790698E-4,0E0,0E0,0E0,0E0,0E0,0E0,0E0,0E0,0E0,0E0,0E0,0E0,0E0,0E0,0E0,0E0,0E0,0E0,0E0,0E0],"parents":[2147483647,0,0,1,1,2,2,3,3,4,4,5,5,6,6,7,7,8,8,10,10,11,11,14,14,15,15,16,16,17,17,18,18,20,20,21,21,22,22,23,23,24,24,25,25,26,26,27,27,28,28,37,37,38,38,39,39,40,40,41,41,42,42],"right_children":[2,4,6,8,10,12,14,16,18,-1,20,22,-1,-1,24,26,28,30,32,-1,34,36,38,40,42,44,46,48,50,-1,-1,-1,-1,-1,-1,-1,-1,52,54,56,58,60,62,-1,-1,-1,-1,-1,-1,-1,-1,-1,-1,-1,-1,-1,-1,-1,-1,-1,-1,-1,-1],"split_conditions":[4.6335E1,4.6035E1,4.772E1,4.5915E1,4.6045E1,4.7815002E1,4.926E1,4.1405E1,4.2345E1,3.3802874E-2,4.4235E1,4.63E1,-2.4021532E-2,1.0568619E-2,5.261E1,4.139E1,4.1735E1,4.2955E1,4.6145E1,7.7030184E-3,4.478E1,4.173E1,4.236E1,4.9465E1,5.1620003E1,4.091E1,4.1205E1,4.2120003E1,3.9405E1,-1.8854142E-3,3.1185152E-3,-1.9578554E-2,-3.2793046E-3,-3.2333375E-3,6.694794E-5,-2.74601E-3,-1.3166887E-2,4.2145E1,4.439E1,4.9394997E1,4.9265E1,5.188E1,5.228E1,-2.8205285E-4,8.6455215E-3,-3.830501E-3,-1.98761E-2,2.6813794E-2,4.9003604E-4,-9.749128E-3,1.7060881E-3,6.328583E-4,3.5974504E-3,-3.6758424E-3,-5.115509E-4,-4.5099086E-3,2.6117708E-3,5.3176883E-4,-1.0302973E-2,1.2659169E-2,3.1099322E-3,1.4496804E-3,-3.483963E-3],"split_indices":[44,45,42,46,50,49,13,52,9,0,0,48,0,0,21,54,52,0,9,0,2,0,0,48,2,55,51,53,30,0,0,0,0,0,0,0,0,0,0,26,42,3,9,0,0,0,0,0,0,0,0,0,0,0,0,0,0,0,0,0,0,0,0],"split_type":[0,0,0,0,0,0,0,0,0,0,0,0,0,0,0,0,0,0,0,0,0,0,0,0,0,0,0,0,0,0,0,0,0,0,0,0,0,0,0,0,0,0,0,0,0,0,0,0,0,0,0,0,0,0,0,0,0,0,0,0,0,0,0],"sum_hessian":[6.58E2,6.04E2,5.4E1,5.95E2,9E0,1.4E1,4E1,5.89E2,6E0,4E0,5E0,1.2E1,2E0,3E0,3.7E1,4.87E2,1.02E2,2E0,4E0,2E0,3E0,5E0,7E0,2.8E1,9E0,4.74E2,1.3E1,1.1E1,9.1E1,1E0,1E0,3E0,1E0,2E0,1E0,1E0,4E0,2E0,5E0,1.9E1,9E0,4E0,5E0,4.54E2,2E1,6E0,7E0,7E0,4E0,1.1E1,8E1,1E0,1E0,4E0,1E0,1E1,9E0,2E0,7E0,3E0,1E0,3E0,2E0],"tree_param":{"num_deleted":"0","num_feature":"60","num_nodes":"63","size_leaf_vector":"0"}},{"base_weights":[1.3735225E-4,3.0398679E-3,-2.4027391E-3,-9.572707E-5,8.039252E-2,-3.30888E-2,7.692695E-4,-7.061314E-4,9.029198E-2,4.647217E-2,1.6666286E-1,-3.7175692E-3,-4.969533E-2,4.6293132E-2,-1.4648064E-3,2.379744E-4,-5.5700682E-2,-1.7321268E-2,6.4585686E-2,-3.8106102E-2,3.1202044E-2,3.7057877E-2,-5.588589E-2,7.993425E-3,7.093811E-2,-4.239948E-2,2.3279563E-3,-6.9697696E-4,5.404358E-2,-6.4333916E-2,-1.0583878E-2,6.873866E-2,1.7757416E-2,-4.7608186E-2,-9.567261E-3,8.0963135E-2,9.414673E-3,-6.266107E-2,3.393809E-3,2.5957108E-2,6.7329407E-4,3.217163E-2,9.5516965E-2,-5.644989E-3,-6.152568E-2,4.4267766E-2,-3.7130679E-4,2.068329E-3,-2.1416271E-2,1.6492844E-2,5.9308052E-2,-1.8745422E-3,3.2930374E-2,-6.867075E-2,-9.722392E-3,-1.4305115E-3,6.521225E-3,-5.212784E-3,2.8930665E-3,4.4441223E-3,4.9175262E-2,-2.2355556E-2,4.0798187E-2,-9.3625546E-2,-2.9693222E-2,6.694666E-2,1.6670227E-2,1.1685943E-2,-4.675573E-3],"categories":[],"categories_nodes":[],"categories_segments":[],"categories_sizes":[],"default_left":[1,1,1,1,1,1,1,1,0,1,0,1,1,1,1,1,1,0,1,1,1,0,1,1,1,1,1,1,1,0,0,0,0,0,0,0,1,1,1,0,1,1,0,1,1,1,1,0,0,0,0,0,0,0,0,0,0,0,0,0,0,0,0,0,0,0,0,0,0],"id":58,"left_children":[1,3,5,7,9,11,13,15,-1,17,-1,19,21,23,25,27,29,-1,31,33,35,-1,37,39,41,43,45,47,49,-1,-1,-1,-1,-1,-1,-1,51,53,55,-1,57,59,-1,61,63,65,67,-1,-1,-1,-1,-1,-1,-1,-1,-1,-1,-1,-1,-1,-1,-1,-1,-1,-1,-1,-1,-1,-1],"loss_changes":[4.865884E-3,7.471204E-2,3.4287885E-2,1.6450154E-2,2.7370661E-2,1.5911143E-2,3.2613013E-2,1.5381775E-2,0E0,1.2673942E-2,0E0,1.6799834E-2,1.3349075E-2,1.3591398E-2,4.760689E-2,1.4726909E-2,1.2666183E-3,0E0,3.3519045E-4,1.4427695E-3,6.8269023E-3,0E0,8.245274E-3,9.0299884E-4,5.5025853E-3,1.7930008E-2,3.1827483E-2,1.6545309E-2,1.0265037E-5,0E0,0E0,0E0,0E0,0E0,0E0,0E0,1.6545723E-3,5.058959E-3,5.459166E-5,0E0,9.347544E-5,2.138801E-3,0E0,8.672984E-3,1.4590859E-2,9.523977E-3,1.3807508E-2,0E0,0E0,0E0,0E0,0E0,0E0,0E0,0E0,0E0,0E0,0E0,0E0,0E0,0E0,0E0,0E0,0E0,0E0,0E0,0E0,0E0,0E0],"parents":[2147483647,0,0,1,1,2,2,3,3,4,4,5,5,6,6,7,7,9,9,11,11,12,12,13,13,14,14,15,15,16,16,18,18,19,19,20,20,22,22,23,23,24,24,25,25,26,26,27,27,28,28,36,36,37,37,38,38,40,40,41,41,43,43,44,44,45,45,46,46],"right_children":[2,4,6,8,10,12,14,16,-1,18,-1,20,22,24,26,28,30,-1,32,34,36,-1,38,40,42,44,46,48,50,-1,-1,-1,-1,-1,-1,-1,52,54,56,-1,58,60,-1,62,64,66,68,-1,-1,-1,-1,-1,-1,-1,-1,-1,-1,-1,-1,-1,-1,-1,-1,-1,-1,-1,-1,-1,-1],"split_conditions":[3.8165E1,4.1050003E1,3.884E1,4.13E1,4.092E1,3.8295E1,3.8864998E1,4.1205E1,2.7087593E-2,4.0985E1,4.999886E-2,3.8114998E1,3.7445E1,3.915E1,3.9465E1,4.102E1,4.0684998E1,-5.1963804E-3,4.5085E1,3.907E1,3.571E1,1.1117363E-2,4.257E1,3.5425E1,3.8114998E1,3.9535E1,3.9085E1,3.7835E1,3.902E1,-1.9300176E-2,-3.1751634E-3,2.06216E-2,5.3272247E-3,-1.4282457E-2,-2.8701783E-3,2.4288941E-2,4.013E1,4.2260002E1,3.8855003E1,7.7871326E-3,3.765E1,4.118E1,2.8655091E-2,4.0434998E1,4.1405E1,3.9845E1,3.9195E1,6.204987E-4,-6.4248815E-3,4.9478533E-3,1.7792417E-2,-5.6236266E-4,9.879112E-3,-2.0601226E-2,-2.9167177E-3,-4.2915347E-4,1.9563676E-3,-1.5638352E-3,8.6792E-4,1.3332367E-3,1.4752579E-2,-6.706667E-3,1.2239457E-2,-2.8087664E-2,-8.907967E-3,2.0084E-2,5.001068E-3,3.5057832E-3,-1.402672E-3],"split_indices":[56,3,56,8,20,58,52,13,0,4,0,50,50,9,54,14,9,0,5,14,28,0,26,7,52,11,59,32,0,0,0,0,0,0,0,0,21,0,0,0,0,10,0,2,11,55,2,0,0,0,0,0,0,0,0,0,0,0,0,0,0,0,0,0,0,0,0,0,0],"split_type":[0,0,0,0,0,0,0,0,0,0,0,0,0,0,0,0,0,0,0,0,0,0,0,0,0,0,0,0,0,0,0,0,0,0,0,0,0,0,0,0,0,0,0,0,0,0,0,0,0,0,0,0,0,0,0,0,0,0,0,0,0,0,0,0,0,0,0,0,0],"sum_hessian":[6.58E2,3.07E2,3.51E2,2.96E2,1.1E1,3.2E1,3.19E2,2.95E2,1E0,9E0,2E0,1.2E1,2E1,1.4E1,3.05E2,2.91E2,4E0,2E0,7E0,6E0,6E0,1E0,1.9E1,6E0,8E0,2.5E1,2.8E2,2.87E2,4E0,3E0,1E0,6E0,1E0,4E0,2E0,1E0,5E0,1.7E1,2E0,1E0,5E0,4E0,4E0,9E0,1.6E1,1.6E1,2.64E2,2.54E2,3.3E1,1E0,3E0,4E0,1E0,1.5E1,2E0,1E0,1E0,1E0,4E0,2E0,2E0,7E0,2E0,7E0,9E0,8E0,8E0,6.9E1,1.95E2],"tree_param":{"num_deleted":"0","num_feature":"60","num_nodes":"69","size_leaf_vector":"0"}},{"base_weights":[3.1687747E-4,-2.9890249E-3,2.6481294E-3,-9.611375E-4,-5.622635E-2,3.358815E-2,7.8111136E-4,-3.0314003E-3,4.693049E-2,2.8438568E-3,-8.1948414E-2,2.3342228E-2,9.069824E-2,7.076931E-2,7.739737E-6,-1.8726501E-3,-6.0362626E-2,5.703227E-2,9.816488E-4,1.4322281E-2,-5.756378E-3,-1.4257431E-2,-9.085401E-2,5.124855E-3,3.7781455E-2,8.463068E-3,-3.4661847E-3,-3.7784495E-3,2.0232964E-2,-2.1064123E-2,-7.954025E-2,6.36034E-2,2.231598E-3,2.5193786E-2,-1.2453397E-2,4.7651768E-2,8.595467E-3,1.090651E-3,5.3116355E-2,-1.0647329E-1,-2.2455305E-3,2.4441653E-3,-1.7280055E-2,1.1150646E-1,-2.433328E-3,4.4384003E-3,2.9273033E-2,-1.7325211E-2,5.952835E-3,5.7101566E-2,1.2868245E-2,6.4086914E-4,1.1033376E-2,1.0622259E-2,-2.1075249E-2,7.384491E-2,9.716034E-3,-5.4829188E-2,-7.6420594E-4],"categories":[],"categories_nodes":[],"categories_segments":[],"categories_sizes":[],"default_left":[1,1,1,1,1,1,1,1,1,1,1,1,0,0,1,1,1,1,0,0,0,0,0,1,1,1,1,1,1,0,0,0,0,1,1,1,1,1,1,0,1,0,0,0,0,0,0,0,0,0,0,0,0,0,0,0,0,0,0],"id":59,"left_children":[1,3,5,7,9,11,13,15,17,19,21,23,-1,-1,25,27,29,31,-1,-1,-1,-1,-1,33,35,37,39,41,43,-1,-1,-1,-1,45,47,49,51,53,55,-1,57,-1,-1,-1,-1,-1,-1,-1,-1,-1,-1,-1,-1,-1,-1,-1,-1,-1,-1],"loss_changes":[5.086757E-3,2.9418848E-2,2.232904E-2,2.63174E-2,1.54271275E-2,1.0756103E-2,1.9809894E-2,1.6760832E-2,5.0498303E-3,4.7731306E-4,2.9244535E-3,5.067273E-3,0E0,0E0,1.0691796E-2,1.0608665E-2,2.092814E-3,3.098989E-3,0E0,0E0,0E0,0E0,0E0,3.8415156E-3,2.7592313E-3,3.4837548E-2,3.2200817E-2,1.9449769E-2,4.1647963E-2,0E0,0E0,0E0,0E0,2.9340643E-4,6.411644E-4,1.8947814E-3,7.04994E-5,1.966132E-2,1.27769075E-2,0E0,1.9898826E-2,0E0,0E0,0E0,0E0,0E0,0E0,0E0,0E0,0E0,0E0,0E0,0E0,0E0,0E0,0E0,0E0,0E0,0E0],"parents":[2147483647,0,0,1,1,2,2,3,3,4,4,5,5,6,6,7,7,8,8,9,9,10,10,11,11,14,14,15,15,16,16,17,17,23,23,24,24,25,25,26,26,27,27,28,28,33,33,34,34,35,35,36,36,37,37,38,38,40,40],"right_children":[2,4,6,8,10,12,14,16,18,20,22,24,-1,-1,26,28,30,32,-1,-1,-1,-1,-1,34,36,38,40,42,44,-1,-1,-1,-1,46,48,50,52,54,56,-1,58,-1,-1,-1,-1,-1,-1,-1,-1,-1,-1,-1,-1,-1,-1,-1,-1,-1,-1],"split_conditions":[3.796E1,3.854E1,3.8325E1,4.218E1,3.8445E1,4.137E1,3.3870003E1,3.8114998E1,4.19E1,3.748E1,3.8120003E1,3.8305E1,2.7209474E-2,2.1230794E-2,3.8864998E1,3.7364998E1,3.7385002E1,3.768E1,2.9449465E-4,4.2966846E-3,-1.7269135E-3,-4.2772293E-3,-2.7256204E-2,3.4379997E1,4.2015E1,4.1260002E1,3.7795E1,3.425E1,3.65E1,-6.3192374E-3,-2.3862077E-2,1.908102E-2,6.6947937E-4,3.7825E1,3.8550003E1,4.009E1,3.8105003E1,3.9190002E1,4.0455E1,-3.1941988E-2,3.894E1,7.3324965E-4,-5.1840167E-3,3.345194E-2,-7.299984E-4,1.3315202E-3,8.78191E-3,-5.1975637E-3,1.7858506E-3,1.713047E-2,3.8604736E-3,1.9226075E-4,3.3100129E-3,3.1866778E-3,-6.322575E-3,2.2153474E-2,2.9148103E-3,-1.6448757E-2,-2.2926179E-4],"split_indices":[1,13,1,51,19,57,37,0,38,0,12,9,0,0,52,8,5,3,0,0,0,0,0,32,27,3,48,7,0,0,0,0,0,0,7,9,1,31,28,0,16,0,0,0,0,0,0,0,0,0,0,0,0,0,0,0,0,0,0],"split_type":[0,0,0,0,0,0,0,0,0,0,0,0,0,0,0,0,0,0,0,0,0,0,0,0,0,0,0,0,0,0,0,0,0,0,0,0,0,0,0,0,0,0,0,0,0,0,0,0,0,0,0,0,0,0,0,0,0,0,0],"sum_hessian":[6.58E2,2.72E2,3.86E2,2.63E2,9E0,2.1E1,3.65E2,2.53E2,1E1,3E0,6E0,1.9E1,2E0,3E0,3.62E2,2.49E2,4E0,8E0,2E0,1E0,2E0,1E0,5E0,9E0,1E1,1.05E2,2.57E2,2.3E2,1.9E1,2E0,2E0,7E0,1E0,4E0,5E0,7E0,3E0,9.1E1,1.4E1,2E0,2.55E2,1.58E2,7.2E1,3E0,1.6E1,1E0,3E0,4E0,1E0,5E0,2E0,1E0,2E0,6.4E1,2.7E1,9E0,5E0,6E0,2.49E2],"tree_param":{"num_deleted":"0","num_feature":"60","num_nodes":"59","size_leaf_vector":"0"}},{"base_weights":[2.8583602E-4,-1.3607979E-2,7.1957114E-4,-5.1500956E-3,-3.248469E-2,2.0825336E-2,1.0425101E-4,-1.0210904E-2,7.0137023E-3,4.8732758E-4,-3.917656E-2,5.4695946E-3,5.318451E-2,-9.96642E-3,1.2170448E-3,5.8288575E-4,-1.6462054E-2,2.5800228E-2,-2.4205989E-3,-3.0670166E-3,6.504822E-2,1.0318195E-3,-2.2517238E-2,2.715402E-2,3.0724824E-4,-4.0582023E-3,5.0296783E-3,-3.3140182E-3,-1.8101057E-2,3.0293146E-2,6.160736E-3,-8.522796E-3,2.2839138E-3,-1.2460518E-2,1.8952815E-2,-3.865401E-3,-3.370084E-2,-4.288435E-3,4.585282E-2,-1.9853465E-2,1.4833458E-3,-2.6302338E-3,-1.1574428E-2,5.3577423E-3,8.786519E-4,-5.385929E-3,-5.0754547E-2,9.023984E-3,4.4001102E-2,-1.6433716E-2,1.7016983E-2,-3.6479405E-3,-4.842329E-2,-1.3384955E-2,2.9693604E-2,5.7192802E-2,-7.2313943E-3,-2.7607258E-2,2.443695E-2,4.8709553E-2,3.5372784E-4],"categories":[],"categories_nodes":[],"categories_segments":[],"categories_sizes":[],"default_left":[1,1,1,1,1,1,1,1,0,0,0,1,1,1,1,1,1,1,1,0,0,1,1,1,1,0,0,0,0,0,0,1,1,1,1,1,1,1,1,1,1,0,0,0,0,0,0,0,0,0,0,0,0,0,0,0,0,0,0,0,0],"id":60,"left_children":[1,3,5,7,9,11,13,15,-1,-1,-1,17,19,21,23,25,27,29,31,-1,-1,33,35,37,39,-1,-1,-1,-1,-1,-1,41,43,45,47,49,51,53,55,57,59,-1,-1,-1,-1,-1,-1,-1,-1,-1,-1,-1,-1,-1,-1,-1,-1,-1,-1,-1,-1],"loss_changes":[3.981081E-3,3.0258412E-3,7.915577E-3,9.94996E-4,1.3429583E-3,9.150186E-3,6.982622E-3,7.518049E-4,0E0,0E0,0E0,2.3082288E-3,4.203614E-3,8.581521E-3,1.3229782E-2,1.2360123E-4,9.086053E-5,1.6632653E-4,3.3525185E-4,0E0,0E0,8.45723E-3,5.9189787E-3,1.1367423E-2,1.2904503E-2,0E0,0E0,0E0,0E0,0E0,0E0,5.946617E-5,2.5529145E-5,5.1449304E-3,3.3334382E-3,3.4291288E-3,7.7874977E-3,2.870394E-3,7.6372717E-3,1.0977197E-2,2.7403422E-2,0E0,0E0,0E0,0E0,0E0,0E0,0E0,0E0,0E0,0E0,0E0,0E0,0E0,0E0,0E0,0E0,0E0,0E0,0E0,0E0],"parents":[2147483647,0,0,1,1,2,2,3,3,4,4,5,5,6,6,7,7,11,11,12,12,13,13,14,14,15,15,16,16,17,17,18,18,21,21,22,22,23,23,24,24,31,31,32,32,33,33,34,34,35,35,36,36,37,37,38,38,39,39,40,40],"right_children":[2,4,6,8,10,12,14,16,-1,-1,-1,18,20,22,24,26,28,30,32,-1,-1,34,36,38,40,-1,-1,-1,-1,-1,-1,42,44,46,48,50,52,54,56,58,60,-1,-1,-1,-1,-1,-1,-1,-1,-1,-1,-1,-1,-1,-1,-1,-1,-1,-1,-1,-1],"split_conditions":[2.833E1,2.858E1,2.8875E1,2.8169998E1,2.8345001E1,3.136E1,3.16E1,3.1985E1,2.1041108E-3,1.4619828E-4,-1.1752969E-2,2.7475E1,3.016E1,3.0285E1,3.1724998E1,3.3965E1,3.3835E1,3.225E1,2.975E1,-9.20105E-4,1.9514466E-2,3.01E1,2.9135E1,2.983E1,3.2175E1,-1.2174607E-3,1.5089036E-3,-9.942055E-4,-5.4303175E-3,9.087944E-3,1.8482209E-3,2.792E1,2.674E1,3.099E1,3.1005001E1,2.945E1,3.0939999E1,3.15E1,3.5485E1,3.4795E1,3.2335E1,-7.8907015E-4,-3.4723284E-3,1.6073227E-3,2.6359558E-4,-1.6157787E-3,-1.5226365E-2,2.7071952E-3,1.32003315E-2,-4.930115E-3,5.105095E-3,-1.0943821E-3,-1.4526987E-2,-4.0154867E-3,8.908082E-3,1.7157841E-2,-2.1694184E-3,-8.282178E-3,7.3310854E-3,1.4612867E-2,1.0611836E-4],"split_indices":[51,47,46,47,1,20,53,22,0,0,0,43,3,53,47,1,1,0,20,0,0,49,2,29,36,0,0,0,0,0,0,8,2,58,56,6,36,3,11,48,34,0,0,0,0,0,0,0,0,0,0,0,0,0,0,0,0,0,0,0,0],"split_type":[0,0,0,0,0,0,0,0,0,0,0,0,0,0,0,0,0,0,0,0,0,0,0,0,0,0,0,0,0,0,0,0,0,0,0,0,0,0,0,0,0,0,0,0,0,0,0,0,0,0,0,0,0,0,0,0,0,0,0,0,0],"sum_hessian":[6.58E2,1.9E1,6.39E2,1.4E1,5E0,1.8E1,6.21E2,1E1,4E0,1E0,4E0,1.3E1,5E0,6.1E1,5.6E2,4E0,6E0,3E0,1E1,1E0,4E0,3.3E1,2.8E1,1.8E1,5.42E2,2E0,2E0,1E0,5E0,2E0,1E0,4E0,6E0,1.9E1,1.4E1,1.1E1,1.7E1,7E0,1.1E1,2.9E1,5.13E2,2E0,2E0,1E0,5E0,1.7E1,2E0,1.1E1,3E0,7E0,4E0,6E0,1.1E1,6E0,1E0,9E0,2E0,2.5E1,4E0,1.1E1,5.02E2],"tree_param":{"num_deleted":"0","num_feature":"60","num_nodes":"61","size_leaf_vector":"0"}},{"base_weights":[2.4317393E-4,-1.9170425E-3,2.7112032E-3,1.9696096E-4,-3.701935E-2,9.375509E-2,1.8097559E-3,-1.973344E-3,3.2535464E-2,-8.7973915E-2,-1.4169565E-2,3.6606215E-2,-6.2139024E-4,5.4900814E-4,-4.5924243E-2,5.02851E-2,-2.0219484E-2,-3.8099926E-2,-1.03385925E-1,-2.8102528E-2,1.9316863E-2,-9.959327E-3,6.847986E-2,-6.177807E-2,2.421594E-4,-9.789534E-4,3.1505585E-2,-7.6238155E-2,-1.7080689E-2,8.4768295E-2,2.6904713E-2,2.25029E-3,-6.628418E-2,-3.398819E-2,1.5377045E-2,3.4175873E-2,7.0581436E-3,9.11967E-3,-3.608799E-2,9.305791E-2,2.8392157E-2,-6.966019E-2,-1.9065857E-2,2.4789385E-2,-2.327675E-3,-1.5831264E-3,5.613963E-2,4.9840927E-2,6.05011E-3,-9.1031395E-2,-2.1238962E-2,1.2726466E-2,-4.9433134E-2,2.3460388E-2,9.23378E-2,8.119856E-3,4.7822572E-2,-7.6478324E-3,1.1398315E-2,-7.4825287E-3,-3.610187E-2,-7.534027E-4,9.913127E-3,-1.7023087E-3,2.0509085E-2,1.0582479E-1,8.228302E-3,-9.765625E-4,3.446121E-2,1.3066848E-2,8.892727E-2,-7.89547E-2,-1.1165544E-3],"categories":[],"categories_nodes":[],"categories_segments":[],"categories_sizes":[],"default_left":[1,1,1,1,1,0,1,1,1,1,1,1,1,1,1,1,1,0,0,1,1,1,1,1,1,1,1,1,1,1,1,1,0,1,0,0,1,1,0,1,1,0,0,1,1,0,0,0,0,0,0,0,0,0,0,0,0,0,0,0,0,0,0,0,0,0,0,0,0,0,0,0,0],"id":61,"left_children":[1,3,5,7,9,-1,11,13,15,17,19,21,23,25,27,29,31,-1,-1,33,35,37,39,41,43,45,47,49,51,53,55,57,-1,59,-1,-1,61,63,-1,65,67,-1,-1,69,71,-1,-1,-1,-1,-1,-1,-1,-1,-1,-1,-1,-1,-1,-1,-1,-1,-1,-1,-1,-1,-1,-1,-1,-1,-1,-1,-1,-1],"loss_changes":[3.5186412E-3,2.6127942E-2,2.5108274E-2,2.3435615E-2,2.203946E-2,0E0,2.5908902E-2,3.4724284E-2,2.0680744E-2,6.7295507E-4,7.54133E-3,3.0366283E-2,1.5171954E-2,1.4079079E-2,1.3561934E-2,1.0619022E-2,6.3595385E-3,0E0,0E0,3.337605E-3,6.6954386E-4,4.8156884E-3,9.181213E-3,1.852028E-5,1.7973078E-2,9.889576E-3,6.232746E-3,4.575517E-3,1.0272453E-2,6.1814114E-4,3.9340165E-3,5.399138E-4,0E0,2.9011164E-4,0E0,0E0,9.667591E-5,7.744488E-4,0E0,6.710306E-3,1.1030957E-3,0E0,0E0,1.9138187E-2,2.385542E-2,0E0,0E0,0E0,0E0,0E0,0E0,0E0,0E0,0E0,0E0,0E0,0E0,0E0,0E0,0E0,0E0,0E0,0E0,0E0,0E0,0E0,0E0,0E0,0E0,0E0,0E0,0E0,0E0],"parents":[2147483647,0,0,1,1,2,2,3,3,4,4,6,6,7,7,8,8,9,9,10,10,11,11,12,12,13,13,14,14,15,15,16,16,19,19,20,20,21,21,22,22,23,23,24,24,25,25,26,26,27,27,28,28,29,29,30,30,31,31,33,33,36,36,37,37,39,39,40,40,43,43,44,44],"right_children":[2,4,6,8,10,-1,12,14,16,18,20,22,24,26,28,30,32,-1,-1,34,36,38,40,42,44,46,48,50,52,54,56,58,-1,60,-1,-1,62,64,-1,66,68,-1,-1,70,72,-1,-1,-1,-1,-1,-1,-1,-1,-1,-1,-1,-1,-1,-1,-1,-1,-1,-1,-1,-1,-1,-1,-1,-1,-1,-1,-1,-1],"split_conditions":[3.9364998E1,3.9315002E1,3.8125E1,3.884E1,3.9105E1,2.8126528E-2,3.9739998E1,3.8475E1,3.9465E1,3.9215E1,4.1260002E1,3.943E1,3.398E1,3.8715E1,3.8715E1,3.925E1,4.122E1,-1.1429979E-2,-3.1015778E-2,4.0129997E1,3.7535E1,3.895E1,3.8205E1,4.108E1,3.9095E1,3.8575E1,3.954E1,4.036E1,3.842E1,3.855E1,4.0114998E1,3.8510002E1,-1.9885255E-2,3.906E1,4.6131136E-3,1.0252763E-2,3.8515E1,3.933E1,-1.0826398E-2,4.025E1,3.8995E1,-2.0898057E-2,-5.719757E-3,4.0955E1,3.7335E1,-4.7493793E-4,1.684189E-2,1.4952279E-2,1.815033E-3,-2.730942E-2,-6.371689E-3,3.81794E-3,-1.4829941E-2,7.038117E-3,2.7701342E-2,2.4359568E-3,1.4346772E-2,-2.2943497E-3,3.4194947E-3,-2.2447587E-3,-1.0830562E-2,-2.2602083E-4,2.9739381E-3,-5.106926E-4,6.152726E-3,3.1747438E-2,2.4684907E-3,-2.9296876E-4,1.0338364E-2,3.9200545E-3,2.6678182E-2,-2.368641E-2,-3.3496632E-4],"split_indices":[15,17,7,18,24,0,15,19,19,19,31,0,55,29,19,40,0,0,0,11,0,1,51,1,27,16,31,8,8,0,31,6,0,16,0,0,0,9,0,18,12,0,0,20,44,0,0,0,0,0,0,0,0,0,0,0,0,0,0,0,0,0,0,0,0,0,0,0,0,0,0,0,0],"split_type":[0,0,0,0,0,0,0,0,0,0,0,0,0,0,0,0,0,0,0,0,0,0,0,0,0,0,0,0,0,0,0,0,0,0,0,0,0,0,0,0,0,0,0,0,0,0,0,0,0,0,0,0,0,0,0,0,0,0,0,0,0,0,0,0,0,0,0,0,0,0,0,0,0],"sum_hessian":[6.58E2,3.51E2,3.07E2,3.32E2,1.9E1,2E0,3.05E2,3.12E2,2E1,5E0,1.4E1,1.9E1,2.86E2,2.96E2,1.6E1,1.5E1,5E0,2E0,3E0,1E1,4E0,8E0,1.1E1,3E0,2.83E2,2.83E2,1.3E1,7E0,9E0,5E0,1E1,4E0,1E0,9E0,1E0,1E0,3E0,5E0,3E0,6E0,5E0,2E0,1E0,2.6E1,2.57E2,2.81E2,2E0,7E0,6E0,5E0,2E0,5E0,4E0,1E0,4E0,6E0,4E0,2E0,2E0,1E0,8E0,1E0,2E0,3E0,2E0,5E0,1E0,1E0,4E0,2.3E1,3E0,3E0,2.54E2],"tree_param":{"num_deleted":"0","num_feature":"60","num_nodes":"73","size_leaf_vector":"0"}},{"base_weights":[2.1711648E-4,4.8738625E-4,-1.7372131E-2,-9.683589E-4,4.413475E-3,-6.2412262E-2,1.689434E-3,4.3242137E-4,-2.5175389E-2,2.6058923E-2,1.4713728E-3,2.8230667E-2,-6.1351233E-3,-1.6705877E-4,3.357458E-2,-6.345415E-2,-7.7329935E-3,5.2423097E-2,1.9172033E-3,-2.8075324E-2,3.2581897E-3,-1.7436981E-2,1.8730164E-3,1.4782791E-3,-1.9389234E-2,6.1270397E-2,1.413091E-2,4.1859946E-3,-8.669853E-2,-3.201082E-2,1.2833682E-2,6.892885E-2,1.0432243E-2,2.243805E-2,-2.2343317E-2,-2.4175644E-3,-4.0501278E-2,3.0247116E-2,1.2931001E-3,-1.0414124E-3,2.8619766E-3,1.335192E-4,4.2431466E-2,-3.897216E-2,1.2768881E-2,-3.4103394E-3,1.8321227E-2,1.1676788E-2,-5.3977966E-3,6.6986086E-4,-5.8289338E-2,2.8098514E-2,-1.1103821E-2,-9.651184E-4,1.455307E-2,-2.6366424E-2,-1.1138916E-3,-5.865097E-3,6.866455E-4,-4.3718718E-2,-1.2207031E-2,1.1947632E-2,3.6382947E-2,-1.7008146E-2,5.068417E-3],"categories":[],"categories_nodes":[],"categories_segments":[],"categories_sizes":[],"default_left":[1,1,1,1,1,0,1,1,1,1,1,0,1,1,1,1,1,1,1,1,1,0,1,1,1,0,1,1,0,1,1,0,1,0,1,1,1,1,1,0,0,0,0,0,0,0,0,0,0,0,0,0,0,0,0,0,0,0,0,0,0,0,0,0,0],"id":62,"left_children":[1,3,5,7,9,-1,11,13,15,17,19,-1,21,23,25,27,29,31,33,35,37,-1,39,41,43,-1,45,47,-1,49,51,-1,53,-1,55,57,59,61,63,-1,-1,-1,-1,-1,-1,-1,-1,-1,-1,-1,-1,-1,-1,-1,-1,-1,-1,-1,-1,-1,-1,-1,-1,-1,-1],"loss_changes":[3.1412488E-3,3.7192735E-3,8.690795E-3,1.6117534E-2,1.1169886E-2,0E0,1.8345858E-3,8.946238E-3,1.6868813E-2,1.3265499E-2,8.327423E-3,0E0,6.6620775E-4,1.4039412E-2,3.4422604E-3,1.2940947E-2,9.897786E-3,6.2118247E-3,6.4754975E-3,2.7714837E-3,7.8101642E-3,0E0,1.7391769E-5,2.2518866E-2,2.253888E-2,0E0,5.035021E-4,2.7839953E-4,0E0,7.7682454E-3,4.331423E-3,0E0,2.019117E-4,0E0,4.8308005E-4,4.6834703E-5,1.2535602E-5,6.881356E-4,9.690133E-3,0E0,0E0,0E0,0E0,0E0,0E0,0E0,0E0,0E0,0E0,0E0,0E0,0E0,0E0,0E0,0E0,0E0,0E0,0E0,0E0,0E0,0E0,0E0,0E0,0E0,0E0],"parents":[2147483647,0,0,1,1,2,2,3,3,4,4,6,6,7,7,8,8,9,9,10,10,12,12,13,13,14,14,15,15,16,16,17,17,18,18,19,19,20,20,22,22,23,23,24,24,26,26,27,27,29,29,30,30,32,32,34,34,35,35,36,36,37,37,38,38],"right_children":[2,4,6,8,10,-1,12,14,16,18,20,-1,22,24,26,28,30,32,34,36,38,-1,40,42,44,-1,46,48,-1,50,52,-1,54,-1,56,58,60,62,64,-1,-1,-1,-1,-1,-1,-1,-1,-1,-1,-1,-1,-1,-1,-1,-1,-1,-1,-1,-1,-1,-1,-1,-1,-1,-1],"split_conditions":[5.029E1,4.1309998E1,4.804E1,4.1025E1,4.1370003E1,-1.872368E-2,5.0085E1,4.5965E1,4.065E1,4.2120003E1,4.1325E1,8.469201E-3,5.1535E1,4.1255E1,4.621E1,4.021E1,4.0705E1,4.1635002E1,4.0795E1,3.8120003E1,4.1699997E1,-5.2310945E-3,5.0385002E1,4.0525E1,4.1965E1,1.838112E-2,4.641E1,4.4415E1,-2.6009561E-2,4.1059998E1,4.1535E1,2.0678656E-2,3.8375E1,6.731415E-3,4.8275E1,3.7015E1,4.891E1,4.0754997E1,4.2949997E1,-3.124237E-4,8.5859303E-4,4.0055762E-5,1.2729441E-2,-1.16916485E-2,3.8306646E-3,-1.0231019E-3,5.4963683E-3,3.5030367E-3,-1.6193391E-3,2.0095827E-4,-1.7486801E-2,8.429554E-3,-3.3311464E-3,-2.8953553E-4,4.365921E-3,-7.9099275E-3,-3.341675E-4,-1.7595292E-3,2.0599367E-4,-1.3115616E-2,-3.6621096E-3,3.5842897E-3,1.09148845E-2,-5.102444E-3,1.5205252E-3],"split_indices":[34,40,59,38,43,0,1,7,40,27,44,0,13,17,2,44,20,42,58,0,41,0,3,38,27,0,1,0,0,30,45,0,0,0,1,2,0,18,43,0,0,0,0,0,0,0,0,0,0,0,0,0,0,0,0,0,0,0,0,0,0,0,0,0,0],"split_type":[0,0,0,0,0,0,0,0,0,0,0,0,0,0,0,0,0,0,0,0,0,0,0,0,0,0,0,0,0,0,0,0,0,0,0,0,0,0,0,0,0,0,0,0,0,0,0,0,0,0,0,0,0,0,0,0,0,0,0,0,0,0,0,0,0],"sum_hessian":[6.58E2,6.49E2,9E0,4.74E2,1.75E2,2E0,7E0,4.49E2,2.5E1,2E1,1.55E2,1E0,6E0,4.42E2,7E0,7E0,1.8E1,9E0,1.1E1,8E0,1.47E2,2E0,4E0,4.08E2,3.4E1,2E0,5E0,2E0,5E0,8E0,1E1,6E0,3E0,6E0,5E0,3E0,5E0,9E0,1.38E2,1E0,3E0,3.96E2,1.2E1,2.1E1,1.3E1,1E0,4E0,1E0,1E0,4E0,4E0,6E0,4E0,1E0,2E0,4E0,1E0,1E0,2E0,4E0,1E0,3E0,6E0,2.3E1,1.15E2],"tree_param":{"num_deleted":"0","num_feature":"60","num_nodes":"65","size_leaf_vector":"0"}},{"base_weights":[1.393146E-4,7.6050736E-4,-6.977729E-3,-1.3711717E-4,1.6893983E-2,-3.0178785E-2,2.9747612E-3,6.608565E-4,-1.7042747E-2,3.918743E-2,-5.08185E-3,-3.939724E-2,-2.0187378E-3,5.632909E-2,-1.5540653E-3,-3.6356164E-4,2.2229157E-2,-3.155032E-2,-6.0036182E-3,-1.0700226E-2,4.7078542E-2,1.83417E-2,-1.6370138E-2,-1.2346268E-2,-4.7042422E-2,1.0362625E-2,-7.704735E-3,6.668091E-2,1.7812729E-2,-1.0658836E-2,9.248845E-3,-1.3729284E-4,-5.9690475E-2,3.9424643E-2,-3.2400652E-3,1.6485214E-2,-3.8002394E-2,1.1183421E-2,-1.4832583E-2,6.488207E-2,1.252683E-2,3.812027E-2,-1.4143626E-2,-4.4612885E-3,-1.9844055E-2,-6.0166933E-2,-2.450943E-2,-1.8978119E-3,-9.0077715E-3,-1.3052997E-3,-4.774666E-2,2.3872852E-2,-3.375244E-3,-4.2232792E-4,2.9647827E-2,2.498881E-2,7.287598E-2,-4.141744E-2,9.845734E-3,-4.3184068E-2,4.31633E-3,1.642418E-2,4.679362E-4,-2.0556556E-2,7.283529E-3,2.790451E-3,7.229471E-2,2.0395279E-2,-2.1400452E-3,-2.157402E-2,3.5858154E-4,-1.2798309E-3,-5.095164E-3,-2.3316702E-2,-9.674072E-3,5.2997884E-3,-1.8217469E-2,-5.455017E-2,-1.366806E-2,3.046875E-2,9.659767E-3,-2.1142324E-2,3.7093163E-3],"categories":[],"categories_nodes":[],"categories_segments":[],"categories_sizes":[],"default_left":[1,1,1,1,1,1,1,1,1,1,1,1,1,1,1,1,1,1,1,0,1,1,1,0,1,0,1,0,0,1,1,1,0,1,1,0,1,1,1,1,1,0,1,1,1,0,0,0,0,1,1,1,1,0,0,0,0,0,0,0,0,0,0,0,0,0,0,0,0,0,0,0,0,0,0,0,0,0,0,0,0,0,0],"id":63,"left_children":[1,3,5,7,9,11,13,15,17,19,21,23,25,27,29,31,33,35,37,-1,39,41,43,-1,45,-1,47,-1,-1,49,51,53,-1,55,57,-1,59,61,63,65,67,-1,69,71,73,-1,-1,-1,-1,75,77,79,81,-1,-1,-1,-1,-1,-1,-1,-1,-1,-1,-1,-1,-1,-1,-1,-1,-1,-1,-1,-1,-1,-1,-1,-1,-1,-1,-1,-1,-1,-1],"loss_changes":[2.9187824E-3,8.792771E-3,1.2327914E-2,7.7816453E-3,1.5876492E-2,4.073942E-3,9.269575E-3,1.2182403E-2,3.9745085E-3,6.8024546E-3,4.795256E-3,1.9009169E-3,4.3184322E-4,8.373521E-6,3.639471E-3,7.0661632E-3,1.1076629E-2,4.0356955E-3,2.5937792E-3,0E0,7.7992287E-3,4.394239E-3,4.079144E-4,0E0,1.1869539E-3,0E0,1.3171491E-5,0E0,0E0,6.8757227E-3,3.2190275E-3,4.4781575E-3,0E0,5.4223835E-3,5.9031807E-3,0E0,2.3792153E-3,3.2925815E-4,1.5422367E-3,3.9406307E-3,7.360801E-4,0E0,3.310074E-4,1.5456462E-6,9.228336E-5,0E0,0E0,0E0,0E0,1.9955568E-3,1.818221E-4,4.5566354E-4,1.337143E-3,0E0,0E0,0E0,0E0,0E0,0E0,0E0,0E0,0E0,0E0,0E0,0E0,0E0,0E0,0E0,0E0,0E0,0E0,0E0,0E0,0E0,0E0,0E0,0E0,0E0,0E0,0E0,0E0,0E0,0E0],"parents":[2147483647,0,0,1,1,2,2,3,3,4,4,5,5,6,6,7,7,8,8,9,9,10,10,11,11,12,12,13,13,14,14,15,15,16,16,17,17,18,18,20,20,21,21,22,22,24,24,26,26,29,29,30,30,31,31,33,33,34,34,36,36,37,37,38,38,39,39,40,40,42,42,43,43,44,44,49,49,50,50,51,51,52,52],"right_children":[2,4,6,8,10,12,14,16,18,20,22,24,26,28,30,32,34,36,38,-1,40,42,44,-1,46,-1,48,-1,-1,50,52,54,-1,56,58,-1,60,62,64,66,68,-1,70,72,74,-1,-1,-1,-1,76,78,80,82,-1,-1,-1,-1,-1,-1,-1,-1,-1,-1,-1,-1,-1,-1,-1,-1,-1,-1,-1,-1,-1,-1,-1,-1,-1,-1,-1,-1,-1,-1],"split_conditions":[4.597E1,4.467E1,4.7045E1,4.3925E1,4.6275E1,4.6845E1,4.4605E1,4.2225E1,4.16E1,4.1370003E1,4.5895E1,4.198E1,4.236E1,4.3085E1,4.9760002E1,4.2989998E1,4.296E1,3.667E1,4.39E1,-3.210068E-3,4.571E1,4.5870003E1,4.467E1,-3.7038804E-3,4.333E1,3.1087876E-3,4.3195E1,2.0004272E-2,5.343819E-3,4.975E1,4.932E1,4.8595E1,-1.7907143E-2,4.1815002E1,4.0705E1,4.9455645E-3,4.2015E1,4.239E1,4.9760002E1,4.104E1,4.168E1,1.14360815E-2,4.43E1,4.465E1,4.7695E1,-1.805008E-2,-7.3528294E-3,-5.6934357E-4,-2.7023316E-3,4.9585E1,5.327E1,5.164E1,5.0335E1,-1.2669839E-4,8.8943485E-3,7.4966433E-3,2.1862794E-2,-1.2425232E-2,2.9537203E-3,-1.2955221E-2,1.294899E-3,4.927254E-3,1.4038086E-4,-6.166967E-3,2.1850588E-3,8.3713536E-4,2.1688415E-2,6.118584E-3,-6.4201356E-4,-6.472206E-3,1.07574466E-4,-3.839493E-4,-1.5285492E-3,-6.9950107E-3,-2.9022219E-3,1.5899366E-3,-5.4652407E-3,-1.6365051E-2,-4.100418E-3,9.140626E-3,2.8979303E-3,-6.3426974E-3,1.112795E-3],"split_indices":[58,57,55,58,35,47,21,58,15,15,18,8,0,0,31,59,42,2,1,0,59,7,6,0,8,0,0,0,0,32,53,14,0,40,8,0,18,25,0,0,8,0,0,2,28,0,0,0,0,47,0,2,1,0,0,0,0,0,0,0,0,0,0,0,0,0,0,0,0,0,0,0,0,0,0,0,0,0,0,0,0,0,0],"split_type":[0,0,0,0,0,0,0,0,0,0,0,0,0,0,0,0,0,0,0,0,0,0,0,0,0,0,0,0,0,0,0,0,0,0,0,0,0,0,0,0,0,0,0,0,0,0,0,0,0,0,0,0,0,0,0,0,0,0,0,0,0,0,0,0,0,0,0,0,0,0,0,0,0,0,0,0,0,0,0,0,0,0,0],"sum_hessian":[6.58E2,6.06E2,5.2E1,5.75E2,3.1E1,1.5E1,3.7E1,5.5E2,2.5E1,1.5E1,1.6E1,1.1E1,4E0,2E0,3.5E1,5.26E2,2.4E1,1E1,1.5E1,2E0,1.3E1,5E0,1.1E1,3E0,8E0,1E0,3E0,1E0,1E0,1.9E1,1.6E1,5.25E2,1E0,1.4E1,1E1,1E0,9E0,5E0,1E1,8E0,5E0,3E0,2E0,3E0,8E0,4E0,4E0,1E0,2E0,1.6E1,3E0,7E0,9E0,5.21E2,4E0,1.1E1,3E0,2E0,8E0,8E0,1E0,3E0,2E0,8E0,2E0,1E0,7E0,3E0,2E0,1E0,1E0,1E0,2E0,5E0,3E0,1.2E1,4E0,2E0,1E0,4E0,3E0,2E0,7E0],"tree_param":{"num_deleted":"0","num_feature":"60","num_nodes":"83","size_leaf_vector":"0"}},{"base_weights":[9.9546814E-5,1.1373173E-2,-2.8935494E-4,3.9164545E-3,5.7293575E-2,-2.0243911E-2,5.235983E-4,-7.359096E-3,9.274483E-3,-7.5051924E-3,-4.2056613E-2,1.644928E-2,-1.5210621E-4,3.610611E-3,-9.789149E-3,1.3854344E-2,8.589427E-4,-2.748909E-2,7.582444E-4,-4.7982216E-2,2.6741028E-3,8.341009E-3,5.693245E-2,-1.8468952E-2,4.8973097E-4,-4.5161247E-3,-1.3556798E-2,3.9619445E-3,2.0975877E-2,2.735901E-3,-4.262924E-3,-3.0514717E-2,-7.6932907E-3,1.52516365E-2,-5.1149367E-3,-7.000923E-3,-5.2836556E-2,2.0723207E-2,-1.1846966E-2,1.5140533E-2,6.5816246E-2,-7.849693E-3,-7.602819E-2,1.4175892E-2,-1.1055661E-4,1.1431376E-3,5.4601035E-3,3.3696493E-4,4.22287E-3,1.4438629E-3,1.937294E-2,4.8332214E-3,-1.0068893E-2,4.1050434E-2,1.144756E-2,8.146922E-3,-1.8723352E-2,1.585121E-2,-1.575361E-2,-3.7960324E-3,3.5760533E-2,-1.8270085E-2,8.655995E-4],"categories":[],"categories_nodes":[],"categories_segments":[],"categories_sizes":[],"default_left":[1,1,1,1,0,1,1,1,1,1,1,1,1,0,1,1,1,1,1,1,0,1,1,1,1,0,0,1,0,1,0,0,0,1,1,0,0,1,1,0,0,1,0,1,1,0,0,0,0,0,0,0,0,0,0,0,0,0,0,0,0,0,0],"id":64,"left_children":[1,3,5,7,-1,9,11,13,15,17,19,21,23,-1,25,27,29,31,33,35,-1,37,39,41,43,-1,-1,45,-1,47,-1,-1,-1,49,51,-1,-1,53,55,-1,-1,57,-1,59,61,-1,-1,-1,-1,-1,-1,-1,-1,-1,-1,-1,-1,-1,-1,-1,-1,-1,-1],"loss_changes":[2.8925664E-3,7.308753E-3,1.0360313E-2,1.2765462E-3,0E0,6.6310046E-3,6.609789E-3,2.2194357E-4,5.2768807E-4,2.82815E-3,2.5138166E-3,7.7313385E-3,6.9453404E-3,0E0,5.7977275E-5,5.509362E-4,6.9344125E-5,6.471481E-5,1.1846013E-3,1.2215916E-3,0E0,5.74488E-3,4.885895E-4,1.1627929E-2,4.6926932E-3,0E0,0E0,1.4873454E-5,0E0,1.6412756E-5,0E0,0E0,0E0,1.9965228E-4,5.414926E-4,0E0,0E0,2.1697474E-3,1.3899087E-3,0E0,0E0,3.6216534E-3,0E0,9.44577E-3,9.729954E-3,0E0,0E0,0E0,0E0,0E0,0E0,0E0,0E0,0E0,0E0,0E0,0E0,0E0,0E0,0E0,0E0,0E0,0E0],"parents":[2147483647,0,0,1,1,2,2,3,3,5,5,6,6,7,7,8,8,9,9,10,10,11,11,12,12,14,14,15,15,16,16,17,17,18,18,19,19,21,21,22,22,23,23,24,24,27,27,29,29,33,33,34,34,37,37,38,38,41,41,43,43,44,44],"right_children":[2,4,6,8,-1,10,12,14,16,18,20,22,24,-1,26,28,30,32,34,36,-1,38,40,42,44,-1,-1,46,-1,48,-1,-1,-1,50,52,-1,-1,54,56,-1,-1,58,-1,60,62,-1,-1,-1,-1,-1,-1,-1,-1,-1,-1,-1,-1,-1,-1,-1,-1,-1,-1],"split_conditions":[2.8310001E1,3.028E1,2.9305E1,2.9415E1,1.7188074E-2,3.0395E1,3.028E1,2.667E1,2.824E1,2.809E1,3.2265E1,3.02E1,3.118E1,1.0831833E-3,3.007E1,2.9095E1,2.8905E1,2.8825E1,3.098E1,2.661E1,8.0223085E-4,3.2095E1,2.9725E1,3.1509998E1,2.989E1,-1.3548374E-3,-4.0670396E-3,2.8025E1,6.292763E-3,2.8605E1,-1.2788773E-3,-9.154416E-3,-2.3079873E-3,2.8755001E1,2.8310001E1,-2.100277E-3,-1.5850967E-2,2.892E1,2.9634998E1,4.5421603E-3,1.9744875E-2,2.8935E1,-2.2808459E-2,2.9455E1,3.175E1,3.429413E-4,1.6380311E-3,1.01089485E-4,1.266861E-3,4.331589E-4,5.811882E-3,1.4499665E-3,-3.0206682E-3,1.2315131E-2,3.434268E-3,2.4440768E-3,-5.6170058E-3,4.7553633E-3,-4.726083E-3,-1.1388097E-3,1.072816E-2,-5.4810257E-3,2.5967986E-4],"split_indices":[2,9,1,28,0,5,0,5,4,3,4,0,0,0,16,47,3,1,34,0,0,58,1,4,24,0,0,11,0,4,0,0,0,2,11,0,0,27,0,0,0,8,0,21,28,0,0,0,0,0,0,0,0,0,0,0,0,0,0,0,0,0,0],"split_type":[0,0,0,0,0,0,0,0,0,0,0,0,0,0,0,0,0,0,0,0,0,0,0,0,0,0,0,0,0,0,0,0,0,0,0,0,0,0,0,0,0,0,0,0,0,0,0,0,0,0,0,0,0,0,0,0,0,0,0,0,0,0,0],"sum_hessian":[6.58E2,2.1E1,6.37E2,1.9E1,2E0,2.4E1,6.13E2,6E0,1.3E1,1.6E1,8E0,2.4E1,5.89E2,1E0,5E0,8E0,5E0,4E0,1.2E1,7E0,1E0,2.1E1,3E0,1.9E1,5.7E2,3E0,2E0,4E0,4E0,4E0,1E0,3E0,1E0,3E0,9E0,1E0,6E0,1.3E1,8E0,1E0,2E0,1.7E1,2E0,2.3E1,5.47E2,2E0,2E0,2E0,2E0,1E0,2E0,3E0,6E0,3E0,1E1,2E0,6E0,4E0,1.3E1,1.3E1,1E1,2.7E1,5.2E2],"tree_param":{"num_deleted":"0","num_feature":"60","num_nodes":"63","size_leaf_vector":"0"}},{"base_weights":[9.3763985E-5,1.058853E-3,-4.680359E-3,1.971789E-4,2.5084646E-2,-5.4510117E-2,-2.7914753E-3,7.8270584E-4,-3.3850353E-2,3.636907E-2,-1.3785553E-2,-8.535385E-3,-6.69899E-2,-1.4493103E-2,7.2438375E-4,-1.9111935E-4,2.8114531E-2,-4.475948E-2,2.8877258E-3,5.463155E-2,2.1774674E-2,-1.9302368E-2,4.140854E-3,3.513972E-3,-1.9170571E-2,1.7471058E-2,-2.8745378E-3,-4.1545453E-4,5.6549072E-2,4.0845137E-2,-4.1542053E-3,8.678436E-3,-4.3468475E-3,1.4706929E-2,7.091713E-2,5.0443015E-3,2.5326729E-2,1.3693492E-2,-4.9991608E-3,-5.707332E-3,-2.4532864E-2,2.9965973E-2,-6.2656403E-3,-2.2375925E-2,-6.966591E-4,8.050318E-4,-1.5019343E-2,6.2084742E-2,1.3770512E-2,1.4858246E-3,-1.028951E-2,2.7182443E-2,6.1683655E-3,-5.9903464E-3,-1.0128021E-3,5.9305825E-3,-1.1548614E-2,-3.4944534E-2,-9.129115E-3,8.074443E-3,3.442955E-2,7.6961517E-3,-1.0597229E-2,2.1533966E-3,-2.6823044E-2,2.9466629E-2,-1.6431657E-3],"categories":[],"categories_nodes":[],"categories_segments":[],"categories_sizes":[],"default_left":[1,1,1,1,1,1,1,1,1,1,1,0,0,1,1,1,1,0,1,1,1,0,0,1,1,1,1,1,0,1,1,0,0,0,0,0,1,0,1,1,1,1,1,1,1,0,0,0,0,0,0,0,0,0,0,0,0,0,0,0,0,0,0,0,0,0,0],"id":65,"left_children":[1,3,5,7,9,11,13,15,17,19,21,-1,-1,23,25,27,29,-1,31,33,35,-1,-1,37,39,41,43,45,-1,47,49,-1,-1,-1,-1,-1,51,-1,53,55,57,59,61,63,65,-1,-1,-1,-1,-1,-1,-1,-1,-1,-1,-1,-1,-1,-1,-1,-1,-1,-1,-1,-1,-1,-1],"loss_changes":[3.0412672E-3,1.1360672E-2,1.0295444E-2,1.0612377E-2,8.835297E-3,1.7232336E-3,4.4537564E-3,1.392576E-2,3.7362762E-3,2.8083622E-3,5.744117E-4,0E0,0E0,2.1730526E-3,5.1128985E-3,6.464277E-3,7.56409E-3,0E0,1.6340379E-4,2.8581992E-3,4.6651624E-4,0E0,0E0,5.8841356E-4,1.3038595E-3,4.636576E-3,2.9574274E-3,9.013134E-3,0E0,6.6207685E-3,2.2290825E-4,0E0,0E0,0E0,0E0,0E0,1.1674827E-4,0E0,9.737851E-6,5.443524E-4,1.9262899E-3,6.991457E-4,4.444183E-4,8.2135457E-4,1.8756026E-3,0E0,0E0,0E0,0E0,0E0,0E0,0E0,0E0,0E0,0E0,0E0,0E0,0E0,0E0,0E0,0E0,0E0,0E0,0E0,0E0,0E0,0E0],"parents":[2147483647,0,0,1,1,2,2,3,3,4,4,5,5,6,6,7,7,8,8,9,9,10,10,13,13,14,14,15,15,16,16,18,18,19,19,20,20,23,23,24,24,25,25,26,26,27,27,29,29,30,30,36,36,38,38,39,39,40,40,41,41,42,42,43,43,44,44],"right_children":[2,4,6,8,10,12,14,16,18,20,22,-1,-1,24,26,28,30,-1,32,34,36,-1,-1,38,40,42,44,46,-1,48,50,-1,-1,-1,-1,-1,52,-1,54,56,58,60,62,64,66,-1,-1,-1,-1,-1,-1,-1,-1,-1,-1,-1,-1,-1,-1,-1,-1,-1,-1,-1,-1,-1,-1],"split_conditions":[4.4815E1,4.589E1,4.3940002E1,4.4265E1,4.2965E1,4.5855E1,4.5739998E1,4.3004997E1,4.43E1,4.144E1,4.8595E1,-2.5606155E-3,-2.009697E-2,4.487E1,4.534E1,4.4925E1,4.428E1,-1.3427844E-2,4.3125E1,4.609E1,4.5205E1,-5.7907104E-3,1.2422563E-3,4.5905E1,4.118E1,4.9364998E1,4.575E1,4.1765E1,1.6964722E-2,4.1434998E1,4.3055E1,2.603531E-3,-1.3040543E-3,4.4120788E-3,2.127514E-2,1.5132906E-3,4.8595E1,4.1080476E-3,4.728E1,4.5595E1,4.555E1,4.5705E1,4.9465E1,4.2239998E1,4.544E1,2.4150955E-4,-4.5058033E-3,1.8625423E-2,4.1311537E-3,4.457474E-4,-3.086853E-3,8.154733E-3,1.8505097E-3,-1.797104E-3,-3.0384064E-4,1.7791748E-3,-3.4645845E-3,-1.0483361E-2,-2.7387347E-3,2.422333E-3,1.0328866E-2,2.3088455E-3,-3.1791688E-3,6.46019E-4,-8.046914E-3,8.839989E-3,-4.9294974E-4],"split_indices":[18,0,22,12,32,0,23,14,18,26,3,0,0,19,36,22,15,0,0,0,6,0,0,3,43,0,34,12,0,0,12,0,0,0,0,0,0,0,0,11,22,21,1,0,20,0,0,0,0,0,0,0,0,0,0,0,0,0,0,0,0,0,0,0,0,0,0],"split_type":[0,0,0,0,0,0,0,0,0,0,0,0,0,0,0,0,0,0,0,0,0,0,0,0,0,0,0,0,0,0,0,0,0,0,0,0,0,0,0,0,0,0,0,0,0,0,0,0,0,0,0,0,0,0,0,0,0,0,0,0,0,0,0,0,0,0,0],"sum_hessian":[6.58E2,5.48E2,1.1E2,5.3E2,1.8E1,3E0,1.07E2,5.22E2,8E0,1.4E1,4E0,1E0,2E0,2.4E1,8.3E1,5.05E2,1.7E1,6E0,2E0,5E0,9E0,3E0,1E0,5E0,1.9E1,1.4E1,6.9E1,5.04E2,1E0,1.2E1,5E0,1E0,1E0,2E0,3E0,2E0,7E0,2E0,3E0,6E0,1.3E1,9E0,5E0,6E0,6.3E1,4.66E2,3.8E1,6E0,6E0,3E0,2E0,6E0,1E0,2E0,1E0,2E0,4E0,7E0,6E0,2E0,7E0,1E0,4E0,1E0,5E0,1E0,6.2E1],"tree_param":{"num_deleted":"0","num_feature":"60","num_nodes":"67","size_leaf_vector":"0"}},{"base_weights":[1.1238885E-4,5.2053058E-3,-4.252429E-4,-4.5083365E-3,1.2152955E-2,-3.256035E-2,1.7767261E-4,3.4537998E-3,-1.2148448E-2,2.5568008E-2,-1.9017269E-3,-8.19238E-3,-5.150159E-2,-3.261137E-2,4.0195085E-4,-3.762775E-3,1.3703029E-2,-1.940918E-2,7.6738995E-4,3.2912318E-2,-1.5785217E-3,1.6695404E-2,-7.973989E-3,1.0204315E-4,-1.6520819E-2,-3.98318E-2,-5.4750443E-3,6.4349086E-3,-9.339478E-4,-8.000374E-3,3.534317E-3,4.014969E-4,1.6283035E-2,-8.4883375E-3,-2.13168E-2,-6.4373016E-3,3.4957887E-3,6.531143E-3,4.1911732E-2,6.614685E-3,-1.7175674E-2,2.8177898E-3,2.5007883E-2,-1.7857688E-2,5.9933134E-4,2.4147034E-3,-1.4737447E-3,-1.5479249E-3,2.6709683E-2,-3.154564E-2,2.6073703E-4,-3.6654472E-3,-1.1113484E-2,4.5630136E-3,2.2411346E-4,1.1138916E-3,6.511688E-3,1.9010544E-2,-1.3413429E-3,4.6723556E-2,-3.1032562E-3,-2.3078918E-4,8.973439E-3,5.0201416E-3,-7.9345703E-4,-5.4219565E-3,-2.174759E-2,-3.1263828E-3,1.5202522E-2,2.066756E-3,-5.401268E-2,3.5854578E-2,-8.459909E-3,-5.5672782E-3,-4.407088E-2,3.0571278E-2,-6.1548024E-4],"categories":[],"categories_nodes":[],"categories_segments":[],"categories_sizes":[],"default_left":[1,1,1,1,1,1,1,1,1,1,1,1,0,1,1,1,1,1,1,1,1,1,1,1,0,0,0,1,1,1,1,0,0,0,0,0,1,1,1,1,0,1,0,1,1,0,0,1,1,1,1,0,0,0,0,0,0,0,0,0,0,0,0,0,0,0,0,0,0,0,0,0,0,0,0,0,0],"id":66,"left_children":[1,3,5,7,9,11,13,15,17,19,21,23,-1,25,27,29,31,33,35,37,39,41,43,45,-1,-1,-1,47,49,51,53,-1,-1,-1,-1,-1,55,57,59,61,-1,63,-1,65,67,-1,-1,69,71,73,75,-1,-1,-1,-1,-1,-1,-1,-1,-1,-1,-1,-1,-1,-1,-1,-1,-1,-1,-1,-1,-1,-1,-1,-1,-1,-1],"loss_changes":[1.8066305E-3,4.306469E-3,1.1572514E-2,1.6844117E-3,7.024763E-3,4.6552345E-3,4.3298295E-3,1.087062E-3,1.3277926E-3,3.840031E-3,2.2787352E-3,4.1616338E-4,0E0,5.656625E-4,4.712711E-3,3.065752E-4,1.9937067E-4,6.551156E-6,1.4044708E-4,3.2874942E-3,7.5256516E-4,5.0632004E-4,1.2817446E-3,1.8135705E-5,0E0,0E0,0E0,1.719746E-2,1.7525889E-2,4.0234736E-5,1.2598146E-5,0E0,0E0,0E0,0E0,0E0,2.8664494E-5,5.167192E-4,2.5276411E-3,6.665813E-5,0E0,2.7842974E-5,0E0,2.207018E-4,5.371947E-4,0E0,0E0,1.4714168E-2,9.951992E-3,5.61158E-3,1.2288897E-2,0E0,0E0,0E0,0E0,0E0,0E0,0E0,0E0,0E0,0E0,0E0,0E0,0E0,0E0,0E0,0E0,0E0,0E0,0E0,0E0,0E0,0E0,0E0,0E0,0E0,0E0],"parents":[2147483647,0,0,1,1,2,2,3,3,4,4,5,5,6,6,7,7,8,8,9,9,10,10,11,11,13,13,14,14,15,15,16,16,17,17,18,18,19,19,20,20,21,21,22,22,23,23,27,27,28,28,29,29,30,30,36,36,37,37,38,38,39,39,41,41,43,43,44,44,47,47,48,48,49,49,50,50],"right_children":[2,4,6,8,10,12,14,16,18,20,22,24,-1,26,28,30,32,34,36,38,40,42,44,46,-1,-1,-1,48,50,52,54,-1,-1,-1,-1,-1,56,58,60,62,-1,64,-1,66,68,-1,-1,70,72,74,76,-1,-1,-1,-1,-1,-1,-1,-1,-1,-1,-1,-1,-1,-1,-1,-1,-1,-1,-1,-1,-1,-1,-1,-1,-1,-1],"split_conditions":[3.0055E1,2.996E1,3.028E1,2.853E1,3.1415E1,2.9974998E1,2.8935E1,2.951E1,2.9880001E1,3.368E1,2.78E1,3.1485E1,-1.5450478E-2,3.6015E1,3.3045E1,2.929E1,2.8650002E1,2.9135E1,2.7654999E1,3.021E1,3.1614998E1,3.4015E1,2.8125E1,2.9275E1,-4.956246E-3,-1.194954E-2,-1.6425133E-3,3.232E1,3.389E1,3.0095001E1,3.0789999E1,1.2044907E-4,4.884911E-3,-2.5465013E-3,-6.3950405E-3,-1.9311906E-3,2.9455E1,2.7325E1,3.025E1,2.8195E1,-5.1527023E-3,3.412E1,7.5023654E-3,2.75E1,3.386E1,7.2441105E-4,-4.4212345E-4,3.246E1,3.3965E1,3.253E1,3.4465E1,-1.0996342E-3,-3.3340454E-3,1.3689041E-3,6.723404E-5,3.341675E-4,1.9535066E-3,5.7031633E-3,-4.024029E-4,1.4017067E-2,-9.309769E-4,-6.923676E-5,2.692032E-3,1.5060426E-3,-2.3803712E-4,-1.626587E-3,-6.524277E-3,-9.379149E-4,4.560757E-3,6.200268E-4,-1.6203804E-2,1.0756373E-2,-2.5379728E-3,-1.6701835E-3,-1.3221265E-2,9.171383E-3,-1.8464409E-4],"split_indices":[34,15,33,18,16,20,42,45,19,57,55,1,0,0,59,56,0,10,9,3,1,2,44,0,0,0,0,58,55,0,0,0,0,0,0,0,0,0,31,2,0,0,0,47,14,0,0,57,50,55,55,0,0,0,0,0,0,0,0,0,0,0,0,0,0,0,0,0,0,0,0,0,0,0,0,0,0],"split_type":[0,0,0,0,0,0,0,0,0,0,0,0,0,0,0,0,0,0,0,0,0,0,0,0,0,0,0,0,0,0,0,0,0,0,0,0,0,0,0,0,0,0,0,0,0,0,0,0,0,0,0,0,0,0,0,0,0,0,0,0,0,0,0,0,0,0,0,0,0,0,0,0,0,0,0,0,0],"sum_hessian":[6.58E2,6.2E1,5.96E2,2.6E1,3.6E1,1E1,5.86E2,1.3E1,1.3E1,1.8E1,1.8E1,5E0,5E0,3E0,5.83E2,8E0,5E0,8E0,5E0,1.4E1,4E0,4E0,1.4E1,3E0,2E0,2E0,1E0,1.05E2,4.78E2,5E0,3E0,1E0,4E0,2E0,6E0,1E0,4E0,4E0,1E1,3E0,1E0,2E0,2E0,6E0,8E0,1E0,2E0,7.6E1,2.9E1,1.7E1,4.61E2,3E0,2E0,2E0,1E0,3E0,1E0,1E0,3E0,9E0,1E0,1E0,2E0,1E0,1E0,2E0,4E0,7E0,1E0,7.2E1,4E0,2.3E1,6E0,6E0,1.1E1,1.2E1,4.49E2],"tree_param":{"num_deleted":"0","num_feature":"60","num_nodes":"77","size_leaf_vector":"0"}},{"base_weights":[2.6833124E-5,-1.6900301E-3,1.9888754E-3,-9.1274304E-4,-5.5451203E-2,7.062022E-2,1.3095195E-3,4.7177402E-4,-2.4911579E-2,3.469068E-2,6.457922E-5,-8.7257056E-4,4.8517015E-2,-6.301727E-2,-1.0548909E-2,-1.5641212E-2,7.92408E-2,-3.3486683E-2,1.4770374E-3,5.047074E-4,-1.79948E-2,6.350199E-2,1.3910294E-2,-1.2546539E-2,-7.249832E-2,-2.0079179E-2,1.2527466E-2,-3.0154038E-2,2.8461456E-2,-7.930756E-3,-8.261585E-2,1.4403229E-2,-1.2678211E-3,-1.3307245E-3,1.5860677E-2,-5.114889E-2,-1.3343587E-3,2.1400452E-3,1.7120361E-2,-2.467804E-2,1.2954712E-2,1.7238617E-2,3.6404927E-3,1.4678192E-2,-2.8953552E-2,1.9224996E-2,-3.2837678E-2,-1.3608615E-2,1.8730568E-3],"categories":[],"categories_nodes":[],"categories_segments":[],"categories_sizes":[],"default_left":[1,1,1,1,0,0,1,1,1,1,1,1,1,1,1,1,0,1,1,1,1,0,1,0,0,1,1,0,0,1,0,1,1,0,0,0,0,0,0,0,0,0,0,0,0,0,0,0,0],"id":67,"left_children":[1,3,5,7,-1,-1,9,11,13,15,17,19,21,23,25,27,-1,29,31,33,35,-1,37,-1,-1,39,41,-1,-1,43,-1,45,47,-1,-1,-1,-1,-1,-1,-1,-1,-1,-1,-1,-1,-1,-1,-1,-1],"loss_changes":[2.2232411E-3,1.4658714E-2,1.4268055E-2,1.1574679E-2,0E0,0E0,1.2714371E-2,2.1356825E-2,9.7339265E-3,2.590463E-2,1.407683E-2,7.602509E-3,3.7838966E-3,1.4829747E-3,3.5504024E-3,4.698553E-3,0E0,1.4411293E-2,1.0130223E-2,8.448371E-3,1.3188433E-2,0E0,1.1449482E-4,0E0,0E0,1.9907975E-3,1.4658232E-4,0E0,0E0,4.702716E-3,0E0,1.2020536E-2,9.173067E-3,0E0,0E0,0E0,0E0,0E0,0E0,0E0,0E0,0E0,0E0,0E0,0E0,0E0,0E0,0E0,0E0],"parents":[2147483647,0,0,1,1,2,2,3,3,6,6,7,7,8,8,9,9,10,10,11,11,12,12,13,13,14,14,15,15,17,17,18,18,19,19,20,20,22,22,25,25,26,26,29,29,31,31,32,32],"right_children":[2,4,6,8,-1,-1,10,12,14,16,18,20,22,24,26,28,-1,30,32,34,36,-1,38,-1,-1,40,42,-1,-1,44,-1,46,48,-1,-1,-1,-1,-1,-1,-1,-1,-1,-1,-1,-1,-1,-1,-1,-1],"split_conditions":[3.9364998E1,4.065E1,3.8125E1,3.9315002E1,-1.6635362E-2,2.1186065E-2,3.7155E1,3.9184998E1,3.9010002E1,4.038E1,3.7355E1,3.8515E1,3.9415E1,3.8485E1,4.1260002E1,4.0955E1,2.3772242E-2,4.042E1,4.0455E1,3.86E1,3.8745003E1,1.9050598E-2,3.7675003E1,-3.7639618E-3,-2.1749496E-2,4.0129997E1,3.866E1,-9.046212E-3,8.538437E-3,3.853E1,-2.4784757E-2,4.018E1,4.1355E1,-3.9921736E-4,4.7582034E-3,-1.5344668E-2,-4.0030762E-4,6.4201356E-4,5.1361085E-3,-7.4034124E-3,3.8864138E-3,5.1715854E-3,1.0921479E-3,4.403458E-3,-8.686066E-3,5.767499E-3,-9.851304E-3,-4.0825848E-3,5.61917E-4],"split_indices":[15,10,7,17,0,0,42,18,24,10,44,19,19,1,31,1,0,16,21,41,19,0,0,0,0,11,1,0,0,29,0,59,15,0,0,0,0,0,0,0,0,0,0,0,0,0,0,0,0],"split_type":[0,0,0,0,0,0,0,0,0,0,0,0,0,0,0,0,0,0,0,0,0,0,0,0,0,0,0,0,0,0,0,0,0,0,0,0,0,0,0,0,0,0,0,0,0,0,0,0,0],"sum_hessian":[6.58E2,3.51E2,3.07E2,3.47E2,4E0,2E0,3.05E2,3.29E2,1.8E1,1E1,2.95E2,3.21E2,8E0,4E0,1.4E1,5E0,5E0,1.1E1,2.84E2,2.98E2,2.3E1,5E0,3E0,1E0,3E0,1E1,4E0,4E0,1E0,8E0,3E0,4.9E1,2.35E2,2.67E2,3.1E1,7E0,1.6E1,1E0,2E0,9E0,1E0,2E0,2E0,4E0,4E0,4.5E1,4E0,4.7E1,1.88E2],"tree_param":{"num_deleted":"0","num_feature":"60","num_nodes":"49","size_leaf_vector":"0"}},{"base_weights":[-8.263248E-6,7.697107E-4,-3.856006E-3,-1.1321228E-3,7.435408E-3,-4.410553E-2,-2.329579E-3,-4.0890163E-4,-2.4188114E-2,6.8315886E-2,4.7927145E-3,-7.4443817E-3,-5.3844452E-2,-9.725122E-3,1.054128E-3,6.0232874E-4,-1.1788088E-2,6.8998337E-3,-3.4204483E-2,-5.5656433E-3,8.817768E-2,-1.2809753E-2,8.515767E-3,-1.6571045E-3,-1.52898785E-2,2.6789347E-2,-1.1668069E-3,-2.3527322E-5,4.7921754E-2,-3.2841717E-3,-3.9015293E-2,1.602745E-2,-1.4851888E-3,-4.7410328E-2,-1.1516571E-2,-3.3211177E-3,-5.2306175E-2,3.477173E-2,5.469976E-3,-2.6542664E-2,2.01634E-3,-2.1390915E-3,-1.7484777E-2,3.3823967E-2,8.480072E-3,2.3262024E-2,-2.2273904E-3,-8.9767855E-4,2.2830963E-2,6.047058E-2,1.9399008E-2,-1.7828427E-2,9.539795E-3,-4.7641754E-2,1.0684967E-2,-2.7236938E-3,4.9591064E-4,-1.5084267E-2,1.3771057E-3,5.005155E-3,-2.5970459E-2,4.5037586E-2,1.5498352E-2,-3.4495763E-2,8.774677E-3,7.42658E-3,-1.8145243E-3,8.799235E-4,-5.5980682E-3,3.753662E-3,-1.9046783E-2,-4.440954E-3,1.10553745E-2],"categories":[],"categories_nodes":[],"categories_segments":[],"categories_sizes":[],"default_left":[1,1,1,1,1,1,1,1,1,1,1,0,0,1,1,1,1,1,1,0,0,1,1,1,1,1,1,1,1,1,1,0,1,0,1,1,0,1,1,0,1,1,1,0,0,0,1,0,0,0,0,0,0,0,0,0,0,0,0,0,0,0,0,0,0,0,0,0,0,0,0,0,0],"id":68,"left_children":[1,3,5,7,9,11,13,15,17,19,21,-1,-1,23,25,27,29,31,33,-1,-1,35,37,39,41,43,45,47,49,51,53,-1,55,-1,57,59,-1,61,63,-1,65,67,69,-1,-1,-1,71,-1,-1,-1,-1,-1,-1,-1,-1,-1,-1,-1,-1,-1,-1,-1,-1,-1,-1,-1,-1,-1,-1,-1,-1,-1,-1],"loss_changes":[1.9756474E-3,6.9681164E-3,6.716865E-3,7.1268305E-3,1.930097E-2,1.0273214E-3,2.7128814E-3,4.7940034E-3,4.2840545E-3,7.827865E-3,7.842204E-3,0E0,0E0,1.5011462E-3,4.3179765E-3,1.1343729E-2,7.7441544E-3,3.2994486E-4,2.4501253E-3,0E0,0E0,7.6963957E-3,7.646876E-3,1.4247549E-3,5.3989096E-4,4.859632E-4,1.8654309E-3,7.5922627E-3,6.165663E-4,5.205986E-3,3.9389497E-3,0E0,8.711513E-6,0E0,2.5077624E-4,3.524509E-3,0E0,1.2805685E-3,1.2057349E-2,0E0,3.0363823E-4,4.6696685E-5,6.354628E-4,0E0,0E0,0E0,2.0484491E-3,0E0,0E0,0E0,0E0,0E0,0E0,0E0,0E0,0E0,0E0,0E0,0E0,0E0,0E0,0E0,0E0,0E0,0E0,0E0,0E0,0E0,0E0,0E0,0E0,0E0,0E0],"parents":[2147483647,0,0,1,1,2,2,3,3,4,4,5,5,6,6,7,7,8,8,9,9,10,10,13,13,14,14,15,15,16,16,17,17,18,18,21,21,22,22,23,23,24,24,25,25,26,26,27,27,28,28,29,29,30,30,32,32,34,34,35,35,37,37,38,38,40,40,41,41,42,42,46,46],"right_children":[2,4,6,8,10,12,14,16,18,20,22,-1,-1,24,26,28,30,32,34,-1,-1,36,38,40,42,44,46,48,50,52,54,-1,56,-1,58,60,-1,62,64,-1,66,68,70,-1,-1,-1,72,-1,-1,-1,-1,-1,-1,-1,-1,-1,-1,-1,-1,-1,-1,-1,-1,-1,-1,-1,-1,-1,-1,-1,-1,-1,-1],"split_conditions":[4.4815E1,4.068E1,4.3940002E1,4.0675E1,3.796E1,4.5855E1,4.6045E1,4.0965E1,4.061E1,3.905E1,3.8895E1,-2.2333146E-3,-1.6153336E-2,4.5739998E1,4.6285E1,4.1135002E1,3.8410004E1,3.7864998E1,4.108E1,-1.669693E-3,2.6453305E-2,4.184E1,3.9300003E1,4.2325E1,4.4485E1,4.6595E1,4.577E1,4.03E1,3.928E1,3.7559998E1,4.2625E1,4.8082354E-3,3.98E1,-1.4223099E-2,4.511E1,4.1989998E1,-1.5691854E-2,3.9195E1,4.025E1,-7.9628E-3,4.1050003E1,4.4809998E1,3.8915E1,1.0147191E-2,2.5440217E-3,6.9786073E-3,5.261E1,-2.6930356E-4,6.8492894E-3,1.8141175E-2,5.8197025E-3,-5.3485283E-3,2.8619387E-3,-1.4292527E-2,3.2054903E-3,-8.171082E-4,1.487732E-4,-4.52528E-3,4.1313173E-4,1.5015466E-3,-7.791138E-3,1.3511277E-2,4.649506E-3,-1.034873E-2,2.6324033E-3,2.2279741E-3,-5.443573E-4,2.6397707E-4,-1.6794206E-3,1.1260987E-3,-5.714035E-3,-1.3322863E-3,3.3166124E-3],"split_indices":[18,20,22,19,44,0,23,52,13,0,58,0,0,11,22,54,11,0,19,0,0,2,59,8,4,7,18,51,37,14,0,0,0,0,0,10,0,38,29,0,52,0,51,0,0,0,21,0,0,0,0,0,0,0,0,0,0,0,0,0,0,0,0,0,0,0,0,0,0,0,0,0,0],"split_type":[0,0,0,0,0,0,0,0,0,0,0,0,0,0,0,0,0,0,0,0,0,0,0,0,0,0,0,0,0,0,0,0,0,0,0,0,0,0,0,0,0,0,0,0,0,0,0,0,0,0,0,0,0,0,0,0,0,0,0,0,0,0,0,0,0,0,0,0,0,0,0,0,0],"sum_hessian":[6.58E2,5.48E2,1.1E2,4.27E2,1.21E2,3E0,1.07E2,4.15E2,1.2E1,4E0,1.17E2,1E0,2E0,3.3E1,7.4E1,3.82E2,3.3E1,3E0,9E0,1E0,3E0,2E1,9.7E1,1.4E1,1.9E1,5E0,6.9E1,3.78E2,4E0,2.6E1,7E0,1E0,2E0,5E0,4E0,1.7E1,3E0,9E0,8.8E1,1E0,1.3E1,3E0,1.6E1,3E0,2E0,2E0,6.7E1,3.65E2,1.3E1,2E0,2E0,1.2E1,1.4E1,6E0,1E0,1E0,1E0,3E0,1E0,1.3E1,4E0,5E0,4E0,6E0,8.2E1,5E0,8E0,2E0,1E0,1E0,1.5E1,5.8E1,9E0],"tree_param":{"num_deleted":"0","num_feature":"60","num_nodes":"73","size_leaf_vector":"0"}},{"base_weights":[5.290794E-6,3.934698E-3,-7.4655487E-4,-7.010712E-4,2.390356E-2,-2.0681927E-2,3.1404657E-4,-1.8703106E-3,4.9926758E-2,-2.6727405E-3,3.5484314E-2,3.263712E-3,-2.881922E-2,1.0312633E-2,-4.6199487E-4,7.4700307E-4,-1.978354E-2,7.718563E-3,-1.2395859E-2,5.030632E-4,4.497892E-2,-1.1005402E-2,1.402626E-2,-3.963048E-2,-6.2971115E-3,-1.9688925E-3,5.01052E-2,-5.0745964E-2,-4.8036203E-5,-1.0251363E-4,3.2230377E-2,1.06338505E-2,-3.868403E-2,9.812673E-3,7.1811676E-4,-2.9468536E-3,-1.4563243E-2,4.600525E-3,-2.3962657E-3,4.9318887E-2,7.8964233E-4,7.946014E-3,1.9173622E-2,-1.1494955E-3,-4.594819E-2,6.9146156E-3,-1.5607071E-2,1.4266287E-2,-1.5223223E-2,6.722968E-2,-6.55365E-3,-1.2716929E-2,-8.2416534E-2,-2.517128E-2,3.176826E-4,1.1529105E-3,-1.4732043E-2,1.7654419E-2,6.866455E-5,-4.894943E-2,-8.680344E-3,-3.4046173E-4,-3.2539368E-3,2.1181742E-2,5.3705454E-2,2.3536682E-3,-4.0779114E-3,-4.9158443E-2,-5.317688E-3,9.4795227E-4,1.2407303E-2,-1.8688679E-2,-1.6403198E-3,2.6683806E-4,3.9411925E-2,-2.693955E-2,1.0746638E-2,3.923416E-3,7.712682E-2,2.6454926E-3,-1.2475967E-2,-1.1463165E-3,-1.7929077E-2,-3.4117699E-3,-4.063797E-2,1.559581E-2,-4.4858013E-4],"categories":[],"categories_nodes":[],"categories_segments":[],"categories_sizes":[],"default_left":[1,1,1,1,1,1,1,1,0,1,1,1,1,1,1,1,1,1,1,1,1,0,1,1,1,1,1,1,1,1,0,1,1,0,0,0,0,0,1,1,0,0,0,1,1,1,1,1,1,1,1,1,0,1,1,0,0,0,0,0,0,0,0,0,0,0,0,0,0,0,0,0,0,0,0,0,0,0,0,0,0,0,0,0,0,0,0],"id":69,"left_children":[1,3,5,7,9,11,13,15,-1,17,19,21,23,25,27,29,31,33,35,37,39,-1,41,43,45,47,49,51,53,55,-1,57,59,-1,-1,-1,-1,-1,61,63,-1,-1,-1,65,67,69,71,73,75,77,79,81,-1,83,85,-1,-1,-1,-1,-1,-1,-1,-1,-1,-1,-1,-1,-1,-1,-1,-1,-1,-1,-1,-1,-1,-1,-1,-1,-1,-1,-1,-1,-1,-1,-1,-1],"loss_changes":[1.9498265E-3,9.829289E-3,1.1719984E-2,5.243435E-3,6.2503116E-3,5.549933E-3,4.093924E-3,4.046849E-3,0E0,8.029293E-4,4.627237E-3,1.3829408E-3,4.8637837E-3,1.8669762E-2,1.019715E-2,2.0359736E-3,6.735299E-3,5.1592157E-5,3.900274E-5,5.8543636E-5,2.0706356E-3,0E0,4.1322783E-6,3.350744E-3,1.0919222E-3,6.6727716E-3,9.172879E-3,3.7695197E-3,4.4825734E-3,1.3944545E-3,0E0,3.6965584E-4,1.7311014E-3,0E0,0E0,0E0,0E0,0E0,4.1817693E-6,9.66806E-5,0E0,0E0,0E0,4.0374212E-5,1.3038013E-3,1.1933051E-4,1.8454483E-4,4.917835E-3,5.4621235E-3,4.083257E-3,1.9644579E-4,1.6037084E-4,0E0,2.2171857E-3,5.6380914E-3,0E0,0E0,0E0,0E0,0E0,0E0,0E0,0E0,0E0,0E0,0E0,0E0,0E0,0E0,0E0,0E0,0E0,0E0,0E0,0E0,0E0,0E0,0E0,0E0,0E0,0E0,0E0,0E0,0E0,0E0,0E0,0E0],"parents":[2147483647,0,0,1,1,2,2,3,3,4,4,5,5,6,6,7,7,9,9,10,10,11,11,12,12,13,13,14,14,15,15,16,16,17,17,18,18,19,19,20,20,22,22,23,23,24,24,25,25,26,26,27,27,28,28,29,29,31,31,32,32,38,38,39,39,43,43,44,44,45,45,46,46,47,47,48,48,49,49,50,50,51,51,53,53,54,54],"right_children":[2,4,6,8,10,12,14,16,-1,18,20,22,24,26,28,30,32,34,36,38,40,-1,42,44,46,48,50,52,54,56,-1,58,60,-1,-1,-1,-1,-1,62,64,-1,-1,-1,66,68,70,72,74,76,78,80,82,-1,84,86,-1,-1,-1,-1,-1,-1,-1,-1,-1,-1,-1,-1,-1,-1,-1,-1,-1,-1,-1,-1,-1,-1,-1,-1,-1,-1,-1,-1,-1,-1,-1,-1],"split_conditions":[3.1810001E1,3.1349998E1,3.2605E1,3.632E1,3.0175E1,2.9805E1,3.447E1,3.1619999E1,1.4978028E-2,3.1635E1,2.857E1,2.8259998E1,3.39E1,3.516E1,3.454E1,3.1955002E1,2.956E1,3.0380001E1,2.9905E1,3.412E1,3.4975E1,-3.3016207E-3,3.31E1,3.0455E1,3.2955E1,3.1885E1,3.6870003E1,3.632E1,3.4225E1,3.168E1,9.669114E-3,3.3655E1,3.1875E1,2.943802E-3,2.1543504E-4,-8.8405615E-4,-4.368973E-3,1.3801575E-3,3.4495E1,3.095E1,2.3689271E-4,2.3838044E-3,5.7520866E-3,3.161E1,3.4230003E1,3.2435E1,3.3905E1,3.055E1,3.7275E1,3.2315002E1,3.5705E1,3.5215E1,-2.4724962E-2,3.4015E1,3.51E1,3.4587318E-4,-4.419613E-3,5.296326E-3,2.0599366E-5,-1.468483E-2,-2.6041032E-3,-1.02138525E-4,-9.7618107E-4,6.354523E-3,1.6111637E-2,7.061005E-4,-1.2233735E-3,-1.4747533E-2,-1.5953064E-3,2.843857E-4,3.722191E-3,-5.606604E-3,-4.9209595E-4,8.0051424E-5,1.1823578E-2,-8.0818655E-3,3.2239917E-3,1.1770249E-3,2.3138048E-2,7.936478E-4,-3.7427903E-3,-3.4389496E-4,-5.378723E-3,-1.023531E-3,-1.2191392E-2,4.678743E-3,-1.3457405E-4],"split_indices":[11,10,16,42,3,20,7,4,0,10,54,37,9,26,7,8,50,4,0,0,1,0,1,26,2,27,19,0,12,0,0,0,5,0,0,0,0,0,0,13,0,0,0,0,3,0,2,37,50,4,0,0,0,12,0,0,0,0,0,0,0,0,0,0,0,0,0,0,0,0,0,0,0,0,0,0,0,0,0,0,0,0,0,0,0,0,0],"split_type":[0,0,0,0,0,0,0,0,0,0,0,0,0,0,0,0,0,0,0,0,0,0,0,0,0,0,0,0,0,0,0,0,0,0,0,0,0,0,0,0,0,0,0,0,0,0,0,0,0,0,0,0,0,0,0,0,0,0,0,0,0,0,0,0,0,0,0,0,0,0,0,0,0,0,0,0,0,0,0,0,0,0,0,0,0,0,0],"sum_hessian":[6.58E2,1.05E2,5.53E2,8.6E1,1.9E1,2.7E1,5.26E2,8.5E1,1E0,6E0,1.3E1,7E0,2E1,3.7E1,4.89E2,7.5E1,1E1,3E0,3E0,3E0,1E1,3E0,4E0,1.3E1,7E0,2.9E1,8E0,3E0,4.86E2,7.4E1,1E0,4E0,6E0,2E0,1E0,1E0,2E0,1E0,2E0,9E0,1E0,3E0,1E0,2E0,1.1E1,3E0,4E0,1.3E1,1.6E1,6E0,2E0,2E0,1E0,6E0,4.8E2,6.9E1,5E0,2E0,2E0,4E0,2E0,1E0,1E0,2E0,7E0,1E0,1E0,1E1,1E0,2E0,1E0,3E0,1E0,9E0,4E0,1.1E1,5E0,1E0,5E0,1E0,1E0,1E0,1E0,3E0,3E0,2.2E1,4.58E2],"tree_param":{"num_deleted":"0","num_feature":"60","num_nodes":"87","size_leaf_vector":"0"}},{"base_weights":[1.0069296E-5,4.7815376E-4,-5.3510126E-3,3.0064542E-4,3.6116283E-2,-2.1085024E-2,1.4146504E-3,-3.6369523E-4,5.147124E-3,6.799698E-3,4.7374725E-2,-2.692E-2,-2.8640747E-3,1.9043662E-2,-5.561556E-3,4.509828E-5,-2.7196407E-2,3.5830908E-2,1.8645329E-3,-1.1142731E-2,-3.094101E-2,5.9375763E-3,-6.5488815E-3,4.6628952E-2,1.1622238E-2,-2.5501728E-2,2.2995358E-3,2.5585093E-4,-2.7522087E-2,-3.8527805E-2,4.5318604E-3,1.417923E-2,4.8524857E-2,-8.671153E-3,3.8650245E-3,-4.0587425E-2,-1.9353231E-2,-1.3465881E-3,-7.834117E-3,9.937286E-4,1.6035352E-2,-4.7044754E-2,-1.5703473E-2,1.1999448E-2,-9.570313E-3,-4.3898646E-5,1.737976E-2,-8.756638E-3,-4.273071E-2,-1.7040888E-2,1.1437734E-3,2.1256039E-2,1.4022378E-3,-3.8032532E-3,3.8604736E-3,-1.7308554E-2,-3.036499E-3,5.9407554E-3,2.2631645E-2,5.938212E-4,-1.985321E-2],"categories":[],"categories_nodes":[],"categories_segments":[],"categories_sizes":[],"default_left":[1,1,1,1,1,1,1,1,1,0,0,1,1,1,1,1,1,1,1,0,1,0,1,0,1,1,1,1,0,1,0,0,0,1,1,0,0,0,0,1,0,0,1,1,1,0,0,0,0,0,0,0,0,0,0,0,0,0,0,0,0],"id":70,"left_children":[1,3,5,7,9,11,13,15,17,-1,-1,19,21,23,25,27,29,31,33,-1,35,-1,37,-1,39,41,43,45,-1,47,-1,-1,-1,49,51,-1,-1,-1,-1,53,-1,-1,55,57,59,-1,-1,-1,-1,-1,-1,-1,-1,-1,-1,-1,-1,-1,-1,-1,-1],"loss_changes":[1.6562791E-3,3.8290631E-3,5.671732E-3,1.9497982E-3,6.6804374E-4,1.6240003E-3,4.77929E-3,5.847724E-3,7.285921E-3,0E0,0E0,4.1651912E-4,2.010464E-4,1.7100107E-3,4.447685E-3,3.0630266E-3,3.0508083E-3,1.2358725E-3,1.4456433E-3,0E0,2.2052694E-4,0E0,1.619535E-5,0E0,4.5311346E-4,9.499062E-4,2.532705E-3,2.685262E-3,0E0,3.765747E-4,0E0,0E0,0E0,9.231227E-4,2.4115245E-3,0E0,0E0,0E0,0E0,6.968925E-5,0E0,0E0,8.976308E-5,6.385576E-4,1.0569567E-3,0E0,0E0,0E0,0E0,0E0,0E0,0E0,0E0,0E0,0E0,0E0,0E0,0E0,0E0,0E0,0E0],"parents":[2147483647,0,0,1,1,2,2,3,3,4,4,5,5,6,6,7,7,8,8,11,11,12,12,13,13,14,14,15,15,16,16,17,17,18,18,20,20,22,22,24,24,25,25,26,26,27,27,29,29,33,33,34,34,39,39,42,42,43,43,44,44],"right_children":[2,4,6,8,10,12,14,16,18,-1,-1,20,22,24,26,28,30,32,34,-1,36,-1,38,-1,40,42,44,46,-1,48,-1,-1,-1,50,52,-1,-1,-1,-1,54,-1,-1,56,58,60,-1,-1,-1,-1,-1,-1,-1,-1,-1,-1,-1,-1,-1,-1,-1,-1],"split_conditions":[4.597E1,4.5945E1,4.7045E1,4.2949997E1,4.1245003E1,4.6845E1,4.946E1,4.3055E1,4.3245E1,2.0399094E-3,1.4212418E-2,4.1574997E1,4.236E1,4.2445E1,4.858E1,4.564E1,4.1675E1,4.0795E1,4.4E1,-3.3428194E-3,4.296E1,1.7812729E-3,4.3195E1,1.3988686E-2,4.4075E1,4.9489998E1,4.9655E1,4.2754997E1,-8.256626E-3,3.705E1,1.3595582E-3,4.2537693E-3,1.45574575E-2,4.1925E1,4.408E1,-1.2176228E-2,-5.8059697E-3,-4.0397645E-4,-2.3502351E-3,4.296E1,4.8106057E-3,-1.4113427E-2,5.3934998E1,4.978E1,4.9545E1,-1.3169594E-5,5.2139284E-3,-2.6269914E-3,-1.2819214E-2,-5.1122666E-3,3.4313204E-4,6.376812E-3,4.2067136E-4,-1.140976E-3,1.1581421E-3,-5.192566E-3,-9.109497E-4,1.7822267E-3,6.789494E-3,1.7814638E-4,-5.9559634E-3],"split_indices":[58,58,55,43,0,47,14,46,43,0,0,0,0,0,55,27,10,9,43,0,9,0,0,0,0,5,53,47,0,3,0,0,0,59,41,0,0,0,0,0,0,0,8,41,47,0,0,0,0,0,0,0,0,0,0,0,0,0,0,0,0],"split_type":[0,0,0,0,0,0,0,0,0,0,0,0,0,0,0,0,0,0,0,0,0,0,0,0,0,0,0,0,0,0,0,0,0,0,0,0,0,0,0,0,0,0,0,0,0,0,0,0,0,0,0,0,0,0,0,0,0,0,0,0,0],"sum_hessian":[6.58E2,6.06E2,5.2E1,6.04E2,2E0,1.5E1,3.7E1,5.32E2,7.2E1,1E0,1E0,1.1E1,4E0,1E1,2.7E1,5.25E2,7E0,6E0,6.6E1,3E0,8E0,1E0,3E0,1E0,9E0,7E0,2E1,5.22E2,3E0,5E0,2E0,3E0,3E0,1E1,5.6E1,3E0,5E0,1E0,2E0,3E0,6E0,1E0,6E0,1.1E1,9E0,5.14E2,8E0,1E0,4E0,5E0,5E0,6E0,5E1,1E0,2E0,5E0,1E0,8E0,3E0,5E0,4E0],"tree_param":{"num_deleted":"0","num_feature":"60","num_nodes":"61","size_leaf_vector":"0"}},{"base_weights":[4.613526E-6,1.6116318E-3,-1.4987397E-3,8.2600914E-4,5.0783537E-2,-1.6907085E-2,1.51662E-4,4.1186583E-4,6.54335E-2,6.1317444E-2,4.3239594E-3,4.1455586E-2,-2.2009695E-2,2.155195E-2,-8.610262E-4,-5.7603215E-4,1.57806E-2,-3.5255812E-2,1.9013087E-3,-8.792877E-4,3.4111448E-2,3.2131195E-2,-1.5383193E-3,5.726344E-4,-2.5625668E-2,-1.9039154E-2,1.877276E-2,-2.0110607E-2,-7.666931E-2,-8.38089E-3,2.4560928E-2,1.7131805E-2,-7.907867E-3,3.8757868E-2,1.1899312E-2,5.1069897E-2,9.894371E-3,-2.0713594E-2,-2.7301538E-4,-6.069791E-4,3.6683824E-2,-3.5006333E-2,4.2324066E-3,2.2772074E-2,-8.814494E-3,-3.2520294E-2,-1.151345E-2,9.478569E-3,-1.889038E-2,1.8558502E-3,1.5993118E-2,1.2363434E-2,1.2435913E-3,-6.608454E-2,-1.09119415E-2,2.6435217E-2,-8.677231E-4],"categories":[],"categories_nodes":[],"categories_segments":[],"categories_sizes":[],"default_left":[1,1,1,1,1,1,1,1,0,0,0,0,1,1,1,1,1,1,1,1,1,1,1,1,1,0,1,1,0,1,0,0,0,0,1,0,1,1,1,0,0,0,0,0,0,0,0,0,0,0,0,0,0,0,0,0,0],"id":71,"left_children":[1,3,5,7,9,11,13,15,-1,-1,-1,-1,17,19,21,23,25,27,29,31,33,35,37,39,41,-1,43,45,-1,47,-1,-1,-1,-1,49,-1,51,53,55,-1,-1,-1,-1,-1,-1,-1,-1,-1,-1,-1,-1,-1,-1,-1,-1,-1,-1],"loss_changes":[1.5945043E-3,1.2281204E-2,8.674181E-3,8.40143E-3,2.18187E-3,1.0739891E-2,6.715148E-3,4.776471E-3,0E0,0E0,0E0,0E0,9.885598E-3,3.974145E-3,6.663668E-3,8.531684E-3,2.3369575E-3,1.1002455E-2,3.0017311E-3,8.9503045E-4,4.6767108E-4,2.0215143E-3,7.054747E-3,1.2119885E-2,3.7893122E-3,0E0,2.1866653E-3,1.332588E-3,0E0,1.8682983E-3,0E0,0E0,0E0,0E0,9.36671E-5,0E0,7.006223E-5,7.283674E-3,4.3750424E-3,0E0,0E0,0E0,0E0,0E0,0E0,0E0,0E0,0E0,0E0,0E0,0E0,0E0,0E0,0E0,0E0,0E0,0E0],"parents":[2147483647,0,0,1,1,2,2,3,3,4,4,5,5,6,6,7,7,12,12,13,13,14,14,15,15,16,16,17,17,18,18,19,19,20,20,21,21,22,22,23,23,24,24,26,26,27,27,29,29,34,34,36,36,37,37,38,38],"right_children":[2,4,6,8,10,12,14,16,-1,-1,-1,-1,18,20,22,24,26,28,30,32,34,36,38,40,42,-1,44,46,-1,48,-1,-1,-1,-1,50,-1,52,54,56,-1,-1,-1,-1,-1,-1,-1,-1,-1,-1,-1,-1,-1,-1,-1,-1,-1,-1],"split_conditions":[3.8315002E1,3.85E1,3.9059998E1,4.1295E1,4.2135002E1,3.7730003E1,3.8985E1,3.8114998E1,1.9630052E-2,1.8395234E-2,1.2971879E-3,1.2436676E-2,3.9285004E1,3.8635002E1,3.858E1,3.7695E1,3.3955E1,3.908E1,3.9765E1,3.696E1,4.279E1,3.952E1,3.94E1,3.7730003E1,4.0285E1,-5.7117464E-3,4.115E1,3.7825E1,-2.3000795E-2,3.943E1,7.3682787E-3,5.139542E-3,-2.3723603E-3,1.1627361E-2,4.3025E1,1.532097E-2,4.5965E1,3.799E1,3.9510002E1,-1.8209375E-4,1.1005147E-2,-1.0501901E-2,1.269722E-3,6.831622E-3,-2.6443484E-3,-9.756088E-3,-3.4540351E-3,2.843571E-3,-5.6671146E-3,5.567551E-4,4.7979355E-3,3.7090303E-3,3.730774E-4,-1.9825364E-2,-3.2735826E-3,7.930566E-3,-2.6031694E-4],"split_indices":[54,53,55,16,3,50,53,49,0,0,0,0,52,38,58,51,0,51,54,34,23,17,53,57,21,0,13,42,0,53,0,0,0,0,0,0,0,17,53,0,0,0,0,0,0,0,0,0,0,0,0,0,0,0,0,0,0],"split_type":[0,0,0,0,0,0,0,0,0,0,0,0,0,0,0,0,0,0,0,0,0,0,0,0,0,0,0,0,0,0,0,0,0,0,0,0,0,0,0,0,0,0,0,0,0,0,0,0,0,0,0,0,0,0,0,0,0],"sum_hessian":[6.58E2,3.18E2,3.4E2,3.14E2,4E0,3.2E1,3.08E2,3.13E2,1E0,3E0,1E0,2E0,3E1,1.3E1,2.95E2,2.95E2,1.8E1,1.9E1,1.1E1,5E0,8E0,5E0,2.9E2,2.83E2,1.2E1,1E0,1.7E1,1.5E1,4E0,8E0,3E0,1E0,4E0,6E0,2E0,2E0,3E0,1.7E1,2.73E2,2.75E2,8E0,9E0,3E0,1.5E1,2E0,5E0,1E1,3E0,5E0,1E0,1E0,2E0,1E0,2E0,1.5E1,5E0,2.68E2],"tree_param":{"num_deleted":"0","num_feature":"60","num_nodes":"57","size_leaf_vector":"0"}},{"base_weights":[6.9512585E-5,8.264542E-3,-2.1318358E-4,3.1956672E-3,3.930219E-2,-1.105217E-2,2.2849042E-4,9.4890594E-5,1.2479019E-2,-6.460103E-3,-3.3545494E-2,5.3760572E-3,-6.314989E-4,-6.68478E-3,2.1736438E-3,1.4419079E-2,2.3593903E-3,-1.0177612E-3,-1.5856981E-2,2.361414E-3,3.9922442E-2,-4.218197E-2,-1.5269751E-4,-1.540184E-3,-7.8862505E-3,7.086436E-3,6.3618744E-4,-7.3344707E-3,5.4261684E-3,-1.9901004E-2,6.225586E-3,3.793444E-3,-1.6409874E-2,5.05387E-2,-1.188755E-2,-5.43293E-2,9.277344E-3,2.0741599E-2,-7.270933E-4,1.7325083E-3,-2.8648376E-3,1.1978149E-3,-8.7244855E-3,1.4269352E-2,-2.733612E-3,-6.422043E-3,-2.400818E-2,6.905496E-4,1.7707143E-2,-2.8038025E-3,-1.8570328E-2,2.2767385E-2,5.873251E-2,3.089057E-3,4.3763477E-2,-1.1359752E-2,5.597712E-4],"categories":[],"categories_nodes":[],"categories_segments":[],"categories_sizes":[],"default_left":[1,1,1,1,0,1,1,1,1,1,0,1,1,1,1,0,0,1,1,1,1,1,1,0,0,0,1,1,1,1,0,1,1,1,0,0,0,1,1,0,0,0,0,0,0,0,0,0,0,0,0,0,0,0,0,0,0],"id":72,"left_children":[1,3,5,7,-1,9,11,13,15,17,-1,19,21,23,25,-1,-1,27,29,31,33,35,37,-1,-1,-1,39,41,43,45,-1,47,49,51,-1,-1,-1,53,55,-1,-1,-1,-1,-1,-1,-1,-1,-1,-1,-1,-1,-1,-1,-1,-1,-1,-1],"loss_changes":[1.5284693E-3,3.3355737E-3,3.0568216E-3,5.745279E-4,0E0,2.3655638E-3,2.7214822E-3,2.4002255E-4,6.4143154E-5,1.1089637E-3,0E0,9.070489E-3,1.0477919E-2,1.2578035E-5,9.3683346E-5,0E0,0E0,6.503646E-4,8.383144E-4,2.266496E-3,4.4509787E-3,4.2545917E-3,6.2799137E-3,0E0,0E0,0E0,4.7184072E-5,1.0533034E-4,6.162743E-4,2.333417E-4,0E0,3.3120732E-3,1.243042E-4,2.8132461E-5,0E0,0E0,0E0,5.5543375E-3,6.9708996E-3,0E0,0E0,0E0,0E0,0E0,0E0,0E0,0E0,0E0,0E0,0E0,0E0,0E0,0E0,0E0,0E0,0E0,0E0],"parents":[2147483647,0,0,1,1,2,2,3,3,5,5,6,6,7,7,8,8,9,9,11,11,12,12,13,13,14,14,17,17,18,18,19,19,20,20,21,21,22,22,26,26,27,27,28,28,29,29,31,31,32,32,33,33,37,37,38,38],"right_children":[2,4,6,8,-1,10,12,14,16,18,-1,20,22,24,26,-1,-1,28,30,32,34,36,38,-1,-1,-1,40,42,44,46,-1,48,50,52,-1,-1,-1,54,56,-1,-1,-1,-1,-1,-1,-1,-1,-1,-1,-1,-1,-1,-1,-1,-1,-1,-1],"split_conditions":[2.8310001E1,3.028E1,2.9305E1,2.834E1,1.1790657E-2,3.35E1,3.1985E1,2.839E1,2.9145E1,3.0395E1,-1.0063648E-2,3.87E1,3.2055E1,2.6595E1,2.7325E1,4.3257237E-3,7.078171E-4,3.1555E1,3.1994999E1,3.7475E1,4.064E1,3.3184998E1,3.174E1,-4.6205524E-4,-2.3658753E-3,2.1259307E-3,3.0795E1,2.6965E1,3.204E1,2.8810001E1,1.8676758E-3,3.1635E1,3.7325E1,3.4095E1,-3.5662653E-3,-1.629879E-2,2.7832033E-3,3.1785E1,3.4510002E1,5.197525E-4,-8.594513E-4,3.593445E-4,-2.6173457E-3,4.2808056E-3,-8.200836E-4,-1.9266129E-3,-7.202454E-3,2.0716489E-4,5.312143E-3,-8.411408E-4,-5.5710985E-3,6.830216E-3,1.7619753E-2,9.267171E-4,1.3129043E-2,-3.4079258E-3,1.6793137E-4],"split_indices":[2,9,1,1,0,23,59,32,0,5,0,7,59,1,12,0,0,46,4,14,0,48,47,0,0,0,31,7,29,1,0,48,1,44,0,0,0,44,48,0,0,0,0,0,0,0,0,0,0,0,0,0,0,0,0,0,0],"split_type":[0,0,0,0,0,0,0,0,0,0,0,0,0,0,0,0,0,0,0,0,0,0,0,0,0,0,0,0,0,0,0,0,0,0,0,0,0,0,0,0,0,0,0,0,0,0,0,0,0,0,0,0,0,0,0,0,0],"sum_hessian":[6.58E2,2.1E1,6.37E2,1.9E1,2E0,2.4E1,6.13E2,1.5E1,4E0,2.1E1,3E0,8.7E1,5.26E2,3E0,1.2E1,3E0,1E0,1.4E1,7E0,8.1E1,6E0,5E0,5.21E2,1E0,2E0,2E0,1E1,7E0,7E0,6E0,1E0,7.6E1,5E0,5E0,1E0,4E0,1E0,1.3E1,5.08E2,8E0,2E0,1E0,6E0,3E0,4E0,2E0,4E0,6.3E1,1.3E1,1E0,4E0,2E0,3E0,8E0,5E0,5.4E1,4.54E2],"tree_param":{"num_deleted":"0","num_feature":"60","num_nodes":"57","size_leaf_vector":"0"}},{"base_weights":[7.4244774E-5,2.611119E-3,-9.139573E-4,1.0892665E-3,4.1154046E-2,-1.5924824E-2,3.1628174E-4,1.9340627E-3,-1.5082889E-2,1.8435478E-2,5.35841E-2,-7.2395205E-3,-6.83258E-2,1.1901061E-2,-1.0994578E-3,5.903477E-4,2.9238462E-2,-2.0644188E-2,1.4703751E-2,-2.9447556E-2,-3.0152458E-3,-7.9390526E-2,-1.20334625E-2,-7.448611E-3,2.8560344E-2,-2.6916504E-2,-3.7642383E-6,-2.016925E-3,9.916676E-3,-2.1387737E-3,4.0054005E-2,-4.2152405E-4,-2.3472922E-2,-3.3678055E-2,-6.2627792E-3,-5.5163456E-3,1.9666037E-2,5.152534E-3,-3.6987305E-2,7.2491966E-2,1.46484375E-2,-4.688263E-2,-1.0900497E-3,-2.5908334E-2,4.8369745E-4,-1.584212E-4,-2.411728E-2,1.6560592E-2,-4.7512054E-3,1.7967224E-3,-5.004883E-3,-1.0482152E-2,-2.65728E-2,-1.4756855E-3,-1.442337E-2,2.3950577E-2,5.548477E-3,3.6640167E-2,8.945465E-4,-1.08680725E-2,-3.9529163E-2,1.9008636E-2,7.9386905E-2,1.2750626E-3,2.9231643E-2,-1.3693238E-2,-7.06955E-2,6.793213E-3,-1.0671616E-2,5.9833527E-3,-3.222084E-2,4.9330395E-2,-3.162041E-4],"categories":[],"categories_nodes":[],"categories_segments":[],"categories_sizes":[],"default_left":[1,1,1,1,1,1,1,1,1,0,0,1,1,1,1,1,1,1,0,1,1,0,0,1,1,1,1,1,1,1,0,0,1,0,0,1,1,1,1,1,1,1,1,1,1,0,0,0,0,0,0,0,0,0,0,0,0,0,0,0,0,0,0,0,0,0,0,0,0,0,0,0,0],"id":73,"left_children":[1,3,5,7,9,11,13,15,17,-1,-1,19,21,23,25,27,29,31,-1,33,35,-1,-1,37,39,41,43,45,47,49,-1,-1,51,-1,-1,53,55,57,59,61,63,65,67,69,71,-1,-1,-1,-1,-1,-1,-1,-1,-1,-1,-1,-1,-1,-1,-1,-1,-1,-1,-1,-1,-1,-1,-1,-1,-1,-1,-1,-1],"loss_changes":[1.6544628E-3,1.0806652E-2,8.776841E-3,2.4747006E-3,9.889025E-4,1.5889619E-2,7.229538E-3,6.256615E-3,1.7944186E-3,0E0,0E0,2.9132194E-3,2.158951E-3,1.5685614E-2,1.1116915E-2,4.0078717E-3,2.80056E-3,4.4774194E-4,0E0,2.7949782E-4,1.6968729E-3,0E0,0E0,8.75167E-3,1.4828596E-2,8.199362E-3,4.785721E-3,5.294673E-3,3.586961E-3,4.283107E-5,0E0,0E0,3.3483375E-6,0E0,0E0,9.144624E-4,4.8572663E-5,2.2464807E-3,3.5134144E-5,7.0354715E-4,4.0582884E-3,6.1449613E-3,6.7676656E-4,1.6020038E-3,1.4550586E-2,0E0,0E0,0E0,0E0,0E0,0E0,0E0,0E0,0E0,0E0,0E0,0E0,0E0,0E0,0E0,0E0,0E0,0E0,0E0,0E0,0E0,0E0,0E0,0E0,0E0,0E0,0E0,0E0],"parents":[2147483647,0,0,1,1,2,2,3,3,4,4,5,5,6,6,7,7,8,8,11,11,12,12,13,13,14,14,15,15,16,16,17,17,19,19,20,20,23,23,24,24,25,25,26,26,27,27,28,28,29,29,32,32,35,35,36,36,37,37,38,38,39,39,40,40,41,41,42,42,43,43,44,44],"right_children":[2,4,6,8,10,12,14,16,18,-1,-1,20,22,24,26,28,30,32,-1,34,36,-1,-1,38,40,42,44,46,48,50,-1,-1,52,-1,-1,54,56,58,60,62,64,66,68,70,72,-1,-1,-1,-1,-1,-1,-1,-1,-1,-1,-1,-1,-1,-1,-1,-1,-1,-1,-1,-1,-1,-1,-1,-1,-1,-1,-1,-1],"split_conditions":[3.391E1,3.4019997E1,3.485E1,3.45E1,3.4905E1,3.479E1,3.666E1,3.904E1,4.0260002E1,5.5306437E-3,1.6075231E-2,3.4085E1,4.0775E1,3.454E1,3.7285E1,3.2455E1,3.1805E1,3.1705E1,4.4111256E-3,4.0254997E1,3.8575E1,-2.381716E-2,-3.610039E-3,3.343E1,3.5395E1,4.009E1,3.4800003E1,3.4879997E1,3.3225E1,3.892E1,1.2016202E-2,-1.2645722E-4,3.4754997E1,-1.0103417E-2,-1.8788339E-3,3.541E1,3.7665E1,2.818E1,3.2385002E1,3.4535E1,3.867E1,3.7165E1,3.915E1,2.9215E1,3.683E1,-4.7526362E-5,-7.2351843E-3,4.9681775E-3,-1.4253617E-3,5.3901674E-4,-1.5014649E-3,-3.1446458E-3,-7.97184E-3,-4.4270567E-4,-4.3270113E-3,7.185173E-3,1.6645432E-3,1.099205E-2,2.6836398E-4,-3.2604218E-3,-1.1858749E-2,5.702591E-3,2.3816073E-2,3.8251877E-4,8.769494E-3,-4.1079717E-3,-2.120865E-2,2.037964E-3,-3.201485E-3,1.7950059E-3,-9.666253E-3,1.4799119E-2,-9.4861236E-5],"split_indices":[58,57,58,43,45,58,59,9,9,0,0,58,7,4,59,59,52,37,0,1,29,0,0,5,38,24,38,27,59,0,0,0,43,0,0,51,0,2,3,0,30,6,10,3,51,0,0,0,0,0,0,0,0,0,0,0,0,0,0,0,0,0,0,0,0,0,0,0,0,0,0,0,0],"split_type":[0,0,0,0,0,0,0,0,0,0,0,0,0,0,0,0,0,0,0,0,0,0,0,0,0,0,0,0,0,0,0,0,0,0,0,0,0,0,0,0,0,0,0,0,0,0,0,0,0,0,0,0,0,0,0,0,0,0,0,0,0,0,0,0,0,0,0,0,0,0,0,0,0],"sum_hessian":[6.58E2,1.84E2,4.74E2,1.78E2,6E0,3.5E1,4.39E2,1.7E2,8E0,3E0,3E0,3.1E1,4E0,4.7E1,3.92E2,1.63E2,7E0,7E0,1E0,4E0,2.7E1,3E0,1E0,2.2E1,2.5E1,1.5E1,3.77E2,1.28E2,3.5E1,2E0,5E0,1E0,6E0,3E0,1E0,2.5E1,2E0,1.6E1,6E0,5E0,2E1,8E0,7E0,6E0,3.71E2,1.19E2,9E0,2.4E1,1.1E1,1E0,1E0,2E0,4E0,1.8E1,7E0,1E0,1E0,1E0,1.5E1,1E0,5E0,1E0,4E0,1.1E1,9E0,4E0,4E0,4E0,3E0,1E0,5E0,5E0,3.66E2],"tree_param":{"num_deleted":"0","num_feature":"60","num_nodes":"73","size_leaf_vector":"0"}},{"base_weights":[5.5275483E-5,1.664601E-3,-1.0382237E-3,-9.7814154E-5,1.951313E-2,-2.4745941E-2,-2.9076083E-4,1.723206E-3,-1.4207227E-2,5.4416656E-2,1.1935643E-2,2.4592082E-3,-4.4529505E-2,1.8902851E-2,-9.643452E-4,2.5697856E-4,3.2048415E-2,-5.4508526E-2,-3.0761387E-3,4.5940173E-3,3.451004E-2,1.8076578E-2,-9.868622E-3,4.5015546E-3,4.1044615E-2,-3.463173E-2,-4.0826667E-4,-3.7208185E-4,3.243208E-2,-1.0389964E-2,4.3956757E-2,-7.12471E-2,-1.402092E-2,1.1535917E-2,-2.3225402E-2,-5.5221557E-3,1.6664982E-2,-8.360672E-3,1.646347E-2,3.5629272E-3,-5.461979E-2,-2.179173E-2,9.818329E-6,1.6343666E-3,-8.437738E-3,1.5277863E-3,4.2224247E-2,5.6692123E-2,3.8337708E-3,-2.5320053E-3,-1.8499374E-2,-1.8936157E-3,3.60878E-2,-3.2312393E-2,8.748372E-3,-9.012699E-3,5.6266785E-3,2.2169495E-2,5.6180954E-3,4.3233237E-4,-1.4366786E-2,1.8342018E-2,4.47464E-3,1.159668E-2,-6.252289E-3,8.909225E-3,-2.8393427E-2,1.8999418E-2,-6.4502365E-4],"categories":[],"categories_nodes":[],"categories_segments":[],"categories_sizes":[],"default_left":[1,1,1,1,1,1,1,1,1,0,1,1,0,1,1,1,1,1,1,1,0,0,0,1,0,1,1,1,1,0,1,0,1,1,1,1,1,1,1,1,0,1,1,0,0,0,0,0,0,0,0,0,0,0,0,0,0,0,0,0,0,0,0,0,0,0,0,0,0],"id":74,"left_children":[1,3,5,7,9,11,13,15,17,-1,19,21,-1,23,25,27,29,31,33,35,-1,-1,-1,37,-1,39,41,43,45,-1,47,-1,49,51,53,55,57,59,61,63,-1,65,67,-1,-1,-1,-1,-1,-1,-1,-1,-1,-1,-1,-1,-1,-1,-1,-1,-1,-1,-1,-1,-1,-1,-1,-1,-1,-1],"loss_changes":[1.1614339E-3,8.400799E-3,6.957016E-3,6.293702E-3,5.6980476E-3,6.5680854E-3,4.9569225E-3,9.640378E-3,1.239305E-2,0E0,3.3218486E-3,1.3335608E-3,0E0,3.960548E-3,6.9128927E-3,4.222004E-3,5.510415E-3,3.0672792E-3,7.0396364E-3,2.16793E-3,0E0,0E0,0E0,1.5223576E-3,0E0,4.7752294E-3,3.2633524E-3,3.3313718E-3,1.1459705E-3,0E0,3.870503E-3,0E0,1.0751723E-4,4.684421E-3,3.1881342E-3,4.3986648E-4,3.619115E-4,2.7027016E-4,3.0533993E-5,3.0906484E-4,0E0,1.6717124E-3,4.476487E-3,0E0,0E0,0E0,0E0,0E0,0E0,0E0,0E0,0E0,0E0,0E0,0E0,0E0,0E0,0E0,0E0,0E0,0E0,0E0,0E0,0E0,0E0,0E0,0E0,0E0,0E0],"parents":[2147483647,0,0,1,1,2,2,3,3,4,4,5,5,6,6,7,7,8,8,10,10,11,11,13,13,14,14,15,15,16,16,17,17,18,18,19,19,23,23,25,25,26,26,27,27,28,28,30,30,32,32,33,33,34,34,35,35,36,36,37,37,38,38,39,39,41,41,42,42],"right_children":[2,4,6,8,10,12,14,16,18,-1,20,22,-1,24,26,28,30,32,34,36,-1,-1,-1,38,-1,40,42,44,46,-1,48,-1,50,52,54,56,58,60,62,64,-1,66,68,-1,-1,-1,-1,-1,-1,-1,-1,-1,-1,-1,-1,-1,-1,-1,-1,-1,-1,-1,-1,-1,-1,-1,-1,-1,-1],"split_conditions":[3.7379997E1,3.72E1,3.7335E1,3.5300003E1,3.7325E1,3.5114998E1,3.7809998E1,3.5515E1,3.5245E1,1.6324997E-2,3.7480003E1,3.743E1,-1.3358852E-2,3.8315002E1,3.736E1,3.9145E1,3.026E1,3.8305E1,3.6125E1,3.777E1,1.0353012E-2,5.4229735E-3,-2.9605867E-3,3.971E1,1.23133855E-2,3.442E1,3.4879997E1,3.4175E1,3.772E1,-3.1169893E-3,3.8364998E1,-2.137413E-2,3.8635002E1,3.5275E1,3.796E1,3.758E1,3.7269997E1,4.0015E1,4.0785E1,3.3714996E1,-1.6385937E-2,3.8300003E1,3.8205E1,4.9031E-4,-2.5313215E-3,4.5833588E-4,1.2667275E-2,1.7007638E-2,1.1501312E-3,-7.5960165E-4,-5.5498127E-3,-5.680847E-4,1.082634E-2,-9.6937185E-3,2.6245117E-3,-2.7038099E-3,1.6880037E-3,6.650849E-3,1.6854287E-3,1.2969972E-4,-4.310036E-3,5.502606E-3,1.3423921E-3,3.4790041E-3,-1.8756867E-3,2.6727677E-3,-8.518028E-3,5.6998255E-3,-1.935071E-4],"split_indices":[33,40,31,39,40,59,31,35,40,0,34,28,0,42,25,9,1,0,40,42,0,0,0,2,0,6,58,23,1,0,24,0,0,50,48,35,28,0,0,0,0,15,32,0,0,0,0,0,0,0,0,0,0,0,0,0,0,0,0,0,0,0,0,0,0,0,0,0,0],"split_type":[0,0,0,0,0,0,0,0,0,0,0,0,0,0,0,0,0,0,0,0,0,0,0,0,0,0,0,0,0,0,0,0,0,0,0,0,0,0,0,0,0,0,0,0,0,0,0,0,0,0,0,0,0,0,0,0,0,0,0,0,0,0,0,0,0,0,0,0,0],"sum_hessian":[6.58E2,2.66E2,3.92E2,2.43E2,2.3E1,1.1E1,3.81E2,2.16E2,2.7E1,3E0,2E1,5E0,6E0,1.2E1,3.69E2,2.07E2,9E0,5E0,2.2E1,1.6E1,4E0,2E0,3E0,8E0,4E0,5E0,3.64E2,2.04E2,3E0,2E0,7E0,3E0,2E0,1.3E1,9E0,9E0,7E0,4E0,4E0,2E0,3E0,6E0,3.58E2,1.64E2,4E1,1E0,2E0,5E0,2E0,1E0,1E0,9E0,4E0,7E0,2E0,7E0,2E0,4E0,3E0,2E0,2E0,3E0,1E0,1E0,1E0,1E0,5E0,1.1E1,3.47E2],"tree_param":{"num_deleted":"0","num_feature":"60","num_nodes":"69","size_leaf_vector":"0"}},{"base_weights":[7.646471E-5,2.2937775E-4,-9.870529E-3,-9.312753E-4,1.9191238E-3,-3.4537E-2,6.132126E-4,4.2184544E-4,-2.0487214E-2,2.5271783E-2,7.1159936E-4,1.4558792E-2,-3.4588405E-3,-6.1666046E-4,9.292703E-3,-2.5901794E-2,9.759267E-4,7.2746277E-3,4.5056026E-2,-1.0610829E-2,1.8358602E-3,-7.7705383E-3,-1.8005371E-4,1.1943262E-4,-2.3815537E-2,1.6982608E-2,-8.783977E-3,-1.4762163E-2,-5.6368254E-2,-8.935292E-3,8.1653595E-3,-1.7318726E-4,1.4765739E-2,9.57489E-3,5.0237276E-2,-3.1103406E-2,-1.5485426E-3,1.3960521E-2,4.2803472E-4,-1.1774699E-3,8.773804E-4,6.4025365E-4,-4.0664673E-2,-4.6509743E-2,-7.445199E-3,3.002828E-2,6.2355626E-4,3.6621094E-3,-2.6940918E-2,-7.832845E-4,-2.8643131E-2,-1.0860443E-2,-2.5424957E-3,1.9054413E-3,9.616852E-3,-3.897667E-3,7.3623657E-3,1.7927805E-2,2.6397705E-3,-2.3142498E-3,-4.215622E-2,1.4633179E-2,-6.0612815E-3,2.200241E-2,5.016327E-4,-1.496582E-2,2.0547493E-3],"categories":[],"categories_nodes":[],"categories_segments":[],"categories_sizes":[],"default_left":[1,1,1,1,1,0,1,1,1,1,1,0,1,1,1,1,1,1,1,1,1,0,1,1,1,1,1,1,0,1,1,1,1,0,0,1,1,1,1,0,0,0,0,0,0,0,0,0,0,0,0,0,0,0,0,0,0,0,0,0,0,0,0,0,0,0,0],"id":75,"left_children":[1,3,5,7,9,-1,11,13,15,17,19,-1,21,23,25,27,29,31,33,35,37,-1,39,41,43,45,47,49,-1,51,53,55,57,-1,-1,59,61,63,65,-1,-1,-1,-1,-1,-1,-1,-1,-1,-1,-1,-1,-1,-1,-1,-1,-1,-1,-1,-1,-1,-1,-1,-1,-1,-1,-1,-1],"loss_changes":[1.0046195E-3,1.276573E-3,2.6071472E-3,1.0222799E-2,7.454727E-3,0E0,5.0465367E-4,3.3406334E-3,2.9306263E-3,4.3010153E-3,3.240009E-3,0E0,9.756085E-5,5.5527175E-3,5.431477E-3,5.9555853E-3,5.004961E-4,4.4889655E-4,6.2200334E-4,4.223156E-3,3.937057E-3,0E0,6.3065986E-6,6.7382613E-3,3.3688438E-3,5.743475E-3,2.810455E-3,3.08221E-3,0E0,9.308656E-6,1.8020568E-5,1.6902611E-4,1.0604714E-4,0E0,0E0,2.1298476E-3,1.3301017E-3,2.5866008E-3,5.239364E-3,0E0,2.9613147E-7,0E0,0E0,0E0,0E0,0E0,0E0,0E0,0E0,0E0,0E0,0E0,0E0,0E0,0E0,0E0,0E0,0E0,0E0,0E0,0E0,0E0,0E0,0E0,0E0,0E0,0E0],"parents":[2147483647,0,0,1,1,2,2,3,3,4,4,6,6,7,7,8,8,9,9,10,10,12,12,13,13,14,14,15,15,16,16,17,17,18,18,19,19,20,20,22,22,23,23,24,24,25,25,26,26,27,27,29,29,30,30,31,31,32,32,35,35,36,36,37,37,38,38],"right_children":[2,4,6,8,10,-1,12,14,16,18,20,-1,22,24,26,28,30,32,34,36,38,-1,40,42,44,46,48,50,-1,52,54,56,58,-1,-1,60,62,64,66,-1,-1,-1,-1,-1,-1,-1,-1,-1,-1,-1,-1,-1,-1,-1,-1,-1,-1,-1,-1,-1,-1,-1,-1,-1,-1,-1,-1],"split_conditions":[5.029E1,3.9715E1,4.804E1,3.9665E1,4.0059998E1,-1.03611E-2,5.0085E1,3.8885E1,4.114E1,4.0305E1,3.922E1,4.367638E-3,5.1535E1,3.978E1,4.0305E1,4.0945E1,3.823E1,4.0199997E1,3.696E1,3.9945E1,3.97E1,-2.3311616E-3,5.16E1,3.9585E1,4.018E1,3.9205E1,3.8355E1,3.925E1,-1.6910477E-2,3.734E1,3.764E1,4.308E1,3.8864998E1,2.872467E-3,1.5071183E-2,3.918E1,4.045E1,4.1575E1,4.0735E1,-3.5324096E-4,2.632141E-4,1.920761E-4,-1.2199403E-2,-1.3952923E-2,-2.2335597E-3,9.008484E-3,1.870669E-4,1.0986328E-3,-8.082275E-3,-2.3498536E-4,-8.59294E-3,-3.258133E-3,-7.6274876E-4,5.716324E-4,2.8850557E-3,-1.1693002E-3,2.2087097E-3,5.378342E-3,7.919312E-4,-6.9427496E-4,-1.2646866E-2,4.389954E-3,-1.8183845E-3,6.600723E-3,1.5048981E-4,-4.4897464E-3,6.1642483E-4],"split_indices":[34,32,59,39,32,0,1,41,40,59,13,0,13,52,49,44,12,28,5,44,10,0,7,31,55,40,1,32,0,0,4,0,0,0,0,42,45,31,8,0,0,0,0,0,0,0,0,0,0,0,0,0,0,0,0,0,0,0,0,0,0,0,0,0,0,0,0],"split_type":[0,0,0,0,0,0,0,0,0,0,0,0,0,0,0,0,0,0,0,0,0,0,0,0,0,0,0,0,0,0,0,0,0,0,0,0,0,0,0,0,0,0,0,0,0,0,0,0,0,0,0,0,0,0,0,0,0,0,0,0,0,0,0,0,0,0,0],"sum_hessian":[6.58E2,6.49E2,9E0,3.85E2,2.64E2,2E0,7E0,3.61E2,2.4E1,1.2E1,2.52E2,1E0,6E0,3.24E2,3.7E1,1.9E1,5E0,7E0,5E0,2.2E1,2.3E2,2E0,4E0,3.15E2,9E0,2.6E1,1.1E1,1.5E1,4E0,2E0,3E0,4E0,3E0,1E0,4E0,6E0,1.6E1,2.3E1,2.07E2,2E0,2E0,3.12E2,3E0,3E0,6E0,1.4E1,1.2E1,7E0,4E0,8E0,7E0,1E0,1E0,1E0,2E0,3E0,1E0,2E0,1E0,2E0,4E0,3E0,1.3E1,1.4E1,9E0,1.9E1,1.88E2],"tree_param":{"num_deleted":"0","num_feature":"60","num_nodes":"67","size_leaf_vector":"0"}},{"base_weights":[-1.2433945E-5,4.562698E-4,-3.058867E-3,9.125513E-5,2.3279825E-2,-1.2216639E-2,9.785314E-4,-1.1550056E-4,1.65596E-2,2.8336048E-2,-8.584976E-3,9.450276E-3,-1.4328003E-2,3.1354904E-2,-2.2361488E-3,1.7819281E-4,-9.472342E-3,-7.502238E-5,2.3228455E-2,5.470276E-3,3.504626E-2,-1.8743817E-2,-2.9536657E-4,4.9307823E-2,-3.0339558E-3,-5.3724563E-3,6.1364174E-3,-8.849244E-5,2.0573208E-2,-1.5720367E-2,8.666992E-3,-3.5057068E-3,3.3931732E-3,2.56567E-2,6.757736E-3,1.7649332E-3,-2.126043E-2,1.6460419E-2,-5.8314004E-3,2.1862232E-3,-1.1132558E-2,1.5790462E-2,-3.1267803E-3,-5.937455E-4,7.6307817E-3,3.6862373E-2,-8.5926056E-4,-3.9450326E-3,-2.2586823E-2,1.096344E-2,-2.593994E-4,5.6610107E-3,-3.0136108E-3,-3.0120214E-2,-1.5058835E-2,9.6321106E-4,-7.382965E-3,-9.83963E-3,6.0490924E-3,-1.6710281E-2,4.800524E-3,1.776232E-2,9.937286E-4,3.405571E-3,-6.960551E-3],"categories":[],"categories_nodes":[],"categories_segments":[],"categories_sizes":[],"default_left":[1,1,1,1,1,1,1,1,1,1,0,0,1,1,1,1,1,1,1,0,0,1,1,0,0,1,1,1,1,1,1,0,0,0,0,1,1,0,1,1,1,1,1,0,0,0,0,0,0,0,0,0,0,0,0,0,0,0,0,0,0,0,0,0,0],"id":76,"left_children":[1,3,5,7,9,11,13,15,17,19,-1,-1,21,23,25,27,29,31,33,-1,-1,35,37,-1,-1,39,41,43,45,47,49,-1,-1,-1,-1,51,53,-1,55,57,59,61,63,-1,-1,-1,-1,-1,-1,-1,-1,-1,-1,-1,-1,-1,-1,-1,-1,-1,-1,-1,-1,-1,-1],"loss_changes":[9.4236503E-4,4.7631687E-3,3.2656288E-3,1.92229E-3,1.6933042E-3,1.370566E-3,6.124434E-3,1.5350955E-3,7.7827973E-4,1.0357606E-3,0E0,0E0,1.543601E-3,3.8538799E-3,1.5297274E-3,2.9497857E-3,2.0629438E-3,4.7590325E-5,2.6593683E-5,0E0,0E0,1.0181628E-3,7.4531144E-4,0E0,0E0,1.8529663E-3,1.4802107E-3,2.0950309E-3,2.4754934E-3,9.620064E-4,1.0533887E-4,0E0,0E0,0E0,0E0,7.2912815E-5,4.8048655E-4,0E0,7.0365015E-5,9.421526E-4,2.213106E-3,2.1576555E-4,2.4909648E-4,0E0,0E0,0E0,0E0,0E0,0E0,0E0,0E0,0E0,0E0,0E0,0E0,0E0,0E0,0E0,0E0,0E0,0E0,0E0,0E0,0E0,0E0],"parents":[2147483647,0,0,1,1,2,2,3,3,4,4,5,5,6,6,7,7,8,8,9,9,12,12,13,13,14,14,15,15,16,16,17,17,18,18,21,21,22,22,25,25,26,26,27,27,28,28,29,29,30,30,35,35,36,36,38,38,39,39,40,40,41,41,42,42],"right_children":[2,4,6,8,10,12,14,16,18,20,-1,-1,22,24,26,28,30,32,34,-1,-1,36,38,-1,-1,40,42,44,46,48,50,-1,-1,-1,-1,52,54,-1,56,58,60,62,64,-1,-1,-1,-1,-1,-1,-1,-1,-1,-1,-1,-1,-1,-1,-1,-1,-1,-1,-1,-1,-1,-1],"split_conditions":[4.461E1,4.456E1,4.5805E1,4.9684998E1,4.8125E1,4.1985E1,4.5699997E1,4.567E1,4.96E1,4.187E1,-2.575493E-3,2.835083E-3,4.733E1,4.3925E1,4.961E1,4.4235E1,4.8614998E1,4.9614998E1,5.0345E1,1.6410828E-3,1.0513878E-2,4.2325E1,4.546E1,1.4792347E-2,-9.101868E-4,4.7245003E1,4.9445E1,4.4885E1,4.446E1,4.0574997E1,5.0205E1,-1.0517121E-3,1.017952E-3,7.6970104E-3,2.027321E-3,4.1605003E1,4.221E1,4.9381256E-3,4.4625E1,4.3985E1,4.9760002E1,5.248E1,4.9510002E1,-1.7812365E-4,2.2892347E-3,1.1058712E-2,-2.5777819E-4,-1.1835098E-3,-6.776047E-3,3.289032E-3,-7.781983E-5,1.6983033E-3,-9.040833E-4,-9.036065E-3,-4.5176507E-3,2.8896332E-4,-2.2148897E-3,-2.951889E-3,1.8147278E-3,-5.0130845E-3,1.4401573E-3,5.328696E-3,2.981186E-4,1.0216713E-3,-2.0881654E-3],"split_indices":[54,56,55,3,0,29,53,27,4,11,0,0,30,0,37,49,18,0,3,0,0,35,17,0,0,52,53,13,49,56,0,0,0,0,0,0,7,0,0,20,31,14,47,0,0,0,0,0,0,0,0,0,0,0,0,0,0,0,0,0,0,0,0,0,0],"split_type":[0,0,0,0,0,0,0,0,0,0,0,0,0,0,0,0,0,0,0,0,0,0,0,0,0,0,0,0,0,0,0,0,0,0,0,0,0,0,0,0,0,0,0,0,0,0,0,0,0,0,0,0,0,0,0,0,0,0,0,0,0,0,0,0,0],"sum_hessian":[6.58E2,5.71E2,8.7E1,5.63E2,8E0,2.6E1,6.1E1,5.57E2,6E0,7E0,1E0,2E0,2.4E1,5E0,5.6E1,5.41E2,1.6E1,2E0,4E0,2E0,5E0,1.8E1,6E0,3E0,2E0,4.1E1,1.5E1,5.35E2,6E0,1.2E1,4E0,1E0,1E0,3E0,1E0,2E0,1.6E1,1E0,5E0,1.8E1,2.3E1,7E0,8E0,5.03E2,3.2E1,3E0,3E0,5E0,7E0,3E0,1E0,1E0,1E0,5E0,1.1E1,1E0,4E0,4E0,1.4E1,1.7E1,6E0,6E0,1E0,3E0,5E0],"tree_param":{"num_deleted":"0","num_feature":"60","num_nodes":"65","size_leaf_vector":"0"}},{"base_weights":[4.377061E-5,2.538969E-3,-4.33729E-4,-1.5773992E-4,1.4142704E-2,-1.2962477E-2,2.3275806E-4,-8.779792E-4,3.0891418E-2,-1.2978145E-3,2.085277E-2,-8.45932E-3,-3.7866592E-2,5.415799E-3,-5.993183E-4,9.5666175E-5,-2.0861626E-2,-8.83611E-3,3.484726E-3,7.43866E-5,2.6512839E-2,-1.9011687E-2,-1.3353825E-3,2.5146757E-3,5.4831505E-2,-3.0157804E-2,-7.015041E-5,4.2069475E-3,-4.8836656E-3,7.6417923E-3,5.350113E-4,3.6745071E-3,-2.3504894E-3,2.9076958E-2,4.3582916E-4,-4.3720244E-3,-2.8042793E-2,1.0722796E-2,-7.7911722E-3,4.013887E-3,-2.3225784E-2,-4.3351363E-2,-6.126404E-3,2.2626877E-2,-5.870072E-4,1.3456577E-3,2.3057938E-2,-6.407329E-4,-1.5239889E-2,-9.317398E-4,1.3345083E-3,-5.245209E-4,-3.001213E-3,1.5907288E-3,-8.877437E-3,-2.9764175E-3,1.4057922E-2,2.1330516E-3,-1.02335615E-2,-8.069568E-3,8.283653E-3,-2.7331034E-2,-5.455017E-3,-7.548014E-3,-9.3078613E-4,2.8152466E-3,2.7227879E-2,-4.6215057E-2,-2.7242786E-4],"categories":[],"categories_nodes":[],"categories_segments":[],"categories_sizes":[],"default_left":[1,1,1,1,1,1,1,1,0,1,1,1,0,1,1,1,0,0,1,1,1,1,1,1,0,1,1,1,1,0,1,0,1,0,0,1,0,1,1,1,1,0,1,1,1,0,0,0,0,0,0,0,0,0,0,0,0,0,0,0,0,0,0,0,0,0,0,0,0],"id":77,"left_children":[1,3,5,7,9,11,13,15,-1,17,19,21,-1,23,25,27,-1,-1,29,31,33,35,37,39,-1,41,43,45,47,-1,49,-1,51,-1,-1,53,-1,55,57,59,61,-1,63,65,67,-1,-1,-1,-1,-1,-1,-1,-1,-1,-1,-1,-1,-1,-1,-1,-1,-1,-1,-1,-1,-1,-1,-1,-1],"loss_changes":[7.862709E-4,3.3191717E-3,4.629055E-3,1.9726877E-3,2.099201E-3,2.8197942E-3,2.2760313E-3,1.6752963E-3,0E0,2.8315687E-4,1.6445271E-3,1.8539724E-3,0E0,1.0327472E-2,7.114722E-3,1.7196744E-3,0E0,0E0,5.7222347E-5,4.3556272E-5,7.2283717E-4,1.1995193E-3,1.3290641E-3,2.794553E-3,0E0,2.2708895E-3,5.2688206E-3,2.4501267E-3,1.6599842E-3,0E0,5.934067E-6,0E0,1.9904037E-6,0E0,0E0,1.4844489E-4,0E0,3.1597394E-4,2.884557E-4,3.523612E-3,1.4272239E-4,0E0,2.2518987E-5,8.348804E-4,6.288658E-3,0E0,0E0,0E0,0E0,0E0,0E0,0E0,0E0,0E0,0E0,0E0,0E0,0E0,0E0,0E0,0E0,0E0,0E0,0E0,0E0,0E0,0E0,0E0,0E0],"parents":[2147483647,0,0,1,1,2,2,3,3,4,4,5,5,6,6,7,7,9,9,10,10,11,11,13,13,14,14,15,15,18,18,19,19,20,20,21,21,22,22,23,23,25,25,26,26,27,27,28,28,30,30,32,32,35,35,37,37,38,38,39,39,40,40,42,42,43,43,44,44],"right_children":[2,4,6,8,10,12,14,16,-1,18,20,22,-1,24,26,28,-1,-1,30,32,34,36,38,40,-1,42,44,46,48,-1,50,-1,52,-1,-1,54,-1,56,58,60,62,-1,64,66,68,-1,-1,-1,-1,-1,-1,-1,-1,-1,-1,-1,-1,-1,-1,-1,-1,-1,-1,-1,-1,-1,-1,-1,-1],"split_conditions":[3.1810001E1,3.1349998E1,3.2605E1,3.632E1,3.0175E1,3.4635E1,3.4345E1,3.2004997E1,9.267426E-3,2.9494999E1,2.857E1,3.24E1,-1.13599785E-2,3.4215E1,3.4655E1,3.1925E1,-6.258488E-3,-2.6508332E-3,2.8535E1,3.412E1,3.4975E1,3.217E1,3.3364998E1,3.4305E1,1.6449451E-2,3.4375E1,3.483E1,3.2004997E1,3.0305E1,2.2925378E-3,3.0435001E1,1.1023522E-3,3.4495E1,8.723088E-3,1.3074875E-4,3.0630001E1,-8.412838E-3,3.1974998E1,3.2645E1,3.167E1,3.7739998E1,-1.3005409E-2,3.79E1,3.464E1,3.4595E1,4.0369734E-4,6.9173817E-3,-1.9221987E-4,-4.571967E-3,-2.7952195E-4,4.003525E-4,-1.5735626E-4,-9.0036396E-4,4.7721865E-4,-2.663231E-3,-8.929253E-4,4.217377E-3,6.399155E-4,-3.0700685E-3,-2.4208706E-3,2.485096E-3,-8.199311E-3,-1.6365052E-3,-2.2644044E-3,-2.7923586E-4,8.44574E-4,8.168364E-3,-1.3864518E-2,-8.172836E-5],"split_indices":[11,10,16,42,3,5,42,6,0,6,54,9,0,42,42,54,0,0,0,0,1,0,5,58,0,45,29,53,20,0,0,0,0,0,0,0,0,0,2,34,0,0,0,41,30,0,0,0,0,0,0,0,0,0,0,0,0,0,0,0,0,0,0,0,0,0,0,0,0],"split_type":[0,0,0,0,0,0,0,0,0,0,0,0,0,0,0,0,0,0,0,0,0,0,0,0,0,0,0,0,0,0,0,0,0,0,0,0,0,0,0,0,0,0,0,0,0,0,0,0,0,0,0,0,0,0,0,0,0,0,0,0,0,0,0,0,0,0,0,0,0],"sum_hessian":[6.58E2,1.05E2,5.53E2,8.6E1,1.9E1,2.7E1,5.26E2,8.5E1,1E0,6E0,1.3E1,2.4E1,3E0,7.2E1,4.54E2,8.2E1,3E0,2E0,4E0,3E0,1E1,9E0,1.5E1,6.9E1,3E0,7E0,4.47E2,4.5E1,3.7E1,1E0,3E0,1E0,2E0,9E0,1E0,4E0,5E0,5E0,1E1,6.6E1,3E0,4E0,3E0,9E0,4.38E2,4E1,5E0,2.7E1,1E1,1E0,2E0,1E0,1E0,2E0,2E0,1E0,4E0,2E0,8E0,1.7E1,4.9E1,2E0,1E0,2E0,1E0,2E0,7E0,2E0,4.36E2],"tree_param":{"num_deleted":"0","num_feature":"60","num_nodes":"69","size_leaf_vector":"0"}},{"base_weights":[-1.722113E-6,1.8148843E-3,-5.782464E-4,1.0813395E-4,2.723465E-2,-1.067672E-2,1.5663897E-4,7.928477E-4,-1.3992854E-2,3.356743E-2,1.2690226E-3,-5.981E-3,-3.6715697E-2,1.7614365E-2,-2.629934E-4,-4.1851097E-5,1.7135074E-2,-1.6573587E-2,7.457733E-4,2.5196075E-3,3.764289E-2,-1.7576218E-3,3.6611557E-3,-1.4188886E-2,3.172811E-3,3.1137254E-2,-2.882576E-2,-1.2750096E-2,2.472806E-4,2.4083867E-3,-4.9946825E-3,6.62899E-3,2.3357391E-2,1.1184692E-2,4.0188473E-2,1.2425317E-3,-2.977562E-2,8.6456295E-3,-6.477356E-3,2.263387E-3,3.906359E-2,6.3632964E-3,-1.8665586E-2,6.9356645E-3,-7.236955E-4,-1.3919295E-3,8.197836E-3,-1.180156E-2,2.3253069E-3,-4.7275545E-3,6.9641112E-3,-1.6983796E-2,-3.8321495E-2,1.6775131E-3,1.13923205E-2,-9.41658E-3,-3.9927164E-4,6.4144135E-3,-3.019333E-3,4.176585E-2,1.1425018E-2,-3.2844543E-3,9.596348E-3,-3.3598583E-2,-1.3376872E-2,-2.3029873E-4,1.8020803E-2,-2.3563862E-2,9.11967E-6],"categories":[],"categories_nodes":[],"categories_segments":[],"categories_sizes":[],"default_left":[1,1,1,1,1,1,1,1,1,1,1,1,0,1,1,1,1,0,0,0,1,0,0,1,1,1,0,1,1,1,1,0,0,0,0,1,1,1,1,1,1,1,1,1,1,0,0,0,0,0,0,0,0,0,0,0,0,0,0,0,0,0,0,0,0,0,0,0,0],"id":78,"left_children":[1,3,5,7,9,11,13,15,17,19,21,23,-1,25,27,29,31,-1,-1,-1,33,-1,-1,35,37,39,-1,41,43,45,47,-1,-1,-1,-1,49,51,53,55,57,59,61,63,65,67,-1,-1,-1,-1,-1,-1,-1,-1,-1,-1,-1,-1,-1,-1,-1,-1,-1,-1,-1,-1,-1,-1,-1,-1],"loss_changes":[6.912318E-4,6.895301E-3,3.7197042E-3,1.4593654E-3,1.6017482E-3,3.9376426E-3,3.4331193E-3,1.964998E-3,2.786154E-4,9.1742724E-4,2.8155335E-5,2.2990217E-3,0E0,7.805607E-3,2.9214574E-3,1.6867439E-3,3.0276924E-4,0E0,0E0,0E0,2.1965243E-5,0E0,0E0,3.8854035E-3,8.4820506E-4,1.9713594E-3,0E0,2.1539466E-3,2.8689883E-3,2.0575724E-3,2.319451E-3,0E0,0E0,0E0,0E0,3.4034814E-4,2.2369437E-4,1.7228187E-4,1.0342934E-4,8.515338E-5,4.563015E-5,1.8747713E-4,6.562248E-4,4.452549E-3,6.4609363E-3,0E0,0E0,0E0,0E0,0E0,0E0,0E0,0E0,0E0,0E0,0E0,0E0,0E0,0E0,0E0,0E0,0E0,0E0,0E0,0E0,0E0,0E0,0E0,0E0],"parents":[2147483647,0,0,1,1,2,2,3,3,4,4,5,5,6,6,7,7,8,8,9,9,10,10,11,11,13,13,14,14,15,15,16,16,20,20,23,23,24,24,25,25,27,27,28,28,29,29,30,30,35,35,36,36,37,37,38,38,39,39,40,40,41,41,42,42,43,43,44,44],"right_children":[2,4,6,8,10,12,14,16,18,20,22,24,-1,26,28,30,32,-1,-1,-1,34,-1,-1,36,38,40,-1,42,44,46,48,-1,-1,-1,-1,50,52,54,56,58,60,62,64,66,68,-1,-1,-1,-1,-1,-1,-1,-1,-1,-1,-1,-1,-1,-1,-1,-1,-1,-1,-1,-1,-1,-1,-1,-1],"split_conditions":[3.425E1,3.464E1,3.483E1,3.4805E1,3.6625E1,3.4945E1,3.389E1,3.6025E1,3.4165E1,3.3864998E1,3.7265E1,3.51E1,-1.1014709E-2,3.7489998E1,3.5325E1,3.1485E1,3.4835E1,-4.9720765E-3,2.23732E-4,7.558823E-4,3.3705E1,-5.2728655E-4,1.0983468E-3,3.4565E1,3.589E1,3.5595E1,-8.647729E-3,3.4175E1,3.7335E1,3.0055E1,3.265E1,1.988697E-3,7.0072175E-3,3.3554079E-3,1.2056543E-2,3.4379997E1,3.5175E1,3.389E1,3.4559998E1,3.5855E1,3.938E1,3.635E1,3.4705E1,3.64E1,3.7325E1,-4.1757885E-4,2.4593507E-3,-3.5404682E-3,6.975921E-4,-1.4182664E-3,2.0892334E-3,-5.095139E-3,-1.1496449E-2,5.0325395E-4,3.4176963E-3,-2.8249742E-3,-1.1978149E-4,1.9243241E-3,-9.057999E-4,1.2529756E-2,3.4275057E-3,-9.853364E-4,2.8789043E-3,-1.0079576E-2,-4.013062E-3,-6.908962E-5,5.406241E-3,-7.069159E-3,2.735901E-6],"split_indices":[7,4,15,20,0,17,29,41,0,7,0,8,0,4,21,30,27,0,0,0,0,0,0,5,10,7,0,29,32,38,31,0,0,0,0,6,6,16,17,0,0,0,20,31,26,0,0,0,0,0,0,0,0,0,0,0,0,0,0,0,0,0,0,0,0,0,0,0,0],"split_type":[0,0,0,0,0,0,0,0,0,0,0,0,0,0,0,0,0,0,0,0,0,0,0,0,0,0,0,0,0,0,0,0,0,0,0,0,0,0,0,0,0,0,0,0,0,0,0,0,0,0,0,0,0,0,0,0,0,0,0,0,0,0,0,0,0,0,0,0,0],"sum_hessian":[6.58E2,1.58E2,5E2,1.49E2,9E0,3.3E1,4.67E2,1.43E2,6E0,7E0,2E0,2.9E1,4E0,1E1,4.57E2,1.37E2,6E0,5E0,1E0,1E0,6E0,1E0,1E0,1.5E1,1.4E1,8E0,2E0,1.7E1,4.4E2,9.2E1,4.5E1,3E0,3E0,1E0,5E0,8E0,7E0,9E0,5E0,2E0,6E0,4E0,1.3E1,5.5E1,3.85E2,5.6E1,3.6E1,2.3E1,2.2E1,4E0,4E0,4E0,3E0,3E0,6E0,3E0,2E0,1E0,1E0,5E0,1E0,1E0,3E0,2E0,1.1E1,3.4E1,2.1E1,1.1E1,3.74E2],"tree_param":{"num_deleted":"0","num_feature":"60","num_nodes":"69","size_leaf_vector":"0"}},{"base_weights":[-1.9177682E-5,-7.566693E-4,1.4067247E-3,6.8507285E-4,-7.468731E-3,3.5533268E-2,4.6960657E-4,1.1757987E-4,2.047882E-2,-3.8445683E-3,-1.832962E-2,-7.6770782E-3,4.5710754E-2,3.6909103E-2,1.3468145E-4,-1.3721948E-4,2.963511E-2,1.5060424E-3,3.287633E-2,-1.6885757E-2,9.850588E-4,-4.2562865E-2,-9.029897E-3,-5.990585E-3,1.843275E-3,6.3762785E-4,-1.1113872E-2,-1.458486E-3,3.968557E-3,7.986705E-3,4.332447E-2,5.6549073E-3,-2.4870554E-2,-2.4677277E-2,3.4646755E-3,-1.358531E-2,1.3720195E-2,9.334858E-3,-1.1358367E-2,2.3593584E-2,2.1068502E-4,-4.364252E-4,8.552747E-3,-2.7328014E-2,-2.3121834E-3,-2.0332336E-3,-1.5449524E-4,-2.4960835E-3,1.1920929E-2,-4.128647E-2,-1.4811198E-2,-3.9691925E-3,-3.0256907E-2,2.4811555E-2,4.8632236E-4,-1.8330002E-2,1.6727448E-3,-3.313337E-4,1.7667498E-2,-2.0661116E-2,-3.729684E-3,-6.752014E-3,4.6233587E-2,1.0741601E-2,-7.095337E-4],"categories":[],"categories_nodes":[],"categories_segments":[],"categories_sizes":[],"default_left":[1,1,1,1,1,1,1,1,1,1,1,0,0,0,1,1,0,1,1,1,1,0,1,1,1,1,1,1,0,0,0,1,1,1,1,1,0,1,1,1,1,0,0,0,0,0,0,0,0,0,0,0,0,0,0,0,0,0,0,0,0,0,0,0,0],"id":79,"left_children":[1,3,5,7,9,11,13,15,17,19,21,-1,-1,-1,23,25,-1,27,29,31,33,-1,35,37,39,41,43,45,-1,-1,-1,47,49,51,53,55,-1,57,59,61,63,-1,-1,-1,-1,-1,-1,-1,-1,-1,-1,-1,-1,-1,-1,-1,-1,-1,-1,-1,-1,-1,-1,-1,-1],"loss_changes":[6.9406297E-4,4.214639E-3,7.1789497E-3,4.0301722E-3,2.9603764E-3,2.9895604E-3,2.6800197E-3,2.6364333E-3,2.3026392E-3,3.7326943E-3,3.8975482E-3,0E0,0E0,0E0,2.3030064E-3,2.9669064E-3,0E0,4.2289048E-5,1.2142817E-3,3.020363E-3,2.8853398E-3,0E0,1.7409342E-3,4.0546833E-3,6.1026355E-3,2.7751424E-3,3.2191847E-3,1.934272E-6,0E0,0E0,0E0,2.8512708E-4,1.3701003E-3,3.420785E-4,2.594654E-3,9.7179343E-4,0E0,1.0529376E-3,2.4777786E-3,8.556462E-3,1.5678315E-3,0E0,0E0,0E0,0E0,0E0,0E0,0E0,0E0,0E0,0E0,0E0,0E0,0E0,0E0,0E0,0E0,0E0,0E0,0E0,0E0,0E0,0E0,0E0,0E0],"parents":[2147483647,0,0,1,1,2,2,3,3,4,4,5,5,6,6,7,7,8,8,9,9,10,10,14,14,15,15,17,17,18,18,19,19,20,20,22,22,23,23,24,24,25,25,26,26,27,27,31,31,32,32,33,33,34,34,35,35,37,37,38,38,39,39,40,40],"right_children":[2,4,6,8,10,12,14,16,18,20,22,-1,-1,-1,24,26,-1,28,30,32,34,-1,36,38,40,42,44,46,-1,-1,-1,48,50,52,54,56,-1,58,60,62,64,-1,-1,-1,-1,-1,-1,-1,-1,-1,-1,-1,-1,-1,-1,-1,-1,-1,-1,-1,-1,-1,-1,-1,-1],"split_conditions":[4.0825E1,3.9465E1,3.827E1,3.9510002E1,4.018E1,3.905E1,3.8135002E1,4.44E1,3.8934998E1,3.754E1,4.0755E1,-2.3031235E-3,1.3713227E-2,1.1072732E-2,4.0760002E1,3.9114998E1,8.890534E-3,3.8260002E1,3.9315002E1,3.9955E1,3.88E1,-1.276886E-2,4.2095E1,3.9114998E1,4.1050003E1,3.8155E1,3.9315002E1,3.782E1,1.1905672E-3,2.3960115E-3,1.2997341E-2,4.0105E1,3.7325E1,4.0475E1,3.7245003E1,4.1995003E1,4.116059E-3,4.168E1,4.1364998E1,4.0915E1,4.133E1,-1.3092757E-4,2.5658242E-3,-8.198405E-3,-6.9365505E-4,-6.099701E-4,-4.6348574E-5,-7.488251E-4,3.576279E-3,-1.2385941E-2,-4.4433596E-3,-1.1907578E-3,-9.077072E-3,7.4434667E-3,1.4589672E-4,-5.4990007E-3,5.0182344E-4,-9.940011E-5,5.30025E-3,-6.198335E-3,-1.1189053E-3,-2.0256042E-3,1.3870076E-2,3.2224804E-3,-2.1286012E-4],"split_indices":[20,19,43,20,59,0,7,0,1,45,58,0,0,0,42,22,0,0,25,10,22,0,31,41,28,17,22,0,0,0,0,14,44,2,47,35,0,10,26,53,22,0,0,0,0,0,0,0,0,0,0,0,0,0,0,0,0,0,0,0,0,0,0,0,0],"split_type":[0,0,0,0,0,0,0,0,0,0,0,0,0,0,0,0,0,0,0,0,0,0,0,0,0,0,0,0,0,0,0,0,0,0,0,0,0,0,0,0,0,0,0,0,0,0,0,0,0,0,0,0,0,0,0,0,0,0,0,0,0,0,0,0,0],"sum_hessian":[6.58E2,4.34E2,2.24E2,3.58E2,7.6E1,5E0,2.19E2,3.49E2,9E0,5.8E1,1.8E1,1E0,4E0,1E0,2.18E2,3.47E2,2E0,4E0,5E0,1.5E1,4.3E1,4E0,1.4E1,4.7E1,1.71E2,3.25E2,2.2E1,2E0,2E0,2E0,3E0,4E0,1.1E1,3E0,4E1,1.2E1,2E0,1.2E1,3.5E1,1.1E1,1.6E2,2.87E2,3.8E1,7E0,1.5E1,1E0,1E0,2E0,2E0,3E0,8E0,1E0,2E0,4E0,3.6E1,9E0,3E0,6E0,6E0,1.5E1,2E1,5E0,6E0,1.2E1,1.48E2],"tree_param":{"num_deleted":"0","num_feature":"60","num_nodes":"65","size_leaf_vector":"0"}},{"base_weights":[2.179703E-5,4.0473007E-3,-2.448709E-4,2.0692726E-3,2.1826744E-2,-1.1661089E-2,3.1422548E-8,7.390446E-4,1.7342249E-2,2.9689789E-2,-8.8119507E-4,-1.6048432E-3,-1.5952216E-2,6.981108E-3,-3.2439042E-4,-1.96743E-3,5.6787636E-3,-3.976822E-3,-1.7642975E-5,-1.871E-2,-4.1999817E-3,-2.5993348E-3,1.1915737E-2,-7.519349E-3,-2.7774271E-5,-1.2701671E-2,-4.1424145E-4,1.1948903E-2,2.6631355E-4,-1.0662079E-3,-5.2337646E-3,5.3943E-3,-1.1671829E-2,-2.216339E-3,1.6111782E-2,-3.7400245E-3,-2.4536133E-2,8.403063E-3,-2.75689E-4,-1.4618322E-3,4.6653748E-3,1.2480417E-3,1.6987324E-2,-3.2019615E-3,2.987671E-3,8.30698E-3,-2.8737387E-4,-4.6958923E-3,1.0019938E-3,3.0150414E-3,1.9409526E-2,4.693667E-3,-6.8641664E-3,-4.50325E-3,-2.9712677E-2,1.5189488E-2,-9.564972E-3,-6.008351E-3,2.6589894E-4],"categories":[],"categories_nodes":[],"categories_segments":[],"categories_sizes":[],"default_left":[1,1,1,1,1,1,1,1,0,0,0,1,1,1,1,1,1,0,0,0,1,1,1,1,1,0,1,1,1,0,0,1,0,1,1,1,1,1,1,0,0,0,0,0,0,0,0,0,0,0,0,0,0,0,0,0,0,0,0],"id":80,"left_children":[1,3,5,7,9,11,13,15,-1,-1,-1,17,19,21,23,25,27,-1,-1,-1,29,31,33,35,37,-1,39,41,43,-1,-1,45,-1,47,49,51,53,55,57,-1,-1,-1,-1,-1,-1,-1,-1,-1,-1,-1,-1,-1,-1,-1,-1,-1,-1,-1,-1],"loss_changes":[7.0840964E-4,1.3967325E-3,1.7306367E-3,7.5921183E-4,7.4037653E-4,5.353835E-4,1.3770066E-3,4.924647E-4,0E0,0E0,0E0,1.875386E-5,2.1310942E-4,1.307423E-3,1.239727E-3,3.9487364E-4,4.379965E-4,0E0,3.9746948E-7,0E0,4.1386447E-6,7.8818336E-4,1.1030883E-3,1.387409E-3,1.1706987E-3,0E0,1.2388988E-4,3.022917E-4,8.5073734E-5,0E0,0E0,1.01680605E-4,0E0,4.4605396E-5,5.461355E-4,5.5917905E-4,2.8100098E-4,2.096307E-3,1.6905766E-3,0E0,0E0,0E0,0E0,0E0,0E0,0E0,0E0,0E0,0E0,0E0,0E0,0E0,0E0,0E0,0E0,0E0,0E0,0E0,0E0],"parents":[2147483647,0,0,1,1,2,2,3,3,4,4,5,5,6,6,7,7,11,11,12,12,13,13,14,14,15,15,16,16,20,20,21,21,22,22,23,23,24,24,26,26,27,27,28,28,31,31,33,33,34,34,35,35,36,36,37,37,38,38],"right_children":[2,4,6,8,10,12,14,16,-1,-1,-1,18,20,22,24,26,28,-1,-1,-1,30,32,34,36,38,-1,40,42,44,-1,-1,46,-1,48,50,52,54,56,58,-1,-1,-1,-1,-1,-1,-1,-1,-1,-1,-1,-1,-1,-1,-1,-1,-1,-1,-1,-1],"split_conditions":[2.925E1,3.0240002E1,2.9865E1,3.061E1,3.443E1,2.8145E1,2.9415E1,3.2379997E1,5.202675E-3,8.906937E-3,-2.6435853E-4,2.7645E1,3.114E1,2.8825E1,2.9795E1,2.786E1,3.2675003E1,-1.1930466E-3,-5.2928926E-6,-5.613E-3,3.1335E1,2.8535E1,2.8505001E1,2.9595E1,3.1295E1,-3.8105014E-3,3.0395E1,3.1945E1,3.31E1,-3.198624E-4,-1.5701294E-3,2.9855E1,-3.501549E-3,2.9575E1,2.8285E1,2.919E1,3.0695E1,3.2625E1,3.4135002E1,-4.3854967E-4,1.3996125E-3,3.7441254E-4,5.096197E-3,-9.605885E-4,8.963013E-4,2.4920942E-3,-8.621217E-5,-1.4087678E-3,3.0059816E-4,9.045124E-4,5.822858E-3,1.4081001E-3,-2.05925E-3,-1.3509751E-3,-8.913804E-3,4.556847E-3,-2.8694915E-3,-1.8025055E-3,7.9769685E-5],"split_indices":[46,42,46,48,0,9,13,16,0,0,0,5,7,25,17,35,9,0,0,0,0,13,1,18,13,0,52,19,16,0,0,8,0,4,14,8,0,28,14,0,0,0,0,0,0,0,0,0,0,0,0,0,0,0,0,0,0,0,0],"split_type":[0,0,0,0,0,0,0,0,0,0,0,0,0,0,0,0,0,0,0,0,0,0,0,0,0,0,0,0,0,0,0,0,0,0,0,0,0,0,0,0,0,0,0,0,0,0,0,0,0,0,0,0,0,0,0,0,0,0,0],"sum_hessian":[6.58E2,4E1,6.18E2,3.7E1,3E0,1.2E1,6.06E2,3.5E1,2E0,2E0,1E0,4E0,8E0,2.6E1,5.8E2,2.3E1,1.2E1,1E0,3E0,6E0,2E0,9E0,1.7E1,2.2E1,5.58E2,2E0,2.1E1,5E0,7E0,1E0,1E0,5E0,4E0,4E0,1.3E1,1.9E1,3E0,1.5E1,5.43E2,1.8E1,3E0,2E0,3E0,3E0,4E0,3E0,2E0,2E0,2E0,3E0,1E1,5E0,1.4E1,1E0,2E0,1.1E1,4E0,4.6E1,4.97E2],"tree_param":{"num_deleted":"0","num_feature":"60","num_nodes":"59","size_leaf_vector":"0"}},{"base_weights":[1.7030105E-5,1.3587659E-3,-6.0044345E-4,-4.204415E-4,1.5016873E-2,-2.1019194E-2,-1.8519754E-4,5.326522E-4,-1.125768E-2,-2.8008355E-3,2.410078E-2,-4.5791627E-3,-3.3255387E-2,2.4812698E-2,-4.1151588E-4,-3.8381004E-5,1.0815514E-2,-2.0647684E-2,2.4234226E-3,-1.1922519E-2,1.1581898E-2,7.4676513E-3,2.9022852E-2,7.6293945E-4,-8.394877E-3,-5.534768E-3,4.5700173E-4,9.646696E-4,-1.3986414E-2,1.3446808E-3,1.53268175E-2,-7.979202E-3,-2.918663E-2,1.0809422E-2,-6.568432E-3,-1.3264847E-2,-2.6054382E-3,1.8606186E-3,1.4202118E-2,-1.604716E-3,1.4050801E-2,8.889198E-3,3.4746382E-2,-1.6462537E-3,-2.4120677E-2,1.5697256E-2,-2.5996318E-4,-4.7121377E-4,5.3225067E-3,-2.1222522E-2,-1.0585785E-3,3.4879048E-3,-2.5424957E-3,1.3934453E-2,7.171631E-4,-1.2448629E-3,-1.1269569E-2,2.166748E-3,1.0407765E-2,4.009574E-2,1.0682424E-2,-8.916301E-3,7.812818E-3,3.0326843E-4,2.2086143E-2,2.5105795E-2,-4.7062238E-4],"categories":[],"categories_nodes":[],"categories_segments":[],"categories_sizes":[],"default_left":[1,1,1,1,1,1,1,1,1,1,1,1,0,0,1,1,1,1,1,1,1,1,1,0,0,1,1,1,1,1,0,0,0,1,1,0,0,0,0,0,0,1,1,1,0,1,1,0,0,0,0,0,0,0,0,0,0,0,0,0,0,0,0,0,0,0,0],"id":81,"left_children":[1,3,5,7,9,11,13,15,17,19,21,23,-1,-1,25,27,29,31,33,35,37,39,41,-1,-1,43,45,47,49,51,-1,-1,-1,53,55,-1,-1,-1,-1,-1,-1,57,59,61,-1,63,65,-1,-1,-1,-1,-1,-1,-1,-1,-1,-1,-1,-1,-1,-1,-1,-1,-1,-1,-1,-1],"loss_changes":[5.4678833E-4,5.0608395E-3,3.8285262E-3,1.9168436E-3,3.9520077E-3,1.6581886E-3,2.522133E-3,1.0045025E-3,1.9770223E-3,1.318838E-3,1.093179E-3,1.0832446E-4,0E0,0E0,1.9648182E-3,2.2939574E-3,3.6392256E-4,7.406934E-4,5.988407E-4,4.047877E-5,7.5462856E-5,3.211713E-4,1.0739584E-3,4.156609E-7,0E0,4.5856717E-3,4.134384E-3,9.5988193E-4,1.0065536E-3,4.2192343E-5,0E0,0E0,0E0,1.16161274E-4,8.6078246E-5,0E0,0E0,0E0,0E0,0E0,0E0,1.8282968E-5,7.3022116E-4,3.783128E-3,0E0,1.6652597E-3,1.9461734E-3,0E0,0E0,0E0,0E0,0E0,0E0,0E0,0E0,0E0,0E0,0E0,0E0,0E0,0E0,0E0,0E0,0E0,0E0,0E0,0E0],"parents":[2147483647,0,0,1,1,2,2,3,3,4,4,5,5,6,6,7,7,8,8,9,9,10,10,11,11,14,14,15,15,16,16,17,17,18,18,19,19,20,20,21,21,22,22,25,25,26,26,27,27,28,28,29,29,33,33,34,34,41,41,42,42,43,43,45,45,46,46],"right_children":[2,4,6,8,10,12,14,16,18,20,22,24,-1,-1,26,28,30,32,34,36,38,40,42,-1,-1,44,46,48,50,52,-1,-1,-1,54,56,-1,-1,-1,-1,-1,-1,58,60,62,-1,64,66,-1,-1,-1,-1,-1,-1,-1,-1,-1,-1,-1,-1,-1,-1,-1,-1,-1,-1,-1,-1],"split_conditions":[3.5155E1,3.534E1,3.5190002E1,3.5175E1,3.4125E1,3.2835E1,3.3885002E1,3.4695E1,3.742E1,3.74E1,3.4135002E1,3.825E1,-9.976616E-3,7.44381E-3,3.7945E1,3.468E1,3.1925E1,3.4165E1,3.6645E1,3.8285E1,3.759E1,3.9114998E1,3.532E1,2.2888185E-4,-2.5184634E-3,3.7755E1,3.8175E1,3.2365E1,3.5504997E1,3.6045E1,4.5980453E-3,-2.3937607E-3,-8.755989E-3,3.8335E1,3.8575E1,-3.9794543E-3,-7.816315E-4,5.581856E-4,4.2606355E-3,-4.814148E-4,4.2152405E-3,3.6305E1,3.841E1,3.746E1,-7.2362036E-3,3.4475E1,3.772E1,-1.4136414E-4,1.5967521E-3,-6.366757E-3,-3.1757355E-4,1.0463715E-3,-7.6274876E-4,4.180336E-3,2.1514893E-4,-3.734589E-4,-3.380871E-3,6.5002445E-4,3.1223297E-3,1.2028722E-2,3.2047273E-3,-2.6748902E-3,2.3438453E-3,9.098053E-5,6.6258432E-3,7.531739E-3,-1.4118673E-4],"split_indices":[27,14,28,9,26,45,37,9,1,6,27,0,0,0,17,5,42,23,7,0,0,0,12,0,0,16,19,18,0,0,0,0,0,2,0,0,0,0,0,0,0,0,4,25,0,53,15,0,0,0,0,0,0,0,0,0,0,0,0,0,0,0,0,0,0,0,0],"split_type":[0,0,0,0,0,0,0,0,0,0,0,0,0,0,0,0,0,0,0,0,0,0,0,0,0,0,0,0,0,0,0,0,0,0,0,0,0,0,0,0,0,0,0,0,0,0,0,0,0,0,0,0,0,0,0,0,0,0,0,0,0,0,0,0,0,0,0],"sum_hessian":[6.58E2,2.07E2,4.51E2,1.84E2,2.3E1,8E0,4.43E2,1.7E2,1.4E1,8E0,1.5E1,4E0,4E0,3E0,4.4E2,1.62E2,8E0,8E0,6E0,5E0,3E0,4E0,1.1E1,2E0,2E0,6.3E1,3.77E2,1.52E2,1E1,3E0,5E0,4E0,4E0,3E0,3E0,4E0,1E0,1E0,2E0,2E0,2E0,3E0,8E0,5.3E1,1E1,1.6E1,3.61E2,1.15E2,3.7E1,6E0,4E0,2E0,1E0,2E0,1E0,2E0,1E0,1E0,2E0,6E0,2E0,3E1,2.3E1,5E0,1.1E1,2E0,3.59E2],"tree_param":{"num_deleted":"0","num_feature":"60","num_nodes":"67","size_leaf_vector":"0"}},{"base_weights":[3.258701E-5,-2.8958604E-5,1.3500214E-2,1.450805E-4,-6.589553E-3,-7.572235E-5,7.791519E-3,-2.8992971E-2,-1.6695658E-3,2.4261035E-4,-1.0806401E-2,3.2295227E-2,4.4504055E-3,5.206517E-3,-6.832123E-3,1.1806961E-4,2.5277456E-2,-1.4808655E-2,-3.33786E-4,7.5263977E-3,-1.0190691E-3,3.8146973E-5,1.2084961E-2,-6.3610077E-4,-9.824117E-3,-7.753647E-5,7.817077E-3,4.9877167E-3,3.2928467E-2,-1.690986E-2,-2.1680195E-3,-3.1347275E-3,3.5120647E-3,8.489609E-3,-1.0528564E-3,-6.9872537E-3,2.7656555E-3,2.418518E-3,-2.3549397E-3,-1.528422E-3,1.0204315E-3],"categories":[],"categories_nodes":[],"categories_segments":[],"categories_sizes":[],"default_left":[1,1,0,1,1,1,1,0,1,1,1,0,1,1,1,1,1,1,1,1,1,1,0,1,0,0,0,0,0,0,0,0,0,0,0,0,0,0,0,0,0],"id":82,"left_children":[1,3,-1,5,7,9,11,-1,13,15,17,-1,19,21,23,25,27,29,31,33,35,37,-1,39,-1,-1,-1,-1,-1,-1,-1,-1,-1,-1,-1,-1,-1,-1,-1,-1,-1],"loss_changes":[5.466185E-4,7.511186E-4,0E0,1.0828258E-3,1.8254113E-3,2.1341597E-3,1.3299272E-3,0E0,5.680441E-4,1.8895554E-3,7.4951E-4,0E0,2.9367895E-4,2.483914E-4,1.6059709E-4,9.1171963E-4,3.014733E-4,3.0862633E-4,7.564138E-5,9.9838304E-5,1.7743988E-4,3.417764E-5,0E0,7.4722866E-6,0E0,0E0,0E0,0E0,0E0,0E0,0E0,0E0,0E0,0E0,0E0,0E0,0E0,0E0,0E0,0E0,0E0],"parents":[2147483647,0,0,1,1,3,3,4,4,5,5,6,6,8,8,9,9,10,10,12,12,13,13,14,14,15,15,16,16,17,17,18,18,19,19,20,20,21,21,23,23],"right_children":[2,4,-1,6,8,10,12,-1,14,16,18,-1,20,22,24,26,28,30,32,34,36,38,-1,40,-1,-1,-1,-1,-1,-1,-1,-1,-1,-1,-1,-1,-1,-1,-1,-1,-1],"split_conditions":[5.383E1,4.9585E1,4.0500644E-3,4.7375E1,4.9510002E1,4.597E1,4.2465E1,-8.697892E-3,4.9455E1,4.5945E1,4.6845E1,9.688568E-3,4.967E1,4.9995E1,5.167E1,4.589E1,4.1245003E1,4.6545E1,4.2525E1,5.383E1,5.225E1,5.2645E1,3.6254884E-3,5.153E1,-2.9472352E-3,-2.3260942E-5,2.3451233E-3,1.4963151E-3,9.87854E-3,-5.0729583E-3,-6.504059E-4,-9.404183E-4,1.0536194E-3,2.5468827E-3,-3.1585695E-4,-2.0961761E-3,8.296967E-4,7.2555547E-4,-7.064819E-4,-4.5852663E-4,3.0612946E-4],"split_indices":[20,35,0,55,24,58,0,0,43,58,47,0,24,41,8,52,0,40,4,12,11,0,0,1,0,0,0,0,0,0,0,0,0,0,0,0,0,0,0,0,0],"split_type":[0,0,0,0,0,0,0,0,0,0,0,0,0,0,0,0,0,0,0,0,0,0,0,0,0,0,0,0,0,0,0,0,0,0,0,0,0,0,0,0,0],"sum_hessian":[6.58E2,6.56E2,2E0,6.4E2,1.6E1,6.23E2,1.7E1,2E0,1.4E1,6.06E2,1.7E1,1E0,1.6E1,6E0,8E0,6.04E2,2E0,1.2E1,5E0,1E1,6E0,4E0,2E0,3E0,5E0,5.9E2,1.4E1,1E0,1E0,1E1,2E0,3E0,2E0,9E0,1E0,2E0,4E0,2E0,2E0,2E0,1E0],"tree_param":{"num_deleted":"0","num_feature":"60","num_nodes":"41","size_leaf_vector":"0"}},{"base_weights":[4.4667846E-5,1.1669359E-3,-6.3098053E-4,3.7331943E-4,1.8231826E-2,-2.0691652E-2,2.2568704E-5,-2.2477044E-4,9.958812E-3,2.2797903E-2,-1.5436808E-3,-8.001709E-3,-4.7243595E-2,1.32020805E-2,-4.1907103E-4,3.2910038E-4,-1.7520905E-2,2.112431E-2,-8.449237E-3,1.2844722E-2,3.20282E-2,-4.3621063E-3,2.046585E-3,-1.5462239E-2,2.5512695E-3,2.5168525E-3,2.9795075E-2,-1.6983986E-2,-7.015138E-5,-2.779784E-5,1.951933E-2,-2.6845455E-2,-3.8161278E-3,6.5550804E-3,2.7316412E-2,2.6626587E-3,-1.1204148E-2,-3.9577484E-3,-1.6971588E-2,6.210327E-3,-1.9582112E-3,1.6616821E-2,-7.3026023E-3,-5.5519105E-3,-2.7028084E-2,-2.4471283E-2,1.2318252E-4,4.8785942E-4,-1.1942122E-2,-6.4271293E-3,2.008438E-3,9.373982E-3,-9.508133E-4,3.2608986E-2,1.1154175E-2,-2.951622E-3,-1.2529373E-2,-1.8655777E-2,-5.1174164E-3,-9.16748E-3,1.0108948E-3,-9.37144E-3,1.18255615E-4,-1.5449524E-2,3.7268267E-4],"categories":[],"categories_nodes":[],"categories_segments":[],"categories_sizes":[],"default_left":[1,1,1,1,1,1,1,1,1,1,1,1,0,1,1,1,1,1,1,0,0,0,0,1,1,1,0,1,1,1,0,0,1,1,1,0,1,0,1,0,0,0,1,1,0,0,1,0,0,0,0,0,0,0,0,0,0,0,0,0,0,0,0,0,0],"id":83,"left_children":[1,3,5,7,9,11,13,15,17,19,21,23,-1,25,27,29,31,33,35,-1,-1,-1,-1,37,39,41,-1,43,45,47,-1,-1,49,51,53,-1,55,-1,57,-1,-1,-1,59,61,-1,-1,63,-1,-1,-1,-1,-1,-1,-1,-1,-1,-1,-1,-1,-1,-1,-1,-1,-1,-1],"loss_changes":[5.004287E-4,3.3518523E-3,5.4020495E-3,1.3666891E-3,1.0284542E-3,4.0022247E-3,2.333771E-3,2.1612262E-3,3.0559748E-3,4.154439E-4,3.9284114E-5,8.2675647E-4,0E0,2.2299092E-3,2.2413805E-3,1.5004645E-3,7.920908E-4,6.328663E-4,2.1350652E-4,0E0,0E0,0E0,0E0,3.701658E-5,9.466338E-5,1.3674321E-3,0E0,7.685416E-4,1.800407E-3,1.3328668E-3,0E0,0E0,7.374028E-5,9.354645E-5,1.4951266E-4,0E0,1.770031E-5,0E0,4.353933E-6,0E0,0E0,0E0,1.0228934E-4,1.0939504E-4,0E0,0E0,1.4783216E-3,0E0,0E0,0E0,0E0,0E0,0E0,0E0,0E0,0E0,0E0,0E0,0E0,0E0,0E0,0E0,0E0,0E0,0E0],"parents":[2147483647,0,0,1,1,2,2,3,3,4,4,5,5,6,6,7,7,8,8,9,9,10,10,11,11,13,13,14,14,15,15,16,16,17,17,18,18,23,23,24,24,25,25,27,27,28,28,29,29,32,32,33,33,34,34,36,36,38,38,42,42,43,43,46,46],"right_children":[2,4,6,8,10,12,14,16,18,20,22,24,-1,26,28,30,32,34,36,-1,-1,-1,-1,38,40,42,-1,44,46,48,-1,-1,50,52,54,-1,56,-1,58,-1,-1,-1,60,62,-1,-1,64,-1,-1,-1,-1,-1,-1,-1,-1,-1,-1,-1,-1,-1,-1,-1,-1,-1,-1],"split_conditions":[3.716E1,3.8105003E1,3.7305E1,3.772E1,3.7269997E1,3.7755E1,3.634E1,3.7405E1,3.81E1,3.5065002E1,3.648E1,3.7365E1,-1.4173079E-2,3.7895E1,3.7155E1,3.6625E1,3.743E1,3.4125E1,3.7405E1,3.8534168E-3,9.60846E-3,-1.308632E-3,6.139756E-4,3.446E1,3.736E1,3.7410004E1,8.938523E-3,3.8025E1,3.522E1,3.5745E1,5.8557987E-3,-8.053637E-3,3.8205E1,3.742E1,3.768E1,7.9879764E-4,3.753E1,-1.1873245E-3,3.773E1,1.8630982E-3,-5.874634E-4,4.9850466E-3,4.061E1,3.8065002E1,-8.108426E-3,-7.3413854E-3,3.7325E1,1.4635784E-4,-3.5826368E-3,-1.9281389E-3,6.025315E-4,2.8121949E-3,-2.85244E-4,9.782696E-3,3.3462525E-3,-8.8548666E-4,-3.758812E-3,-5.596733E-3,-1.535225E-3,-2.7502442E-3,3.0326843E-4,-2.8114321E-3,3.5476685E-5,-4.634857E-3,1.118048E-4],"split_indices":[23,40,24,12,17,28,33,14,13,11,0,27,0,16,30,18,7,34,1,0,0,0,0,1,23,16,0,20,2,21,0,0,0,8,0,0,7,0,0,0,0,0,0,19,0,0,21,0,0,0,0,0,0,0,0,0,0,0,0,0,0,0,0,0,0],"split_type":[0,0,0,0,0,0,0,0,0,0,0,0,0,0,0,0,0,0,0,0,0,0,0,0,0,0,0,0,0,0,0,0,0,0,0,0,0,0,0,0,0,0,0,0,0,0,0,0,0,0,0,0,0,0,0,0,0,0,0,0,0,0,0,0,0],"sum_hessian":[6.58E2,2.47E2,4.11E2,2.37E2,1E1,1.2E1,3.99E2,2.24E2,1.3E1,8E0,2E0,9E0,3E0,1.2E1,3.87E2,2.18E2,6E0,8E0,5E0,5E0,3E0,1E0,1E0,5E0,4E0,8E0,4E0,7E0,3.8E2,2.15E2,3E0,3E0,3E0,3E0,5E0,1E0,4E0,1E0,4E0,2E0,2E0,3E0,5E0,4E0,3E0,2E0,3.78E2,2.07E2,8E0,2E0,1E0,2E0,1E0,3E0,2E0,1E0,3E0,3E0,1E0,4E0,1E0,2E0,2E0,5E0,3.73E2],"tree_param":{"num_deleted":"0","num_feature":"60","num_nodes":"65","size_leaf_vector":"0"}},{"base_weights":[9.525166E-6,2.7200574E-4,-2.5681043E-3,8.1299935E-5,1.9106546E-2,-1.41779585E-2,2.696228E-4,2.8512574E-4,-1.0747389E-2,-1.0051727E-3,2.3329925E-2,-3.6497116E-3,-1.728185E-2,9.177017E-3,-1.9094886E-3,1.0908249E-4,1.2946606E-2,-2.9073444E-3,-1.9573975E-2,-7.997513E-3,4.6539307E-4,1.4811707E-2,2.9519398E-3,-2.7641296E-2,-5.7516096E-4,3.3461943E-4,-8.363342E-3,-1.4686584E-3,2.7729034E-2,-5.6427E-3,2.620697E-3,-1.373291E-3,7.7349343E-3,-8.722941E-3,1.734376E-3,1.9010589E-4,2.724711E-2,-1.6201973E-2,-5.05352E-3,-2.5952656E-3,1.4750163E-4,-1.0852814E-3,-6.5107346E-3,-1.7712911E-3,-8.9645386E-5,8.354187E-3,-8.203189E-4],"categories":[],"categories_nodes":[],"categories_segments":[],"categories_sizes":[],"default_left":[1,1,1,1,1,1,1,1,1,0,0,1,0,1,1,1,1,1,0,0,0,0,1,0,1,1,1,1,0,1,0,1,0,0,1,0,0,0,0,0,0,0,0,0,0,0,0],"id":84,"left_children":[1,3,5,7,9,11,13,15,17,-1,-1,19,-1,21,23,25,27,29,-1,-1,-1,-1,31,-1,33,35,37,39,-1,41,-1,43,-1,-1,45,-1,-1,-1,-1,-1,-1,-1,-1,-1,-1,-1,-1],"loss_changes":[4.4656324E-4,2.1499686E-3,2.0135038E-3,1.3141214E-3,5.330872E-4,3.2906886E-4,9.880336E-4,1.3003052E-3,7.043007E-4,0E0,0E0,7.528861E-5,0E0,3.0704058E-4,1.3918228E-3,1.1053559E-3,1.7454652E-3,1.2063593E-4,0E0,0E0,0E0,0E0,1.3474765E-4,0E0,7.678328E-4,2.1844506E-3,3.0729012E-4,9.4866955E-6,0E0,1.2713994E-5,0E0,1.8847759E-6,0E0,0E0,5.480242E-4,0E0,0E0,0E0,0E0,0E0,0E0,0E0,0E0,0E0,0E0,0E0,0E0],"parents":[2147483647,0,0,1,1,2,2,3,3,4,4,5,5,6,6,7,7,8,8,11,11,13,13,14,14,15,15,16,16,17,17,22,22,24,24,25,25,26,26,27,27,29,29,31,31,34,34],"right_children":[2,4,6,8,10,12,14,16,18,-1,-1,20,-1,22,24,26,28,30,-1,-1,-1,-1,32,-1,34,36,38,40,-1,42,-1,44,-1,-1,46,-1,-1,-1,-1,-1,-1,-1,-1,-1,-1,-1,-1],"split_conditions":[4.7915E1,4.7435E1,4.834E1,4.6335E1,4.6215E1,4.0965E1,4.842E1,4.6585E1,4.6385002E1,-3.0155183E-4,6.9989776E-3,4.7045E1,-5.1845554E-3,4.18E1,4.7995003E1,4.5870003E1,4.6185E1,4.5955E1,-5.872193E-3,-2.399254E-3,1.3961793E-4,4.4435123E-3,4.9879997E1,-8.292389E-3,4.9655E1,4.5699997E1,4.571E1,4.2525E1,8.318711E-3,4.448E1,7.8620913E-4,4.998E1,2.3204803E-3,-2.6168826E-3,4.9295E1,5.7031768E-5,8.1741335E-3,-4.860592E-3,-1.5160561E-3,-7.7857974E-4,4.425049E-5,-3.2558443E-4,-1.9532205E-3,-5.3138734E-4,-2.6893616E-5,2.506256E-3,-2.4609567E-4],"split_indices":[11,21,14,20,4,59,25,41,24,0,0,0,0,58,20,41,36,25,0,0,0,0,1,0,2,41,42,2,0,0,0,0,0,0,32,0,0,0,0,0,0,0,0,0,0,0,0],"split_type":[0,0,0,0,0,0,0,0,0,0,0,0,0,0,0,0,0,0,0,0,0,0,0,0,0,0,0,0,0,0,0,0,0,0,0,0,0,0,0,0,0,0,0,0,0,0,0],"sum_hessian":[6.58E2,5.98E2,6E1,5.93E2,5E0,1.1E1,4.9E1,5.83E2,1E1,1E0,4E0,3E0,8E0,9E0,4E1,5.76E2,7E0,6E0,4E0,1E0,2E0,4E0,5E0,1E0,3.9E1,5.62E2,1.4E1,4E0,3E0,4E0,2E0,3E0,2E0,8E0,3.1E1,5.6E2,2E0,3E0,1.1E1,2E0,2E0,1E0,3E0,2E0,1E0,8E0,2.3E1],"tree_param":{"num_deleted":"0","num_feature":"60","num_nodes":"47","size_leaf_vector":"0"}},{"base_weights":[4.807445E-6,-6.030949E-4,1.1800639E-3,-5.988433E-5,-1.187172E-2,1.7780304E-2,-5.64069E-6,-3.7353722E-4,1.5983105E-2,-1.9447327E-2,-3.9055564E-3,8.569081E-3,4.0968895E-2,-1.7962646E-2,8.8334794E-4,2.4467922E-4,-1.0300954E-2,-1.039505E-3,1.8563407E-2,-7.2927475E-3,-2.3614611E-2,4.555702E-3,-1.9851685E-2,9.4562105E-4,2.3579597E-2,1.2189865E-2,4.6498615E-2,5.7458878E-3,-2.8944287E-2,1.2214436E-2,-1.5703838E-4,-3.4518345E-4,1.1656511E-2,-2.588749E-2,4.878998E-3,2.015686E-2,4.501343E-3,-2.5113423E-3,7.329941E-3,-2.5787354E-3,5.9957504E-3,7.356008E-3,4.5776367E-4,-3.2482147E-3,-3.2685596E-2,3.214942E-3,1.9856771E-2,1.7629242E-2,-6.448096E-4,9.996597E-6,-3.2669067E-2,-1.9786835E-3,2.4126053E-2,-1.2852805E-2,-3.678004E-2,-1.3540268E-2,1.1758804E-2,-4.901886E-4,-3.276825E-3,2.0809174E-3,7.963562E-3,2.813975E-3,-5.9785843E-3,-5.0443015E-3,6.2953406E-3,2.9358864E-2,1.0212581E-2,-2.7694702E-3,3.215154E-2,-2.5910378E-2,-7.6613615E-5],"categories":[],"categories_nodes":[],"categories_segments":[],"categories_sizes":[],"default_left":[1,1,1,1,1,1,1,1,1,1,1,1,1,1,1,1,1,0,1,0,0,1,0,1,0,0,0,1,1,1,1,1,1,1,1,0,0,1,1,1,0,0,0,0,0,1,1,1,1,0,0,0,0,0,0,0,0,0,0,0,0,0,0,0,0,0,0,0,0,0,0],"id":85,"left_children":[1,3,5,7,9,11,13,15,17,19,21,23,25,27,29,31,33,-1,35,-1,-1,37,-1,39,-1,-1,-1,41,43,45,47,49,51,53,55,-1,-1,57,59,61,-1,-1,-1,-1,-1,63,65,67,69,-1,-1,-1,-1,-1,-1,-1,-1,-1,-1,-1,-1,-1,-1,-1,-1,-1,-1,-1,-1,-1,-1],"loss_changes":[4.715284E-4,2.6620266E-3,4.428771E-3,2.099253E-3,1.1310177E-3,2.8528632E-3,3.384181E-3,2.512673E-3,3.7068455E-4,3.3430057E-4,1.5746058E-3,1.3508876E-3,6.9748145E-5,2.7698972E-3,2.3832375E-3,2.6023493E-3,5.8047734E-3,0E0,6.611785E-5,0E0,0E0,1.7525334E-4,0E0,1.7564755E-4,0E0,0E0,0E0,3.0690746E-5,5.6678895E-4,1.105373E-3,1.6250357E-3,4.2252606E-3,3.2782056E-3,1.2310445E-3,1.80659E-3,0E0,0E0,3.0352112E-6,3.383815E-6,1.2682998E-4,0E0,0E0,0E0,0E0,0E0,2.607314E-4,5.249302E-4,1.5702238E-3,2.6107696E-3,0E0,0E0,0E0,0E0,0E0,0E0,0E0,0E0,0E0,0E0,0E0,0E0,0E0,0E0,0E0,0E0,0E0,0E0,0E0,0E0,0E0,0E0],"parents":[2147483647,0,0,1,1,2,2,3,3,4,4,5,5,6,6,7,7,8,8,9,9,10,10,11,11,12,12,13,13,14,14,15,15,16,16,18,18,21,21,23,23,27,27,28,28,29,29,30,30,31,31,32,32,33,33,34,34,37,37,38,38,39,39,45,45,46,46,47,47,48,48],"right_children":[2,4,6,8,10,12,14,16,18,20,22,24,26,28,30,32,34,-1,36,-1,-1,38,-1,40,-1,-1,-1,42,44,46,48,50,52,54,56,-1,-1,58,60,62,-1,-1,-1,-1,-1,64,66,68,70,-1,-1,-1,-1,-1,-1,-1,-1,-1,-1,-1,-1,-1,-1,-1,-1,-1,-1,-1,-1,-1,-1],"split_conditions":[4.0825E1,4.0989998E1,4.0485E1,4.1050003E1,4.0395E1,4.0765E1,4.0735E1,4.116E1,4.011E1,3.9195E1,4.1725E1,4.1225E1,3.889E1,4.1335E1,4.1309998E1,4.0449997E1,4.214E1,-3.118515E-4,4.3915E1,-2.1878243E-3,-7.0843836E-3,4.082E1,-5.9555057E-3,4.0989998E1,7.0738797E-3,3.6569596E-3,1.3949585E-2,4.146E1,3.9625E1,4.1510002E1,3.9059998E1,4.0325E1,3.7305E1,3.8555E1,3.92E1,6.0470584E-3,1.3504028E-3,4.0125E1,4.0835E1,3.9445E1,1.7987252E-3,2.2068026E-3,1.373291E-4,-9.7446446E-4,-9.805679E-3,4.043E1,4.1405E1,4.388E1,3.9059998E1,2.9989794E-6,-9.800721E-3,-5.936051E-4,7.237816E-3,-3.8558415E-3,-1.1034013E-2,-4.0620808E-3,3.5276415E-3,-1.4705659E-4,-9.830475E-4,6.2427524E-4,2.3890687E-3,8.441926E-4,-1.7935754E-3,-1.5132906E-3,1.8886023E-3,8.807659E-3,3.0637744E-3,-8.308411E-4,9.645462E-3,-7.7731134E-3,-2.2984086E-5],"split_indices":[20,17,15,16,35,13,13,6,14,22,29,3,3,25,12,7,7,0,0,0,0,1,0,26,0,0,0,6,7,23,34,7,38,51,44,0,0,0,0,11,0,0,0,0,0,18,20,20,35,0,0,0,0,0,0,0,0,0,0,0,0,0,0,0,0,0,0,0,0,0,0],"split_type":[0,0,0,0,0,0,0,0,0,0,0,0,0,0,0,0,0,0,0,0,0,0,0,0,0,0,0,0,0,0,0,0,0,0,0,0,0,0,0,0,0,0,0,0,0,0,0,0,0,0,0,0,0,0,0,0,0,0,0,0,0,0,0,0,0,0,0,0,0,0,0],"sum_hessian":[6.58E2,4.34E2,2.24E2,4.15E2,1.9E1,1.4E1,2.1E2,4.08E2,7E0,9E0,1E1,1.1E1,3E0,9E0,2.01E2,3.85E2,2.3E1,1E0,6E0,3E0,6E0,7E0,3E0,8E0,3E0,1E0,2E0,3E0,6E0,1.6E1,1.85E2,3.67E2,1.8E1,1.1E1,1.2E1,5E0,1E0,2E0,5E0,5E0,3E0,2E0,1E0,1E0,5E0,8E0,8E0,4E0,1.81E2,3.64E2,3E0,9E0,9E0,6E0,5E0,3E0,9E0,1E0,1E0,1E0,4E0,2E0,3E0,2E0,6E0,3E0,5E0,2E0,2E0,3E0,1.78E2],"tree_param":{"num_deleted":"0","num_feature":"60","num_nodes":"71","size_leaf_vector":"0"}},{"base_weights":[1.13254255E-5,5.235905E-4,-1.0941428E-3,1.7241832E-4,2.6540121E-2,-2.6950836E-2,-5.867597E-4,4.9197837E-4,-1.5398662E-2,1.019001E-2,3.949356E-2,-1.8532889E-2,4.4288634E-5,3.1824288E-4,2.5577545E-2,1.0007223E-3,-2.022716E-2,1.1586507E-2,3.0002594E-3,-3.03154E-2,-2.117157E-3,-1.4589583E-2,5.720866E-4,-4.6700734E-5,1.13220215E-2,3.0340195E-2,8.026123E-3,3.5095215E-3,-2.008438E-3,-2.5348663E-2,-1.0048866E-2,5.51033E-3,-6.4964294E-3,-2.0463943E-2,-5.0678253E-3,5.1330565E-3,-4.292011E-4,4.1187071E-4,-1.2547302E-2,2.4087524E-2,3.8070679E-3,-1.0070801E-3,-6.085714E-3,1.6037867E-3,1.3795853E-2,-1.0120392E-2,8.7053E-4],"categories":[],"categories_nodes":[],"categories_segments":[],"categories_sizes":[],"default_left":[1,1,1,1,1,0,1,1,1,1,0,1,1,1,1,1,1,0,0,0,1,1,1,1,1,0,0,0,0,0,0,0,0,0,1,1,1,0,0,0,0,0,0,0,0,0,0],"id":86,"left_children":[1,3,5,7,9,-1,11,13,15,17,-1,19,21,23,25,27,29,-1,-1,-1,31,33,35,37,39,-1,-1,-1,-1,-1,-1,-1,-1,-1,41,43,45,-1,-1,-1,-1,-1,-1,-1,-1,-1,-1],"loss_changes":[3.737598E-4,4.115886E-3,2.7261092E-3,2.2268249E-3,8.683014E-4,0E0,2.3337451E-3,1.9007752E-3,7.329015E-4,5.3993426E-6,0E0,1.2897472E-3,1.5530919E-3,1.7513996E-3,7.2596595E-6,2.9696794E-5,1.10171735E-4,0E0,0E0,0E0,1.6940886E-4,2.87832E-4,8.881707E-4,2.429981E-3,1.2513474E-3,0E0,0E0,0E0,0E0,0E0,0E0,0E0,0E0,0E0,1.0404743E-5,1.0479415E-3,2.0241607E-3,0E0,0E0,0E0,0E0,0E0,0E0,0E0,0E0,0E0,0E0],"parents":[2147483647,0,0,1,1,2,2,3,3,4,4,6,6,7,7,8,8,9,9,11,11,12,12,13,13,14,14,15,15,16,16,20,20,21,21,22,22,23,23,24,24,34,34,35,35,36,36],"right_children":[2,4,6,8,10,-1,12,14,16,18,-1,20,22,24,26,28,30,-1,-1,-1,32,34,36,38,40,-1,-1,-1,-1,-1,-1,-1,-1,-1,42,44,46,-1,-1,-1,-1,-1,-1,-1,-1,-1,-1],"split_conditions":[4.0855E1,4.0725E1,3.872E1,4.059E1,4.609E1,-8.085251E-3,4.1015E1,4.092E1,3.9725E1,4.304E1,1.1848069E-2,4.1005E1,4.014E1,4.133E1,3.954E1,4.467E1,4.129E1,3.4759522E-3,9.0007787E-4,-9.09462E-3,4.019E1,4.1985E1,4.1309998E1,4.1074997E1,4.197E1,9.102059E-3,2.407837E-3,1.0528564E-3,-6.025315E-4,-7.6045995E-3,-3.01466E-3,1.6530991E-3,-1.9489289E-3,-6.1391834E-3,3.9955E1,4.1055E1,4.1864998E1,1.2356121E-4,-3.7641907E-3,7.2262576E-3,1.1421205E-3,-3.0212404E-4,-1.8257143E-3,4.8113603E-4,4.138756E-3,-3.0361176E-3,2.6115903E-4],"split_indices":[47,47,37,47,0,0,47,46,51,0,0,46,51,40,0,0,32,0,0,0,32,43,54,37,29,0,0,0,0,0,0,0,0,0,23,54,53,0,0,0,0,0,0,0,0,0,0],"split_type":[0,0,0,0,0,0,0,0,0,0,0,0,0,0,0,0,0,0,0,0,0,0,0,0,0,0,0,0,0,0,0,0,0,0,0,0,0,0,0,0,0,0,0,0,0,0,0],"sum_hessian":[6.58E2,4.5E2,2.08E2,4.45E2,5E0,3E0,2.05E2,4.37E2,8E0,3E0,2E0,6E0,1.99E2,4.35E2,2E0,2E0,6E0,2E0,1E0,3E0,3E0,6E0,1.93E2,4.22E2,1.3E1,1E0,1E0,1E0,1E0,3E0,3E0,1E0,2E0,3E0,3E0,3.4E1,1.59E2,4.08E2,1.4E1,4E0,9E0,1E0,2E0,2.5E1,9E0,1.8E1,1.41E2],"tree_param":{"num_deleted":"0","num_feature":"60","num_nodes":"47","size_leaf_vector":"0"}},{"base_weights":[6.5353465E-6,-2.644979E-3,2.3329885E-4,-4.8051562E-4,-1.0668841E-2,1.4174144E-2,9.419709E-5,-2.0311018E-3,5.4306453E-3,2.670765E-3,-1.600504E-2,-2.3905437E-3,2.3054123E-2,1.1022568E-2,-1.560964E-5,7.240295E-5,-7.086754E-3,7.840395E-3,-6.9236755E-3,-2.6569366E-3,5.332311E-3,-8.114624E-3,-2.1866798E-2,-4.2037964E-3,6.1798096E-4,1.670742E-2,-2.3142497E-4,-3.809293E-3,1.8443626E-4,-2.24887E-3,5.2862167E-3,-1.1951828E-2,-1.8513998E-3,2.1629333E-3,9.372394E-3,-2.120018E-3,1.7728806E-3,-9.734344E-4,-1.4990489E-2,4.9386024E-3,-1.3641472E-4,6.595958E-4,-5.966902E-3,7.6648714E-3,9.913445E-4,-3.7892659E-3,6.484985E-5,5.341053E-3,-3.7257937E-3,-5.4860115E-3,-2.2666296E-2,1.5415981E-3,1.6635418E-2,-4.3066926E-3,1.8271402E-4],"categories":[],"categories_nodes":[],"categories_segments":[],"categories_sizes":[],"default_left":[1,1,1,1,1,1,1,1,1,1,1,1,0,1,1,1,1,1,0,0,0,0,0,0,0,0,1,1,1,1,1,0,1,0,0,0,0,1,1,1,1,0,0,0,0,0,0,0,0,0,0,0,0,0,0],"id":87,"left_children":[1,3,5,7,9,11,13,15,17,19,21,23,-1,25,27,29,31,33,-1,-1,-1,-1,-1,-1,-1,-1,35,37,39,41,43,-1,45,-1,-1,-1,-1,47,49,51,53,-1,-1,-1,-1,-1,-1,-1,-1,-1,-1,-1,-1,-1,-1],"loss_changes":[3.9685183E-4,8.97976E-4,1.177696E-3,3.9599233E-4,8.2575646E-4,9.376763E-4,7.237772E-4,3.6208914E-4,3.2222175E-4,7.0887305E-5,1.9257283E-4,1.8963512E-5,0E0,3.8773025E-4,4.5453123E-4,3.1445513E-4,2.3257628E-4,4.9311027E-5,0E0,0E0,0E0,0E0,0E0,0E0,0E0,0E0,1.5114491E-5,9.3665643E-4,8.686143E-4,1.9858358E-4,7.412961E-5,0E0,2.2526345E-5,0E0,0E0,0E0,0E0,4.543931E-4,3.1337969E-4,1.4047837E-3,7.1146374E-4,0E0,0E0,0E0,0E0,0E0,0E0,0E0,0E0,0E0,0E0,0E0,0E0,0E0,0E0],"parents":[2147483647,0,0,1,1,2,2,3,3,4,4,5,5,6,6,7,7,8,8,9,9,10,10,11,11,13,13,14,14,15,15,16,16,17,17,26,26,27,27,28,28,29,29,30,30,32,32,37,37,38,38,39,39,40,40],"right_children":[2,4,6,8,10,12,14,16,18,20,22,24,-1,26,28,30,32,34,-1,-1,-1,-1,-1,-1,-1,-1,36,38,40,42,44,-1,46,-1,-1,-1,-1,48,50,52,54,-1,-1,-1,-1,-1,-1,-1,-1,-1,-1,-1,-1,-1,-1],"split_conditions":[2.9795E1,3.0955E1,3.0055E1,3.001E1,2.8195E1,2.9365E1,2.851E1,2.948E1,3.1189999E1,3.222E1,3.0295E1,2.981E1,6.916237E-3,3.2559998E1,3.13E1,3.095E1,2.936E1,2.986E1,-2.0771027E-3,-7.9708104E-4,1.5996934E-3,-2.4343873E-3,-6.5600397E-3,-1.2611389E-3,1.853943E-4,5.0122263E-3,3.2035E1,3.1869999E1,3.246E1,2.923E1,3.396E1,-3.5855486E-3,2.892E1,6.4888E-4,2.8117183E-3,-6.360054E-4,5.318642E-4,2.9905E1,3.136E1,3.309E1,3.4135002E1,1.9787876E-4,-1.7900706E-3,2.2994615E-3,2.9740334E-4,-1.1367798E-3,1.9454958E-5,1.6023159E-3,-1.1177382E-3,-1.6458036E-3,-6.7998893E-3,4.6247945E-4,4.9906257E-3,-1.2920079E-3,5.481421E-5],"split_indices":[17,8,17,12,31,14,23,13,9,0,12,0,0,6,17,47,25,2,0,0,0,0,0,0,0,0,0,6,20,48,29,0,3,0,0,0,0,2,18,44,14,0,0,0,0,0,0,0,0,0,0,0,0,0,0],"split_type":[0,0,0,0,0,0,0,0,0,0,0,0,0,0,0,0,0,0,0,0,0,0,0,0,0,0,0,0,0,0,0,0,0,0,0,0,0,0,0,0,0,0,0,0,0,0,0,0,0,0,0,0,0,0,0],"sum_hessian":[6.58E2,5.1E1,6.07E2,4.1E1,1E1,5E0,6.02E2,3.3E1,8E0,3E0,7E0,2E0,3E0,5E0,5.97E2,2.4E1,9E0,7E0,1E0,1E0,2E0,4E0,3E0,1E0,1E0,3E0,2E0,2.9E1,5.68E2,1.7E1,7E0,4E0,5E0,2E0,5E0,1E0,1E0,2.4E1,5E0,3.5E1,5.33E2,1E1,7E0,4E0,3E0,2E0,3E0,7E0,1.7E1,3E0,2E0,2.8E1,7E0,3.7E1,4.96E2],"tree_param":{"num_deleted":"0","num_feature":"60","num_nodes":"55","size_leaf_vector":"0"}},{"base_weights":[2.9811366E-7,2.9431522E-4,-1.9108165E-3,4.4379005E-5,1.1954308E-2,-1.1609077E-2,-3.7458347E-4,-5.038609E-4,1.9029081E-3,2.0256042E-2,5.271435E-3,5.2579246E-3,-1.550827E-2,1.3716698E-2,-1.9796644E-3,-9.559048E-5,-1.116395E-2,1.0652133E-2,-5.414604E-4,9.263992E-3,1.0231019E-3,-3.9463043E-3,-1.989964E-2,-9.147644E-4,2.857685E-2,-3.5857449E-3,3.2384535E-3,3.707151E-4,-4.4037425E-3,2.7685165E-3,-1.4592097E-2,1.3346195E-2,-4.40979E-3,-1.17925005E-2,1.4045979E-3,2.1209717E-3,-1.6841888E-3,4.011154E-3,-3.1490326E-3,-2.3947323E-3,-1.7874718E-2,8.870125E-3,-1.5907288E-3,-2.816554E-4,8.886125E-3,-2.0926476E-2,-2.5486194E-3,5.297343E-3,-2.4089813E-3,-1.7853547E-2,-2.790451E-3,1.429081E-3,1.816918E-2,1.074473E-3,-8.424123E-3,-2.9930114E-3,-2.4492899E-2,5.6454916E-3,-2.8682188E-3,-6.73137E-3,-2.1994454E-4,-2.0614624E-2,-4.8274994E-3,8.392334E-4,9.897505E-3,1.0662079E-3,-4.460907E-3],"categories":[],"categories_nodes":[],"categories_segments":[],"categories_sizes":[],"default_left":[1,1,1,1,1,1,1,1,1,0,1,0,1,1,1,1,1,1,1,0,1,0,0,1,0,1,1,1,1,1,1,1,1,1,1,0,0,0,0,1,1,1,1,0,0,0,0,0,0,0,0,0,0,0,0,0,0,0,0,0,0,0,0,0,0,0,0],"id":88,"left_children":[1,3,5,7,9,11,13,15,17,-1,19,-1,21,23,25,27,29,31,33,-1,35,-1,-1,37,-1,39,41,43,45,47,49,51,53,55,57,-1,-1,-1,-1,59,61,63,65,-1,-1,-1,-1,-1,-1,-1,-1,-1,-1,-1,-1,-1,-1,-1,-1,-1,-1,-1,-1,-1,-1,-1,-1],"loss_changes":[3.7085474E-4,1.666423E-3,1.3067449E-3,5.7257275E-4,5.589747E-4,8.7075355E-4,1.7687134E-3,1.887787E-3,2.743218E-3,0E0,1.2621569E-4,0E0,4.2919884E-4,1.7655473E-3,5.982625E-4,8.4336806E-4,8.0459914E-4,1.1950315E-3,2.2279767E-3,0E0,1.843338E-5,0E0,0E0,6.7660374E-5,0E0,8.761855E-4,4.7644821E-4,2.1079248E-3,1.2033863E-3,6.513318E-5,4.5055663E-4,1.3534599E-3,1.1912978E-4,1.6030478E-3,1.5926815E-3,0E0,0E0,0E0,9.7959855E-8,4.7951404E-4,4.3475535E-5,5.7699915E-5,8.1015074E-5,0E0,0E0,0E0,0E0,0E0,0E0,0E0,0E0,0E0,0E0,0E0,0E0,0E0,0E0,0E0,0E0,0E0,0E0,0E0,0E0,0E0,0E0,0E0,0E0],"parents":[2147483647,0,0,1,1,2,2,3,3,4,4,5,5,6,6,7,7,8,8,10,10,12,12,13,13,14,14,15,15,16,16,17,17,18,18,20,20,23,23,25,25,26,26,27,27,28,28,29,29,30,30,31,31,32,32,33,33,34,34,39,39,40,40,41,41,42,42],"right_children":[2,4,6,8,10,12,14,16,18,-1,20,-1,22,24,26,28,30,32,34,-1,36,-1,-1,38,-1,40,42,44,46,48,50,52,54,56,58,-1,-1,-1,-1,60,62,64,66,-1,-1,-1,-1,-1,-1,-1,-1,-1,-1,-1,-1,-1,-1,-1,-1,-1,-1,-1,-1,-1,-1,-1,-1],"split_conditions":[4.461E1,4.4614998E1,4.25E1,4.0825E1,4.4835E1,4.1985E1,4.416E1,4.0675E1,4.1239998E1,6.076813E-3,4.3824997E1,1.5773774E-3,4.142E1,4.5975E1,4.9760002E1,4.0675E1,4E1,4.2195E1,4.1775E1,2.7791979E-3,4.9965E1,-1.1838913E-3,-5.9698923E-3,4.1065002E1,8.573055E-3,4.975E1,4.961E1,4.018E1,3.872E1,3.983E1,4.427E1,4.03E1,4.1235E1,4.1545E1,4.2455E1,6.362915E-4,-5.052567E-4,1.2033463E-3,-9.447098E-4,4.589E1,5.327E1,5.0085E1,4.946E1,-8.449663E-5,2.6658375E-3,-6.277943E-3,-7.6458586E-4,1.5892029E-3,-7.2269444E-4,-5.356064E-3,-8.3713536E-4,4.287243E-4,5.450754E-3,3.2234192E-4,-2.527237E-3,-8.9790346E-4,-7.34787E-3,1.6936476E-3,-8.604657E-4,-2.0194112E-3,-6.598337E-5,-6.1843875E-3,-1.4482499E-3,2.5177002E-4,2.9692517E-3,3.198624E-4,-1.3382721E-3],"split_indices":[54,51,22,20,50,29,21,19,19,0,58,0,3,50,31,47,10,25,19,0,3,0,0,0,0,32,43,53,37,0,5,22,0,19,31,0,0,0,0,52,0,0,49,0,0,0,0,0,0,0,0,0,0,0,0,0,0,0,0,0,0,0,0,0,0,0,0],"split_type":[0,0,0,0,0,0,0,0,0,0,0,0,0,0,0,0,0,0,0,0,0,0,0,0,0,0,0,0,0,0,0,0,0,0,0,0,0,0,0,0,0,0,0,0,0,0,0,0,0,0,0,0,0,0,0,0,0,0,0,0,0,0,0,0,0,0,0],"sum_hessian":[6.58E2,5.71E2,8.7E1,5.6E2,1.1E1,1.1E1,7.6E1,4.33E2,1.27E2,4E0,7E0,2E0,9E0,7E0,6.9E1,4.18E2,1.5E1,2.7E1,1E2,3E0,4E0,3E0,6E0,4E0,3E0,5.3E1,1.6E1,3.78E2,4E1,3E0,1.2E1,2.3E1,4E0,1.4E1,8.6E1,3E0,1E0,1E0,3E0,5E1,3E0,7E0,9E0,3.52E2,2.6E1,3E0,3.7E1,2E0,1E0,9E0,3E0,7E0,1.6E1,2E0,2E0,9E0,5E0,4.3E1,4.3E1,1.6E1,3.4E1,2E0,1E0,1E0,6E0,5E0,4E0],"tree_param":{"num_deleted":"0","num_feature":"60","num_nodes":"67","size_leaf_vector":"0"}},{"base_weights":[-1.3582985E-5,-4.777488E-4,1.0094504E-3,3.7999227E-4,-5.2692024E-3,7.903807E-3,-2.1063197E-4,-2.0551682E-4,7.091645E-3,-1.1554846E-2,-4.2324065E-4,1.4693022E-2,6.2060356E-4,-1.5544891E-2,5.4962333E-5,1.9152088E-4,-1.3962174E-2,1.2908936E-2,-1.9560594E-3,-8.643286E-3,-3.4877777E-2,1.9691468E-3,-1.4308293E-2,3.0579567E-3,2.3402743E-2,-1.0004997E-2,3.8422805E-3,8.714888E-3,-4.148828E-4,-3.2546555E-5,2.5895437E-2,3.059387E-4,-2.3525238E-2,-7.1725845E-3,1.7122507E-2,7.7959695E-3,-4.43788E-3,-1.2187437E-2,3.7302289E-3,3.241595E-3,-2.0647049E-2,6.790161E-4,-1.744156E-2,-7.8519183E-4,9.724935E-3,2.9568264E-2,1.2156168E-3,1.2458801E-2,1.143022E-3,-9.680748E-3,1.9526163E-2,-1.4614105E-2,-1.5261114E-4,4.73844E-4,-1.2038912E-2,1.1646271E-2,-5.440712E-3,-1.0513306E-2,1.4247894E-3,5.5801393E-3,2.0504951E-2,-1.0128657E-2,1.9925435E-3,-5.863444E-3,-2.2521496E-2,8.41217E-3,-5.3164163E-3,6.2437057E-3,-9.773255E-4,9.101868E-4,-4.6310425E-3,-2.0046234E-3,3.8280487E-3,-3.3302307E-3,3.2367706E-3,7.0851645E-3,2.3975372E-2,4.6585486E-3,-7.7767565E-4],"categories":[],"categories_nodes":[],"categories_segments":[],"categories_sizes":[],"default_left":[1,1,1,1,1,1,1,1,1,1,1,1,1,0,1,1,1,1,1,1,0,1,1,1,1,0,1,1,1,1,0,1,0,1,1,0,1,1,1,1,0,0,0,1,0,0,1,0,1,0,1,0,1,0,0,0,0,0,0,0,0,0,0,0,0,0,0,0,0,0,0,0,0,0,0,0,0,0,0],"id":89,"left_children":[1,3,5,7,9,11,13,15,17,19,21,23,25,-1,27,29,31,33,35,37,-1,39,41,43,45,-1,47,49,51,53,-1,55,-1,57,59,-1,61,63,65,67,-1,-1,-1,69,-1,-1,71,-1,73,-1,75,-1,77,-1,-1,-1,-1,-1,-1,-1,-1,-1,-1,-1,-1,-1,-1,-1,-1,-1,-1,-1,-1,-1,-1,-1,-1,-1,-1],"loss_changes":[3.134131E-4,1.8678635E-3,1.7344714E-3,1.5183347E-3,2.0968486E-3,1.5237457E-3,7.176482E-4,1.9471145E-3,1.6568773E-3,1.735724E-3,1.3569121E-3,1.5498463E-3,5.861581E-4,0E0,7.1159104E-4,1.9993584E-3,1.371666E-3,1.7304961E-3,3.492338E-4,1.2733629E-3,0E0,1.0741573E-3,2.935984E-4,2.1261345E-4,1.1952128E-3,0E0,2.8811613E-4,1.9789506E-3,6.159626E-4,2.1032735E-3,0E0,3.8920864E-4,0E0,1.2986496E-4,5.1024184E-4,0E0,4.2271696E-4,1.3057021E-3,3.4121366E-4,4.367348E-4,0E0,0E0,0E0,4.333615E-5,0E0,0E0,3.2911772E-5,0E0,1.13803726E-4,0E0,1.6224594E-4,0E0,4.9681764E-4,0E0,0E0,0E0,0E0,0E0,0E0,0E0,0E0,0E0,0E0,0E0,0E0,0E0,0E0,0E0,0E0,0E0,0E0,0E0,0E0,0E0,0E0,0E0,0E0,0E0,0E0],"parents":[2147483647,0,0,1,1,2,2,3,3,4,4,5,5,6,6,7,7,8,8,9,9,10,10,11,11,12,12,14,14,15,15,16,16,17,17,18,18,19,19,21,21,22,22,23,23,24,24,26,26,27,27,28,28,29,29,31,31,33,33,34,34,36,36,37,37,38,38,39,39,43,43,46,46,48,48,50,50,52,52],"right_children":[2,4,6,8,10,12,14,16,18,20,22,24,26,-1,28,30,32,34,36,38,-1,40,42,44,46,-1,48,50,52,54,-1,56,-1,58,60,-1,62,64,66,68,-1,-1,-1,70,-1,-1,72,-1,74,-1,76,-1,78,-1,-1,-1,-1,-1,-1,-1,-1,-1,-1,-1,-1,-1,-1,-1,-1,-1,-1,-1,-1,-1,-1,-1,-1,-1,-1],"split_conditions":[4.1095E1,3.9699997E1,4.1155E1,3.9239998E1,4.0315002E1,4.1805E1,4.089E1,4.016E1,3.9315002E1,4.0945E1,4.1805E1,4.0445E1,4.0355E1,-4.6634674E-3,4.1405E1,4.44E1,4.0695E1,3.866E1,3.718E1,4.0050003E1,-1.0463334E-2,4.189E1,3.8135002E1,4.1295E1,4.1245003E1,-3.0014992E-3,3.9745003E1,4.112E1,4.059E1,3.9105E1,7.7686314E-3,3.8985E1,-7.057572E-3,4.04E1,3.8870003E1,2.338791E-3,4.059E1,4.048E1,4.18E1,4.1155E1,-6.194115E-3,2.0370484E-4,-5.2324682E-3,4.1635002E1,2.9174804E-3,8.87048E-3,3.8355E1,3.7376406E-3,4.1835E1,-2.9042244E-3,4.155E1,-4.3842318E-3,4.1015E1,1.421532E-4,-3.6116736E-3,3.4938813E-3,-1.6322137E-3,-3.153992E-3,4.2743684E-4,1.6740419E-3,6.1514857E-3,-3.0385973E-3,5.9776305E-4,-1.7590333E-3,-6.756449E-3,2.523651E-3,-1.594925E-3,1.8731118E-3,-2.9319766E-4,2.7305604E-4,-1.3893128E-3,-6.0138706E-4,1.1484147E-3,-9.990693E-4,9.710312E-4,2.1255494E-3,7.192612E-3,1.3975647E-3,-2.3330271E-4],"split_indices":[33,37,38,35,40,25,36,30,38,39,30,38,55,0,35,10,15,14,5,40,0,34,2,1,39,0,39,52,40,33,0,5,0,0,37,0,22,36,7,54,0,0,0,0,0,0,0,0,33,0,13,0,46,0,0,0,0,0,0,0,0,0,0,0,0,0,0,0,0,0,0,0,0,0,0,0,0,0,0],"split_type":[0,0,0,0,0,0,0,0,0,0,0,0,0,0,0,0,0,0,0,0,0,0,0,0,0,0,0,0,0,0,0,0,0,0,0,0,0,0,0,0,0,0,0,0,0,0,0,0,0,0,0,0,0,0,0,0,0,0,0,0,0,0,0,0,0,0,0,0,0,0,0,0,0,0,0,0,0,0,0],"sum_hessian":[6.58E2,4.53E2,2.05E2,3.85E2,6.8E1,3E1,1.75E2,3.55E2,3E1,2.9E1,3.9E1,1.5E1,1.5E1,2E0,1.73E2,3.46E2,9E0,1.8E1,1.2E1,2.7E1,2E0,3.4E1,5E0,7E0,8E0,3E0,1.2E1,8E0,1.65E2,3.44E2,2E0,4E0,5E0,3E0,1.5E1,2E0,1E1,2.1E1,6E0,3.3E1,1E0,1E0,4E0,5E0,2E0,6E0,2E0,2E0,1E1,3E0,5E0,2E0,1.63E2,3.31E2,1.3E1,1E0,3E0,2E0,1E0,4E0,1.1E1,5E0,5E0,1.4E1,7E0,4E0,2E0,1.9E1,1.4E1,4E0,1E0,1E0,1E0,3E0,7E0,2E0,3E0,1.8E1,1.45E2],"tree_param":{"num_deleted":"0","num_feature":"60","num_nodes":"79","size_leaf_vector":"0"}},{"base_weights":[-2.9409059E-5,2.7627384E-3,-1.8101226E-4,7.469813E-4,1.4304733E-2,-3.2623291E-3,1.1558466E-4,-2.6205607E-4,9.915669E-3,7.133484E-4,1.7524242E-2,-1.5342189E-3,-2.0236587E-2,9.488297E-3,-5.109865E-5,4.783358E-3,-1.8555034E-3,-2.436797E-3,9.680271E-3,-5.540848E-3,-2.252531E-2,1.1772871E-2,2.3333232E-4,-4.5465827E-3,2.1940246E-4,9.154637E-3,1.2039185E-3,-1.030604E-3,-9.589195E-3,4.1741263E-3,-3.8633347E-3,5.1631927E-3,1.3115565E-2,7.5149536E-3,-5.6011835E-3,9.786352E-3,-5.8056306E-5,2.5558472E-3,-5.493164E-4,-2.737999E-3,4.7810873E-4,-4.462242E-3,9.236018E-3,-5.3382763E-3,3.8525718E-3,-8.300145E-4,-8.319754E-3,1.4158885E-2,-5.777836E-3,-9.93771E-3,1.16404364E-4],"categories":[],"categories_nodes":[],"categories_segments":[],"categories_sizes":[],"default_left":[1,1,1,1,1,1,1,1,0,0,0,1,1,1,1,1,1,1,0,0,0,1,0,1,1,0,1,1,0,1,1,0,0,0,1,1,1,0,0,0,0,0,0,0,0,0,0,0,0,0,0],"id":90,"left_children":[1,3,5,7,9,11,13,15,-1,-1,-1,17,19,21,23,25,27,29,-1,-1,-1,31,-1,33,35,-1,37,39,-1,41,43,-1,-1,-1,45,47,49,-1,-1,-1,-1,-1,-1,-1,-1,-1,-1,-1,-1,-1,-1],"loss_changes":[2.794538E-4,7.803539E-4,5.7248416E-4,2.8014497E-4,2.0628702E-4,1.5822891E-3,8.9410594E-4,2.3398438E-4,0E0,0E0,0E0,5.3980836E-4,4.3363078E-5,2.0868954E-4,6.856243E-4,9.850567E-5,1.3046674E-4,4.688012E-4,0E0,0E0,0E0,3.280118E-6,6.365305E-7,4.4913602E-4,1.4127268E-3,0E0,1.3255211E-5,5.54044E-5,0E0,4.346606E-4,4.757865E-4,0E0,0E0,0E0,3.8221735E-4,1.1026316E-3,8.939873E-4,0E0,0E0,0E0,0E0,0E0,0E0,0E0,0E0,0E0,0E0,0E0,0E0,0E0,0E0],"parents":[2147483647,0,0,1,1,2,2,3,3,4,4,5,5,6,6,7,7,11,11,12,12,13,13,14,14,15,15,16,16,17,17,21,21,23,23,24,24,26,26,27,27,29,29,30,30,34,34,35,35,36,36],"right_children":[2,4,6,8,10,12,14,16,-1,-1,-1,18,20,22,24,26,28,30,-1,-1,-1,32,-1,34,36,-1,38,40,-1,42,44,-1,-1,-1,46,48,50,-1,-1,-1,-1,-1,-1,-1,-1,-1,-1,-1,-1,-1,-1],"split_conditions":[2.8875E1,2.961E1,3.1065E1,3.077E1,2.924E1,3.1455E1,3.1224998E1,2.7564999E1,2.9747009E-3,2.1400453E-4,5.257273E-3,3.2010002E1,3.0529999E1,3.2004997E1,3.1724998E1,3.398E1,3.3805E1,2.9244999E1,2.9040815E-3,-1.6622544E-3,-6.7575932E-3,3.094E1,6.9999696E-5,2.667E1,3.2129997E1,2.7463913E-3,3.2875E1,2.9189999E1,-2.8767586E-3,2.9779999E1,3.0939999E1,1.5489579E-3,3.93467E-3,2.254486E-3,3.1605E1,3.4300003E1,3.1945E1,7.667542E-4,-1.6479492E-4,-8.2139974E-4,1.4343263E-4,-1.3386727E-3,2.7708055E-3,-1.601483E-3,1.1557715E-3,-2.4900437E-4,-2.4959263E-3,4.247666E-3,-1.7333508E-3,-2.9813133E-3,3.492131E-5],"split_indices":[46,48,39,54,0,37,40,55,0,0,0,30,18,35,52,6,18,52,0,0,0,40,0,59,50,0,20,58,0,46,40,0,0,0,43,36,42,0,0,0,0,0,0,0,0,0,0,0,0,0,0],"split_type":[0,0,0,0,0,0,0,0,0,0,0,0,0,0,0,0,0,0,0,0,0,0,0,0,0,0,0,0,0,0,0,0,0,0,0,0,0,0,0,0,0,0,0,0,0,0,0,0,0,0,0],"sum_hessian":[6.58E2,3.3E1,6.25E2,2.9E1,4E0,5.4E1,5.71E2,2.7E1,2E0,1E0,3E0,5E1,4E0,9E0,5.62E2,6E0,2.1E1,4.7E1,3E0,1E0,3E0,7E0,2E0,3.1E1,5.31E2,2E0,4E0,2E1,1E0,8E0,3.9E1,2E0,5E0,2E0,2.9E1,1.4E1,5.17E2,2E0,2E0,9E0,1.1E1,3E0,5E0,3.3E1,6E0,1.1E1,1.8E1,1.1E1,3E0,8E0,5.09E2],"tree_param":{"num_deleted":"0","num_feature":"60","num_nodes":"51","size_leaf_vector":"0"}},{"base_weights":[-7.4210043E-6,8.2106417E-4,-5.158375E-4,4.960696E-5,1.6181787E-2,-1.7731857E-2,-8.4147454E-5,4.302721E-4,-2.2517204E-2,2.9235205E-2,2.6814598E-3,-2.7512869E-2,-2.4482727E-3,1.4923096E-2,-2.3514197E-4,-2.837803E-5,1.3562679E-2,-2.6966095E-2,-4.585266E-3,8.4171295E-3,3.1715393E-2,-4.8775673E-3,9.570122E-3,-4.878998E-3,-3.7610054E-2,4.043579E-3,-5.0821304E-3,-6.3469536E-3,7.1875336E-5,8.296775E-4,-5.363524E-3,-1.0808309E-3,1.8623987E-2,-7.4415207E-3,-1.5424093E-3,1.5574864E-3,-1.0114963E-2,1.3568878E-2,-1.8161231E-4,1.6144125E-4,1.0378177E-2,-1.6518185E-2,-2.154057E-3,-3.818512E-3,2.1972656E-3,-4.808426E-3,5.0655366E-3,-2.0141602E-3,-1.4926195E-2,1.2817383E-3,1.8227387E-2,-4.3961783E-3,3.8088017E-4],"categories":[],"categories_nodes":[],"categories_segments":[],"categories_sizes":[],"default_left":[1,1,1,1,1,1,1,1,1,1,1,1,1,0,1,1,1,0,0,0,0,1,0,0,0,0,0,1,1,1,1,1,0,0,0,1,1,1,1,0,0,0,0,0,0,0,0,0,0,0,0,0,0],"id":91,"left_children":[1,3,5,7,9,11,13,15,17,19,21,23,25,-1,27,29,31,-1,-1,-1,-1,33,-1,-1,-1,-1,-1,35,37,39,41,43,-1,-1,-1,45,47,49,51,-1,-1,-1,-1,-1,-1,-1,-1,-1,-1,-1,-1,-1,-1],"loss_changes":[2.780046E-4,2.9735826E-3,3.0381898E-3,2.0713839E-3,2.0363117E-3,1.4275305E-3,9.099136E-4,1.4278785E-3,1.9546226E-4,4.2844098E-5,4.1118E-4,1.1877306E-3,1.06043066E-4,0E0,7.453997E-4,1.0573559E-3,6.1305205E-4,0E0,0E0,0E0,0E0,2.272689E-5,0E0,0E0,0E0,0E0,0E0,5.8165006E-4,1.2991459E-3,1.2680746E-3,1.1100355E-3,3.5313435E-5,0E0,0E0,0E0,1.8068083E-4,4.7660922E-4,3.7731545E-4,8.859313E-4,0E0,0E0,0E0,0E0,0E0,0E0,0E0,0E0,0E0,0E0,0E0,0E0,0E0,0E0],"parents":[2147483647,0,0,1,1,2,2,3,3,4,4,5,5,6,6,7,7,8,8,9,9,10,10,11,11,12,12,14,14,15,15,16,16,21,21,27,27,28,28,29,29,30,30,31,31,35,35,36,36,37,37,38,38],"right_children":[2,4,6,8,10,12,14,16,18,20,22,24,26,-1,28,30,32,-1,-1,-1,-1,34,-1,-1,-1,-1,-1,36,38,40,42,44,-1,-1,-1,46,48,50,52,-1,-1,-1,-1,-1,-1,-1,-1,-1,-1,-1,-1,-1,-1],"split_conditions":[3.7269997E1,3.723E1,3.7305E1,3.7955E1,3.7405E1,3.7934998E1,3.535E1,3.725E1,3.605E1,3.461E1,3.3805E1,3.4684998E1,3.8095E1,4.476929E-3,3.7755E1,3.5315002E1,3.507E1,-8.089829E-3,-1.3755799E-3,2.525139E-3,9.514619E-3,3.7545E1,2.8710365E-3,-1.4636994E-3,-1.1283017E-2,1.2130737E-3,-1.5246392E-3,3.7559998E1,3.7934998E1,3.5245003E1,3.536E1,3.4550003E1,5.5871964E-3,-2.2324563E-3,-4.6272282E-4,3.6735E1,3.728E1,3.722E1,3.9074997E1,4.8432375E-5,3.1134533E-3,-4.9554557E-3,-6.462171E-4,-1.1455537E-3,6.591797E-4,-1.4425279E-3,1.519661E-3,-6.042481E-4,-4.4778585E-3,3.845215E-4,5.4682163E-3,-1.3188536E-3,1.14264054E-4],"split_indices":[17,15,18,22,15,1,5,21,1,0,48,3,2,0,14,17,1,0,0,0,0,4,0,0,0,0,0,16,14,14,17,0,0,0,0,24,5,0,13,0,0,0,0,0,0,0,0,0,0,0,0,0,0],"split_type":[0,0,0,0,0,0,0,0,0,0,0,0,0,0,0,0,0,0,0,0,0,0,0,0,0,0,0,0,0,0,0,0,0,0,0,0,0,0,0,0,0,0,0,0,0,0,0,0,0,0,0,0,0],"sum_hessian":[6.58E2,2.5E2,4.08E2,2.39E2,1.1E1,9E0,3.99E2,2.36E2,3E0,5E0,6E0,5E0,4E0,3E0,3.96E2,2.29E2,7E0,2E0,1E0,1E0,4E0,3E0,3E0,2E0,3E0,1E0,3E0,1.8E1,3.78E2,1.98E2,3.1E1,2E0,5E0,1E0,2E0,6E0,1.2E1,6E0,3.72E2,1.86E2,1.2E1,6E0,2.5E1,1E0,1E0,2E0,4E0,5E0,7E0,2E0,4E0,4.3E1,3.29E2],"tree_param":{"num_deleted":"0","num_feature":"60","num_nodes":"53","size_leaf_vector":"0"}},{"base_weights":[-1.06510515E-5,8.478165E-3,-4.9396556E-5,-3.9298534E-3,4.7389593E-5,-3.4809113E-4,-1.1740113E-2,1.9913223E-3,-2.1325638E-4,-3.945487E-3,3.9068856E-3,-1.3442516E-2,-2.465248E-3,1.0667377E-3,1.4907074E-2,-7.215347E-3,1.0951624E-4,-5.0700507E-3,1.4009476E-3,-1.557668E-4,5.977154E-3,7.789612E-3,3.375429E-4,-9.17982E-3,1.0250728E-2,3.6289426E-3,-2.7856242E-4,8.211136E-4,-1.0547638E-3,-2.825737E-3,1.0029793E-2,-3.3680597E-4,6.0694558E-3,-2.8038025E-4,-1.1038629E-2,9.6797943E-4,1.4408112E-2,1.1522986E-3,1.3205615E-2,-1.969274E-2,-1.5864216E-4],"categories":[],"categories_nodes":[],"categories_segments":[],"categories_sizes":[],"default_left":[1,0,1,1,1,1,1,1,1,1,1,0,0,1,0,1,1,0,0,1,0,1,1,1,1,1,1,0,0,0,0,0,0,0,0,0,0,0,0,0,0],"id":92,"left_children":[1,-1,3,5,7,9,11,13,15,17,19,-1,-1,21,-1,23,25,-1,-1,27,-1,29,31,33,35,37,39,-1,-1,-1,-1,-1,-1,-1,-1,-1,-1,-1,-1,-1,-1],"loss_changes":[2.1716618E-4,0E0,2.4693864E-4,4.4350524E-4,3.2571208E-4,1.9909658E-4,4.580873E-5,8.916675E-4,1.2822573E-3,4.9189715E-5,5.139572E-5,0E0,0E0,3.5033518E-4,0E0,9.518907E-4,7.426481E-4,0E0,0E0,3.5007185E-6,0E0,1.9480364E-4,2.5715464E-4,3.7737924E-4,1.0182909E-4,1.2655556E-3,1.1376711E-3,0E0,0E0,0E0,0E0,0E0,0E0,0E0,0E0,0E0,0E0,0E0,0E0,0E0,0E0],"parents":[2147483647,0,0,2,2,3,3,4,4,5,5,6,6,7,7,8,8,9,9,10,10,13,13,15,15,16,16,19,19,21,21,22,22,23,23,24,24,25,25,26,26],"right_children":[2,-1,4,6,8,10,12,14,16,18,20,-1,-1,22,-1,24,26,-1,-1,28,-1,30,32,34,36,38,40,-1,-1,-1,-1,-1,-1,-1,-1,-1,-1,-1,-1,-1,-1],"split_conditions":[2.6380001E1,2.5434494E-3,2.8095001E1,2.8115E1,3.13E1,2.844E1,3.214E1,3.1215E1,3.1885E1,3.2864998E1,2.8615E1,-4.0327553E-3,-7.395745E-4,2.8380001E1,4.4721225E-3,3.4239998E1,3.4485E1,-1.5210153E-3,4.2028428E-4,3.1535E1,1.7931462E-3,2.789E1,3.377E1,3.0155E1,3.1825E1,3.4315002E1,3.454E1,2.463341E-4,-3.1642916E-4,-8.477211E-4,3.008938E-3,-1.010418E-4,1.8208368E-3,-8.411408E-5,-3.311589E-3,2.9039383E-4,4.322434E-3,3.456896E-4,3.9616846E-3,-5.907822E-3,-4.759265E-5],"split_indices":[39,0,27,26,23,22,1,23,23,0,21,0,0,36,0,9,7,0,0,0,0,1,46,14,0,6,7,0,0,0,0,0,0,0,0,0,0,0,0,0,0],"split_type":[0,0,0,0,0,0,0,0,0,0,0,0,0,0,0,0,0,0,0,0,0,0,0,0,0,0,0,0,0,0,0,0,0,0,0,0,0,0,0,0,0],"sum_hessian":[6.58E2,2E0,6.56E2,1.5E1,6.41E2,1.1E1,4E0,7.5E1,5.66E2,6E0,5E0,3E0,1E0,7.1E1,4E0,2.4E1,5.42E2,5E0,1E0,2E0,3E0,6E0,6.5E1,2.2E1,2E0,5.3E1,4.89E2,1E0,1E0,1E0,5E0,5.9E1,6E0,4E0,1.8E1,1E0,1E0,4.3E1,1E1,2E0,4.87E2],"tree_param":{"num_deleted":"0","num_feature":"60","num_nodes":"41","size_leaf_vector":"0"}},{"base_weights":[6.975281E-7,4.1399384E-4,-7.369609E-4,4.1984873E-5,1.2143355E-2,-1.3460922E-2,-1.7566011E-4,3.7137646E-4,-3.5072328E-3,-5.235672E-4,1.599579E-2,-2.1463394E-2,-1.1657715E-3,-1.223278E-2,3.94694E-5,-7.1475086E-5,4.3239594E-3,-7.825851E-3,2.1102428E-3,1.7714607E-2,2.632141E-4,-7.3890686E-3,-2.665329E-2,2.7656555E-3,-2.840042E-3,-1.7601013E-2,-4.576365E-3,9.316762E-3,-2.1372708E-4,3.22849E-4,-1.3116455E-2,2.0707449E-2,1.2141141E-3,2.8768268E-3,-1.2618201E-2,4.968203E-3,-7.7056885E-3,4.804611E-3,1.872778E-2,1.272583E-2,1.6657511E-3,-4.5277406E-3,3.3762018E-4,7.670682E-5,2.0425797E-2,-2.6839256E-2,-3.401075E-3,6.999016E-3,3.2082874E-2,-7.3276097E-3,4.24057E-3,6.31485E-3,-3.812154E-3,-2.0060403E-2,-4.5289993E-3,-2.74086E-3,7.555008E-3,2.3956299E-3,1.02996826E-4,-6.1182543E-3,5.3520203E-3,-6.270345E-3,8.8037766E-4],"categories":[],"categories_nodes":[],"categories_segments":[],"categories_sizes":[],"default_left":[1,1,1,1,1,1,1,1,1,0,1,1,1,1,1,1,1,1,1,1,0,0,0,0,0,0,0,1,1,1,1,1,1,1,1,1,0,0,0,0,1,1,1,0,0,0,0,0,0,0,0,0,0,0,0,0,0,0,0,0,0,0,0],"id":93,"left_children":[1,3,5,7,9,11,13,15,17,-1,19,21,23,25,27,29,31,33,35,37,-1,-1,-1,-1,-1,-1,-1,39,41,43,45,47,49,51,53,55,-1,-1,-1,-1,57,59,61,-1,-1,-1,-1,-1,-1,-1,-1,-1,-1,-1,-1,-1,-1,-1,-1,-1,-1,-1,-1],"loss_changes":[2.0121543E-4,1.8452201E-3,1.6902823E-3,4.8179537E-4,6.4275495E-4,9.588945E-4,5.9187895E-4,6.6021265E-4,8.6560525E-4,2.6382747E-7,2.657515E-4,2.4132268E-4,4.0765943E-5,8.385698E-5,5.3051126E-4,1.7531776E-3,1.9109631E-3,1.06212E-3,4.8714006E-4,2.774084E-5,0E0,0E0,0E0,0E0,0E0,0E0,0E0,1.3529882E-4,5.2480295E-4,1.636282E-3,1.2419402E-3,7.1108714E-4,8.841612E-4,1.8505128E-4,7.5196684E-4,2.7995117E-4,0E0,0E0,0E0,0E0,3.1751215E-6,4.255924E-4,7.084786E-4,0E0,0E0,0E0,0E0,0E0,0E0,0E0,0E0,0E0,0E0,0E0,0E0,0E0,0E0,0E0,0E0,0E0,0E0,0E0,0E0],"parents":[2147483647,0,0,1,1,2,2,3,3,4,4,5,5,6,6,7,7,8,8,10,10,11,11,12,12,13,13,14,14,15,15,16,16,17,17,18,18,19,19,27,27,28,28,29,29,30,30,31,31,32,32,33,33,34,34,35,35,40,40,41,41,42,42],"right_children":[2,4,6,8,10,12,14,16,18,-1,20,22,24,26,28,30,32,34,36,38,-1,-1,-1,-1,-1,-1,-1,40,42,44,46,48,50,52,54,56,-1,-1,-1,-1,58,60,62,-1,-1,-1,-1,-1,-1,-1,-1,-1,-1,-1,-1,-1,-1,-1,-1,-1,-1,-1,-1],"split_conditions":[4.0239998E1,4.0239998E1,4.0325E1,4.0825E1,3.8085E1,4.0074997E1,4.014E1,3.9379997E1,4.2455E1,-1.5707017E-4,4.3364998E1,3.934E1,3.715E1,4.159E1,4.048E1,3.9315002E1,3.8875E1,3.891E1,4.7480003E1,3.8995E1,7.8964236E-5,-2.2167207E-3,-7.995987E-3,8.296967E-4,-8.5201266E-4,-5.2803042E-3,-1.3729095E-3,4.6305E1,4.073E1,4.1295E1,3.9405E1,3.8515E1,3.943E1,4.0515E1,4.0379997E1,3.9550003E1,-2.3117065E-3,1.4413834E-3,5.618334E-3,3.8177492E-3,4.6465E1,4.5965E1,3.671E1,2.3012048E-5,6.1277393E-3,-8.051777E-3,-1.0203226E-3,2.099705E-3,9.624863E-3,-2.198283E-3,1.272171E-3,1.894455E-3,-1.1436463E-3,-6.0181213E-3,-1.3586999E-3,-8.22258E-4,2.2665025E-3,7.18689E-4,3.089905E-5,-1.8354764E-3,1.6056062E-3,-1.8811035E-3,2.641133E-4],"split_indices":[58,57,58,29,0,28,59,45,29,0,0,1,0,16,58,51,30,51,7,6,0,0,0,0,0,0,0,0,56,16,51,32,33,15,49,8,0,0,0,0,0,13,0,0,0,0,0,0,0,0,0,0,0,0,0,0,0,0,0,0,0,0,0],"split_type":[0,0,0,0,0,0,0,0,0,0,0,0,0,0,0,0,0,0,0,0,0,0,0,0,0,0,0,0,0,0,0,0,0,0,0,0,0,0,0,0,0,0,0,0,0,0,0,0,0,0,0,0,0,0,0,0,0,0,0,0,0,0,0],"sum_hessian":[6.58E2,4.22E2,2.36E2,4.1E2,1.2E1,9E0,2.27E2,3.76E2,3.4E1,3E0,9E0,5E0,4E0,3E0,2.24E2,3.39E2,3.7E1,1.9E1,1.5E1,8E0,1E0,2E0,3E0,1E0,3E0,1E0,2E0,5E0,2.19E2,3.3E2,9E0,5E0,3.2E1,6E0,1.3E1,1.2E1,3E0,1E0,7E0,3E0,2E0,2.4E1,1.95E2,3.27E2,3E0,3E0,6E0,3E0,2E0,8E0,2.4E1,4E0,2E0,6E0,7E0,3E0,9E0,1E0,1E0,2.1E1,3E0,1.4E1,1.81E2],"tree_param":{"num_deleted":"0","num_feature":"60","num_nodes":"63","size_leaf_vector":"0"}},{"base_weights":[-9.5078E-6,1.8533389E-4,-1.9577662E-3,-4.1264877E-5,1.9387381E-2,-4.978307E-3,1.0284916E-3,7.535649E-5,-9.8315645E-3,-1.8863678E-3,2.32474E-2,-3.7282747E-3,-2.0614624E-2,1.0009766E-2,-2.9127937E-4,-5.7011843E-5,5.934495E-3,-1.3388825E-2,-6.2561035E-4,6.713867E-3,2.5211334E-2,4.3418191E-4,-5.941893E-3,7.331848E-4,-6.621361E-3,1.4192362E-4,-9.418805E-3,1.33461E-2,1.1575487E-3,-3.8032532E-3,-1.4834404E-2,1.3828278E-3,-2.3212433E-3,-2.6516914E-3,6.497383E-3,-7.3834737E-3,-4.2877198E-4,4.586538E-3,-4.5948027E-4,-8.4660845E-3,-5.4359436E-4,-8.7532906E-5,3.5160913E-3,-4.7433036E-3,-1.3303757E-2,-3.7956238E-3,5.8792112E-3,-3.8401287E-3,-1.6155243E-3,-3.0593872E-3,-9.926266E-3,-2.064705E-3,3.0574799E-3,1.8412272E-3,5.498886E-3,4.0159225E-3,-1.485488E-3],"categories":[],"categories_nodes":[],"categories_segments":[],"categories_sizes":[],"default_left":[1,1,1,1,1,1,1,1,1,0,1,1,0,0,1,1,1,1,1,0,0,1,1,1,1,1,1,0,1,0,0,0,0,1,0,1,1,1,1,0,0,0,0,0,0,0,0,0,0,0,0,0,0,0,0,0,0],"id":94,"left_children":[1,3,5,7,9,11,13,15,17,-1,19,21,-1,-1,23,25,27,29,31,-1,-1,33,35,37,39,41,43,-1,45,-1,-1,-1,-1,47,-1,49,51,53,55,-1,-1,-1,-1,-1,-1,-1,-1,-1,-1,-1,-1,-1,-1,-1,-1,-1,-1],"loss_changes":[2.5052053E-4,2.611496E-3,5.46327E-4,6.789452E-4,6.186727E-4,5.0952006E-4,3.7036563E-4,4.563702E-4,2.208596E-4,0E0,2.5558984E-5,2.697885E-4,0E0,0E0,1.8643304E-4,1.074075E-3,4.4481413E-4,1.2864592E-5,1.3426601E-5,0E0,0E0,2.2304204E-4,1.4783873E-4,1.17001415E-4,4.0245097E-5,4.3774475E-4,1.5486532E-4,0E0,2.3280016E-4,0E0,0E0,0E0,0E0,3.6475358E-6,0E0,1.3456051E-4,3.4829165E-5,4.9033697E-6,9.780156E-5,0E0,0E0,0E0,0E0,0E0,0E0,0E0,0E0,0E0,0E0,0E0,0E0,0E0,0E0,0E0,0E0,0E0,0E0],"parents":[2147483647,0,0,1,1,2,2,3,3,4,4,5,5,6,6,7,7,8,8,10,10,11,11,14,14,15,15,16,16,17,17,18,18,21,21,22,22,23,23,24,24,25,25,26,26,28,28,33,33,35,35,36,36,37,37,38,38],"right_children":[2,4,6,8,10,12,14,16,18,-1,20,22,-1,-1,24,26,28,30,32,-1,-1,34,36,38,40,42,44,-1,46,-1,-1,-1,-1,48,-1,50,52,54,56,-1,-1,-1,-1,-1,-1,-1,-1,-1,-1,-1,-1,-1,-1,-1,-1,-1,-1],"split_conditions":[4.6205E1,4.6035E1,4.842E1,4.5915E1,4.2165E1,5.25E1,4.813E1,4.9035E1,4.632E1,-5.6591036E-4,4.267E1,4.6085E1,-6.1843875E-3,3.0029297E-3,4.9985E1,4.733E1,4.8415E1,4.1595E1,4.4510002E1,2.0141602E-3,7.5634005E-3,4.4625E1,4.9655E1,4.8115E1,5.2105003E1,4.4885E1,4.1440002E1,4.0038303E-3,4.8675E1,-1.140976E-3,-4.450321E-3,4.1484836E-4,-6.96373E-4,4.6364998E1,1.949215E-3,4.4605E1,5.1965E1,4.9989998E1,4.9385E1,-2.5398254E-3,-1.6307831E-4,-2.6259873E-5,1.0548275E-3,-1.4229912E-3,-3.991127E-3,-1.1386871E-3,1.7637635E-3,-1.1520387E-3,-4.846573E-4,-9.178162E-4,-2.97788E-3,-6.1941147E-4,9.17244E-4,5.523682E-4,1.6496659E-3,1.2047768E-3,-4.4564644E-4],"split_indices":[44,45,42,46,5,0,47,1,34,0,7,32,0,0,47,14,17,0,0,0,0,13,13,58,0,13,56,0,15,0,0,0,0,47,0,4,0,0,28,0,0,0,0,0,0,0,0,0,0,0,0,0,0,0,0,0,0],"split_type":[0,0,0,0,0,0,0,0,0,0,0,0,0,0,0,0,0,0,0,0,0,0,0,0,0,0,0,0,0,0,0,0,0,0,0,0,0,0,0,0,0,0,0,0,0,0,0,0,0,0,0,0,0,0,0,0,0],"sum_hessian":[6.58E2,5.99E2,5.9E1,5.93E2,6E0,2.9E1,3E1,5.87E2,6E0,1E0,5E0,2.8E1,1E0,3E0,2.7E1,5.75E2,1.2E1,4E0,2E0,1E0,4E0,1E1,1.8E1,2.4E1,3E0,5.64E2,1.1E1,4E0,8E0,1E0,3E0,1E0,1E0,7E0,3E0,1.4E1,4E0,5E0,1.9E1,2E0,1E0,5.29E2,3.5E1,6E0,5E0,4E0,4E0,2E0,5E0,6E0,8E0,3E0,1E0,2E0,3E0,3E0,1.6E1],"tree_param":{"num_deleted":"0","num_feature":"60","num_nodes":"57","size_leaf_vector":"0"}},{"base_weights":[-1.06481575E-5,4.352641E-4,-8.277893E-4,1.3457608E-4,1.0000669E-2,-2.9670715E-2,-4.4962234E-4,6.0080475E-4,-4.5067132E-3,1.20798744E-4,1.1786028E-2,-1.0922568E-2,-1.2179904E-4,3.604533E-4,2.2983551E-2,-1.7001629E-3,-1.6692843E-2,2.3498535E-3,-2.1686554E-3,1.4722347E-2,2.9668808E-3,-1.4845276E-2,-7.4386597E-4,1.6724905E-2,-3.4789013E-4,-1.8800497E-4,3.4880638E-3,2.9977163E-2,1.001358E-3,-3.4399033E-3,8.382415E-3,-5.0182343E-3,-2.035904E-2,1.5971048E-2,2.9907227E-3,1.296997E-4,5.739212E-3,-6.7253113E-3,-1.8016815E-2,-1.537323E-3,4.2152405E-4,-1.0524273E-2,3.062354E-5,3.188197E-4,-7.4194046E-3,9.947159E-3,6.5574644E-4,-8.702596E-3,-8.996964E-4,9.9983215E-3,9.5939636E-4,-2.2340775E-2,-6.216049E-3,7.136027E-3,1.807785E-2,6.275177E-4,-4.3296814E-4,-3.7139892E-3,-1.640606E-2,5.4759216E-3,-6.785591E-4],"categories":[],"categories_nodes":[],"categories_segments":[],"categories_sizes":[],"default_left":[1,1,1,1,1,0,1,1,1,1,1,1,1,1,1,1,1,0,0,1,1,1,1,0,1,1,1,0,0,1,1,0,1,1,0,1,0,0,0,0,0,1,1,0,0,0,0,0,0,0,0,0,0,0,0,0,0,0,0,0,0],"id":95,"left_children":[1,3,5,7,9,-1,11,13,15,17,19,21,23,25,27,29,31,-1,-1,33,35,37,39,-1,41,43,45,-1,-1,47,49,-1,51,53,-1,55,-1,-1,-1,-1,-1,57,59,-1,-1,-1,-1,-1,-1,-1,-1,-1,-1,-1,-1,-1,-1,-1,-1,-1,-1],"loss_changes":[2.4048229E-4,1.2267927E-3,2.5280933E-3,9.0072706E-4,2.2788474E-4,0E0,7.917563E-4,2.0252515E-3,1.271257E-3,2.0405978E-5,2.4117471E-4,2.6845356E-4,8.6281856E-4,6.439172E-4,5.849218E-4,5.901489E-4,1.974433E-4,0E0,0E0,6.942928E-5,3.071805E-5,7.595285E-6,3.4220793E-6,0E0,8.59296E-4,1.1751819E-3,1.0179528E-3,0E0,0E0,3.664835E-4,5.0382136E-5,0E0,1.2670644E-6,1.291628E-6,0E0,1.1120137E-6,0E0,0E0,0E0,0E0,0E0,2.5952113E-4,8.378454E-4,0E0,0E0,0E0,0E0,0E0,0E0,0E0,0E0,0E0,0E0,0E0,0E0,0E0,0E0,0E0,0E0,0E0,0E0],"parents":[2147483647,0,0,1,1,2,2,3,3,4,4,6,6,7,7,8,8,9,9,10,10,11,11,12,12,13,13,14,14,15,15,16,16,19,19,20,20,21,21,22,22,24,24,25,25,26,26,29,29,30,30,32,32,33,33,35,35,41,41,42,42],"right_children":[2,4,6,8,10,-1,12,14,16,18,20,22,24,26,28,30,32,-1,-1,34,36,38,40,-1,42,44,46,-1,-1,48,50,-1,52,54,-1,56,-1,-1,-1,-1,-1,58,60,-1,-1,-1,-1,-1,-1,-1,-1,-1,-1,-1,-1,-1,-1,-1,-1,-1,-1],"split_conditions":[4.0855E1,4.0805E1,3.9045E1,4.0489998E1,4.022E1,-8.901215E-3,3.757E1,4.0425E1,4.0684998E1,4.015E1,4.1495E1,4.1E1,3.8275E1,3.932E1,4.0940002E1,4.0684998E1,4.0555E1,7.0495607E-4,-6.5059663E-4,4.1725E1,4.2230003E1,4.0364998E1,4.104E1,5.0174715E-3,4.065E1,3.904E1,3.959E1,8.99315E-3,3.004074E-4,3.914E1,4.166E1,-1.5054704E-3,4.1225E1,3.8095E1,8.9721684E-4,4.2129997E1,1.7217636E-3,-2.0175935E-3,-5.4050446E-3,-4.611969E-4,1.2645722E-4,4.0465E1,4.143E1,9.564591E-5,-2.2258214E-3,2.984148E-3,1.9672394E-4,-2.610779E-3,-2.6990892E-4,2.9994966E-3,2.8781893E-4,-6.7022326E-3,-1.8648148E-3,2.1408082E-3,5.4233554E-3,1.8825532E-4,-1.2989045E-4,-1.1141968E-3,-4.921818E-3,1.6427765E-3,-2.0356775E-4],"split_indices":[6,5,10,15,3,0,45,6,2,0,2,9,26,29,7,1,11,0,0,3,3,1,0,0,8,33,38,0,0,40,0,0,0,25,0,0,0,0,0,0,0,8,9,0,0,0,0,0,0,0,0,0,0,0,0,0,0,0,0,0,0],"split_type":[0,0,0,0,0,0,0,0,0,0,0,0,0,0,0,0,0,0,0,0,0,0,0,0,0,0,0,0,0,0,0,0,0,0,0,0,0,0,0,0,0,0,0,0,0,0,0,0,0,0,0,0,0,0,0,0,0,0,0,0,0],"sum_hessian":[6.58E2,4.26E2,2.32E2,4.14E2,1.2E1,2E0,2.3E2,3.77E2,3.7E1,2E0,1E1,6E0,2.24E2,3.74E2,3E0,3.1E1,6E0,1E0,1E0,7E0,3E0,4E0,2E0,2E0,2.22E2,3.19E2,5.5E1,2E0,1E0,2.7E1,4E0,2E0,4E0,6E0,1E0,2E0,1E0,2E0,2E0,1E0,1E0,7E0,2.15E2,2.99E2,2E1,1.6E1,3.9E1,8E0,1.9E1,3E0,1E0,3E0,1E0,2E0,4E0,1E0,1E0,4E0,3E0,2.4E1,1.91E2],"tree_param":{"num_deleted":"0","num_feature":"60","num_nodes":"61","size_leaf_vector":"0"}},{"base_weights":[-1.588396E-5,2.6913555E-3,-1.0921215E-4,-4.308364E-5,9.990375E-3,-4.18218E-3,4.9910508E-5,1.7591476E-3,-2.2904873E-3,1.2813091E-2,2.8966267E-3,-6.8053007E-3,9.45833E-4,2.190459E-3,-1.4339549E-4,2.445221E-4,2.7281444E-3,-4.071808E-3,5.0878525E-4,-2.9659271E-3,-1.1317934E-2,2.970457E-3,-7.62558E-3,1.0794349E-3,1.0343234E-2,-1.0058267E-2,-1.898136E-5,-3.3950806E-4,7.4704486E-4,3.2463074E-3,1.1278788E-3,-5.1943463E-4,1.7967224E-3,-6.184578E-4,-3.8836342E-3,-1.24133425E-2,-2.3727417E-3,5.5799484E-3,2.8877257E-4,1.5354156E-4,8.641052E-3,1.458486E-3,1.4420986E-2,3.709793E-3,-1.2971242E-2,-8.574803E-3,7.371524E-5,4.7429404E-4,-1.9483566E-3,-4.4330596E-3,-1.6733805E-3,-5.7856244E-4,1.0598501E-3,1.7935634E-3,-4.6313894E-3,5.607605E-4,1.0520935E-2,-5.722046E-4,2.7599335E-3,2.1266937E-4,-1.0374832E-2,3.668385E-3,-1.390872E-4],"categories":[],"categories_nodes":[],"categories_segments":[],"categories_sizes":[],"default_left":[1,1,1,1,1,1,1,1,1,0,0,1,1,1,1,1,1,0,1,1,1,1,0,1,1,1,1,0,0,0,0,0,0,1,1,0,0,0,1,1,1,1,0,0,0,1,1,0,0,0,0,0,0,0,0,0,0,0,0,0,0,0,0],"id":96,"left_children":[1,3,5,7,9,11,13,15,17,-1,-1,19,21,23,25,27,29,-1,31,33,35,37,-1,39,41,43,45,-1,-1,-1,-1,-1,-1,47,49,-1,-1,-1,51,53,55,57,-1,-1,-1,59,61,-1,-1,-1,-1,-1,-1,-1,-1,-1,-1,-1,-1,-1,-1,-1,-1],"loss_changes":[1.6679804E-4,4.3952232E-4,4.1369745E-4,7.288511E-5,8.302706E-5,3.2927023E-4,2.547893E-4,1.400958E-5,4.1962892E-5,0E0,0E0,2.4364283E-4,1.7883646E-4,4.5078955E-4,6.9676485E-4,1.7210702E-6,1.3137469E-6,0E0,6.2304102E-6,1.9141029E-5,3.9136852E-5,5.437131E-5,0E0,3.207308E-4,1.9634597E-4,3.2886275E-4,4.4397256E-4,1.9673462E-7,0E0,0E0,0E0,0E0,0E0,6.737091E-6,1.0823933E-6,0E0,0E0,0E0,3.957102E-6,3.3789713E-4,7.005027E-5,9.507758E-6,0E0,0E0,0E0,9.7112614E-5,4.2429505E-4,0E0,0E0,0E0,0E0,0E0,0E0,0E0,0E0,0E0,0E0,0E0,0E0,0E0,0E0,0E0,0E0],"parents":[2147483647,0,0,1,1,2,2,3,3,4,4,5,5,6,6,7,7,8,8,11,11,12,12,13,13,14,14,15,15,16,16,18,18,19,19,20,20,21,21,23,23,24,24,25,25,26,26,33,33,34,34,38,38,39,39,40,40,41,41,45,45,46,46],"right_children":[2,4,6,8,10,12,14,16,18,-1,-1,20,22,24,26,28,30,-1,32,34,36,38,-1,40,42,44,46,-1,-1,-1,-1,-1,-1,48,50,-1,-1,-1,52,54,56,58,-1,-1,-1,60,62,-1,-1,-1,-1,-1,-1,-1,-1,-1,-1,-1,-1,-1,-1,-1,-1],"split_conditions":[2.8310001E1,2.9275E1,2.925E1,2.8169998E1,2.7855E1,3.1965E1,3.147E1,2.7325E1,2.95E1,3.8439275E-3,8.6898805E-4,3.0415E1,2.9215E1,3.1224998E1,3.127E1,2.8185001E1,2.8169998E1,-1.2215425E-3,2.829E1,2.923E1,2.9135E1,3.2095E1,-2.287674E-3,3.3305E1,3.1335E1,2.9900002E1,3.0625E1,-1.0185242E-4,2.2411346E-4,9.738922E-4,3.3836364E-4,-1.5583039E-4,5.3901674E-4,2.86E1,3.1295E1,-3.724003E-3,-7.1182253E-4,1.6739846E-3,2.8505001E1,3.4485E1,2.8825E1,3.109E1,4.326296E-3,1.1129379E-3,-3.8913728E-3,3.0740002E1,3.179E1,1.4228822E-4,-5.84507E-4,-1.3299179E-3,-5.020142E-4,-1.7356874E-4,3.1795504E-4,5.3806906E-4,-1.3894169E-3,1.6822816E-4,3.1562806E-3,-1.7166138E-4,8.2798005E-4,6.380081E-5,-3.1124498E-3,1.1005156E-3,-4.172616E-5],"split_indices":[2,12,1,10,3,33,1,10,37,0,0,36,1,1,0,0,7,0,0,8,1,28,0,14,0,0,6,0,0,0,0,0,0,1,24,0,0,0,1,55,2,0,0,0,0,3,24,0,0,0,0,0,0,0,0,0,0,0,0,0,0,0,0],"split_type":[0,0,0,0,0,0,0,0,0,0,0,0,0,0,0,0,0,0,0,0,0,0,0,0,0,0,0,0,0,0,0,0,0,0,0,0,0,0,0,0,0,0,0,0,0,0,0,0,0,0,0,0,0,0,0,0,0,0,0,0,0,0,0],"sum_hessian":[6.58E2,2.1E1,6.37E2,1.6E1,5E0,2.3E1,6.14E2,9E0,7E0,3E0,2E0,1.5E1,8E0,5E1,5.64E2,4E0,5E0,4E0,3E0,9E0,6E0,7E0,1E0,4.5E1,5E0,6E0,5.58E2,2E0,2E0,3E0,2E0,2E0,1E0,3E0,6E0,5E0,1E0,3E0,4E0,4.1E1,4E0,2E0,3E0,1E0,5E0,5E0,5.53E2,2E0,1E0,4E0,2E0,2E0,2E0,3.1E1,1E1,1E0,3E0,1E0,1E0,1E0,4E0,3E1,5.23E2],"tree_param":{"num_deleted":"0","num_feature":"60","num_nodes":"63","size_leaf_vector":"0"}},{"base_weights":[-9.690141E-6,4.464717E-5,-4.4369698E-3,-1.2755435E-4,1.5254301E-3,1.1590322E-3,-1.4149983E-2,1.8367523E-4,-4.7420813E-3,1.0887146E-2,6.0962496E-4,-2.4897258E-3,3.6058426E-3,-1.7400742E-2,-3.824234E-3,-1.3391131E-4,5.4947636E-3,-1.8808191E-3,-8.379936E-3,1.384449E-2,3.314972E-3,9.830475E-3,-1.5258789E-5,4.319509E-3,7.324219E-4,4.5835972E-5,-1.1620998E-2,2.2467613E-2,2.8738293E-3,-1.3616562E-2,-6.7356654E-4,-1.5929222E-2,-5.4124687E-3,-7.7156066E-3,6.7254476E-4,-1.3343131E-4,1.1356354E-2,-1.7824173E-2,-4.334259E-3,1.4867049E-3,1.3937633E-2,-2.8833242E-3,2.5931464E-3,-6.6341055E-3,8.710225E-4,-1.0160446E-2,1.0318756E-3,4.3612393E-3,-2.2415492E-4],"categories":[],"categories_nodes":[],"categories_segments":[],"categories_sizes":[],"default_left":[1,1,1,1,1,1,1,1,1,1,1,0,1,0,0,1,1,1,1,0,0,0,1,0,0,1,1,0,1,0,1,0,1,1,1,0,0,0,0,0,0,0,0,0,0,0,0,0,0],"id":97,"left_children":[1,3,5,7,9,11,13,15,17,19,21,-1,23,-1,-1,25,27,29,31,-1,-1,-1,33,-1,-1,35,37,-1,39,-1,41,-1,43,45,47,-1,-1,-1,-1,-1,-1,-1,-1,-1,-1,-1,-1,-1,-1],"loss_changes":[1.587314E-4,1.6645006E-4,4.5123263E-4,8.410347E-4,5.763615E-4,6.254447E-5,3.4155033E-5,9.267507E-4,3.6936655E-4,8.846709E-5,3.6315343E-4,0E0,5.03895E-6,0E0,0E0,1.0721497E-3,1.3144584E-3,3.0252445E-4,2.7221977E-4,0E0,0E0,0E0,3.229687E-4,0E0,0E0,1.0396495E-3,2.843527E-4,0E0,4.089913E-4,0E0,1.5906841E-4,0E0,1.05568324E-4,1.1741524E-4,1.8620607E-4,0E0,0E0,0E0,0E0,0E0,0E0,0E0,0E0,0E0,0E0,0E0,0E0,0E0,0E0],"parents":[2147483647,0,0,1,1,2,2,3,3,4,4,5,5,6,6,7,7,8,8,9,9,10,10,12,12,15,15,16,16,17,17,18,18,22,22,25,25,26,26,28,28,30,30,32,32,33,33,34,34],"right_children":[2,4,6,8,10,12,14,16,18,20,22,-1,24,-1,-1,26,28,30,32,-1,-1,-1,34,-1,-1,36,38,-1,40,-1,42,-1,44,46,48,-1,-1,-1,-1,-1,-1,-1,-1,-1,-1,-1,-1,-1,-1],"split_conditions":[5.286E1,4.6045E1,4.9695E1,4.4815E1,4.6285E1,5.351E1,5.327E1,4.3245E1,4.6239998E1,4.6595E1,4.3864998E1,-7.469178E-4,5.3925003E1,-5.2202228E-3,-1.1472702E-3,4.4114998E1,4.117E1,3.907E1,4.544E1,4.153347E-3,9.944916E-4,2.9491426E-3,4.5405E1,1.2958527E-3,2.1972657E-4,4.3345E1,4.3635002E1,6.740284E-3,4.7145E1,-4.084969E-3,4.629E1,-4.778767E-3,4.535E1,4.9745E1,4.5855E1,-4.0029394E-5,3.4069063E-3,-5.347252E-3,-1.3002777E-3,4.460115E-4,4.18129E-3,-8.649973E-4,7.7794393E-4,-1.9902317E-3,2.6130676E-4,-3.048134E-3,3.095627E-4,1.3083718E-3,-6.724648E-5],"split_indices":[0,23,22,18,22,2,0,21,10,7,41,0,2,0,0,16,28,35,19,0,0,0,29,0,0,15,18,0,57,0,0,0,37,0,37,0,0,0,0,0,0,0,0,0,0,0,0,0,0],"split_type":[0,0,0,0,0,0,0,0,0,0,0,0,0,0,0,0,0,0,0,0,0,0,0,0,0,0,0,0,0,0,0,0,0,0,0,0,0,0,0,0,0,0,0,0,0,0,0,0,0],"sum_hessian":[6.58E2,6.51E2,7E0,5.84E2,6.7E1,5E0,2E0,5.48E2,3.6E1,5E0,6.2E1,2E0,3E0,1E0,1E0,5.18E2,3E1,2.1E1,1.5E1,3E0,2E0,3E0,5.9E1,2E0,1E0,5.11E2,7E0,3E0,2.7E1,1E0,2E1,3E0,1.2E1,4E0,5.5E1,5.04E2,7E0,3E0,4E0,2.5E1,2E0,1.2E1,8E0,1E1,2E0,3E0,1E0,1E1,4.5E1],"tree_param":{"num_deleted":"0","num_feature":"60","num_nodes":"49","size_leaf_vector":"0"}},{"base_weights":[-1.0182173E-5,4.5160597E-4,-5.6091894E-4,1.9144875E-4,9.511948E-3,-7.474289E-3,6.5056425E-5,-9.277321E-5,6.5452578E-3,2.2303264E-3,1.6347503E-2,-1.4431147E-2,5.75139E-5,2.1123251E-2,-1.649059E-4,3.040043E-4,-9.974553E-3,1.5215193E-2,-9.25276E-4,-1.2105306E-3,4.2533875E-3,1.8454552E-2,3.9596558E-3,-4.166794E-3,-1.8530104E-2,3.094991E-3,-5.4214476E-3,-1.3052623E-2,-2.2678585E-5,5.689995E-4,-9.034051E-3,-2.9290516E-3,-1.401186E-2,1.761818E-2,3.9863586E-4,7.1258545E-3,-4.2435783E-3,-5.3572655E-3,2.975464E-4,-2.0457132E-2,-7.857005E-3,-2.5997162E-3,6.375631E-3,1.486969E-2,-1.3209792E-4,-3.5167288E-4,4.9444027E-3,-2.3684183E-2,-1.4648438E-3,-8.047104E-3,-2.960205E-4,-1.5157427E-2,-2.9964447E-3,-5.8898926E-3,-8.519491E-5,-3.5972595E-3,1.9645691E-4,2.1362305E-3,7.961273E-3,7.5302124E-3,-3.0378992E-4],"categories":[],"categories_nodes":[],"categories_segments":[],"categories_sizes":[],"default_left":[1,1,1,1,1,1,1,1,1,1,1,1,1,0,1,1,1,1,1,0,0,0,0,1,1,1,0,0,1,1,1,1,1,0,0,0,1,0,0,0,0,1,1,0,1,0,0,0,0,0,0,0,0,0,0,0,0,0,0,0,0],"id":98,"left_children":[1,3,5,7,9,11,13,15,17,19,21,23,25,-1,27,29,31,33,35,-1,-1,-1,-1,37,39,41,-1,-1,43,45,47,49,51,-1,-1,-1,53,-1,-1,-1,-1,55,57,-1,59,-1,-1,-1,-1,-1,-1,-1,-1,-1,-1,-1,-1,-1,-1,-1,-1],"loss_changes":[1.6785263E-4,8.443826E-4,1.3030935E-3,6.326694E-4,4.6127895E-4,1.310772E-3,1.3448811E-3,1.3204439E-3,9.856138E-4,4.6915244E-5,5.743536E-5,4.6973978E-4,2.331282E-4,0E0,5.037749E-4,8.068913E-4,3.2874162E-4,2.4220475E-4,2.7068387E-4,0E0,0E0,0E0,0E0,2.8167386E-5,2.4374342E-5,1.8471538E-4,0E0,0E0,4.4682133E-4,1.2746856E-3,9.6331537E-4,7.847384E-5,5.5532902E-5,0E0,0E0,0E0,4.7420253E-5,0E0,0E0,0E0,0E0,1.1863922E-5,2.332592E-5,0E0,3.6011921E-4,0E0,0E0,0E0,0E0,0E0,0E0,0E0,0E0,0E0,0E0,0E0,0E0,0E0,0E0,0E0,0E0],"parents":[2147483647,0,0,1,1,2,2,3,3,4,4,5,5,6,6,7,7,8,8,9,9,10,10,11,11,12,12,14,14,15,15,16,16,17,17,18,18,23,23,24,24,25,25,28,28,29,29,30,30,31,31,32,32,36,36,41,41,42,42,44,44],"right_children":[2,4,6,8,10,12,14,16,18,20,22,24,26,-1,28,30,32,34,36,-1,-1,-1,-1,38,40,42,-1,-1,44,46,48,50,52,-1,-1,-1,54,-1,-1,-1,-1,56,58,-1,60,-1,-1,-1,-1,-1,-1,-1,-1,-1,-1,-1,-1,-1,-1,-1,-1],"split_conditions":[3.9465E1,3.9510002E1,3.9815002E1,3.9465E1,3.9485E1,3.9695E1,3.7965E1,3.9114998E1,3.903E1,3.8260002E1,4.148E1,3.9510002E1,3.964E1,6.3369754E-3,3.81E1,4.0875E1,3.9315002E1,4.0449997E1,3.714E1,-3.631592E-4,1.2760162E-3,5.536366E-3,1.1878968E-3,3.9375E1,4.0425003E1,3.8515E1,-1.6264344E-3,-3.915787E-3,3.8045E1,3.8045E1,4.039E1,3.855E1,3.927E1,5.285454E-3,1.1959076E-4,2.1377564E-3,4.095E1,-1.6071798E-3,8.926392E-5,-6.1371396E-3,-2.3571015E-3,3.8059998E1,3.964E1,4.460907E-3,3.7345E1,-1.05501866E-4,1.4833208E-3,-7.105255E-3,-4.3945314E-4,-2.4141313E-3,-8.8806155E-5,-4.547228E-3,-8.9893345E-4,-1.7669678E-3,-2.5558473E-5,-1.079178E-3,5.8937076E-5,6.4086914E-4,2.388382E-3,2.2590638E-3,-9.113698E-5],"split_indices":[19,20,20,23,59,34,27,22,51,0,0,1,20,0,26,6,43,15,2,0,0,0,0,2,18,6,0,0,7,3,8,4,19,0,0,0,47,0,0,0,0,0,17,0,43,0,0,0,0,0,0,0,0,0,0,0,0,0,0,0,0],"split_type":[0,0,0,0,0,0,0,0,0,0,0,0,0,0,0,0,0,0,0,0,0,0,0,0,0,0,0,0,0,0,0,0,0,0,0,0,0,0,0,0,0,0,0,0,0,0,0,0,0,0,0,0,0,0,0,0,0,0,0,0,0],"sum_hessian":[6.58E2,3.58E2,3E2,3.49E2,9E0,2.4E1,2.76E2,3.35E2,1.4E1,5E0,4E0,1.2E1,1.2E1,2E0,2.74E2,3.23E2,1.2E1,6E0,8E0,2E0,3E0,3E0,1E0,4E0,8E0,8E0,4E0,2E0,2.72E2,3.15E2,8E0,5E0,7E0,5E0,1E0,2E0,6E0,3E0,1E0,6E0,2E0,3E0,5E0,1E0,2.71E2,2.61E2,5.4E1,2E0,6E0,1E0,4E0,6E0,1E0,4E0,2E0,2E0,1E0,2E0,3E0,5E0,2.66E2],"tree_param":{"num_deleted":"0","num_feature":"60","num_nodes":"61","size_leaf_vector":"0"}},{"base_weights":[-8.758175E-6,-4.176426E-5,7.2224936E-3,1.555156E-4,-1.3534192E-3,-4.9137423E-5,6.4570107E-3,-8.451779E-3,-1.9963582E-4,3.8994684E-5,-6.954193E-3,1.1754036E-2,2.0176282E-3,2.4121602E-3,-1.0865783E-2,1.0227203E-2,-1.090513E-3,-1.7959233E-4,2.551859E-3,-1.2524923E-3,-8.984375E-3,-8.419037E-3,3.9031983E-3,-4.006195E-3,-1.4771144E-2,1.585865E-2,-6.904602E-4,4.4600167E-3,-1.5860924E-3,8.2358536E-5,-7.7193766E-3,1.6050339E-2,1.1726938E-3,-1.8978119E-3,1.9073486E-5,5.8029173E-3,1.6695658E-3,4.6539307E-3,1.8042246E-2,-6.0081482E-5,9.000142E-3,-7.020678E-3,-9.144282E-4],"categories":[],"categories_nodes":[],"categories_segments":[],"categories_sizes":[],"default_left":[1,1,0,1,1,1,1,1,1,1,1,0,1,0,1,1,1,1,1,1,0,0,1,0,0,1,0,1,1,0,0,0,0,0,0,0,0,0,0,0,0,0,0],"id":99,"left_children":[1,3,-1,5,7,9,11,13,15,17,19,-1,21,-1,23,25,27,29,31,33,-1,-1,35,-1,-1,37,-1,39,41,-1,-1,-1,-1,-1,-1,-1,-1,-1,-1,-1,-1,-1,-1],"loss_changes":[1.5758866E-4,1.7021783E-4,0E0,7.3798E-4,7.0265017E-4,3.380204E-4,3.9956416E-4,3.409171E-4,7.0783036E-4,3.0201275E-4,6.977556E-5,0E0,2.493309E-4,0E0,2.0871556E-4,3.7984317E-4,1.9962502E-4,1.0000125E-3,8.003098E-4,2.4978967E-6,0E0,0E0,3.27444E-5,0E0,0E0,1.3898942E-5,0E0,1.2367162E-4,2.308442E-4,0E0,0E0,0E0,0E0,0E0,0E0,0E0,0E0,0E0,0E0,0E0,0E0,0E0,0E0],"parents":[2147483647,0,0,1,1,3,3,4,4,5,5,6,6,7,7,8,8,9,9,10,10,12,12,14,14,15,15,16,16,17,17,18,18,19,19,22,22,25,25,27,27,28,28],"right_children":[2,4,-1,6,8,10,12,14,16,18,20,-1,22,-1,24,26,28,30,32,34,-1,-1,36,-1,-1,38,-1,40,42,-1,-1,-1,-1,-1,-1,-1,-1,-1,-1,-1,-1,-1,-1],"split_conditions":[5.383E1,4.461E1,2.1667483E-3,4.4235E1,4.4385002E1,4.3945E1,4.4815E1,4.1075E1,4.4625E1,4.207E1,4.0795E1,3.526211E-3,4.487E1,7.2364806E-4,4.142E1,4.5754997E1,4.5405E1,4.1885002E1,4.157E1,4.154E1,-2.6953125E-3,-2.5257112E-3,4.3824997E1,-1.2018585E-3,-4.431343E-3,4.1364998E1,-2.0713807E-4,4.296E1,4.5805E1,2.4707562E-5,-2.315813E-3,4.8151016E-3,3.5180815E-4,-5.6934357E-4,5.722046E-6,1.7408753E-3,5.0086976E-4,1.3961792E-3,5.412674E-3,-1.8024446E-5,2.7000427E-3,-2.1062035E-3,-2.743285E-4],"split_indices":[20,54,0,51,37,51,50,8,34,46,12,0,50,0,3,53,43,48,45,0,0,0,58,0,0,0,0,12,43,0,0,0,0,0,0,0,0,0,0,0,0,0,0],"split_type":[0,0,0,0,0,0,0,0,0,0,0,0,0,0,0,0,0,0,0,0,0,0,0,0,0,0,0,0,0,0,0,0,0,0,0,0,0,0,0,0,0,0,0],"sum_hessian":[6.58E2,6.56E2,2E0,5.71E2,8.5E1,5.54E2,1.7E1,1.1E1,7.4E1,5.48E2,6E0,7E0,1E1,2E0,9E0,5E0,6.9E1,5.05E2,4.3E1,2E0,4E0,1E0,9E0,4E0,5E0,3E0,2E0,5E0,6.4E1,4.89E2,1.6E1,3E0,4E1,1E0,1E0,4E0,5E0,1E0,2E0,3E0,2E0,6E0,5.8E1],"tree_param":{"num_deleted":"0","num_feature":"60","num_nodes":"43","size_leaf_vector":"0"}}]},"name":"gbtree"},"learner_model_param":{"base_score":"5E-1","num_class":"0","num_feature":"60","num_target":"1"},"objective":{"name":"reg:squarederror","reg_loss_param":{"scale_pos_weight":"1"}}},"version":[1,6,1]}