{"learner":{"attributes":{"best_iteration":"99","best_ntree_limit":"100","scikit_learn":"{\"n_estimators\": 100, \"objective\": \"reg:squarederror\", \"max_depth\": null, \"max_leaves\": null, \"max_bin\": null, \"grow_policy\": null, \"learning_rate\": null, \"verbosity\": null, \"booster\": null, \"tree_method\": null, \"gamma\": null, \"min_child_weight\": null, \"max_delta_step\": null, \"subsample\": null, \"sampling_method\": null, \"colsample_bytree\": null, \"colsample_bylevel\": null, \"colsample_bynode\": null, \"reg_alpha\": null, \"reg_lambda\": null, \"scale_pos_weight\": null, \"base_score\": null, \"missing\": NaN, \"num_parallel_tree\": null, \"random_state\": null, \"n_jobs\": null, \"monotone_constraints\": null, \"interaction_constraints\": null, \"importance_type\": null, \"gpu_id\": null, \"validate_parameters\": null, \"predictor\": null, \"enable_categorical\": false, \"max_cat_to_onehot\": null, \"eval_metric\": null, \"early_stopping_rounds\": null, \"callbacks\": null, \"_estimator_type\": \"regressor\"}"},"feature_names":[],"feature_types":[],"gradient_booster":{"model":{"gbtree_model_param":{"num_parallel_tree":"1","num_trees":"100","size_leaf_vector":"0"},"tree_info":[0,0,0,0,0,0,0,0,0,0,0,0,0,0,0,0,0,0,0,0,0,0,0,0,0,0,0,0,0,0,0,0,0,0,0,0,0,0,0,0,0,0,0,0,0,0,0,0,0,0,0,0,0,0,0,0,0,0,0,0,0,0,0,0,0,0,0,0,0,0,0,0,0,0,0,0,0,0,0,0,0,0,0,0,0,0,0,0,0,0,0,0,0,0,0,0,0,0,0,0],"trees":[{"base_weights":[7.047126E1,2.3355398E1,1.4359734E2,5.7040462E0,3.853274E1,1.0403694E2,1.797663E2,1.9491626E0,1.2657484E1,3.2349907E1,5.113602E1,9.4863E1,1.21206154E2,1.5774019E2,2.0396025E2,1.3310452E0,3.602532E0,7.8346915E0,1.4027667E1,2.7546814E1,3.577886E1,4.509436E1,6.626E1,1.027762E0,1.5505794E0,4.3653445E0,2.8548286E0],"categories":[],"categories_nodes":[],"categories_segments":[],"categories_sizes":[],"default_left":[1,1,1,1,1,1,1,1,1,1,1,0,0,0,0,1,1,0,0,0,0,0,0,0,0,0,0],"id":0,"left_children":[1,3,5,7,9,11,13,15,17,19,21,-1,-1,-1,-1,23,25,-1,-1,-1,-1,-1,-1,-1,-1,-1,-1],"loss_changes":[1.5195125E6,7.211339E4,2.28836E5,3.2651064E3,9.644734E3,1.89025E3,1.525525E4,8.00289E1,1.8085449E2,6.613672E2,1.21525E3,0E0,0E0,0E0,0E0,2.534401E0,8.557129E-2,0E0,0E0,0E0,0E0,0E0,0E0,0E0,0E0,0E0,0E0],"parents":[2147483647,0,0,1,1,2,2,3,3,4,4,5,5,6,6,7,7,8,8,9,9,10,10,15,15,16,16],"right_children":[2,4,6,8,10,12,14,16,18,20,22,-1,-1,-1,-1,24,26,-1,-1,-1,-1,-1,-1,-1,-1,-1,-1],"split_conditions":[8.1494995E1,5.4821E0,1.4E2,3.8280501E0,4.2428E1,1.10365E2,1.828E2,2.78675E0,1.75065E0,3.2344902E1,6.0050003E1,2.84589E1,3.6361847E1,4.732206E1,6.1188076E1,1.83465E0,1.852E0,2.3504076E0,4.2083E0,8.264045E0,1.0733658E1,1.3528309E1,1.9878002E1,3.0832863E-1,4.6517384E-1,1.3096035E0,8.564486E-1],"split_indices":[59,0,59,50,59,59,59,59,8,59,59,0,0,0,0,59,5,0,0,0,0,0,0,0,0,0,0],"split_type":[0,0,0,0,0,0,0,0,0,0,0,0,0,0,0,0,0,0,0,0,0,0,0,0,0,0,0],"sum_hessian":[4.41E2,2.69E2,1.72E2,1.25E2,1.44E2,8.4E1,8.8E1,8.2E1,4.3E1,9.9E1,4.5E1,5.9E1,2.5E1,5E1,3.8E1,6.1E1,2.1E1,1.1E1,3.2E1,4.5E1,5.4E1,3.5E1,1E1,2.8E1,3.3E1,8E0,1.3E1],"tree_param":{"num_deleted":"0","num_feature":"60","num_nodes":"27","size_leaf_vector":"0"}},{"base_weights":[4.9862083E1,1.6247122E1,1.0105607E2,4.1261616E0,2.6973282E1,7.29361E1,1.2680342E2,1.442744E0,9.155273E0,2.1924097E1,3.4118134E1,6.154571E1,7.9906265E1,1.0718537E2,1.4103107E2,9.4420743E-1,2.723897E0,5.493233E0,9.939992E0,1.823683E1,2.3573761E1,3.0559435E1,4.2865604E1,7.3769844E-1,1.1147566E0,3.735625E0,2.147074E0,1.0479845E1,4.4550674E1,1.9483566E-1,7.492993E-1],"categories":[],"categories_nodes":[],"categories_segments":[],"categories_sizes":[],"default_left":[1,1,1,1,1,1,1,1,1,1,1,0,0,0,0,1,1,0,0,0,0,0,1,1,0,0,0,0,0,0,0],"id":1,"left_children":[1,3,5,7,9,11,13,15,17,19,21,-1,-1,-1,-1,23,25,-1,-1,-1,-1,-1,27,29,-1,-1,-1,-1,-1,-1,-1],"loss_changes":[7.589889E5,3.4731742E4,1.17454E5,1.7006829E3,4.3747344E3,1.909875E3,1.000425E4,5.107901E1,7.183862E1,9.320703E1,4.644375E2,0E0,0E0,0E0,0E0,1.3612823E0,5.4018555E0,0E0,0E0,0E0,0E0,0E0,2.9712695E2,4.9238205E-2,0E0,0E0,0E0,0E0,0E0,0E0,0E0],"parents":[2147483647,0,0,1,1,2,2,3,3,4,4,5,5,6,6,7,7,8,8,9,9,10,10,15,15,16,16,22,22,23,23],"right_children":[2,4,6,8,10,12,14,16,18,20,22,-1,-1,-1,-1,24,26,-1,-1,-1,-1,-1,28,30,-1,-1,-1,-1,-1,-1,-1],"split_conditions":[7.71765E1,6.69905E0,1.39465E2,4.1345E0,3.96175E1,9.8479996E1,1.7344E2,2.78675E0,1.7351501E0,2.90625E1,5.1665E1,1.8463715E1,2.397188E1,3.2155613E1,4.2309322E1,1.852E0,1.852E0,1.6479701E0,2.9819977E0,5.4710493E0,7.072129E0,9.16783E0,2.03897E1,1.4015E0,3.34427E-1,1.1206876E0,6.4412224E-1,3.1439536E0,1.3365203E1,5.8450703E-2,2.247898E-1],"split_indices":[59,3,59,49,59,59,59,59,9,59,59,0,0,0,0,59,2,0,0,0,0,0,0,11,0,0,0,0,0,0,0],"split_type":[0,0,0,0,0,0,0,0,0,0,0,0,0,0,0,0,0,0,0,0,0,0,0,0,0,0,0,0,0,0,0],"sum_hessian":[4.41E2,2.67E2,1.74E2,1.26E2,1.41E2,8.5E1,8.9E1,8.3E1,4.3E1,8.5E1,5.6E1,3.6E1,4.9E1,4.1E1,4.8E1,6.1E1,2.2E1,9E0,3.4E1,3E1,5.5E1,4.3E1,1.3E1,3E1,3.1E1,6E0,1.6E1,1E0,1.2E1,1E0,2.9E1],"tree_param":{"num_deleted":"0","num_feature":"60","num_nodes":"31","size_leaf_vector":"0"}},{"base_weights":[3.5270275E1,1.4110792E1,7.595437E1,7.196801E0,2.837247E1,6.01558E1,9.649062E1,2.5453906E0,1.4320185E1,2.1892122E1,4.104506E1,4.9450333E1,7.0703445E1,8.5866234E1,1.1557097E2,9.3933827E-1,5.656241E0,1.1547501E1,1.5203248E1,6.7090756E-1,1.7245065E0,3.8914926E0,6.252292E0,5.597484E-1,8.4757197E-1],"categories":[],"categories_nodes":[],"categories_segments":[],"categories_sizes":[],"default_left":[1,1,1,1,1,1,1,1,1,0,0,0,0,0,0,1,1,0,0,1,0,0,0,0,0],"id":2,"left_children":[1,3,5,7,9,11,13,15,17,-1,-1,-1,-1,-1,-1,19,21,-1,-1,23,-1,-1,-1,-1,-1],"loss_changes":[3.7942588E5,2.8588504E4,4.31865E4,6.524038E3,6.9031016E3,6.4404375E3,3.0501875E3,5.9922565E2,1.5419922E1,0E0,0E0,0E0,0E0,0E0,0E0,1.5914841E1,1.8796265E1,0E0,0E0,7.431202E-1,0E0,0E0,0E0,0E0,0E0],"parents":[2147483647,0,0,1,1,2,2,3,3,4,4,5,5,6,6,7,7,8,8,15,15,16,16,19,19],"right_children":[2,4,6,8,10,12,14,16,18,-1,-1,-1,-1,-1,-1,20,22,-1,-1,24,-1,-1,-1,-1,-1],"split_conditions":[9.281E1,3.7253998E1,1.6069E2,4.52285E0,6.97815E1,1.19185E2,2.03195E2,3.81965E0,2.7173E1,6.567637E0,1.2313519E1,1.48351E1,2.1211035E1,2.575987E1,3.467129E1,2.78675E0,3.0457501E0,3.4642503E0,4.5609746E0,2.0178E0,5.17352E-1,1.1674478E0,1.8756877E0,1.6792452E-1,2.542716E-1],"split_indices":[59,59,59,6,59,59,59,51,31,0,0,0,0,0,0,59,17,0,0,59,0,0,0,0,0],"split_type":[0,0,0,0,0,0,0,0,0,0,0,0,0,0,0,0,0,0,0,0,0,0,0,0,0],"sum_hessian":[4.41E2,2.91E2,1.5E2,1.97E2,9.4E1,8.7E1,6.3E1,1.2E2,7.7E1,6.4E1,3E1,4.6E1,4.1E1,4.4E1,1.9E1,8E1,4E1,2.2E1,5.5E1,6.1E1,1.9E1,1.2E1,2.8E1,4E1,2.1E1],"tree_param":{"num_deleted":"0","num_feature":"60","num_nodes":"25","size_leaf_vector":"0"}},{"base_weights":[2.4977352E1,1.0353059E1,5.455569E1,6.7653427E0,2.6016005E1,4.26592E1,6.79462E1,1.8432919E0,1.163194E1,1.8408274E1,2.9519855E1,3.5412857E1,4.9736397E1,6.124956E1,8.707789E1,6.646411E-1,4.0725164E0,9.664085E0,1.3321453E1,1.8819807E1,5.2945786E0,3.5806705E1,9.435589E0,4.841912E-1,1.2693161E0,2.9177616E0,4.545688E0,3.1742887E0,1.3433919E1,3.3362028E-1,5.661933E-1,3.6266203E0,1.3535241E1],"categories":[],"categories_nodes":[],"categories_segments":[],"categories_sizes":[],"default_left":[1,1,1,1,1,1,1,1,1,1,0,1,0,0,0,1,1,0,1,0,0,0,0,1,0,0,0,0,1,0,0,0,0],"id":3,"left_children":[1,3,5,7,9,11,13,15,17,19,-1,21,-1,-1,-1,23,25,-1,27,-1,-1,-1,-1,29,-1,-1,-1,-1,31,-1,-1,-1,-1],"loss_changes":[1.9062769E5,1.6513674E4,2.0359281E4,5.799294E3,9.226875E2,2.3414062E3,3.2504375E3,3.1784546E2,2.7687695E2,8.291504E0,0E0,1.0208203E2,0E0,0E0,0E0,8.223606E0,9.685486E0,0E0,2.925293E1,0E0,0E0,0E0,0E0,6.013231E-1,0E0,0E0,0E0,0E0,1.2521484E1,0E0,0E0,0E0,0E0],"parents":[2147483647,0,0,1,1,2,2,3,3,4,4,5,5,6,6,7,7,8,8,9,9,11,11,15,15,16,16,18,18,23,23,28,28],"right_children":[2,4,6,8,10,12,14,16,18,20,-1,22,-1,-1,-1,24,26,-1,28,-1,-1,-1,-1,30,-1,-1,-1,-1,32,-1,-1,-1,-1],"split_conditions":[9.5295E1,4.6239E1,1.58825E2,4.47725E0,6.97815E1,1.21795E2,2.1345E2,4.1345E0,3.4025E1,1.33505E2,8.855957E0,2.0533E2,1.4920919E1,1.8374868E1,2.6123367E1,2.8764E0,8.508E0,2.8992257E0,1.301475E1,5.645942E0,1.5883737E0,1.0742012E1,2.8306768E0,1.7348E0,3.8079485E-1,8.753285E-1,1.3637065E0,9.5228666E-1,2.9654999E1,1.00086085E-1,1.69858E-1,1.0879861E0,4.0605726E0],"split_indices":[58,59,59,5,59,59,59,53,59,20,0,2,0,0,0,56,48,0,2,0,0,0,0,59,0,0,0,0,57,0,0,0,0],"split_type":[0,0,0,0,0,0,0,0,0,0,0,0,0,0,0,0,0,0,0,0,0,0,0,0,0,0,0,0,0,0,0,0,0],"sum_hessian":[4.41E2,2.96E2,1.45E2,2.42E2,5.4E1,7.9E1,6.6E1,1.21E2,1.21E2,1.9E1,3.5E1,4.2E1,3.7E1,5.2E1,1.4E1,8E1,4.1E1,5.9E1,6.2E1,1.8E1,1E0,4.1E1,1E0,6.3E1,1.7E1,1.4E1,2.7E1,1E0,6.1E1,2.4E1,3.9E1,1E0,6E1],"tree_param":{"num_deleted":"0","num_feature":"60","num_nodes":"33","size_leaf_vector":"0"}},{"base_weights":[1.771259E1,8.361541E0,4.1098064E1,4.9204793E0,2.043328E1,3.608604E1,5.661808E1,1.3643533E0,8.4087925E0,1.2852175E1,2.1628874E1,2.7735874E1,3.902988E1,2.7088055E1,5.8983543E1,4.3675014E-1,2.927751E0,7.042242E0,1.0191792E1,2.860428E1,1.0674939E1,3.187519E-1,7.4747133E-1,2.1991158E0,3.504037E0,5.048253E0,7.423369E0,1.0291617E1,2.5503254E0,3.6516944E-1,2.1736927E-1,8.734307E-1,5.5355996E-1,3.5672991E0,1.0245037E0,5.2078633E0,1.4068537E0,1.0389524E1,2.6981459E0],"categories":[],"categories_nodes":[],"categories_segments":[],"categories_sizes":[],"default_left":[1,1,1,1,1,1,1,1,1,0,0,1,0,0,0,1,1,1,1,0,0,1,1,0,1,1,0,1,0,0,0,0,0,0,0,0,0,0,0],"id":4,"left_children":[1,3,5,7,9,11,13,15,17,-1,-1,19,-1,-1,-1,21,23,25,27,-1,-1,29,31,-1,33,35,-1,37,-1,-1,-1,-1,-1,-1,-1,-1,-1,-1,-1],"loss_changes":[9.631234E4,1.3067512E4,7.7580156E3,3.064938E3,3.564961E2,1.3264609E3,4.2796875E2,1.7854768E2,2.3279688E2,0E0,0E0,1.2431055E2,0E0,0E0,0E0,2.6582413E0,1.1609741E1,1.8762207E1,1.3419922E1,0E0,0E0,1.9827366E-1,2.9428482E-2,0E0,1.0992432E-1,1.3913574E0,0E0,9.883301E0,0E0,0E0,0E0,0E0,0E0,0E0,0E0,0E0,0E0,0E0,0E0],"parents":[2147483647,0,0,1,1,2,2,3,3,4,4,5,5,6,6,7,7,8,8,11,11,15,15,16,16,17,17,18,18,21,21,22,22,24,24,25,25,27,27],"right_children":[2,4,6,8,10,12,14,16,18,-1,-1,20,-1,-1,-1,22,24,26,28,-1,-1,30,32,-1,34,36,-1,38,-1,-1,-1,-1,-1,-1,-1,-1,-1,-1,-1],"split_conditions":[1.02325E2,4.8449997E1,1.9481E2,8.508E0,5.3135002E1,1.3217E2,1.76915E2,4.1345E0,3.7253998E1,3.8556526E0,6.4886622E0,1.3401001E2,1.1708964E1,8.126417E0,1.7695065E1,2.36365E0,3.5160499E0,2.680205E1,5.28235E1,8.5812845E0,3.202482E0,2.0908499E0,1.8989501E0,6.597347E-1,1.57941E1,4.16385E1,2.2270107E0,5.28235E1,7.650977E-1,1.0955083E-1,6.521078E-2,2.6202923E-1,1.6606799E-1,1.0701898E0,3.073511E-1,1.5623591E0,4.220561E-1,3.1168575E0,8.094438E-1],"split_indices":[59,58,59,12,59,58,52,56,59,0,0,57,0,0,0,56,18,59,57,0,0,42,9,0,31,20,0,56,0,0,0,0,0,0,0,0,0,0,0],"split_type":[0,0,0,0,0,0,0,0,0,0,0,0,0,0,0,0,0,0,0,0,0,0,0,0,0,0,0,0,0,0,0,0,0,0,0,0,0,0,0],"sum_hessian":[4.41E2,3.16E2,1.25E2,2.47E2,6.9E1,9.7E1,2.8E1,1.23E2,1.24E2,1.1E1,5.8E1,2.8E1,6.9E1,3E0,2.5E1,7.8E1,4.5E1,7.3E1,5.1E1,2.6E1,2E0,5.8E1,2E1,2.2E1,2.3E1,1.4E1,5.9E1,5E1,1E0,3.8E1,2E1,1E1,1E1,2.2E1,1E0,1.3E1,1E0,4.9E1,1E0],"tree_param":{"num_deleted":"0","num_feature":"60","num_nodes":"39","size_leaf_vector":"0"}},{"base_weights":[1.2559902E1,6.153392E0,2.9897291E1,3.48646E0,1.4663077E1,2.5844204E1,4.0108994E1,9.7359985E-1,5.9513254E0,9.870415E0,1.5663392E1,2.2677073E1,2.8495947E1,5.2114613E1,3.3935677E1,3.958519E-1,2.2707174E0,5.351446E0,7.930463E0,1.110251E1,3.3985004E0,1.7688105E1,1.3475744E1,2.6481094E1,1.7068615E1,2.9365727E-1,1.0752279E0,1.8842729E0,2.7376478E0,4.183674E0,5.7985406E0,8.113604E0,1.5843964E0,1.2426491E0,1.1820611E1,4.562828E0,1.7993906E1,3.7932777E-1,1.3861111E1,2.7113165E1,5.6557045E0,1.7490475E1,4.3157005E0,2.2091314E-1,4.8993233E-1,4.464787E0,2.268237E0,5.9232116E0,2.2918348E0,8.439595E0,2.8011398E0,7.0945435E0,2.7675081E1],"categories":[],"categories_nodes":[],"categories_segments":[],"categories_sizes":[],"default_left":[1,1,1,1,1,1,1,1,1,1,1,1,0,0,0,1,1,1,1,1,0,1,1,1,1,1,0,0,0,1,1,1,0,0,0,0,0,0,0,1,0,0,0,0,0,0,0,0,0,0,0,0,0],"id":5,"left_children":[1,3,5,7,9,11,13,15,17,19,21,23,-1,-1,-1,25,27,29,31,33,-1,35,37,39,41,43,-1,-1,-1,45,47,49,-1,-1,-1,-1,-1,-1,-1,51,-1,-1,-1,-1,-1,-1,-1,-1,-1,-1,-1,-1,-1],"loss_changes":[4.890992E4,7.3019766E3,3.8886953E3,1.5302834E3,2.1454688E2,9.2859375E1,6.031172E2,9.202762E1,1.0596582E2,8.985242E1,3.6259766E1,5.080664E2,0E0,0E0,0E0,5.724537E0,1.698349E0,2.74292E1,1.8524902E1,7.735608E1,0E0,3.429492E1,1.6633691E2,1.7573438E2,3.7495605E1,9.911623E-1,0E0,0E0,0E0,6.5648804E0,1.6590576E1,2.138684E1,0E0,0E0,0E0,0E0,0E0,0E0,0E0,7.362891E1,0E0,0E0,0E0,0E0,0E0,0E0,0E0,0E0,0E0,0E0,0E0,0E0,0E0],"parents":[2147483647,0,0,1,1,2,2,3,3,4,4,5,5,6,6,7,7,8,8,9,9,10,10,11,11,15,15,16,16,17,17,18,18,19,19,21,21,22,22,23,23,24,24,25,25,29,29,30,30,31,31,39,39],"right_children":[2,4,6,8,10,12,14,16,18,20,22,24,-1,-1,-1,26,28,30,32,34,-1,36,38,40,42,44,-1,-1,-1,46,48,50,-1,-1,-1,-1,-1,-1,-1,52,-1,-1,-1,-1,-1,-1,-1,-1,-1,-1,-1,-1,-1],"split_conditions":[1.06604996E2,4.8574997E1,1.9408499E2,4.9883003E0,6.94365E1,1.53095E2,1.4307E2,3.6282501E0,4.21185E1,1.0705E2,9.5399994E1,9.8604996E1,8.548784E0,1.5634384E1,1.0180703E1,4.1345E0,1.42044E1,2.8594E1,1.3570999E2,1.370735E1,1.0195502E0,2.66865E1,8.372E1,1.8945999E2,2.4492499E2,2.3941998E0,3.2256836E-1,5.652819E-1,8.2129437E-1,3.9095E1,5.42285E1,1.32315E2,4.7531894E-1,3.7279475E-1,3.5461833E0,1.3688484E0,5.398172E0,1.13798335E-1,4.1583333E0,2.6472E1,1.6967114E0,5.247143E0,1.2947102E0,6.627394E-2,1.469797E-1,1.3394362E0,6.804712E-1,1.7769636E0,6.875505E-1,2.5318787E0,8.40342E-1,2.1283631E0,8.302525E0],"split_indices":[59,59,57,1,58,59,17,36,58,26,26,11,0,0,0,58,59,58,1,4,0,23,0,44,0,59,0,0,0,27,36,6,0,0,0,0,0,0,0,10,0,0,0,0,0,0,0,0,0,0,0,0,0],"split_type":[0,0,0,0,0,0,0,0,0,0,0,0,0,0,0,0,0,0,0,0,0,0,0,0,0,0,0,0,0,0,0,0,0,0,0,0,0,0,0,0,0,0,0,0,0,0,0,0,0,0,0,0,0],"sum_hessian":[4.41E2,3.23E2,1.18E2,2.47E2,7.6E1,8.7E1,3.1E1,1.23E2,1.24E2,1.5E1,6.1E1,4.4E1,4.3E1,8E0,2.3E1,8.6E1,3.7E1,9.8E1,2.6E1,1.2E1,3E0,2.8E1,3.3E1,2.4E1,2E1,7.6E1,1E1,2.3E1,1.4E1,3E1,6.8E1,2.5E1,1E0,1E0,1.1E1,1E0,2.7E1,1E0,3.2E1,2.3E1,1E0,1.9E1,1E0,5.7E1,1.9E1,2.5E1,5E0,6.5E1,3E0,2.3E1,2E0,1E0,2.2E1],"tree_param":{"num_deleted":"0","num_feature":"60","num_nodes":"53","size_leaf_vector":"0"}},{"base_weights":[8.971265E0,4.3883376E0,2.137376E1,2.5391006E0,1.071189E1,1.9400331E1,3.4788746E1,7.915316E-1,4.3947763E0,1.2459573E1,9.1252775E0,1.5556693E1,2.1154821E1,6.516083E0,3.646233E1,2.832552E-1,1.7566098E0,3.8902018E0,5.812464E0,1.0562515E0,1.2793349E1,2.3546836E0,9.776007E0,1.6250952E1,5.766323E0,2.2050943E1,1.1453506E1,1.9629614E-1,7.2266334E-1,1.4261992E0,2.2663417E0,4.4612865E0,3.4332123E0,3.4921062E0,6.4974985E0,6.0991926E0,1.3292752E1,7.124748E-1,3.211998E0,8.554135E0,1.3288757E1,1.6489166E1,4.194916E0,3.656414E0,2.2288654E1,1.1897661E-1,2.8376096E-1,2.4126604E0,8.280735E-1,2.931074E0,4.976148E0,-8.706608E-1,3.6087384E0,3.7316303E0,7.8795624E-1,9.183791E0,5.1671896E0,1.4605654E1,9.468964E0,9.06089E0,4.106833E0,4.80735E0,2.2496424E1],"categories":[],"categories_nodes":[],"categories_segments":[],"categories_sizes":[],"default_left":[1,1,1,1,1,1,1,1,1,1,1,1,1,0,0,1,1,1,1,0,1,1,1,1,0,1,0,1,0,0,1,1,1,1,1,0,1,0,0,1,0,0,0,0,1,0,0,0,0,0,0,0,0,0,0,0,0,0,0,0,0,0,0],"id":6,"left_children":[1,3,5,7,9,11,13,15,17,19,21,23,25,-1,-1,27,29,31,33,-1,35,37,39,41,-1,43,-1,45,-1,-1,47,49,51,53,55,-1,57,-1,-1,59,-1,-1,-1,-1,61,-1,-1,-1,-1,-1,-1,-1,-1,-1,-1,-1,-1,-1,-1,-1,-1,-1,-1],"loss_changes":[2.5029367E4,3.7615757E3,2.4754375E3,8.137377E2,8.872461E1,3.8572656E2,4.2483984E2,6.3761406E1,6.465845E1,1.0828418E2,1.6202515E2,1.5778223E2,3.5598828E2,0E0,0E0,3.1824584E0,4.3466644E0,8.95459E0,2.499591E1,0E0,2.2561035E1,4.7509747E0,4.9427002E1,2.8475586E1,0E0,1.9397656E2,0E0,4.6668196E-1,0E0,0E0,1.3692703E0,1.5352722E1,4.5446777E1,2.8890228E0,3.1164795E1,0E0,2.2666016E0,0E0,0E0,3.2652832E1,0E0,0E0,0E0,0E0,1.17041016E2,0E0,0E0,0E0,0E0,0E0,0E0,0E0,0E0,0E0,0E0,0E0,0E0,0E0,0E0,0E0,0E0,0E0,0E0],"parents":[2147483647,0,0,1,1,2,2,3,3,4,4,5,5,6,6,7,7,8,8,9,9,10,10,11,11,12,12,15,15,16,16,17,17,18,18,20,20,21,21,22,22,23,23,25,25,27,27,30,30,31,31,32,32,33,33,34,34,36,36,39,39,44,44],"right_children":[2,4,6,8,10,12,14,16,18,20,22,24,26,-1,-1,28,30,32,34,-1,36,38,40,42,-1,44,-1,46,-1,-1,48,50,52,54,56,-1,58,-1,-1,60,-1,-1,-1,-1,62,-1,-1,-1,-1,-1,-1,-1,-1,-1,-1,-1,-1,-1,-1,-1,-1,-1,-1],"split_conditions":[1.06604996E2,4.98E1,2.1542E2,1.306975E1,9.278E1,1.41295E2,1.3747E2,3.6282501E0,4.21185E1,2.03897E1,8.458E1,1.7566E2,2.3713E2,1.9548249E0,1.09387E1,3.2344499E0,1.437815E1,3.5088997E1,1.444845E1,3.1687546E-1,2.6751E1,8.0945E1,1.7157501E2,1.5612E2,1.729897E0,2.80615E1,3.436052E0,2.0178E0,2.16799E-1,4.2785978E-1,1.42884E1,2.6829E1,2.6774E1,1.462845E1,4.3512497E1,1.8297578E0,1.0022E2,2.1374245E-1,9.6359944E-1,1.00615005E2,3.9866273E0,4.94675E0,1.2584748E0,1.0969243E0,7.125E1,3.5692982E-2,8.512829E-2,7.2379816E-1,2.4842206E-1,8.7932223E-1,1.4928445E0,-2.6119825E-1,1.0826216E0,1.1194892E0,2.3638688E-1,2.7551374E0,1.550157E0,4.381696E0,2.8406892E0,2.7182672E0,1.23205E0,1.4422051E0,6.7489276E0],"split_indices":[59,59,59,17,28,45,0,36,58,0,0,3,0,0,0,41,58,24,10,0,26,1,16,47,0,5,0,59,0,0,7,53,31,8,39,0,52,0,0,58,0,0,0,0,29,0,0,0,0,0,0,0,0,0,0,0,0,0,0,0,0,0,0],"split_type":[0,0,0,0,0,0,0,0,0,0,0,0,0,0,0,0,0,0,0,0,0,0,0,0,0,0,0,0,0,0,0,0,0,0,0,0,0,0,0,0,0,0,0,0,0,0,0,0,0,0,0,0,0,0,0,0,0,0,0,0,0,0,0],"sum_hessian":[4.41E2,3.23E2,1.18E2,2.51E2,7.2E1,1.05E2,1.3E1,1.3E2,1.21E2,3.1E1,4.1E1,3.6E1,6.9E1,1E0,1.2E1,8.6E1,4.4E1,9.2E1,2.9E1,1E0,3E1,4E0,3.7E1,3.3E1,3E0,6.2E1,7E0,7.3E1,1.3E1,2.9E1,1.5E1,3.7E1,5.5E1,8E0,2.1E1,3E0,2.7E1,2E0,2E0,3E1,7E0,3.2E1,1E0,1E0,6.1E1,4E1,3.3E1,1.3E1,2E0,1.1E1,2.6E1,2E0,5.3E1,7E0,1E0,5E0,1.6E1,1.8E1,9E0,2.6E1,4E0,1E0,6E1],"tree_param":{"num_deleted":"0","num_feature":"60","num_nodes":"63","size_leaf_vector":"0"}},{"base_weights":[6.421578E0,2.9136496E0,1.472732E1,1.5601735E0,6.6291413E0,1.2042628E1,2.0129578E1,4.3890768E-1,2.7375884E0,4.695277E0,7.6351914E0,1.4401799E1,1.0123928E1,1.6150688E1,2.6214867E1,1.4891745E-1,9.670108E-1,2.5846136E0,5.009375E0,1.9785442E0,5.405218E0,1.1235564E1,6.936515E0,1.566559E1,9.296625E0,1.2939682E0,1.0268851E1,1.7412346E1,6.8645964E0,2.7216637E1,6.0950394E0,9.704141E-2,2.4893717E-1,6.914162E-1,1.2096808E0,2.236172E0,3.2097018E0,2.3306694E0,6.147792E-1,6.7580533E0,2.835444E0,6.3941383E-1,7.0595083E0,1.7300283E1,1.0110684E1,1.0622433E1,4.820691E0,1.7778025E1,4.5008698E0,7.5580177E0,2.045456E0,-3.1182051E-3,1.1759948E-1,6.753359E-2,2.7884993E-1,1.2985406E0,5.0739145E-1,2.414546E0,2.3490742E-1,3.6128993E0,1.5986764E0,7.1784253E0,2.6837578E0,3.7995706E0,1.5594311E0,7.1467624E0,1.5665321E0,3.131691E0,1.7852129E1,9.395681E0,1.3894628E1],"categories":[],"categories_nodes":[],"categories_segments":[],"categories_sizes":[],"default_left":[1,1,1,1,1,1,1,1,1,1,1,1,1,1,1,1,1,1,0,1,1,0,1,1,0,0,1,1,1,0,0,1,1,0,1,1,1,0,0,1,1,0,1,1,0,1,0,0,0,0,0,0,0,0,0,0,0,0,0,0,0,0,0,0,0,0,0,0,0,0,0],"id":7,"left_children":[1,3,5,7,9,11,13,15,17,19,21,23,25,27,29,31,33,35,-1,37,39,-1,41,43,-1,-1,45,47,49,-1,-1,51,53,-1,55,57,59,-1,-1,61,63,-1,65,67,-1,69,-1,-1,-1,-1,-1,-1,-1,-1,-1,-1,-1,-1,-1,-1,-1,-1,-1,-1,-1,-1,-1,-1,-1,-1,-1],"loss_changes":[1.2835178E4,1.5586519E3,1.6575312E3,3.024433E2,1.2563257E2,2.6158594E2,5.935449E2,1.8080217E1,2.5975647E1,4.9095825E1,5.5385742E1,9.953418E1,5.4534668E1,2.0851562E2,1.3644531E2,3.8055563E-1,1.9725075E0,1.6127869E1,0E0,2.4088802E0,6.427344E1,0E0,3.1887451E1,8.8418945E1,0E0,0E0,4.8963867E1,3.329785E1,1.2488708E0,0E0,0E0,1.0949832E-1,1.2225151E-1,0E0,6.5164375E-1,2.5134888E1,1.7608337E1,0E0,0E0,6.425598E0,6.377205E0,0E0,1.08515625E1,1.08288574E2,0E0,6.213037E1,0E0,0E0,0E0,0E0,0E0,0E0,0E0,0E0,0E0,0E0,0E0,0E0,0E0,0E0,0E0,0E0,0E0,0E0,0E0,0E0,0E0,0E0,0E0,0E0,0E0],"parents":[2147483647,0,0,1,1,2,2,3,3,4,4,5,5,6,6,7,7,8,8,9,9,10,10,11,11,12,12,13,13,14,14,15,15,16,16,17,17,19,19,20,20,22,22,23,23,26,26,27,27,28,28,31,31,32,32,34,34,35,35,36,36,39,39,40,40,42,42,43,43,45,45],"right_children":[2,4,6,8,10,12,14,16,18,20,22,24,26,28,30,32,34,36,-1,38,40,-1,42,44,-1,-1,46,48,50,-1,-1,52,54,-1,56,58,60,-1,-1,62,64,-1,66,68,-1,70,-1,-1,-1,-1,-1,-1,-1,-1,-1,-1,-1,-1,-1,-1,-1,-1,-1,-1,-1,-1,-1,-1,-1,-1,-1],"split_conditions":[1.0088E2,4.32935E1,1.7978E2,1.510495E1,6.0050003E1,7.7132996E1,1.6165E2,4.1345E0,4.4375E1,2.719455E1,3.3635498E1,1.6022E2,8.0945E1,2.4120499E2,2.33945E2,2.2388E0,3.7452998E0,3.5635E1,1.5028126E0,2.66703E1,1.00165E2,3.3706694E0,6.3141502E1,1.6679999E2,2.7889876E0,3.8819048E-1,2.3323E2,2.5406E2,1.6035999E2,8.164991E0,1.8285118E0,1.4986501E0,1.46405E0,2.0742486E-1,1.510495E1,4.1175E1,4.7151E1,6.9920087E-1,1.8443376E-1,9.0134995E1,1.02195E2,1.9182415E-1,1.04369995E2,2.6472E1,3.0332055E0,1.9712E2,1.4462074E0,5.3334074E0,1.350261E0,2.2674055E0,6.136368E-1,-9.3546155E-4,3.5279844E-2,2.0260077E-2,8.3654985E-2,3.895622E-1,1.5221745E-1,7.243638E-1,7.0472226E-2,1.0838698E0,4.7960296E-1,2.1535277E0,8.051274E-1,1.1398712E0,4.6782935E-1,2.144029E0,4.6995965E-1,9.395073E-1,5.355639E0,2.8187046E0,4.1683884E0],"split_indices":[57,58,53,59,59,3,2,57,54,25,12,52,34,24,0,55,24,59,0,27,0,0,58,44,0,0,5,32,1,0,0,59,33,0,50,47,17,0,0,47,16,0,58,4,0,20,0,0,0,0,0,0,0,0,0,0,0,0,0,0,0,0,0,0,0,0,0,0,0,0,0],"split_type":[0,0,0,0,0,0,0,0,0,0,0,0,0,0,0,0,0,0,0,0,0,0,0,0,0,0,0,0,0,0,0,0,0,0,0,0,0,0,0,0,0,0,0,0,0,0,0,0,0,0,0,0,0,0,0,0,0,0,0,0,0,0,0,0,0,0,0,0,0,0,0],"sum_hessian":[4.41E2,3.11E2,1.3E2,2.29E2,8.2E1,8.9E1,4.1E1,1.18E2,1.11E2,3E1,5.2E1,3.7E1,5.2E1,2.7E1,1.4E1,7.7E1,4.1E1,1.06E2,5E0,7E0,2.3E1,6E0,4.6E1,2.8E1,9E0,1E0,5.1E1,2.3E1,4E0,1.3E1,1E0,5.2E1,2.5E1,2.1E1,2E1,7.1E1,3.5E1,5E0,2E0,1.4E1,9E0,1E0,4.5E1,2E1,8E0,4.7E1,4E0,2.2E1,1E0,3E0,1E0,9E0,4.3E1,4E0,2.1E1,1.7E1,3E0,6.5E1,6E0,2.7E1,8E0,1.2E1,2E0,4E0,5E0,4.4E1,1E0,1E0,1.9E1,3.7E1,1E1],"tree_param":{"num_deleted":"0","num_feature":"60","num_nodes":"71","size_leaf_vector":"0"}},{"base_weights":[4.623775E0,1.6408166E0,9.769377E0,6.144949E-1,3.0126772E0,8.48835E0,1.644987E1,1.9039291E-1,1.2609262E0,2.2664979E0,3.9448638E0,6.423373E0,9.862181E0,2.5196228E1,1.2361743E1,9.990715E-2,4.6899813E-1,9.902265E-1,1.7327065E0,2.988552E0,1.9107908E0,5.235138E0,3.107803E0,1.004394E1,5.553393E0,1.0016242E1,2.5178578E0,1.2729399E1,2.8719711E0,3.534847E-2,1.327707E-1,4.9002773E-1,-7.341385E-3,1.0884478E0,3.2959557E-1,2.8197644E0,1.1488246E0,3.8064256E0,1.1837049E0,-1.5269289E0,2.014221E0,2.0965466E0,6.8912706E0,4.5612654E-1,3.5492601E0,3.8543143E0,6.5009985E0,8.7916565E-1,1.0122112E1,1.3321122E1,5.3304086E0,1.503213E-1,2.385497E-3,2.0113288E-1,1.0059837E-1,3.1060168E-1,5.350839E-1,7.7413976E-1,1.3772097E0,5.8856964E-2,5.179353E-1,8.409996E-1,3.0093918E0,1.3873602E0,8.637762E-2,4.1672883E0,1.0941664E0,-9.061813E-3,1.3553946E0,5.724559E-1,2.2464137E0,5.775471E-1,2.2310398E0,8.112761E0,3.5586333E0,8.8993454E-1,-8.5645676E-1,1.5119667E0,4.128764E0,4.71921E0,1.0496889E0,3.4623172E0,6.970242E0,1.0322199E1,3.839962E0],"categories":[],"categories_nodes":[],"categories_segments":[],"categories_sizes":[],"default_left":[1,1,1,1,1,1,1,1,1,1,1,1,1,0,1,1,1,1,1,1,1,1,1,0,1,1,0,1,0,1,1,1,0,1,1,1,1,1,1,0,1,1,1,1,1,1,1,0,1,0,0,0,0,0,0,0,0,0,0,0,0,0,0,0,0,0,0,0,0,0,0,0,0,0,0,0,0,0,0,0,0,0,0,0,0],"id":8,"left_children":[1,3,5,7,9,11,13,15,17,19,21,23,25,-1,27,29,31,33,35,37,39,41,43,-1,45,47,-1,49,-1,51,53,55,-1,57,59,61,63,65,67,-1,69,71,73,75,77,79,81,-1,83,-1,-1,-1,-1,-1,-1,-1,-1,-1,-1,-1,-1,-1,-1,-1,-1,-1,-1,-1,-1,-1,-1,-1,-1,-1,-1,-1,-1,-1,-1,-1,-1,-1,-1,-1,-1],"loss_changes":[6.7682793E3,3.9378833E2,1.2467461E3,4.417269E1,7.452844E1,3.2814844E2,5.8243604E2,2.4489143E0,6.457718E0,1.2011444E1,3.9892212E1,1.26911865E2,6.642969E1,0E0,2.9731934E1,1.565504E-1,2.4401093E-1,2.4314384E0,1.0724281E1,2.649318E1,2.04982E1,8.431262E1,3.818155E1,0E0,5.3835815E1,6.7521484E1,0E0,7.7998047E0,0E0,1.0196728E-1,8.973485E-2,1.9740105E-2,0E0,2.291973E0,3.2645172E-1,9.5703125E-2,3.9350662E0,9.142838E0,1.650569E0,0E0,1.4782852E1,3.4583282E-1,1.9979065E1,4.178645E0,2.7995453E1,4.3560455E1,1.864331E1,0E0,5.8407715E1,0E0,0E0,0E0,0E0,0E0,0E0,0E0,0E0,0E0,0E0,0E0,0E0,0E0,0E0,0E0,0E0,0E0,0E0,0E0,0E0,0E0,0E0,0E0,0E0,0E0,0E0,0E0,0E0,0E0,0E0,0E0,0E0,0E0,0E0,0E0,0E0],"parents":[2147483647,0,0,1,1,2,2,3,3,4,4,5,5,6,6,7,7,8,8,9,9,10,10,11,11,12,12,14,14,15,15,16,16,17,17,18,18,19,19,20,20,21,21,22,22,24,24,25,25,27,27,29,29,30,30,31,31,33,33,34,34,35,35,36,36,37,37,38,38,40,40,41,41,42,42,43,43,44,44,45,45,46,46,48,48],"right_children":[2,4,6,8,10,12,14,16,18,20,22,24,26,-1,28,30,32,34,36,38,40,42,44,-1,46,48,-1,50,-1,52,54,56,-1,58,60,62,64,66,68,-1,70,72,74,76,78,80,82,-1,84,-1,-1,-1,-1,-1,-1,-1,-1,-1,-1,-1,-1,-1,-1,-1,-1,-1,-1,-1,-1,-1,-1,-1,-1,-1,-1,-1,-1,-1,-1,-1,-1,-1,-1,-1,-1],"split_conditions":[8.8455E1,3.066E1,1.9883E2,9.03355E0,4.32935E1,1.19185E2,1.46175E2,3.7984E0,2.781665E1,2.761615E1,4.3512497E1,8.2595E1,2.4897E2,7.558869E0,2.5406E2,1.77075E0,3.8068E0,2.71451E1,3.0989E1,4.3953E1,2.5962E1,2.552375E1,8.0945E1,3.013182E0,1.0255E2,2.6472E1,7.553574E-1,1.8239499E2,8.615914E-1,1.4426501E0,2.1093001E0,3.1615E0,-2.2024156E-3,1.437815E1,2.7291801E1,8.97205E0,4.15685E1,4.45815E1,1.30104E1,-4.5807868E-1,3.5122498E1,1.42029E1,3.3985E1,8.2125E1,1.0103999E2,1.4348001E2,8.1990005E1,2.6374972E-1,2.4766501E2,3.9963367E0,1.5991226E0,4.5096394E-2,7.1564916E-4,6.0339864E-2,3.0179514E-2,9.318051E-2,1.6052517E-1,2.3224194E-1,4.1316292E-1,1.765709E-2,1.5538059E-1,2.522999E-1,9.0281755E-1,4.162081E-1,2.5913287E-2,1.2501866E0,3.2824993E-1,-2.718544E-3,4.066184E-1,1.7173678E-1,6.7392415E-1,1.7326413E-1,6.6931194E-1,2.4338284E0,1.06759E0,2.6698038E-1,-2.5693703E-1,4.5359004E-1,1.2386293E0,1.4157631E0,3.149067E-1,1.0386952E0,2.0910728E0,3.09666E0,1.1519886E0],"split_indices":[58,56,58,48,58,59,21,56,59,7,39,44,27,0,42,58,21,55,22,59,31,19,1,0,41,10,0,16,0,52,1,33,0,58,58,1,44,33,3,0,8,3,12,0,21,24,19,0,0,0,0,0,0,0,0,0,0,0,0,0,0,0,0,0,0,0,0,0,0,0,0,0,0,0,0,0,0,0,0,0,0,0,0,0,0],"split_type":[0,0,0,0,0,0,0,0,0,0,0,0,0,0,0,0,0,0,0,0,0,0,0,0,0,0,0,0,0,0,0,0,0,0,0,0,0,0,0,0,0,0,0,0,0,0,0,0,0,0,0,0,0,0,0,0,0,0,0,0,0,0,0,0,0,0,0,0,0,0,0,0,0,0,0,0,0,0,0,0,0,0,0,0,0],"sum_hessian":[4.41E2,2.8E2,1.61E2,1.61E2,1.19E2,1.37E2,2.4E1,9.8E1,6.3E1,6.8E1,5.1E1,5.7E1,8E1,6E0,1.8E1,7.5E1,2.3E1,4.2E1,2.1E1,2E1,4.8E1,1.8E1,3.3E1,9E0,4.8E1,7.8E1,2E0,1.7E1,1E0,2.6E1,4.9E1,2.2E1,1E0,3.6E1,6E0,6E0,1.5E1,1.3E1,7E0,1E0,4.7E1,7E0,1.1E1,5E0,2.8E1,1.9E1,2.9E1,1E0,7.7E1,1.5E1,2E0,5E0,2.1E1,1.4E1,3.5E1,6E0,1.6E1,1.9E1,1.7E1,3E0,3E0,1E0,5E0,1.2E1,3E0,1.1E1,2E0,1E0,6E0,7E0,4E1,1E0,6E0,7E0,4E0,4E0,1E0,7E0,2.1E1,1.4E1,5E0,5E0,2.4E1,7.4E1,3E0],"tree_param":{"num_deleted":"0","num_feature":"60","num_nodes":"85","size_leaf_vector":"0"}},{"base_weights":[3.3234675E0,1.6213173E0,7.9834285E0,8.014305E-1,3.5687406E0,7.068474E0,1.4829714E1,2.6617232E-1,1.4824418E0,2.2757306E0,3.9919732E0,5.6935534E0,8.108174E0,1.8411827E1,5.415967E0,9.0004206E-2,5.7536274E-1,1.3779463E0,2.9072971E0,3.8693457E0,1.8996352E0,8.530728E0,3.7367814E0,6.386051E0,6.262752E-1,3.0051205E0,8.639197E0,5.3609807E-2,1.8419762E-1,1.0404357E0,4.9522462E-1,1.8652347E0,1.1051576E0,3.2021904E0,7.164154E-1,5.9295654E-1,4.763823E0,1.3577946E0,2.745862E0,3.2718942E0,4.6435757E0,6.965598E0,2.4104373E0,1.7189941E0,-2.9650192E0,3.1324005E-1,3.4015605E0,9.6430025E0,5.520279E0,7.9017326E-2,7.0919576E-3,1.3232534E-1,2.5018504E-1,3.9591026E-1,1.2637208E0,2.6087856E-1,6.774723E-1,1.0052582E0,2.8301895E0,-4.040575E-1,1.1860052E0,1.5264989E0,1.1790975E-1,6.7386246E-1,2.945596E0,4.3074846E0,2.1901228E0,2.0978413E0,4.9513183E0,8.154542E0,4.1433535E0,2.7859497E-1,3.2074554E0,6.683655E-1,3.4860687E0,1.0129436E1,2.9759674E0,2.3126984E0,7.4016995E0],"categories":[],"categories_nodes":[],"categories_segments":[],"categories_sizes":[],"default_left":[1,1,1,1,1,1,1,1,1,1,1,1,1,0,0,1,1,1,1,1,1,0,1,1,1,1,1,1,1,1,1,1,1,0,0,0,0,1,1,1,1,1,1,1,0,0,0,1,1,0,0,0,0,0,0,0,0,0,0,0,0,0,0,0,0,0,0,0,0,0,0,0,0,0,0,0,0,0,0],"id":9,"left_children":[1,3,5,7,9,11,13,15,17,19,21,23,25,-1,-1,27,29,31,33,35,37,-1,39,41,43,45,47,49,51,53,55,57,59,-1,-1,-1,-1,61,63,65,67,69,71,73,-1,-1,-1,75,77,-1,-1,-1,-1,-1,-1,-1,-1,-1,-1,-1,-1,-1,-1,-1,-1,-1,-1,-1,-1,-1,-1,-1,-1,-1,-1,-1,-1,-1,-1],"loss_changes":[3.4929795E3,5.160565E2,6.34333E2,8.3444305E1,4.3450806E1,1.0536328E2,3.3865674E2,7.0292473E0,1.1031906E1,8.232788E0,5.035852E1,1.6794543E2,1.3120898E2,0E0,0E0,2.7808672E-1,1.2364435E0,1.0699585E1,1.5823555E0,8.897881E0,6.817642E0,0E0,1.3894165E1,8.22843E1,3.256678E1,6.4046783E0,1.0956885E2,7.271761E-2,4.5621276E-2,3.6315727E-1,1.6170416E0,2.4539604E1,8.288269E0,0E0,0E0,0E0,0E0,3.1667976E0,1.3258591E0,4.545941E1,6.0649414E0,9.036597E1,1.10002365E1,8.809269E0,0E0,0E0,0E0,9.309155E1,7.3404205E1,0E0,0E0,0E0,0E0,0E0,0E0,0E0,0E0,0E0,0E0,0E0,0E0,0E0,0E0,0E0,0E0,0E0,0E0,0E0,0E0,0E0,0E0,0E0,0E0,0E0,0E0,0E0,0E0,0E0,0E0],"parents":[2147483647,0,0,1,1,2,2,3,3,4,4,5,5,6,6,7,7,8,8,9,9,10,10,11,11,12,12,15,15,16,16,17,17,18,18,19,19,20,20,22,22,23,23,24,24,25,25,26,26,27,27,28,28,29,29,30,30,31,31,32,32,37,37,38,38,39,39,40,40,41,41,42,42,43,43,47,47,48,48],"right_children":[2,4,6,8,10,12,14,16,18,20,22,24,26,-1,-1,28,30,32,34,36,38,-1,40,42,44,46,48,50,52,54,56,58,60,-1,-1,-1,-1,62,64,66,68,70,72,74,-1,-1,-1,76,78,-1,-1,-1,-1,-1,-1,-1,-1,-1,-1,-1,-1,-1,-1,-1,-1,-1,-1,-1,-1,-1,-1,-1,-1,-1,-1,-1,-1,-1,-1],"split_conditions":[1.0567E2,4.32935E1,2.1661E2,1.306975E1,5.1665E1,1.5698E2,2.3334E2,3.4784498E0,4.4375E1,4.1109497E1,2.640475E1,1.76185E2,7.7132996E1,5.523548E0,1.6247902E0,2.4568E0,1.47685E0,3.066E1,1.142E2,1.38757E1,5.4725E1,2.5592186E0,1.1229E2,1.7275E2,2.18105E2,2.539E1,2.1898999E2,2.27525E0,3.0727E0,1.4215E0,8.508E0,2.8216E1,2.4693E1,9.606572E-1,2.1492463E-1,1.7788696E-1,1.429147E0,5.1550003E1,7.9975006E1,9.2445E1,8.961E1,1.13035E2,1.3726001E2,2.0911499E2,-8.895058E-1,9.397202E-2,1.0204682E0,2.4766501E2,2.1661E2,2.37052E-2,2.1275873E-3,3.9697602E-2,7.505552E-2,1.1877308E-1,3.7911624E-1,7.826357E-2,2.0324169E-1,3.0157748E-1,8.490569E-1,-1.2121726E-1,3.5580158E-1,4.579497E-1,3.5372928E-2,2.0215875E-1,8.8367885E-1,1.2922454E0,6.570369E-1,6.293524E-1,1.4853956E0,2.4463627E0,1.2430061E0,8.35785E-2,9.6223664E-1,2.0050965E-1,1.0458207E0,3.0388308E0,8.9279026E-1,6.938095E-1,2.22051E0],"split_indices":[57,58,59,17,59,56,51,37,54,55,18,28,38,0,0,52,1,49,1,0,47,0,41,47,3,0,33,29,36,4,33,54,31,0,0,0,0,47,0,41,1,2,40,7,0,0,0,0,39,0,0,0,0,0,0,0,0,0,0,0,0,0,0,0,0,0,0,0,0,0,0,0,0,0,0,0,0,0,0],"split_type":[0,0,0,0,0,0,0,0,0,0,0,0,0,0,0,0,0,0,0,0,0,0,0,0,0,0,0,0,0,0,0,0,0,0,0,0,0,0,0,0,0,0,0,0,0,0,0,0,0,0,0,0,0,0,0,0,0,0,0,0,0,0,0,0,0,0,0,0,0,0,0,0,0,0,0,0,0,0,0],"sum_hessian":[4.41E2,3.24E2,1.17E2,2.29E2,9.5E1,1.05E2,1.2E1,1.29E2,1E2,2.5E1,7E1,4.8E1,5.7E1,8E0,4E0,8.3E1,4.6E1,9.5E1,5E0,3E0,2.2E1,2E0,6.8E1,4.2E1,6E0,6E0,5.1E1,6.1E1,2.2E1,5E0,4.1E1,3.2E1,6.3E1,4E0,1E0,1E0,2E0,1.5E1,7E0,4.8E1,2E1,3.6E1,6E0,5E0,1E0,1E0,5E0,3.7E1,1.4E1,3.9E1,2.2E1,1.4E1,8E0,2E0,3E0,1.9E1,2.2E1,1.8E1,1.4E1,3E0,6E1,1.3E1,2E0,1E0,6E0,2.3E1,2.5E1,3E0,1.7E1,2.4E1,1.2E1,2E0,4E0,4E0,1E0,3.4E1,3E0,6E0,8E0],"tree_param":{"num_deleted":"0","num_feature":"60","num_nodes":"79","size_leaf_vector":"0"}},{"base_weights":[2.4021988E0,8.711649E-1,5.121767E0,2.879641E-1,1.5796912E0,4.0227275E0,8.186742E0,1.0302596E-1,5.934033E-1,2.4868767E0,1.2641281E0,1.0034132E1,3.7263818E0,1.2491294E1,6.19203E0,5.117048E-2,2.6294222E-1,5.10593E-1,1.2397957E0,1.4912298E0,3.827343E0,7.082049E-1,1.8650818E0,2.9405506E0,5.072991E0,2.632365E0,1.4199842E1,4.2457957E0,7.6296225E0,-1.856177E-2,6.721585E-2,3.1232455E-1,9.839589E-2,5.715426E-1,-2.0102195E-1,1.1411549E0,3.0946019E0,5.0238495E0,1.5941105E0,1.1063931E0,1.5784264E-2,2.8684714E0,1.4265776E0,4.0812316E0,2.390056E0,6.7411113E0,2.9844089E0,2.662506E-1,3.6822968E0,1.5569651E1,5.813741E0,4.7384233E0,6.95811E-1,2.9471207E0,8.483499E0,-6.456119E-2,6.119756E-2,1.224781E-1,4.361727E-2,1.828525E-1,4.2147964E-1,-4.537201E-2,1.2991922E-1,1.0795187E0,5.03903E-1,-2.0019531E-2,-2.4126768E-1,1.8379775E0,6.395788E-1,1.384755E0,2.1023284E-1,-6.040323E-1,3.9599565E-1,2.9145303E-1,3.3105242E0,3.9755142E-1,1.7279105E0,1.5334505E0,4.8902454E0,1.2078927E0,3.0699158E0,1.881813E0,7.409326E0,9.627056E-1,5.3484125E0,4.9025674E0,1.384346E0,1.2003098E0,-1.5659332E-1,1.0068141E1,3.934442E0],"categories":[],"categories_nodes":[],"categories_segments":[],"categories_sizes":[],"default_left":[1,1,1,1,1,1,1,1,1,1,1,0,1,1,1,1,1,1,0,1,1,1,1,1,1,1,1,1,1,1,1,1,1,1,1,1,0,0,0,1,1,1,1,1,1,1,1,0,0,0,0,1,1,0,1,0,0,0,0,0,0,0,0,0,0,0,0,0,0,0,0,0,0,0,0,0,0,0,0,0,0,0,0,0,0,0,0,0,0,0,0],"id":10,"left_children":[1,3,5,7,9,11,13,15,17,19,21,-1,23,25,27,29,31,33,-1,35,37,39,41,43,45,47,49,51,53,55,57,59,61,63,65,67,-1,-1,-1,69,71,73,75,77,79,81,83,-1,-1,-1,-1,85,87,-1,89,-1,-1,-1,-1,-1,-1,-1,-1,-1,-1,-1,-1,-1,-1,-1,-1,-1,-1,-1,-1,-1,-1,-1,-1,-1,-1,-1,-1,-1,-1,-1,-1,-1,-1,-1,-1],"loss_changes":[1.835916E3,1.1689761E2,5.026631E2,8.80738E0,3.349939E1,1.7460193E2,2.746936E2,8.0750585E-1,2.5251198E0,3.7000763E1,3.1085297E1,0E0,1.0677649E2,1.647544E2,5.1542847E1,8.628254E-2,1.6428494E-1,2.457017E0,0E0,7.694584E0,2.6728424E1,1.4319647E1,1.614746E1,3.7341003E1,1.2272595E2,6.4723625E0,2.435559E1,2.2935272E1,3.897046E1,5.8984227E-2,7.551268E-2,1.7731702E-1,3.761898E-2,1.1739941E0,3.15928E-2,5.1156425E0,0E0,0E0,0E0,7.94096E0,4.95242E0,1.384446E1,9.855774E0,3.9908417E1,3.8888275E1,5.749231E1,9.043732E1,0E0,0E0,0E0,0E0,3.703308E-1,1.4780712E0,0E0,5.409967E1,0E0,0E0,0E0,0E0,0E0,0E0,0E0,0E0,0E0,0E0,0E0,0E0,0E0,0E0,0E0,0E0,0E0,0E0,0E0,0E0,0E0,0E0,0E0,0E0,0E0,0E0,0E0,0E0,0E0,0E0,0E0,0E0,0E0,0E0,0E0,0E0],"parents":[2147483647,0,0,1,1,2,2,3,3,4,4,5,5,6,6,7,7,8,8,9,9,10,10,12,12,13,13,14,14,15,15,16,16,17,17,19,19,20,20,21,21,22,22,23,23,24,24,25,25,26,26,27,27,28,28,29,29,30,30,31,31,32,32,33,33,34,34,35,35,39,39,40,40,41,41,42,42,43,43,44,44,45,45,46,46,51,51,52,52,54,54],"right_children":[2,4,6,8,10,12,14,16,18,20,22,-1,24,26,28,30,32,34,-1,36,38,40,42,44,46,48,50,52,54,56,58,60,62,64,66,68,-1,-1,-1,70,72,74,76,78,80,82,84,-1,-1,-1,-1,86,88,-1,90,-1,-1,-1,-1,-1,-1,-1,-1,-1,-1,-1,-1,-1,-1,-1,-1,-1,-1,-1,-1,-1,-1,-1,-1,-1,-1,-1,-1,-1,-1,-1,-1,-1,-1,-1,-1],"split_conditions":[8.9435E1,2.90625E1,1.8534E2,9.03355E0,2.95545E1,7.4712006E1,1.51115E2,3.7984E0,3.76895E1,1.660005E1,8.7785E1,3.0102398E0,1.46285E2,1.6E2,1.58165E2,1.91155E0,3.7308998E0,3.4894997E1,3.719387E-1,1.92273E1,3.3985E1,4.4104E1,9.991E1,9.118E1,1.7660501E2,6.76095E1,1.8375E2,2.39715E2,1.46405E2,1.97665E0,1.6907E0,2.0525E0,1.4193499E0,3.1187E0,3.5833E1,1.415645E1,9.283806E-1,1.507155E0,4.7823316E-1,4.3175E1,4.37835E1,8.6065E1,4.5205E1,8.0945E1,1.09145E2,7.52715E1,1.94285E2,7.9875186E-2,1.1046891E0,4.6708956E0,1.7441224E0,2.04775E2,1.47395E2,8.8413626E-1,2.09745E2,-1.9368358E-2,1.8359268E-2,3.6743432E-2,1.3085182E-2,5.4855753E-2,1.264439E-1,-1.36116035E-2,3.8975768E-2,3.238556E-1,1.511709E-1,-6.0058595E-3,-7.2380304E-2,5.513933E-1,1.9187365E-1,4.1542652E-1,6.306986E-2,-1.8120968E-1,1.18798696E-1,8.7435916E-2,9.931573E-1,1.1926543E-1,5.183732E-1,4.6003518E-1,1.4670737E0,3.623678E-1,9.209748E-1,5.6454396E-1,2.2227979E0,2.8881168E-1,1.6045238E0,1.4707702E0,4.1530383E-1,3.6009294E-1,-4.6978E-2,3.0204425E0,1.1803327E0],"split_indices":[58,59,51,48,29,48,21,56,50,0,3,0,41,48,5,5,30,41,0,14,12,6,4,42,31,0,6,23,1,36,42,22,0,11,23,17,0,0,0,34,8,7,45,45,41,27,28,0,0,0,0,17,0,0,16,0,0,0,0,0,0,0,0,0,0,0,0,0,0,0,0,0,0,0,0,0,0,0,0,0,0,0,0,0,0,0,0,0,0,0,0],"split_type":[0,0,0,0,0,0,0,0,0,0,0,0,0,0,0,0,0,0,0,0,0,0,0,0,0,0,0,0,0,0,0,0,0,0,0,0,0,0,0,0,0,0,0,0,0,0,0,0,0,0,0,0,0,0,0,0,0,0,0,0,0,0,0,0,0,0,0,0,0,0,0,0,0,0,0,0,0,0,0,0,0,0,0,0,0,0,0,0,0,0,0],"sum_hessian":[4.41E2,2.83E2,1.58E2,1.56E2,1.27E2,1.18E2,4E1,9.8E1,5.8E1,3.1E1,9.6E1,4E0,1.14E2,1.1E1,2.9E1,7.5E1,2.3E1,5.3E1,5E0,1.9E1,1.2E1,5.1E1,4.5E1,7.4E1,4E1,2E0,9E0,1.4E1,1.5E1,1.4E1,6.1E1,1.7E1,6E0,4.9E1,4E0,1.7E1,2E0,7E0,5E0,3.2E1,1.9E1,1.2E1,3.3E1,2.2E1,5.2E1,2.1E1,1.9E1,1E0,1E0,7E0,2E0,1.2E1,2E0,3E0,1.2E1,9E0,5E0,1.7E1,4.4E1,9E0,8E0,1E0,5E0,4E0,4.5E1,1E0,3E0,6E0,1.1E1,2.4E1,8E0,7E0,1.2E1,2E0,1E1,8E0,2.5E1,6E0,1.6E1,2E1,3.2E1,3E0,1.8E1,1.1E1,8E0,1.1E1,1E0,1E0,1E0,8E0,4E0],"tree_param":{"num_deleted":"0","num_feature":"60","num_nodes":"91","size_leaf_vector":"0"}},{"base_weights":[1.7552961E0,6.3381344E-1,3.7474077E0,1.8784694E-1,1.1459275E0,2.9075181E0,6.093736E0,8.648716E-2,4.3697718E-1,1.9538938E0,8.994721E-1,7.6259413E0,2.6770866E0,9.472694E0,4.5390286E0,7.2654314E-2,5.556405E-1,5.0180185E-1,-6.1622745E-1,9.214382E-1,2.6892164E0,7.1867937E-1,1.9974632E0,2.300981E0,4.251035E0,2.2631073E-1,1.0292701E1,4.985367E0,1.9227804E0,1.7553248E-1,3.6194522E-2,6.195467E-1,2.4855804E-1,4.3508947E-1,2.0285378E0,3.2887793E0,1.3628725E0,7.735605E-1,-1.1307284E0,2.3328166E0,1.1615225E0,2.3821547E0,-2.6646729E0,5.320971E0,1.847269E0,1.12984705E1,3.8444927E0,3.8736312E0,6.531382E0,2.3605773E0,-1.3310242E-1,-1.2692179E-2,2.274434E-1,4.652133E-2,-1.3007717E-1,4.059957E-1,1.1026747E0,-1.0377979E-1,4.3510494E-1,-2.249012E-1,5.2357864E-1,3.0363083E-1,2.5022964E0,1.1463293E0,3.6375093E0,5.5918247E-1,1.572512E0,4.6940193E-1,1.0809498E0,2.2815959E-1,2.5798733E0,5.676416E0,2.125534E0,-9.384155E-3,2.4677174E0,4.004058E0,8.934021E-1,1.0202637E0,7.092739E0,6.852417E-1,2.608101E0],"categories":[],"categories_nodes":[],"categories_segments":[],"categories_sizes":[],"default_left":[1,1,1,1,1,1,1,1,1,1,1,0,1,1,1,1,0,1,0,1,1,1,1,1,1,0,1,1,1,1,1,1,1,1,1,1,1,1,0,0,0,1,0,1,1,0,0,1,1,1,0,0,0,0,0,0,0,0,0,0,0,0,0,0,0,0,0,0,0,0,0,0,0,0,0,0,0,0,0,0,0],"id":11,"left_children":[1,3,5,7,9,11,13,15,17,19,21,-1,23,25,27,29,-1,31,-1,33,35,37,39,41,43,-1,45,47,49,51,53,55,57,59,61,63,65,67,-1,-1,-1,69,-1,71,73,-1,-1,75,77,79,-1,-1,-1,-1,-1,-1,-1,-1,-1,-1,-1,-1,-1,-1,-1,-1,-1,-1,-1,-1,-1,-1,-1,-1,-1,-1,-1,-1,-1,-1,-1],"loss_changes":[9.8510535E2,6.464629E1,2.9561694E2,3.8257308E0,2.452739E1,1.0897034E2,1.7238818E2,6.735002E-1,3.3132648E0,2.0297691E1,1.9010872E1,0E0,5.8295105E1,8.865576E1,2.5446167E1,3.9874566E-1,0E0,1.0983696E0,0E0,6.6555147E0,9.036659E0,1.0009476E1,1.2150764E0,4.464032E1,4.4180115E1,0E0,2.7902588E1,1.7668823E1,5.714554E0,2.7647227E-1,1.4513284E-1,2.4411488E0,1.0310681E0,7.601757E-1,2.5089836E0,4.0487213E0,3.0007458E-1,7.7201653E0,0E0,0E0,0E0,3.944458E1,0E0,3.835785E0,9.238817E0,0E0,0E0,3.030716E0,2.0606903E1,2.8624535E-1,0E0,0E0,0E0,0E0,0E0,0E0,0E0,0E0,0E0,0E0,0E0,0E0,0E0,0E0,0E0,0E0,0E0,0E0,0E0,0E0,0E0,0E0,0E0,0E0,0E0,0E0,0E0,0E0,0E0,0E0,0E0],"parents":[2147483647,0,0,1,1,2,2,3,3,4,4,5,5,6,6,7,7,8,8,9,9,10,10,12,12,13,13,14,14,15,15,17,17,19,19,20,20,21,21,22,22,23,23,24,24,26,26,27,27,28,28,29,29,30,30,31,31,32,32,33,33,34,34,35,35,36,36,37,37,41,41,43,43,44,44,47,47,48,48,49,49],"right_children":[2,4,6,8,10,12,14,16,18,20,22,-1,24,26,28,30,-1,32,-1,34,36,38,40,42,44,-1,46,48,50,52,54,56,58,60,62,64,66,68,-1,-1,-1,70,-1,72,74,-1,-1,76,78,80,-1,-1,-1,-1,-1,-1,-1,-1,-1,-1,-1,-1,-1,-1,-1,-1,-1,-1,-1,-1,-1,-1,-1,-1,-1,-1,-1,-1,-1,-1,-1],"split_conditions":[8.9435E1,2.8216E1,1.8534E2,1.42044E1,2.95545E1,7.4712006E1,1.48965E2,1.431195E1,2.7989E1,1.461345E1,1.1212E2,2.2877824E0,1.7008E2,2.5087002E1,2.3884E2,1.86925E0,1.6669217E-1,1.35179E1,-1.8486825E-1,1.467805E1,3.3985E1,1.05229996E2,1.0046E2,2.32055E2,1.9069E2,6.789322E-2,1.69255E2,2.03195E2,1.6001E2,1.6027E0,1.411825E1,1.90564E1,2.10201E1,1.279015E1,1.39023E1,1.39458E1,2.67375E1,4.3310997E1,-3.3921853E-1,6.99845E-1,3.4845677E-1,8.0945E1,-7.994019E-1,2.3862E2,9.5225006E1,3.3895414E0,1.1533478E0,2.5406E2,1.46405E2,1.52195E2,-3.9930727E-2,-3.8076537E-3,6.823302E-2,1.3956399E-2,-3.9023153E-2,1.2179872E-1,3.3080244E-1,-3.1133939E-2,1.3053149E-1,-6.7470364E-2,1.570736E-1,9.108925E-2,7.5068897E-1,3.438988E-1,1.0912528E0,1.6775474E-1,4.7175363E-1,1.4082058E-1,3.2428494E-1,6.844788E-2,7.73962E-1,1.7029248E0,6.3766026E-1,-2.8152466E-3,7.4031526E-1,1.2012174E0,2.6802063E-1,3.0607912E-1,2.127822E0,2.0557252E-1,7.824303E-1],"split_indices":[58,54,51,59,29,48,20,45,54,7,17,0,59,1,30,0,0,9,0,5,12,41,32,14,58,0,12,22,1,57,48,51,0,8,0,1,23,35,0,0,0,34,0,19,1,0,0,42,0,0,0,0,0,0,0,0,0,0,0,0,0,0,0,0,0,0,0,0,0,0,0,0,0,0,0,0,0,0,0,0,0],"split_type":[0,0,0,0,0,0,0,0,0,0,0,0,0,0,0,0,0,0,0,0,0,0,0,0,0,0,0,0,0,0,0,0,0,0,0,0,0,0,0,0,0,0,0,0,0,0,0,0,0,0,0,0,0,0,0,0,0,0,0,0,0,0,0,0,0,0,0,0,0,0,0,0,0,0,0,0,0,0,0,0,0],"sum_hessian":[4.41E2,2.83E2,1.58E2,1.52E2,1.31E2,1.18E2,4E1,1.09E2,4.3E1,2.9E1,1.02E2,4E0,1.14E2,1.1E1,2.9E1,1.07E2,2E0,4.1E1,2E0,1.3E1,1.6E1,8.9E1,1.3E1,9.4E1,2E1,1E0,1E1,2.4E1,5E0,2.7E1,8E1,2.7E1,1.4E1,1E1,3E0,1E1,6E0,8.7E1,2E0,8E0,5E0,9.3E1,1E0,1.3E1,7E0,8E0,2E0,1.6E1,8E0,4E0,1E0,6E0,2.1E1,7.6E1,4E0,2E1,7E0,5E0,9E0,1E0,9E0,1E0,2E0,2E0,8E0,2E0,4E0,4.5E1,4.2E1,8E0,8.5E1,1.1E1,2E0,2E0,5E0,1.5E1,1E0,1E0,7E0,1E0,3E0],"tree_param":{"num_deleted":"0","num_feature":"60","num_nodes":"81","size_leaf_vector":"0"}},{"base_weights":[1.2731062E0,7.5119245E-1,3.6617582E0,3.6662596E-1,1.6593628E0,6.3381176E0,2.8256898E0,9.739082E-2,6.7319113E-1,2.9950862E0,1.1311214E0,3.6779811E0,9.992907E0,5.1738673E-1,3.3134143E0,6.484611E-1,8.0341406E-2,1.030417E0,5.078275E-1,6.1208444E0,2.5532162E0,3.6567612E0,9.8330986E-1,1.1513611E0,4.797371E0,1.0677571E1,2.942459E0,1.6389122E0,-1.3805313E0,3.5975103E0,1.5879092E0,3.664252E-2,2.2576208E-1,4.2219484E-1,1.4259232E0,-7.408323E-1,5.6322026E-1,1.9274521E-1,2.8287628E0,4.5018616E0,5.6073E-1,8.410833E-1,3.3331165E0,1.799408E0,-7.204132E-1,2.225999E0,-8.156586E-2,-1.9800568E0,-3.2082877E-1,-3.8602448E-1,3.7015476E0,1.1306254E-1,1.9931422E0,4.8568368E-2,-2.115881E-1,2.9857928E-1,-3.403988E-1,8.693921E-1,1.3988772E-1,2.034658E0,4.9197578E-1,-8.640785E-1,-1.8554688E-1,-4.916636E-1,6.3908976E-1,7.5041705E-1,-7.401352E-1,3.1755865E0,2.1404266E-1,2.059494E0,6.149944E-1,4.401731E0,6.363678E-2,-1.5604019E-1,3.3691406E-2,3.957871E0,1.5039622E0,-2.5102997E-1,4.2062378E-1],"categories":[],"categories_nodes":[],"categories_segments":[],"categories_sizes":[],"default_left":[1,1,1,1,1,1,1,1,1,1,1,1,1,1,1,0,1,1,1,0,1,1,1,1,0,0,0,1,1,1,1,1,1,1,1,1,1,1,1,0,0,1,1,0,0,0,1,0,0,0,1,1,0,0,0,0,0,0,0,0,0,0,0,0,0,0,0,0,0,0,0,0,0,0,0,0,0,0,0],"id":12,"left_children":[1,3,5,7,9,11,13,15,17,19,21,23,25,27,29,-1,31,33,35,-1,37,39,41,43,-1,-1,-1,45,47,49,51,53,55,57,59,61,63,65,67,-1,-1,69,71,-1,-1,-1,73,-1,-1,-1,75,77,-1,-1,-1,-1,-1,-1,-1,-1,-1,-1,-1,-1,-1,-1,-1,-1,-1,-1,-1,-1,-1,-1,-1,-1,-1,-1,-1],"loss_changes":[5.482776E2,1.265193E2,1.5886243E2,2.1146732E1,7.281531E1,1.3824664E2,6.808627E1,1.244471E0,6.5653877E0,2.5807526E1,2.5896461E1,2.8415771E1,2.3720703E0,2.780533E1,1.9288147E1,0E0,8.496149E-1,8.298538E0,6.227253E0,0E0,1.766652E1,7.9415016E0,2.2596138E1,7.3613048E0,0E0,0E0,0E0,8.262127E0,2.5413342E0,1.9249634E1,5.1535606E0,3.2111433E-1,1.3796495E0,1.8983343E0,1.1506573E1,1.1342025E-1,6.796932E0,2.6363745E0,2.1991455E1,0E0,0E0,1.884267E1,1.3695137E1,0E0,0E0,0E0,3.1008339E-2,0E0,0E0,0E0,1.770581E1,4.415314E-1,0E0,0E0,0E0,0E0,0E0,0E0,0E0,0E0,0E0,0E0,0E0,0E0,0E0,0E0,0E0,0E0,0E0,0E0,0E0,0E0,0E0,0E0,0E0,0E0,0E0,0E0,0E0],"parents":[2147483647,0,0,1,1,2,2,3,3,4,4,5,5,6,6,7,7,8,8,9,9,10,10,11,11,12,12,13,13,14,14,16,16,17,17,18,18,20,20,21,21,22,22,23,23,27,27,28,28,29,29,30,30,31,31,32,32,33,33,34,34,35,35,36,36,37,37,38,38,41,41,42,42,46,46,50,50,51,51],"right_children":[2,4,6,8,10,12,14,16,18,20,22,24,26,28,30,-1,32,34,36,-1,38,40,42,44,-1,-1,-1,46,48,50,52,54,56,58,60,62,64,66,68,-1,-1,70,72,-1,-1,-1,74,-1,-1,-1,76,78,-1,-1,-1,-1,-1,-1,-1,-1,-1,-1,-1,-1,-1,-1,-1,-1,-1,-1,-1,-1,-1,-1,-1,-1,-1,-1,-1],"split_conditions":[1.46285E2,5.30055E1,1.5439E2,2.680205E1,8.793E1,1.5554E2,1.54065E2,1.3434999E0,2.9417E1,2.6536499E1,3.3636E1,7.7132996E1,1.6523999E2,1.4689E2,2.3713E2,1.9453834E-1,8.508E0,3.2019302E1,2.66315E1,1.8362534E0,2.81075E1,2.6751E1,1.83765E2,3.17945E1,1.4392114E0,3.2032716E0,8.8273776E-1,2.1867E2,2.1276E2,1.33725E2,2.00355E2,3.7984E0,3.25815E1,1.38308E1,4.4235E1,4.3285E1,2.7287601E1,3.3204002E1,1.1384E2,1.3505585E0,1.68219E-1,8.374E1,2.1917E2,5.398224E-1,-2.1612397E-1,6.677998E-1,2.30195E2,-5.94017E-1,-9.6248634E-2,-1.1580735E-1,2.3884E2,2.29425E2,5.979427E-1,1.4570511E-2,-6.3476436E-2,8.9573786E-2,-1.0211964E-1,2.6081765E-1,4.196632E-2,6.103974E-1,1.4759274E-1,-2.5922358E-1,-5.5664066E-2,-1.4749908E-1,1.9172694E-1,2.2512512E-1,-2.2204056E-1,9.52676E-1,6.42128E-2,6.178482E-1,1.8449832E-1,1.3205193E0,1.9091034E-2,-4.6812057E-2,1.0107422E-2,1.1873614E0,4.5118865E-1,-7.530899E-2,1.2618715E-1],"split_indices":[41,55,34,59,43,24,59,1,29,11,13,27,8,55,9,0,33,53,41,0,10,1,24,0,0,0,0,9,0,31,20,21,6,16,56,0,19,0,13,0,0,53,0,0,0,0,0,0,0,0,30,0,0,0,0,0,0,0,0,0,0,0,0,0,0,0,0,0,0,0,0,0,0,0,0,0,0,0,0],"split_type":[0,0,0,0,0,0,0,0,0,0,0,0,0,0,0,0,0,0,0,0,0,0,0,0,0,0,0,0,0,0,0,0,0,0,0,0,0,0,0,0,0,0,0,0,0,0,0,0,0,0,0,0,0,0,0,0,0,0,0,0,0,0,0,0,0,0,0,0,0,0,0,0,0,0,0,0,0,0,0],"sum_hessian":[4.41E2,3.63E2,7.8E1,2.56E2,1.07E2,1.7E1,6.1E1,1.37E2,1.19E2,2.9E1,7.8E1,1.1E1,6E0,1.1E1,5E1,3E0,1.34E2,3.6E1,8.3E1,2E0,2.7E1,3E0,7.5E1,4E0,7E0,5E0,1E0,7E0,4E0,4.2E1,8E0,1.04E2,3E1,1.5E1,2.1E1,3E0,8E1,3E0,2.4E1,2E0,1E0,7.2E1,3E0,3E0,1E0,5E0,2E0,2E0,2E0,1E0,4.1E1,2E0,6E0,1E2,4E0,2.7E1,3E0,5E0,1E1,1.2E1,9E0,2E0,1E0,5E0,7.5E1,2E0,1E0,2.1E1,3E0,1E1,6.2E1,2E0,1E0,1E0,1E0,3.6E1,5E0,1E0,1E0],"tree_param":{"num_deleted":"0","num_feature":"60","num_nodes":"79","size_leaf_vector":"0"}},{"base_weights":[9.260189E-1,5.1545656E-1,2.5953774E0,2.62264E-1,1.1888028E0,2.240447E0,5.4225006E0,6.91381E-2,4.7680965E-1,2.7476103E0,7.9885167E-1,5.460424E0,2.0858967E0,1.5403442E0,7.106855E0,5.025575E-1,5.578391E-2,6.7447466E-1,2.3610148E-1,1.2833371E0,3.6958694E0,9.980383E-1,-1.9723184E-1,9.807789E-1,2.5101116E0,3.0979156E-1,1.8472646E0,7.3364496E-1,1.8098004E-1,2.449105E-2,1.5997638E-1,7.915228E-1,6.636706E-3,-5.717403E-1,3.9948308E-1,3.5361153E-1,3.0249176E0,4.631913E0,8.998146E-1,2.6200519E0,7.9216945E-1,-1.2633381E0,1.0493513E0,1.8513627E0,-8.8298607E-1,-7.045695E-1,2.644714E0,2.8932476E-1,1.3865305E-2,2.723028E-1,-6.9008306E-2,4.8424482E-1,1.1392678E0,-5.4902554E-1,2.8363824E-1,1.6032537E-2,-1.1627197E0,8.0332804E-1,-3.783385E-2,6.2225085E-1,-6.2911224E-1,1.6974191E-1,1.5466275E0,-1.5782127E0,-2.1247609E-1,1.00120544E-1,1.1908697E0,2.738054E0,6.224146E-1,5.98053E-1,-1.1799992E0,3.1658227E0,1.4555681E0],"categories":[],"categories_nodes":[],"categories_segments":[],"categories_sizes":[],"default_left":[1,1,1,1,1,1,1,1,1,1,1,0,1,1,0,1,1,1,1,1,1,1,1,1,1,0,0,0,0,1,1,1,1,1,1,1,0,0,0,0,1,1,1,1,1,0,1,0,0,0,0,0,0,0,0,0,0,0,0,0,0,0,0,0,0,0,0,0,0,0,0,0,0],"id":13,"left_children":[1,3,5,7,9,11,13,15,17,19,21,-1,23,25,-1,27,29,31,33,35,37,39,41,43,45,-1,-1,-1,-1,47,49,51,53,55,57,59,-1,-1,-1,-1,61,63,65,67,69,-1,71,-1,-1,-1,-1,-1,-1,-1,-1,-1,-1,-1,-1,-1,-1,-1,-1,-1,-1,-1,-1,-1,-1,-1,-1,-1,-1],"loss_changes":[3.015983E2,6.0381325E1,7.514972E1,1.0739958E1,5.676738E1,2.7924347E1,4.790332E1,7.7070457E-1,5.6930447E0,2.1638657E1,1.587096E1,0E0,3.3636322E1,9.384594E-1,0E0,1.6447508E-1,4.3624687E-1,5.2320805E0,7.7516303E0,1.3503082E1,2.4621658E1,1.996334E1,1.9931545E1,3.895369E1,2.566211E1,0E0,0E0,0E0,0E0,2.914642E-1,8.161432E-1,5.5390167E0,1.8488369E0,3.4922578E0,8.507587E0,2.2394536E0,0E0,0E0,0E0,0E0,2.79132E1,2.3117857E0,8.2110405E-1,1.5730953E1,4.224807E0,0E0,2.823465E1,0E0,0E0,0E0,0E0,0E0,0E0,0E0,0E0,0E0,0E0,0E0,0E0,0E0,0E0,0E0,0E0,0E0,0E0,0E0,0E0,0E0,0E0,0E0,0E0,0E0,0E0],"parents":[2147483647,0,0,1,1,2,2,3,3,4,4,5,5,6,6,7,7,8,8,9,9,10,10,12,12,13,13,15,15,16,16,17,17,18,18,19,19,20,20,21,21,22,22,23,23,24,24,29,29,30,30,31,31,32,32,33,33,34,34,35,35,40,40,41,41,42,42,43,43,44,44,46,46],"right_children":[2,4,6,8,10,12,14,16,18,20,22,-1,24,26,-1,28,30,32,34,36,38,40,42,44,46,-1,-1,-1,-1,48,50,52,54,56,58,60,-1,-1,-1,-1,62,64,66,68,70,-1,72,-1,-1,-1,-1,-1,-1,-1,-1,-1,-1,-1,-1,-1,-1,-1,-1,-1,-1,-1,-1,-1,-1,-1,-1,-1,-1],"split_conditions":[1.41295E2,6.0495003E1,2.2578E2,2.680205E1,8.258E1,3.3636E1,1.6173999E2,1.3434999E0,3.9711E1,3.4113E1,1.32315E2,1.6381272E0,1.54065E2,1.58555E2,2.1320565E0,1.3861E0,8.72995E0,4.37935E1,4.2777E1,2.85805E1,9.6244995E1,8.458E1,1.65875E2,1.48965E2,1.4616E2,9.293747E-2,5.5417943E-1,2.200935E-1,5.4294016E-2,1.38095E0,1.56671505E1,3.7519653E1,2.6472599E1,3.35365E1,3.84E1,3.60915E1,9.074753E-1,1.389574E0,2.699444E-1,7.8601557E-1,1.0567E2,1.80275E2,2.539E1,1.7031E2,2.80295E1,-2.1137087E-1,2.1081E2,8.679743E-2,4.1595916E-3,8.169085E-2,-2.0702492E-2,1.4527345E-1,3.4178036E-1,-1.6470766E-1,8.509147E-2,4.8097614E-3,-3.4881592E-1,2.4099842E-1,-1.1350156E-2,1.8667527E-1,-1.8873368E-1,5.0922576E-2,4.6398827E-1,-4.7346383E-1,-6.374283E-2,3.0036164E-2,3.572609E-1,8.2141626E-1,1.8672438E-1,1.794159E-1,-3.539998E-1,9.4974685E-1,4.3667045E-1],"split_indices":[45,50,59,59,44,9,25,1,13,2,57,0,59,0,0,0,34,46,12,16,20,34,55,55,44,0,0,0,0,10,46,57,25,59,57,1,0,0,0,0,41,33,0,31,3,0,33,0,0,0,0,0,0,0,0,0,0,0,0,0,0,0,0,0,0,0,0,0,0,0,0,0,0],"split_type":[0,0,0,0,0,0,0,0,0,0,0,0,0,0,0,0,0,0,0,0,0,0,0,0,0,0,0,0,0,0,0,0,0,0,0,0,0,0,0,0,0,0,0,0,0,0,0,0,0,0,0,0,0,0,0,0,0,0,0,0,0,0,0,0,0,0,0,0,0,0,0,0,0],"sum_hessian":[4.41E2,3.55E2,8.6E1,2.59E2,9.6E1,7.8E1,8E0,1.37E2,1.22E2,1.8E1,7.8E1,2E0,7.6E1,3E0,5E0,3E0,1.34E2,6.6E1,5.6E1,8E0,1E1,6.5E1,1.3E1,2.2E1,5.4E1,1E0,2E0,1E0,2E0,1.04E2,3E1,5.6E1,1E1,9E0,4.7E1,6E0,2E0,7E0,3E0,6E0,5.9E1,7E0,6E0,1.5E1,7E0,2E0,5.2E1,3E0,1.01E2,2E1,1E1,3.1E1,2.5E1,3E0,7E0,5E0,4E0,2.4E1,2.3E1,5E0,1E0,3.3E1,2.6E1,5E0,2E0,1E0,5E0,8E0,7E0,1E0,6E0,3.5E1,1.7E1],"tree_param":{"num_deleted":"0","num_feature":"60","num_nodes":"73","size_leaf_vector":"0"}},{"base_weights":[6.727854E-1,3.7327805E-1,1.8906226E0,1.548634E-1,8.1811774E-1,1.6743305E0,5.102948E0,1.7666024E-1,-9.049202E-1,2.2852628E0,6.5964377E-1,2.0825346E0,9.224226E-1,1.6005045E0,6.904409E0,5.3306174E-2,3.8730907E-1,-9.9928284E-1,-2.6373482E-1,7.387728E-1,3.9932961E0,8.369284E-1,4.467285E-2,1.7608204E0,3.4597125E0,-7.0175715E-2,1.6431978E0,6.80532E-2,-3.1196466E-1,1.093639E0,2.1273278E-1,-6.1059315E-2,1.0709175E0,7.366234E-1,2.6337967E0,-1.246753E0,3.500279E-1,2.3369935E0,7.6672786E-1,4.9232345E0,3.995018E-1,1.999588E-1,-1.7909622E0,2.473011E0,8.9031565E-1,3.9631113E-2,3.5359815E-1,-3.9814568E-1,-9.306844E-2,1.4467543E0,3.825095E-1,3.4951854E-1,-4.244282E-1,8.824921E-2,-1.7983818E-1,1.1944537E0,3.5398984E-1,3.0599315E0,6.776962E-1,-1.4959049E0,-1.2507248E-1,5.61888E-1,-6.908493E-1,-4.4430032E-1,2.5680275E0,-6.970215E-2,1.305338E0,1.1205292E-1,4.5796713E-1,5.5371666E-1,-3.050448E-1,2.6653812E0,5.6320953E-1,-8.761597E-3,1.4053258E0],"categories":[],"categories_nodes":[],"categories_segments":[],"categories_sizes":[],"default_left":[1,1,1,1,1,1,1,1,1,1,1,1,1,0,0,1,1,0,0,1,0,1,1,1,1,1,1,1,1,1,1,1,0,1,1,1,1,1,1,0,1,1,0,1,1,0,0,0,0,0,0,0,0,0,0,0,0,0,0,0,0,0,0,0,0,0,0,0,0,0,0,0,0,0,0],"id":14,"left_children":[1,3,5,7,9,11,13,15,17,19,21,23,25,-1,-1,27,29,-1,-1,31,-1,33,35,37,39,41,43,45,47,49,51,53,-1,55,57,59,61,63,65,-1,67,69,-1,71,73,-1,-1,-1,-1,-1,-1,-1,-1,-1,-1,-1,-1,-1,-1,-1,-1,-1,-1,-1,-1,-1,-1,-1,-1,-1,-1,-1,-1,-1,-1],"loss_changes":[1.6051428E2,3.446209E1,5.1903687E1,5.703848E0,2.5695541E1,2.3554352E1,2.049704E1,6.11167E0,3.8974285E-2,2.6105877E1,1.1628281E1,1.7390121E1,2.229396E1,0E0,0E0,8.29229E-1,1.0495186E1,0E0,0E0,1.9250095E0,0E0,1.3019375E1,1.0294983E1,2.3982788E1,3.8341324E1,6.8659325E0,9.04377E0,1.1627752E0,7.613337E-2,3.7154846E0,6.336319E0,6.907466E-2,0E0,1.3591675E1,1.2605457E0,1.2102475E0,5.019106E0,1.9133041E1,8.200162E0,0E0,1.5906632E-2,2.4913454E0,0E0,1.4379425E0,5.1056843E0,0E0,0E0,0E0,0E0,0E0,0E0,0E0,0E0,0E0,0E0,0E0,0E0,0E0,0E0,0E0,0E0,0E0,0E0,0E0,0E0,0E0,0E0,0E0,0E0,0E0,0E0,0E0,0E0,0E0,0E0],"parents":[2147483647,0,0,1,1,2,2,3,3,4,4,5,5,6,6,7,7,8,8,9,9,10,10,11,11,12,12,15,15,16,16,19,19,21,21,22,22,23,23,24,24,25,25,26,26,27,27,28,28,29,29,30,30,31,31,33,33,34,34,35,35,36,36,37,37,38,38,40,40,41,41,43,43,44,44],"right_children":[2,4,6,8,10,12,14,16,18,20,22,24,26,-1,-1,28,30,-1,-1,32,-1,34,36,38,40,42,44,46,48,50,52,54,-1,56,58,60,62,64,66,-1,68,70,-1,72,74,-1,-1,-1,-1,-1,-1,-1,-1,-1,-1,-1,-1,-1,-1,-1,-1,-1,-1,-1,-1,-1,-1,-1,-1,-1,-1,-1,-1,-1,-1],"split_conditions":[1.41295E2,4.49065E1,2.4248E2,5.1065002E1,2.8566E1,1.86195E2,1.8347E2,1.47726E1,1.05345E2,2.8175499E1,1.12955E2,1.81355E2,2.03195E2,4.8015139E-1,2.0713227E0,4.46855E1,2.85805E1,-2.9978487E-1,-7.912045E-2,1.44608E1,1.1979889E0,1.7133499E2,1.0956E2,1.5254001E2,2.0461E2,2.32055E2,1.72475E2,1.4510099E1,1.48027E1,3.3985E1,3.9530502E1,1.51175E1,3.2127526E-1,9.5145004E1,1.9408499E2,1.95515E2,1.48155E2,1.35445E2,1.686E2,1.4769704E0,1.5636499E2,2.0925E2,-5.3728867E-1,2.5335E2,2.2742E2,1.1889335E-2,1.0607945E-1,-1.1944371E-1,-2.7920535E-2,4.3402633E-1,1.1475285E-1,1.0485557E-1,-1.2732847E-1,2.6474763E-2,-5.3951457E-2,3.5833612E-1,1.06196955E-1,9.179795E-1,2.0330888E-1,-4.487715E-1,-3.7521746E-2,1.685664E-1,-2.072548E-1,-1.332901E-1,7.704083E-1,-2.0910645E-2,3.916014E-1,3.3615876E-2,1.3739015E-1,1.66115E-1,-9.151344E-2,7.9961437E-1,1.6896287E-1,-2.6284792E-3,4.2159775E-1],"split_indices":[45,45,57,36,18,11,1,5,0,24,47,18,20,0,0,59,29,0,0,5,0,24,49,20,56,14,59,29,6,12,53,0,0,26,0,0,48,52,20,0,0,11,0,6,19,0,0,0,0,0,0,0,0,0,0,0,0,0,0,0,0,0,0,0,0,0,0,0,0,0,0,0,0,0,0],"split_type":[0,0,0,0,0,0,0,0,0,0,0,0,0,0,0,0,0,0,0,0,0,0,0,0,0,0,0,0,0,0,0,0,0,0,0,0,0,0,0,0,0,0,0,0,0,0,0,0,0,0,0,0,0,0,0,0,0,0,0,0,0,0,0,0,0,0,0,0,0,0,0,0,0,0,0],"sum_hessian":[4.41E2,3.55E2,8.6E1,2.39E2,1.16E2,8.2E1,4E0,2.35E2,4E0,1E1,1.06E2,5.2E1,3E1,2E0,2E0,1.49E2,8.6E1,3E0,1E0,6E0,4E0,8.2E1,2.4E1,4.4E1,8E0,1.3E1,1.7E1,1.44E2,5E0,1.6E1,7E1,2E0,4E0,7.9E1,3E0,4E0,2E1,2.7E1,1.7E1,5E0,3E0,1.2E1,1E0,7E0,1E1,1.32E2,1.2E1,3E0,2E0,1E1,6E0,5.8E1,1.2E1,1E0,1E0,3.5E1,4.4E1,2E0,1E0,3E0,1E0,1.7E1,3E0,2E0,2.5E1,7E0,1E1,1E0,2E0,7E0,5E0,6E0,1E0,4E0,6E0],"tree_param":{"num_deleted":"0","num_feature":"60","num_nodes":"75","size_leaf_vector":"0"}},{"base_weights":[4.908657E-1,2.8551054E-1,1.6161205E0,1.1705374E-1,6.381632E-1,3.0399857E0,1.1557816E0,1.4312631E-1,-3.0964914E-1,3.3323364E0,5.648802E-1,8.5384065E-1,5.7287664E0,8.8060844E-1,2.403227E0,8.830715E-2,1.0256722E0,-5.214647E-1,7.1143466E-1,6.347353E-1,-8.56514E-1,1.2788391E-1,1.3164978E0,6.481973E0,2.5638325E0,5.5336076E-1,2.3249588E0,1.2719988E0,4.241684E0,3.265064E-2,3.657305E-1,1.2691098E0,-2.8996912E-1,-1.8592834E-1,-6.499333E-1,1.644764E-1,9.026756E-1,7.2253805E-1,-6.18968E-1,-1.1423218E0,2.862625E-1,-6.327311E-3,2.1946716E-1,2.486674E-1,1.7882462E0,4.28282E-1,1.8698527E0,8.8798016E-1,2.655955E0,1.7151299E0,5.108681E-1,5.4717083E-2,-7.991646E-1,8.484462E-1,1.1030608E-1,1.18113324E-1,1.829844E0,-4.253292E-1,-9.624481E-3,-3.1240654E-1,-7.666289E-1,4.945001E-1,1.2656472E0,-1.6256161E0,3.1014404E-1,8.239746E-4,-1.0314941E-2,1.3823913E0,2.658186E-1],"categories":[],"categories_nodes":[],"categories_segments":[],"categories_sizes":[],"default_left":[1,1,1,1,1,1,1,1,1,0,1,1,1,1,1,1,1,1,1,1,1,1,1,0,0,1,1,1,0,1,1,1,1,0,1,0,0,1,1,0,0,1,0,0,0,1,0,0,0,0,0,0,0,0,0,0,0,0,0,0,0,0,0,0,0,0,0,0,0],"id":15,"left_children":[1,3,5,7,9,11,13,15,17,-1,19,21,23,25,27,29,31,33,35,37,39,41,43,-1,-1,45,47,49,-1,51,53,55,57,-1,59,-1,-1,61,63,-1,-1,65,-1,-1,-1,67,-1,-1,-1,-1,-1,-1,-1,-1,-1,-1,-1,-1,-1,-1,-1,-1,-1,-1,-1,-1,-1,-1,-1],"loss_changes":[1.01674576E2,2.2202833E1,4.105777E1,2.8812559E0,2.2007534E1,8.915756E1,1.607666E1,1.1569108E1,3.6152096E0,0E0,1.2359367E1,3.190333E0,6.825256E-2,1.9983173E1,1.332201E1,3.508473E0,4.8518763E0,4.3953538E-1,1.6533351E-1,1.2996185E1,2.2866902E0,6.284615E-2,2.5778046E0,0E0,0E0,5.4564533E0,1.44664E0,1.4847593E0,0E0,3.5495722E0,4.5917115E0,7.5287075E0,1.0974884E-1,0E0,1.1499119E-1,0E0,0E0,1.262603E1,7.9864864E0,0E0,0E0,9.40493E-5,0E0,0E0,0E0,5.2128167E0,0E0,0E0,0E0,0E0,0E0,0E0,0E0,0E0,0E0,0E0,0E0,0E0,0E0,0E0,0E0,0E0,0E0,0E0,0E0,0E0,0E0,0E0,0E0],"parents":[2147483647,0,0,1,1,2,2,3,3,4,4,5,5,6,6,7,7,8,8,10,10,11,11,12,12,13,13,14,14,15,15,16,16,17,17,18,18,19,19,20,20,21,21,22,22,25,25,26,26,27,27,29,29,30,30,31,31,32,32,34,34,37,37,38,38,41,41,45,45],"right_children":[2,4,6,8,10,12,14,16,18,-1,20,22,24,26,28,30,32,34,36,38,40,42,44,-1,-1,46,48,50,-1,52,54,56,58,-1,60,-1,-1,62,64,-1,-1,66,-1,-1,-1,68,-1,-1,-1,-1,-1,-1,-1,-1,-1,-1,-1,-1,-1,-1,-1,-1,-1,-1,-1,-1,-1,-1,-1],"split_conditions":[1.5883499E2,5.30055E1,1.54065E2,1.00350006E2,2.6536499E1,1.5631E2,2.2613E2,4.4335E1,1.0408E2,9.9970096E-1,1.58165E2,1.73875E2,1.8068E2,2.33485E2,1.91645E2,3.7519653E1,5.42285E1,1.01274994E2,1.10685E2,1.94205E2,9.93705E1,2.8432E1,2.66865E1,1.944592E0,7.691498E-1,2.43055E2,1.582E2,2.41565E2,1.2725053E0,4.15685E1,2.77403E1,3.108E1,8.1531204E1,-5.5778507E-2,4.61E1,4.934292E-2,2.708027E-1,1.27205E2,2.0513E2,-3.4269655E-1,8.587876E-2,2.76395E1,6.5840155E-2,7.460023E-2,5.364739E-1,1.6020999E2,5.609558E-1,2.6639405E-1,7.9678655E-1,5.14539E-1,1.5326042E-1,1.6415125E-2,-2.3974939E-1,2.5453386E-1,3.3091825E-2,3.5434E-2,5.4895324E-1,-1.2759876E-1,-2.8873445E-3,-9.372196E-2,-2.2998868E-1,1.4835003E-1,3.7969416E-1,-4.8768485E-1,9.3043216E-2,2.471924E-4,-3.0944825E-3,4.147174E-1,7.974558E-2],"split_indices":[56,48,35,10,11,48,19,35,19,0,54,57,0,54,53,57,36,8,0,14,0,6,4,0,0,35,25,14,0,48,35,56,0,0,47,0,0,33,0,0,0,0,0,0,0,34,0,0,0,0,0,0,0,0,0,0,0,0,0,0,0,0,0,0,0,0,0,0,0],"split_type":[0,0,0,0,0,0,0,0,0,0,0,0,0,0,0,0,0,0,0,0,0,0,0,0,0,0,0,0,0,0,0,0,0,0,0,0,0,0,0,0,0,0,0,0,0,0,0,0,0,0,0,0,0,0,0,0,0,0,0,0,0,0,0,0,0,0,0,0,0],"sum_hessian":[4.41E2,3.74E2,6.7E1,2.54E2,1.2E2,1.5E1,5.2E1,2.4E2,1.4E1,2E0,1.18E2,9E0,6E0,4.4E1,8E0,2.27E2,1.3E1,1.2E1,2E0,1.13E2,5E0,4E0,5E0,4E0,2E0,3.7E1,7E0,6E0,2E0,1.9E2,3.7E1,1.1E1,2E0,4E0,8E0,1E0,1E0,1.06E2,7E0,4E0,1E0,2E0,2E0,2E0,3E0,3.5E1,2E0,2E0,5E0,3E0,3E0,1.86E2,4E0,1.2E1,2.5E1,4E0,7E0,1E0,1E0,3E0,5E0,7.6E1,3E1,3E0,4E0,1E0,1E0,4E0,3.1E1],"tree_param":{"num_deleted":"0","num_feature":"60","num_nodes":"69","size_leaf_vector":"0"}},{"base_weights":[3.6347434E-1,2.0341732E-1,1.2407964E0,1.7678316E-1,1.5783583E0,2.3397284E0,8.856322E-1,2.0835178E-1,-9.7736514E-1,2.4392166E0,3.229103E-1,6.6509706E-1,4.397812E0,6.635084E-1,1.8978475E0,1.1321733E-1,6.008628E-1,4.8973083E-2,-1.0968442E0,1.0211792E-1,1.0233968E0,4.15129E-1,1.7603722E0,9.857984E-1,3.393346E0,1.4417528E-1,-1.3813139E0,1.7953075E0,3.7186685E-1,-5.37618E-3,1.7557271E-1,1.9893391E-1,1.3858948E0,3.1225417E-2,7.244212E-1,8.6120605E-1,2.1276307E0,2.5993857E-1,1.2241547E0,9.118434E-2,7.461505E-1,-1.8557421E0,-6.8016434E-1,2.3463202E0,-4.561666E-1,-8.5090894E-1,4.9849936E-1,7.019043E-4,-8.766174E-3,5.369136E-1,-2.0457107E-1,6.0195923E-2,1.2175738E0],"categories":[],"categories_nodes":[],"categories_segments":[],"categories_sizes":[],"default_left":[1,1,1,1,1,1,1,1,1,0,0,1,0,1,1,1,1,0,0,1,1,1,1,1,0,1,1,1,1,1,0,0,0,1,1,0,0,0,0,0,0,0,0,0,0,0,0,0,0,0,0,0,0],"id":16,"left_children":[1,3,5,7,9,11,13,15,17,-1,-1,19,-1,21,23,25,27,-1,-1,29,31,33,35,37,-1,39,41,43,45,47,-1,-1,-1,49,51,-1,-1,-1,-1,-1,-1,-1,-1,-1,-1,-1,-1,-1,-1,-1,-1,-1,-1],"loss_changes":[6.181393E1,1.3453619E1,2.4468353E1,1.3648097E1,6.777691E0,5.2219513E1,1.0657127E1,1.33748455E1,1.2799749E0,0E0,0E0,1.9126458E0,0E0,1.1528946E1,8.930557E0,1.3663027E1,1.8478992E1,0E0,0E0,4.04237E-2,1.5174956E0,4.4894376E0,8.094826E-1,8.928871E-1,0E0,9.0551405E0,7.3366165E-1,1.4716816E1,9.714767E0,6.796703E-5,0E0,0E0,0E0,2.2561476E0,6.80556E0,0E0,0E0,0E0,0E0,0E0,0E0,0E0,0E0,0E0,0E0,0E0,0E0,0E0,0E0,0E0,0E0,0E0,0E0],"parents":[2147483647,0,0,1,1,2,2,3,3,4,4,5,5,6,6,7,7,8,8,11,11,13,13,14,14,15,15,16,16,19,19,20,20,21,21,22,22,23,23,25,25,26,26,27,27,28,28,29,29,33,33,34,34],"right_children":[2,4,6,8,10,12,14,16,18,-1,-1,20,-1,22,24,26,28,-1,-1,30,32,34,36,38,-1,40,42,44,46,48,-1,-1,-1,50,52,-1,-1,-1,-1,-1,-1,-1,-1,-1,-1,-1,-1,-1,-1,-1,-1,-1,-1],"split_conditions":[1.5883499E2,1.6020999E2,1.54065E2,1.4803E2,1.5851999E2,1.5631E2,2.2613E2,9.2025E1,2.80295E1,7.3176503E-1,9.68731E-2,1.73875E2,1.3193436E0,2.33485E2,1.91645E2,9.253999E1,9.1729996E1,1.4691926E-2,-3.2905328E-1,2.8432E1,2.66865E1,1.5645E2,1.5948999E2,1.6976999E2,1.0180038E0,7.45905E1,1.90195E2,9.2215E1,9.4965E1,2.76395E1,5.2671816E-2,5.9680175E-2,4.1576844E-1,1.69255E2,1.9670999E2,2.5836182E-1,6.382892E-1,7.798158E-2,3.6724642E-1,2.7355304E-2,2.2384515E-1,-5.5672264E-1,-2.040493E-1,7.0389605E-1,-1.3684998E-1,-2.552727E-1,1.4954981E-1,2.1057129E-4,-2.6298524E-3,1.6107407E-1,-6.1371323E-2,1.8058777E-2,3.6527213E-1],"split_indices":[56,58,35,55,57,48,19,57,3,0,0,57,0,54,53,55,53,0,0,6,4,5,25,50,0,53,0,51,54,0,0,0,0,36,51,0,0,0,0,0,0,0,0,0,0,0,0,0,0,0,0,0,0],"split_type":[0,0,0,0,0,0,0,0,0,0,0,0,0,0,0,0,0,0,0,0,0,0,0,0,0,0,0,0,0,0,0,0,0,0,0,0,0,0,0,0,0,0,0,0,0,0,0,0,0,0,0,0,0],"sum_hessian":[4.41E2,3.74E2,6.7E1,3.68E2,6E0,1.5E1,5.2E1,3.59E2,9E0,3E0,3E0,9E0,6E0,4.4E1,8E0,2.9E2,6.9E1,1E0,8E0,4E0,5E0,3.7E1,7E0,6E0,2E0,2.85E2,5E0,1E1,5.9E1,2E0,2E0,2E0,3E0,1.7E1,2E1,3E0,4E0,2E0,4E0,2.63E2,2.2E1,2E0,3E0,8E0,2E0,5E0,5.4E1,1E0,1E0,5E0,1.2E1,9E0,1.1E1],"tree_param":{"num_deleted":"0","num_feature":"60","num_nodes":"53","size_leaf_vector":"0"}},{"base_weights":[2.660926E-1,1.3415925E-1,8.996905E-1,1.19225144E-1,1.906423E0,7.6773494E-1,2.6199126E0,1.4171907E-1,-6.9348145E-1,1.8768387E0,5.795005E-1,4.7006836E0,9.245491E-1,1.1800454E-1,1.0429349E0,-2.2547404E-1,-1.116394E0,2.3670158E0,-5.591329E-2,3.6555699E-3,7.29147E-1,1.4790243E-1,-6.0583824E-1,1.7679291E0,3.8578287E-1,2.0398967E-1,-4.912033E-1,-2.7183533E-1,-1.2595749E0,5.4286957E-1,3.3529296E0,2.0721436E-2,-1.0459137E-1,-3.326433E-1,5.074946E-1,6.286238E-1,1.7280083E0,7.232204E-2,5.673634E-1,-9.7339934E-1,2.5045165E-1,-2.0261002E-1,5.4398346E-1,4.1625977E-2,2.6435852E-1,-6.6044617E-1,-2.146403E-1,-3.3595276E-1,9.477946E-1,6.060486E-2,-6.593628E-1,9.211502E-1,2.4053344E-1,7.578978E-1,-1.4105903E-3,1.9522451E0,5.276489E-1],"categories":[],"categories_nodes":[],"categories_segments":[],"categories_sizes":[],"default_left":[1,1,1,1,0,1,1,1,1,1,1,0,0,1,1,1,1,1,1,1,1,1,1,0,1,1,1,0,0,1,0,0,0,1,1,1,1,0,0,0,0,0,0,0,0,0,0,0,0,0,0,0,0,0,0,0,0],"id":17,"left_children":[1,3,5,7,-1,9,11,13,15,17,19,-1,-1,21,23,25,27,29,31,33,35,37,39,-1,41,43,45,-1,-1,47,-1,-1,-1,49,51,53,55,-1,-1,-1,-1,-1,-1,-1,-1,-1,-1,-1,-1,-1,-1,-1,-1,-1,-1,-1,-1],"loss_changes":[3.6827263E1,9.486161E0,1.5240067E1,6.7708335E0,0E0,1.394392E1,1.3292301E1,7.485333E0,1.7275448E0,9.606258E0,5.4262466E0,0E0,0E0,7.620803E0,3.6058455E0,7.849268E-1,2.622261E-1,1.2567402E1,1.3358578E-2,2.5409815E0,3.9341717E0,1.0579478E1,4.650134E0,0E0,6.687211E-1,1.8400945E-2,4.546684E-2,0E0,0E0,1.741843E0,0E0,0E0,0E0,1.1962969E0,4.410125E-1,3.8290787E0,4.655838E-2,0E0,0E0,0E0,0E0,0E0,0E0,0E0,0E0,0E0,0E0,0E0,0E0,0E0,0E0,0E0,0E0,0E0,0E0,0E0,0E0],"parents":[2147483647,0,0,1,1,2,2,3,3,5,5,6,6,7,7,8,8,9,9,10,10,13,13,14,14,15,15,16,16,17,17,18,18,19,19,20,20,21,21,22,22,24,24,25,25,26,26,29,29,33,33,34,34,35,35,36,36],"right_children":[2,4,6,8,-1,10,12,14,16,18,20,-1,-1,22,24,26,28,30,32,34,36,38,40,-1,42,44,46,-1,-1,48,-1,-1,-1,50,52,54,56,-1,-1,-1,-1,-1,-1,-1,-1,-1,-1,-1,-1,-1,-1,-1,-1,-1,-1,-1,-1],"split_conditions":[1.52305E2,1.56535E2,2.4248E2,1.4626999E2,5.719269E-1,1.5666E2,1.7625E2,1.81945E2,1.46175E2,1.71255E2,1.7007E2,1.4102051E0,2.7736473E-1,1.4781E2,1.7772E2,3.41655E1,2.81955E1,1.34205E2,1.43453E2,1.7289E2,2.3842E2,8.983E1,1.81355E2,5.3037876E-1,1.924E2,3.1176498E1,3.9183E1,-8.15506E-2,-3.778725E-1,2.835E1,1.0058789E0,6.216431E-3,-3.1377412E-2,1.6098999E2,1.5851999E2,2.2914499E2,1.6405E2,2.1696612E-2,1.7020902E-1,-2.920198E-1,7.51355E-2,-6.0783006E-2,1.6319504E-1,1.2487793E-2,7.9307556E-2,-1.9813386E-1,-6.43921E-2,-1.0078583E-1,2.8433838E-1,1.8181458E-2,-1.9780885E-1,2.7634507E-1,7.2160035E-2,2.2736935E-1,-4.231771E-4,5.856736E-1,1.5829468E-1],"split_indices":[57,58,57,59,0,58,0,18,58,55,57,0,0,24,11,0,2,41,0,59,55,58,22,0,0,0,0,0,0,3,0,0,0,30,57,51,5,0,0,0,0,0,0,0,0,0,0,0,0,0,0,0,0,0,0,0,0],"split_type":[0,0,0,0,0,0,0,0,0,0,0,0,0,0,0,0,0,0,0,0,0,0,0,0,0,0,0,0,0,0,0,0,0,0,0,0,0,0,0,0,0,0,0,0,0,0,0,0,0,0,0,0,0,0,0,0,0],"sum_hessian":[4.41E2,3.66E2,7.5E1,3.64E2,2E0,7.1E1,4E0,3.55E2,9E0,9E0,6.2E1,1E0,3E0,3.47E2,8E0,5E0,4E0,7E0,2E0,1.3E1,4.9E1,3.34E2,1.3E1,3E0,5E0,2E0,3E0,1E0,3E0,3E0,4E0,1E0,1E0,8E0,5E0,4.6E1,3E0,2.84E2,5E1,9E0,4E0,1E0,4E0,1E0,1E0,1E0,2E0,1E0,2E0,4E0,4E0,1E0,4E0,3.8E1,8E0,2E0,1E0],"tree_param":{"num_deleted":"0","num_feature":"60","num_nodes":"57","size_leaf_vector":"0"}},{"base_weights":[1.965385E-1,1.2246762E-1,8.990595E-1,1.7517662E-2,2.6497304E-1,5.3161395E-1,2.1872914E0,5.04617E-2,-3.7695375E-1,6.3026774E-1,1.550377E-1,8.7198323E-1,1.8061998E-1,6.4884645E-1,3.288278E0,-1.7952422E-2,2.9538774E-1,-1.0043888E0,-1.845075E-1,1.858996E-1,1.5047041E0,-6.1968688E-2,3.1575254E-1,5.3930336E-1,1.818367E0,-2.1371154E-1,5.9869725E-1,7.786827E-1,6.475067E-2,7.69722E-1,3.7254868E0,-4.5652506E-3,-7.5718755E-1,1.4819202E0,1.8080781E-1,-2.862568E-1,-1.1483473E0,3.1589967E-1,-3.9519188E-1,-1.1426374E-1,7.0760363E-1,2.5083592E0,5.638747E-1,6.680354E-1,-3.1518012E-1,2.2771657E0,2.3196885E-1,6.136498E-1,-2.1360016E-1,-4.181633E-1,4.0273032E-1,7.900429E-1,-4.6603394E-1,-3.1162709E-2,3.4158215E-1,-3.8370582E-1,3.581267E-1,-2.0257759E-1,7.2907704E-1,1.7946053E-1,-4.7060317E-1,2.2097397E-1,-2.2582981E-1,1.1468992E0,3.8928222E-2,-1.4216042E-1,1.0159279E0,-9.23669E-2,1.1852332E0,-1.2699134E0,-2.5106207E-2,4.6595898E-1,-4.207611E-2,7.0227605E-1,8.413696E-2,8.872223E-2,-5.032501E-1,8.49496E-1,1.8693542E-1],"categories":[],"categories_nodes":[],"categories_segments":[],"categories_sizes":[],"default_left":[1,1,1,1,1,1,1,1,1,1,1,1,1,1,1,1,1,1,1,1,1,1,1,1,0,1,1,0,0,0,0,1,0,0,1,0,0,1,1,1,1,0,1,1,1,0,1,1,0,1,0,1,0,0,0,0,0,0,0,0,0,0,0,0,0,0,0,0,0,0,0,0,0,0,0,0,0,0,0],"id":18,"left_children":[1,3,5,7,9,11,13,15,17,19,21,23,25,27,29,31,33,35,37,39,41,43,45,47,-1,49,51,-1,-1,-1,-1,53,-1,-1,55,-1,-1,57,59,61,63,-1,65,67,69,-1,71,73,-1,75,-1,77,-1,-1,-1,-1,-1,-1,-1,-1,-1,-1,-1,-1,-1,-1,-1,-1,-1,-1,-1,-1,-1,-1,-1,-1,-1,-1,-1],"loss_changes":[2.2889956E1,5.99269E0,1.871812E1,3.0339735E0,6.7292814E0,3.904399E0,1.3110676E1,3.6079288E0,1.9881387E0,1.4874573E1,4.6232176E0,4.3716755E0,3.0954473E0,3.2876372E-1,2.6380844E0,1.6690124E0,6.12184E0,8.480215E-2,1.7062606E0,4.308957E0,1.0861086E1,1.0746739E1,1.1961183E1,9.147353E-1,0E0,1.4287333E0,2.2017717E0,0E0,0E0,0E0,0E0,1.5481535E0,0E0,0E0,4.541769E0,0E0,0E0,1.21881E0,5.611427E-1,7.231232E-1,2.8928146E0,0E0,2.697748E0,6.0086527E0,1.1876677E1,0E0,4.7647676E0,5.509863E-1,0E0,3.896836E-1,0E0,1.2805223E-1,0E0,0E0,0E0,0E0,0E0,0E0,0E0,0E0,0E0,0E0,0E0,0E0,0E0,0E0,0E0,0E0,0E0,0E0,0E0,0E0,0E0,0E0,0E0,0E0,0E0,0E0,0E0],"parents":[2147483647,0,0,1,1,2,2,3,3,4,4,5,5,6,6,7,7,8,8,9,9,10,10,11,11,12,12,13,13,14,14,15,15,16,16,17,17,18,18,19,19,20,20,21,21,22,22,23,23,25,25,26,26,31,31,34,34,37,37,38,38,39,39,40,40,42,42,43,43,44,44,46,46,47,47,49,49,51,51],"right_children":[2,4,6,8,10,12,14,16,18,20,22,24,26,28,30,32,34,36,38,40,42,44,46,48,-1,50,52,-1,-1,-1,-1,54,-1,-1,56,-1,-1,58,60,62,64,-1,66,68,70,-1,72,74,-1,76,-1,78,-1,-1,-1,-1,-1,-1,-1,-1,-1,-1,-1,-1,-1,-1,-1,-1,-1,-1,-1,-1,-1,-1,-1,-1,-1,-1,-1],"split_conditions":[1.7978E2,4.3490997E1,1.73875E2,4.16385E1,8.1520004E1,1.5645E2,1.7982E2,3.2453697E1,3.86025E1,3.4362E1,1.09145E2,2.3735E2,1.691E2,2.2478E2,1.75505E2,3.92875E1,2.8231499E1,2.932505E1,3.6079E1,4.3312E1,1.0595E2,9.0994995E1,9.7869995E1,2.4873999E2,5.455101E-1,2.00995E2,2.0592E2,2.3360482E-1,1.9425202E-2,2.309166E-1,1.1176461E0,4.0369E1,-2.2715627E-1,4.4457608E-1,2.9835499E1,-8.587704E-2,-3.4450418E-1,2.591905E1,1.41723E1,2.8216E1,3.3636E1,7.525078E-1,5.5405E1,8.3774994E1,9.6165E1,6.831497E-1,1.5364E2,1.96725E2,-6.408005E-2,1.33725E2,1.208191E-1,1.9076001E2,-1.3981019E-1,-9.348813E-3,1.0247465E-1,-1.1511175E-1,1.0743801E-1,-6.077328E-2,2.1872312E-1,5.383816E-2,-1.4118096E-1,6.62922E-2,-6.774895E-2,3.4406978E-1,1.1678467E-2,-4.2648125E-2,3.047784E-1,-2.771007E-2,3.5557E-1,-3.8097405E-1,-7.5318622E-3,1.397877E-1,-1.2622834E-2,2.1068282E-1,2.524109E-2,2.661667E-2,-1.5097505E-1,2.548488E-1,5.608063E-2],"split_indices":[53,54,4,48,39,7,46,56,51,2,41,45,7,0,4,51,52,0,59,37,0,26,44,49,0,16,11,0,0,0,0,9,0,0,46,0,0,17,6,35,20,0,40,25,27,0,32,18,0,4,0,6,0,0,0,0,0,0,0,0,0,0,0,0,0,0,0,0,0,0,0,0,0,0,0,0,0,0,0],"split_type":[0,0,0,0,0,0,0,0,0,0,0,0,0,0,0,0,0,0,0,0,0,0,0,0,0,0,0,0,0,0,0,0,0,0,0,0,0,0,0,0,0,0,0,0,0,0,0,0,0,0,0,0,0,0,0,0,0,0,0,0,0,0,0,0,0,0,0,0,0,0,0,0,0,0,0,0,0,0,0],"sum_hessian":[4.41E2,4E2,4.1E1,2.31E2,1.69E2,3.3E1,8E0,2.14E2,1.7E1,3.8E1,1.31E2,1.6E1,1.7E1,4E0,4E0,1.68E2,4.6E1,3E0,1.4E1,2.6E1,1.2E1,5.6E1,7.5E1,1.3E1,3E0,9E0,8E0,3E0,1E0,1E0,3E0,1.66E2,2E0,3E0,4.3E1,1E0,2E0,4E0,1E1,1.7E1,9E0,5E0,7E0,1.4E1,4.2E1,2E0,7.3E1,1.2E1,1E0,7E0,2E0,7E0,1E0,1.55E2,1.1E1,1E1,3.3E1,2E0,2E0,1E0,9E0,4E0,1.3E1,5E0,4E0,3E0,4E0,6E0,8E0,9E0,3.3E1,3.9E1,3.4E1,1E1,2E0,1E0,6E0,6E0,1E0],"tree_param":{"num_deleted":"0","num_feature":"60","num_nodes":"79","size_leaf_vector":"0"}},{"base_weights":[1.4786711E-1,6.506131E-2,5.457864E-1,5.364839E-2,1.4319458E0,4.505079E-1,1.8086395E0,8.055178E-2,-3.9089057E-1,1.2523453E0,3.1608123E-1,3.43676E0,5.4241943E-1,5.9319757E-2,8.666229E-1,-8.0123276E-1,5.498713E-2,2.112133E0,5.821315E-1,2.3915994E-1,1.0069733E0,4.5629986E-2,1.1875858E0,1.8670387E0,5.52419E-2,-2.0668666E-1,-1.26224E0,-3.0715942E-1,4.0796915E-1,-1.19717404E-1,1.5578359E0,6.696913E-2,4.9827775E-1,1.3634695E0,4.8785782E-1,7.608974E-2,-5.268308E-1,-3.320961E-1,5.532786E-1,9.951528E-2,-3.8466644E-1,-1.395752E0,-2.973404E-1,-4.5427957E-1,-1.2002945E-1,-6.0897827E-2,5.139221E-1,-2.9203287E-1,9.250387E-2,3.7130737E-1,-1.00671135E-1,1.2066396E-1,8.343684E-1],"categories":[],"categories_nodes":[],"categories_segments":[],"categories_sizes":[],"default_left":[1,1,1,1,0,1,1,1,1,1,1,0,0,1,1,1,1,0,1,1,1,1,0,0,1,1,1,1,1,1,0,1,1,0,0,0,0,0,0,0,0,0,0,0,0,0,0,0,0,0,0,0,0],"id":19,"left_children":[1,3,5,7,-1,9,11,13,15,17,19,-1,-1,21,23,25,27,-1,29,31,33,35,-1,-1,37,39,41,43,45,47,-1,49,51,-1,-1,-1,-1,-1,-1,-1,-1,-1,-1,-1,-1,-1,-1,-1,-1,-1,-1,-1,-1],"loss_changes":[1.4528404E1,5.64843E0,8.329721E0,4.396743E0,0E0,7.364917E0,8.44363E0,5.706601E0,3.8862689E0,4.532875E0,3.1072626E0,0E0,0E0,5.1510134E0,7.2023263E0,2.7541032E0,1.531455E0,0E0,4.9800797E0,2.5544577E0,4.4519663E-1,5.86405E0,0E0,0E0,1.341193E0,3.6526674E-1,3.5793972E-1,1.1065662E-1,3.2936382E-1,2.0985919E-1,0E0,1.8740764E0,2.8183084E0,0E0,0E0,0E0,0E0,0E0,0E0,0E0,0E0,0E0,0E0,0E0,0E0,0E0,0E0,0E0,0E0,0E0,0E0,0E0,0E0],"parents":[2147483647,0,0,1,1,2,2,3,3,5,5,6,6,7,7,8,8,9,9,10,10,13,13,14,14,15,15,16,16,18,18,19,19,20,20,21,21,24,24,25,25,26,26,27,27,28,28,29,29,31,31,32,32],"right_children":[2,4,6,8,-1,10,12,14,16,18,20,-1,-1,22,24,26,28,-1,30,32,34,36,-1,-1,38,40,42,44,46,48,-1,50,52,-1,-1,-1,-1,-1,-1,-1,-1,-1,-1,-1,-1,-1,-1,-1,-1,-1,-1,-1,-1],"split_conditions":[1.52305E2,1.56535E2,2.4248E2,1.32345E2,4.2958376E-1,1.5666E2,1.7625E2,1.21795E2,1.7157501E2,1.5887E2,2.33485E2,1.031028E0,1.6272584E-1,1.47075E2,1.33505E2,9.4869995E1,1.79015E2,6.3363993E-1,1.8503E2,1.5948999E2,1.35995E2,1.18015E2,3.5627577E-1,5.6011164E-1,1.26259995E2,1.5092E2,2.0838E2,3.54545E1,3.3636E1,1.73215E2,4.673508E-1,1.3585E2,1.81945E2,4.0904087E-1,1.4635736E-1,2.2826923E-2,-1.5804924E-1,-9.9628836E-2,1.6598359E-1,2.9854586E-2,-1.15399934E-1,-4.187256E-1,-8.920212E-2,-1.3628387E-1,-3.6008835E-2,-1.8269349E-2,1.5417664E-1,-8.7609865E-2,2.775116E-2,1.11392215E-1,-3.0201342E-2,3.619919E-2,2.5031054E-1],"split_indices":[57,58,57,56,0,58,0,59,41,53,54,0,0,41,59,11,38,0,50,2,6,38,0,0,56,54,0,2,1,32,0,28,52,0,0,0,0,0,0,0,0,0,0,0,0,0,0,0,0,0,0,0,0],"split_type":[0,0,0,0,0,0,0,0,0,0,0,0,0,0,0,0,0,0,0,0,0,0,0,0,0,0,0,0,0,0,0,0,0,0,0,0,0,0,0,0,0,0,0,0,0,0,0,0,0,0,0,0,0],"sum_hessian":[4.41E2,3.66E2,7.5E1,3.64E2,2E0,7.1E1,4E0,3.44E2,2E1,9E0,6.2E1,1E0,3E0,3.36E2,8E0,1E1,1E1,3E0,6E0,5.7E1,5E0,3.33E2,3E0,3E0,5E0,5E0,5E0,5E0,5E0,4E0,2E0,3.5E1,2.2E1,2E0,3E0,3.17E2,1.6E1,3E0,2E0,2E0,3E0,4E0,1E0,2E0,3E0,1E0,4E0,2E0,2E0,1.2E1,2.3E1,1.1E1,1.1E1],"tree_param":{"num_deleted":"0","num_feature":"60","num_nodes":"53","size_leaf_vector":"0"}},{"base_weights":[1.1211626E-1,3.091945E-2,3.931222E-1,6.710472E-2,-7.1507263E-1,6.4839935E-1,7.2380744E-2,5.439672E-2,2.1176643E0,-3.1360626E-1,-1.0773382E0,1.1388276E0,2.3197666E-1,-2.2049092E-1,4.8475727E-1,7.429091E-2,-7.506571E-1,-5.2708435E-1,-1.7731476E-1,7.0055354E-1,2.7518127E0,-1.357053E-1,6.8814087E-1,1.4789581E-1,-3.833851E-1,8.2932025E-1,1.5877324E-1,2.2509258E-2,4.836037E-1,-1.1541799E0,3.0660757E-1,-2.8211975E-1,-7.896881E-2,-1.7715709E-1,8.022682E-1,-2.94784E-1,3.3685607E-1,1.3093948E0,5.396294E-1,-1.8342285E-1,4.4963533E-1,-6.418279E-1,5.2202225E-2,3.9113465E-1,1.1016419E0,-8.981105E-2,4.7503662E-1,4.622523E-2,-9.2934525E-1,9.698248E-1,2.308734E-1,3.6389542E-1,9.601593E-2,9.468079E-3,-1.4108276E-1,-5.1765442E-2,-2.1397018E-1,1.1155236E0,4.08786E-1,-4.272461E-3,-4.5570457E-1,-5.0628662E-2,6.120555E-1,5.902918E-1,1.7399089E-1,1.1204529E-1,-2.853012E-1,-7.418179E-1,-2.5639343E-1,3.4121704E-1,-1.8945007E-1,2.7570343E-1,1.2392006E0,-3.8102722E-1,2.2229513E-2,6.552887E-1,1.3643901E-1],"categories":[],"categories_nodes":[],"categories_segments":[],"categories_sizes":[],"default_left":[1,1,1,1,1,1,1,1,0,1,0,1,1,1,1,1,1,0,1,1,0,1,1,1,1,1,1,1,1,0,1,0,1,1,1,1,1,0,1,1,0,1,1,0,1,1,1,0,0,0,0,0,0,0,0,0,0,0,0,0,0,0,0,0,0,0,0,0,0,0,0,0,0,0,0,0,0],"id":20,"left_children":[1,3,5,7,9,11,13,15,-1,17,-1,19,21,23,25,27,29,-1,31,33,-1,35,37,39,41,43,45,47,49,-1,51,-1,53,55,57,59,61,-1,63,65,-1,67,69,-1,71,73,75,-1,-1,-1,-1,-1,-1,-1,-1,-1,-1,-1,-1,-1,-1,-1,-1,-1,-1,-1,-1,-1,-1,-1,-1,-1,-1,-1,-1,-1,-1],"loss_changes":[1.0072865E1,9.333896E0,8.058987E0,8.458056E0,1.9891396E0,1.0968218E1,5.5416875E0,5.308979E0,0E0,1.6839737E-1,0E0,1.5745445E1,5.2928085E0,1.6769187E0,2.0024447E0,6.792674E0,3.7669234E0,0E0,4.987134E-2,2.0169249E0,0E0,1.4524398E0,5.8509874E-1,9.8222077E-1,2.1724184E0,6.430564E-1,9.074628E-1,6.499168E0,4.199874E0,0E0,1.2532771E-3,0E0,2.8801607E-2,2.7719066E-3,1.8859377E0,6.5254307E-1,5.641654E-1,0E0,1.3810802E-1,1.8247572E-1,0E0,2.722783E-1,6.233724E-1,0E0,2.2642326E-1,2.3686624E-1,2.1575761E-1,0E0,0E0,0E0,0E0,0E0,0E0,0E0,0E0,0E0,0E0,0E0,0E0,0E0,0E0,0E0,0E0,0E0,0E0,0E0,0E0,0E0,0E0,0E0,0E0,0E0,0E0,0E0,0E0,0E0,0E0],"parents":[2147483647,0,0,1,1,2,2,3,3,4,4,5,5,6,6,7,7,9,9,11,11,12,12,13,13,14,14,15,15,16,16,18,18,19,19,21,21,22,22,23,23,24,24,25,25,26,26,27,27,28,28,30,30,32,32,33,33,34,34,35,35,36,36,38,38,39,39,41,41,42,42,44,44,45,45,46,46],"right_children":[2,4,6,8,10,12,14,16,-1,18,-1,20,22,24,26,28,30,-1,32,34,-1,36,38,40,42,44,46,48,50,-1,52,-1,54,56,58,60,62,-1,64,66,-1,68,70,-1,72,74,76,-1,-1,-1,-1,-1,-1,-1,-1,-1,-1,-1,-1,-1,-1,-1,-1,-1,-1,-1,-1,-1,-1,-1,-1,-1,-1,-1,-1,-1,-1],"split_conditions":[1.2558E2,1.0567E2,1.7762E2,1.11435E2,1.0061E2,1.57815E2,2.03195E2,1.16880005E2,6.352993E-1,1.09145E2,-3.2320148E-1,1.65875E2,1.5795499E2,1.7872E2,1.72475E2,8.9740005E1,1.7133499E2,-1.5812531E-1,2.97095E1,1.06395004E2,8.255438E-1,2.24775E2,1.26259995E2,1.6689E2,2.1542E2,1.91645E2,2.4120499E2,9.0994995E1,1.0046E2,-3.46254E-1,1.79165E2,-8.463593E-2,9.3505005E1,6.69225E1,1.6173999E2,4.11305E1,1.5582E2,3.9281848E-1,1.94125E2,1.02240005E2,1.348906E-1,1.9534E2,2.0925E2,1.173404E-1,1.4903E2,1.5357E2,1.9701999E2,1.386757E-2,-2.788036E-1,2.9094744E-1,6.926203E-2,1.0916863E-1,2.880478E-2,2.8404237E-3,-4.232483E-2,-1.55296335E-2,-6.419106E-2,3.3465707E-1,1.22635804E-1,-1.2817383E-3,-1.3671137E-1,-1.5188599E-2,1.8361665E-1,1.7708755E-1,5.219727E-2,3.361359E-2,-8.559036E-2,-2.2254537E-1,-7.6918036E-2,1.02365114E-1,-5.683502E-2,8.271103E-2,3.717602E-1,-1.1430817E-1,6.668854E-3,1.9658662E-1,4.0931705E-2],"split_indices":[33,35,11,36,31,32,20,26,0,35,0,27,12,14,59,28,11,0,0,28,0,52,1,16,1,53,12,26,19,0,0,0,29,0,46,0,1,0,18,0,0,20,11,0,1,0,0,0,0,0,0,0,0,0,0,0,0,0,0,0,0,0,0,0,0,0,0,0,0,0,0,0,0,0,0,0,0],"split_type":[0,0,0,0,0,0,0,0,0,0,0,0,0,0,0,0,0,0,0,0,0,0,0,0,0,0,0,0,0,0,0,0,0,0,0,0,0,0,0,0,0,0,0,0,0,0,0,0,0,0,0,0,0,0,0,0,0,0,0,0,0,0,0,0,0,0,0,0,0,0,0,0,0,0,0,0,0],"sum_hessian":[4.41E2,3.43E2,9.8E1,3.28E2,1.5E1,5.4E1,4.4E1,3.27E2,1E0,8E0,7E0,2.4E1,3E1,2.6E1,1.8E1,3.2E2,7E0,2E0,6E0,2E1,4E0,1.7E1,1.3E1,8E0,1.8E1,8E0,1E1,2.85E2,3.5E1,5E0,2E0,2E0,4E0,2E0,1.8E1,1.3E1,4E0,1E0,1.2E1,4E0,4E0,1.1E1,7E0,4E0,4E0,6E0,4E0,2.79E2,6E0,1.1E1,2.4E1,1E0,1E0,2E0,2E0,1E0,1E0,9E0,9E0,5E0,8E0,2E0,2E0,1E1,2E0,1E0,3E0,8E0,3E0,3E0,4E0,1E0,3E0,1E0,5E0,2E0,2E0],"tree_param":{"num_deleted":"0","num_feature":"60","num_nodes":"77","size_leaf_vector":"0"}},{"base_weights":[8.369185E-2,7.000281E-2,1.2661133E0,-2.294628E-2,1.8175043E-1,2.5084763E0,3.2840347E-1,-6.657724E-3,-5.641714E-1,1.0133376E0,1.4615436E-1,9.681193E-2,5.1158905E-1,-2.7261397E-2,5.1146317E-1,1.8814316E-1,1.7914963E0,4.40005E-2,2.6893774E-1,1.3270884E-2,-4.963717E-1,8.0681336E-1,-3.4817505E-1,3.750547E-1,-6.1482746E-2,9.705953E-2,-7.202715E-1,1.9024073E0,2.081219E-1,-3.4608886E-2,3.240154E-1,5.669327E-1,-5.92268E-1,3.2171884E-1,9.365074E-1,4.9467087E-2,-1.4169121E-1,2.3692295E-1,-1.3737348E-1,-9.2838544E-1,2.6420593E-1,1.2403984E0,1.5522887E-1],"categories":[],"categories_nodes":[],"categories_segments":[],"categories_sizes":[],"default_left":[1,1,1,1,1,0,1,1,0,1,1,0,0,1,1,1,0,1,1,1,1,1,0,0,1,1,1,0,1,0,0,0,0,0,0,0,0,0,0,0,0,0,0],"id":21,"left_children":[1,3,5,7,9,-1,11,13,-1,15,17,-1,-1,19,21,23,-1,25,27,29,31,33,-1,-1,35,37,39,-1,41,-1,-1,-1,-1,-1,-1,-1,-1,-1,-1,-1,-1,-1,-1],"loss_changes":[7.065674E0,4.553606E0,5.001088E0,2.11203E0,5.7425437E0,0E0,1.2016904E-1,2.5119383E0,0E0,4.8E0,2.3963833E0,0E0,0E0,4.3037763E0,2.5659614E0,2.5634915E-1,0E0,4.368372E0,8.246719E0,3.1207943E0,2.1711812E0,1.3910484E-1,0E0,0E0,3.3706397E-2,3.311407E0,1.6794686E0,0E0,4.448474E0,0E0,0E0,0E0,0E0,0E0,0E0,0E0,0E0,0E0,0E0,0E0,0E0,0E0,0E0],"parents":[2147483647,0,0,1,1,2,2,3,3,4,4,6,6,7,7,9,9,10,10,13,13,14,14,15,15,17,17,18,18,19,19,20,20,21,21,24,24,25,25,26,26,28,28],"right_children":[2,4,6,8,10,-1,12,14,-1,16,18,-1,-1,20,22,24,-1,26,28,30,32,34,-1,-1,36,38,40,-1,42,-1,-1,-1,-1,-1,-1,-1,-1,-1,-1,-1,-1,-1,-1],"split_conditions":[2.4248E2,4.49065E1,1.7625E2,4.82875E1,3.3636E1,7.525429E-1,1.8531E2,4.98E1,-1.6925141E-1,1.462845E1,1.3667499E2,2.904358E-2,1.5347672E-1,4.4104E1,1.03685E2,1.41723E1,5.374489E-1,1.4719E2,8.467E1,3.3136E1,3.6956497E1,8.5244995E1,-1.0445252E-1,1.1251641E-1,1.51175E1,9.9455E1,1.5386499E2,5.707222E-1,7.27135E1,-1.0382666E-2,9.7204626E-2,1.7007981E-1,-1.776804E-1,9.6515656E-2,2.8095224E-1,1.4840127E-2,-4.2507365E-2,7.1076885E-2,-4.1212045E-2,-2.7851564E-1,7.926178E-2,3.7211955E-1,4.6568662E-2],"split_indices":[57,45,0,40,28,0,0,27,0,3,18,0,0,6,2,2,0,0,53,3,7,9,0,0,0,35,22,0,2,0,0,0,0,0,0,0,0,0,0,0,0,0,0],"split_type":[0,0,0,0,0,0,0,0,0,0,0,0,0,0,0,0,0,0,0,0,0,0,0,0,0,0,0,0,0,0,0,0,0,0,0,0,0,0,0,0,0,0,0],"sum_hessian":[4.41E2,4.37E2,4E0,2.39E2,1.98E2,1E0,3E0,2.33E2,6E0,7E0,1.91E2,2E0,1E0,2.25E2,8E0,4E0,3E0,1.05E2,8.6E1,2.08E2,1.7E1,6E0,2E0,2E0,2E0,9.9E1,6E0,2E0,8.4E1,1.81E2,2.7E1,1E0,1.6E1,2E0,4E0,1E0,1E0,6.2E1,3.7E1,5E0,1E0,3E0,8.1E1],"tree_param":{"num_deleted":"0","num_feature":"60","num_nodes":"43","size_leaf_vector":"0"}},{"base_weights":[6.437721E-2,4.5023117E-2,6.99599E-1,3.596565E-2,6.7908984E-1,1.5525299E0,1.4801534E-1,-5.392802E-2,8.621388E-2,3.4833908E-1,8.937276E-1,2.147934E0,4.3961588E-1,-1.821518E-1,2.120552E-1,-3.223338E-2,-3.6093807E-1,9.923169E-1,6.213547E-2,1.12384036E-1,2.8363037E-1,3.4964705E-1,-4.283826E-2,-4.4442058E-1,-1.8005371E-2,1.1801564E0,-6.7359924E-2,-1.2929036E-1,9.945958E-2,5.7643795E-1,8.190409E-2,-6.979054E-2,9.146205E-2,-1.3249874E-1,-4.7005245E-1,-2.2294822E-1,3.9760807E-1,6.027426E-1,7.3125124E-2],"categories":[],"categories_nodes":[],"categories_segments":[],"categories_sizes":[],"default_left":[1,1,1,1,1,1,1,1,1,0,0,0,0,0,1,1,1,1,1,0,0,1,1,1,0,0,0,1,1,0,0,0,0,0,0,0,0,0,0],"id":22,"left_children":[1,3,5,7,9,11,13,15,17,-1,-1,-1,-1,-1,19,21,23,25,27,-1,-1,29,31,33,-1,-1,-1,35,37,-1,-1,-1,-1,-1,-1,-1,-1,-1,-1],"loss_changes":[5.4025135E0,2.4450827E0,5.8862176E0,1.9243734E0,1.1462927E-1,2.3689022E0,2.2892094E-1,1.0074182E0,5.894525E0,0E0,0E0,0E0,0E0,0E0,2.5196314E-2,5.9814894E-1,2.7828693E-1,1.4728398E0,1.9205205E0,0E0,0E0,1.9567409E-1,5.1676095E-1,1.6797781E-3,0E0,0E0,0E0,2.259966E0,2.9247494E0,0E0,0E0,0E0,0E0,0E0,0E0,0E0,0E0,0E0,0E0],"parents":[2147483647,0,0,1,1,2,2,3,3,4,4,5,5,6,6,7,7,8,8,14,14,15,15,16,16,17,17,18,18,21,21,22,22,23,23,27,27,28,28],"right_children":[2,4,6,8,10,12,14,16,18,-1,-1,-1,-1,-1,20,22,24,26,28,-1,-1,30,32,34,-1,-1,-1,36,38,-1,-1,-1,-1,-1,-1,-1,-1,-1,-1],"split_conditions":[2.17265E2,2.40315E2,1.50805E2,2.8216E1,1.5882999E2,1.8068E2,1.2853E2,2.781665E1,2.8552E1,1.0450173E-1,2.681183E-1,6.443802E-1,1.3188477E-1,-5.4645542E-2,1.58525E2,1.3434999E0,3.191255E1,4.24955E1,3.8583E1,3.371521E-2,8.508912E-2,1.3861E0,6.2655E0,8.5759E0,-5.4016113E-3,3.540469E-1,-2.0207979E-2,4.98E1,3.84E1,1.7293139E-1,2.4571229E-2,-2.0937163E-2,2.7438616E-2,-3.9749622E-2,-1.4101574E-1,-6.688447E-2,1.19282424E-1,1.8082279E-1,2.1937538E-2],"split_indices":[58,22,21,54,1,0,3,55,52,0,0,0,0,0,19,1,56,0,51,0,0,0,10,0,0,0,0,27,48,0,0,0,0,0,0,0,0,0,0],"split_type":[0,0,0,0,0,0,0,0,0,0,0,0,0,0,0,0,0,0,0,0,0,0,0,0,0,0,0,0,0,0,0,0,0,0,0,0,0,0,0],"sum_hessian":[4.41E2,4.29E2,1.2E1,4.24E2,5E0,4E0,8E0,1.52E2,2.72E2,3E0,2E0,2E0,2E0,1E0,7E0,1.43E2,9E0,6E0,2.66E2,4E0,3E0,3E0,1.4E2,7E0,2E0,5E0,1E0,4.3E1,2.23E2,1E0,2E0,1.17E2,2.3E1,1E0,6E0,3.7E1,6E0,1E1,2.13E2],"tree_param":{"num_deleted":"0","num_feature":"60","num_nodes":"39","size_leaf_vector":"0"}},{"base_weights":[4.9180865E-2,3.9304055E-2,9.0455323E-1,4.492376E-3,1.6665219E-1,1.8100128E0,2.2568512E-1,2.9166352E-2,-4.732859E-1,3.321834E-1,-2.0974731E-2,5.4972332E-2,3.6891174E-1,1.7676434E-2,1.2718455E0,-2.0872074E-1,-6.8526375E-1,6.7310053E-1,1.193831E-1,-1.6221967E-1,4.303478E-1,3.0768646E-2,-5.082216E-1,-2.4330711E-1,3.3985138E-2,-8.447331E-1,-8.4747314E-2,-1.3773091E-1,7.765943E-1,-1.09567344E-1,4.2157418E-1,1.3590895E-1,-2.2858797E-1,2.1141222E-1,9.4370526E-1,1.4856541E-2,6.494837E-1,-8.9606017E-1,1.0363197E-1,1.1047363E-2,-2.8122166E-1,-1.0282135E-1,-2.4299622E-2,-3.4362793E-2,-1.7223358E-1,1.012956E0,1.7443848E-1,-1.7365816E-1,5.220337E-1,4.7371927E-1,7.246908E-2,-8.9271545E-2,3.271122E-1,-7.270401E-1,-1.1975403E-1,3.1486002E-1,3.3874512E-3],"categories":[],"categories_nodes":[],"categories_segments":[],"categories_sizes":[],"default_left":[1,1,1,1,1,0,1,1,1,1,1,0,0,1,0,1,1,1,1,1,1,1,1,1,0,0,1,1,1,1,1,1,1,1,0,0,0,0,0,0,0,0,0,0,0,0,0,0,0,0,0,0,0,0,0,0,0],"id":23,"left_children":[1,3,5,7,9,-1,11,13,15,17,19,-1,-1,21,-1,23,25,27,29,31,33,35,37,39,-1,-1,41,43,45,47,49,51,53,55,-1,-1,-1,-1,-1,-1,-1,-1,-1,-1,-1,-1,-1,-1,-1,-1,-1,-1,-1,-1,-1,-1,-1],"loss_changes":[3.698618E0,1.940994E0,2.6649451E0,4.080902E0,2.9264297E0,0E0,7.752253E-2,4.6750736E0,8.103645E-1,3.5470066E0,2.938427E0,0E0,0E0,2.2670877E0,0E0,8.381766E-2,7.90287E-1,1.7013645E0,2.2601676E0,7.235873E-1,1.0368037E0,3.1407697E0,1.9912639E0,8.025664E-2,0E0,0E0,7.7908114E-4,4.7810003E-3,2.2428532E0,8.597721E-1,2.2052789E-1,3.3058852E-1,1.4861408E0,1.926108E-1,0E0,0E0,0E0,0E0,0E0,0E0,0E0,0E0,0E0,0E0,0E0,0E0,0E0,0E0,0E0,0E0,0E0,0E0,0E0,0E0,0E0,0E0,0E0],"parents":[2147483647,0,0,1,1,2,2,3,3,4,4,6,6,7,7,8,8,9,9,10,10,13,13,15,15,16,16,17,17,18,18,19,19,20,20,21,21,22,22,23,23,26,26,27,27,28,28,29,29,30,30,31,31,32,32,33,33],"right_children":[2,4,6,8,10,-1,12,14,16,18,20,-1,-1,22,-1,24,26,28,30,32,34,36,38,40,-1,-1,42,44,46,48,50,52,54,56,-1,-1,-1,-1,-1,-1,-1,-1,-1,-1,-1,-1,-1,-1,-1,-1,-1,-1,-1,-1,-1,-1,-1],"split_conditions":[2.4248E2,1.27205E2,1.7625E2,1.0567E2,1.7762E2,5.4300386E-1,1.8531E2,1.10134995E2,8.8975E1,1.54825E2,2.2613E2,1.64917E-2,1.10673524E-1,1.16880005E2,3.8155365E-1,9.1E1,1.69175E2,1.06395004E2,1.5795499E2,1.6847E2,1.91645E2,1.16415E2,1.8384E2,7.125E1,1.0195542E-2,-2.5341994E-1,1.73655E2,6.69225E1,1.6309E2,2.06095E2,1.94125E2,1.6869E2,1.613E2,2.41565E2,2.831116E-1,4.4569625E-3,1.9484511E-1,-2.6881805E-1,3.1089593E-2,3.3142092E-3,-8.43665E-2,-3.0846406E-2,-7.289887E-3,-1.0308838E-2,-5.167008E-2,3.0388683E-1,5.2331544E-2,-5.209745E-2,1.5661012E-1,1.4211579E-1,2.1740723E-2,-2.6781464E-2,9.813366E-2,-2.1811204E-1,-3.592621E-2,9.445801E-2,1.0162354E-3],"split_indices":[57,33,0,35,11,0,0,37,10,32,19,0,0,26,0,0,1,28,12,21,53,15,5,26,0,0,0,0,46,25,18,17,25,14,0,0,0,0,0,0,0,0,0,0,0,0,0,0,0,0,0,0,0,0,0,0,0],"split_type":[0,0,0,0,0,0,0,0,0,0,0,0,0,0,0,0,0,0,0,0,0,0,0,0,0,0,0,0,0,0,0,0,0,0,0,0,0,0,0,0,0,0,0,0,0,0,0,0,0,0,0,0,0,0,0,0,0],"sum_hessian":[4.41E2,4.37E2,4E0,3.44E2,9.3E1,1E0,3E0,3.28E2,1.6E1,4.9E1,4.4E1,2E0,1E0,3.26E2,2E0,8E0,8E0,1.8E1,3.1E1,3.4E1,1E1,3.19E2,7E0,7E0,1E0,6E0,2E0,2E0,1.6E1,1.8E1,1.3E1,6E0,2.8E1,8E0,2E0,3.12E2,7E0,4E0,3E0,1E0,6E0,1E0,1E0,1E0,1E0,1.1E1,5E0,1.7E1,1E0,1.1E1,2E0,3E0,3E0,4E0,2.4E1,5E0,3E0],"tree_param":{"num_deleted":"0","num_feature":"60","num_nodes":"57","size_leaf_vector":"0"}},{"base_weights":[3.7615053E-2,2.3850445E-2,4.9001253E-1,1.7484885E-2,4.7076926E-1,1.0723999E0,1.1201816E-1,-4.2060968E-2,5.0792687E-2,9.5825195E-2,5.26593E-1,1.489975E0,2.9735819E-1,-7.596842E-2,1.7658125E-1,-2.4275564E-2,-3.239301E-1,7.3849404E-1,3.257283E-2,-1.2878418E-1,1.4831543E-2,2.0535584E-1,6.976318E-2,-7.929997E-2,2.8137885E-2,-8.78334E-3,-3.6222553E-1,8.814046E-1,-5.948448E-2,1.972493E-1,-3.5046404E-3,2.3726532E-2,-8.9175135E-2,6.545407E-2,-1.13556445E-1,-1.0649872E-1,-3.8354382E-1,1.1250038E0,4.7835398E-1,4.8120543E-2,1.4701325E0,-2.9778743E-1,3.236486E-2],"categories":[],"categories_nodes":[],"categories_segments":[],"categories_sizes":[],"default_left":[1,1,1,1,1,1,1,1,1,0,0,0,0,1,1,1,1,1,1,0,0,0,0,1,1,0,1,1,0,1,1,0,0,0,0,0,0,0,0,0,0,0,0],"id":24,"left_children":[1,3,5,7,9,11,13,15,17,-1,-1,-1,-1,19,21,23,25,27,29,-1,-1,-1,-1,31,33,-1,35,37,-1,39,41,-1,-1,-1,-1,-1,-1,-1,-1,-1,-1,-1,-1],"loss_changes":[2.7406802E0,1.2150707E0,2.7416809E0,8.450565E-1,7.5123906E-2,1.1751337E0,1.22647546E-1,7.591492E-1,3.3965864E0,0E0,0E0,0E0,0E0,1.6297074E-2,7.189244E-3,4.2041415E-1,1.05436504E-1,8.5070634E-1,1.5869677E0,0E0,0E0,0E0,0E0,7.435146E-2,4.0399468E-1,0E0,2.7663708E-3,5.0946712E-2,0E0,9.040783E0,2.3319087E0,0E0,0E0,0E0,0E0,0E0,0E0,0E0,0E0,0E0,0E0,0E0,0E0],"parents":[2147483647,0,0,1,1,2,2,3,3,4,4,5,5,6,6,7,7,8,8,13,13,14,14,15,15,16,16,17,17,18,18,23,23,24,24,26,26,27,27,29,29,30,30],"right_children":[2,4,6,8,10,12,14,16,18,-1,-1,-1,-1,20,22,24,26,28,30,-1,-1,-1,-1,32,34,-1,36,38,-1,40,42,-1,-1,-1,-1,-1,-1,-1,-1,-1,-1,-1,-1],"split_conditions":[2.17265E2,2.40315E2,1.50805E2,2.8216E1,1.5666E2,1.8068E2,1.32485E2,3.3206497E1,2.8552E1,2.874756E-2,1.5797791E-1,4.4699252E-1,8.9207456E-2,1.7413E2,1.55575E2,3.11515E0,2.667255E1,4.24955E1,3.414E1,-3.8635254E-2,4.449463E-3,6.1606754E-2,2.0928957E-2,1.4600999E0,1.461345E1,-2.6350021E-3,2.322825E1,2.8144001E1,-1.7845346E-2,7.52715E1,3.9632E1,7.11796E-3,-2.675254E-2,1.9636223E-2,-3.4066934E-2,-3.1949617E-2,-1.1506315E-1,3.3750117E-1,1.435062E-1,1.4436164E-2,4.4103977E-1,-8.933623E-2,9.709459E-3],"split_indices":[58,22,21,54,4,0,10,34,52,0,0,0,0,0,3,43,9,0,25,0,0,0,0,36,41,0,0,20,0,53,35,0,0,0,0,0,0,0,0,0,0,0,0],"split_type":[0,0,0,0,0,0,0,0,0,0,0,0,0,0,0,0,0,0,0,0,0,0,0,0,0,0,0,0,0,0,0,0,0,0,0,0,0,0,0,0,0,0,0],"sum_hessian":[4.41E2,4.29E2,1.2E1,4.24E2,5E0,4E0,8E0,1.52E2,2.72E2,1E0,4E0,2E0,2E0,2E0,6E0,1.44E2,8E0,6E0,2.66E2,1E0,1E0,4E0,2E0,7E1,7.4E1,1E0,7E0,5E0,1E0,4.7E1,2.19E2,6E0,6.4E1,5.9E1,1.5E1,1E0,6E0,2E0,3E0,4.3E1,4E0,2.3E1,1.96E2],"tree_param":{"num_deleted":"0","num_feature":"60","num_nodes":"43","size_leaf_vector":"0"}},{"base_weights":[2.9558806E-2,2.2352675E-2,6.549042E-1,-6.825186E-3,9.385771E-2,1.3150177E0,1.6112137E-1,1.597543E-2,-4.2963505E-1,8.0612564E-1,4.5591038E-2,3.5512287E-2,2.689743E-1,9.1462955E-3,1.0186996E0,-6.1685103E-1,-1.0080719E-1,5.470276E-3,1.0720991E0,8.693981E-1,1.7037025E-2,-8.227057E-3,2.947576E-1,-3.3951023E-1,-9.479847E-1,-2.0776176E-1,3.1349182E-2,5.4283142E-2,-4.607773E-2,1.2263718E0,1.5036774E-1,1.0181122E0,2.1162796E-1,-3.0512828E-1,9.06891E-2,9.205233E-3,-6.020756E-1,1.0545721E0,5.661365E-2,-3.6460495E-1,-9.447098E-2,6.2215168E-2,-3.062439E-2,7.248773E-2,-5.260865E-1,6.163886E-1,4.8793707E-2],"categories":[],"categories_nodes":[],"categories_segments":[],"categories_sizes":[],"default_left":[1,1,1,1,1,0,1,1,1,1,1,0,0,1,0,1,1,1,1,1,1,1,1,1,0,0,1,0,0,0,0,0,0,1,1,0,0,0,0,0,0,0,0,0,0,0,0],"id":25,"left_children":[1,3,5,7,9,-1,11,13,15,17,19,-1,-1,21,-1,23,25,27,29,31,33,35,37,39,-1,-1,41,-1,-1,-1,-1,-1,-1,43,45,-1,-1,-1,-1,-1,-1,-1,-1,-1,-1,-1,-1],"loss_changes":[1.977155E0,9.1446805E-1,1.417886E0,3.014645E0,4.329356E0,0E0,4.4637352E-2,2.024461E0,9.2280626E-1,1.6977592E0,2.8079474E0,0E0,0E0,1.4711847E0,0E0,5.965183E-1,1.0545626E-1,1.0049861E-2,6.687813E-1,1.7581797E-1,2.8038645E0,2.9041414E0,3.0163655E0,8.599699E-3,0E0,0E0,9.556804E-3,0E0,0E0,0E0,0E0,0E0,0E0,1.8737574E0,2.0842652E0,0E0,0E0,0E0,0E0,0E0,0E0,0E0,0E0,0E0,0E0,0E0,0E0],"parents":[2147483647,0,0,1,1,2,2,3,3,4,4,6,6,7,7,8,8,9,9,10,10,13,13,15,15,16,16,17,17,18,18,19,19,20,20,21,21,22,22,23,23,26,26,33,33,34,34],"right_children":[2,4,6,8,10,-1,12,14,16,18,20,-1,-1,22,-1,24,26,28,30,32,34,36,38,40,-1,-1,42,-1,-1,-1,-1,-1,-1,44,46,-1,-1,-1,-1,-1,-1,-1,-1,-1,-1,-1,-1],"split_conditions":[2.4248E2,1.0088E2,1.7625E2,9.5255005E1,9.5509995E1,3.9450532E-1,1.8531E2,9.478E1,1.0074E2,9.174E1,1.00350006E2,1.0653687E-2,8.069229E-2,1.01545E2,3.056099E-1,9.8604996E1,1.626E2,6.32E1,1.9408499E2,9.291E1,1.10134995E2,1.0018E2,8.374E1,1.00770004E2,-2.8439543E-1,-6.2328532E-2,1.91725E2,1.6284943E-2,-1.3823319E-2,3.6791155E-1,4.5110323E-2,3.0543366E-1,6.3488394E-2,9.2215E1,1.26259995E2,2.76157E-3,-1.8062268E-1,3.1637165E-1,1.6984096E-2,-1.0938149E-1,-2.8341295E-2,1.8664552E-2,-9.187317E-3,2.1746319E-2,-1.5782596E-1,1.8491659E-1,1.4638113E-2],"split_indices":[57,57,0,59,53,0,0,59,19,54,58,0,0,36,0,17,12,0,0,0,50,40,53,0,0,0,0,0,0,0,0,0,0,48,48,0,0,0,0,0,0,0,0,0,0,0,0],"split_type":[0,0,0,0,0,0,0,0,0,0,0,0,0,0,0,0,0,0,0,0,0,0,0,0,0,0,0,0,0,0,0,0,0,0,0,0,0,0,0,0,0,0,0,0,0,0,0],"sum_hessian":[4.41E2,4.37E2,4E0,3.11E2,1.26E2,1E0,3E0,2.96E2,1.5E1,7E0,1.19E2,2E0,1E0,2.95E2,1E0,9E0,6E0,2E0,5E0,3E0,1.16E2,2.79E2,1.6E1,6E0,3E0,3E0,3E0,1E0,1E0,4E0,1E0,2E0,1E0,2.1E1,9.5E1,2.72E2,7E0,3E0,1.3E1,5E0,1E0,2E0,1E0,8E0,1.3E1,6E0,8.9E1],"tree_param":{"num_deleted":"0","num_feature":"60","num_nodes":"47","size_leaf_vector":"0"}},{"base_weights":[2.367832E-2,1.7552024E-2,5.5560607E-1,-2.6790464E-2,5.9648648E-2,1.1177673E0,1.3562393E-1,-3.3089317E-2,6.5743256E-1,6.411966E-1,1.5056192E-2,2.8411865E-2,2.2863007E-1,-3.2815174E-3,-2.0158714E-1,3.356509E-1,1.0944977E0,6.5121937E-1,2.690449E-3,7.2784424E-3,3.5339355E-2,-1.8680258E-2,4.5152822E-1,-4.1937864E-1,-8.352835E-2,5.021747E-1,3.538742E-2,-2.7770996E-3,1.3145081E0,5.1711082E-2,8.3381844E-1,-1.4739075E-1,5.6623623E-2,-8.795045E-3,-4.4401693E-1,1.5931766E-1,5.578041E-1,-4.6101782E-1,-1.5466817E-1,1.13313675E-1,-2.9067162E-1,4.3932915E-2,6.0272217E-4,2.6159954E-1,9.891281E-1,9.3832016E-2,-3.8334957E-1,3.0764595E-1,5.1923394E-3],"categories":[],"categories_nodes":[],"categories_segments":[],"categories_sizes":[],"default_left":[1,1,1,1,1,0,1,1,0,1,1,1,0,1,1,1,1,1,1,0,0,1,1,1,1,0,1,0,0,0,1,1,1,0,0,0,0,0,0,0,0,0,0,0,0,0,0,0,0],"id":26,"left_children":[1,3,5,7,9,-1,11,13,-1,15,17,19,-1,21,23,25,27,29,31,-1,-1,33,35,37,39,-1,41,-1,-1,-1,43,45,47,-1,-1,-1,-1,-1,-1,-1,-1,-1,-1,-1,-1,-1,-1,-1,-1],"loss_changes":[1.4306138E0,8.191991E-1,1.0288926E0,9.4405544E-1,5.8251925E0,0E0,3.338971E-2,1.0691414E0,0E0,1.8486981E0,1.6502403E0,1.8198928E-4,0E0,1.2830712E0,7.877605E-1,5.322404E-1,1.4521213E0,3.9476097E-1,1.6838773E0,0E0,0E0,7.4029905E-1,9.746158E-2,4.9940825E-2,9.299761E-1,0E0,1.4597825E-3,0E0,0E0,0E0,7.8577995E-3,3.1664953E0,1.9736936E0,0E0,0E0,0E0,0E0,0E0,0E0,0E0,0E0,0E0,0E0,0E0,0E0,0E0,0E0,0E0,0E0],"parents":[2147483647,0,0,1,1,2,2,3,3,4,4,6,6,7,7,9,9,10,10,11,11,13,13,14,14,15,15,16,16,17,17,18,18,21,21,22,22,23,23,24,24,26,26,30,30,31,31,32,32],"right_children":[2,4,6,8,10,-1,12,14,-1,16,18,20,-1,22,24,26,28,30,32,-1,-1,34,36,38,40,-1,42,-1,-1,-1,44,46,48,-1,-1,-1,-1,-1,-1,-1,-1,-1,-1,-1,-1,-1,-1,-1,-1],"split_conditions":[2.4248E2,3.4195503E1,1.7625E2,1.8945999E2,3.79425E1,3.3533022E-1,1.8531E2,4.4905E1,1.9722977E-1,7.125E1,2.86205E1,1.7932E2,6.8589024E-2,4.5121002E1,2.8543701E1,2.86285E1,3.2071503E1,4.56415E1,8.6119995E1,2.1835328E-3,1.0601807E-2,4.5295998E1,2.605085E1,3.3206497E1,7.125E1,1.5065241E-1,3.9704E1,-8.331299E-4,3.9435244E-1,1.5513325E-2,7.145005E1,3.6089996E1,9.591499E1,-2.6385137E-3,-1.3320509E-1,4.77953E-2,1.6734123E-1,-1.3830535E-1,-4.640045E-2,3.3994105E-2,-8.720149E-2,1.3179875E-2,1.8081666E-4,7.847986E-2,2.9673845E-1,2.8149607E-2,-1.15004875E-1,9.2293784E-2,1.5577018E-3],"split_indices":[57,2,0,50,4,0,0,55,0,51,58,0,0,37,21,38,0,1,22,0,0,36,22,2,31,0,1,0,0,0,0,53,26,0,0,0,0,0,0,0,0,0,0,0,0,0,0,0,0],"split_type":[0,0,0,0,0,0,0,0,0,0,0,0,0,0,0,0,0,0,0,0,0,0,0,0,0,0,0,0,0,0,0,0,0,0,0,0,0,0,0,0,0,0,0,0,0,0,0,0,0],"sum_hessian":[4.41E2,4.37E2,4E0,2.13E2,2.24E2,1E0,3E0,2.12E2,1E0,1.5E1,2.09E2,2E0,1E0,1.81E2,3.1E1,1E1,5E0,3E0,2.06E2,1E0,1E0,1.76E2,5E0,1E1,2.1E1,6E0,4E0,1E0,4E0,1E0,2E0,5.4E1,1.52E2,1.73E2,3E0,2E0,3E0,8E0,2E0,1.1E1,1E1,3E0,1E0,1E0,1E0,2.7E1,2.7E1,2.5E1,1.27E2],"tree_param":{"num_deleted":"0","num_feature":"60","num_nodes":"49","size_leaf_vector":"0"}},{"base_weights":[1.9766692E-2,2.5789277E-3,1.7134365E-1,8.473482E-3,-3.8394418E-1,6.384233E-2,4.6165213E-1,-1.1800426E-2,8.207541E-2,-5.4108274E-1,2.0087433E-1,2.1926072E-1,-8.6488515E-2,7.8124744E-1,1.2176295E-1,-3.1767846E-3,-8.903529E-1,8.321635E-1,2.4792861E-2,1.2116023E-1,5.0779724E-1,2.1012442E-2,-3.7019348E-1,2.4081421E-1,9.912605E-1,3.360901E-1,-3.1185914E-2,1.3786528E-2,-2.610305E-1,9.0759885E-1,2.2749329E-1,-4.0797848E-1,7.854494E-2,5.58815E-1,4.4508714E-2,5.970917E-1,1.1995697E-1,1.3265651E-1,-1.4995575E-1,-4.8884583E-1,5.2207947E-2,3.7353516E-2,-8.933004E-2,1.6528527E-3,5.858161E-1,-3.4345156E-1,2.9303232E-1,-6.455887E-1,-8.877258E-2,1.9641805E-1,-9.30247E-2,-1.1791992E-1,1.2980144E-1,-3.485616E-2,1.8549673E-1,3.420003E-2,-2.5058365E-1,4.925537E-2,6.7749023E-3],"categories":[],"categories_nodes":[],"categories_segments":[],"categories_sizes":[],"default_left":[1,1,1,1,1,1,1,1,1,0,0,1,1,1,1,1,0,1,1,1,1,1,1,0,0,0,1,1,1,0,0,1,1,0,1,0,0,1,1,0,0,1,0,0,0,0,0,0,0,0,0,0,0,0,0,0,0,0,0],"id":27,"left_children":[1,3,5,7,9,11,13,15,17,-1,-1,19,21,23,25,27,-1,29,31,33,35,37,39,-1,-1,-1,41,43,45,-1,-1,47,49,-1,51,-1,-1,53,55,-1,-1,57,-1,-1,-1,-1,-1,-1,-1,-1,-1,-1,-1,-1,-1,-1,-1,-1,-1],"loss_changes":[1.151087E0,9.100492E-1,1.3749117E0,5.8740264E-1,6.600749E-1,8.1334555E-1,1.2083969E0,2.3382547E0,3.6315594E0,0E0,0E0,4.1967E-1,5.567526E-1,4.422784E-1,2.3994893E-1,1.3464329E0,0E0,6.720877E-2,1.8930331E0,4.4478452E-1,6.690264E-2,2.8711882E-1,2.761162E-1,0E0,0E0,0E0,2.3262616E-2,2.0049288E0,9.683049E-1,0E0,0E0,6.2530875E-1,1.47436E0,0E0,1.9540791E-1,0E0,0E0,8.6128354E-2,1.19757235E-1,0E0,0E0,7.581264E-4,0E0,0E0,0E0,0E0,0E0,0E0,0E0,0E0,0E0,0E0,0E0,0E0,0E0,0E0,0E0,0E0,0E0],"parents":[2147483647,0,0,1,1,2,2,3,3,4,4,5,5,6,6,7,7,8,8,11,11,12,12,13,13,14,14,15,15,17,17,18,18,19,19,20,20,21,21,22,22,26,26,27,27,28,28,31,31,32,32,34,34,37,37,38,38,41,41],"right_children":[2,4,6,8,10,12,14,16,18,-1,-1,20,22,24,26,28,-1,30,32,34,36,38,40,-1,-1,-1,42,44,46,-1,-1,48,50,-1,52,-1,-1,54,56,-1,-1,58,-1,-1,-1,-1,-1,-1,-1,-1,-1,-1,-1,-1,-1,-1,-1,-1,-1],"split_conditions":[1.7932E2,1.7818E2,1.73875E2,9.9045E1,2.3323E2,1.5645E2,2.10765E2,9.7365005E1,9.2025E1,-1.6232483E-1,6.02623E-2,2.3735E2,1.595E2,1.64005E2,1.94285E2,1.2482E2,-2.6710588E-1,2.1358E2,1.01755005E2,2.39915E1,1.44695E2,2.1898999E2,1.7122E2,7.2244264E-2,2.9737818E-1,1.0082703E-1,2.3564499E2,1.16415E2,1.9438501E2,2.7227968E-1,6.824799E-2,9.919E1,1.4761E2,1.676445E-1,1.49965E2,1.7912751E-1,3.5987094E-2,1.488E2,1.5256E2,-1.4665376E-1,1.5662385E-2,1.7641E2,-2.6799014E-2,4.958559E-4,1.7574483E-1,-1.0303547E-1,8.79097E-2,-1.9367662E-1,-2.6631774E-2,5.8925416E-2,-2.790741E-2,-3.537598E-2,3.8940433E-2,-1.0456848E-2,5.5649024E-2,1.026001E-2,-7.51751E-2,1.4776612E-2,2.032471E-3],"split_indices":[52,50,4,48,4,7,16,48,53,0,0,45,3,11,31,8,0,0,50,0,0,52,4,0,0,0,11,15,18,0,0,30,26,0,2,0,0,18,6,0,0,0,0,0,0,0,0,0,0,0,0,0,0,0,0,0,0,0,0],"split_type":[0,0,0,0,0,0,0,0,0,0,0,0,0,0,0,0,0,0,0,0,0,0,0,0,0,0,0,0,0,0,0,0,0,0,0,0,0,0,0,0,0,0,0,0,0,0,0,0,0,0,0,0,0,0,0,0,0,0,0],"sum_hessian":[4.41E2,3.97E2,4.4E1,3.92E2,5E0,3.3E1,1.1E1,3.08E2,8.4E1,4E0,1E0,1.6E1,1.7E1,5E0,6E0,3.06E2,2E0,5E0,7.9E1,1.3E1,3E0,1.3E1,4E0,2E0,3E0,2E0,4E0,2.88E2,1.8E1,4E0,1E0,8E0,7.1E1,1E0,1.2E1,2E0,1E0,8E0,5E0,3E0,1E0,2E0,2E0,2.83E2,5E0,1.6E1,2E0,4E0,4E0,4.2E1,2.9E1,4E0,8E0,2E0,6E0,2E0,3E0,1E0,1E0],"tree_param":{"num_deleted":"0","num_feature":"60","num_nodes":"59","size_leaf_vector":"0"}},{"base_weights":[1.52831795E-2,-6.017465E-3,9.314993E-2,1.3414603E-2,-1.8017894E-1,5.3049725E-1,4.6836413E-2,-1.0630516E-2,3.873062E-1,4.5200095E-1,-2.3218988E-1,9.1900444E-1,1.8307622E-1,-3.4235272E-1,7.9891816E-2,5.8226692E-3,-4.3744695E-1,2.1681595E-1,9.724407E-1,4.0815544E-1,-2.6495552E-1,-1.06781006E-1,2.6240388E-1,4.090754E-1,3.821313E-2,-4.6140575E-3,7.427654E-1,-1.7810345E-1,-8.467722E-1,4.983468E-1,-5.7524364E-2,-5.0893545E-1,-1.7628372E-1,8.014221E-1,2.5985432E-1,7.6901245E-1,1.738241E-2,1.3396526E-2,-3.5163143E-1,2.0792389E-1,8.51738E-1,2.0018259E-2,-2.4748039E-1,-9.7016144E-1,-2.3830223E-1,1.13718666E-1,6.076031E-1,-1.424675E-1,1.5985107E-1,1.743829E-1,-2.961986E-1,3.0083138E-1,-1.3492584E-2,-1.9996028E-2,2.2648066E-1],"categories":[],"categories_nodes":[],"categories_segments":[],"categories_sizes":[],"default_left":[1,1,1,1,1,1,1,1,1,0,1,0,1,0,1,1,1,1,0,0,1,0,0,1,1,1,1,1,1,1,1,0,1,0,1,0,1,0,0,0,0,0,0,0,0,0,0,0,0,0,0,0,0,0,0],"id":28,"left_children":[1,3,5,7,9,11,13,15,17,-1,19,-1,21,-1,23,25,27,29,-1,-1,31,-1,-1,33,35,37,39,41,43,45,47,-1,49,-1,51,-1,53,-1,-1,-1,-1,-1,-1,-1,-1,-1,-1,-1,-1,-1,-1,-1,-1,-1,-1],"loss_changes":[7.3366696E-1,1.1801596E0,1.899387E0,2.8270617E0,1.2557592E0,1.0465324E0,1.1465892E0,2.0812042E0,1.6845944E0,0E0,8.00527E-1,0E0,1.6598192E-1,0E0,1.0956832E0,2.2031302E0,1.0169013E0,1.2644312E0,0E0,0E0,6.025753E-1,0E0,0E0,3.1866467E-1,1.0979172E0,1.7734565E0,5.603552E-2,1.14914745E-1,6.912303E-2,2.6708853E-1,1.8895455E-1,0E0,1.1029055E0,0E0,9.366661E-2,0E0,5.6726384E-1,0E0,0E0,0E0,0E0,0E0,0E0,0E0,0E0,0E0,0E0,0E0,0E0,0E0,0E0,0E0,0E0,0E0,0E0],"parents":[2147483647,0,0,1,1,2,2,3,3,4,4,5,5,6,6,7,7,8,8,10,10,12,12,14,14,15,15,16,16,17,17,20,20,23,23,24,24,25,25,26,26,27,27,28,28,29,29,30,30,32,32,34,34,36,36],"right_children":[2,4,6,8,10,12,14,16,18,-1,20,-1,22,-1,24,26,28,30,-1,-1,32,-1,-1,34,36,38,40,42,44,46,48,-1,50,-1,52,-1,54,-1,-1,-1,-1,-1,-1,-1,-1,-1,-1,-1,-1,-1,-1,-1,-1,-1,-1],"split_conditions":[1.3263E2,9.7384995E1,1.38125E2,9.130499E1,9.033E1,1.442E2,1.3610501E2,9.029E1,1.01270004E2,1.3560028E-1,4.6905E1,2.7570134E-1,7.92535E1,-1.0270582E-1,1.50765E2,1.00615005E2,9.9455E1,1.0772E2,2.9173222E-1,1.22446634E-1,9.703E1,-3.2034304E-2,7.8721166E-2,1.35995E2,7.125E1,9.697E1,9.7869995E1,1.01815E2,1.2312E2,1.0595E2,1.7819E2,-1.5268064E-1,9.645E1,2.4042664E-1,1.9764E2,2.3070374E-1,2.2613E2,4.0189577E-3,-1.0548943E-1,6.237717E-2,2.5552142E-1,6.005478E-3,-7.424412E-2,-2.9104844E-1,-7.1490675E-2,3.41156E-2,1.8228093E-1,-4.2740252E-2,4.7955323E-2,5.231487E-2,-8.885959E-2,9.024942E-2,-4.0477756E-3,-5.998809E-3,6.79442E-2],"split_indices":[33,31,36,29,29,14,40,26,34,0,57,0,4,0,36,18,23,13,0,0,33,0,0,19,20,10,0,12,0,1,4,0,37,0,0,0,19,0,0,0,0,0,0,0,0,0,0,0,0,0,0,0,0,0,0],"split_type":[0,0,0,0,0,0,0,0,0,0,0,0,0,0,0,0,0,0,0,0,0,0,0,0,0,0,0,0,0,0,0,0,0,0,0,0,0,0,0,0,0,0,0,0,0,0,0,0,0,0,0,0,0,0,0],"sum_hessian":[4.41E2,3.47E2,9.4E1,3.13E2,3.4E1,8E0,8.6E1,2.95E2,1.8E1,2E0,3.2E1,3E0,5E0,6E0,8E1,2.85E2,1E1,1.5E1,3E0,1E0,3.1E1,1E0,4E0,8E0,7.2E1,2.82E2,3E0,7E0,3E0,7E0,8E0,7E0,2.4E1,1E0,7E0,1E0,7.1E1,2.69E2,1.3E1,1E0,2E0,2E0,5E0,2E0,1E0,2E0,5E0,6E0,2E0,6E0,1.8E1,6E0,1E0,6.1E1,1E1],"tree_param":{"num_deleted":"0","num_feature":"60","num_nodes":"55","size_leaf_vector":"0"}},{"base_weights":[1.3428118E-2,-1.38063785E-2,6.762236E-2,-2.5863054E-3,-4.750628E-1,3.946442E-1,2.2171864E-2,-7.1346164E-3,6.5366364E-1,-7.0640564E-2,-7.607193E-1,6.0454524E-1,1.1757151E-1,8.38501E-1,9.442403E-3,-1.2614024E-2,5.176137E-1,1.027298E-1,-1.6267395E-1,7.1300364E-1,1.1380768E-1,-8.564301E-2,2.9727173E-1,-3.2783604E-1,3.7238616E-2,2.1237534E-2,-1.0315712E-1,1.4987183E-1,6.2654877E-1,1.6298103E-1,7.682953E-1,-6.023407E-3,1.7673492E-1,-3.8871765E-3,-1.0511017E-1,3.3102798E-1,8.112335E-2,1.3927269E-1,-3.9521176E-1,5.322075E-1,1.5767822E-2,-1.764811E-2,2.7323574E-1,4.867916E-1,-1.17140755E-1,-1.7873764E-1,-4.736592E-1,3.7651062E-3,6.633768E-1,-2.5407997E-1,5.194187E-2],"categories":[],"categories_nodes":[],"categories_segments":[],"categories_sizes":[],"default_left":[1,1,1,1,1,1,1,1,0,1,0,1,1,0,1,1,1,0,0,1,1,1,1,1,1,1,1,0,0,0,0,0,0,0,0,0,0,0,1,1,1,0,0,0,0,0,0,0,0,0,0],"id":29,"left_children":[1,3,5,7,9,11,13,15,-1,17,-1,19,21,-1,23,25,27,-1,-1,29,31,33,35,37,39,41,43,-1,-1,-1,-1,-1,-1,-1,-1,-1,-1,-1,45,47,49,-1,-1,-1,-1,-1,-1,-1,-1,-1,-1],"loss_changes":[6.533048E-1,1.5254939E0,2.1910193E0,8.672792E-1,7.549434E-1,9.757638E-1,1.3533599E0,8.346184E-1,0E0,8.0534905E-2,0E0,4.511006E-1,3.5411847E-1,0E0,1.2309664E0,8.787879E-1,2.62779E-2,0E0,0E0,1.18076324E-1,2.3686465E-2,7.549189E-3,9.6277E-3,3.6976004E-1,1.2775207E0,2.0528364E0,7.0049435E-1,0E0,0E0,0E0,0E0,0E0,0E0,0E0,0E0,0E0,0E0,0E0,6.817579E-2,3.440795E-1,1.1552913E0,0E0,0E0,0E0,0E0,0E0,0E0,0E0,0E0,0E0,0E0],"parents":[2147483647,0,0,1,1,2,2,3,3,4,4,5,5,6,6,7,7,9,9,11,11,12,12,14,14,15,15,16,16,19,19,20,20,21,21,22,22,23,23,24,24,25,25,26,26,38,38,39,39,40,40],"right_children":[2,4,6,8,10,12,14,16,-1,18,-1,20,22,-1,24,26,28,-1,-1,30,32,34,36,38,40,42,44,-1,-1,-1,-1,-1,-1,-1,-1,-1,-1,-1,46,48,50,-1,-1,-1,-1,-1,-1,-1,-1,-1,-1],"split_conditions":[9.2025E1,9.274E1,9.958E1,1.8945999E2,8.9595E1,9.6244995E1,4.678E1,1.442E2,1.960991E-1,8.27115E1,-2.282158E-1,1.03354996E2,1.16880005E2,2.5155032E-1,1.0125E2,3.59585E1,7.2719E1,3.0818941E-2,-4.8802186E-2,4.8535E1,9.117E1,9.209E1,1.05990005E2,1.00655E2,9.9725E1,2.8815E1,2.4872501E1,4.496155E-2,1.8796463E-1,4.8894312E-2,2.304886E-1,-1.8070221E-3,5.302048E-2,-1.166153E-3,-3.153305E-2,9.93084E-2,2.4337007E-2,4.178181E-2,1.00229996E2,1.0491E2,8.778E1,-5.2944333E-3,8.197072E-2,1.4603749E-1,-3.5142228E-2,-5.3621296E-2,-1.4209776E-1,1.1295319E-3,1.9901305E-1,-7.622399E-2,1.5582562E-2],"split_indices":[3,5,2,35,2,20,26,16,0,0,0,43,15,0,1,15,0,0,0,20,0,5,3,2,4,16,49,0,0,0,0,0,0,0,0,0,0,0,3,0,31,0,0,0,0,0,0,0,0,0,0],"split_type":[0,0,0,0,0,0,0,0,0,0,0,0,0,0,0,0,0,0,0,0,0,0,0,0,0,0,0,0,0,0,0,0,0,0,0,0,0,0,0,0,0,0,0,0,0,0,0,0,0,0,0],"sum_hessian":[4.41E2,2.94E2,1.47E2,2.88E2,6E0,1.7E1,1.3E2,2.87E2,1E0,3E0,3E0,9E0,8E0,1E0,1.29E2,2.85E2,2E0,1E0,2E0,7E0,2E0,4E0,4E0,9E0,1.2E2,2.08E2,7.7E1,1E0,1E0,1E0,6E0,1E0,1E0,1E0,3E0,3E0,1E0,1E0,8E0,4E0,1.16E2,1.81E2,2.7E1,1E0,7.6E1,3E0,5E0,1E0,3E0,1.3E1,1.03E2],"tree_param":{"num_deleted":"0","num_feature":"60","num_nodes":"51","size_leaf_vector":"0"}},{"base_weights":[1.1728513E-2,5.6393575E-3,2.1223685E-1,7.5263106E-3,-4.0193176E-1,6.0084533E-2,5.395584E-1,-2.132599E-2,3.6076616E-2,-1.8648783E-2,1.425476E-1,3.5194397E-2,6.959483E-1,-8.100336E-3,-2.2519185E-1,4.7650528E-1,5.5245087E-3,-1.0466766E-1,1.9488525E-2,-1.826757E-2,2.7773938E-1,-3.805603E-1,-1.1385473E-1,1.5212877E-1,7.007716E-1,-4.548672E-1,2.1855563E-2,3.1117758E-2,1.3631185E-3,4.78622E-4,-2.2919214E-1,5.01733E-1,-1.8816312E-1,-4.2556953E-1,-1.0026169E-1,2.808857E-2,-1.3510871E-1,2.0281315E-2,2.4594402E-1,2.6179314E-1,8.0346555E-1,-5.359538E-1,1.5826225E-2,3.0566186E-1,1.794279E-3,-3.730774E-3,5.7754517E-3],"categories":[],"categories_nodes":[],"categories_segments":[],"categories_sizes":[],"default_left":[1,1,1,1,0,1,1,1,1,1,0,0,0,1,1,1,1,0,1,1,1,1,1,1,1,1,1,0,1,0,0,0,0,0,0,0,0,0,0,0,0,0,0,0,0,0,0],"id":30,"left_children":[1,3,5,7,-1,9,11,13,15,17,-1,-1,-1,19,21,23,25,-1,27,29,31,33,35,37,39,41,43,-1,45,-1,-1,-1,-1,-1,-1,-1,-1,-1,-1,-1,-1,-1,-1,-1,-1,-1,-1],"loss_changes":[5.384526E-1,3.337241E-1,6.1501634E-1,3.5415468E-1,0E0,6.7584254E-2,2.9101622E-1,5.751754E-1,2.9038687E0,2.1722991E-2,0E0,0E0,0E0,5.9212583E-1,1.8154901E-1,9.1184664E-1,1.5362339E0,0E0,1.0115055E-3,7.7510005E-1,8.24922E-1,2.041179E-2,3.0946754E-2,8.1597045E-2,1.503017E-1,2.7565074E-1,1.1210747E0,0E0,8.897475E-5,0E0,0E0,0E0,0E0,0E0,0E0,0E0,0E0,0E0,0E0,0E0,0E0,0E0,0E0,0E0,0E0,0E0,0E0],"parents":[2147483647,0,0,1,1,2,2,3,3,5,5,6,6,7,7,8,8,9,9,13,13,14,14,15,15,16,16,18,18,19,19,20,20,21,21,22,22,23,23,24,24,25,25,26,26,28,28],"right_children":[2,4,6,8,-1,10,12,14,16,18,-1,-1,-1,20,22,24,26,-1,28,30,32,34,36,38,40,42,44,-1,46,-1,-1,-1,-1,-1,-1,-1,-1,-1,-1,-1,-1,-1,-1,-1,-1,-1,-1],"split_conditions":[2.17265E2,2.5406E2,1.5954999E2,3.4195503E1,-1.2057953E-1,1.5883499E2,1.4183E2,3.1795E1,3.5309998E1,1.53315E2,4.2764284E-2,1.0558319E-2,2.087845E-1,3.1293499E1,3.31115E1,3.19375E1,3.7763E1,-3.14003E-2,1.7182999E2,2.7173E1,3.5309998E1,3.5003998E1,2.9963501E1,3.5904E1,2.8047E1,4.3953E1,4.2635002E1,9.335328E-3,1.7932E2,1.4358661E-4,-6.8757646E-2,1.5051991E-1,-5.6448936E-2,-1.2767087E-1,-3.0078508E-2,8.426571E-3,-4.0532615E-2,6.0843946E-3,7.378321E-2,7.853794E-2,2.4103968E-1,-1.6078615E-1,4.7478676E-3,9.169856E-2,5.382837E-4,-1.1192323E-3,1.7326355E-3],"split_indices":[58,8,11,2,0,5,2,2,7,1,0,0,0,1,10,6,9,0,0,1,0,0,3,1,8,1,5,0,0,0,0,0,0,0,0,0,0,0,0,0,0,0,0,0,0,0,0],"split_type":[0,0,0,0,0,0,0,0,0,0,0,0,0,0,0,0,0,0,0,0,0,0,0,0,0,0,0,0,0,0,0,0,0,0,0,0,0,0,0,0,0,0,0,0,0,0,0],"sum_hessian":[4.41E2,4.29E2,1.2E1,4.28E2,1E0,9E0,3E0,2.13E2,2.15E2,5E0,4E0,1E0,2E0,2.01E2,1.2E1,1.3E1,2.02E2,1E0,4E0,1.95E2,6E0,4E0,8E0,6E0,7E0,6E0,1.96E2,2E0,2E0,1.8E2,1.5E1,4E0,2E0,3E0,1E0,1E0,7E0,3E0,3E0,2E0,5E0,5E0,1E0,1.2E1,1.84E2,1E0,1E0],"tree_param":{"num_deleted":"0","num_feature":"60","num_nodes":"47","size_leaf_vector":"0"}},{"base_weights":[8.868894E-3,-2.2567652E-2,3.7164196E-2,-3.7059148E-3,-3.334775E-1,6.579544E-1,2.3447536E-2,-1.4524788E-2,3.4672198E-1,-5.0908417E-1,-7.3023476E-2,2.1888733E-2,8.1149864E-1,-3.9111057E-1,3.6355425E-2,7.2534237E-4,-3.280803E-1,3.9246637E-1,5.9000015E-2,-1.4833403E-1,-7.4256325E-1,-1.0375595E-1,4.0319443E-2,-4.6645468E-1,-1.3516681E-1,3.45701E-1,2.323698E-2,-3.1663682E-2,1.320126E-1,-1.3394673E-1,-3.6441177E-1,-1.863416E-1,-1.7155647E-2,-2.8051376E-2,-1.1566925E-1,4.8193142E-1,-8.740362E-2,5.437495E-1,1.5796725E-2,-8.6612245E-3,-1.7255206E-1,6.325657E-1,5.217084E-2,-1.08098984E-1,-3.8911405E-1,1.1120033E-1,5.2518654E-1,1.0316658E-1,7.1245766E-1,-2.595604E-1,2.2308633E-2],"categories":[],"categories_nodes":[],"categories_segments":[],"categories_sizes":[],"default_left":[1,1,1,1,1,1,1,1,1,1,1,0,0,1,1,1,1,0,0,1,0,1,0,0,0,1,1,1,1,0,1,0,0,0,0,1,0,1,1,0,0,0,0,0,0,0,0,0,0,0,0],"id":31,"left_children":[1,3,5,7,9,11,13,15,17,19,21,-1,-1,23,25,27,29,-1,-1,31,-1,33,-1,-1,-1,35,37,39,41,-1,43,-1,-1,-1,-1,45,-1,47,49,-1,-1,-1,-1,-1,-1,-1,-1,-1,-1,-1,-1],"loss_changes":[3.9400062E-1,1.230267E0,1.968607E0,7.5949174E-1,5.116745E-1,4.705584E-1,1.239614E0,9.2789984E-1,5.5814445E-2,4.7944593E-1,2.5083233E-2,0E0,0E0,7.19378E-2,8.969305E-1,7.951015E-1,1.46666765E-2,0E0,0E0,1.6746275E-2,0E0,1.2647733E-3,0E0,0E0,0E0,5.7314086E-1,8.24051E-1,4.846224E-1,1.4457047E0,0E0,2.257824E-3,0E0,0E0,0E0,0E0,5.3851128E-2,0E0,1.4948797E-1,3.8772082E-1,0E0,0E0,0E0,0E0,0E0,0E0,0E0,0E0,0E0,0E0,0E0,0E0],"parents":[2147483647,0,0,1,1,2,2,3,3,4,4,5,5,6,6,7,7,8,8,9,9,10,10,13,13,14,14,15,15,16,16,19,19,21,21,25,25,26,26,27,27,28,28,30,30,35,35,37,37,38,38],"right_children":[2,4,6,8,10,12,14,16,18,20,22,-1,-1,24,26,28,30,-1,-1,32,-1,34,-1,-1,-1,36,38,40,42,-1,44,-1,-1,-1,-1,46,-1,48,50,-1,-1,-1,-1,-1,-1,-1,-1,-1,-1,-1,-1],"split_conditions":[3.9367E1,4.317E1,2.362475E1,4.16385E1,4.4375E1,1.41723E1,2.653985E1,3.5003998E1,4.5557E1,4.37345E1,9.293E1,6.56662E-3,2.434496E-1,4.5446E1,3.4559998E1,1.467805E1,2.5962E1,1.17739916E-1,1.7700005E-2,3.66877E1,-2.2276898E-1,3.8144653E1,1.2095833E-2,-1.3993642E-1,-4.0550046E-2,3.5E1,2.9095001E1,1.461345E1,2.4162E1,-4.018402E-2,3.66745E1,-5.590248E-2,-5.1466944E-3,-8.415413E-3,-3.4700777E-2,2.579665E1,-2.6221087E-2,5.84132E1,3.58385E1,-2.5983674E-3,-5.176562E-2,1.8976972E-1,1.5651252E-2,-3.2429695E-2,-1.1673422E-1,3.33601E-2,1.5755597E-1,3.0949974E-2,2.1373731E-1,-7.786813E-2,6.69259E-3],"split_indices":[37,19,15,25,27,1,14,34,0,6,0,0,0,33,48,5,16,0,0,0,0,3,0,0,0,51,58,41,31,0,0,0,0,0,0,0,0,0,49,0,0,0,0,0,0,0,0,0,0,0,0],"split_type":[0,0,0,0,0,0,0,0,0,0,0,0,0,0,0,0,0,0,0,0,0,0,0,0,0,0,0,0,0,0,0,0,0,0,0,0,0,0,0,0,0,0,0,0,0,0,0,0,0,0,0],"sum_hessian":[4.41E2,2.09E2,2.32E2,1.98E2,1.1E1,4E0,2.28E2,1.93E2,5E0,6E0,5E0,1E0,3E0,6E0,2.22E2,1.85E2,8E0,4E0,1E0,3E0,3E0,4E0,1E0,4E0,2E0,8E0,2.14E2,1.49E2,3.6E1,2E0,6E0,2E0,1E0,1E0,3E0,6E0,2E0,2E0,2.12E2,1.29E2,2E1,4E0,3.2E1,1E0,5E0,1E0,5E0,1E0,1E0,4E0,2.08E2],"tree_param":{"num_deleted":"0","num_feature":"60","num_nodes":"51","size_leaf_vector":"0"}},{"base_weights":[6.6373036E-3,2.6559148E-3,1.9789124E-1,4.958654E-3,-3.2982382E-1,8.120537E-2,5.656891E-1,3.24495E-1,2.7177988E-3,1.3552475E-1,2.1508789E-2,4.7948074E-1,7.261753E-3,-4.282631E-2,1.9087864E-2,3.9159138E-2,-3.3111572E-3,-1.4496054E-2,-1.06357574E-1,1.7665032E-1,7.882815E-3,-6.5231323E-3,1.5563965E-3,-3.5821315E-2,1.8190897E-1,-1.2574236E-1,1.4232762E-1,5.833564E-2,5.435902E-1,-1.0679293E-1,1.9745918E-2],"categories":[],"categories_nodes":[],"categories_segments":[],"categories_sizes":[],"default_left":[1,1,1,1,0,1,0,1,1,0,1,0,0,1,1,0,1,1,1,1,1,0,0,0,0,0,0,0,0,0,0],"id":32,"left_children":[1,3,5,7,-1,9,-1,11,13,-1,15,-1,-1,17,19,-1,21,23,25,27,29,-1,-1,-1,-1,-1,-1,-1,-1,-1,-1],"loss_changes":[3.3603805E-1,3.33912E-1,3.4031433E-1,3.0844504E-1,0E0,2.302647E-2,0E0,1.4401805E-1,3.2140827E-1,0E0,2.3200659E-3,0E0,0E0,2.036419E-1,5.5826944E-1,0E0,5.7055964E-5,3.415873E-1,1.8662149E-1,8.7999105E-1,4.0615058E-1,0E0,0E0,0E0,0E0,0E0,0E0,0E0,0E0,0E0,0E0],"parents":[2147483647,0,0,1,1,2,2,3,3,5,5,7,7,8,8,10,10,13,13,14,14,16,16,17,17,18,18,19,19,20,20],"right_children":[2,4,6,8,-1,10,-1,12,14,-1,16,-1,-1,18,20,-1,22,24,26,28,30,-1,-1,-1,-1,-1,-1,-1,-1,-1,-1],"split_conditions":[2.2578E2,2.4248E2,1.8945999E2,1.31475E0,-9.894715E-2,2.3735E2,1.6970673E-1,1.4079E0,1.3621E1,4.0657427E-2,1.5017E2,1.4384423E-1,2.178526E-3,3.01045E0,1.275845E1,1.1747742E-2,1.7932E2,3.3375E0,1.37417E1,1.660005E1,2.720435E1,-1.9569397E-3,4.6691895E-4,-1.0746395E-2,5.457269E-2,-3.772271E-2,4.2698286E-2,1.7500693E-2,1.6307706E-1,-3.203788E-2,5.9237755E-3],"split_indices":[59,36,1,1,0,58,0,0,43,0,8,0,0,13,9,0,0,27,35,45,25,0,0,0,0,0,0,0,0,0,0],"split_type":[0,0,0,0,0,0,0,0,0,0,0,0,0,0,0,0,0,0,0,0,0,0,0,0,0,0,0,0,0,0,0],"sum_hessian":[4.41E2,4.33E2,8E0,4.31E2,2E0,7E0,1E0,2E0,4.29E2,3E0,4E0,1E0,1E0,1.13E2,3.16E2,2E0,2E0,7.9E1,3.4E1,2E1,2.96E2,1E0,1E0,7.2E1,7E0,3.2E1,2E0,1.6E1,4E0,2.7E1,2.69E2],"tree_param":{"num_deleted":"0","num_feature":"60","num_nodes":"31","size_leaf_vector":"0"}},{"base_weights":[5.7128067E-3,1.3327968E-2,-8.3221436E-2,5.519939E-3,2.501473E-1,-2.3170696E-1,5.4014105E-2,9.954316E-3,-2.1079159E-1,4.7119445E-1,9.954919E-2,1.4206441E-1,-2.910141E-1,-3.0087534E-1,1.13464355E-1,5.7331095E-3,4.148121E-1,-2.3352377E-1,-2.583313E-2,-4.0482838E-2,2.8470993E-1,-3.7202898E-1,2.4784088E-2,2.1450043E-1,-2.7013779E-2,-5.0458957E-9,2.458869E-1,-1.6708374E-3,-1.1727142E-1,7.45163E-2,3.299357E-1,-4.304512E-1,-5.3278606E-2,5.884552E-2,-6.184896E-3,-2.2816977E-2,2.766819E-1,1.642456E-1,-7.780021E-2,2.9785025E-3,-3.7330627E-1,-2.973137E-1,5.670395E-1,-1.3881683E-2,2.3586273E-2,-4.5069632E-1,-1.2412262E-1,2.0751953E-3,-8.19931E-2,2.7999878E-3,-3.702545E-2,-1.5795898E-1,-1.4144897E-2],"categories":[],"categories_nodes":[],"categories_segments":[],"categories_sizes":[],"default_left":[1,1,1,1,1,1,1,1,1,0,1,0,1,0,1,1,0,0,0,1,1,1,1,1,1,1,1,1,0,0,0,1,1,0,0,1,0,0,1,0,0,0,0,0,0,0,0,0,0,0,0,0,0],"id":33,"left_children":[1,3,5,7,9,11,13,15,17,-1,19,-1,21,-1,23,25,-1,-1,-1,27,29,31,33,35,37,39,41,43,-1,-1,-1,45,47,-1,-1,49,-1,-1,51,-1,-1,-1,-1,-1,-1,-1,-1,-1,-1,-1,-1,-1,-1],"loss_changes":[3.0045304E-1,7.5304884E-1,7.257276E-1,3.8194412E-1,3.858537E-1,4.1818702E-1,4.350057E-1,6.624182E-1,2.7603418E-2,0E0,2.4488178E-1,0E0,3.9298582E-1,0E0,2.4708158E-1,5.3145605E-1,0E0,0E0,0E0,1.7685972E-2,1.3439089E-2,2.0053136E-1,4.5833453E-3,1.5388048E-1,9.048539E-2,4.214084E-1,1.7386411E0,1.8694706E-3,0E0,0E0,0E0,6.0749054E-3,4.9385214E-3,0E0,0E0,1.1956046E-3,0E0,0E0,3.348341E-2,0E0,0E0,0E0,0E0,0E0,0E0,0E0,0E0,0E0,0E0,0E0,0E0,0E0,0E0],"parents":[2147483647,0,0,1,1,2,2,3,3,4,4,5,5,6,6,7,7,8,8,10,10,12,12,14,14,15,15,19,19,20,20,21,21,22,22,23,23,24,24,25,25,26,26,27,27,31,31,32,32,35,35,38,38],"right_children":[2,4,6,8,10,12,14,16,18,-1,20,-1,22,-1,24,26,-1,-1,-1,28,30,32,34,36,38,40,42,44,-1,-1,-1,46,48,-1,-1,50,-1,-1,52,-1,-1,-1,-1,-1,-1,-1,-1,-1,-1,-1,-1,-1,-1],"split_conditions":[1.90275E2,1.81355E2,2.0911499E2,1.7873E2,1.46905E2,1.71715E2,1.58235E2,1.9076001E2,1.9778E2,1.4135835E-1,1.99095E2,4.2619325E-2,2.3754999E2,-9.026261E-2,1.75125E2,1.7904999E2,1.2444363E-1,-7.005713E-2,-7.7499393E-3,1.8786E2,1.5719E2,2.2578E2,1.5472E2,1.7907501E2,1.87495E2,1.8375E2,9.4604996E1,1.7961499E2,-3.518143E-2,2.235489E-2,9.898072E-2,2.4873999E2,2.3842E2,1.7653657E-2,-1.8554688E-3,2.4492499E2,8.300457E-2,4.9273685E-2,2.27095E2,8.935508E-4,-1.1199189E-1,-8.919411E-2,1.7011185E-1,-4.1645053E-3,7.075882E-3,-1.352089E-1,-3.7236787E-2,6.2255864E-4,-2.4597932E-2,8.399964E-4,-1.1107636E-2,-4.7387697E-2,-4.2434693E-3],"split_indices":[11,18,12,20,39,15,45,23,22,0,22,0,22,0,59,2,0,0,0,1,0,17,0,32,0,23,34,0,0,0,0,26,0,0,0,0,0,0,12,0,0,0,0,0,0,0,0,0,0,0,0,0,0],"split_type":[0,0,0,0,0,0,0,0,0,0,0,0,0,0,0,0,0,0,0,0,0,0,0,0,0,0,0,0,0,0,0,0,0,0,0,0,0,0,0,0,0,0,0,0,0,0,0,0,0,0,0,0,0],"sum_hessian":[4.41E2,4.07E2,3.4E1,3.95E2,1.2E1,1.6E1,1.8E1,3.88E2,7E0,4E0,8E0,2E0,1.4E1,2E0,1.6E1,3.85E2,3E0,6E0,1E0,5E0,3E0,1.1E1,3E0,9E0,7E0,3.77E2,8E0,4E0,1E0,1E0,2E0,9E0,2E0,1E0,2E0,2E0,7E0,1E0,6E0,3.75E2,2E0,3E0,5E0,3E0,1E0,8E0,1E0,1E0,1E0,1E0,1E0,2E0,4E0],"tree_param":{"num_deleted":"0","num_feature":"60","num_nodes":"53","size_leaf_vector":"0"}},{"base_weights":[4.1998588E-3,9.984229E-3,-9.26828E-2,1.7706371E-3,1.3903107E-1,-4.0523857E-1,2.7347364E-2,1.6632607E-2,-5.2452672E-2,6.928501E-1,3.20171E-2,-5.8205986E-1,-1.2710762E-1,1.8162613E-1,-1.2966613E-1,-8.945406E-3,2.3912114E-1,-3.1172904E-1,2.6910666E-2,-3.4194358E-2,1.1489029E-1,-1.4849599E-1,-3.1471252E-2,-3.7231445E-2,2.4099445E-1,-2.2381847E-1,9.249878E-3,8.358133E-3,-1.8508369E-1,1.8174458E-1,7.3317975E-1,-2.0621419E-1,-5.8703077E-1,4.3646163E-1,-6.551681E-3,3.799269E-2,-1.5729217E-1,1.6873714E-1,-8.06427E-3,-5.822754E-2,2.380371E-3,9.158071E-2,2.7553558E-1,-9.777323E-2,-2.6239777E-1,6.137085E-2,-1.9123077E-2,-1.12564005E-2,1.0809985E-1,-2.6216897E-1,1.7569122E-1,-2.0498037E-2,2.4418789E-1,-2.988186E-1,-4.446302E-2,1.9857788E-1,5.288582E-1,3.8804498E-1,-2.617232E-2,1.4713833E-4,1.1363474E-1,-4.6100616E-2,-1.7356491E-1,1.9627254E-1,1.7623901E-3,-1.8330893E-2,1.1367798E-2,-2.7153015E-2,-7.3954263E-3],"categories":[],"categories_nodes":[],"categories_segments":[],"categories_sizes":[],"default_left":[1,1,1,1,1,1,1,1,1,0,1,0,1,1,1,1,1,1,1,1,1,0,0,1,1,1,1,1,1,1,0,1,0,1,1,1,1,1,1,0,0,0,0,0,0,0,1,0,0,0,0,0,0,0,0,0,0,0,0,0,0,0,0,0,0,0,0,0,0],"id":34,"left_children":[1,3,5,7,9,11,13,15,17,-1,19,-1,21,23,25,27,29,31,33,35,37,-1,-1,39,41,43,45,47,49,51,-1,53,-1,55,57,59,61,63,65,-1,-1,-1,-1,-1,-1,-1,67,-1,-1,-1,-1,-1,-1,-1,-1,-1,-1,-1,-1,-1,-1,-1,-1,-1,-1,-1,-1,-1,-1],"loss_changes":[2.4862443E-1,4.428079E-1,9.489852E-1,3.183833E-1,1.4594762E0,2.7027214E-1,4.838039E-1,1.7662915E0,1.7574371E0,0E0,1.2464599E-1,0E0,3.5086647E-3,1.3890466E-1,1.3286296E-1,8.518876E-1,7.7386487E-1,4.5991445E-1,9.07359E-1,1.21494845E-1,6.75679E-2,0E0,0E0,2.6336834E-3,1.6053617E-2,3.5209358E-3,8.56773E-3,5.000956E-1,7.4132174E-1,3.8386643E-1,0E0,2.2637552E-1,0E0,4.8787E-3,4.9017486E-1,2.574772E-2,1.0455027E-3,3.1838104E-2,1.0063887E-3,0E0,0E0,0E0,0E0,0E0,0E0,0E0,1.758812E-4,0E0,0E0,0E0,0E0,0E0,0E0,0E0,0E0,0E0,0E0,0E0,0E0,0E0,0E0,0E0,0E0,0E0,0E0,0E0,0E0,0E0,0E0],"parents":[2147483647,0,0,1,1,2,2,3,3,4,4,5,5,6,6,7,7,8,8,10,10,12,12,13,13,14,14,15,15,16,16,17,17,18,18,19,19,20,20,23,23,24,24,25,25,26,26,27,27,28,28,29,29,31,31,33,33,34,34,35,35,36,36,37,37,38,38,46,46],"right_children":[2,4,6,8,10,12,14,16,18,-1,20,-1,22,24,26,28,30,32,34,36,38,-1,-1,40,42,44,46,48,50,52,-1,54,-1,56,58,60,62,64,66,-1,-1,-1,-1,-1,-1,-1,68,-1,-1,-1,-1,-1,-1,-1,-1,-1,-1,-1,-1,-1,-1,-1,-1,-1,-1,-1,-1,-1,-1],"split_conditions":[1.9712E2,1.7266E2,1.7660501E2,9.894501E1,1.5017E2,1.9785E2,2.1898999E2,9.0475E1,1.0088E2,2.0785505E-1,1.7320999E2,-1.7461796E-1,2.39035E2,1.9572E2,2.3323E2,4.49065E1,9.83E1,9.9585E1,9.0990005E1,1.7819E2,1.9641E2,-4.45488E-2,-9.441376E-3,2.3604999E2,2.0551001E2,2.0916E2,1.9908E2,3.4195503E1,1.3585E2,3.4475E1,2.1995394E-1,1.04405E2,-1.7610924E-1,9.7955E1,5.1665E1,1.90525E2,1.58235E2,2.359E2,2.05185E2,-1.7468262E-2,7.141114E-4,2.7474215E-2,8.2660675E-2,-2.9331971E-2,-7.871933E-2,1.8411256E-2,1.9556E2,-3.3769202E-3,3.2429956E-2,-7.86507E-2,5.2707367E-2,-6.1494117E-3,7.325637E-2,-8.964558E-2,-1.3338907E-2,5.9573367E-2,1.5865746E-1,1.164135E-1,-7.851697E-3,4.41415E-5,3.4090426E-2,-1.3830186E-2,-5.2069474E-2,5.8881763E-2,5.2871706E-4,-5.499268E-3,3.4103396E-3,-8.145905E-3,-2.218628E-3],"split_indices":[3,3,32,11,10,0,17,1,18,0,18,0,0,5,12,3,11,23,26,12,22,0,0,0,0,14,1,2,40,57,0,8,0,0,43,4,1,0,0,0,0,0,0,0,0,0,0,0,0,0,0,0,0,0,0,0,0,0,0,0,0,0,0,0,0,0,0,0,0],"split_type":[0,0,0,0,0,0,0,0,0,0,0,0,0,0,0,0,0,0,0,0,0,0,0,0,0,0,0,0,0,0,0,0,0,0,0,0,0,0,0,0,0,0,0,0,0,0,0,0,0,0,0,0,0,0,0,0,0,0,0,0,0,0,0,0,0,0,0,0,0],"sum_hessian":[4.41E2,4.17E2,2.4E1,3.93E2,2.4E1,6E0,1.8E1,3.09E2,8.4E1,3E0,2.1E1,3E0,3E0,9E0,9E0,2.78E2,3.1E1,1.9E1,6.5E1,1.2E1,9E0,2E0,1E0,2E0,7E0,5E0,4E0,2.54E2,2.4E1,2.9E1,2E0,1.5E1,4E0,4E0,6.1E1,8E0,4E0,6E0,3E0,1E0,1E0,2E0,5E0,2E0,3E0,1E0,3E0,2.13E2,4.1E1,2E1,4E0,7E0,2.2E1,9E0,6E0,2E0,2E0,2E0,5.9E1,6E0,2E0,1E0,3E0,5E0,1E0,2E0,1E0,1E0,2E0],"tree_param":{"num_deleted":"0","num_feature":"60","num_nodes":"69","size_leaf_vector":"0"}},{"base_weights":[3.7004638E-3,2.4643564E-1,1.4803244E-3,4.0880013E-1,5.604744E-2,-2.1690375E-5,3.296814E-1,7.665682E-2,7.414341E-3,7.2815605E-3,-5.3210996E-2,-3.8182938E-3,1.493375E-1,-3.2776642E-1,-3.6017325E-2,8.907287E-3,-7.585921E-2,4.6651968E-1,6.0101386E-2,-6.163628E-2,9.038629E-2,-8.3908355E-3,2.2211424E-1,-2.3216553E-1,1.562609E-2,2.0062765E-2,6.8473244E-1,-8.602142E-2,1.1673422E-1,8.113708E-3,-1.5016857E-1,1.58933E-1,-3.5030365E-2],"categories":[],"categories_nodes":[],"categories_segments":[],"categories_sizes":[],"default_left":[1,1,1,0,1,1,0,0,0,1,1,1,1,0,1,1,1,1,1,1,1,0,0,0,0,0,0,0,0,0,0,0,0],"id":35,"left_children":[1,3,5,-1,7,9,-1,-1,-1,11,13,15,17,-1,19,21,23,25,27,29,31,-1,-1,-1,-1,-1,-1,-1,-1,-1,-1,-1,-1],"loss_changes":[2.3783161E-1,1.00736916E-1,2.1641785E-1,0E0,2.438534E-3,1.7053068E-1,0E0,0E0,0E0,6.0921514E-1,2.3838738E-1,3.2979342E-1,7.6447636E-1,0E0,1.7072585E-1,1.1304163E0,7.758133E-1,5.7079804E-1,2.003747E-1,2.6674885E-1,8.293958E-2,0E0,0E0,0E0,0E0,0E0,0E0,0E0,0E0,0E0,0E0,0E0,0E0],"parents":[2147483647,0,0,1,1,2,2,4,4,5,5,9,9,10,10,11,11,12,12,14,14,15,15,16,16,17,17,18,18,19,19,20,20],"right_children":[2,4,6,-1,8,10,-1,-1,-1,12,14,16,18,-1,20,22,24,26,28,30,32,-1,-1,-1,-1,-1,-1,-1,-1,-1,-1,-1,-1],"split_conditions":[1.3434999E0,1.3861E0,2.5335E2,1.2264004E-1,1.4682E0,1.7139E2,9.890442E-2,2.2997046E-2,2.2243024E-3,1.4626999E2,9.2025E1,9.894501E1,1.46155E2,-9.832993E-2,2.33485E2,9.374E1,1.0088E2,1.43185E2,1.5191501E2,1.75125E2,2.4285501E2,-2.5172508E-3,6.6634275E-2,-6.964966E-2,4.687827E-3,6.01883E-3,2.0541973E-1,-2.5806429E-2,3.502027E-2,2.4341126E-3,-4.5050573E-2,4.76799E-2,-1.050911E-2],"split_indices":[1,0,21,0,0,10,0,0,0,16,35,11,14,0,13,4,18,15,12,35,14,0,0,0,0,0,0,0,0,0,0,0,0],"split_type":[0,0,0,0,0,0,0,0,0,0,0,0,0,0,0,0,0,0,0,0,0,0,0,0,0,0,0,0,0,0,0,0,0],"sum_hessian":[4.41E2,3E0,4.38E2,1E0,2E0,4.37E2,1E0,1E0,1E0,3.85E2,5.2E1,3.58E2,2.7E1,2E0,5E1,3.05E2,5.3E1,5E0,2.2E1,4.2E1,8E0,2.83E2,2.2E1,1.9E1,3.4E1,2E0,3E0,6E0,1.6E1,2.4E1,1.8E1,5E0,3E0],"tree_param":{"num_deleted":"0","num_feature":"60","num_nodes":"33","size_leaf_vector":"0"}},{"base_weights":[3.4110441E-3,1.1775191E-3,1.9838563E-1,2.0947027E-1,-7.4052345E-4,2.3569489E-1,2.457428E-2,3.4747982E-1,4.7640484E-2,5.1730205E-3,-5.7694413E-2,6.515837E-2,6.3023567E-3,-3.955533E-3,9.917973E-2,-1.1376063E-1,2.0265792E-2,8.737398E-4,-2.1715641E-1,3.6180624E-1,4.334844E-2,-7.38033E-2,-3.6886087E-1,4.980424E-2,-2.4094391E-1,-1.888911E-3,4.8804474E-1,-2.985064E-1,1.7929077E-2,1.6052246E-2,5.3067017E-1,1.32402275E-2,1.9124146E-1,2.5059292E-2,-1.1244297E-1,1.3753073E-2,1.6353226E-1],"categories":[],"categories_nodes":[],"categories_segments":[],"categories_sizes":[],"default_left":[1,1,1,1,1,0,0,0,1,1,1,0,0,1,1,1,1,1,1,1,1,1,0,1,0,0,0,0,0,0,0,0,0,0,0,0,0],"id":36,"left_children":[1,3,5,7,9,-1,-1,-1,11,13,15,-1,-1,17,19,21,23,25,27,29,31,33,-1,35,-1,-1,-1,-1,-1,-1,-1,-1,-1,-1,-1,-1,-1],"loss_changes":[1.9224882E-1,1.751424E-1,2.6631832E-2,7.2782114E-2,1.4680617E-1,0E0,0E0,0E0,1.7618178E-3,3.393597E-1,1.8151374E-1,0E0,0E0,3.7187722E-1,4.9751347E-1,2.174119E-1,1.5088314E-1,4.773646E-1,1.5834558E-1,3.4179384E-1,1.3105175E-1,8.685815E-2,0E0,6.7451395E-2,0E0,0E0,0E0,0E0,0E0,0E0,0E0,0E0,0E0,0E0,0E0,0E0,0E0],"parents":[2147483647,0,0,1,1,2,2,3,3,4,4,8,8,9,9,10,10,13,13,14,14,15,15,16,16,17,17,18,18,19,19,20,20,21,21,23,23],"right_children":[2,4,6,8,10,-1,-1,-1,12,14,16,-1,-1,18,20,22,24,26,28,30,32,34,-1,36,-1,-1,-1,-1,-1,-1,-1,-1,-1,-1,-1,-1,-1],"split_conditions":[2.4248E2,1.3434999E0,1.6035999E2,1.3861E0,1.7762E2,7.070847E-2,7.3722843E-3,1.0424395E-1,1.4682E0,1.4626999E2,2.0925E2,1.954751E-2,1.8907071E-3,1.49575E2,1.46155E2,1.9883E2,2.5406E2,1.8945999E2,2.1993E2,1.43185E2,2.3842E2,1.72475E2,-1.10658266E-1,2.4120499E2,-7.228318E-2,-5.6667335E-4,1.4641343E-1,-8.9551926E-2,5.378723E-3,4.815674E-3,1.5920106E-1,3.9720684E-3,5.737244E-2,7.517788E-3,-3.373289E-2,4.125922E-3,4.9059678E-2],"split_indices":[22,1,0,0,11,0,0,0,0,16,12,0,0,20,14,12,8,35,52,15,45,15,0,1,0,0,0,0,0,0,0,0,0,0,0,0,0],"split_type":[0,0,0,0,0,0,0,0,0,0,0,0,0,0,0,0,0,0,0,0,0,0,0,0,0,0,0,0,0,0,0,0,0,0,0,0,0],"sum_hessian":[4.41E2,4.37E2,4E0,3E0,4.34E2,3E0,1E0,1E0,2E0,3.94E2,4E1,1E0,1E0,3.6E2,3.4E1,2.3E1,1.7E1,3.53E2,7E0,5E0,2.9E1,2.1E1,2E0,1.6E1,1E0,3.52E2,1E0,5E0,2E0,2E0,3E0,2.5E1,4E0,6E0,1.5E1,1.3E1,3E0],"tree_param":{"num_deleted":"0","num_feature":"60","num_nodes":"37","size_leaf_vector":"0"}},{"base_weights":[3.145449E-3,-5.8949307E-2,8.796583E-3,3.264749E-2,-7.428154E-2,3.9731573E-2,-1.127789E-2,-3.496039E-2,7.519153E-2,2.4226427E-2,-8.530741E-2,2.4876222E-2,6.1287117E-1,-3.4485054E-1,1.3306111E-3,1.6554654E-2,8.921894E-2,-2.0742655E-2,4.613034E-2,-1.2185048E-1,-5.6206066E-2,5.132969E-3,1.9854283E-1,-1.309824E-1,-4.299542E-1,-4.0241495E-1,6.4357E-3,-1.4580132E-1,-7.359942E-2,-3.048695E-2,-9.2266545E-2,2.468136E-2,-1.503532E-1,-4.0529568E-2,3.108966E-1,-3.7908554E-2,-1.4937083E-1,1.6679637E-1,-4.3797516E-3,-4.7718063E-2,1.5904784E-2,-7.399252E-4,1.3381188E-1,6.1139584E-2,-2.0386226E-1,6.884702E-2,-1.1242962E-1,1.0458374E-1,3.7519097E-1,-5.889947E-2,3.2380465E-1,-1.341707E-1,1.12170605E-2],"categories":[],"categories_nodes":[],"categories_segments":[],"categories_sizes":[],"default_left":[1,1,1,1,1,1,1,0,1,1,1,1,0,1,1,0,0,0,0,1,1,1,1,1,0,0,1,0,0,1,0,1,1,1,1,0,0,1,1,0,0,0,0,0,0,0,0,0,0,0,0,0,0],"id":37,"left_children":[1,3,5,7,9,11,13,-1,15,17,19,21,-1,23,25,-1,-1,-1,-1,27,29,31,33,35,-1,-1,37,-1,-1,39,-1,41,43,45,47,-1,-1,49,51,-1,-1,-1,-1,-1,-1,-1,-1,-1,-1,-1,-1,-1,-1],"loss_changes":[1.5561892E-1,5.4387286E-2,2.5257555E-1,1.9886598E-2,3.682305E-2,1.3470244E0,1.039304E0,0E0,1.8131044E-3,4.8968606E-3,2.3991391E-2,5.372937E-1,0E0,1.0749233E-1,4.9520636E-1,0E0,0E0,0E0,0E0,3.1369627E-3,1.38810575E-2,4.3532053E-1,4.423715E-1,1.1834949E-3,0E0,0E0,4.1177696E-1,0E0,0E0,1.0351518E-2,0E0,3.524272E-1,1.9353259E-1,5.492554E-2,1.0667336E-1,0E0,0E0,5.506136E-1,4.5292944E-1,0E0,0E0,0E0,0E0,0E0,0E0,0E0,0E0,0E0,0E0,0E0,0E0,0E0,0E0],"parents":[2147483647,0,0,1,1,2,2,3,3,4,4,5,5,6,6,8,8,9,9,10,10,11,11,13,13,14,14,19,19,20,20,21,21,22,22,23,23,26,26,29,29,31,31,32,32,33,33,34,34,37,37,38,38],"right_children":[2,4,6,8,10,12,14,-1,16,18,20,22,-1,24,26,-1,-1,-1,-1,28,30,32,34,36,-1,-1,38,-1,-1,40,-1,42,44,46,48,-1,-1,50,52,-1,-1,-1,-1,-1,-1,-1,-1,-1,-1,-1,-1,-1,-1],"split_conditions":[1.9586E0,1.51175E0,3.3531E1,2.00705E0,1.3687999E0,7.7132996E1,2.8216E1,-1.0488117E-2,1.6559E0,1.96615E0,1.88775E0,3.0234001E1,1.8386136E-1,3.33275E1,2.6774E1,4.9663964E-3,2.6765682E-2,-6.2227966E-3,1.3839102E-2,2.106E0,2.33725E0,2.69482E1,2.93435E1,2.667255E1,-1.2898627E-1,-1.2072449E-1,3.3457E1,-4.37404E-2,-2.2079827E-2,2.95695E0,-2.7679965E-2,1.41796E1,2.6696E1,2.64305E1,2.66865E1,-1.1372566E-2,-4.4811253E-2,2.757485E1,4.36025E1,-1.431542E-2,4.7714356E-3,-2.2197756E-4,4.0143564E-2,1.8341877E-2,-6.1158683E-2,2.0654108E-2,-3.3728886E-2,3.1375125E-2,1.125573E-1,-1.7669842E-2,9.71414E-2,-4.025121E-2,3.3651183E-3],"split_indices":[46,0,25,8,43,53,12,0,4,0,35,23,0,55,31,0,0,0,0,26,28,20,25,9,0,0,13,0,0,1,0,16,22,25,34,0,0,5,17,0,0,0,0,0,0,0,0,0,0,0,0,0,0],"split_type":[0,0,0,0,0,0,0,0,0,0,0,0,0,0,0,0,0,0,0,0,0,0,0,0,0,0,0,0,0,0,0,0,0,0,0,0,0,0,0,0,0,0,0,0,0,0,0,0,0,0,0,0,0],"sum_hessian":[4.41E2,3.6E1,4.05E2,5E0,3.1E1,1.59E2,2.46E2,2E0,3E0,3E0,2.8E1,1.56E2,3E0,8E0,2.38E2,1E0,2E0,1E0,2E0,1.1E1,1.7E1,1.41E2,1.5E1,3E0,5E0,2E0,2.36E2,6E0,5E0,1.1E1,6E0,1.26E2,1.5E1,5E0,1E1,1E0,2E0,1.4E1,2.22E2,8E0,3E0,1.03E2,2.3E1,3E0,1.2E1,2E0,3E0,3E0,7E0,6E0,8E0,2.3E1,1.99E2],"tree_param":{"num_deleted":"0","num_feature":"60","num_nodes":"53","size_leaf_vector":"0"}},{"base_weights":[2.142591E-3,1.7821598E-1,5.3339696E-4,2.9546833E-1,4.064242E-2,-1.0220006E-2,2.5894223E-2,5.549574E-2,5.4678917E-3,1.2357798E-3,-2.2008133E-1,6.5605927E-1,1.600019E-2,-1.4820038E-3,3.987732E-1,-3.1756896E-1,-4.9373083E-2,3.074646E-1,4.3071564E-3,-5.804129E-3,1.5321922E-1,-1.6571045E-1,-5.0392914E-1,-2.279663E-2,-7.720947E-2,4.2842102E-1,8.401998E-2,3.798294E-1,-1.7356568E-3,-1.0132302E-3,-2.2921054E-1,3.5426712E-1,-3.826294E-2,-4.6066284E-2,-1.7797343E-1,-3.4332275E-3,-2.6779175E-2,-7.934859E-2,3.0549895E-2],"categories":[],"categories_nodes":[],"categories_segments":[],"categories_sizes":[],"default_left":[1,1,1,0,1,1,1,0,0,1,1,0,1,1,0,1,1,1,1,1,1,1,0,1,0,0,0,0,1,0,0,0,0,0,0,0,0,0,0],"id":38,"left_children":[1,3,5,-1,7,9,11,-1,-1,13,15,-1,17,19,-1,21,23,25,27,29,31,33,-1,35,-1,-1,-1,-1,37,-1,-1,-1,-1,-1,-1,-1,-1,-1,-1],"loss_changes":[1.2513955E-1,5.251476E-2,1.1998661E-1,0E0,1.2639309E-3,7.431471E-1,8.062714E-1,0E0,0E0,3.1823468E-1,2.5059164E-1,0E0,4.4172913E-1,1.9680026E-1,0E0,1.9949758E-1,3.4184307E-3,9.913939E-2,2.865798E-1,3.0587858E-1,3.21532E-1,2.071783E-3,0E0,2.9363902E-4,0E0,0E0,0E0,0E0,3.1564617E-1,0E0,0E0,0E0,0E0,0E0,0E0,0E0,0E0,0E0,0E0],"parents":[2147483647,0,0,1,1,2,2,4,4,5,5,6,6,9,9,10,10,12,12,13,13,15,15,16,16,17,17,18,18,19,19,20,20,21,21,23,23,28,28],"right_children":[2,4,6,-1,8,10,12,-1,-1,14,16,-1,18,20,-1,22,24,26,28,30,32,34,-1,36,-1,-1,-1,-1,38,-1,-1,-1,-1,-1,-1,-1,-1,-1,-1],"split_conditions":[1.3434999E0,1.3861E0,1.0088E2,8.86405E-2,1.4682E0,9.5255005E1,2.39915E1,1.6648723E-2,1.6403676E-3,9.478E1,1.00945E2,1.9681779E-1,1.00350006E2,1.1149E2,1.1963196E-1,9.8104996E1,1.90195E2,9.0990005E1,2.39915E1,1.05195E2,1.9408499E2,3.5003998E1,-1.5117875E-1,1.3233E2,-2.3162842E-2,1.2852632E-1,2.5205996E-2,1.1394883E-1,8.884E1,-3.0396908E-4,-6.876317E-2,1.0628014E-1,-1.1478882E-2,-1.3819885E-2,-5.3392034E-2,-1.0299683E-3,-8.033752E-3,-2.3804577E-2,9.1649685E-3],"split_indices":[1,0,57,0,0,59,15,0,0,59,21,0,58,37,0,15,5,0,0,40,6,0,0,0,0,0,0,0,18,0,0,0,0,0,0,0,0,0,0],"split_type":[0,0,0,0,0,0,0,0,0,0,0,0,0,0,0,0,0,0,0,0,0,0,0,0,0,0,0,0,0,0,0,0,0,0,0,0,0,0,0],"sum_hessian":[4.41E2,3E0,4.38E2,1E0,2E0,3.08E2,1.3E2,1E0,1E0,2.93E2,1.5E1,1E0,1.29E2,2.92E2,1E0,9E0,6E0,4E0,1.25E2,2.85E2,7E0,6E0,3E0,4E0,2E0,2E0,2E0,1E0,1.24E2,2.8E2,5E0,3E0,4E0,1E0,5E0,1E0,3E0,3.6E1,8.8E1],"tree_param":{"num_deleted":"0","num_feature":"60","num_nodes":"39","size_leaf_vector":"0"}},{"base_weights":[2.5207745E-3,1.258755E-2,-2.5550077E-2,-2.0314204E-3,1.4696282E-1,-3.3481374E-1,-8.754253E-3,3.7343407E-3,-2.3978479E-1,1.9251102E-1,-8.249792E-2,-4.3442965E-1,-9.038798E-2,3.4349918E-1,-2.1600671E-2,7.955262E-4,4.2505646E-1,-3.7007827E-1,5.7299297E-2,3.5528582E-1,9.138552E-2,-1.6754659E-1,1.9130707E-3,-1.8438695E-1,4.329802E-3,-3.6810183E-3,2.1180661E-1,8.886719E-2,-2.9182434E-3,1.4681816E-2,4.9916157E-1,-7.215292E-2,3.048277E-1,-3.6949158E-2,5.9249878E-2,-4.3587208E-2,-3.0213833E-1,3.291677E-1,-6.1953967E-3,2.7538564E-3,-2.5779232E-1,2.077198E-2,3.9591727E-1,-1.5052986E-1,1.1992899E-1,-1.6044159E-1,1.2179783E-3,4.1452312E-1,1.561058E-1,-9.262657E-2,6.902059E-2,-3.2062313E-1,-8.6372375E-2,1.2165165E-1,-1.8016106E-2],"categories":[],"categories_nodes":[],"categories_segments":[],"categories_sizes":[],"default_left":[1,1,1,1,1,1,1,1,1,1,1,0,0,0,1,1,0,0,1,1,1,0,1,1,1,1,1,0,0,1,0,1,1,0,0,1,1,0,1,0,0,0,0,0,0,0,0,0,0,0,0,0,0,0,0],"id":39,"left_children":[1,3,5,7,9,11,13,15,17,19,21,-1,-1,-1,23,25,-1,-1,27,29,31,-1,33,35,37,39,41,-1,-1,43,-1,45,47,-1,-1,49,51,-1,53,-1,-1,-1,-1,-1,-1,-1,-1,-1,-1,-1,-1,-1,-1,-1,-1],"loss_changes":[1.2522328E-1,6.407021E-1,6.0480654E-1,4.0529004E-1,3.5033047E-1,1.06824934E-1,5.142416E-1,3.5749805E-1,2.9216206E-1,4.119705E-1,4.3394785E-2,0E0,0E0,0E0,4.6090102E-1,2.728246E-1,0E0,0E0,5.9621576E-3,4.82718E-1,6.5030223E-1,0E0,1.1102177E-2,2.3552108E-1,3.268427E-1,4.6346432E-1,2.0280507E-1,0E0,0E0,8.760515E-2,0E0,7.145142E-2,6.580341E-2,0E0,0E0,5.0570853E-2,4.214108E-3,0E0,1.4273725E-1,0E0,0E0,0E0,0E0,0E0,0E0,0E0,0E0,0E0,0E0,0E0,0E0,0E0,0E0,0E0,0E0],"parents":[2147483647,0,0,1,1,2,2,3,3,4,4,5,5,6,6,7,7,8,8,9,9,10,10,14,14,15,15,18,18,19,19,20,20,22,22,23,23,24,24,25,25,26,26,29,29,31,31,32,32,35,35,36,36,38,38],"right_children":[2,4,6,8,10,12,14,16,18,20,22,-1,-1,-1,24,26,-1,-1,28,30,32,-1,34,36,38,40,42,-1,-1,44,-1,46,48,-1,-1,50,52,-1,54,-1,-1,-1,-1,-1,-1,-1,-1,-1,-1,-1,-1,-1,-1,-1,-1],"split_conditions":[1.02195E2,9.2025E1,8.6005E1,9.274E1,1.0195E2,1.09395004E2,5.1665E1,1.8945999E2,1.0535E2,8.694E1,8.467E1,-1.303289E-1,-2.7116394E-2,1.0304976E-1,8.957E1,9.9585E1,1.2751694E-1,-1.11023486E-1,8.51465E1,5.1665E1,9.004E1,-5.026398E-2,9.952E1,5.2455E1,8.4295E1,9.1369995E1,9.0649994E1,2.6660157E-2,-8.754731E-4,9.989E1,1.4974847E-1,9.8925E1,9.893E1,-1.10847475E-2,1.7774964E-2,1.33505E2,1.8017E2,9.8750316E-2,1.35995E2,8.2615693E-4,-7.73377E-2,6.2315944E-3,1.1877518E-1,-4.515896E-2,3.59787E-2,-4.813248E-2,3.653935E-4,1.2435694E-1,4.6831742E-2,-2.7787972E-2,2.0706179E-2,-9.618694E-2,-2.5911713E-2,3.6495496E-2,-5.404832E-3],"split_indices":[5,3,22,5,43,5,43,35,7,14,8,0,0,0,51,10,0,0,0,20,33,0,3,50,53,9,7,0,0,1,0,9,6,0,0,9,0,0,6,0,0,0,0,0,0,0,0,0,0,0,0,0,0,0,0],"split_type":[0,0,0,0,0,0,0,0,0,0,0,0,0,0,0,0,0,0,0,0,0,0,0,0,0,0,0,0,0,0,0,0,0,0,0,0,0,0,0,0,0,0,0,0,0,0,0,0,0,0,0,0,0,0,0],"sum_hessian":[4.41E2,3.25E2,1.16E2,2.94E2,3.1E1,5E0,1.11E2,2.88E2,6E0,2.6E1,5E0,3E0,2E0,3E0,1.08E2,2.87E2,1E0,4E0,2E0,9E0,1.7E1,2E0,3E0,1.4E1,9.4E1,2.82E2,5E0,1E0,1E0,3E0,6E0,1E1,7E0,2E0,1E0,7E0,7E0,2E0,9.2E1,2.76E2,6E0,3E0,2E0,1E0,2E0,4E0,6E0,3E0,4E0,5E0,2E0,6E0,1E0,7E0,8.5E1],"tree_param":{"num_deleted":"0","num_feature":"60","num_nodes":"55","size_leaf_vector":"0"}},{"base_weights":[2.346388E-3,1.2573664E-3,2.4130249E-1,7.598984E-3,-3.3042356E-2,9.029365E-5,1.0381812E-1,8.800398E-2,-4.5967467E-2,-1.9978709E-3,3.612976E-1,2.4622154E-1,1.893743E-2,-1.4816284E-2,1.0761007E-1,-7.420959E-2,2.3341129E-2,8.329373E-3,-8.846943E-2,3.6577925E-1,5.3507995E-2,-1.8622844E-1,5.622244E-2,2.402427E-2,-1.0296282E-1,4.0787593E-2,-1.453476E-1,2.0338043E-3,2.80547E-1,-2.40642E-1,-5.1254027E-2,7.808876E-2,4.0769958E-1,1.389122E-2,1.0598755E-1,1.3890584E-1,-4.3824196E-2,-1.4499664E-1,5.5426024E-2,-1.2738092E-1,-4.629135E-3,8.421665E-2,-2.3773194E-3],"categories":[],"categories_nodes":[],"categories_segments":[],"categories_sizes":[],"default_left":[1,1,0,1,1,1,1,1,1,1,0,1,1,0,0,1,1,1,1,1,1,0,1,1,1,1,0,0,0,0,0,0,0,0,0,0,0,0,0,0,0,0,0],"id":40,"left_children":[1,3,-1,5,7,9,11,13,15,17,-1,19,21,-1,-1,23,25,27,29,31,33,-1,35,37,39,41,-1,-1,-1,-1,-1,-1,-1,-1,-1,-1,-1,-1,-1,-1,-1,-1,-1],"loss_changes":[1.1471754E-1,9.6175514E-2,0E0,2.6947552E-1,1.1199839E-1,2.6245016E-1,3.2169428E-1,1.5705712E-2,1.2504974E-1,3.0971932E-1,0E0,2.1083182E-1,1.4816321E-1,0E0,0E0,1.2957793E-1,6.184579E-2,5.306965E-1,1.9720319E-1,4.0523708E-2,8.923057E-3,0E0,1.3844258E-1,6.6419676E-2,8.344957E-2,3.3943214E-2,0E0,0E0,0E0,0E0,0E0,0E0,0E0,0E0,0E0,0E0,0E0,0E0,0E0,0E0,0E0,0E0,0E0],"parents":[2147483647,0,0,1,1,3,3,4,4,5,5,6,6,7,7,8,8,9,9,11,11,12,12,15,15,16,16,17,17,18,18,19,19,20,20,22,22,23,23,24,24,25,25],"right_children":[2,4,-1,6,8,10,12,14,16,18,-1,20,22,-1,-1,24,26,28,30,32,34,-1,36,38,40,42,-1,-1,-1,-1,-1,-1,-1,-1,-1,-1,-1,-1,-1,-1,-1,-1,-1],"split_conditions":[2.5335E2,1.5645E2,7.239075E-2,1.3336E2,9.5335E1,1.8945999E2,1.47595E2,1.626E2,2.03195E2,9.9455E1,1.0838929E-1,1.7031E2,9.5225006E1,-4.4448855E-3,3.2283023E-2,1.4348001E2,2.5406E2,9.8630005E1,8.8785E1,1.08E2,1.8531E2,-5.5868533E-2,1.592E2,9.5225006E1,2.18285E2,1.75125E2,-4.360428E-2,6.101413E-4,8.41641E-2,-7.21926E-2,-1.5376208E-2,2.342663E-2,1.2230988E-1,4.1673663E-3,3.1796265E-2,4.1671753E-2,-1.3147259E-2,-4.3498993E-2,1.6627807E-2,-3.8214277E-2,-1.3887406E-3,2.5264995E-2,-7.131958E-4],"split_indices":[21,10,0,18,53,35,20,9,20,35,0,1,10,0,0,24,23,37,51,14,1,0,0,1,2,59,0,0,0,0,0,0,0,0,0,0,0,0,0,0,0,0,0],"split_type":[0,0,0,0,0,0,0,0,0,0,0,0,0,0,0,0,0,0,0,0,0,0,0,0,0,0,0,0,0,0,0,0,0,0,0,0,0,0,0,0,0,0,0],"sum_hessian":[4.41E2,4.4E2,1E0,3.72E2,6.8E1,3.46E2,2.6E1,6E0,6.2E1,3.45E2,1E0,9E0,1.7E1,1E0,5E0,4.4E1,1.8E1,3.09E2,3.6E1,5E0,4E0,2E0,1.5E1,1E1,3.4E1,1.7E1,1E0,3.03E2,6E0,6E0,3E1,1E0,4E0,3E0,1E0,8E0,7E0,1E0,9E0,2.7E1,7E0,8E0,9E0],"tree_param":{"num_deleted":"0","num_feature":"60","num_nodes":"43","size_leaf_vector":"0"}},{"base_weights":[2.263713E-3,1.2568684E-1,5.639361E-4,-6.566874E-2,2.3778182E-1,-5.031908E-2,5.1192213E-3,-2.7041435E-3,-9.579897E-2,-1.8466106E-2,-6.752006E-2,2.4944764E-2,-7.9557E-3,1.2770466E-2,-4.3489844E-2,-7.523392E-2,8.983691E-3,1.3084344E-2,4.8423004E-1,-2.5514412E-1,1.5449442E-3,3.5512995E-2,-2.9390574E-2,-5.2410807E-2,9.47845E-3,-2.2065068E-2,-8.64463E-2,4.7040065E-3,1.9199099E-1,-6.982803E-2,-2.9811615E-1,-1.767807E-1,9.428623E-3,-5.9366323E-2,-2.3348013E-2,2.5891662E-3,-2.8875917E-2,-4.2649627E-2,-9.664146E-2,1.7255366E-2,-1.4212053E-1,4.6473503E-2,2.8951073E-1,-4.9255848E-2,-4.5792007E-1,3.0892563E-1,5.375411E-3],"categories":[],"categories_nodes":[],"categories_segments":[],"categories_sizes":[],"default_left":[1,1,1,1,0,1,1,0,0,1,1,1,1,1,1,1,0,1,0,1,1,0,0,1,0,1,1,1,1,0,0,1,1,0,0,0,0,0,0,0,0,0,0,0,0,0,0],"id":41,"left_children":[1,3,5,7,-1,9,11,-1,-1,13,15,17,19,21,23,25,-1,27,-1,29,31,-1,-1,33,-1,35,37,39,41,-1,-1,43,45,-1,-1,-1,-1,-1,-1,-1,-1,-1,-1,-1,-1,-1,-1],"loss_changes":[9.265709E-2,1.4431483E-1,1.0154835E-1,5.43236E-3,0E0,1.8477656E-2,1.0440385E-1,0E0,0E0,1.1498565E-2,1.4249094E-2,8.6523473E-1,5.710674E-1,7.7556884E-3,4.2769983E-3,1.0611698E-2,0E0,2.3448665E-1,0E0,5.085379E-2,3.320444E-1,0E0,0E0,2.894178E-5,0E0,9.1434596E-4,3.4690052E-3,2.807223E-1,8.588123E-2,0E0,0E0,3.3596733E-1,2.7268648E-1,0E0,0E0,0E0,0E0,0E0,0E0,0E0,0E0,0E0,0E0,0E0,0E0,0E0,0E0],"parents":[2147483647,0,0,1,1,2,2,3,3,5,5,6,6,9,9,10,10,11,11,12,12,13,13,14,14,15,15,17,17,19,19,20,20,23,23,25,25,26,26,27,27,28,28,31,31,32,32],"right_children":[2,4,6,8,-1,10,12,-1,-1,14,16,18,20,22,24,26,-1,28,-1,30,32,-1,-1,34,-1,36,38,40,42,-1,-1,44,46,-1,-1,-1,-1,-1,-1,-1,-1,-1,-1,-1,-1,-1,-1],"split_conditions":[1.40625E0,1.31475E0,1.9586E0,1.25085E0,7.133455E-2,1.6013E0,3.414E1,-8.112431E-4,-2.8739693E-2,2.21095E0,3.4363E0,3.6127E1,2.8216E1,2.2723498E0,3.0727E0,1.8463E0,2.6951074E-3,4.3512497E1,1.4526902E-1,2.739505E1,3.0989E1,1.0653899E-2,-8.817173E-3,2.1534E0,2.843535E-3,1.9219999E0,1.4428E0,3.62165E1,4.5762E1,-2.094841E-2,-8.943485E-2,4.2635002E1,2.90625E1,-1.7809898E-2,-7.004404E-3,7.7674986E-4,-8.662775E-3,-1.2794889E-2,-2.8992439E-2,5.17661E-3,-4.263616E-2,1.3942052E-2,8.685322E-2,-1.4776755E-2,-1.3737603E-1,9.267769E-2,1.6126233E-3],"split_indices":[0,0,46,0,0,42,25,0,0,9,1,26,12,23,0,14,0,38,0,9,33,0,0,55,0,1,51,34,43,0,0,4,49,0,0,0,0,0,0,0,0,0,0,0,0,0,0],"split_type":[0,0,0,0,0,0,0,0,0,0,0,0,0,0,0,0,0,0,0,0,0,0,0,0,0,0,0,0,0,0,0,0,0,0,0,0,0,0,0,0,0,0,0,0,0,0,0],"sum_hessian":[4.41E2,5E0,4.36E2,2E0,3E0,3.5E1,4.01E2,1E0,1E0,1.3E1,2.2E1,1.59E2,2.42E2,6E0,7E0,2E1,2E0,1.56E2,3E0,8E0,2.34E2,4E0,2E0,6E0,1E0,4E0,1.6E1,1.5E2,6E0,2E0,6E0,9E0,2.25E2,4E0,2E0,1E0,3E0,4E0,1.2E1,1.39E2,1.1E1,3E0,3E0,7E0,2E0,2E0,2.23E2],"tree_param":{"num_deleted":"0","num_feature":"60","num_nodes":"47","size_leaf_vector":"0"}},{"base_weights":[1.6179093E-3,5.0211395E-3,-5.5348817E-2,3.6772704E-3,1.8969727E-1,-3.3524323E-1,-1.6434379E-2,-1.7622013E-2,1.3638986E-2,2.7079264E-2,-8.7131076E-2,-5.5827303E-3,-1.8287627E-1,6.4888954E-1,9.101389E-3,-9.4012454E-2,7.96592E-2,-9.616089E-3,-1.4721985E-1,-1.3450565E-2,1.8593541E-1,2.9936155E-2,-2.4795641E-1,2.1997997E-1,3.7394706E-3,1.1475277E-1,-1.0442734E-2,9.246826E-3,-1.6643524E-2,7.31976E-4,-9.464688E-2,2.72537E-1,-8.023548E-2,-1.06389366E-1,-2.8330535E-1,1.177742E-1,3.1699625E-1,-5.7522565E-2,1.5870135E-2,5.470276E-3,1.2958309E-1,7.878621E-3,-3.27034E-2],"categories":[],"categories_nodes":[],"categories_segments":[],"categories_sizes":[],"default_left":[1,1,1,1,0,0,1,1,1,1,1,1,1,0,1,0,1,1,0,1,1,0,1,1,1,1,1,0,0,0,0,0,0,0,0,0,0,0,0,0,0,0,0],"id":42,"left_children":[1,3,5,7,-1,-1,9,11,13,15,17,19,21,-1,23,-1,25,27,-1,29,31,-1,33,35,37,39,41,-1,-1,-1,-1,-1,-1,-1,-1,-1,-1,-1,-1,-1,-1,-1,-1],"loss_changes":[8.596884E-2,1.03041895E-1,2.6678884E-1,8.850615E-2,0E0,0E0,7.311368E-2,2.6358822E-1,8.1272745E-1,1.02993876E-1,4.0504344E-2,1.9085504E-1,1.3207164E-1,0E0,3.1916937E-1,0E0,3.5980314E-2,8.166893E-4,0E0,1.3940924E-1,1.3712125E-1,0E0,4.889041E-3,3.2075405E-2,2.0676523E-1,1.2256697E-2,1.8890399E-3,0E0,0E0,0E0,0E0,0E0,0E0,0E0,0E0,0E0,0E0,0E0,0E0,0E0,0E0,0E0,0E0],"parents":[2147483647,0,0,1,1,2,2,3,3,6,6,7,7,8,8,9,9,10,10,11,11,12,12,14,14,16,16,17,17,19,19,20,20,22,22,23,23,24,24,25,25,26,26],"right_children":[2,4,6,8,-1,-1,10,12,14,16,18,20,22,-1,24,-1,26,28,-1,30,32,-1,34,36,38,40,42,-1,-1,-1,-1,-1,-1,-1,-1,-1,-1,-1,-1,-1,-1,-1,-1],"split_conditions":[1.9712E2,2.3735E2,1.58235E2,1.4009E1,5.690918E-2,-1.0057297E-1,2.2039499E2,1.4592751E1,1.301475E1,1.76835E2,2.0679999E2,1.56277E1,1.404985E1,1.9466688E-1,2.42644E1,-2.8203737E-2,1.9339499E2,1.9908E2,-4.4165958E-2,1.314015E1,8.7837E0,8.980847E-3,1.4817699E1,1.619675E1,3.4135002E1,1.9572E2,2.165E2,2.774048E-3,-4.9930573E-3,2.1959281E-4,-2.8394064E-2,8.17611E-2,-2.4070645E-2,-3.1916812E-2,-8.4991604E-2,3.5332263E-2,9.5098875E-2,-1.725677E-2,4.7610407E-3,1.6410828E-3,3.8874928E-2,2.3635863E-3,-9.81102E-3],"split_indices":[3,18,25,21,0,0,17,41,29,32,4,45,46,0,49,0,35,1,0,51,3,0,41,22,55,5,0,0,0,0,0,0,0,0,0,0,0,0,0,0,0,0,0],"split_type":[0,0,0,0,0,0,0,0,0,0,0,0,0,0,0,0,0,0,0,0,0,0,0,0,0,0,0,0,0,0,0,0,0,0,0,0,0,0,0,0,0,0,0],"sum_hessian":[4.41E2,4.17E2,2.4E1,4.15E2,2E0,2E0,2.2E1,1.32E2,2.83E2,1.4E1,8E0,1.24E2,8E0,1E0,2.82E2,4E0,1E1,4E0,4E0,1.2E2,4E0,2E0,6E0,6E0,2.76E2,7E0,3E0,1E0,3E0,1.03E2,1.7E1,3E0,1E0,2E0,4E0,4E0,2E0,4.5E1,2.31E2,1E0,6E0,2E0,1E0],"tree_param":{"num_deleted":"0","num_feature":"60","num_nodes":"43","size_leaf_vector":"0"}},{"base_weights":[1.4697338E-3,9.079964E-3,-1.97474E-2,7.0896576E-4,1.2471971E-1,-2.7275944E-1,-6.0168677E-3,-3.2330374E-3,1.9769096E-1,2.6657468E-1,-1.5707335E-2,-3.4192038E-1,-8.962504E-2,2.6097298E-1,-1.5759459E-2,1.8895933E-3,-2.1792166E-1,2.7917734E-1,8.7153435E-2,3.1317413E-1,3.791809E-2,-2.1327114E-1,7.384406E-2,-1.3578796E-1,4.8385784E-3,-2.8106905E-4,3.1894684E-1,-3.2129002E-1,-6.00729E-2,1.0109838E-1,2.2659302E-2,1.4123459E-1,4.2247885E-1,-1.3092041E-2,6.996918E-2,-2.4734497E-2,1.2725575E-1,-3.7508965E-2,-2.0805952E-1,1.6560957E-1,-1.2042556E-2,-2.3636546E-3,3.0391693E-1,-7.6117195E-2,-5.970001E-3,4.6504498E-1,1.2610722E-1,4.6871185E-2,-6.4226784E-2,1.4177246E-1,2.733612E-2,5.6924183E-2,-7.8474045E-2,-4.351425E-2,-2.231884E-1,1.1388779E-2,2.4082184E-1,-1.6321698E-2,1.7584229E-1],"categories":[],"categories_nodes":[],"categories_segments":[],"categories_sizes":[],"default_left":[1,1,1,1,1,1,1,1,1,1,1,0,0,0,1,1,1,0,1,1,1,0,1,1,1,1,0,0,1,0,0,0,1,0,0,1,1,1,1,1,1,0,0,0,0,0,0,0,0,0,0,0,0,0,0,0,0,0,0],"id":43,"left_children":[1,3,5,7,9,11,13,15,17,19,21,-1,-1,-1,23,25,27,-1,29,31,33,-1,35,37,39,41,-1,-1,43,-1,-1,-1,45,-1,-1,47,49,51,53,55,57,-1,-1,-1,-1,-1,-1,-1,-1,-1,-1,-1,-1,-1,-1,-1,-1,-1,-1],"loss_changes":[7.1547836E-2,3.154861E-1,4.0481567E-1,2.3747276E-1,4.4243318E-1,4.5349836E-2,2.954442E-1,3.3034295E-1,2.9712558E-2,1.0533309E-1,2.280542E-1,0E0,0E0,0E0,2.7014336E-1,2.0242757E-1,9.491515E-2,0E0,1.3066512E-3,1.0947561E-1,5.8208294E-3,0E0,5.053484E-2,1.05840325E-1,2.5711006E-1,1.8633923E-1,0E0,0E0,3.0177524E-3,0E0,0E0,0E0,4.431367E-3,0E0,0E0,1.4321874E-2,4.8275143E-3,3.5414763E-2,1.26926005E-2,1.0165098E-1,7.201284E-2,0E0,0E0,0E0,0E0,0E0,0E0,0E0,0E0,0E0,0E0,0E0,0E0,0E0,0E0,0E0,0E0,0E0,0E0],"parents":[2147483647,0,0,1,1,2,2,3,3,4,4,5,5,6,6,7,7,8,8,9,9,10,10,14,14,15,15,16,16,18,18,19,19,20,20,22,22,23,23,24,24,25,25,28,28,32,32,35,35,36,36,37,37,38,38,39,39,40,40],"right_children":[2,4,6,8,10,12,14,16,18,20,22,-1,-1,-1,24,26,28,-1,30,32,34,-1,36,38,40,42,-1,-1,44,-1,-1,-1,46,-1,-1,48,50,52,54,56,58,-1,-1,-1,-1,-1,-1,-1,-1,-1,-1,-1,-1,-1,-1,-1,-1,-1,-1],"split_conditions":[1.02195E2,9.633E1,9.0565E1,1.07655E2,9.274E1,1.1005E2,5.1665E1,9.274E1,9.378E1,9.697E1,8.5244995E1,-1.02576114E-1,-2.6887512E-2,7.829189E-2,8.8195E1,1.8945999E2,9.631E1,8.3753206E-2,9.037E1,9.1225E1,1.08805E2,-6.398135E-2,9.9725E1,5.2455E1,9.1729996E1,1.8945999E2,9.568406E-2,-9.638701E-2,9.2235E1,3.0329516E-2,6.797791E-3,4.237038E-2,1.00770004E2,-3.9276127E-3,2.0990754E-2,1.04455E2,1.0197E2,1.0059E2,9.562E1,9.0994995E1,2.5335E2,-7.090964E-4,9.117508E-2,-2.283516E-2,-1.7910005E-3,1.395135E-1,3.7832167E-2,1.4061356E-2,-1.9268036E-2,4.253174E-2,8.200836E-3,1.7077256E-2,-2.3542214E-2,-1.3054276E-2,-6.695652E-2,3.4166337E-3,7.224655E-2,-4.8965095E-3,5.275269E-2],"split_indices":[5,3,17,9,17,5,43,5,5,10,21,0,0,0,49,50,6,0,0,9,0,0,5,50,50,35,0,0,0,0,0,0,6,0,0,0,5,19,0,51,21,0,0,0,0,0,0,0,0,0,0,0,0,0,0,0,0,0,0],"split_type":[0,0,0,0,0,0,0,0,0,0,0,0,0,0,0,0,0,0,0,0,0,0,0,0,0,0,0,0,0,0,0,0,0,0,0,0,0,0,0,0,0,0,0,0,0,0,0,0,0,0,0,0,0,0,0,0,0,0,0],"sum_hessian":[4.41E2,3.25E2,1.16E2,3.04E2,2.1E1,5E0,1.11E2,2.99E2,5E0,1E1,1.1E1,3E0,2E0,3E0,1.08E2,2.93E2,6E0,2E0,3E0,8E0,2E0,3E0,8E0,1.5E1,9.3E1,2.92E2,1E0,3E0,3E0,2E0,1E0,4E0,4E0,1E0,1E0,3E0,5E0,7E0,8E0,8E0,8.5E1,2.91E2,1E0,2E0,1E0,3E0,1E0,1E0,2E0,4E0,1E0,2E0,5E0,1E0,7E0,3E0,5E0,8.4E1,1E0],"tree_param":{"num_deleted":"0","num_feature":"60","num_nodes":"59","size_leaf_vector":"0"}},{"base_weights":[1.9114284E-3,1.3035226E-1,7.367707E-4,2.1500778E-1,3.046449E-2,1.6928917E-3,-1.3878377E-1,4.41103E-2,1.5864372E-3,-1.7924095E-2,9.090205E-3,-4.8086587E-3,-1.6171303E-1,5.519104E-1,5.636796E-3,-9.617174E-3,2.6206398E-1,-3.530979E-2,-2.4009688E-1,1.6084357E-1,5.793138E-4,-1.3217682E-2,1.9141912E-1,-1.3080645E-1,2.1265984E-2,2.0447826E-1,7.631321E-2,-7.886263E-2,7.87582E-3],"categories":[],"categories_nodes":[],"categories_segments":[],"categories_sizes":[],"default_left":[1,1,1,0,1,1,0,0,0,1,1,1,1,0,1,1,0,1,0,1,1,0,0,0,0,0,0,0,0],"id":44,"left_children":[1,3,5,-1,7,9,-1,-1,-1,11,13,15,17,-1,19,21,-1,23,-1,25,27,-1,-1,-1,-1,-1,-1,-1,-1],"loss_changes":[6.659027E-2,2.7274095E-2,5.8796894E-2,0E0,1.112215E-3,6.357731E-2,0E0,0E0,0E0,2.255249E-1,5.930054E-1,1.4496228E-1,9.060195E-2,0E0,2.4873768E-1,8.215174E-2,0E0,2.9795716E-2,0E0,2.12802E-2,1.7915288E-1,0E0,0E0,0E0,0E0,0E0,0E0,0E0,0E0],"parents":[2147483647,0,0,1,1,2,2,4,4,5,5,9,9,10,10,11,11,12,12,14,14,15,15,17,17,19,19,20,20],"right_children":[2,4,6,-1,8,10,-1,-1,-1,12,14,16,18,-1,20,22,-1,24,-1,26,28,-1,-1,-1,-1,-1,-1,-1,-1],"split_conditions":[1.3434999E0,1.3861E0,2.4522E2,6.4502336E-2,1.4682E0,1.33235E1,-4.1635133E-2,1.323309E-2,4.7593119E-4,1.4510099E1,1.301475E1,1.510495E1,1.308515E1,1.6557312E-1,1.37283E1,1.619675E1,7.86192E-2,3.3151999E0,-7.202907E-2,1.431195E1,2.4795399E1,-3.9653047E-3,5.742574E-2,-3.9241936E-2,6.3797953E-3,6.134348E-2,2.2893965E-2,-2.365879E-2,2.362746E-3],"split_indices":[1,0,40,0,0,28,0,0,0,57,29,44,47,0,26,47,0,12,0,28,20,0,0,0,0,0,0,0,0],"split_type":[0,0,0,0,0,0,0,0,0,0,0,0,0,0,0,0,0,0,0,0,0,0,0,0,0,0,0,0,0],"sum_hessian":[4.41E2,3E0,4.38E2,1E0,2E0,4.36E2,2E0,1E0,1E0,1.19E2,3.17E2,1.1E2,9E0,1E0,3.16E2,1.09E2,1E0,4E0,5E0,9E0,3.07E2,1.08E2,1E0,1E0,3E0,5E0,4E0,2.5E1,2.82E2],"tree_param":{"num_deleted":"0","num_feature":"60","num_nodes":"29","size_leaf_vector":"0"}},{"base_weights":[1.9985742E-3,1.553018E-2,-9.771508E-3,8.536495E-3,3.6657715E-1,-2.566204E-1,-2.2489375E-3,-3.728886E-3,9.601517E-2,4.3392435E-1,8.226776E-2,-3.554492E-1,-9.363651E-2,-1.8915558E-1,4.4363397E-3,7.97121E-3,-8.758736E-2,-1.0691643E-2,1.8061993E-1,-2.4715424E-2,-1.08371735E-1,-5.395174E-2,-2.5948754E-1,1.5162349E-1,-6.8528024E-3,-4.030734E-3,2.0711793E-1,-1.4614551E-1,1.4073944E-1,7.360925E-2,-1.9769573E-1,-9.222031E-3,1.9593254E-1,-8.715884E-2,2.2834778E-2,2.403431E-1,3.2860994E-2,-1.9591884E-1,2.6347637E-3,3.079477E-3,-1.3062191E-1,4.3954754E-1,1.76452E-2,-1.7168498E-1,3.8780212E-2,1.8680763E-1,-2.1766663E-2,2.5255457E-1,-1.35972155E-2,2.1969968E-1,4.3475468E-2,5.9307735E-2,2.8359494E-1,-5.9407424E-2,1.3998127E-1,-4.5153618E-2,-2.54082E-1,1.4325733E-1,-4.741469E-3],"categories":[],"categories_nodes":[],"categories_segments":[],"categories_sizes":[],"default_left":[1,1,1,1,1,1,1,1,1,0,0,0,1,1,1,1,1,1,1,0,0,1,0,1,1,1,1,1,1,1,0,0,1,0,0,1,1,1,1,0,0,0,0,0,0,0,0,0,0,0,0,0,0,0,0,0,0,0,0],"id":45,"left_children":[1,3,5,7,9,11,13,15,17,-1,-1,-1,19,21,23,25,27,29,31,-1,-1,33,-1,35,37,39,41,43,45,47,-1,-1,49,-1,-1,51,53,55,57,-1,-1,-1,-1,-1,-1,-1,-1,-1,-1,-1,-1,-1,-1,-1,-1,-1,-1,-1,-1],"loss_changes":[7.054826E-2,5.026238E-1,4.3951726E-1,2.1816877E-1,4.0891826E-2,7.946947E-2,2.894789E-1,1.7632441E-1,2.2762871E-1,0E0,0E0,0E0,1.3838187E-3,6.207341E-2,3.732412E-1,3.784782E-1,3.147171E-1,2.0372757E-1,4.250458E-2,0E0,0E0,1.21896835E-2,0E0,1.6068703E-1,3.754155E-1,1.3541573E-1,3.8859573E-1,9.1670275E-2,4.1497998E-2,1.4388075E-1,0E0,0E0,3.755355E-2,0E0,0E0,5.365169E-2,8.738647E-2,7.6217115E-2,2.081322E-1,0E0,0E0,0E0,0E0,0E0,0E0,0E0,0E0,0E0,0E0,0E0,0E0,0E0,0E0,0E0,0E0,0E0,0E0,0E0,0E0],"parents":[2147483647,0,0,1,1,2,2,3,3,4,4,5,5,6,6,7,7,8,8,12,12,13,13,14,14,15,15,16,16,17,17,18,18,21,21,23,23,24,24,25,25,26,26,27,27,28,28,29,29,32,32,35,35,36,36,37,37,38,38],"right_children":[2,4,6,8,10,12,14,16,18,-1,-1,-1,20,22,24,26,28,30,32,-1,-1,34,-1,36,38,40,42,44,46,48,-1,-1,50,-1,-1,52,54,56,58,-1,-1,-1,-1,-1,-1,-1,-1,-1,-1,-1,-1,-1,-1,-1,-1,-1,-1,-1,-1],"split_conditions":[3.67085E1,7.7132996E1,3.1039501E1,3.03715E1,3.30715E1,3.0404999E1,2.87885E1,4.3490997E1,3.3219E1,1.301773E-1,2.468033E-2,-1.06634766E-1,3.44302E1,3.02505E1,4.36025E1,3.6944E1,4.7151E1,3.35685E1,2.39915E1,-7.4146274E-3,-3.251152E-2,2.578405E1,-7.784627E-2,4.2378998E1,4.4809998E1,3.04665E1,1.3876249E1,3.4868E1,3.4389E1,3.5833E1,-5.9308723E-2,-2.7666092E-3,4.3225502E1,-2.6147652E-2,6.8504335E-3,3.12315E1,3.30895E1,4.1719498E1,4.048E1,9.238431E-4,-3.9186575E-2,1.3186426E-1,5.29356E-3,-5.1505495E-2,1.1634064E-2,5.604229E-2,-6.529999E-3,7.576637E-2,-4.079165E-3,6.590991E-2,1.3042641E-2,1.7792322E-2,8.5078485E-2,-1.7822228E-2,4.199438E-2,-1.3546086E-2,-7.62246E-2,4.2977203E-2,-1.4224407E-3],"split_indices":[25,53,36,23,0,33,16,59,54,0,0,0,0,2,30,57,43,57,35,0,0,0,0,1,29,57,3,6,0,18,0,0,53,0,0,49,47,38,46,0,0,0,0,0,0,0,0,0,0,0,0,0,0,0,0,0,0,0,0],"split_type":[0,0,0,0,0,0,0,0,0,0,0,0,0,0,0,0,0,0,0,0,0,0,0,0,0,0,0,0,0,0,0,0,0,0,0,0,0,0,0,0,0,0,0,0,0,0,0,0,0,0,0,0,0,0,0,0,0,0,0],"sum_hessian":[4.41E2,2.05E2,2.36E2,2.02E2,3E0,6E0,2.3E2,1.78E2,2.4E1,2E0,1E0,3E0,3E0,7E0,2.23E2,1.57E2,2.1E1,1.1E1,1.3E1,1E0,2E0,3E0,4E0,1.5E1,2.08E2,1.49E2,8E0,1.7E1,4E0,8E0,3E0,1E0,1.2E1,2E0,1E0,8E0,7E0,9E0,1.99E2,1.42E2,7E0,3E0,5E0,1.5E1,2E0,3E0,1E0,2E0,6E0,1E1,2E0,2E0,6E0,4E0,3E0,3E0,6E0,9E0,1.9E2],"tree_param":{"num_deleted":"0","num_feature":"60","num_nodes":"59","size_leaf_vector":"0"}},{"base_weights":[1.8211261E-3,2.5781954E-3,-1.6602325E-1,1.1478305E-1,1.5476074E-3,-2.2421781E-2,6.722302E-3,-1.1325186E-2,-7.7033594E-2,3.4703933E-2,-6.167327E-3,-1.8801255E-2,6.656905E-2,-9.3045436E-2,-1.7745584E-2,1.837242E-2,2.817181E-1,-2.4341354E-1,-1.2804485E-3,1.8742649E-2,-3.0383326E-2,9.4429255E-2,7.2324276E-3,-1.1238098E-2,-1.00886464E-1,-3.0854464E-2,1.0790527E-2,3.0183334E-2,-5.6867473E-2,4.577535E-1,1.19753264E-1,-1.7052574E-1,2.2508304E-3],"categories":[],"categories_nodes":[],"categories_segments":[],"categories_sizes":[],"default_left":[1,1,0,0,1,1,1,1,1,1,1,1,1,1,1,1,1,0,1,0,0,0,0,0,0,0,0,0,0,0,0,0,0],"id":46,"left_children":[1,3,-1,-1,5,7,9,11,13,15,17,19,21,23,25,27,29,-1,31,-1,-1,-1,-1,-1,-1,-1,-1,-1,-1,-1,-1,-1,-1],"loss_changes":[5.6592915E-2,5.0818276E-2,0E0,0E0,5.4477736E-2,4.6395984E-2,1.3041691E-1,3.9686203E-2,1.0689892E-2,4.5471326E-1,2.872179E-1,2.709447E-2,9.235829E-3,5.280763E-3,1.8292416E-3,9.7690865E-2,1.4476329E-1,0E0,1.4621098E-1,0E0,0E0,0E0,0E0,0E0,0E0,0E0,0E0,0E0,0E0,0E0,0E0,0E0,0E0],"parents":[2147483647,0,0,1,1,4,4,5,5,6,6,7,7,8,8,9,9,10,10,11,11,12,12,13,13,14,14,15,15,16,16,18,18],"right_children":[2,4,-1,-1,6,8,10,12,14,16,18,20,22,24,26,28,30,-1,32,-1,-1,-1,-1,-1,-1,-1,-1,-1,-1,-1,-1,-1,-1],"split_conditions":[2.5406E2,1.38095E0,-4.980698E-2,3.4434915E-2,3.0457501E0,2.87575E0,3.11815E1,3.5764499E0,3.4363E0,3.1188E1,3.17999E1,1.54235E0,1.9085E0,1.6171E0,3.75535E0,3.9497E1,3.13905E1,-7.3024064E-2,2.76315E1,5.622795E-3,-9.114998E-3,2.8328778E-2,2.1697283E-3,-3.3714296E-3,-3.026594E-2,-9.25634E-3,3.2371583E-3,9.055001E-3,-1.7060243E-2,1.3732606E-1,3.592598E-2,-5.1157724E-2,6.7524915E-4],"split_indices":[8,10,0,0,18,25,8,44,8,9,8,42,1,0,0,25,9,0,37,0,0,0,0,0,0,0,0,0,0,0,0,0,0],"split_type":[0,0,0,0,0,0,0,0,0,0,0,0,0,0,0,0,0,0,0,0,0,0,0,0,0,0,0,0,0,0,0,0,0],"sum_hessian":[4.41E2,4.4E2,1E0,3E0,4.37E2,7.7E1,3.6E2,6.5E1,1.2E1,1.13E2,2.47E2,6E1,5E0,9E0,3E0,1.07E2,6E0,4E0,2.43E2,1.4E1,4.6E1,3E0,2E0,1E0,8E0,2E0,1E0,9.3E1,1.4E1,2E0,4E0,4E0,2.39E2],"tree_param":{"num_deleted":"0","num_feature":"60","num_nodes":"33","size_leaf_vector":"0"}},{"base_weights":[1.3059076E-3,3.427183E-4,1.0668945E-1,4.720717E-3,-3.0309504E-2,1.4016216E-1,3.1356812E-3,1.8693266E-3,1.8452199E-1,-1.3495484E-1,-6.9016167E-3,3.841122E-3,-2.4720001E-1,2.9633078E-1,5.4534912E-2,-7.486153E-2,-2.5021872E-1,-5.0650787E-2,2.5760792E-2,-2.62561E-3,3.748997E-2,7.3903404E-2,-1.7852783E-3,-8.484105E-2,-2.5024414E-3,-7.9077326E-2,8.282471E-2,5.7920568E-2,-2.6282571E-2,3.115393E-3,-8.000981E-2,3.4733582E-1,2.6536942E-2,-5.512797E-2,-1.7246501E-1,-5.126953E-3,1.13850914E-1,2.5136312E-2,1.13835655E-1,-9.434128E-2,1.10321045E-2],"categories":[],"categories_nodes":[],"categories_segments":[],"categories_sizes":[],"default_left":[1,1,1,1,1,0,0,1,1,1,1,1,0,0,1,1,0,1,1,1,1,0,0,0,0,1,1,1,1,0,0,0,0,0,0,0,0,0,0,0,0],"id":47,"left_children":[1,3,5,7,9,-1,-1,11,13,15,17,19,-1,-1,21,23,-1,25,27,29,31,-1,-1,-1,-1,33,35,37,39,-1,-1,-1,-1,-1,-1,-1,-1,-1,-1,-1,-1],"loss_changes":[4.4828337E-2,5.905486E-2,1.3425395E-2,1.9703828E-1,1.3379252E-1,0E0,0E0,1.8757275E-1,7.104181E-2,5.053413E-2,6.703665E-2,8.235051E-2,0E0,0E0,4.4952855E-3,5.564563E-3,0E0,8.243449E-2,4.6712283E-2,1.4152487E-1,1.9780155E-1,0E0,0E0,0E0,0E0,2.8514124E-2,1.1498932E-2,2.830188E-2,2.8976258E-2,0E0,0E0,0E0,0E0,0E0,0E0,0E0,0E0,0E0,0E0,0E0,0E0],"parents":[2147483647,0,0,1,1,2,2,3,3,4,4,7,7,8,8,9,9,10,10,11,11,14,14,15,15,17,17,18,18,19,19,20,20,25,25,26,26,27,27,28,28],"right_children":[2,4,6,8,10,-1,-1,12,14,16,18,20,-1,-1,22,24,-1,26,28,30,32,-1,-1,-1,-1,34,36,38,40,-1,-1,-1,-1,-1,-1,-1,-1,-1,-1,-1,-1],"split_conditions":[2.4522E2,1.67555E2,1.6035999E2,1.666E2,1.7368E2,4.2048648E-2,9.4070437E-4,1.6141E2,5.4211502E1,2.1278E2,1.58165E2,1.0197E2,-7.416001E-2,8.889924E-2,1.9349E2,2.0662E2,-7.506562E-2,2.43055E2,2.0689499E2,9.5255005E1,2.39915E1,2.2171022E-2,-5.3558353E-4,-2.5452316E-2,-7.5073243E-4,1.595E2,1.3738501E2,1.9292001E2,2.0616E2,9.3461794E-4,-2.4002945E-2,1.0420075E-1,7.961083E-3,-1.6538393E-2,-5.1739506E-2,-1.538086E-3,3.4155276E-2,7.540894E-3,3.4150697E-2,-2.8302385E-2,3.3096315E-3],"split_indices":[22,44,0,45,43,0,0,45,0,4,5,57,0,0,0,5,0,45,27,59,15,0,0,0,0,3,2,36,28,0,0,0,0,0,0,0,0,0,0,0,0],"split_type":[0,0,0,0,0,0,0,0,0,0,0,0,0,0,0,0,0,0,0,0,0,0,0,0,0,0,0,0,0,0,0,0,0,0,0,0,0,0,0,0,0],"sum_hessian":[4.41E2,4.38E2,3E0,3.84E2,5.4E1,2E0,1E0,3.79E2,5E0,9E0,4.5E1,3.77E2,2E0,2E0,3E0,7E0,2E0,1.9E1,2.6E1,3.17E2,6E1,2E0,1E0,6E0,1E0,1.6E1,3E0,1.6E1,1E1,2.96E2,2.1E1,1E0,5.9E1,1.4E1,2E0,1E0,2E0,1.1E1,5E0,3E0,7E0],"tree_param":{"num_deleted":"0","num_feature":"60","num_nodes":"41","size_leaf_vector":"0"}},{"base_weights":[1.0229382E-3,1.026144E-1,9.494545E-5,1.7730045E-1,1.8618902E-2,-1.4486683E-2,5.6888564E-3,3.203678E-2,-4.108429E-3,-2.1811756E-3,-1.271054E-1,1.10553406E-1,-1.3445213E-3,-1.0962337E-2,1.8617192E-1,-1.8581612E-1,-5.8623996E-2,-1.3240497E-1,1.4490461E-1,2.0709927E-1,-3.4454872E-3,-3.751351E-3,-1.1344051E-1,2.49698E-1,6.058852E-2,2.259318E-2,-9.56295E-2,1.0658169E-1,3.9819717E-1,-1.2502782E-1,1.6679163E-3,-7.389714E-3,1.1756507E-1,-1.6852808E-1,-2.9992819E-2,2.7132034E-3,3.1176567E-2,7.346477E-2,2.3663902E-1,-3.574889E-2,-2.0834859E-1,-1.464402E-1,4.824431E-3],"categories":[],"categories_nodes":[],"categories_segments":[],"categories_sizes":[],"default_left":[1,1,1,0,1,1,1,0,0,1,1,1,1,1,1,0,1,0,1,0,1,1,1,0,0,1,0,1,0,1,1,0,0,0,0,0,0,0,0,0,0,0,0],"id":48,"left_children":[1,3,5,-1,7,9,11,-1,-1,13,15,17,19,21,23,-1,25,-1,27,-1,29,31,33,-1,-1,35,-1,37,-1,39,41,-1,-1,-1,-1,-1,-1,-1,-1,-1,-1,-1,-1],"loss_changes":[4.166031E-2,2.1792032E-2,3.5890907E-2,0E0,1.0464785E-3,1.6879407E-1,2.3469017E-1,0E0,0E0,1.8563032E-1,3.735383E-2,1.8610436E-1,1.3165562E-1,7.86441E-2,2.4760276E-2,0E0,2.3198953E-2,0E0,1.322839E-1,0E0,1.848533E-1,4.5449484E-2,2.7123883E-2,0E0,0E0,4.273242E-4,0E0,5.5836022E-2,0E0,8.1817225E-2,1.3441305E-1,0E0,0E0,0E0,0E0,0E0,0E0,0E0,0E0,0E0,0E0,0E0,0E0],"parents":[2147483647,0,0,1,1,2,2,4,4,5,5,6,6,9,9,10,10,11,11,12,12,13,13,14,14,16,16,18,18,20,20,21,21,22,22,25,25,27,27,29,29,30,30],"right_children":[2,4,6,-1,8,10,12,-1,-1,14,16,18,20,22,24,-1,26,-1,28,-1,30,32,34,-1,-1,36,-1,38,-1,40,42,-1,-1,-1,-1,-1,-1,-1,-1,-1,-1,-1,-1],"split_conditions":[1.3434999E0,1.3861E0,1.41956005E1,5.319014E-2,1.4682E0,1.4781401E1,2.66865E1,9.611035E-3,-1.2325287E-3,1.431195E1,1.430425E1,1.30337E1,1.275845E1,1.37202E1,3.5763998E0,-5.5744838E-2,8.7837E0,-3.9721493E-2,2.73698E1,6.2129784E-2,2.8175499E1,4.2112503E0,3.6282501E0,7.4909404E-2,1.8176557E-2,4.84855E0,-2.868885E-2,3.89855E1,1.1945916E-1,3.40825E1,2.4693E1,-2.2169142E-3,3.5269525E-2,-5.0558425E-2,-8.997846E-3,8.139611E-4,9.352971E-3,2.2039432E-2,7.099171E-2,-1.0724667E-2,-6.250458E-2,-4.3932058E-2,1.4473294E-3],"split_indices":[1,0,39,0,0,59,49,0,0,45,52,38,3,53,0,0,6,0,50,0,48,19,0,0,0,0,0,16,0,58,27,0,0,0,0,0,0,0,0,0,0,0,0],"split_type":[0,0,0,0,0,0,0,0,0,0,0,0,0,0,0,0,0,0,0,0,0,0,0,0,0,0,0,0,0,0,0,0,0,0,0,0,0,0,0,0,0,0,0],"sum_hessian":[4.41E2,3E0,4.38E2,1E0,2E0,1.21E2,3.17E2,1E0,1E0,1.1E2,1.1E1,1.9E1,2.98E2,1.06E2,4E0,5E0,6E0,2E0,1.7E1,2E0,2.96E2,1E2,6E0,2E0,2E0,2E0,4E0,1.6E1,1E0,1.1E1,2.85E2,9.8E1,2E0,3E0,3E0,1E0,1E0,1.4E1,2E0,6E0,5E0,5E0,2.8E2],"tree_param":{"num_deleted":"0","num_feature":"60","num_nodes":"43","size_leaf_vector":"0"}},{"base_weights":[1.1069303E-3,8.271444E-2,-1.6071976E-5,-4.0802956E-2,1.5467387E-1,2.1318602E-3,-3.5499267E-2,-4.41885E-3,-5.6785583E-2,-1.0141913E-3,5.0999146E-2,-2.4226634E-1,-6.9862036E-3,5.2523906E-3,-3.0152721E-2,1.935978E-1,2.2753976E-2,9.057363E-2,-2.0590646E-2,1.6415389E-3,1.4632177E-1,-2.0689106E-1,-1.3112366E-2,-4.4581094E-3,7.093239E-2,-8.7893166E-2,5.9347153E-3,-3.52756E-3,9.215624E-2,2.0000839E-1,7.4108124E-2,-2.3369102E-1,-3.6445618E-2,1.1237023E-1,-3.8430814E-2,2.1770824E-2,-6.127014E-2,8.9930214E-2,9.292603E-3,-1.11522675E-1,-2.7089437E-2,3.446452E-2,-2.6903152E-2],"categories":[],"categories_nodes":[],"categories_segments":[],"categories_sizes":[],"default_left":[1,1,1,1,0,1,1,0,0,1,1,0,1,1,1,0,1,0,1,1,1,1,1,1,1,1,1,0,0,0,0,0,0,0,0,0,0,0,0,0,0,0,0],"id":49,"left_children":[1,3,5,7,-1,9,11,-1,-1,13,15,-1,17,19,21,-1,23,-1,25,27,29,31,33,35,37,39,41,-1,-1,-1,-1,-1,-1,-1,-1,-1,-1,-1,-1,-1,-1,-1,-1],"loss_changes":[4.05086E-2,5.964061E-2,3.3381853E-2,1.4936142E-3,0E0,6.354592E-2,1.4569655E-1,0E0,0E0,7.118938E-2,9.628796E-2,0E0,3.2391656E-2,1.6327098E-1,2.0509337E-1,0E0,2.9158995E-2,0E0,3.8011316E-2,1.4723924E-1,1.6193002E-2,1.889059E-2,2.0764805E-1,2.3685684E-2,8.532491E-3,5.5994876E-3,1.591693E-2,0E0,0E0,0E0,0E0,0E0,0E0,0E0,0E0,0E0,0E0,0E0,0E0,0E0,0E0,0E0,0E0],"parents":[2147483647,0,0,1,1,2,2,3,3,5,5,6,6,9,9,10,10,12,12,13,13,14,14,16,16,18,18,19,19,20,20,21,21,22,22,23,23,24,24,25,25,26,26],"right_children":[2,4,6,8,-1,10,12,-1,-1,14,16,-1,18,20,22,-1,24,-1,26,28,30,32,34,36,38,40,42,-1,-1,-1,-1,-1,-1,-1,-1,-1,-1,-1,-1,-1,-1,-1,-1],"split_conditions":[1.40625E0,1.31475E0,1.9712E2,1.25085E0,4.6402164E-2,1.7266E2,1.58235E2,-1.325655E-3,-1.7035676E-2,1.02195E2,1.5017E2,-7.267991E-2,1.6976999E2,1.07655E2,9.0565E1,5.807934E-2,1.7873E2,2.717209E-2,1.58235E2,1.00835E2,1.136E2,1.155E2,1.0046E2,1.7819E2,2.0163E2,2.1525E2,1.7845999E2,-1.058268E-3,2.7646873E-2,6.000252E-2,2.2232438E-2,-7.010731E-2,-1.0933686E-2,3.3711072E-2,-1.15292445E-2,6.5312474E-3,-1.8381042E-2,2.6979065E-2,2.787781E-3,-3.3456802E-2,-8.126832E-3,1.0339356E-2,-8.070946E-3],"split_indices":[0,0,3,0,0,3,25,0,0,5,10,0,14,9,17,0,18,0,45,0,10,3,17,12,0,0,45,0,0,0,0,0,0,0,0,0,0,0,0,0,0,0,0],"split_type":[0,0,0,0,0,0,0,0,0,0,0,0,0,0,0,0,0,0,0,0,0,0,0,0,0,0,0,0,0,0,0,0,0,0,0,0,0,0,0,0,0,0,0],"sum_hessian":[4.41E2,5E0,4.36E2,2E0,3E0,4.12E2,2.4E1,1E0,1E0,3.88E2,2.4E1,2E0,2.2E1,3.2E2,6.8E1,3E0,2.1E1,2E0,2E1,3.13E2,7E0,5E0,6.3E1,1.4E1,7E0,5E0,1.5E1,2.97E2,1.6E1,3E0,4E0,4E0,1E0,1E1,5.3E1,1E1,4E0,5E0,2E0,3E0,2E0,8E0,7E0],"tree_param":{"num_deleted":"0","num_feature":"60","num_nodes":"43","size_leaf_vector":"0"}},{"base_weights":[9.3114213E-4,1.1076061E-2,-7.890734E-3,2.9611099E-3,1.4202102E-1,-2.1926041E-1,-3.3210379E-3,-2.8672972E-4,1.0531584E-1,-1.6021729E-3,2.1403289E-1,-2.8007746E-1,1.2003899E-2,-1.08238645E-1,8.904266E-4,4.723798E-3,-8.225112E-2,1.1304219E-2,1.494956E-1,-5.8856964E-2,5.6186676E-2,6.122589E-2,2.271159E-1,-3.0260563E-2,-1.4218426E-1,1.7954858E-1,-3.986116E-3,-5.794315E-3,5.5465512E-2,-1.2825449E-1,-1.3961792E-3,-4.7483444E-2,1.07040405E-2,-5.611992E-2,2.3790626E-1,-9.74232E-2,9.271894E-4,3.4621973E-3,-6.282061E-2,2.75325E-1,1.2696513E-2,-1.6179752E-1,-6.264782E-2,3.8612366E-2,-2.1051407E-2,3.825887E-2,-1.3182576E-1,1.8983814E-1,-5.559594E-3],"categories":[],"categories_nodes":[],"categories_segments":[],"categories_sizes":[],"default_left":[1,1,1,1,1,1,1,1,1,1,1,0,0,1,1,1,1,0,0,0,0,0,0,1,0,1,1,1,1,1,1,0,0,0,0,1,1,0,0,0,0,0,0,0,0,0,0,0,0],"id":50,"left_children":[1,3,5,7,9,11,13,15,17,19,21,-1,-1,23,25,27,29,-1,-1,-1,-1,-1,-1,31,-1,33,35,37,39,41,43,-1,-1,-1,-1,45,47,-1,-1,-1,-1,-1,-1,-1,-1,-1,-1,-1,-1],"loss_changes":[3.964517E-2,2.1847752E-1,2.2818896E-1,6.485439E-2,1.2445383E-1,7.368611E-2,1.0304901E-1,7.841865E-2,2.323053E-2,1.985042E-2,2.08804E-3,0E0,0E0,1.9520551E-2,1.9674337E-1,9.638867E-2,4.0736526E-2,0E0,0E0,0E0,0E0,0E0,0E0,3.3303786E-3,0E0,9.586969E-2,1.0108902E-1,7.93972E-2,2.8800264E-1,5.2682683E-3,4.7447295E-3,0E0,0E0,0E0,0E0,5.638942E-2,2.5839454E-1,0E0,0E0,0E0,0E0,0E0,0E0,0E0,0E0,0E0,0E0,0E0,0E0],"parents":[2147483647,0,0,1,1,2,2,3,3,4,4,5,5,6,6,7,7,8,8,9,9,10,10,13,13,14,14,15,15,16,16,23,23,25,25,26,26,27,27,28,28,29,29,30,30,35,35,36,36],"right_children":[2,4,6,8,10,12,14,16,18,20,22,-1,-1,24,26,28,30,-1,-1,-1,-1,-1,-1,32,-1,34,36,38,40,42,44,-1,-1,-1,-1,46,48,-1,-1,-1,-1,-1,-1,-1,-1,-1,-1,-1,-1],"split_conditions":[3.67085E1,3.3997E1,3.5122498E1,4.3512497E1,3.2267998E1,4.56415E1,3.89855E1,3.62165E1,2.6472599E1,3.9154E1,2.539E1,-8.402324E-2,3.6011697E-3,2.76581E1,3.8676003E1,1.467805E1,3.36325E1,3.3912659E-3,4.484868E-2,-1.765709E-2,1.6856004E-2,1.8367767E-2,6.813477E-2,3.1293499E1,-4.2655278E-2,2.3094051E1,3.9497E1,1.461345E1,2.4162E1,2.740485E1,3.4389E1,-1.4245034E-2,3.2112123E-3,-1.6835976E-2,7.137188E-2,2.781665E1,4.30005E1,1.0386592E-3,-1.8846184E-2,8.25975E-2,3.808954E-3,-4.853926E-2,-1.8794347E-2,1.158371E-2,-6.3154222E-3,1.1477661E-2,-3.954773E-2,5.6951445E-2,-1.6678782E-3],"split_indices":[25,26,27,38,54,0,24,34,19,9,11,0,0,10,23,5,28,0,0,0,0,0,0,3,0,0,17,41,31,19,0,0,0,0,0,9,19,0,0,0,0,0,0,0,0,0,0,0,0],"split_type":[0,0,0,0,0,0,0,0,0,0,0,0,0,0,0,0,0,0,0,0,0,0,0,0,0,0,0,0,0,0,0,0,0,0,0,0,0,0,0,0,0,0,0,0,0,0,0,0,0],"sum_hessian":[4.41E2,2.05E2,2.36E2,1.94E2,1.1E1,4E0,2.32E2,1.89E2,5E0,4E0,7E0,3E0,1E0,8E0,2.24E2,1.79E2,1E1,2E0,3E0,2E0,2E0,1E0,6E0,3E0,5E0,5E0,2.19E2,1.49E2,3E1,6E0,4E0,2E0,1E0,1E0,4E0,1E1,2.09E2,1.29E2,2E1,4E0,2.6E1,3E0,3E0,1E0,3E0,2E0,8E0,6E0,2.03E2],"tree_param":{"num_deleted":"0","num_feature":"60","num_nodes":"49","size_leaf_vector":"0"}},{"base_weights":[8.508142E-4,-1.2797661E-4,8.642273E-2,6.369262E-3,-1.2272305E-2,2.407837E-2,1.1995951E-1,5.19126E-4,1.8636577E-1,2.7232933E-1,-1.5936324E-2,6.4705694E-3,-6.273659E-2,7.031937E-2,2.65139E-1,-1.1355038E-1,-1.1376976E-3,1.460333E-3,9.26139E-2,-1.1313416E-1,5.2200317E-2,1.2240092E-1,-5.2019753E-3,7.134132E-2,-1.6423213E-1,1.53567E-1,-8.380592E-3,7.186173E-3,-7.986629E-2,4.4049695E-2,2.0301199E-1,-1.6106777E-1,-3.9075375E-2,-4.967041E-2,1.6648865E-1,1.2681961E-2,-2.0484924E-2,-2.195275E-1,-3.5485268E-2,3.9916992E-2,2.0041275E-1,-1.2629795E-1,-5.1514176E-4],"categories":[],"categories_nodes":[],"categories_segments":[],"categories_sizes":[],"default_left":[1,1,1,1,1,0,0,1,1,0,1,1,1,1,0,1,1,1,1,1,1,0,1,0,1,1,1,0,0,0,0,0,0,0,0,0,0,0,0,0,0,0,0],"id":51,"left_children":[1,3,5,7,9,-1,-1,11,13,-1,15,17,19,21,-1,23,25,27,29,31,33,-1,35,-1,37,39,41,-1,-1,-1,-1,-1,-1,-1,-1,-1,-1,-1,-1,-1,-1,-1,-1],"loss_changes":[3.7031658E-2,3.463838E-2,7.565718E-3,3.010624E-1,1.6388619E-1,0E0,0E0,1.05062604E-1,6.362775E-2,0E0,2.1944301E-1,1.0992236E-1,1.4492662E-1,2.030307E-2,0E0,1.9912925E-1,1.5031478E-1,1.13264434E-1,6.611692E-2,5.4054588E-2,1.0141064E-1,0E0,1.0797469E-3,0E0,1.0611576E-1,2.3944244E-2,1.18651494E-1,0E0,0E0,0E0,0E0,0E0,0E0,0E0,0E0,0E0,0E0,0E0,0E0,0E0,0E0,0E0,0E0],"parents":[2147483647,0,0,1,1,2,2,3,3,4,4,7,7,8,8,10,10,11,11,12,12,13,13,15,15,16,16,17,17,18,18,19,19,20,20,22,22,24,24,25,25,26,26],"right_children":[2,4,6,8,10,-1,-1,12,14,-1,16,18,20,22,-1,24,26,28,30,32,34,-1,36,-1,38,40,42,-1,-1,-1,-1,-1,-1,-1,-1,-1,-1,-1,-1,-1,-1,-1,-1],"split_conditions":[2.4248E2,8.8975E1,1.5882999E2,8.791499E1,4.6309998E1,7.223511E-3,3.5987854E-2,4.6779E1,8.9715E1,8.1698805E-2,8.5744995E1,4.3686996E1,1.3585E2,8.4715E1,7.9541706E-2,3.4345E1,8.513E1,3.9711E1,4.4485E1,8.372E1,7.3841995E1,3.6720276E-2,8.388E1,2.1402396E-2,8.9494995E1,9.6165E1,5.1550003E1,2.155852E-3,-2.3959888E-2,1.32149095E-2,6.0903598E-2,-4.8320334E-2,-1.1722613E-2,-1.4901123E-2,4.9946595E-2,3.8045885E-3,-6.1454778E-3,-6.585825E-2,-1.06455805E-2,1.1975098E-2,6.0123827E-2,-3.7889387E-2,-1.5454253E-4],"split_indices":[22,5,4,6,26,0,0,9,2,0,22,11,40,4,0,53,23,13,9,0,10,0,0,0,19,14,46,0,0,0,0,0,0,0,0,0,0,0,0,0,0,0,0],"split_type":[0,0,0,0,0,0,0,0,0,0,0,0,0,0,0,0,0,0,0,0,0,0,0,0,0,0,0,0,0,0,0,0,0,0,0,0,0,0,0,0,0,0,0],"sum_hessian":[4.41E2,4.37E2,4E0,2.85E2,1.52E2,2E0,2E0,2.77E2,8E0,1E0,1.51E2,2.54E2,2.3E1,4E0,4E0,1.9E1,1.32E2,2.41E2,1.3E1,1.6E1,7E0,2E0,2E0,4E0,1.5E1,5E0,1.27E2,2.26E2,1.5E1,1E1,3E0,9E0,7E0,4E0,3E0,1E0,1E0,1E1,5E0,2E0,3E0,7E0,1.2E2],"tree_param":{"num_deleted":"0","num_feature":"60","num_nodes":"43","size_leaf_vector":"0"}},{"base_weights":[1.1499613E-3,-2.1396946E-2,4.409591E-3,-2.5960322E-2,1.1479437E-1,1.9048939E-2,-3.5085073E-3,3.4685493E-2,-3.0126147E-2,9.140557E-3,1.7644048E-1,-5.404607E-2,4.3535274E-3,-1.413703E-2,5.567201E-2,-1.4120478E-2,-5.3081162E-2,1.381123E-2,-8.89101E-2,7.459526E-2,2.5963688E-1,2.7604261E-2,-9.429641E-2,1.2383617E-1,-1.9558629E-3,-4.2683266E-2,8.0275536E-4,-2.0222187E-2,-5.74342E-2,9.425111E-3,1.875763E-1,-8.145561E-2,9.231615E-2,-1.14352E-1,7.752482E-2,1.6306135E-1,-3.5118103E-2,1.14850365E-1,-5.3817523E-3,3.1376123E-2,-5.3226817E-2,2.757035E-2,-1.0958239E-2,-6.2047992E-2,-2.5773942E-2,2.0041741E-2,-5.3028848E-2,-1.147995E-1,-2.0959854E-2,1.6286659E-1,1.7412568E-2,3.3762615E-2,-1.3171999E-1,3.5095215E-3,1.1277771E-1,6.069565E-2,1.8363789E-1,-9.3078613E-4,-5.174637E-2,4.522858E-2,2.3147964E-1,-7.005059E-2,1.2531383E-3],"categories":[],"categories_nodes":[],"categories_segments":[],"categories_sizes":[],"default_left":[1,1,1,1,0,1,1,1,1,1,1,1,1,0,0,1,1,1,0,0,0,1,1,1,1,1,1,0,1,1,0,1,1,1,1,1,1,1,1,0,0,0,0,0,0,0,0,0,0,0,0,0,0,0,0,0,0,0,0,0,0,0,0],"id":52,"left_children":[1,3,5,7,-1,9,11,13,15,17,19,21,23,-1,-1,25,27,29,-1,-1,-1,31,33,35,37,39,41,-1,43,45,-1,47,49,51,53,55,57,59,61,-1,-1,-1,-1,-1,-1,-1,-1,-1,-1,-1,-1,-1,-1,-1,-1,-1,-1,-1,-1,-1,-1,-1,-1],"loss_changes":[3.2578956E-2,3.7783667E-2,4.492625E-2,1.4940131E-2,0E0,2.104786E-1,1.00361966E-1,4.8854956E-3,1.835581E-2,6.0305126E-2,4.841757E-2,1.1434242E-1,1.6533813E-1,0E0,0E0,1.3674237E-2,1.84232E-3,9.273918E-2,0E0,0E0,0E0,9.220932E-2,8.812253E-2,7.431151E-2,8.425263E-2,1.025939E-2,7.2280206E-3,0E0,1.0301098E-3,8.195496E-2,0E0,7.6796375E-3,3.9439917E-2,5.846876E-2,7.4319635E-3,7.810965E-3,1.6572627E-3,3.8250133E-2,8.76182E-2,0E0,0E0,0E0,0E0,0E0,0E0,0E0,0E0,0E0,0E0,0E0,0E0,0E0,0E0,0E0,0E0,0E0,0E0,0E0,0E0,0E0,0E0,0E0,0E0],"parents":[2147483647,0,0,1,1,2,2,3,3,5,5,6,6,7,7,8,8,9,9,10,10,11,11,12,12,15,15,16,16,17,17,21,21,22,22,23,23,24,24,25,25,26,26,28,28,29,29,31,31,32,32,33,33,34,34,35,35,36,36,37,37,38,38],"right_children":[2,4,6,8,-1,10,12,14,16,18,20,22,24,-1,-1,26,28,30,-1,-1,-1,32,34,36,38,40,42,-1,44,46,-1,48,50,52,54,56,58,60,62,-1,-1,-1,-1,-1,-1,-1,-1,-1,-1,-1,-1,-1,-1,-1,-1,-1,-1,-1,-1,-1,-1,-1,-1],"split_conditions":[2.24055E0,3.17575E0,3.0803501E1,1.4358001E0,3.4438312E-2,2.9417E1,3.88155E1,2.2263E0,1.88775E0,3.2453697E1,3.4872498E1,3.1036E1,3.0365002E1,-4.241109E-3,1.6701603E-2,1.51265E0,1.49055E0,7.52715E1,-2.6673032E-2,2.2378579E-2,7.789107E-2,2.6751E1,7.52715E1,4.70565E1,2.8608E1,1.40625E0,1.99395E0,-6.066656E-3,2.2804499E0,4.40195E1,5.627289E-2,3.4389E1,3.3136E1,2.66865E1,2.83595E1,3.3239502E1,5.4964798E1,7.47325E1,4.955E1,9.412837E-3,-1.5968045E-2,8.271106E-3,-3.287472E-3,-1.8614398E-2,-7.732183E-3,6.0125226E-3,-1.5908655E-2,-3.443985E-2,-6.2879566E-3,4.885998E-2,5.2237706E-3,1.0128785E-2,-3.9516E-2,1.0528564E-3,3.3833314E-2,1.8208696E-2,5.509137E-2,-2.7923586E-4,-1.5523911E-2,1.3568574E-2,6.94439E-2,-2.1015178E-2,3.759415E-4],"split_indices":[49,18,8,35,0,9,9,5,48,13,44,30,44,0,0,49,44,41,0,0,0,26,27,9,58,0,18,0,46,48,0,9,16,15,0,14,0,0,27,0,0,0,0,0,0,0,0,0,0,0,0,0,0,0,0,0,0,0,0,0,0,0,0],"split_type":[0,0,0,0,0,0,0,0,0,0,0,0,0,0,0,0,0,0,0,0,0,0,0,0,0,0,0,0,0,0,0,0,0,0,0,0,0,0,0,0,0,0,0,0,0,0,0,0,0,0,0,0,0,0,0,0,0,0,0,0,0,0,0],"sum_hessian":[4.41E2,5.5E1,3.86E2,5.4E1,1E0,1.35E2,2.51E2,3E0,5.1E1,1.28E2,7E0,3.3E1,2.18E2,1E0,2E0,3.1E1,2E1,1.23E2,5E0,4E0,3E0,1.1E1,2.2E1,1E1,2.08E2,1E1,2.1E1,3E0,1.7E1,1.21E2,2E0,4E0,7E0,2E1,2E0,8E0,2E0,5E0,2.03E2,1E0,9E0,6E0,1.5E1,1.4E1,3E0,1.04E2,1.7E1,2E0,2E0,3E0,4E0,2E0,1.8E1,1E0,1E0,2E0,6E0,1E0,1E0,4E0,1E0,1.8E1,1.85E2],"tree_param":{"num_deleted":"0","num_feature":"60","num_nodes":"63","size_leaf_vector":"0"}},{"base_weights":[1.4187993E-3,8.843951E-4,1.1854553E-1,8.380675E-2,1.250941E-4,-1.3480229E-2,5.126038E-3,-2.3587074E-3,-5.9314396E-2,1.2748422E-1,1.5913747E-3,-9.775195E-3,1.3457641E-1,-9.726283E-2,1.05234785E-2,2.7810733E-3,2.8266788E-1,9.80399E-2,-6.1296095E-4,-4.4100106E-2,-3.5685634E-3,2.3156643E-2,1.566422E-1,-2.398014E-2,-1.3150616E-1,-5.0720453E-2,4.9598854E-2,-7.676506E-2,6.1745405E-2,4.952717E-2,1.22042656E-1,-1.0854426E-1,3.3865585E-3],"categories":[],"categories_nodes":[],"categories_segments":[],"categories_sizes":[],"default_left":[1,1,0,0,1,1,1,1,1,1,1,1,1,1,1,1,0,1,1,0,0,0,0,0,0,0,0,0,0,0,0,0,0],"id":53,"left_children":[1,3,-1,-1,5,7,9,11,13,15,17,19,21,23,25,27,-1,29,31,-1,-1,-1,-1,-1,-1,-1,-1,-1,-1,-1,-1,-1,-1],"loss_changes":[2.7561273E-2,2.7756212E-2,0E0,0E0,2.9870382E-2,6.0010083E-2,1.38628E-1,9.881097E-2,6.197902E-2,1.733809E-1,6.6605434E-2,1.9442499E-2,8.665517E-3,3.448811E-2,2.4053844E-2,3.28822E-2,0E0,2.1066517E-3,1.328913E-1,0E0,0E0,0E0,0E0,0E0,0E0,0E0,0E0,0E0,0E0,0E0,0E0,0E0,0E0],"parents":[2147483647,0,0,1,1,4,4,5,5,6,6,7,7,8,8,9,9,10,10,11,11,12,12,13,13,14,14,15,15,17,17,18,18],"right_children":[2,4,-1,-1,6,8,10,12,14,16,18,20,22,24,26,28,-1,30,32,-1,-1,-1,-1,-1,-1,-1,-1,-1,-1,-1,-1,-1,-1],"split_conditions":[2.5406E2,1.38095E0,3.5563663E-2,2.5142027E-2,1.41785E1,1.279015E1,1.3621E1,8.917049E0,1.467805E1,1.458745E1,1.41723E1,1.54315E0,1.31475E0,3.10565E0,1.30104E1,3.3361E0,8.480036E-2,1.361825E1,2.51772E1,-1.3230032E-2,-1.070569E-3,6.946993E-3,4.6992663E-2,-7.1940427E-3,-3.945185E-2,-1.5216136E-2,1.4879657E-2,-2.302952E-2,1.8523622E-2,1.4858151E-2,3.6612798E-2,-3.256328E-2,1.0159676E-3],"split_indices":[47,10,0,0,43,56,29,48,49,50,33,4,2,5,44,4,0,33,40,0,0,0,0,0,0,0,0,0,0,0,0,0,0],"split_type":[0,0,0,0,0,0,0,0,0,0,0,0,0,0,0,0,0,0,0,0,0,0,0,0,0,0,0,0,0,0,0,0,0],"sum_hessian":[4.41E2,4.4E2,1E0,3E0,4.37E2,1.17E2,3.2E2,9.5E1,2.2E1,8E0,3.12E2,9.1E1,4E0,1.4E1,8E0,5E0,3E0,6E0,3.06E2,1.3E1,7.8E1,1E0,3E0,5E0,9E0,3E0,5E0,2E0,3E0,3E0,3E0,1E1,2.96E2],"tree_param":{"num_deleted":"0","num_feature":"60","num_nodes":"33","size_leaf_vector":"0"}},{"base_weights":[1.3396379E-3,8.219737E-4,1.1481476E-1,3.5702565E-3,-2.4056174E-2,-7.2996377E-4,4.1031443E-2,-7.755973E-2,-6.038666E-3,5.8765374E-3,-4.926309E-2,1.475198E-1,1.8561445E-2,-1.2789765E-1,-3.0524118E-2,6.590489E-2,-2.3808887E-2,2.0428675E-3,8.2669325E-2,-1.4214984E-1,-1.6808018E-2,2.010971E-1,9.051005E-3,-2.0033892E-2,5.21172E-2,-6.8454742E-3,-4.657173E-2,-1.0264079E-2,9.842529E-2,-1.6085052E-1,-1.2775845E-2,5.3080306E-3,-1.1861539E-1,1.6863087E-1,6.6248574E-3,1.0195415E-2,-1.7713717E-1,1.539669E-1,-3.901774E-2,2.4876659E-1,8.639526E-2,2.4862671E-2,-7.365036E-2,8.5228726E-2,1.3793945E-2,6.290436E-3,-2.1686554E-2,-3.5055543E-3,-8.576965E-2],"categories":[],"categories_nodes":[],"categories_segments":[],"categories_sizes":[],"default_left":[1,1,0,1,1,1,1,1,1,1,1,1,1,0,1,1,1,1,1,1,1,1,0,1,1,0,0,1,0,0,1,0,0,0,0,0,0,0,0,0,0,0,0,0,0,0,0,0,0],"id":54,"left_children":[1,3,-1,5,7,9,11,13,15,17,19,21,23,-1,25,27,29,31,33,35,37,39,-1,41,43,-1,-1,45,-1,-1,47,-1,-1,-1,-1,-1,-1,-1,-1,-1,-1,-1,-1,-1,-1,-1,-1,-1,-1],"loss_changes":[2.586959E-2,3.0238021E-2,0E0,6.4144306E-2,4.194768E-2,1.1507653E-1,9.536634E-2,2.2140458E-2,4.5036525E-2,9.2860945E-2,1.2724051E-1,5.011137E-2,4.637246E-2,0E0,2.341094E-3,1.8349564E-2,4.0280618E-2,1.1960822E-1,9.6936345E-2,6.043768E-2,1.3117194E-1,5.8466196E-3,0E0,4.275346E-2,2.2934247E-2,0E0,0E0,7.036984E-4,0E0,0E0,1.7969523E-2,0E0,0E0,0E0,0E0,0E0,0E0,0E0,0E0,0E0,0E0,0E0,0E0,0E0,0E0,0E0,0E0,0E0,0E0],"parents":[2147483647,0,0,1,1,3,3,4,4,5,5,6,6,7,7,8,8,9,9,10,10,11,11,12,12,14,14,15,15,16,16,17,17,18,18,19,19,20,20,21,21,23,23,24,24,27,27,30,30],"right_children":[2,4,-1,6,8,10,12,14,16,18,20,22,24,-1,26,28,30,32,34,36,38,40,-1,42,44,-1,-1,46,-1,-1,48,-1,-1,-1,-1,-1,-1,-1,-1,-1,-1,-1,-1,-1,-1,-1,-1,-1,-1],"split_conditions":[2.5335E2,1.7762E2,3.444443E-2,1.3934E2,1.90275E2,1.0039E2,1.42995E2,1.7593E2,1.6211499E2,9.5509995E1,9.645E1,1.4781E2,1.582E2,-3.8369298E-2,9.4604996E1,1.7846E2,1.58235E2,9.0045E1,1.01270004E2,9.8025E1,1.00350006E2,1.6399E2,2.7153017E-3,2.1661E2,1.7933499E2,-2.0536424E-3,-1.397152E-2,1.88775E2,2.9527588E-2,-4.825516E-2,1.9408499E2,1.5924092E-3,-3.5584617E-2,5.0589263E-2,1.9874573E-3,3.0586245E-3,-5.314115E-2,4.619007E-2,-1.1705322E-2,7.462998E-2,2.591858E-2,7.458802E-3,-2.2095108E-2,2.556862E-2,4.138184E-3,1.8871308E-3,-6.5059667E-3,-1.0516663E-3,-2.5730897E-2],"split_indices":[21,11,0,18,10,17,19,20,41,21,24,16,18,0,49,12,25,21,22,15,19,6,0,53,20,0,0,0,0,0,55,0,0,0,0,0,0,0,0,0,0,0,0,0,0,0,0,0,0],"split_type":[0,0,0,0,0,0,0,0,0,0,0,0,0,0,0,0,0,0,0,0,0,0,0,0,0,0,0,0,0,0,0,0,0,0,0,0,0,0,0,0,0,0,0,0,0,0,0,0,0],"sum_hessian":[4.41E2,4.4E2,1E0,3.97E2,4.3E1,3.57E2,4E1,1E1,3.3E1,3.15E2,4.2E1,6E0,3.4E1,4E0,6E0,6E0,2.7E1,3.01E2,1.4E1,1E1,3.2E1,4E0,2E0,1.6E1,1.8E1,3E0,3E0,2E0,4E0,1E0,2.6E1,2.94E2,7E0,6E0,8E0,2E0,8E0,3E0,2.9E1,2E0,2E0,9E0,7E0,9E0,9E0,1E0,1E0,2.4E1,2E0],"tree_param":{"num_deleted":"0","num_feature":"60","num_nodes":"49","size_leaf_vector":"0"}},{"base_weights":[1.0540545E-3,2.7010504E-3,-2.652588E-2,-8.54881E-3,8.33646E-3,-1.7354839E-1,-6.195732E-3,-2.8333717E-3,-1.16737366E-1,1.3907981E-1,4.460419E-3,1.41428625E-2,-3.9404973E-2,-9.004018E-3,4.6720695E-2,-1.302166E-1,-1.7930984E-2,3.253212E-2,2.3749447E-1,-9.222889E-2,5.881597E-3,-4.1748047E-2,3.8262106E-2,-5.966695E-2,8.392334E-4,-1.5275888E-4,-4.8425414E-2,1.354177E-1,1.3261636E-2,-1.419735E-1,-3.5716057E-2,5.5210114E-2,-2.9089928E-2,4.6610486E-2,2.244834E-3,6.811218E-2,1.1474609E-2,-7.9315186E-2,-3.0014038E-2,9.773254E-3,-5.396525E-3,-5.732494E-3,1.3379908E-1,-7.1460545E-2,1.1144229E-2,-7.649263E-2,3.886175E-2,6.415367E-2,1.418972E-2,3.8645607E-3,1.0792521E-1,-3.4871154E-2,8.507419E-3,2.9510498E-2,-1.6418457E-3,-7.293701E-3,-8.010864E-4],"categories":[],"categories_nodes":[],"categories_segments":[],"categories_sizes":[],"default_left":[1,1,1,1,1,0,1,1,1,1,1,1,1,1,1,1,0,1,0,0,1,0,1,1,1,1,1,0,1,0,0,1,0,1,1,0,1,0,0,0,1,0,0,0,0,0,0,0,0,0,0,0,0,0,0,0,0],"id":55,"left_children":[1,3,5,7,9,-1,11,13,15,17,19,21,23,25,27,29,-1,31,-1,-1,33,-1,35,37,39,41,43,-1,45,-1,-1,47,-1,49,51,-1,53,-1,-1,-1,55,-1,-1,-1,-1,-1,-1,-1,-1,-1,-1,-1,-1,-1,-1,-1,-1],"loss_changes":[2.0149073E-2,2.6571453E-2,7.3649466E-2,8.6237535E-2,1.4076754E-1,0E0,1.6092174E-2,4.139528E-2,6.9879293E-3,7.616064E-2,3.7918705E-2,2.1818066E-2,7.3889187E-3,4.1864086E-2,4.2719916E-2,1.5954599E-3,0E0,8.59338E-3,0E0,0E0,3.9739996E-2,0E0,8.014137E-3,1.1151955E-3,2.755832E-4,7.476117E-2,3.0984648E-2,0E0,3.0545272E-2,0E0,0E0,5.571507E-4,0E0,5.724391E-2,5.794229E-2,0E0,1.7044202E-3,0E0,0E0,0E0,2.0312182E-5,0E0,0E0,0E0,0E0,0E0,0E0,0E0,0E0,0E0,0E0,0E0,0E0,0E0,0E0,0E0,0E0],"parents":[2147483647,0,0,1,1,2,2,3,3,4,4,6,6,7,7,8,8,9,9,10,10,11,11,12,12,13,13,14,14,15,15,17,17,20,20,22,22,23,23,24,24,25,25,26,26,28,28,31,31,33,33,34,34,36,36,40,40],"right_children":[2,4,6,8,10,-1,12,14,16,18,20,22,24,26,28,30,-1,32,-1,-1,34,-1,36,38,40,42,44,-1,46,-1,-1,48,-1,50,52,-1,54,-1,-1,-1,56,-1,-1,-1,-1,-1,-1,-1,-1,-1,-1,-1,-1,-1,-1,-1,-1],"split_conditions":[1.9712E2,1.41796E1,1.58235E2,1.510495E1,1.334245E1,-5.206452E-2,2.2039499E2,1.41785E1,1.45219E1,1.134395E1,2.49178E1,1.76835E2,2.36065E2,1.279015E1,1.4009E1,1.58644E1,-5.3792954E-3,8.29955E0,7.1248345E-2,-2.7668668E-2,3.1039501E1,-1.2524415E-2,1.7039E2,2.19525E2,1.9908E2,3.8068E0,1.5263849E1,4.062531E-2,1.301475E1,-4.259205E-2,-1.0714818E-2,7.2763E0,-8.726979E-3,3.1039501E1,3.8865E1,2.0433655E-2,2.20345E2,-2.3794556E-2,-9.004212E-3,2.9319765E-3,1.9658499E2,-1.7197483E-3,4.0139724E-2,-2.1438165E-2,3.343269E-3,-2.294779E-2,1.1658526E-2,1.9246101E-2,4.256916E-3,1.1593683E-3,3.2377563E-2,-1.0461346E-2,2.552226E-3,8.85315E-3,-4.9255375E-4,-2.1881105E-3,-2.4032594E-4],"split_indices":[3,16,25,27,4,0,17,43,2,0,41,32,12,56,51,12,0,0,0,0,41,0,38,0,1,31,51,0,37,0,0,0,0,43,40,0,10,0,0,0,0,0,0,0,0,0,0,0,0,0,0,0,0,0,0,0,0],"split_type":[0,0,0,0,0,0,0,0,0,0,0,0,0,0,0,0,0,0,0,0,0,0,0,0,0,0,0,0,0,0,0,0,0,0,0,0,0,0,0,0,0,0,0,0,0,0,0,0,0,0,0,0,0,0,0,0,0],"sum_hessian":[4.41E2,4.17E2,2.4E1,1.39E2,2.78E2,2E0,2.2E1,1.33E2,6E0,7E0,2.71E2,1.4E1,8E0,1.19E2,1.4E1,5E0,1E0,4E0,3E0,3E0,2.68E2,4E0,1E1,5E0,3E0,9.8E1,2.1E1,3E0,1.1E1,4E0,1E0,3E0,1E0,2.1E1,2.47E2,4E0,6E0,2E0,3E0,1E0,2E0,9.5E1,3E0,1.5E1,6E0,2E0,9E0,2E0,1E0,1.3E1,8E0,3.5E1,2.12E2,2E0,4E0,1E0,1E0],"tree_param":{"num_deleted":"0","num_feature":"60","num_nodes":"57","size_leaf_vector":"0"}},{"base_weights":[7.5351115E-4,3.1838936E-4,9.6321106E-2,4.8914994E-3,-9.864946E-3,3.4178433E-5,1.4817905E-1,-1.2738164E-1,1.4054131E-3,2.3431983E-3,-9.56301E-2,5.128975E-2,2.0422363E-1,-1.8500774E-1,-5.9790473E-2,2.3297882E-1,-4.2085033E-3,-3.370223E-4,1.10748835E-1,-4.0944416E-2,-1.0931549E-1,1.3542175E-3,6.343508E-2,-5.177307E-2,-2.0130005E-1,-1.9902801E-2,-1.06339775E-1,-5.715561E-2,1.4514417E-3,-1.6137509E-3,1.8048859E-1,1.7343521E-1,2.0375252E-2,8.747101E-3,-2.9252052E-2,-3.979274E-3,-1.0966873E-1,5.9982523E-2,-8.821546E-3],"categories":[],"categories_nodes":[],"categories_segments":[],"categories_sizes":[],"default_left":[1,1,0,1,1,1,1,1,1,1,1,1,0,1,1,0,1,1,1,0,0,0,0,0,0,1,0,1,1,0,0,0,0,0,0,0,0,0,0],"id":56,"left_children":[1,3,-1,5,7,9,11,13,15,17,19,21,-1,23,25,-1,27,29,31,-1,-1,-1,-1,-1,-1,33,-1,35,37,-1,-1,-1,-1,-1,-1,-1,-1,-1,-1],"loss_changes":[1.8349258E-2,2.058541E-2,0E0,2.12273E-1,1.8162942E-1,6.560774E-2,4.3826625E-2,3.5678476E-2,1.6478473E-1,8.429712E-2,7.6290965E-4,2.9465128E-3,0E0,2.602294E-3,1.0880742E-2,0E0,3.724299E-2,6.5856986E-2,3.612256E-2,0E0,0E0,0E0,0E0,0E0,0E0,1.5951463E-3,0E0,3.307306E-2,6.847481E-2,0E0,0E0,0E0,0E0,0E0,0E0,0E0,0E0,0E0,0E0],"parents":[2147483647,0,0,1,1,3,3,4,4,5,5,6,6,7,7,8,8,9,9,10,10,11,11,13,13,14,14,16,16,17,17,18,18,25,25,27,27,28,28],"right_children":[2,4,-1,6,8,10,12,14,16,18,20,22,-1,24,26,-1,28,30,32,-1,-1,-1,-1,-1,-1,34,-1,36,38,-1,-1,-1,-1,-1,-1,-1,-1,-1,-1],"split_conditions":[2.5335E2,9.583E1,2.8896334E-2,9.2509995E1,1.00165E2,9.922E1,9.4825E1,9.7445E1,8.694E1,9.3145E1,9.169E1,9.9455E1,6.1267093E-2,8.987E1,9.894501E1,6.989365E-2,5.1550003E1,1.8945999E2,9.2119995E1,-1.2283325E-2,-3.279465E-2,4.062653E-4,1.9030524E-2,-1.5531922E-2,-6.0390018E-2,9.9020004E1,-3.1901933E-2,1.06725006E2,8.7494995E1,-4.841253E-4,5.4146577E-2,5.2030567E-2,6.112576E-3,2.6241303E-3,-8.775616E-3,-1.1937823E-3,-3.290062E-2,1.7994758E-2,-2.646464E-3],"split_indices":[21,7,0,7,7,2,11,6,14,2,4,0,0,5,7,0,46,35,5,0,0,0,0,0,0,6,0,6,59,0,0,0,0,0,0,0,0,0,0],"split_type":[0,0,0,0,0,0,0,0,0,0,0,0,0,0,0,0,0,0,0,0,0,0,0,0,0,0,0,0,0,0,0,0,0,0,0,0,0,0,0],"sum_hessian":[4.41E2,4.4E2,1E0,3.04E2,1.36E2,2.95E2,9E0,1.1E1,1.25E2,2.89E2,6E0,4E0,5E0,5E0,6E0,2E0,1.23E2,2.83E2,6E0,2E0,4E0,1E0,3E0,1E0,4E0,4E0,2E0,1.1E1,1.12E2,2.82E2,1E0,3E0,3E0,1E0,3E0,6E0,5E0,1.6E1,9.6E1],"tree_param":{"num_deleted":"0","num_feature":"60","num_nodes":"39","size_leaf_vector":"0"}},{"base_weights":[7.836754E-4,1.5035142E-4,7.009506E-2,7.961748E-4,-7.028198E-2,1.1985779E-2,8.546957E-2,-1.0645603E-3,2.21453E-2,-1.2237549E-2,-8.555094E-2,2.4894674E-3,-2.732738E-2,1.3921611E-1,1.0831429E-2,-1.5087819E-4,8.507399E-2,-7.270005E-2,-2.3691654E-3,-3.693598E-2,3.3205777E-2,3.4749345E-3,-4.477046E-2,1.5329131E-1,2.41939E-2,-1.2160577E-1,-1.5716553E-2,1.5341187E-1,-1.234313E-2,-1.0694504E-1,2.6855469E-3,4.0267218E-2,-2.7292887E-2],"categories":[],"categories_nodes":[],"categories_segments":[],"categories_sizes":[],"default_left":[1,1,1,1,1,0,0,1,1,0,0,1,1,0,1,1,1,1,1,1,1,0,0,0,0,0,0,0,0,0,0,0,0],"id":57,"left_children":[1,3,5,7,9,-1,-1,11,13,-1,-1,15,17,-1,19,21,23,25,27,29,31,-1,-1,-1,-1,-1,-1,-1,-1,-1,-1,-1,-1],"loss_changes":[1.9391743E-2,2.0024681E-2,2.5491863E-3,1.7343704E-2,2.4981797E-3,0E0,0E0,3.759022E-2,4.485043E-2,0E0,0E0,7.742118E-2,5.4183964E-2,0E0,3.6495723E-2,5.597045E-2,4.197514E-2,4.5464687E-2,5.1613722E-2,3.0799728E-2,1.0924783E-2,0E0,0E0,0E0,0E0,0E0,0E0,0E0,0E0,0E0,0E0,0E0,0E0],"parents":[2147483647,0,0,1,1,2,2,3,3,4,4,7,7,8,8,11,11,12,12,14,14,15,15,16,16,17,17,18,18,19,19,20,20],"right_children":[2,4,6,8,10,-1,-1,12,14,-1,-1,16,18,-1,20,22,24,26,28,30,32,-1,-1,-1,-1,-1,-1,-1,-1,-1,-1,-1,-1],"split_conditions":[2.43055E2,2.3989499E2,1.3738501E2,1.8534E2,1.28245E2,3.5957338E-3,2.5640871E-2,1.4051001E2,1.6976001E2,-3.6712647E-3,-2.5665283E-2,1.33645E2,1.57815E2,4.1764833E-2,1.5645E2,1.0205E2,8.6805E1,1.6098999E2,1.58825E2,1.96545E2,2.4897E2,1.0424803E-3,-1.3431138E-2,4.5987397E-2,7.2581703E-3,-3.648173E-2,-4.714966E-3,4.6023563E-2,-3.7029393E-3,-3.208351E-2,8.056641E-4,1.2080166E-2,-8.187867E-3],"split_indices":[45,46,2,51,0,0,0,42,55,0,0,42,42,0,5,43,9,20,42,56,27,0,0,0,0,0,0,0,0,0,0,0,0],"split_type":[0,0,0,0,0,0,0,0,0,0,0,0,0,0,0,0,0,0,0,0,0,0,0,0,0,0,0,0,0,0,0,0,0],"sum_hessian":[4.41E2,4.38E2,3E0,4.35E2,3E0,1E0,2E0,4.01E2,3.4E1,1E0,2E0,3.54E2,4.7E1,2E0,3.2E1,3.44E2,1E1,1.6E1,3.1E1,1E1,2.2E1,3.19E2,2.5E1,4E0,6E0,8E0,8E0,1E0,3E1,3E0,7E0,2E1,2E0],"tree_param":{"num_deleted":"0","num_feature":"60","num_nodes":"33","size_leaf_vector":"0"}},{"base_weights":[6.758374E-4,3.397779E-2,-3.3253763E-4,-1.16330385E-2,6.393869E-2,-1.5545042E-2,2.9251606E-3,4.6291826E-3,-4.6472073E-2,9.49018E-2,2.6380468E-2,9.676576E-3,-2.5999712E-2,8.7593E-2,1.4653543E-3,-1.5878677E-3,1.47486925E-2,3.5021394E-2,-4.0916204E-3,-3.3985197E-3,7.263291E-2,5.03606E-2,-2.990512E-2,1.4105755E-1,-1.2890737E-2,-2.7067501E-2,3.743474E-3,-2.0850499E-3,-4.8160553E-5,7.3253736E-3,-3.7035275E-2,5.2866817E-2,-3.2564703E-2,4.058957E-3,-9.76094E-2,4.8403673E-2,-4.6534828E-4,2.787587E-2,-1.1755665E-2,-1.4632225E-2,-4.709323E-2,9.394348E-3,-3.538286E-2,-2.018137E-2,4.849686E-2,-1.273017E-1,-5.6883493E-3,1.7276049E-2,1.8813553E-1,-5.2716088E-2,2.6861692E-3],"categories":[],"categories_nodes":[],"categories_segments":[],"categories_sizes":[],"default_left":[1,1,1,1,1,1,1,1,0,0,1,1,1,1,1,1,0,0,0,1,0,0,1,0,0,1,1,0,0,1,1,0,1,1,1,1,1,0,0,0,0,0,0,0,0,0,0,0,0,0,0],"id":58,"left_children":[1,3,5,7,9,11,13,15,-1,-1,17,19,21,23,25,27,-1,-1,-1,29,-1,-1,31,-1,-1,33,35,-1,-1,37,39,-1,41,43,45,47,49,-1,-1,-1,-1,-1,-1,-1,-1,-1,-1,-1,-1,-1,-1],"loss_changes":[1.4854038E-2,1.850884E-2,2.1355305E-2,3.6144883E-3,6.7997985E-3,2.029155E-2,4.3749165E-2,3.379865E-4,0E0,0E0,1.4598297E-3,1.9179527E-2,1.760982E-2,3.4052238E-2,2.2851767E-2,2.9616422E-6,0E0,0E0,0E0,7.4856365E-3,0E0,0E0,1.31688155E-2,0E0,0E0,5.7484895E-2,6.111174E-2,0E0,0E0,6.601697E-3,4.3756608E-4,0E0,6.3630044E-3,2.144533E-2,2.1110639E-2,1.1853634E-1,4.9213E-2,0E0,0E0,0E0,0E0,0E0,0E0,0E0,0E0,0E0,0E0,0E0,0E0,0E0,0E0],"parents":[2147483647,0,0,1,1,2,2,3,3,4,4,5,5,6,6,7,7,10,10,11,11,12,12,13,13,14,14,15,15,19,19,22,22,25,25,26,26,29,29,30,30,32,32,33,33,34,34,35,35,36,36],"right_children":[2,4,6,8,10,12,14,16,-1,-1,18,20,22,24,26,28,-1,-1,-1,30,-1,-1,32,-1,-1,34,36,-1,-1,38,40,-1,42,44,46,48,50,-1,-1,-1,-1,-1,-1,-1,-1,-1,-1,-1,-1,-1,-1],"split_conditions":[1.5042E0,1.51225E0,3.12155E0,1.6392E0,1.8210001E0,1.7062E0,3.1058E0,1.4939001E0,-1.3941622E-2,2.847054E-2,2.148E0,3.8068E0,1.38095E0,3.4706001E0,1.42029E1,1.39965E0,4.424608E-3,1.05064185E-2,-1.2274862E-3,3.5764499E0,2.1789873E-2,1.5108181E-2,1.39595E0,4.2317268E-2,-3.867221E-3,1.301475E1,1.4009E1,-6.25515E-4,-1.4448166E-5,1.8859E0,1.66115E0,1.5860045E-2,1.3687999E0,2.2427502E0,8.79785E0,2.7672249E1,2.362475E1,8.362762E-3,-3.5266995E-3,-4.389668E-3,-1.412797E-2,2.8183043E-3,-1.0614858E-2,-6.0544116E-3,1.4549059E-2,-3.819051E-2,-1.7065048E-3,5.182815E-3,5.6440663E-2,-1.5814828E-2,8.058508E-4],"split_indices":[0,4,2,2,7,14,1,1,0,0,7,43,35,11,52,1,0,0,0,41,0,0,32,0,0,52,6,0,0,3,0,0,43,58,20,47,14,0,0,0,0,0,0,0,0,0,0,0,0,0,0],"split_type":[0,0,0,0,0,0,0,0,0,0,0,0,0,0,0,0,0,0,0,0,0,0,0,0,0,0,0,0,0,0,0,0,0,0,0,0,0,0,0,0,0,0,0,0,0,0,0,0,0,0,0],"sum_hessian":[4.41E2,1.2E1,4.29E2,5E0,7E0,7.5E1,3.54E2,4E0,1E0,3E0,4E0,2.2E1,5.3E1,5E0,3.49E2,3E0,1E0,3E0,1E0,1.9E1,3E0,2E0,5.1E1,3E0,2E0,2.5E1,3.24E2,2E0,1E0,1.5E1,4E0,1E0,5E1,1.8E1,7E0,2.7E1,2.97E2,7E0,8E0,2E0,2E0,3E0,4.7E1,1.2E1,6E0,5E0,2E0,2.3E1,4E0,1.6E1,2.81E2],"tree_param":{"num_deleted":"0","num_feature":"60","num_nodes":"51","size_leaf_vector":"0"}},{"base_weights":[7.267756E-4,6.4860154E-3,-5.329123E-3,-8.241844E-4,6.835246E-2,-7.120037E-2,-7.6002674E-4,3.809867E-3,-3.9333604E-2,1.2711126E-1,1.7302513E-2,3.473854E-2,-1.0325085E-1,8.610344E-2,-3.3884144E-3,-1.0815377E-3,8.039197E-2,-6.0602188E-2,7.1525574E-2,1.7219517E-1,3.8571548E-2,-6.736692E-2,7.18263E-2,-1.19862236E-1,-1.8999735E-2,4.271189E-3,1.2595177E-1,-1.2582715E-1,-1.4970644E-3,2.366693E-3,-7.249713E-2,1.2311935E-2,1.3507335E-1,-7.849203E-2,-8.7588625E-3,1.15229286E-1,-2.9792786E-2,1.9990197E-1,6.8618774E-2,-1.7486572E-2,5.695772E-2,-8.520794E-2,-2.1123251E-2,9.763718E-3,1.1952362E-1,-3.3020657E-2,-1.3995688E-1,1.864338E-2,-1.2236595E-2,5.5921935E-2,-4.5595933E-3,-1.2756917E-3,1.1990662E-1,-1.04044914E-1,-3.2759476E-2,5.5706024E-2,-2.3311615E-2,1.4738922E-1,3.674698E-2,-8.894571E-2,-1.0513306E-2,-1.8876553E-2,7.651011E-3,4.5272827E-2,-2.8999964E-2,-8.014679E-3,1.5341187E-1,-3.992462E-2,-1.4997482E-1,-2.2425333E-2,7.831192E-2,-8.7534584E-2,-1.7991014E-3],"categories":[],"categories_nodes":[],"categories_segments":[],"categories_sizes":[],"default_left":[1,1,1,1,1,1,1,1,1,1,1,0,1,1,1,1,1,1,1,1,1,1,1,1,0,1,0,0,1,1,1,1,1,1,1,0,0,0,0,0,0,0,0,1,1,0,1,0,0,1,1,0,0,0,0,0,0,0,0,0,0,0,0,0,0,0,0,0,0,0,0,0,0],"id":59,"left_children":[1,3,5,7,9,11,13,15,17,19,21,-1,23,25,27,29,31,33,35,37,39,41,43,45,-1,47,-1,-1,49,51,53,55,57,59,61,-1,-1,-1,-1,-1,-1,-1,-1,63,65,-1,67,-1,-1,69,71,-1,-1,-1,-1,-1,-1,-1,-1,-1,-1,-1,-1,-1,-1,-1,-1,-1,-1,-1,-1,-1,-1],"loss_changes":[1.5450364E-2,1.0271846E-1,6.495586E-2,3.65546E-2,6.979186E-2,5.1122293E-2,4.6638858E-2,6.863766E-2,5.62066E-2,3.7267044E-2,6.946968E-2,0E0,1.3117455E-2,1.9027308E-2,4.5663387E-2,4.2774115E-2,3.9286792E-2,1.6934402E-2,2.1144956E-2,6.371379E-3,6.149467E-3,3.1503364E-3,2.5474973E-2,1.108399E-2,0E0,9.398905E-4,0E0,0E0,3.4721065E-2,7.122182E-2,6.620623E-3,1.0573707E-2,1.8497407E-3,9.013675E-3,1.1406048E-3,0E0,0E0,0E0,0E0,0E0,0E0,0E0,0E0,8.19523E-3,2.2839792E-2,0E0,1.027137E-3,0E0,0E0,1.929811E-2,4.2675205E-2,0E0,0E0,0E0,0E0,0E0,0E0,0E0,0E0,0E0,0E0,0E0,0E0,0E0,0E0,0E0,0E0,0E0,0E0,0E0,0E0,0E0,0E0],"parents":[2147483647,0,0,1,1,2,2,3,3,4,4,5,5,6,6,7,7,8,8,9,9,10,10,12,12,13,13,14,14,15,15,16,16,17,17,18,18,19,19,20,20,21,21,22,22,23,23,25,25,28,28,29,29,30,30,31,31,32,32,33,33,34,34,43,43,44,44,46,46,49,49,50,50],"right_children":[2,4,6,8,10,12,14,16,18,20,22,-1,24,26,28,30,32,34,36,38,40,42,44,46,-1,48,-1,-1,50,52,54,56,58,60,62,-1,-1,-1,-1,-1,-1,-1,-1,64,66,-1,68,-1,-1,70,72,-1,-1,-1,-1,-1,-1,-1,-1,-1,-1,-1,-1,-1,-1,-1,-1,-1,-1,-1,-1,-1,-1],"split_conditions":[3.6907E1,3.26517E1,4.10755E1,2.741935E1,3.36205E1,3.19375E1,2.9115501E1,3.4135002E1,1.6672E2,4.0163498E1,2.8382E1,1.0421563E-2,4.3988503E1,4.36585E1,2.9095001E1,4.5295998E1,4.1869003E1,3.13255E1,3.02505E1,3.30715E1,3.8626E1,3.4362E1,3.5088997E1,3.45885E1,-5.6999205E-3,5.1691E1,3.778553E-2,-3.7748147E-2,4.3017998E1,4.5295998E1,1.5398701E1,3.6755E1,2.7775349E1,3.40795E1,3.6817E1,3.4568787E-2,-8.937836E-3,5.997059E-2,2.0585634E-2,-5.245972E-3,1.7087318E-2,-2.5562383E-2,-6.3369754E-3,3.44635E1,3.4502E1,-9.906197E-3,3.8126503E1,5.593014E-3,-3.6709786E-3,3.23235E1,3.2448997E1,-3.827075E-4,3.5971988E-2,-3.1213475E-2,-9.827843E-3,1.6711809E-2,-6.9934847E-3,4.4216767E-2,1.1024094E-2,-2.6683714E-2,-3.153992E-3,-5.662966E-3,2.2953034E-3,1.3581849E-2,-8.69999E-3,-2.4044039E-3,4.6023563E-2,-1.1977387E-2,-4.4992447E-2,-6.7276E-3,2.3493577E-2,-2.6260376E-2,-5.397304E-4],"split_indices":[0,1,2,1,0,26,58,15,56,12,19,0,5,4,57,55,27,0,0,0,9,0,0,6,0,0,0,0,2,50,4,20,2,4,29,0,0,0,0,0,0,0,0,1,1,0,0,0,0,23,44,0,0,0,0,0,0,0,0,0,0,0,0,0,0,0,0,0,0,0,0,0,0],"split_type":[0,0,0,0,0,0,0,0,0,0,0,0,0,0,0,0,0,0,0,0,0,0,0,0,0,0,0,0,0,0,0,0,0,0,0,0,0,0,0,0,0,0,0,0,0,0,0,0,0,0,0,0,0,0,0,0,0,0,0,0,0,0,0,0,0,0,0,0,0,0,0,0,0],"sum_hessian":[4.41E2,2.26E2,2.15E2,2.03E2,2.3E1,1.3E1,2.02E2,1.82E2,2.1E1,1E1,1.3E1,3E0,1E1,5E0,1.97E2,1.72E2,1E1,1.8E1,3E0,6E0,4E0,5E0,8E0,8E0,2E0,2E0,3E0,2E0,1.95E2,1.65E2,7E0,5E0,5E0,1.3E1,5E0,2E0,1E0,4E0,2E0,1E0,3E0,3E0,2E0,4E0,4E0,2E0,6E0,1E0,1E0,9E0,1.86E2,1.61E2,4E0,3E0,4E0,2E0,3E0,4E0,1E0,1.1E1,2E0,3E0,2E0,2E0,2E0,1E0,3E0,1E0,5E0,2E0,7E0,5E0,1.81E2],"tree_param":{"num_deleted":"0","num_feature":"60","num_nodes":"73","size_leaf_vector":"0"}},{"base_weights":[7.132947E-4,1.1643824E-3,-6.5684E-2,4.989535E-4,5.895691E-2,4.445724E-3,-7.2905873E-3,1.0047913E-2,6.867218E-2,2.037859E-3,1.4128646E-1,-8.7418236E-2,-1.66893E-4,7.4371474E-4,9.30891E-2,-1.3691013E-1,-3.2508306E-2,-1.0286713E-1,4.5382082E-3,3.791465E-3,-3.7461143E-2,3.1173706E-2,1.3941765E-1,2.82046E-2,-6.2434386E-2,-1.450386E-1,-1.2349446E-2,6.609023E-2,-5.851408E-3],"categories":[],"categories_nodes":[],"categories_segments":[],"categories_sizes":[],"default_left":[1,1,0,1,1,1,1,0,0,1,0,1,1,1,1,0,1,1,1,0,0,0,0,0,0,0,0,0,0],"id":60,"left_children":[1,3,-1,5,7,9,11,-1,-1,13,-1,15,17,19,21,-1,23,25,27,-1,-1,-1,-1,-1,-1,-1,-1,-1,-1],"loss_changes":[1.3314825E-2,1.6891584E-2,0E0,1.3436592E-2,1.6858093E-3,9.526536E-2,8.3893724E-2,0E0,0E0,3.3631135E-2,0E0,2.8160438E-2,6.618408E-2,3.3094235E-2,7.127639E-3,0E0,1.4479235E-2,2.1112435E-2,8.4161475E-2,0E0,0E0,0E0,0E0,0E0,0E0,0E0,0E0,0E0,0E0],"parents":[2147483647,0,0,1,1,3,3,4,4,5,5,6,6,9,9,11,11,12,12,13,13,14,14,16,16,17,17,18,18],"right_children":[2,4,-1,6,8,10,12,-1,-1,14,-1,16,18,20,22,-1,24,26,28,-1,-1,-1,-1,-1,-1,-1,-1,-1,-1],"split_conditions":[2.4522E2,2.3842E2,-1.97052E-2,8.9655E1,1.3738501E2,1.05229996E2,8.513E1,3.0143738E-3,2.0601654E-2,1.0705E2,4.238594E-2,1.16415E2,9.1634995E1,8.843E1,1.0197E2,-4.107304E-2,1.01015E2,9.9115005E1,1.01384995E2,1.1374395E-3,-1.1238343E-2,9.352112E-3,4.1825294E-2,8.46138E-3,-1.8730316E-2,-4.3511584E-2,-3.704834E-3,1.9827072E-2,-1.7554224E-3],"split_indices":[40,45,0,25,2,0,33,0,0,3,0,1,25,5,0,0,14,21,25,0,0,0,0,0,0,0,0,0,0],"split_type":[0,0,0,0,0,0,0,0,0,0,0,0,0,0,0,0,0,0,0,0,0,0,0,0,0,0,0,0,0],"sum_hessian":[4.41E2,4.39E2,2E0,4.35E2,4E0,2.89E2,1.46E2,1E0,3E0,2.85E2,4E0,1.1E1,1.35E2,2.82E2,3E0,5E0,6E0,5E0,1.3E2,2.62E2,2E1,2E0,1E0,2E0,4E0,3E0,2E0,1.8E1,1.12E2],"tree_param":{"num_deleted":"0","num_feature":"60","num_nodes":"29","size_leaf_vector":"0"}},{"base_weights":[5.144989E-4,8.540232E-4,-7.460785E-2,-1.0073294E-3,1.9038131E-2,-2.4481365E-4,-7.6625824E-2,7.4624196E-2,7.3769707E-3,1.4948911E-3,-2.7417501E-2,3.0975342E-3,-1.0423279E-1,9.27124E-2,1.9602457E-2,3.453064E-2,-1.0237954E-2,-8.1115356E-4,3.8533296E-2,-1.0569509E-1,-1.2552362E-3,-3.9311726E-2,5.0113678E-2,7.2418214E-3,-4.1732788E-2,7.7979267E-4,-5.049064E-2,1.222496E-1,1.8880744E-2,-4.6798706E-2,-1.489919E-1,-6.5460205E-2,1.014889E-2,1.8287659E-2,7.023402E-2,2.0158248E-2,-2.262268E-2,-9.530639E-3,-7.155228E-2],"categories":[],"categories_nodes":[],"categories_segments":[],"categories_sizes":[],"default_left":[1,1,0,1,1,1,1,1,1,1,1,0,0,0,0,1,1,1,1,1,1,0,1,1,1,0,0,0,0,0,0,0,0,0,0,0,0,0,0],"id":61,"left_children":[1,3,-1,5,7,9,11,13,15,17,19,-1,-1,-1,-1,21,23,25,27,29,31,-1,33,35,37,-1,-1,-1,-1,-1,-1,-1,-1,-1,-1,-1,-1,-1,-1],"loss_changes":[1.1337307E-2,1.494572E-2,0E0,2.3103021E-2,2.602562E-2,1.8855423E-2,9.126542E-3,5.14932E-3,1.7094368E-2,3.206084E-2,4.901738E-2,0E0,0E0,0E0,0E0,1.8079694E-2,1.2413719E-2,2.8018609E-2,3.3887103E-2,8.327529E-3,1.4576178E-2,0E0,6.3997936E-3,6.2421733E-3,7.000074E-3,0E0,0E0,0E0,0E0,0E0,0E0,0E0,0E0,0E0,0E0,0E0,0E0,0E0,0E0],"parents":[2147483647,0,0,1,1,3,3,4,4,5,5,6,6,7,7,8,8,9,9,10,10,15,15,16,16,17,17,18,18,19,19,20,20,22,22,23,23,24,24],"right_children":[2,4,-1,6,8,10,12,14,16,18,20,-1,-1,-1,-1,22,24,26,28,30,32,-1,34,36,38,-1,-1,-1,-1,-1,-1,-1,-1,-1,-1,-1,-1,-1,-1],"split_conditions":[2.5335E2,1.7978E2,-2.2382356E-2,1.9673999E2,1.9043E2,1.6835E2,9.2100006E1,1.8842499E2,1.5645E2,1.41295E2,1.54065E2,9.292603E-4,-3.1269837E-2,2.7813721E-2,5.880737E-3,1.2853E2,2.18285E2,1.3387E2,1.35995E2,4.9114E1,3.3636E1,-1.1793518E-2,1.51115E2,1.5117001E2,1.5954999E2,2.3393781E-4,-1.5147192E-2,3.6674883E-2,5.6642233E-3,-1.4039612E-2,-4.469757E-2,-1.9638062E-2,3.0446672E-3,5.486298E-3,2.1070208E-2,6.0474747E-3,-6.786804E-3,-2.859192E-3,-2.1465683E-2],"split_indices":[36,53,0,58,52,46,0,56,10,45,50,0,0,0,0,3,38,49,35,0,7,0,12,1,6,0,0,0,0,0,0,0,0,0,0,0,0,0,0],"split_type":[0,0,0,0,0,0,0,0,0,0,0,0,0,0,0,0,0,0,0,0,0,0,0,0,0,0,0,0,0,0,0,0,0,0,0,0,0,0,0],"sum_hessian":[4.41E2,4.4E2,1E0,4E2,4E1,3.97E2,3E0,6E0,3.4E1,3.74E2,2.3E1,1E0,2E0,4E0,2E0,1.3E1,2.1E1,3.53E2,2.1E1,5E0,1.8E1,2E0,1.1E1,1.4E1,7E0,3.43E2,1E1,3E0,1.8E1,3E0,2E0,2E0,1.6E1,5E0,6E0,1E1,4E0,4E0,3E0],"tree_param":{"num_deleted":"0","num_feature":"60","num_nodes":"39","size_leaf_vector":"0"}},{"base_weights":[1.8519649E-4,-2.8895771E-2,8.563847E-4,-4.559648E-2,7.554412E-3,4.4851177E-3,-5.813748E-3,-5.7082485E-2,-1.1254311E-2,-1.1249304E-2,1.7572084E-2,9.057E-4,6.0018092E-2,-4.0150598E-2,7.1144784E-3,-1.1654973E-2,-6.552562E-2,3.8349638E-3,-3.1623665E-2,1.7152786E-1,2.387115E-2,-1.8282255E-2,-1.4688055E-1,8.486616E-2,-3.0643845E-3,1.5464621E-3,4.4380922E-2,6.7801476E-2,-6.485468E-2,-4.459858E-2,6.686529E-2,1.1012522E-1,-2.9074613E-2,-7.426739E-2,-1.8277359E-1,1.6590214E-1,4.396515E-2,-7.6216124E-2,7.7752274E-4,4.1565555E-3,-3.6489997E-2,1.5635172E-2,6.039262E-2,9.244919E-2,3.2365322E-2,-1.4200449E-1,-3.8179398E-2,-4.965477E-2,-9.6588135E-3,-2.048111E-2,8.034372E-2,-6.756711E-2,4.8703644E-3,6.2447548E-2,-1.9976297E-2,-9.4324745E-2,-3.270213E-2,9.424591E-2,-1.1984173E-3],"categories":[],"categories_nodes":[],"categories_segments":[],"categories_sizes":[],"default_left":[1,1,1,1,1,1,1,1,0,0,0,1,1,1,1,0,0,1,1,0,1,1,1,1,1,1,1,1,1,1,1,0,1,0,0,0,1,1,1,0,0,0,0,0,0,0,0,0,0,0,0,0,0,0,0,0,0,0,0],"id":62,"left_children":[1,3,5,7,9,11,13,15,-1,-1,-1,17,19,21,23,-1,-1,25,27,-1,29,31,33,35,37,39,41,43,45,47,49,-1,51,-1,-1,-1,53,55,57,-1,-1,-1,-1,-1,-1,-1,-1,-1,-1,-1,-1,-1,-1,-1,-1,-1,-1,-1,-1],"loss_changes":[8.652057E-3,6.4318934E-3,1.0506464E-2,2.1187551E-3,9.5115165E-4,5.5801615E-2,6.8204574E-2,1.154054E-3,0E0,0E0,0E0,2.5372356E-2,6.4427964E-2,9.534301E-2,8.889952E-2,0E0,0E0,2.2572003E-2,7.7085204E-2,0E0,4.419525E-2,5.309135E-2,4.670039E-3,3.5793982E-2,2.816348E-2,2.3184333E-2,5.0392374E-3,2.248371E-3,2.956424E-2,5.8036763E-4,1.2241162E-2,0E0,4.475439E-2,0E0,0E0,0E0,1.3065387E-2,8.5527264E-4,1.7842986E-2,0E0,0E0,0E0,0E0,0E0,0E0,0E0,0E0,0E0,0E0,0E0,0E0,0E0,0E0,0E0,0E0,0E0,0E0,0E0,0E0],"parents":[2147483647,0,0,1,1,2,2,3,3,4,4,5,5,6,6,7,7,11,11,12,12,13,13,14,14,17,17,18,18,20,20,21,21,22,22,23,23,24,24,25,25,26,26,27,27,28,28,29,29,30,30,32,32,36,36,37,37,38,38],"right_children":[2,4,6,8,10,12,14,16,-1,-1,-1,18,20,22,24,-1,-1,26,28,-1,30,32,34,36,38,40,42,44,46,48,50,-1,52,-1,-1,-1,54,56,58,-1,-1,-1,-1,-1,-1,-1,-1,-1,-1,-1,-1,-1,-1,-1,-1,-1,-1,-1,-1],"split_conditions":[1.4906E0,2.2312E0,8.9655E1,2.4103498E0,2.0304E0,8.374E1,1.0039E2,1.9626E0,-3.3762932E-3,-3.3747912E-3,5.2716257E-3,4.6873497E1,8.3695E1,9.591499E1,9.907E1,-3.496492E-3,-1.9657686E-2,4.3338997E1,3.4025E1,5.1458362E-2,8.4545E1,5.1550003E1,1.05229996E2,1.0046E2,9.3405E1,3.9711E1,4.3953E1,9.8795E1,3.86025E1,1.0378999E2,9.0425E1,3.303757E-2,8.778E1,-2.2280216E-2,-5.483208E-2,4.9770642E-2,9.5399994E1,1.8017E2,3.8148003E1,1.2469667E-3,-1.0946999E-2,4.6905517E-3,1.8117785E-2,2.7734758E-2,9.709597E-3,-4.2601347E-2,-1.1453819E-2,-1.4896432E-2,-2.8976442E-3,-6.144333E-3,2.4103118E-2,-2.0270133E-2,1.4611094E-3,1.8734265E-2,-5.9928894E-3,-2.8297424E-2,-9.81064E-3,2.8273774E-2,-3.595252E-4],"split_indices":[29,41,25,0,0,19,38,1,0,0,0,9,20,37,44,0,0,11,53,0,22,43,22,32,48,13,20,2,35,1,0,0,37,0,0,0,47,0,4,0,0,0,0,0,0,0,0,0,0,0,0,0,0,0,0,0,0,0,0],"split_type":[0,0,0,0,0,0,0,0,0,0,0,0,0,0,0,0,0,0,0,0,0,0,0,0,0,0,0,0,0,0,0,0,0,0,0,0,0,0,0,0,0,0,0,0,0,0,0,0,0,0,0,0,0,0,0,0,0,0,0],"sum_hessian":[4.41E2,9E0,4.32E2,6E0,3E0,2.8E2,1.52E2,4E0,2E0,1E0,2E0,2.64E2,1.6E1,4.1E1,1.11E2,1E0,3E0,2.43E2,2.1E1,3E0,1.3E1,3.5E1,6E0,1.2E1,9.9E1,2.31E2,1.2E1,5E0,1.6E1,5E0,8E0,2E0,3.3E1,3E0,3E0,3E0,9E0,4E0,9.5E1,2.17E2,1.4E1,5E0,7E0,2E0,3E0,3E0,1.3E1,4E0,1E0,1E0,7E0,1.5E1,1.8E1,7E0,2E0,2E0,2E0,1E0,9.4E1],"tree_param":{"num_deleted":"0","num_feature":"60","num_nodes":"59","size_leaf_vector":"0"}},{"base_weights":[1.595824E-4,4.4671263E-4,-6.323242E-2,-2.7787636E-3,7.050297E-3,5.809734E-4,-4.4801887E-2,1.5728378E-1,2.768718E-3,-1.8811501E-3,8.329725E-2,-8.81813E-2,-7.986803E-3,1.8033855E-1,4.4059753E-2,-5.2896287E-2,6.48675E-3,1.9257662E-3,-2.5803592E-2,1.21586606E-1,1.4611244E-2,1.1276245E-2,-1.1445522E-1,5.7144165E-2,-3.324051E-2,-8.346558E-3,-7.378006E-2,1.0433451E-1,1.8854067E-3,-3.1255523E-3,4.4077758E-2,2.192378E-2,-3.7670773E-2,2.83432E-2,-1.1428833E-2,-1.2444524E-1,-2.2262573E-2,-1.1227925E-2,-5.3007506E-2,-1.7974854E-2,1.0269165E-2,-1.1024094E-1,3.622651E-3],"categories":[],"categories_nodes":[],"categories_segments":[],"categories_sizes":[],"default_left":[1,1,0,1,1,1,1,1,1,1,1,1,1,0,0,1,1,1,1,0,0,1,1,0,1,1,0,0,1,0,0,0,0,0,0,0,0,0,0,0,0,0,0],"id":63,"left_children":[1,3,-1,5,7,9,11,13,15,17,19,21,23,-1,-1,25,27,29,31,-1,-1,33,35,-1,37,39,-1,-1,41,-1,-1,-1,-1,-1,-1,-1,-1,-1,-1,-1,-1,-1,-1],"loss_changes":[8.073425E-3,9.412762E-3,0E0,4.1958462E-2,9.283383E-2,5.6366216E-2,3.4430083E-2,2.495736E-3,2.9732056E-2,2.4547718E-2,1.9263014E-2,2.7422026E-2,2.328188E-2,0E0,0E0,7.757487E-3,6.013426E-2,4.974886E-2,2.178229E-2,0E0,0E0,1.4864494E-3,4.5975745E-3,0E0,3.756063E-3,9.015375E-4,0E0,0E0,2.5527384E-2,0E0,0E0,0E0,0E0,0E0,0E0,0E0,0E0,0E0,0E0,0E0,0E0,0E0,0E0],"parents":[2147483647,0,0,1,1,3,3,4,4,5,5,6,6,7,7,8,8,9,9,10,10,11,11,12,12,15,15,16,16,17,17,18,18,21,21,22,22,24,24,25,25,28,28],"right_children":[2,4,-1,6,8,10,12,14,16,18,20,22,24,-1,-1,26,28,30,32,-1,-1,34,36,-1,38,40,-1,-1,42,-1,-1,-1,-1,-1,-1,-1,-1,-1,-1,-1,-1,-1,-1],"split_conditions":[2.5335E2,9.445E1,-1.8969728E-2,8.461E1,3.3636E1,9.697E1,9.471E1,3.3025E1,7.52715E1,4.4195E1,1.32315E2,3.54765E1,9.457E1,5.4101568E-2,1.3217927E-2,7.2318E1,8.1165E1,3.96175E1,4.2668E1,3.6475983E-2,4.3833735E-3,3.4389E1,1.30695E2,1.714325E-2,9.6744995E1,2.94275E1,-2.2134019E-2,3.1300355E-2,8.1165E1,-9.3766575E-4,1.3223328E-2,6.5771346E-3,-1.13012325E-2,8.50296E-3,-3.42865E-3,-3.7333574E-2,-6.678772E-3,-3.3683777E-3,-1.5902253E-2,-5.3924564E-3,3.0807497E-3,-3.307228E-2,1.0867954E-3],"split_indices":[36,54,0,55,20,39,6,0,34,56,21,1,35,0,0,37,33,59,59,0,0,0,26,0,57,0,0,0,34,0,0,0,0,0,0,0,0,0,0,0,0,0,0],"split_type":[0,0,0,0,0,0,0,0,0,0,0,0,0,0,0,0,0,0,0,0,0,0,0,0,0,0,0,0,0,0,0,0,0,0,0,0,0,0,0,0,0,0,0],"sum_hessian":[4.41E2,4.4E2,1E0,2.96E2,1.44E2,2.75E2,2.1E1,3E0,1.41E2,2.68E2,7E0,9E0,1.2E1,2E0,1E0,8E0,1.33E2,2.32E2,3.6E1,4E0,3E0,2E0,7E0,3E0,9E0,3E0,5E0,5E0,1.28E2,2.08E2,2.4E1,7E0,2.9E1,1E0,1E0,6E0,1E0,5E0,4E0,2E0,1E0,1E0,1.27E2],"tree_param":{"num_deleted":"0","num_feature":"60","num_nodes":"43","size_leaf_vector":"0"}},{"base_weights":[1.8204661E-4,2.3941662E-2,-5.937498E-4,-1.0918002E-2,4.4521254E-2,-9.053731E-3,2.3877337E-3,2.9586554E-3,-4.0150642E-2,7.2574854E-2,1.8398643E-2,-1.6656485E-3,-4.295563E-2,5.0210427E-2,-8.190946E-4,-2.2453964E-3,1.1887431E-2,-4.126847E-3,2.372911E-2,-5.9960047E-3,9.618378E-2,-5.493326E-2,1.8688202E-2,8.388122E-3,1.0039457E-1,-7.629585E-2,2.0362879E-4,2.616784E-2,6.987095E-3,-3.370844E-3,-6.1594248E-2,-1.5061994E-2,-7.0291124E-2,-6.2129974E-2,2.8704738E-2,1.3101795E-1,-4.5248666E-3,3.563256E-2,-2.0828384E-3,-8.286018E-3,2.5245227E-2,-2.3658538E-2,1.39603615E-2,-2.4494806E-2,-7.70009E-2,5.2919768E-2,3.7414234E-3,4.6631496E-2,1.5544625E-1,9.584427E-4,-7.745743E-3,2.1661122E-3,1.5222359E-1,-7.906832E-2,-1.0122222E-4],"categories":[],"categories_nodes":[],"categories_segments":[],"categories_sizes":[],"default_left":[1,1,1,1,1,1,1,1,0,0,1,1,1,1,1,0,0,0,1,1,0,1,0,1,1,0,1,0,0,1,0,1,1,0,1,1,1,1,1,0,0,0,0,0,0,0,0,0,0,0,0,0,0,0,0],"id":64,"left_children":[1,3,5,7,9,11,13,15,-1,-1,17,19,21,23,25,-1,-1,-1,27,29,-1,31,-1,33,35,-1,37,-1,-1,39,-1,41,43,-1,45,47,49,51,53,-1,-1,-1,-1,-1,-1,-1,-1,-1,-1,-1,-1,-1,-1,-1,-1],"loss_changes":[8.161435E-3,1.0529649E-2,1.0842412E-2,2.5526998E-3,5.26022E-3,2.7981095E-2,4.880934E-2,2.5902104E-4,0E0,0E0,8.183548E-4,3.9982945E-2,1.5793543E-2,4.1134212E-2,2.3095898E-2,4.6911737E-8,0E0,0E0,2.1309126E-5,1.2928264E-2,0E0,9.351011E-3,0E0,1.8975694E-2,2.9509738E-2,0E0,2.4052313E-2,0E0,0E0,1.2445992E-2,0E0,1.8272334E-3,1.8012784E-3,0E0,5.8468794E-3,7.181227E-3,6.040703E-5,6.990424E-2,4.255503E-2,0E0,0E0,0E0,0E0,0E0,0E0,0E0,0E0,0E0,0E0,0E0,0E0,0E0,0E0,0E0,0E0],"parents":[2147483647,0,0,1,1,2,2,3,3,4,4,5,5,6,6,7,7,10,10,11,11,12,12,13,13,14,14,18,18,19,19,21,21,23,23,24,24,26,26,29,29,31,31,32,32,34,34,35,35,36,36,37,37,38,38],"right_children":[2,4,6,8,10,12,14,16,-1,-1,18,20,22,24,26,-1,-1,-1,28,30,-1,32,-1,34,36,-1,38,-1,-1,40,-1,42,44,-1,46,48,50,52,54,-1,-1,-1,-1,-1,-1,-1,-1,-1,-1,-1,-1,-1,-1,-1,-1],"split_conditions":[1.5260999E0,1.51225E0,1.41956005E1,1.6392E0,1.8210001E0,3.676E0,2.66865E1,1.4939001E0,-1.2045193E-2,2.1772457E-2,1.91355E0,8.72995E0,1.431195E1,1.37417E1,1.42033E1,-6.736189E-4,3.5662295E-3,-1.2380541E-3,1.4955E0,3.7424998E0,2.8855134E-2,1.33197E1,5.606461E-3,1.30337E1,4.1725E1,-2.2888757E-2,2.362475E1,7.850353E-3,2.0961287E-3,3.15055E0,-1.8478274E-2,3.52225E0,1.373495E1,-1.8638993E-2,1.466305E1,7.9490004E0,3.74505E1,4.66585E1,2.649835E1,-2.4858054E-3,7.5735683E-3,-7.097562E-3,4.1881087E-3,-7.348442E-3,-2.3100272E-2,1.5875932E-2,1.122427E-3,1.39894495E-2,4.6633877E-2,2.875328E-4,-2.323723E-3,6.498337E-4,4.566708E-2,-2.3720497E-2,-3.0366667E-5],"split_indices":[0,4,39,2,7,11,49,1,0,0,9,34,34,18,20,0,0,0,0,23,0,59,0,38,9,0,15,0,0,18,0,0,46,0,38,0,0,43,14,0,0,0,0,0,0,0,0,0,0,0,0,0,0,0,0],"split_type":[0,0,0,0,0,0,0,0,0,0,0,0,0,0,0,0,0,0,0,0,0,0,0,0,0,0,0,0,0,0,0,0,0,0,0,0,0,0,0,0,0,0,0,0,0,0,0,0,0,0,0,0,0,0,0],"sum_hessian":[4.41E2,1.3E1,4.28E2,5E0,8E0,1.11E2,3.17E2,4E0,1E0,3E0,5E0,9.2E1,1.9E1,1.9E1,2.98E2,3E0,1E0,1E0,4E0,8.9E1,3E0,1.6E1,3E0,1.1E1,8E0,3E0,2.95E2,3E0,1E0,8.6E1,3E0,5E0,1.1E1,2E0,9E0,6E0,2E0,1.7E1,2.78E2,7.4E1,1.2E1,4E0,1E0,2E0,9E0,4E0,5E0,2E0,4E0,1E0,1E0,1.4E1,3E0,6E0,2.72E2],"tree_param":{"num_deleted":"0","num_feature":"60","num_nodes":"55","size_leaf_vector":"0"}},{"base_weights":[2.7610434E-4,4.206729E-2,-1.0530987E-4,-3.8195472E-2,5.1070965E-4,-5.340764E-2,-1.343444E-2,1.3998536E-3,-1.7000107E-2,7.930885E-5,2.486593E-2,-7.842636E-2,-2.4053785E-3,1.580387E-3,-4.3804463E-2,7.092285E-2,1.3861003E-2,-9.244283E-2,-1.8188477E-2,-1.9974448E-2,2.2052765E-2,-9.3645527E-4,1.2739781E-2,-9.031983E-2,-1.3095432E-2,-2.836914E-2,2.7013652E-2,-3.5647802E-2,5.9631346E-3,3.1570435E-2,4.6424866E-3],"categories":[],"categories_nodes":[],"categories_segments":[],"categories_sizes":[],"default_left":[1,0,1,1,1,0,0,1,1,1,1,1,1,1,1,0,1,0,0,1,1,0,0,0,0,0,0,0,0,0,0],"id":65,"left_children":[1,-1,3,5,7,-1,-1,9,11,13,15,17,19,21,23,-1,25,-1,-1,27,29,-1,-1,-1,-1,-1,-1,-1,-1,-1,-1],"loss_changes":[7.0498004E-3,0E0,1.0320327E-2,1.9191811E-3,6.7654504E-3,0E0,0E0,1.2796073E-2,1.8637845E-2,2.589143E-2,1.0167706E-2,1.6958956E-3,8.175215E-3,1.0684776E-2,1.7386965E-2,0E0,1.131968E-2,0E0,0E0,4.6843905E-3,1.1790767E-3,0E0,0E0,0E0,0E0,0E0,0E0,0E0,0E0,0E0,0E0],"parents":[2147483647,0,0,2,2,3,3,4,4,7,7,8,8,9,9,10,10,11,11,12,12,13,13,14,14,16,16,19,19,20,20],"right_children":[2,-1,4,6,8,-1,-1,10,12,14,16,18,20,22,24,-1,26,-1,-1,28,30,-1,-1,-1,-1,-1,-1,-1,-1,-1,-1],"split_conditions":[1.38095E0,1.2620187E-2,1.4825E0,1.57055E0,2.0301999E2,-1.6022293E-2,-4.030332E-3,1.7872E2,1.9922E2,1.7139E2,1.81355E2,1.9835E2,2.33485E2,1.1089E2,1.4031E2,2.1276856E-2,1.90275E2,-2.7732851E-2,-5.456543E-3,2.0783499E2,2.3735E2,-2.809366E-4,3.8219346E-3,-2.709595E-2,-3.9286297E-3,-8.510742E-3,8.104096E-3,-1.0694341E-2,1.7889404E-3,9.471131E-3,1.392746E-3],"split_indices":[10,0,9,6,11,0,0,10,9,10,10,8,13,51,28,0,10,0,0,20,14,0,0,0,0,0,0,0,0,0,0],"split_type":[0,0,0,0,0,0,0,0,0,0,0,0,0,0,0,0,0,0,0,0,0,0,0,0,0,0,0,0,0,0,0],"sum_hessian":[4.41E2,3E0,4.38E2,6E0,4.32E2,3E0,3E0,4.12E2,2E1,3.91E2,2.1E1,3E0,1.7E1,3.79E2,1.2E1,3E0,1.8E1,2E0,1E0,1E1,7E0,3.1E2,6.9E1,4E0,8E0,4E0,1.4E1,6E0,4E0,4E0,3E0],"tree_param":{"num_deleted":"0","num_feature":"60","num_nodes":"31","size_leaf_vector":"0"}},{"base_weights":[9.222376E-5,4.8541153E-4,-4.308319E-2,2.8374298E-2,3.343091E-5,-6.541952E-2,1.1962891E-2,8.956313E-3,7.24411E-2,-2.6193023E-2,1.0372343E-3,-8.669257E-3,1.4215278E-2,-9.611905E-3,-4.6138473E-2,1.4877019E-2,-7.119498E-5,9.123921E-3,-1.5436351E-2,-5.115704E-2,-8.0135465E-3,1.3997669E-3,3.9253864E-2,-1.9952495E-2,1.3530061E-3,-2.1260977E-4,1.3898492E-2,-2.2254786E-2,-9.45441E-3,1.3997777E-2,-2.5795937E-2,5.224052E-2,3.467083E-3,6.014061E-3,-3.4053262E-2,7.7894637E-3,-2.4922187E-3],"categories":[],"categories_nodes":[],"categories_segments":[],"categories_sizes":[],"default_left":[1,1,1,1,1,0,0,1,0,1,1,0,0,1,1,1,1,1,1,0,0,1,1,1,1,0,0,0,0,0,0,0,0,0,0,0,0],"id":66,"left_children":[1,3,5,7,9,-1,-1,11,-1,13,15,-1,-1,17,19,21,23,25,27,-1,-1,29,31,33,35,-1,-1,-1,-1,-1,-1,-1,-1,-1,-1,-1,-1],"loss_changes":[7.524325E-3,5.53275E-3,5.700715E-3,5.3410144E-3,1.1426414E-2,0E0,0E0,6.793896E-4,0E0,4.848008E-3,6.413356E-3,0E0,0E0,1.2320983E-3,9.2937704E-4,1.0129573E-2,1.1013203E-2,1.3668873E-4,1.15894014E-4,0E0,0E0,7.5559323E-3,4.931135E-3,9.724655E-3,9.0035265E-3,0E0,0E0,0E0,0E0,0E0,0E0,0E0,0E0,0E0,0E0,0E0,0E0],"parents":[2147483647,0,0,1,1,2,2,3,3,4,4,7,7,9,9,10,10,13,13,14,14,15,15,16,16,17,17,18,18,21,21,22,22,23,23,24,24],"right_children":[2,4,6,8,10,-1,-1,12,-1,14,16,-1,-1,18,20,22,24,26,28,-1,-1,30,32,34,36,-1,-1,-1,-1,-1,-1,-1,-1,-1,-1,-1,-1],"split_conditions":[2.43055E2,1.4354E0,1.70055E2,3.5651002E0,1.6336E0,-1.9625856E-2,3.5888674E-3,1.5409E0,2.173233E-2,2.2804499E0,1.9161999E0,-2.6007772E-3,4.264584E-3,1.5409E0,3.5651002E0,1.7062E0,2.38185E0,1.4532499E0,2.01495E0,-1.5347112E-2,-2.404064E-3,3.6894E0,3.6726499E0,2.1088E0,3.3509003E1,-6.3782936E-5,4.169548E-3,-6.676436E-3,-2.8363229E-3,4.1993335E-3,-7.738781E-3,1.5672157E-2,1.0401249E-3,1.8042184E-3,-1.0215979E-2,2.3368392E-3,-7.4766565E-4],"split_indices":[37,57,3,2,59,0,0,2,0,31,7,0,0,0,5,10,0,0,27,0,0,41,26,9,0,0,0,0,0,0,0,0,0,0,0,0,0],"split_type":[0,0,0,0,0,0,0,0,0,0,0,0,0,0,0,0,0,0,0,0,0,0,0,0,0,0,0,0,0,0,0,0,0,0,0,0,0],"sum_hessian":[4.41E2,4.38E2,3E0,6E0,4.32E2,2E0,1E0,5E0,1E0,1.5E1,4.17E2,1E0,4E0,9E0,6E0,3E1,3.87E2,2E0,7E0,5E0,1E0,2E1,1E1,2.5E1,3.62E2,1E0,1E0,2E0,5E0,1.4E1,6E0,7E0,3E0,9E0,1.6E1,1.35E2,2.27E2],"tree_param":{"num_deleted":"0","num_feature":"60","num_nodes":"37","size_leaf_vector":"0"}},{"base_weights":[4.319287E-5,-1.9413733E-4,5.2352905E-2,1.586921E-3,-7.6722987E-3,1.9782799E-4,7.101332E-2,-5.2955627E-2,-2.2798018E-3,2.1990382E-3,-3.924942E-2,8.674316E-2,2.1125793E-2,-1.9515991E-2,-8.9876175E-2,-3.9448548E-2,3.2197167E-3,1.2996509E-3,1.0129801E-1,-1.0122236E-1,-4.992167E-3,-2.3632813E-2,5.340576E-4,-1.9617716E-2,-5.5355836E-2,6.758118E-2,-1.8588305E-3,-9.0749166E-4,3.9975062E-2,-2.6779175E-3,-1.2039566E-1,2.9518127E-2,-1.977539E-2,-2.6474E-3,-2.24823E-2,1.4240265E-2,-7.9848915E-3],"categories":[],"categories_nodes":[],"categories_segments":[],"categories_sizes":[],"default_left":[1,1,0,1,1,1,1,1,1,1,1,0,0,1,0,1,1,1,0,1,1,0,0,1,0,0,1,0,0,0,0,0,0,0,0,0,0],"id":67,"left_children":[1,3,-1,5,7,9,11,13,15,17,19,-1,-1,21,-1,23,25,27,-1,29,31,-1,-1,33,-1,-1,35,-1,-1,-1,-1,-1,-1,-1,-1,-1,-1],"loss_changes":[5.4974495E-3,5.885873E-3,0E0,3.4414932E-2,2.0635441E-2,2.7795034E-2,3.6605448E-3,9.357462E-3,1.5866598E-2,2.9726349E-2,3.5586067E-2,0E0,0E0,5.0787604E-4,0E0,2.0685922E-3,2.2352288E-2,2.846187E-2,0E0,1.1014126E-2,6.705813E-3,0E0,0E0,2.3215753E-4,0E0,0E0,6.425646E-3,0E0,0E0,0E0,0E0,0E0,0E0,0E0,0E0,0E0,0E0],"parents":[2147483647,0,0,1,1,3,3,4,4,5,5,6,6,7,7,8,8,9,9,10,10,13,13,15,15,16,16,17,17,19,19,20,20,23,23,26,26],"right_children":[2,4,-1,6,8,10,12,14,16,18,20,-1,-1,22,-1,24,26,28,-1,30,32,-1,-1,34,-1,-1,36,-1,-1,-1,-1,-1,-1,-1,-1,-1,-1],"split_conditions":[2.5406E2,1.4051001E2,1.5705872E-2,1.49745E2,1.4547E2,1.3667499E2,1.7904999E2,1.4917E2,7.3288E1,1.74015E2,1.3954001E2,2.602295E-2,6.337738E-3,1.7470499E2,-2.6962854E-2,3.54545E1,1.26259995E2,1.1089E2,3.0389404E-2,5.41315E1,1.7320999E2,-7.0898444E-3,1.6021729E-4,2.7989E1,-1.6606752E-2,2.0274354E-2,1.6835E2,-2.722475E-4,1.1992519E-2,-8.0337527E-4,-3.61187E-2,8.855439E-3,-5.9326175E-3,-7.9422E-4,-6.7446902E-3,4.2720796E-3,-2.3954676E-3],"split_indices":[47,42,0,34,44,24,32,51,19,3,18,0,0,13,0,2,14,51,0,0,8,0,0,1,0,0,33,0,0,0,0,0,0,0,0,0,0],"split_type":[0,0,0,0,0,0,0,0,0,0,0,0,0,0,0,0,0,0,0,0,0,0,0,0,0,0,0,0,0,0,0,0,0,0,0,0,0],"sum_hessian":[4.41E2,4.4E2,1E0,3.56E2,8.4E1,3.5E2,6E0,8E0,7.6E1,3.34E2,1.6E1,4E0,2E0,5E0,3E0,9E0,6.7E1,3.32E2,2E0,5E0,1.1E1,4E0,1E0,5E0,4E0,4E0,6.3E1,3.15E2,1.7E1,1E0,4E0,3E0,8E0,1E0,4E0,1.7E1,4.6E1],"tree_param":{"num_deleted":"0","num_feature":"60","num_nodes":"37","size_leaf_vector":"0"}},{"base_weights":[7.620575E-5,3.090806E-2,-2.7593004E-4,-9.635091E-3,4.345262E-2,-1.0912299E-2,9.697415E-4,1.33292675E-2,4.9050648E-2,1.045905E-2,-2.058911E-2,7.1845734E-3,-2.5361152E-3,-1.00237E-2,3.5299864E-2,-2.291369E-2,9.519736E-3,4.5660776E-3,1.2698619E-1,-6.7924075E-2,-1.1387028E-4,-1.4839343E-2,4.5540333E-3,1.6910005E-2,5.4183006E-2,-1.4552844E-2,-3.6032166E-2,1.3610184E-2,6.6941977E-4,-1.9060826E-4,5.5319946E-2,1.54356E-1,3.6123276E-2,1.9086202E-3,-8.814894E-2,4.0306855E-2,-2.7495094E-3,-4.4584274E-5,-1.7297706E-2,-3.357718E-2,-7.6981857E-3,-1.082011E-2,-4.0432613E-2,2.437951E-3,-6.586647E-2,2.952366E-2,1.22867584E-1,1.1140823E-2,-8.277893E-3,-1.0102005E-1,-3.73141E-2,-5.5550892E-2,5.9327345E-2,-7.2330266E-2,8.371714E-5],"categories":[],"categories_nodes":[],"categories_segments":[],"categories_sizes":[],"default_left":[1,1,1,0,1,1,1,0,0,1,1,1,1,1,1,1,1,1,1,1,1,1,0,0,0,1,1,0,0,1,1,0,0,1,1,1,1,0,0,0,0,0,0,0,0,0,0,0,0,0,0,0,0,0,0],"id":68,"left_children":[1,3,5,-1,7,9,11,-1,-1,13,15,17,19,21,23,25,27,29,31,33,35,37,-1,-1,-1,39,41,-1,-1,43,45,-1,-1,47,49,51,53,-1,-1,-1,-1,-1,-1,-1,-1,-1,-1,-1,-1,-1,-1,-1,-1,-1,-1],"loss_changes":[4.8073223E-3,2.96165E-3,5.813829E-3,0E0,2.071634E-5,9.728441E-3,8.581026E-3,0E0,0E0,7.985958E-3,2.4578255E-3,4.3965574E-2,3.990545E-2,6.9938926E-4,1.5145736E-3,2.7660765E-3,9.9494384E-5,3.380937E-2,1.884859E-3,1.287945E-2,2.6105229E-2,2.5382498E-4,0E0,0E0,0E0,2.349623E-3,7.829014E-4,0E0,0E0,2.2430224E-2,1.728224E-2,0E0,0E0,3.7435442E-4,8.1063807E-4,3.0644607E-2,4.5347806E-2,0E0,0E0,0E0,0E0,0E0,0E0,0E0,0E0,0E0,0E0,0E0,0E0,0E0,0E0,0E0,0E0,0E0,0E0],"parents":[2147483647,0,0,1,1,2,2,4,4,5,5,6,6,9,9,10,10,11,11,12,12,13,13,14,14,15,15,16,16,17,17,18,18,19,19,20,20,21,21,25,25,26,26,29,29,30,30,33,33,34,34,35,35,36,36],"right_children":[2,4,6,-1,8,10,12,-1,-1,14,16,18,20,22,24,26,28,30,32,34,36,38,-1,-1,-1,40,42,-1,-1,44,46,-1,-1,48,50,52,54,-1,-1,-1,-1,-1,-1,-1,-1,-1,-1,-1,-1,-1,-1,-1,-1,-1,-1],"split_conditions":[1.39595E0,1.96615E0,2.0908499E0,-2.8905272E-3,2.1401E0,1.52555E0,3.539E1,3.9987806E-3,1.4715195E-2,1.44225E0,2.3464499E0,3.8525E1,3.109055E1,3.36405E0,2.34135E0,1.9968001E0,2.8120499E0,3.3622498E1,2.18538E1,3.190345E1,3.6252E1,1.4912E0,1.36621E-3,5.0730016E-3,1.6254902E-2,1.4600999E0,2.41445E0,4.0830555E-3,2.0082593E-4,5.42035E1,1.0011E2,4.6306804E-2,1.0836983E-2,2.92881E1,4.60225E1,2.50748E1,2.719455E1,-1.3375283E-5,-5.1893117E-3,-1.0073155E-2,-2.3094558E-3,-3.2460333E-3,-1.2129785E-2,7.313853E-4,-1.9759942E-2,8.857098E-3,3.6860276E-2,3.342247E-3,-2.483368E-3,-3.0306017E-2,-1.119423E-2,-1.6665269E-2,1.7798204E-2,-2.169908E-2,2.5115143E-5],"split_indices":[43,0,53,0,0,56,56,0,0,56,46,57,48,2,35,47,0,56,0,52,46,0,0,0,0,48,4,0,0,22,0,0,0,0,13,45,31,0,0,0,0,0,0,0,0,0,0,0,0,0,0,0,0,0,0],"split_type":[0,0,0,0,0,0,0,0,0,0,0,0,0,0,0,0,0,0,0,0,0,0,0,0,0,0,0,0,0,0,0,0,0,0,0,0,0,0,0,0,0,0,0,0,0,0,0,0,0,0,0,0,0,0,0],"sum_hessian":[4.41E2,4E0,4.37E2,1E0,3E0,4.5E1,3.92E2,1E0,2E0,1.4E1,3.1E1,1.41E2,2.51E2,8E0,6E0,2.9E1,2E0,1.39E2,2E0,8E0,2.43E2,6E0,2E0,4E0,2E0,1.9E1,1E1,1E0,1E0,1.28E2,1.1E1,1E0,1E0,2E0,6E0,1.4E1,2.29E2,1E0,5E0,4E0,1.5E1,2E0,8E0,1.24E2,4E0,9E0,2E0,1E0,1E0,4E0,2E0,2E0,1.2E1,8E0,2.21E2],"tree_param":{"num_deleted":"0","num_feature":"60","num_nodes":"55","size_leaf_vector":"0"}},{"base_weights":[1.2590065E-4,3.722067E-3,-3.0004124E-3,1.2305952E-3,1.0363312E-1,-8.452682E-2,-1.2380412E-3,-1.1818524E-3,2.7553221E-2,-1.1041975E-1,9.522438E-3,-4.5019325E-2,9.271254E-4,1.2878506E-3,-5.6293726E-2,5.121684E-2,5.8670044E-3,-8.88443E-3,-6.439863E-2,6.917906E-2,-3.1803304E-4,-1.8515779E-3,2.7822595E-2,-1.2550354E-3,-6.397711E-2,1.0570526E-2,5.5513382E-2,-9.304047E-3,3.0949593E-2,-2.0178476E-2,5.3710938E-3,5.886612E-2,-1.6865642E-3,-2.3705034E-4,-5.217743E-2,1.0720215E-1,-4.9209595E-4,-6.8798386E-2,-1.752472E-2,-1.4405822E-2,2.3002625E-3,-2.4635315E-2,-5.6324005E-3,2.2125244E-4,7.835388E-3,2.5925955E-2,7.218424E-2,-4.889022E-2,3.6401016E-4],"categories":[],"categories_nodes":[],"categories_segments":[],"categories_sizes":[],"default_left":[1,1,1,1,0,1,1,1,1,0,0,1,1,1,1,1,1,1,0,0,1,1,1,0,1,0,0,1,0,1,1,1,1,0,0,0,0,0,0,0,0,0,0,0,0,0,0,0,0],"id":69,"left_children":[1,3,5,7,-1,9,11,13,15,-1,-1,17,19,21,23,25,27,29,-1,-1,31,33,35,-1,37,-1,-1,39,-1,41,43,45,47,-1,-1,-1,-1,-1,-1,-1,-1,-1,-1,-1,-1,-1,-1,-1,-1],"loss_changes":[4.9804593E-3,5.115114E-2,3.3947464E-2,1.2859959E-2,0E0,1.3227519E-2,2.2128686E-2,2.538895E-2,8.423475E-3,0E0,0E0,7.1308147E-3,1.8973537E-2,1.496292E-2,3.3027716E-3,8.103028E-4,4.093249E-3,9.133933E-4,0E0,0E0,1.791826E-2,1.30692795E-2,4.2757295E-2,0E0,3.6204606E-4,0E0,0E0,4.475552E-4,0E0,5.5732555E-5,3.6338577E-5,3.2206252E-4,2.0925432E-2,0E0,0E0,0E0,0E0,0E0,0E0,0E0,0E0,0E0,0E0,0E0,0E0,0E0,0E0,0E0,0E0],"parents":[2147483647,0,0,1,1,2,2,3,3,5,5,6,6,7,7,8,8,11,11,12,12,13,13,14,14,15,15,16,16,17,17,20,20,21,21,22,22,24,24,27,27,29,29,30,30,31,31,32,32],"right_children":[2,4,6,8,-1,10,12,14,16,-1,-1,18,20,22,24,26,28,30,-1,-1,32,34,36,-1,38,-1,-1,40,-1,42,44,46,48,-1,-1,-1,-1,-1,-1,-1,-1,-1,-1,-1,-1,-1,-1,-1,-1],"split_conditions":[3.67085E1,7.52715E1,3.5122498E1,3.9121002E1,3.1089937E-2,4.56415E1,3.9497E1,3.4735E1,4.1077E1,-3.3125926E-2,2.8567314E-3,3.91155E1,3.9663498E1,1.504985E1,2.91125E1,3.56735E1,4.46855E1,3.1293499E1,-1.931959E-2,2.0753719E-2,3.066E1,4.6779E1,2.687025E1,-3.7651064E-4,4.0919E1,3.171158E-3,1.6654015E-2,3.1039501E1,9.284878E-3,3.31765E1,3.1799E1,4.39795E1,3.28835E1,-7.11151E-5,-1.565323E-2,3.2160647E-2,-1.4762879E-4,-2.0639516E-2,-5.257416E-3,-4.321747E-3,6.9007877E-4,-7.3905946E-3,-1.6897202E-3,6.637574E-5,2.3506165E-3,7.777787E-3,2.1655273E-2,-1.4667066E-2,1.0920305E-4],"split_indices":[25,53,27,9,0,0,24,10,13,0,0,25,24,0,3,12,4,3,0,0,49,59,28,0,2,0,0,27,0,0,0,33,50,0,0,0,0,0,0,0,0,0,0,0,0,0,0,0,0],"split_type":[0,0,0,0,0,0,0,0,0,0,0,0,0,0,0,0,0,0,0,0,0,0,0,0,0,0,0,0,0,0,0,0,0,0,0,0,0,0,0,0,0,0,0,0,0,0,0,0,0],"sum_hessian":[4.41E2,2.05E2,2.36E2,2.01E2,4E0,4E0,2.32E2,1.85E2,1.6E1,3E0,1E0,1E1,2.22E2,1.78E2,7E0,7E0,9E0,4E0,6E0,3E0,2.19E2,1.6E2,1.8E1,1E0,6E0,1E0,6E0,6E0,3E0,2E0,2E0,4E0,2.15E2,1.56E2,4E0,4E0,1.4E1,5E0,1E0,4E0,2E0,1E0,1E0,1E0,1E0,2E0,2E0,8E0,2.07E2],"tree_param":{"num_deleted":"0","num_feature":"60","num_nodes":"49","size_leaf_vector":"0"}},{"base_weights":[1.4758568E-4,3.696745E-4,-4.889679E-2,-3.346054E-5,2.5368826E-2,8.135965E-4,-1.5242203E-2,3.7322998E-2,7.0724487E-3,8.070587E-5,3.3703275E-2,-4.7966003E-2,2.0723343E-3,-0E0,9.429932E-3,7.6874794E-4,-2.0725545E-2,7.484945E-2,1.1254447E-2,-3.5146077E-3,-6.219737E-2,3.1149292E-2,-1.0215759E-2,-7.484327E-4,1.3812553E-2,-3.0782318E-2,9.597778E-3,-1.1962891E-2,2.293396E-2,-1.3427734E-2,8.155823E-3,-7.2695926E-2,-4.852295E-3,-9.82666E-4,-3.7587482E-2],"categories":[],"categories_nodes":[],"categories_segments":[],"categories_sizes":[],"default_left":[1,1,0,1,1,1,1,0,1,1,1,1,1,0,0,1,1,0,1,1,1,0,1,0,0,0,0,0,0,0,0,0,0,0,0],"id":70,"left_children":[1,3,-1,5,7,9,11,-1,13,15,17,19,21,-1,-1,23,25,-1,27,29,31,-1,33,-1,-1,-1,-1,-1,-1,-1,-1,-1,-1,-1,-1],"loss_changes":[4.832431E-3,4.445262E-3,0E0,5.6163636E-3,1.2670611E-3,9.952452E-3,1.3131143E-2,0E0,6.669271E-5,5.8137407E-3,7.4707614E-3,4.842233E-3,6.0350196E-3,0E0,0E0,7.787733E-3,4.259855E-3,0E0,2.172527E-3,4.5658558E-4,3.2595005E-3,0E0,2.9957725E-3,0E0,0E0,0E0,0E0,0E0,0E0,0E0,0E0,0E0,0E0,0E0,0E0],"parents":[2147483647,0,0,1,1,3,3,4,4,5,5,6,6,8,8,9,9,10,10,11,11,12,12,15,15,16,16,18,18,19,19,20,20,22,22],"right_children":[2,4,-1,6,8,10,12,-1,14,16,18,20,22,-1,-1,24,26,-1,28,30,32,-1,34,-1,-1,-1,-1,-1,-1,-1,-1,-1,-1,-1,-1],"split_conditions":[2.5406E2,2.3884E2,-1.4669037E-2,1.96065E2,2.0013E2,1.89045E2,1.96725E2,1.11969E-2,1.6842E2,1.7322E2,1.3877E2,1.4204001E2,1.5645E2,-0E0,2.8289796E-3,1.3934E2,1.79615E2,2.2454835E-2,2.1064499E2,1.35935E2,1.95215E2,9.344788E-3,2.3104001E2,-2.2452982E-4,4.143766E-3,-9.234696E-3,2.8793337E-3,-3.5888674E-3,6.8801884E-3,-4.0283203E-3,2.446747E-3,-2.1808779E-2,-1.4556885E-3,-2.9479983E-4,-1.1276245E-2],"split_indices":[8,22,0,38,14,35,29,0,2,35,0,4,10,0,0,18,38,0,3,0,0,0,49,0,0,0,0,0,0,0,0,0,0,0,0],"split_type":[0,0,0,0,0,0,0,0,0,0,0,0,0,0,0,0,0,0,0,0,0,0,0,0,0,0,0,0,0,0,0,0,0,0,0],"sum_hessian":[4.41E2,4.4E2,1E0,4.34E2,6E0,4.12E2,2.2E1,3E0,3E0,4.04E2,8E0,7E0,1.5E1,1E0,2E0,3.92E2,1.2E1,2E0,6E0,2E0,5E0,4E0,1.1E1,3.52E2,4E1,9E0,3E0,2E0,4E0,1E0,1E0,4E0,1E0,9E0,2E0],"tree_param":{"num_deleted":"0","num_feature":"60","num_nodes":"35","size_leaf_vector":"0"}},{"base_weights":[9.299241E-5,2.024994E-3,-4.9341093E-3,6.2817143E-4,6.439318E-2,-3.0319849E-2,1.2078094E-3,-1.1869073E-3,3.688787E-2,7.273992E-2,7.156372E-3,-5.327797E-2,-6.795443E-3,5.838871E-2,-3.7239648E-3,5.173093E-4,-8.477974E-2,6.099181E-2,-2.3518372E-2,-7.516607E-2,-2.6905606E-2,-1.990509E-2,2.7677536E-2,-9.460449E-5,1.16895676E-1,-3.719902E-2,1.2202379E-3,1.5450947E-3,-4.9245197E-2,-9.638138E-2,-1.3385773E-2,1.4935176E-2,9.688314E-2,-2.6626587E-2,-5.542755E-3,-3.1595867E-2,6.1798096E-4,-3.437805E-2,1.4434814E-3,3.3129375E-2,5.6610107E-3,-3.0176798E-2,3.0019125E-2,-9.250641E-4,-8.7797545E-2,2.9955084E-2,-3.1867558E-3,-2.6869774E-4,3.7321907E-2,-9.2990875E-2,-2.1897888E-2,2.6957702E-2,-2.258873E-2,7.789612E-3,-1.197052E-2,-3.9604187E-2,-5.6610107E-3,3.9360046E-2,5.66864E-3,-6.4304895E-3,1.8806458E-2,4.9841744E-3,5.892334E-2,-4.6020508E-2,6.966662E-4],"categories":[],"categories_nodes":[],"categories_segments":[],"categories_sizes":[],"default_left":[1,1,1,1,1,1,1,1,1,0,0,1,1,1,1,1,1,1,1,0,1,1,1,1,0,1,1,1,1,0,0,1,0,0,0,0,0,0,1,0,0,1,1,1,0,1,1,0,0,0,0,0,0,0,0,0,0,0,0,0,0,0,0,0,0],"id":71,"left_children":[1,3,5,7,9,11,13,15,17,-1,-1,19,21,23,25,27,29,31,33,-1,35,37,39,41,-1,43,45,47,49,-1,-1,51,-1,-1,-1,-1,-1,-1,53,-1,-1,55,57,59,-1,61,63,-1,-1,-1,-1,-1,-1,-1,-1,-1,-1,-1,-1,-1,-1,-1,-1,-1,-1],"loss_changes":[4.3028584E-3,2.7837085E-2,1.921443E-2,2.0709442E-2,2.8236285E-3,1.2599781E-2,2.8417768E-2,4.278195E-2,2.3274856E-2,0E0,0E0,4.904501E-3,6.4259954E-3,2.7384507E-2,1.5437586E-2,1.5163915E-2,3.679581E-3,1.6736403E-2,1.3177586E-4,0E0,9.231749E-4,3.1393948E-3,2.9257638E-4,5.435316E-3,0E0,2.1943688E-2,1.0479471E-2,1.8828625E-2,5.141656E-3,0E0,0E0,3.315733E-3,0E0,0E0,0E0,0E0,0E0,0E0,5.188807E-4,0E0,0E0,4.691598E-4,4.5924983E-4,9.899782E-4,0E0,7.663318E-3,1.2008651E-2,0E0,0E0,0E0,0E0,0E0,0E0,0E0,0E0,0E0,0E0,0E0,0E0,0E0,0E0,0E0,0E0,0E0,0E0],"parents":[2147483647,0,0,1,1,2,2,3,3,4,4,5,5,6,6,7,7,8,8,11,11,12,12,13,13,14,14,15,15,16,16,17,17,18,18,20,20,21,21,22,22,23,23,25,25,26,26,27,27,28,28,31,31,38,38,41,41,42,42,43,43,45,45,46,46],"right_children":[2,4,6,8,10,12,14,16,18,-1,-1,20,22,24,26,28,30,32,34,-1,36,38,40,42,-1,44,46,48,50,-1,-1,52,-1,-1,-1,-1,-1,-1,54,-1,-1,56,58,60,-1,62,64,-1,-1,-1,-1,-1,-1,-1,-1,-1,-1,-1,-1,-1,-1,-1,-1,-1,-1],"split_conditions":[1.0205E2,1.01685E2,1.30185E2,1.0039E2,1.79165E2,9.508E1,1.3263E2,9.6115E1,1.16415E2,2.1821978E-2,2.1469118E-3,1.12955E2,1.0777E2,8.6805E1,1.45455E2,1.00215E2,1.11685E2,8.921001E1,1.75605E2,-2.2549821E-2,9.199E1,1.1384E2,1.8733499E2,1.4264E2,3.5068706E-2,1.55355E2,1.52305E2,9.456E1,9.186E1,-2.8914416E-2,-4.015732E-3,8.847E1,2.9064944E-2,-7.987976E-3,-1.6628266E-3,-9.478761E-3,1.853943E-4,-1.0313416E-2,1.79215E2,9.938813E-3,1.6983033E-3,6.428E1,3.1060001E1,2.22625E2,-2.6339265E-2,1.478E2,1.36255E2,-8.060932E-5,1.1196572E-2,-2.7897263E-2,-6.5693664E-3,8.087311E-3,-6.7766192E-3,2.3368837E-3,-3.591156E-3,-1.18812565E-2,-1.6983033E-3,1.18080145E-2,1.7005921E-3,-1.9291469E-3,5.6419373E-3,1.4952524E-3,1.7677004E-2,-1.3806153E-2,2.0899986E-4],"split_indices":[43,44,45,38,0,19,43,37,38,0,0,46,57,11,44,47,17,2,1,0,5,43,0,45,0,53,43,54,45,0,0,2,0,0,0,0,0,0,2,0,0,0,0,6,0,43,53,0,0,0,0,0,0,0,0,0,0,0,0,0,0,0,0,0,0],"split_type":[0,0,0,0,0,0,0,0,0,0,0,0,0,0,0,0,0,0,0,0,0,0,0,0,0,0,0,0,0,0,0,0,0,0,0,0,0,0,0,0,0,0,0,0,0,0,0,0,0,0,0,0,0,0,0,0,0,0,0,0,0,0,0,0,0],"sum_hessian":[4.41E2,3.19E2,1.22E2,3.13E2,6E0,2.3E1,9.9E1,2.99E2,1.4E1,5E0,1E0,1.1E1,1.2E1,7E0,9.2E1,2.94E2,5E0,1E1,4E0,5E0,6E0,9E0,3E0,4E0,3E0,1.1E1,8.1E1,2.89E2,5E0,4E0,1E0,5E0,5E0,3E0,1E0,5E0,1E0,5E0,4E0,2E0,1E0,2E0,2E0,7E0,4E0,1E1,7.1E1,2.76E2,1.3E1,1E0,4E0,4E0,1E0,3E0,1E0,1E0,1E0,1E0,1E0,6E0,1E0,6E0,4E0,5E0,6.6E1],"tree_param":{"num_deleted":"0","num_feature":"60","num_nodes":"65","size_leaf_vector":"0"}},{"base_weights":[6.9664616E-6,2.7487816E-3,-3.3548921E-3,-4.5773544E-4,4.559214E-2,-5.1603127E-2,-7.97854E-4,2.9483557E-4,-8.5645676E-2,8.242178E-2,1.1569214E-2,-5.7864085E-2,2.3727417E-3,7.07489E-2,-2.7168642E-3,1.5006055E-3,-4.436779E-2,1.0032654E-2,1.0487938E-1,-9.280522E-3,3.4275055E-2,-1.8031439E-2,-6.666892E-2,-2.8003147E-2,4.983695E-4,-1.18341006E-4,4.4822216E-2,-7.388258E-2,9.774526E-3,1.666069E-2,-1.6117096E-3,2.4971008E-2,1.15866855E-1,-1.8246332E-2,-2.360344E-4,3.869629E-2,8.295059E-3,-4.4360217E-2,3.3211518E-2,7.666143E-2,-2.3431007E-3,6.095759E-4,-5.176099E-2,5.7836153E-2,1.7349243E-2,-2.2239685E-2,-8.368365E-2,2.3405075E-2,-8.743286E-3,4.128456E-3,-3.0670166E-3,-6.8060555E-3,-5.9440613E-2,-1.9201279E-2,5.1115036E-2,1.9584656E-2,8.415985E-2,-9.202576E-2,-6.362387E-4],"categories":[],"categories_nodes":[],"categories_segments":[],"categories_sizes":[],"default_left":[1,1,1,1,1,1,1,1,0,1,1,1,0,0,1,1,1,1,1,1,1,0,0,1,1,1,1,1,1,0,0,0,0,0,1,0,0,1,1,1,1,0,0,0,0,0,0,0,0,0,0,0,0,0,0,0,0,0,0],"id":72,"left_children":[1,3,5,7,9,11,13,15,-1,17,19,21,-1,-1,23,25,27,29,31,33,35,-1,-1,37,39,41,43,45,47,-1,-1,-1,-1,-1,49,-1,-1,51,53,55,57,-1,-1,-1,-1,-1,-1,-1,-1,-1,-1,-1,-1,-1,-1,-1,-1,-1,-1],"loss_changes":[4.0833987E-3,3.3541087E-2,2.450997E-2,1.4642325E-2,2.0348333E-2,3.5167038E-3,2.6279017E-2,1.2291175E-2,0E0,1.1953272E-2,5.0521987E-3,1.9543413E-3,0E0,0E0,1.5136E-2,1.5575358E-2,1.0310162E-2,2.5838998E-4,2.3746267E-3,4.8224017E-4,2.5332998E-4,0E0,0E0,2.2500414E-2,3.6104526E-2,8.113737E-3,1.8568393E-3,1.6352534E-4,9.618611E-4,0E0,0E0,0E0,0E0,0E0,6.208522E-5,0E0,0E0,9.223077E-3,5.673342E-3,9.196736E-4,2.4586674E-2,0E0,0E0,0E0,0E0,0E0,0E0,0E0,0E0,0E0,0E0,0E0,0E0,0E0,0E0,0E0,0E0,0E0,0E0],"parents":[2147483647,0,0,1,1,2,2,3,3,4,4,5,5,6,6,7,7,9,9,10,10,11,11,14,14,15,15,16,16,17,17,18,18,19,19,20,20,23,23,24,24,25,25,26,26,27,27,28,28,34,34,37,37,38,38,39,39,40,40],"right_children":[2,4,6,8,10,12,14,16,-1,18,20,22,-1,-1,24,26,28,30,32,34,36,-1,-1,38,40,42,44,46,48,-1,-1,-1,-1,-1,50,-1,-1,52,54,56,58,-1,-1,-1,-1,-1,-1,-1,-1,-1,-1,-1,-1,-1,-1,-1,-1,-1,-1],"split_conditions":[4.6873497E1,4.32935E1,4.98E1,5.40885E1,4.47365E1,1.0088E2,5.1550003E1,5.311E1,-2.5693703E-2,2.6472599E1,4.4809998E1,4.2891502E1,7.1182253E-4,2.1224672E-2,8.3695E1,4.70565E1,1.00350006E2,1.44841E1,2.362475E1,2.13609E1,1.0081E2,-5.4094316E-3,-2.0000678E-2,1.16415E2,8.374E1,5.28235E1,3.9456E1,8.9295E1,1.0059E2,4.998207E-3,-4.835129E-4,7.4913027E-3,3.4760058E-2,-5.4738997E-3,4.1934998E1,1.1608887E-2,2.488518E-3,5.0120003E1,8.9525E1,9.403E1,8.5244995E1,1.8287277E-4,-1.5528298E-2,1.7350847E-2,5.204773E-3,-6.671906E-3,-2.5105095E-2,7.0215226E-3,-2.622986E-3,1.2385369E-3,-9.20105E-4,-2.0418167E-3,-1.7832184E-2,-5.760384E-3,1.5334511E-2,5.875397E-3,2.5247956E-2,-2.7607728E-2,-1.9087162E-4],"split_indices":[40,40,41,26,26,13,43,17,0,19,40,42,0,0,50,10,0,0,16,0,4,0,0,15,53,4,43,0,0,0,0,0,0,0,39,0,0,54,2,11,51,0,0,0,0,0,0,0,0,0,0,0,0,0,0,0,0,0,0],"split_type":[0,0,0,0,0,0,0,0,0,0,0,0,0,0,0,0,0,0,0,0,0,0,0,0,0,0,0,0,0,0,0,0,0,0,0,0,0,0,0,0,0,0,0,0,0,0,0,0,0,0,0,0,0,0,0,0,0,0,0],"sum_hessian":[4.41E2,2.43E2,1.98E2,2.27E2,1.6E1,9E0,1.89E2,2.26E2,1E0,7E0,9E0,8E0,1E0,4E0,1.85E2,2.21E2,5E0,2E0,5E0,5E0,4E0,2E0,6E0,2E1,1.65E2,2.14E2,7E0,3E0,2E0,1E0,1E0,1E0,4E0,2E0,3E0,3E0,1E0,1.6E1,4E0,5E0,1.6E2,2.12E2,2E0,4E0,3E0,1E0,2E0,1E0,1E0,1E0,2E0,5E0,1.1E1,1E0,3E0,1E0,4E0,2E0,1.58E2],"tree_param":{"num_deleted":"0","num_feature":"60","num_nodes":"59","size_leaf_vector":"0"}},{"base_weights":[5.051561E-6,4.446721E-2,-1.9660234E-4,3.526497E-2,-4.384887E-4,-2.1010073E-2,9.000996E-5,-1.8239617E-3,-3.6694508E-2,3.43482E-2,-3.1323938E-4,-1.3570517E-2,1.4446099E-2,-9.089589E-3,-4.0397573E-2,4.4369817E-2,-5.2326976E-4,-1.1475682E-2,2.8012227E-4],"categories":[],"categories_nodes":[],"categories_segments":[],"categories_sizes":[],"default_left":[1,0,1,0,1,1,1,1,1,0,1,0,0,0,0,0,1,0,0],"id":73,"left_children":[1,-1,3,-1,5,7,9,11,13,-1,15,-1,-1,-1,-1,-1,17,-1,-1],"loss_changes":[3.9717E-3,0E0,3.7982159E-3,0E0,4.774723E-3,3.2432266E-3,5.9372196E-3,1.3427441E-3,2.4613924E-4,0E0,4.0117567E-3,0E0,0E0,0E0,0E0,0E0,3.734025E-3,0E0,0E0],"parents":[2147483647,0,0,2,2,4,4,5,5,6,6,7,7,8,8,10,10,16,16],"right_children":[2,-1,4,-1,6,8,10,12,14,-1,16,-1,-1,-1,-1,-1,18,-1,-1],"split_conditions":[1.25085E0,1.3340164E-2,1.38095E0,1.0579491E-2,1.63555E0,2.1406002E0,1.6907E0,1.92345E0,2.0132E0,1.030446E-2,1.39595E0,-4.0711556E-3,4.33383E-3,-2.7268769E-3,-1.2119273E-2,1.3310946E-2,2.072E0,-3.442705E-3,8.4036685E-5],"split_indices":[18,0,35,0,35,57,34,28,1,0,32,0,0,0,0,0,22,0,0],"split_type":[0,0,0,0,0,0,0,0,0,0,0,0,0,0,0,0,0,0,0],"sum_hessian":[4.41E2,1E0,4.4E2,2E0,4.38E2,1E1,4.28E2,5E0,5E0,4E0,4.24E2,3E0,2E0,1E0,4E0,1E0,4.23E2,2.8E1,3.95E2],"tree_param":{"num_deleted":"0","num_feature":"60","num_nodes":"19","size_leaf_vector":"0"}},{"base_weights":[6.886198E-5,3.4540813E-2,-1.6633056E-4,2.2895787E-5,-4.1618347E-2,1.2343854E-2,-5.63871E-4,-2.812633E-3,3.5430163E-2,-1.6262338E-2,3.86575E-4,-7.285064E-3,1.4523824E-2,-7.7261925E-3,4.26991E-2,1.0237575E-2,-1.785962E-2,1.5037491E-2,-6.384529E-4,-1.6457597E-2,3.101647E-3,4.1394234E-3,1.7646313E-2,5.3732634E-2,2.0990789E-2,-3.4111056E-3,-2.2758441E-2,5.370114E-3,6.686553E-2,-1.4475206E-2,1.0722257E-3],"categories":[],"categories_nodes":[],"categories_segments":[],"categories_sizes":[],"default_left":[1,0,1,1,0,1,1,1,1,1,1,1,1,0,1,0,1,1,1,0,0,0,0,0,0,0,0,0,0,0,0],"id":74,"left_children":[1,-1,3,5,-1,7,9,11,13,15,17,19,21,-1,23,-1,25,27,29,-1,-1,-1,-1,-1,-1,-1,-1,-1,-1,-1,-1],"loss_changes":[3.5892802E-3,0E0,3.4522305E-3,3.1807239E-3,0E0,7.097799E-3,6.2729153E-3,1.1137764E-3,2.8395085E-3,1.1987076E-3,5.9715873E-3,1.0990426E-3,2.4229987E-5,0E0,5.487446E-4,0E0,1.5503247E-3,1.2667995E-2,8.8208495E-3,0E0,0E0,0E0,0E0,0E0,0E0,0E0,0E0,0E0,0E0,0E0,0E0],"parents":[2147483647,0,0,2,2,3,3,5,5,6,6,7,7,8,8,9,9,10,10,11,11,12,12,14,14,16,16,17,17,18,18],"right_children":[2,-1,4,6,-1,8,10,12,14,16,18,20,22,-1,24,-1,26,28,30,-1,-1,-1,-1,-1,-1,-1,-1,-1,-1,-1,-1],"split_conditions":[1.3324499E0,1.0362244E-2,2.5406E2,1.6013E0,-1.2485505E-2,1.51225E0,2.0812502E0,2.0928502E0,1.68225E0,1.29935E0,2.56375E0,2.0274E0,2.1252E0,-2.317858E-3,1.6013E0,3.0712725E-3,1.6647999E0,2.5374498E0,1.4009E1,-4.937279E-3,9.304941E-4,1.241827E-3,5.293894E-3,1.6119791E-2,6.297237E-3,-1.0233318E-3,-6.827533E-3,1.6110343E-3,2.005966E-2,-4.342562E-3,3.2166773E-4],"split_indices":[10,0,8,25,0,25,22,29,13,29,26,35,0,0,26,0,52,28,52,0,0,0,0,0,0,0,0,0,0,0,0],"split_type":[0,0,0,0,0,0,0,0,0,0,0,0,0,0,0,0,0,0,0,0,0,0,0,0,0,0,0,0,0,0,0],"sum_hessian":[4.41E2,2E0,4.39E2,4.38E2,1E0,1.9E1,4.19E2,1.2E1,7E0,2.3E1,3.96E2,1E1,2E0,1E0,6E0,1E0,2.2E1,2.5E1,3.71E2,5E0,5E0,1E0,1E0,3E0,3E0,6E0,1.6E1,2.2E1,3E0,4E1,3.31E2],"tree_param":{"num_deleted":"0","num_feature":"60","num_nodes":"31","size_leaf_vector":"0"}},{"base_weights":[1.2436307E-4,3.5803837E-3,-2.3773653E-3,-5.453967E-4,2.0786285E-2,-6.0803603E-2,-1.2132999E-3,4.465275E-3,-1.9318372E-2,7.891496E-2,8.865049E-3,-1.850001E-2,-8.283933E-2,-3.300243E-2,-4.058371E-5,1.0230574E-3,4.2227365E-2,-5.9860125E-2,-3.310283E-3,1.0864258E-1,3.6890507E-2,-2.9448101E-2,1.923813E-2,6.799698E-3,-5.4036777E-2,3.498497E-2,-1.5245454E-3,3.6152885E-3,-2.2871343E-2,1.7712457E-2,7.457161E-2,-7.10243E-2,1.4726639E-2,4.6675544E-2,-2.2565313E-2,-3.730424E-2,8.844376E-3,5.233447E-2,8.34732E-3,1.6620636E-2,-2.0141602E-3,-1.0150909E-2,-6.0783766E-2,-6.2815347E-3,7.750778E-2,-4.4058938E-2,-2.23392E-4,1.4889025E-3,2.8148413E-2,-3.8938075E-2,1.49799585E-2,6.579081E-3,4.2256355E-2,-7.636193E-2,-1.6830444E-2,5.7640456E-2,1.2842178E-2,-3.250826E-2,2.7386348E-3,8.11259E-3,7.241726E-2,2.6625633E-2,-1.6951242E-2,-5.2433014E-3,2.2220612E-3,1.1512756E-2,-2.7913412E-2,-1.547877E-2,-5.2395247E-2,-7.300186E-2,4.1320335E-4],"categories":[],"categories_nodes":[],"categories_segments":[],"categories_sizes":[],"default_left":[1,1,1,1,1,1,1,1,1,1,1,0,0,1,1,1,1,1,1,0,0,1,1,1,1,1,1,1,1,1,0,1,0,1,1,0,0,1,1,0,1,0,0,1,0,1,1,0,0,0,0,0,0,0,0,0,0,0,0,0,0,0,0,0,0,0,0,0,0,0,0],"id":75,"left_children":[1,3,5,7,9,11,13,15,17,19,21,-1,-1,23,25,27,29,31,33,-1,-1,35,37,39,41,43,45,47,49,51,-1,53,-1,55,57,-1,-1,59,61,-1,63,-1,-1,65,-1,67,69,-1,-1,-1,-1,-1,-1,-1,-1,-1,-1,-1,-1,-1,-1,-1,-1,-1,-1,-1,-1,-1,-1,-1,-1],"loss_changes":[3.8300548E-3,1.3215063E-2,1.7405301E-2,1.4290109E-2,2.4247179E-2,3.1284243E-3,9.430406E-3,1.5555037E-2,2.0569716E-2,3.4878403E-3,1.2886712E-2,0E0,0E0,7.90234E-3,1.2787598E-2,6.958005E-3,6.608315E-3,8.540247E-3,2.4152735E-2,0E0,0E0,2.4357513E-3,8.574294E-3,3.7971803E-4,1.1595748E-3,1.8034548E-2,1.3051286E-2,5.226946E-3,7.2729047E-3,1.6347868E-3,0E0,1.0289289E-3,0E0,1.8566297E-3,4.6177544E-3,0E0,0E0,4.7411006E-3,9.699639E-3,0E0,5.2689007E-5,0E0,0E0,2.6309036E-3,0E0,8.567581E-4,1.0686165E-2,0E0,0E0,0E0,0E0,0E0,0E0,0E0,0E0,0E0,0E0,0E0,0E0,0E0,0E0,0E0,0E0,0E0,0E0,0E0,0E0,0E0,0E0,0E0,0E0],"parents":[2147483647,0,0,1,1,2,2,3,3,4,4,5,5,6,6,7,7,8,8,9,9,10,10,13,13,14,14,15,15,16,16,17,17,18,18,21,21,22,22,23,23,24,24,25,25,26,26,27,27,28,28,29,29,31,31,33,33,34,34,37,37,38,38,40,40,43,43,45,45,46,46],"right_children":[2,4,6,8,10,12,14,16,18,20,22,-1,-1,24,26,28,30,32,34,-1,-1,36,38,40,42,44,46,48,50,52,-1,54,-1,56,58,-1,-1,60,62,-1,64,-1,-1,66,-1,68,70,-1,-1,-1,-1,-1,-1,-1,-1,-1,-1,-1,-1,-1,-1,-1,-1,-1,-1,-1,-1,-1,-1,-1,-1],"split_conditions":[3.4208E1,2.8216E1,3.3509003E1,1.437815E1,2.8552E1,3.9237E1,2.741935E1,1.33939E1,1.5263849E1,2.8144001E1,2.687025E1,-5.550003E-3,-2.48518E-2,3.120455E1,2.362475E1,3.56215E0,1.438225E1,1.57941E1,1.417355E1,3.2592773E-2,1.1067152E-2,4.15405E1,2.797735E1,2.237245E1,1.389845E1,2.8162E1,2.653985E1,8.9143505E0,3.6425E0,6.5545E0,2.2371484E-2,1.45343E1,4.4179917E-3,1.489205E1,3.52235E1,-1.1191273E-2,2.6533129E-3,2.6645E1,3.6447998E1,4.986191E-3,3.5698402E1,-3.045273E-3,-1.823513E-2,1.92152E1,2.3252334E-2,4.32045E1,2.76315E1,4.4667078E-4,8.444524E-3,-1.1681423E-2,4.4939877E-3,1.9737245E-3,1.2676907E-2,-2.290858E-2,-5.0491337E-3,1.7292138E-2,3.8526535E-3,-9.752478E-3,8.215905E-4,2.433777E-3,2.1725178E-2,7.98769E-3,-5.085373E-3,-1.5729904E-3,6.6661835E-4,3.453827E-3,-8.374024E-3,-4.643631E-3,-1.5718576E-2,-2.1900559E-2,1.2396101E-4],"split_indices":[47,54,48,46,52,1,33,47,47,20,41,0,0,42,15,9,50,29,33,0,0,2,40,0,1,30,14,48,4,3,0,32,0,29,23,0,0,39,57,0,0,0,0,15,0,42,37,0,0,0,0,0,0,0,0,0,0,0,0,0,0,0,0,0,0,0,0,0,0,0,0],"split_type":[0,0,0,0,0,0,0,0,0,0,0,0,0,0,0,0,0,0,0,0,0,0,0,0,0,0,0,0,0,0,0,0,0,0,0,0,0,0,0,0,0,0,0,0,0,0,0,0,0,0,0,0,0,0,0,0,0,0,0,0,0,0,0,0,0,0,0,0,0,0,0],"sum_hessian":[4.41E2,1.85E2,2.56E2,1.5E2,3.5E1,4E0,2.52E2,1.19E2,3.1E1,5E0,3E1,2E0,2E0,8E0,2.44E2,1.1E2,9E0,8E0,2.3E1,2E0,3E0,6E0,2.4E1,3E0,5E0,9E0,2.35E2,1E2,1E1,6E0,3E0,7E0,1E0,6E0,1.7E1,5E0,1E0,5E0,1.9E1,1E0,2E0,1E0,4E0,5E0,4E0,6E0,2.29E2,9.3E1,7E0,7E0,3E0,5E0,1E0,6E0,1E0,4E0,2E0,1.2E1,5E0,2E0,3E0,1.1E1,8E0,1E0,1E0,3E0,2E0,2E0,4E0,1E0,2.28E2],"tree_param":{"num_deleted":"0","num_feature":"60","num_nodes":"71","size_leaf_vector":"0"}},{"base_weights":[1.2912658E-4,1.9698471E-3,-4.502917E-3,9.399584E-4,6.604691E-2,-7.043139E-2,-1.1965224E-3,2.0929883E-4,5.7331085E-2,9.2245735E-2,1.7832438E-2,-7.8049466E-2,-1.6170502E-2,-1.707077E-2,1.7433537E-3,1.4967446E-3,-6.5270744E-2,2.7618408E-3,7.460022E-2,2.3387909E-2,3.3607483E-3,-1.0906855E-3,-3.890705E-2,5.8129884E-2,-1.1220605E-3,-2.7284666E-4,1.714645E-2,-9.346644E-2,-2.7806282E-2,2.557602E-2,-1.762104E-2,-7.291794E-3,-5.6417845E-2,3.2946587E-2,-2.5298994E-3,1.3182496E-3,-2.7939733E-2,3.2106482E-3,5.0855E-2,-2.9710388E-2,1.8959045E-3,-1.4928182E-2,7.8086853E-3,-1.6584396E-2,5.4985046E-2,-6.0028387E-3,8.753901E-3],"categories":[],"categories_nodes":[],"categories_segments":[],"categories_sizes":[],"default_left":[1,1,1,1,1,1,1,1,1,0,1,0,0,1,1,1,1,0,0,0,0,1,1,0,1,1,1,0,0,0,1,1,0,1,1,0,0,0,0,0,0,0,0,0,0,0,0],"id":76,"left_children":[1,3,5,7,9,11,13,15,17,-1,19,-1,-1,21,23,25,27,-1,-1,-1,-1,29,31,-1,33,35,37,-1,-1,-1,39,41,-1,43,45,-1,-1,-1,-1,-1,-1,-1,-1,-1,-1,-1,-1],"loss_changes":[3.7774935E-3,2.0857459E-2,2.7381908E-2,1.2884451E-2,4.670847E-3,1.2180805E-3,5.676627E-3,2.6231311E-2,3.563419E-3,0E0,1.6259024E-4,0E0,0E0,6.587532E-3,1.6707014E-2,8.451221E-3,3.7390664E-3,0E0,0E0,0E0,0E0,5.7403967E-3,4.017478E-3,0E0,4.8317043E-3,1.21425195E-2,1.4399148E-2,0E0,0E0,0E0,1.9439051E-3,5.77822E-4,0E0,5.2782404E-3,3.8145918E-3,0E0,0E0,0E0,0E0,0E0,0E0,0E0,0E0,0E0,0E0,0E0,0E0],"parents":[2147483647,0,0,1,1,2,2,3,3,4,4,5,5,6,6,7,7,8,8,10,10,13,13,14,14,15,15,16,16,21,21,22,22,24,24,25,25,26,26,30,30,31,31,33,33,34,34],"right_children":[2,4,6,8,10,12,14,16,18,-1,20,-1,-1,22,24,26,28,-1,-1,-1,-1,30,32,-1,34,36,38,-1,-1,-1,40,42,-1,44,46,-1,-1,-1,-1,-1,-1,-1,-1,-1,-1,-1,-1],"split_conditions":[1.00655E2,1.0219E2,8.9770004E1,1.09145E2,1.05899994E2,9.878E1,8.258E1,1.01869995E2,7.5709E1,2.7673721E-2,1.1071E2,-2.341484E-2,-4.851151E-3,5.5405E1,8.5225E1,9.0565E1,9.6445E1,8.285523E-4,2.2380067E-2,7.016373E-3,1.0082246E-3,1.0059E2,9.333E1,1.7438967E-2,8.374E1,5.16005E1,1.0088E2,-2.8039932E-2,-8.341885E-3,7.6728063E-3,1.1572E2,9.3395004E1,-1.6925354E-2,8.921001E1,2.0141501E2,3.954749E-4,-8.38192E-3,9.6319447E-4,1.5256501E-2,-8.9131165E-3,5.687714E-4,-4.4784546E-3,2.3426057E-3,-4.975319E-3,1.6495515E-2,-1.8008517E-3,2.6261704E-3],"split_indices":[11,10,22,14,21,17,46,14,4,0,0,0,0,50,46,1,0,0,0,0,0,19,1,0,53,4,57,0,0,0,5,0,0,2,28,0,0,0,0,0,0,0,0,0,0,0,0],"split_type":[0,0,0,0,0,0,0,0,0,0,0,0,0,0,0,0,0,0,0,0,0,0,0,0,0,0,0,0,0,0,0,0,0,0,0,0,0,0,0,0,0,0,0,0,0,0,0],"sum_hessian":[4.41E2,3.16E2,1.25E2,3.12E2,4E0,5E0,1.2E2,3.09E2,3E0,2E0,2E0,4E0,1E0,1.8E1,1.02E2,3.04E2,5E0,1E0,2E0,1E0,1E0,1.1E1,7E0,4E0,9.8E1,2.74E2,3E1,2E0,3E0,4E0,7E0,3E0,4E0,3E0,9.5E1,2.6E2,1.4E1,2.2E1,8E0,4E0,3E0,2E0,1E0,1E0,2E0,7.3E1,2.2E1],"tree_param":{"num_deleted":"0","num_feature":"60","num_nodes":"47","size_leaf_vector":"0"}},{"base_weights":[1.1864668E-4,-5.2252595E-5,3.7742615E-2,1.372644E-3,-5.187273E-3,7.513209E-4,5.4307938E-2,-3.5510723E-2,-4.3260484E-4,-4.6238408E-4,1.2166804E-2,6.1266582E-2,1.6716003E-2,-5.511284E-2,-3.4561157E-3,4.9647015E-2,-2.2595103E-3,8.1295986E-4,-2.4027348E-2,4.4305068E-2,-8.307684E-3,-1.1812846E-2,-6.757736E-2,6.9885254E-3,-1.6230265E-2,-3.8369495E-2,5.8359915E-4,-4.2626754E-4,1.8902026E-2,-3.5383604E-2,-4.371643E-3,7.5139366E-2,1.5641212E-2,3.2605488E-2,-1.4330412E-2,-1.5090942E-2,-2.6283264E-3,-7.368012E-2,-1.85318E-2,-1.1698405E-4,1.4152527E-2,5.38737E-2,-1.5557861E-3],"categories":[],"categories_nodes":[],"categories_segments":[],"categories_sizes":[],"default_left":[1,1,0,1,1,1,1,1,1,1,1,0,0,1,1,0,1,1,1,1,1,1,1,1,0,0,1,0,0,0,0,0,0,0,0,0,0,0,0,0,0,0,0],"id":77,"left_children":[1,3,-1,5,7,9,11,13,15,17,19,-1,-1,21,23,-1,25,27,29,31,33,35,37,39,-1,-1,41,-1,-1,-1,-1,-1,-1,-1,-1,-1,-1,-1,-1,-1,-1,-1,-1],"loss_changes":[2.8439916E-3,3.2338614E-3,0E0,1.1339109E-2,1.3825721E-2,4.7579003E-3,2.222322E-5,7.97792E-3,7.797399E-3,9.36615E-3,2.208255E-2,0E0,0E0,3.519429E-3,9.13954E-4,0E0,8.440893E-3,6.643331E-3,3.41676E-3,1.0314519E-2,5.6418376E-3,5.065929E-5,4.3045357E-4,2.0527115E-4,0E0,0E0,8.862436E-3,0E0,0E0,0E0,0E0,0E0,0E0,0E0,0E0,0E0,0E0,0E0,0E0,0E0,0E0,0E0,0E0],"parents":[2147483647,0,0,1,1,3,3,4,4,5,5,6,6,7,7,8,8,9,9,10,10,13,13,14,14,16,16,17,17,18,18,19,19,20,20,21,21,22,22,23,23,26,26],"right_children":[2,4,-1,6,8,10,12,14,16,18,20,-1,-1,22,24,-1,26,28,30,32,34,36,38,40,-1,-1,42,-1,-1,-1,-1,-1,-1,-1,-1,-1,-1,-1,-1,-1,-1,-1,-1],"split_conditions":[2.5335E2,1.32345E2,1.1322785E-2,1.3401001E2,1.41095E2,1.0088E2,1.52935E2,1.4329999E2,3.3636E1,9.5255005E1,8.511E1,1.8379975E-2,5.0148014E-3,1.36075E2,1.4361E2,1.4894105E-2,3.49625E1,1.0039E2,1.00945E2,1.0141499E2,1.0175E2,7.46925E1,1.8532501E2,1.2645E2,-4.8690797E-3,-1.1510849E-2,1.358E2,-1.2788027E-4,5.670608E-3,-1.06150815E-2,-1.311493E-3,2.254181E-2,4.692364E-3,9.781647E-3,-4.299124E-3,-4.527283E-3,-7.88498E-4,-2.2104036E-2,-5.55954E-3,-3.5095214E-5,4.245758E-3,1.616211E-2,-4.6673586E-4],"split_indices":[21,55,0,54,52,57,0,54,16,59,23,0,0,57,51,0,11,38,21,55,57,0,33,0,0,0,44,0,0,0,0,0,0,0,0,0,0,0,0,0,0,0,0],"split_type":[0,0,0,0,0,0,0,0,0,0,0,0,0,0,0,0,0,0,0,0,0,0,0,0,0,0,0,0,0,0,0,0,0,0,0,0,0,0,0,0,0,0,0],"sum_hessian":[4.41E2,4.4E2,1E0,3.45E2,9.5E1,3.42E2,3E0,1.2E1,8.3E1,3.1E2,3.2E1,2E0,1E0,7E0,5E0,2E0,8.1E1,2.95E2,1.5E1,1.2E1,2E1,2E0,5E0,3E0,2E0,5E0,7.6E1,2.77E2,1.8E1,9E0,6E0,5E0,7E0,2E0,1.8E1,1E0,1E0,4E0,1E0,2E0,1E0,2E0,7.4E1],"tree_param":{"num_deleted":"0","num_feature":"60","num_nodes":"43","size_leaf_vector":"0"}},{"base_weights":[1.8941466E-4,-4.8113576E-5,2.6210785E-2,2.6477284E-3,-2.7683554E-3,5.7754517E-3,3.1097412E-2,1.7079612E-3,5.3203106E-2,-5.1798582E-2,-9.050999E-4,5.776093E-4,2.7893066E-2,-5.704244E-3,-6.6212654E-2,2.0157741E-2,-2.269659E-3,1.9121036E-3,-4.511388E-2,4.0205E-2,-3.530121E-2,-2.344958E-2,-8.1731796E-2,-7.993221E-3,5.4332733E-2,-3.2279424E-2,-1.1751333E-3,3.8118375E-4,2.449329E-2,-4.921341E-2,-1.2308121E-2,6.8738304E-2,1.9237518E-2,1.4471054E-2,-2.4365997E-2,6.1402895E-2,9.490967E-3,-9.567261E-3,-3.9450835E-2,1.8570812E-2,-2.349211E-3],"categories":[],"categories_nodes":[],"categories_segments":[],"categories_sizes":[],"default_left":[1,1,1,1,1,0,0,1,0,1,1,1,1,0,1,1,1,1,1,1,0,0,0,1,1,1,1,0,0,0,0,0,0,0,0,0,0,0,0,0,0],"id":78,"left_children":[1,3,5,7,9,-1,-1,11,-1,13,15,17,19,-1,21,23,25,27,29,31,-1,-1,-1,33,35,37,39,-1,-1,-1,-1,-1,-1,-1,-1,-1,-1,-1,-1,-1,-1],"loss_changes":[2.7331791E-3,3.226667E-3,2.1983776E-4,1.0408904E-2,1.9960046E-2,0E0,0E0,6.436337E-3,0E0,4.937565E-3,6.1389473E-3,1.2891021E-2,8.42168E-3,0E0,2.065301E-3,1.2941059E-2,6.5313596E-3,7.0775114E-3,2.0120386E-4,3.4638168E-3,0E0,0E0,0E0,3.295022E-3,1.3194587E-3,7.627113E-4,4.541182E-3,0E0,0E0,0E0,0E0,0E0,0E0,0E0,0E0,0E0,0E0,0E0,0E0,0E0,0E0],"parents":[2147483647,0,0,1,1,2,2,3,3,4,4,7,7,9,9,10,10,11,11,12,12,14,14,15,15,16,16,17,17,18,18,19,19,23,23,24,24,25,25,26,26],"right_children":[2,4,6,8,10,-1,-1,12,-1,14,16,18,20,-1,22,24,26,28,30,32,-1,-1,-1,34,36,38,40,-1,-1,-1,-1,-1,-1,-1,-1,-1,-1,-1,-1,-1,-1],"split_conditions":[2.43055E2,4.1175E1,1.3738501E2,4.0845047E1,4.13955E1,1.7326355E-3,9.329224E-3,4.4354E1,1.5960932E-2,2.766285E1,3.8773003E1,4.17655E1,3.4894997E1,-1.7112733E-3,3.4894997E1,3.4135002E1,4.48315E1,3.7519653E1,8.7155E1,2.42644E1,-1.0590363E-2,-7.034874E-3,-2.451954E-2,4.4349E1,3.3775497E1,4.5026E1,5.1550003E1,1.1435513E-4,7.3479875E-3,-1.4764023E-2,-3.6924363E-3,2.0621492E-2,5.7712556E-3,4.3413164E-3,-7.3097995E-3,1.842087E-2,2.8472901E-3,-2.8701783E-3,-1.1835251E-2,5.571244E-3,-7.047633E-4],"split_indices":[45,47,2,47,44,0,0,57,0,33,35,56,10,0,5,34,38,57,1,31,0,0,0,48,0,42,43,0,0,0,0,0,0,0,0,0,0,0,0,0,0],"split_type":[0,0,0,0,0,0,0,0,0,0,0,0,0,0,0,0,0,0,0,0,0,0,0,0,0,0,0,0,0,0,0,0,0,0,0,0,0,0,0,0,0],"sum_hessian":[4.41E2,4.38E2,3E0,2.2E2,2.18E2,1E0,2E0,2.17E2,3E0,7E0,2.11E2,2.09E2,8E0,2E0,5E0,1.2E1,1.99E2,2.04E2,5E0,7E0,1E0,2E0,3E0,7E0,5E0,6E0,1.93E2,1.92E2,1.2E1,4E0,1E0,2E0,5E0,3E0,4E0,4E0,1E0,2E0,4E0,1E1,1.83E2],"tree_param":{"num_deleted":"0","num_feature":"60","num_nodes":"41","size_leaf_vector":"0"}},{"base_weights":[1.4753256E-4,2.4627447E-2,-7.5855125E-5,4.237652E-2,4.585584E-3,2.4473429E-2,-3.0090392E-4,6.84309E-3,3.528595E-5,1.0809898E-2,3.273201E-2,-1.938251E-2,1.0426655E-5,-2.4227332E-2,-4.84697E-3,1.6872978E-4,-3.3950806E-2,3.274161E-4,-3.387451E-2,-5.519527E-4,7.6419995E-3],"categories":[],"categories_nodes":[],"categories_segments":[],"categories_sizes":[],"default_left":[1,1,1,0,1,1,1,0,0,0,0,1,1,0,0,1,0,1,0,0,0],"id":79,"left_children":[1,3,5,-1,7,9,11,-1,-1,-1,-1,13,15,-1,-1,17,-1,19,-1,-1,-1],"loss_changes":[2.41895E-3,1.2285768E-3,2.4327459E-3,0E0,3.057551E-5,9.753578E-5,2.590342E-3,0E0,0E0,0E0,0E0,3.755258E-4,2.3174812E-3,0E0,0E0,2.3286336E-3,0E0,2.7572068E-3,0E0,0E0,0E0],"parents":[2147483647,0,0,1,1,2,2,4,4,5,5,6,6,11,11,12,12,15,15,17,17],"right_children":[2,4,6,-1,8,10,12,-1,-1,-1,-1,14,16,-1,-1,18,-1,20,-1,-1,-1],"split_conditions":[1.3434999E0,1.3861E0,1.38095E0,1.2712956E-2,1.4682E0,1.6373E0,1.4825E0,2.0529272E-3,1.0585785E-5,3.2429697E-3,9.8196035E-3,1.6013E0,2.5406E2,-7.2682E-3,-1.454091E-3,2.5406E2,-1.0185242E-2,1.7702E2,-1.01623535E-2,-1.655858E-4,2.2926E-3],"split_indices":[1,0,10,0,0,0,9,0,0,0,0,12,8,0,0,23,0,53,0,0,0],"split_type":[0,0,0,0,0,0,0,0,0,0,0,0,0,0,0,0,0,0,0,0,0],"sum_hessian":[4.41E2,3E0,4.38E2,1E0,2E0,3E0,4.35E2,1E0,1E0,2E0,1E0,6E0,4.29E2,4E0,2E0,4.28E2,1E0,4.27E2,1E0,3.82E2,4.5E1],"tree_param":{"num_deleted":"0","num_feature":"60","num_nodes":"21","size_leaf_vector":"0"}},{"base_weights":[1.0614266E-4,3.641773E-4,-2.2518922E-2,2.1017123E-2,1.2540103E-4,-3.8553874E-3,-3.3676147E-2,-3.2894611E-3,2.7916133E-2,1.7227259E-2,-1.5459523E-4,2.2354126E-3,-8.018494E-3,1.2399197E-2,3.7233472E-2,2.074623E-3,3.673923E-2,-9.153649E-3,7.7115477E-4,-5.720377E-3,5.4534674E-3,-5.465191E-3,-2.1251095E-2,1.0655687E-2,-4.880666E-4,6.7337356E-3,8.0633163E-4,5.1198304E-3,-8.63379E-3,-5.207509E-3,-2.8404972E-2,4.61231E-3,3.364523E-2,-2.740605E-2,9.861334E-4],"categories":[],"categories_nodes":[],"categories_segments":[],"categories_sizes":[],"default_left":[1,1,1,1,1,1,0,0,1,1,1,0,0,0,0,1,0,1,1,0,1,1,1,1,1,0,0,0,0,0,0,0,0,0,0],"id":80,"left_children":[1,3,5,7,9,11,-1,-1,13,15,17,-1,-1,-1,-1,19,-1,21,23,-1,25,27,29,31,33,-1,-1,-1,-1,-1,-1,-1,-1,-1,-1],"loss_changes":[2.588619E-3,2.157332E-3,9.1133174E-4,9.3028625E-4,2.080853E-3,9.399459E-5,0E0,0E0,1.16640935E-4,1.993385E-3,3.572673E-3,0E0,0E0,0E0,0E0,1.6288634E-4,0E0,1.6686961E-3,4.8470115E-3,0E0,1.8368693E-5,1.1174736E-3,8.8504516E-4,5.957936E-3,1.3757167E-2,0E0,0E0,0E0,0E0,0E0,0E0,0E0,0E0,0E0,0E0],"parents":[2147483647,0,0,1,1,2,2,3,3,4,4,5,5,8,8,9,9,10,10,15,15,17,17,18,18,20,20,21,21,22,22,23,23,24,24],"right_children":[2,4,6,8,10,12,-1,-1,14,16,18,-1,-1,-1,-1,20,-1,22,24,-1,26,28,30,32,34,-1,-1,-1,-1,-1,-1,-1,-1,-1,-1],"split_conditions":[2.4011499E2,1.39595E0,1.6001E2,1.96615E0,1.4354E0,1.59245E2,-1.0102845E-2,-9.868384E-4,2.58715E0,3.5031E0,2.0908499E0,6.706238E-4,-2.4055482E-3,3.7197592E-3,1.1170042E-2,1.5409E0,1.102177E-2,1.9586E0,3.3136501E0,-1.7161132E-3,3.5381E0,1.9409001E0,1.95555E0,2.4454E0,3.3857E0,2.0201209E-3,2.418995E-4,1.5359492E-3,-2.590137E-3,-1.5622528E-3,-8.521492E-3,1.383693E-3,1.009357E-2,-8.221815E-3,2.9584003E-4],"split_indices":[33,43,4,0,57,0,0,0,0,2,53,0,0,0,0,2,0,54,13,0,1,24,49,9,0,0,0,0,0,0,0,0,0,0,0],"split_type":[0,0,0,0,0,0,0,0,0,0,0,0,0,0,0,0,0,0,0,0,0,0,0,0,0,0,0,0,0,0,0,0,0,0,0],"sum_hessian":[4.41E2,4.37E2,4E0,4E0,4.33E2,2E0,2E0,1E0,3E0,6E0,4.27E2,1E0,1E0,2E0,1E0,4E0,2E0,3.9E1,3.88E2,1E0,3E0,3.1E1,8E0,4.3E1,3.45E2,2E0,1E0,7E0,2.4E1,3E0,5E0,3.5E1,8E0,1.7E1,3.28E2],"tree_param":{"num_deleted":"0","num_feature":"60","num_nodes":"35","size_leaf_vector":"0"}},{"base_weights":[8.860325E-5,2.954418E-3,-2.083854E-3,1.8195551E-3,7.346598E-2,-2.0055225E-2,-4.4815295E-4,5.564327E-4,4.025205E-2,9.4810486E-2,1.5388489E-2,-8.120144E-3,-5.662346E-2,3.355646E-2,-1.6552141E-3,1.4944077E-3,-4.2026043E-2,6.4896904E-2,1.1705399E-2,-1.8728528E-2,3.1039238E-2,-6.568527E-2,-1.0188103E-2,5.404091E-2,1.0457611E-2,-2.96669E-2,-4.8581135E-4,-6.06217E-4,2.055041E-2,-5.0545376E-2,-8.234024E-3,1.3804118E-2,2.7046204E-3,-2.3627916E-2,7.1118674E-3,1.4724731E-2,-3.3054352E-3,-4.0607452E-2,5.7500205E-3,2.4816241E-2,-1.3229136E-3,3.5567682E-3,-1.1694039E-2,3.6221504E-2,1.1736796E-2,4.2743683E-3,-2.6553066E-2,1.2653351E-2,-1.98555E-3,-4.3721516E-2,-1.0961533E-2,-5.174637E-3,1.3799667E-2,-1.3979594E-2,4.3130495E-2,-2.6973153E-2,-4.655064E-5],"categories":[],"categories_nodes":[],"categories_segments":[],"categories_sizes":[],"default_left":[1,1,1,1,1,1,1,1,1,0,0,1,1,1,1,1,1,0,1,1,0,0,0,0,1,1,1,1,1,0,0,0,0,1,1,0,0,1,1,1,1,0,0,0,0,0,0,0,0,0,0,0,0,0,0,0,0],"id":81,"left_children":[1,3,5,7,9,11,13,15,17,-1,-1,19,21,23,25,27,29,-1,31,33,-1,-1,-1,-1,35,37,39,41,43,-1,-1,-1,-1,45,47,-1,-1,49,51,53,55,-1,-1,-1,-1,-1,-1,-1,-1,-1,-1,-1,-1,-1,-1,-1,-1],"loss_changes":[2.7579868E-3,1.515033E-2,7.3987525E-3,9.152597E-3,2.2599157E-3,8.705552E-3,9.578134E-3,7.412003E-3,3.461524E-3,0E0,0E0,7.6434216E-3,1.4347341E-3,3.2201996E-3,7.355899E-3,7.257799E-3,7.353495E-4,0E0,3.8225553E-5,1.9404679E-3,0E0,0E0,0E0,0E0,3.4231454E-4,3.72082E-3,4.628977E-3,7.611577E-3,2.0610178E-3,0E0,0E0,0E0,0E0,1.0929182E-3,1.7636342E-4,0E0,0E0,1.6698055E-4,3.3522715E-4,5.5765635E-3,6.9066756E-3,0E0,0E0,0E0,0E0,0E0,0E0,0E0,0E0,0E0,0E0,0E0,0E0,0E0,0E0,0E0,0E0],"parents":[2147483647,0,0,1,1,2,2,3,3,4,4,5,5,6,6,7,7,8,8,11,11,12,12,13,13,14,14,15,15,16,16,18,18,19,19,24,24,25,25,26,26,27,27,28,28,33,33,34,34,37,37,38,38,39,39,40,40],"right_children":[2,4,6,8,10,12,14,16,18,-1,-1,20,22,24,26,28,30,-1,32,34,-1,-1,-1,-1,36,38,40,42,44,-1,-1,-1,-1,46,48,-1,-1,50,52,54,56,-1,-1,-1,-1,-1,-1,-1,-1,-1,-1,-1,-1,-1,-1,-1,-1],"split_conditions":[3.539E1,3.8525E1,3.8583E1,1.0081E2,2.18538E1,4.7344E1,3.49625E1,5.48835E1,1.00350006E2,2.8443146E-2,4.616547E-3,3.5375E1,1.0141499E2,3.85875E1,2.8143501E1,3.9663498E1,1.0039E2,1.9469071E-2,1.0705E2,3.47975E1,9.311772E-3,-1.9705582E-2,-3.056431E-3,1.6212273E-2,2.91464E1,4.3512497E1,2.362475E1,1.437815E1,4.1147E1,-1.51636135E-2,-2.4702074E-3,4.1412357E-3,8.1138615E-4,1.27945E1,3.36556E1,4.4174194E-3,-9.916306E-4,3.74925E1,1.4730499E1,1.92152E1,2.66865E1,1.0670305E-3,-3.5082118E-3,1.0866452E-2,3.521039E-3,1.2823106E-3,-7.9659205E-3,3.7960054E-3,-5.95665E-4,-1.3116456E-2,-3.28846E-3,-1.5523911E-3,4.1399E-3,-4.1938783E-3,1.2939149E-2,-8.091946E-3,-1.3965192E-5],"split_indices":[56,57,51,0,0,26,45,22,1,0,0,49,1,50,32,15,0,0,1,47,0,0,0,0,4,44,15,46,13,0,0,0,0,7,0,0,0,0,0,14,4,0,0,0,0,0,0,0,0,0,0,0,0,0,0,0,0],"split_type":[0,0,0,0,0,0,0,0,0,0,0,0,0,0,0,0,0,0,0,0,0,0,0,0,0,0,0,0,0,0,0,0,0,0,0,0,0,0,0,0,0,0,0,0,0,0,0,0,0,0,0,0,0,0,0,0,0],"sum_hessian":[4.41E2,1.9E2,2.51E2,1.88E2,2E0,2E1,2.31E2,1.83E2,5E0,1E0,1E0,1.6E1,4E0,7E0,2.24E2,1.8E2,3E0,2E0,3E0,1.3E1,3E0,3E0,1E0,3E0,4E0,8E0,2.16E2,1.63E2,1.7E1,2E0,1E0,2E0,1E0,1.1E1,2E0,3E0,1E0,6E0,2E0,6E0,2.1E2,1.19E2,4.4E1,5E0,1.2E1,1E0,1E1,1E0,1E0,5E0,1E0,1E0,1E0,2E0,4E0,9E0,2.01E2],"tree_param":{"num_deleted":"0","num_feature":"60","num_nodes":"57","size_leaf_vector":"0"}},{"base_weights":[1.5599183E-4,3.894336E-4,-2.0324707E-2,8.803099E-5,3.306961E-2,6.6375732E-3,-2.872467E-2,2.783403E-3,-1.6349062E-3,3.951518E-2,6.866455E-3,2.4647874E-4,5.412531E-2,-1.5518506E-2,-2.5695833E-4,9.5400796E-4,-2.2302246E-2,9.248861E-2,2.5922775E-2,-1.0304084E-3,-2.9920736E-2,2.6376512E-2,-1.2758701E-3,-9.96968E-4,1.0117395E-2,3.1079102E-2,7.05719E-5,1.0765076E-2,-2.2056198E-2,-7.991409E-3,-3.9886475E-2,3.6213737E-2,-5.3691864E-3,-1.6843796E-2,-1.3785796E-4],"categories":[],"categories_nodes":[],"categories_segments":[],"categories_sizes":[],"default_left":[1,1,1,1,1,0,0,1,1,0,0,1,1,1,1,1,0,0,1,1,1,1,1,0,0,0,0,0,0,0,0,0,0,0,0],"id":82,"left_children":[1,3,5,7,9,-1,-1,11,13,-1,-1,15,17,19,21,23,-1,-1,25,27,29,31,33,-1,-1,-1,-1,-1,-1,-1,-1,-1,-1,-1,-1],"loss_changes":[2.1211396E-3,4.311341E-3,1.3230729E-3,2.0246718E-3,4.0424755E-4,0E0,0E0,2.2129247E-2,5.0848257E-3,0E0,0E0,2.6217592E-3,6.2579773E-3,4.977031E-3,6.6279825E-3,2.8526168E-3,0E0,0E0,7.97621E-4,3.4615584E-3,2.303754E-3,3.0050445E-3,4.161053E-3,0E0,0E0,0E0,0E0,0E0,0E0,0E0,0E0,0E0,0E0,0E0,0E0],"parents":[2147483647,0,0,1,1,2,2,3,3,4,4,7,7,8,8,11,11,12,12,13,13,14,14,15,15,18,18,19,19,20,20,21,21,22,22],"right_children":[2,4,6,8,10,-1,-1,12,14,-1,-1,16,18,20,22,24,-1,-1,26,28,30,32,34,-1,-1,-1,-1,-1,-1,-1,-1,-1,-1,-1,-1],"split_conditions":[2.40315E2,2.33485E2,1.3585E2,2.667025E1,1.6467E2,1.991272E-3,-8.617401E-3,1.624495E1,3.2552002E1,1.18545545E-2,2.0599365E-3,4.6779E1,2.66865E1,3.02675E1,3.3219E1,1.4781401E1,-6.690674E-3,2.7746584E-2,3.190345E1,3.02505E1,3.12285E1,3.9085503E1,3.11815E1,-2.990904E-4,3.0352187E-3,9.323731E-3,2.117157E-5,3.2295228E-3,-6.6168597E-3,-2.3974227E-3,-1.1965943E-2,1.0864122E-2,-1.610756E-3,-5.053139E-3,-4.135739E-5],"split_indices":[46,47,4,11,1,0,0,0,18,0,0,59,13,19,16,39,0,0,13,15,50,23,36,0,0,0,0,0,0,0,0,0,0,0,0],"split_type":[0,0,0,0,0,0,0,0,0,0,0,0,0,0,0,0,0,0,0,0,0,0,0,0,0,0,0,0,0,0,0,0,0,0,0],"sum_hessian":[4.41E2,4.37E2,4E0,4.34E2,3E0,1E0,3E0,1.69E2,2.65E2,2E0,1E0,1.62E2,7E0,2.3E1,2.42E2,1.58E2,4E0,2E0,5E0,1.2E1,1.1E1,8E0,2.34E2,1.31E2,2.7E1,4E0,1E0,8E0,4E0,4E0,7E0,6E0,2E0,1.5E1,2.19E2],"tree_param":{"num_deleted":"0","num_feature":"60","num_nodes":"35","size_leaf_vector":"0"}},{"base_weights":[1.7026538E-4,-2.0873547E-2,3.616207E-4,-6.3853264E-3,-2.357451E-2,7.826638E-3,-2.8439716E-4,-9.996295E-4,2.1137442E-2,-1.5540679E-2,1.80983E-4,4.6730223E-3,-8.274114E-3,5.733899E-3,3.1973362E-2,-6.6443384E-3,-2.666669E-2,3.7382126E-2,-8.796311E-6,7.918373E-3,-4.3294826E-4,-4.6704212E-4,-1.5987778E-2,-1.3308525E-3,1.1365175E-2,1.0487914E-2,4.2767048E-2,-9.677683E-3,7.2945356E-3,1.1092484E-2,-4.177677E-4,-1.0898113E-3,9.360944E-3,3.235817E-3,-1.8138647E-3,4.426519E-3,-4.0204525E-3,-1.8641154E-3,1.3446808E-4,2.110958E-3,1.257658E-2,2.0070776E-2,-7.5306214E-4,-1.16073955E-2,4.368586E-4],"categories":[],"categories_nodes":[],"categories_segments":[],"categories_sizes":[],"default_left":[1,1,1,0,0,1,1,1,1,1,1,1,1,1,1,1,0,0,1,1,1,1,0,1,0,1,0,0,0,1,1,0,0,0,0,0,0,0,0,0,0,0,0,0,0],"id":83,"left_children":[1,3,5,-1,-1,7,9,11,13,15,17,19,21,23,25,27,-1,-1,29,31,33,35,-1,37,-1,39,-1,-1,-1,41,43,-1,-1,-1,-1,-1,-1,-1,-1,-1,-1,-1,-1,-1,-1],"loss_changes":[1.7874138E-3,5.9977174E-6,2.1193186E-3,0E0,0E0,4.133095E-3,2.8783006E-3,9.465088E-4,2.1534297E-3,1.010587E-3,2.7819718E-3,2.1884692E-4,5.9474434E-4,2.9361036E-4,1.4067199E-3,4.088454E-4,0E0,0E0,1.7888958E-3,1.1416117E-4,3.626688E-5,1.221296E-4,0E0,3.376268E-6,0E0,4.343802E-5,0E0,0E0,0E0,1.5040535E-3,3.6389919E-3,0E0,0E0,0E0,0E0,0E0,0E0,0E0,0E0,0E0,0E0,0E0,0E0,0E0,0E0],"parents":[2147483647,0,0,1,1,2,2,5,5,6,6,7,7,8,8,9,9,10,10,11,11,12,12,13,13,14,14,15,15,18,18,19,19,20,20,21,21,23,23,25,25,29,29,30,30],"right_children":[2,4,6,-1,-1,8,10,12,14,16,18,20,22,24,26,28,-1,-1,30,32,34,36,-1,38,-1,40,-1,-1,-1,42,44,-1,-1,-1,-1,-1,-1,-1,-1,-1,-1,-1,-1,-1,-1],"split_conditions":[1.3687999E0,1.2795999E0,1.9161999E0,-1.9155979E-3,-7.0723533E-3,3.43685E0,2.05745E0,2.13945E0,1.5042E0,2.1088E0,1.39595E0,1.99395E0,1.559E0,2.1707501E0,3.40815E0,2.27525E0,-8.000007E-3,1.1214638E-2,2.3371E0,1.8711E0,1.42495E0,1.4906E0,-4.7963336E-3,1.52915E0,3.4095526E-3,1.71085E0,1.2830115E-2,-2.903305E-3,2.1883608E-3,3.43685E0,3.12155E0,-3.269434E-4,2.8082833E-3,9.707451E-4,-5.4415944E-4,1.3279557E-3,-1.2061358E-3,-5.5923464E-4,4.0340426E-5,6.332875E-4,3.7729742E-3,6.0212333E-3,-2.2591864E-4,-3.4822188E-3,1.3105759E-4],"split_indices":[8,5,7,0,0,38,6,32,2,9,58,26,8,14,39,0,0,0,4,4,4,8,0,0,0,2,0,0,0,59,2,0,0,0,0,0,0,0,0,0,0,0,0,0,0],"split_type":[0,0,0,0,0,0,0,0,0,0,0,0,0,0,0,0,0,0,0,0,0,0,0,0,0,0,0,0,0,0,0,0,0,0,0,0,0,0,0,0,0,0,0,0,0],"sum_hessian":[4.41E2,3E0,4.38E2,1E0,2E0,3.4E1,4.04E2,2.1E1,1.3E1,1.1E1,3.93E2,1.2E1,9E0,6E0,7E0,7E0,4E0,1E0,3.92E2,7E0,5E0,5E0,4E0,3E0,3E0,3E0,4E0,6E0,1E0,1.3E1,3.79E2,1E0,6E0,1E0,4E0,2E0,3E0,2E0,1E0,1E0,2E0,7E0,6E0,2.6E1,3.53E2],"tree_param":{"num_deleted":"0","num_feature":"60","num_nodes":"45","size_leaf_vector":"0"}},{"base_weights":[1.5065007E-4,2.545451E-3,-1.6650548E-3,1.729137E-3,5.3124744E-2,-2.1286858E-2,-9.3447574E-4,6.3000806E-4,3.0216489E-2,6.665039E-2,1.3036728E-2,-5.0811768E-3,-3.323517E-2,1.2785661E-2,-2.0838038E-3,1.2625582E-3,-2.7992249E-2,4.3466568E-2,-1.9391378E-3,2.0503998E-3,-7.376671E-3,-1.2889862E-2,-4.2502087E-2,4.1902983E-3,2.6921954E-2,-1.5949026E-2,3.6957103E-4,-7.615511E-5,1.4102936E-2,-3.882599E-2,2.254486E-3,-7.041931E-3,4.1332245E-3,-1.31698605E-2,1.3369243E-2,6.544749E-3,3.3763885E-2,-4.235776E-2,-1.2974799E-2,6.622696E-2,-3.183683E-4,1.5116803E-3,-1.7196655E-2,1.0216236E-3,2.3157692E-2,2.20445E-2,-2.9859543E-3,-2.8780255E-2,-8.220453E-3,2.9711913E-2,-1.1153525E-3],"categories":[],"categories_nodes":[],"categories_segments":[],"categories_sizes":[],"default_left":[1,1,1,1,1,1,1,1,1,0,0,1,1,1,1,1,1,0,1,0,0,0,0,1,1,1,1,1,1,0,0,0,0,0,1,0,0,0,1,0,1,0,0,0,0,0,0,0,0,0,0],"id":84,"left_children":[1,3,5,7,9,11,13,15,17,-1,-1,19,21,23,25,27,29,-1,31,-1,-1,-1,-1,33,35,37,39,41,43,-1,-1,-1,-1,-1,45,-1,-1,-1,47,-1,49,-1,-1,-1,-1,-1,-1,-1,-1,-1,-1],"loss_changes":[1.9261657E-3,7.7942596E-3,3.592598E-3,5.8987946E-3,7.5774547E-4,1.573801E-3,3.8742633E-3,3.348559E-3,3.0667395E-3,0E0,0E0,9.697757E-5,3.9484538E-4,2.1958132E-3,7.693642E-3,3.0951991E-3,1.3982735E-3,0E0,1.220639E-4,0E0,0E0,0E0,0E0,2.247594E-3,7.549599E-4,2.1209652E-3,8.765121E-3,4.48426E-3,1.989959E-3,0E0,0E0,0E0,0E0,0E0,1.3427937E-3,0E0,0E0,0E0,2.1680407E-3,0E0,4.6284026E-3,0E0,0E0,0E0,0E0,0E0,0E0,0E0,0E0,0E0,0E0],"parents":[2147483647,0,0,1,1,2,2,3,3,4,4,5,5,6,6,7,7,8,8,11,11,12,12,13,13,14,14,15,15,16,16,18,18,23,23,24,24,25,25,26,26,27,27,28,28,34,34,38,38,40,40],"right_children":[2,4,6,8,10,12,14,16,18,-1,-1,20,22,24,26,28,30,-1,32,-1,-1,-1,-1,34,36,38,40,42,44,-1,-1,-1,-1,-1,46,-1,-1,-1,48,-1,50,-1,-1,-1,-1,-1,-1,-1,-1,-1,-1],"split_conditions":[3.539E1,3.8525E1,3.109055E1,5.1550003E1,2.18538E1,3.41425E1,3.9497E1,5.48835E1,5.1255E1,1.9995118E-2,3.9110184E-3,1.37202E1,3.52872E1,4.3657E1,4.955E1,3.9663498E1,1.01240005E2,1.3039971E-2,1.01205E2,6.1511993E-4,-2.2130013E-3,-3.8669587E-3,-1.2750627E-2,2.73698E1,1.38806E1,3.84E1,4.3845E1,3.144355E1,3.28755E1,-1.1647797E-2,6.7634584E-4,-2.1125795E-3,1.2399674E-3,-3.950958E-3,3.91155E1,1.9634247E-3,1.0129166E-2,-1.2707329E-2,2.8143501E1,1.9868089E-2,2.6472E1,4.5350412E-4,-5.1589967E-3,3.0648708E-4,6.947308E-3,6.6133505E-3,-8.9578633E-4,-8.634077E-3,-2.466136E-3,8.913575E-3,-3.3460575E-4],"split_indices":[56,57,48,24,0,53,47,22,26,0,0,0,0,57,49,15,0,0,0,0,0,0,0,6,0,51,56,17,29,0,0,0,0,0,53,0,0,0,32,0,15,0,0,0,0,0,0,0,0,0,0],"split_type":[0,0,0,0,0,0,0,0,0,0,0,0,0,0,0,0,0,0,0,0,0,0,0,0,0,0,0,0,0,0,0,0,0,0,0,0,0,0,0,0,0,0,0,0,0,0,0,0,0,0,0],"sum_hessian":[4.41E2,1.9E2,2.51E2,1.88E2,2E0,8E0,2.43E2,1.82E2,6E0,1E0,1E0,4E0,4E0,1.8E1,2.25E2,1.79E2,3E0,4E0,2E0,1E0,3E0,2E0,2E0,1.2E1,6E0,3.3E1,1.92E2,1.63E2,1.6E1,2E0,1E0,1E0,1E0,4E0,8E0,2E0,4E0,2E0,3.1E1,1E0,1.91E2,1.5E2,1.3E1,7E0,9E0,5E0,3E0,6E0,2.5E1,4E0,1.87E2],"tree_param":{"num_deleted":"0","num_feature":"60","num_nodes":"51","size_leaf_vector":"0"}},{"base_weights":[1.6900613E-4,3.003174E-4,-2.8869629E-2,4.3194808E-4,-2.8808594E-2,6.414496E-4,-1.7922973E-2,-6.896126E-5,1.0257975E-2,2.029419E-3,-2.3418427E-2,3.8208184E-4,-2.5897434E-2,2.8954642E-2,4.377365E-3,-2.6769003E-2,-6.6833496E-3,6.932265E-4,-4.112752E-2,-3.71521E-2,1.4928182E-3,1.0871887E-3,3.341802E-2,6.986445E-3,-1.6215006E-2],"categories":[],"categories_nodes":[],"categories_segments":[],"categories_sizes":[],"default_left":[1,1,0,1,0,1,1,1,1,0,1,1,1,1,1,0,0,0,0,0,0,0,0,0,0],"id":85,"left_children":[1,3,-1,5,-1,7,9,11,13,-1,15,17,19,21,23,-1,-1,-1,-1,-1,-1,-1,-1,-1,-1],"loss_changes":[1.69406E-3,1.702191E-3,0E0,1.7034657E-3,0E0,2.9793216E-3,5.9576286E-4,4.7513447E-3,3.1716893E-3,0E0,4.5381952E-5,5.2076234E-3,2.2133384E-3,8.343491E-4,1.4027365E-3,0E0,0E0,0E0,0E0,0E0,0E0,0E0,0E0,0E0,0E0],"parents":[2147483647,0,0,1,1,3,3,5,5,6,6,7,7,8,8,10,10,11,11,12,12,13,13,14,14],"right_children":[2,4,-1,6,-1,8,10,12,14,-1,16,18,20,22,24,-1,-1,-1,-1,-1,-1,-1,-1,-1,-1],"split_conditions":[2.5406E2,2.5406E2,-8.660889E-3,2.4011499E2,-8.6425785E-3,1.9076001E2,1.52195E2,1.7933E2,1.95215E2,6.088257E-4,1.6309E2,1.9712E2,2.15345E2,1.80905E2,2.2613E2,-8.030701E-3,-2.005005E-3,2.0796797E-4,-1.2338257E-2,-1.1145631E-2,4.478455E-4,3.2615662E-4,1.0025406E-2,2.0959335E-3,-4.8645018E-3],"split_indices":[8,23,0,33,0,23,4,24,16,0,0,16,2,24,42,0,0,0,0,0,0,0,0,0,0],"split_type":[0,0,0,0,0,0,0,0,0,0,0,0,0,0,0,0,0,0,0,0,0,0,0,0,0],"sum_hessian":[4.41E2,4.4E2,1E0,4.39E2,1E0,4.35E2,4E0,4.06E2,2.9E1,1E0,3E0,4E2,6E0,6E0,2.3E1,2E0,1E0,3.98E2,2E0,4E0,2E0,1E0,5E0,2.1E1,2E0],"tree_param":{"num_deleted":"0","num_feature":"60","num_nodes":"25","size_leaf_vector":"0"}},{"base_weights":[2.2733913E-5,-1.989393E-4,1.6164145E-2,-9.241871E-6,-2.7638754E-2,6.091309E-3,3.326416E-2,-1.8700736E-4,1.9191742E-2,8.783977E-3,1.3682047E-3,6.1408844E-4,-6.762241E-3,2.255249E-2,4.5547485E-3,1.6382297E-4,2.9103598E-2,-2.6384141E-2,-2.060719E-3,-3.48982E-4,1.9223785E-2,3.4341432E-2,1.4572144E-3,-1.7421177E-2,-3.850301E-2,-1.0408101E-2,5.589803E-3],"categories":[],"categories_nodes":[],"categories_segments":[],"categories_sizes":[],"default_left":[1,1,1,1,0,1,0,1,1,0,0,1,1,0,0,1,1,1,1,0,0,0,0,0,0,0,0],"id":86,"left_children":[1,3,5,7,-1,9,-1,11,13,-1,-1,15,17,-1,-1,19,21,23,25,-1,-1,-1,-1,-1,-1,-1,-1],"loss_changes":[1.584744E-3,2.274444E-3,8.308516E-4,1.4883624E-3,0E0,5.157046E-5,0E0,2.2796658E-3,9.404414E-5,0E0,0E0,4.946779E-3,4.2815115E-3,0E0,0E0,3.7306193E-3,8.188002E-4,3.0682143E-4,2.5487903E-3,0E0,0E0,0E0,0E0,0E0,0E0,0E0,0E0],"parents":[2147483647,0,0,1,1,2,2,3,3,5,5,7,7,8,8,11,11,12,12,15,15,16,16,17,17,18,18],"right_children":[2,4,6,8,-1,10,-1,12,14,-1,-1,16,18,-1,-1,20,22,24,26,-1,-1,-1,-1,-1,-1,-1,-1],"split_conditions":[2.3842E2,2.3483E2,1.8531E2,2.3016E2,-8.291626E-3,1.7932E2,9.979248E-3,1.6835E2,1.5258499E2,2.635193E-3,4.1046142E-4,1.6237E2,1.7368E2,6.7657474E-3,1.3664246E-3,1.6617E2,2.075E2,1.99095E2,1.93875E2,-1.04694605E-4,5.767136E-3,1.030243E-2,4.3716433E-4,-5.226353E-3,-1.1550903E-2,-3.1224303E-3,1.676941E-3],"split_indices":[58,58,1,56,0,0,0,44,0,0,0,44,43,0,0,39,0,2,13,0,0,0,0,0,0,0,0],"split_type":[0,0,0,0,0,0,0,0,0,0,0,0,0,0,0,0,0,0,0,0,0,0,0,0,0,0,0],"sum_hessian":[4.41E2,4.36E2,5E0,4.34E2,2E0,4E0,1E0,4.31E2,3E0,2E0,2E0,3.85E2,4.6E1,2E0,1E0,3.8E2,5E0,8E0,3.8E1,3.71E2,9E0,4E0,1E0,6E0,2E0,1.8E1,2E1],"tree_param":{"num_deleted":"0","num_feature":"60","num_nodes":"27","size_leaf_vector":"0"}},{"base_weights":[4.1361847E-5,1.3369072E-3,-2.4391979E-3,8.0107985E-4,5.2509308E-2,-4.032898E-2,-8.7608286E-4,1.5593918E-4,3.1204224E-2,-1.4048259E-2,-4.9957275E-2,2.1159172E-2,-2.1289825E-3,5.417617E-4,-2.6987076E-2,-6.5612793E-3,4.006958E-2,3.5152435E-2,-1.3880412E-2,-3.597423E-2,-3.450593E-4,-5.3091364E-5,1.8525442E-2,-3.8174946E-2,3.288269E-3,3.980001E-3,4.9743652E-2,-4.7576267E-2,1.6819E-2,-3.5346985E-2,1.2856121E-3,9.7096764E-4,-1.3794246E-2,3.6125183E-2,3.704707E-3,-1.8692017E-3,7.839203E-3,-3.829193E-2,-1.0311127E-2,1.537761E-2,-2.4208883E-3],"categories":[],"categories_nodes":[],"categories_segments":[],"categories_sizes":[],"default_left":[1,1,1,1,0,1,1,1,1,0,0,1,1,1,1,0,0,1,0,1,1,1,1,0,0,1,0,0,0,1,1,0,0,0,0,0,0,0,0,0,0],"id":87,"left_children":[1,3,5,7,-1,9,11,13,15,-1,-1,17,19,21,23,-1,-1,25,-1,27,29,31,33,-1,-1,35,-1,-1,-1,37,39,-1,-1,-1,-1,-1,-1,-1,-1,-1,-1],"loss_changes":[1.4237064E-3,7.937032E-3,8.967034E-3,5.663668E-3,0E0,8.1641786E-4,4.1034184E-3,2.9887783E-3,2.2717356E-3,0E0,0E0,4.410475E-3,8.440412E-3,3.0070222E-3,1.4803959E-3,0E0,0E0,2.5310833E-3,0E0,5.087749E-3,7.693712E-3,3.8549823E-3,2.2137363E-3,0E0,0E0,8.237282E-5,0E0,0E0,0E0,4.754262E-5,6.775155E-3,0E0,0E0,0E0,0E0,0E0,0E0,0E0,0E0,0E0,0E0],"parents":[2147483647,0,0,1,1,2,2,3,3,5,5,6,6,7,7,8,8,11,11,12,12,13,13,14,14,17,17,19,19,20,20,21,21,22,22,25,25,29,29,30,30],"right_children":[2,4,6,8,-1,10,12,14,16,-1,-1,18,20,22,24,-1,-1,26,-1,28,30,32,34,-1,-1,36,-1,-1,-1,38,40,-1,-1,-1,-1,-1,-1,-1,-1,-1,-1],"split_conditions":[8.9715E1,1.0555499E2,8.67E1,9.5225006E1,1.5752792E-2,7.02115E1,9.4385E1,1.33505E2,2.6536499E1,-4.2144777E-3,-1.4987183E-2,9.7445E1,8.5244995E1,1.1384E2,1.22975E2,-1.9683838E-3,1.2020875E-2,8.987E1,-4.164124E-3,1.32315E2,8.997E1,9.991E1,1.14515E2,-1.1452484E-2,9.864807E-4,1.47605E2,1.4923097E-2,-1.4272881E-2,5.0457004E-3,9.2215E1,1.1965E2,2.9129031E-4,-4.138274E-3,1.0837555E-2,1.1114121E-3,-5.607605E-4,2.3517609E-3,-1.148758E-2,-3.093338E-3,4.613283E-3,-7.2626653E-4],"split_indices":[41,20,38,46,0,0,40,6,0,0,0,34,51,9,0,0,0,39,0,17,35,8,8,0,0,0,0,0,0,34,39,0,0,0,0,0,0,0,0,0,0],"split_type":[0,0,0,0,0,0,0,0,0,0,0,0,0,0,0,0,0,0,0,0,0,0,0,0,0,0,0,0,0,0,0,0,0,0,0,0,0,0,0,0,0],"sum_hessian":[4.41E2,2.9E2,1.51E2,2.88E2,2E0,5E0,1.46E2,2.83E2,5E0,2E0,3E0,7E0,1.39E2,2.8E2,3E0,1E0,4E0,5E0,2E0,6E0,1.33E2,2.72E2,8E0,2E0,1E0,2E0,3E0,5E0,1E0,5E0,1.28E2,2.54E2,1.8E1,3E0,5E0,1E0,1E0,4E0,1E0,2.6E1,1.02E2],"tree_param":{"num_deleted":"0","num_feature":"60","num_nodes":"41","size_leaf_vector":"0"}},{"base_weights":[2.3003617E-5,-1.7494202E-2,1.8256129E-4,1.3471472E-3,-2.2125775E-3,6.522919E-4,3.48231E-2,-2.3778476E-2,-7.190126E-5,1.2106026E-3,-2.217211E-2,8.346558E-3,3.8449097E-2,-9.542986E-3,-6.804911E-2,1.3385997E-2,-2.0435597E-3,5.0999766E-4,5.03006E-2,-3.422928E-2,-4.5719147E-3,-1.7605374E-2,3.652954E-3,4.9937854E-4,3.1724114E-2,-2.648024E-2,5.116013E-4,2.3031235E-4,3.955078E-2,1.0322571E-2,6.018575E-2,-7.8862505E-3,2.6855469E-3,4.5166016E-3,-2.2045135E-2,7.586161E-3,-1.4979044E-3,1.8671036E-2,-8.648872E-3,3.479004E-2,6.664276E-3,-3.0812073E-2,8.419037E-3,3.0448914E-2,-1.9127432E-3],"categories":[],"categories_nodes":[],"categories_segments":[],"categories_sizes":[],"default_left":[1,0,1,1,1,1,1,1,1,1,1,0,0,1,0,1,1,1,1,0,1,1,1,1,1,1,1,0,0,0,0,0,0,0,0,0,0,0,0,0,0,0,0,0,0],"id":88,"left_children":[1,-1,3,5,7,9,11,13,15,17,19,-1,-1,21,-1,23,25,27,29,-1,31,33,35,37,39,41,43,-1,-1,-1,-1,-1,-1,-1,-1,-1,-1,-1,-1,-1,-1,-1,-1,-1,-1],"loss_changes":[1.2385858E-3,0E0,1.227503E-3,6.8625235E-3,6.6461368E-3,3.7350855E-3,2.5510555E-4,7.5433934E-3,3.529893E-3,9.7762635E-3,1.3289661E-3,0E0,0E0,1.2346101E-3,0E0,4.0015345E-3,7.2565475E-3,3.0700865E-3,9.594839E-4,0E0,1.1739356E-4,7.870833E-4,1.126603E-4,1.990111E-3,3.0597113E-4,1.9223634E-3,7.751547E-3,0E0,0E0,0E0,0E0,0E0,0E0,0E0,0E0,0E0,0E0,0E0,0E0,0E0,0E0,0E0,0E0,0E0,0E0],"parents":[2147483647,0,0,2,2,3,3,4,4,5,5,6,6,7,7,8,8,9,9,10,10,13,13,15,15,16,16,17,17,18,18,20,20,21,21,22,22,23,23,24,24,25,25,26,26],"right_children":[2,-1,4,6,8,10,12,14,16,18,20,-1,-1,22,-1,24,26,28,30,-1,32,34,36,38,40,42,44,-1,-1,-1,-1,-1,-1,-1,-1,-1,-1,-1,-1,-1,-1,-1,-1,-1,-1],"split_conditions":[1.3687999E0,-5.2482607E-3,9.3134995E1,9.274E1,9.9045E1,1.3667499E2,5.7181E1,9.7365005E1,1.0205E2,1.36075E2,1.7339E2,2.5039674E-3,1.153473E-2,9.5095E1,-2.0414734E-2,1.01685E2,1.18015E2,1.09259995E2,1.0375E2,-1.0268784E-2,1.924E2,8.8604996E1,1.7469E2,9.456E1,1.79165E2,1.9195999E2,1.3217E2,6.909371E-5,1.1865235E-2,3.0967714E-3,1.8055726E-2,-2.3658753E-3,8.056641E-4,1.3549805E-3,-6.613541E-3,2.2758485E-3,-4.4937135E-4,5.601311E-3,-2.594662E-3,1.0437012E-2,1.999283E-3,-9.243622E-3,2.5257112E-3,9.134674E-3,-5.73823E-4],"split_indices":[8,0,50,51,48,8,0,48,43,3,1,0,0,48,0,44,46,56,9,0,0,47,4,47,0,0,48,0,0,0,0,0,0,0,0,0,0,0,0,0,0,0,0,0,0],"split_type":[0,0,0,0,0,0,0,0,0,0,0,0,0,0,0,0,0,0,0,0,0,0,0,0,0,0,0,0,0,0,0,0,0,0,0,0,0,0,0,0,0,0,0,0,0],"sum_hessian":[4.41E2,3E0,4.38E2,2.95E2,1.43E2,2.9E2,5E0,1.2E1,1.31E2,2.84E2,6E0,1E0,4E0,1E1,2E0,1.6E1,1.15E2,2.81E2,3E0,3E0,3E0,6E0,4E0,1E1,6E0,1E1,1.05E2,2.8E2,1E0,1E0,2E0,2E0,1E0,1E0,5E0,2E0,2E0,3E0,7E0,5E0,1E0,9E0,1E0,7E0,9.8E1],"tree_param":{"num_deleted":"0","num_feature":"60","num_nodes":"45","size_leaf_vector":"0"}},{"base_weights":[7.0556795E-5,-1.2878094E-4,1.45772295E-2,1.711133E-5,-2.1240234E-2,5.92041E-3,2.8930664E-2,-1.4115042E-4,1.7105103E-2,7.898967E-3,1.9683838E-3,2.66676E-4,-1.2336731E-2,3.8909912E-3,2.0212809E-2,-2.5904505E-4,1.1348122E-2,-2.0458646E-2,1.9022623E-3,3.808534E-4,-9.502998E-3,2.8891245E-2,3.0190605E-3,-6.0272217E-3,-2.666982E-2,7.843018E-3,-6.652832E-3],"categories":[],"categories_nodes":[],"categories_segments":[],"categories_sizes":[],"default_left":[1,1,1,1,0,1,0,1,1,0,0,1,1,0,0,1,1,1,1,0,0,0,0,0,0,0,0],"id":89,"left_children":[1,3,5,7,-1,9,-1,11,13,-1,-1,15,17,-1,-1,19,21,23,25,-1,-1,-1,-1,-1,-1,-1,-1],"loss_changes":[1.2800208E-3,1.3463226E-3,5.742492E-4,1.1788177E-3,0E0,2.3548331E-5,0E0,2.15192E-3,8.5614505E-5,0E0,0E0,2.443929E-3,1.657988E-3,0E0,0E0,2.3756106E-3,2.6890128E-3,6.4598E-4,3.5712062E-4,0E0,0E0,0E0,0E0,0E0,0E0,0E0,0E0],"parents":[2147483647,0,0,1,1,2,2,3,3,5,5,7,7,8,8,11,11,12,12,15,15,16,16,17,17,18,18],"right_children":[2,4,6,8,-1,10,-1,12,14,-1,-1,16,18,-1,-1,20,22,24,26,-1,-1,-1,-1,-1,-1,-1,-1],"split_conditions":[2.3842E2,2.3483E2,1.8531E2,2.40315E2,-6.3720704E-3,1.7932E2,8.6792E-3,2.18285E2,1.49105E2,2.3696902E-3,5.9051515E-4,1.9011E2,2.3842E2,1.1672974E-3,6.0638427E-3,1.6237E2,1.7320999E2,2.15295E2,1.5636499E2,1.1425602E-4,-2.8508995E-3,8.667374E-3,9.057182E-4,-1.8081666E-3,-8.000947E-3,2.3529055E-3,-1.9958497E-3],"split_indices":[58,58,1,35,0,0,0,33,0,0,0,35,32,0,0,46,58,34,0,0,0,0,0,0,0,0,0],"split_type":[0,0,0,0,0,0,0,0,0,0,0,0,0,0,0,0,0,0,0,0,0,0,0,0,0,0,0],"sum_hessian":[4.41E2,4.36E2,5E0,4.34E2,2E0,4E0,1E0,4.31E2,3E0,2E0,2E0,4.18E2,1.3E1,1E0,2E0,4E2,1.8E1,8E0,5E0,3.75E2,2.5E1,5E0,1.3E1,3E0,5E0,3E0,2E0],"tree_param":{"num_deleted":"0","num_feature":"60","num_nodes":"27","size_leaf_vector":"0"}},{"base_weights":[7.26853E-5,-8.034435E-5,1.6849518E-2,-1.008414E-2,1.5248892E-4,-1.7445479E-2,5.3192377E-3,3.3303127E-3,-9.237076E-4,-2.2763968E-2,-2.7661722E-3,-5.0262213E-3,1.0443131E-2,3.041508E-4,4.149759E-2,-4.0383477E-2,-4.667572E-5,-4.772067E-3,6.2280893E-4,1.8466383E-3,-2.9989433E-2,5.569013E-2,-7.200241E-4,-3.9250054E-3,-5.4181863E-2,4.7878902E-2,-5.044147E-4,-5.9753023E-5,3.7317466E-2,-3.4493685E-2,-5.9862137E-3,6.2970735E-2,9.643555E-3,-8.980274E-3,7.900238E-3,5.373001E-3,-1.12605095E-2,1.7210219E-2,-1.023785E-3],"categories":[],"categories_nodes":[],"categories_segments":[],"categories_sizes":[],"default_left":[1,1,0,1,1,1,1,1,1,0,1,0,0,1,1,1,1,0,0,1,1,1,1,1,0,0,1,0,0,0,0,0,0,0,0,0,0,0,0],"id":90,"left_children":[1,3,-1,5,7,9,11,13,15,-1,17,-1,-1,19,21,23,25,-1,-1,27,29,31,33,35,-1,-1,37,-1,-1,-1,-1,-1,-1,-1,-1,-1,-1,-1,-1],"loss_changes":[1.1361236E-3,1.0240638E-3,0E0,1.2266914E-3,1.4736603E-3,4.8353313E-4,2.645256E-4,1.2576917E-2,1.1141722E-2,0E0,2.3365907E-5,0E0,0E0,4.8215818E-3,4.8335E-3,3.3088122E-3,6.956372E-3,0E0,0E0,6.6291154E-3,3.3409614E-4,1.4042202E-3,2.8456288E-4,2.6511942E-4,0E0,0E0,2.9065618E-3,0E0,0E0,0E0,0E0,0E0,0E0,0E0,0E0,0E0,0E0,0E0,0E0],"parents":[2147483647,0,0,1,1,3,3,4,4,5,5,6,6,7,7,8,8,10,10,13,13,14,14,15,15,16,16,19,19,20,20,21,21,22,22,23,23,26,26],"right_children":[2,4,-1,6,8,10,12,14,16,-1,18,-1,-1,20,22,24,26,-1,-1,28,30,32,34,36,-1,-1,38,-1,-1,-1,-1,-1,-1,-1,-1,-1,-1,-1,-1],"split_conditions":[2.43055E2,1.4906E0,5.0548557E-3,2.2312E0,1.37283E1,2.4103498E0,2.0304E0,8.695101E0,1.41147E1,-6.8291905E-3,2.69355E0,-1.5078664E-3,3.1329396E-3,6.55305E0,1.44398E1,3.7101998E0,1.301475E1,-1.4316202E-3,1.8684269E-4,3.7984E0,3.8068E0,1.489205E1,6.2126E0,3.7077498E0,-1.625456E-2,1.4363672E-2,1.37283E1,-1.7925908E-5,1.1195241E-2,-1.0348106E-2,-1.7958642E-3,1.889122E-2,2.8930665E-3,-2.6940824E-3,2.3700716E-3,1.6119004E-3,-3.378153E-3,5.163066E-3,-3.0713552E-4],"split_indices":[45,29,0,41,42,0,0,31,48,0,0,0,0,29,32,6,29,0,0,20,1,29,0,0,0,0,26,0,0,0,0,0,0,0,0,0,0,0,0],"split_type":[0,0,0,0,0,0,0,0,0,0,0,0,0,0,0,0,0,0,0,0,0,0,0,0,0,0,0,0,0,0,0,0,0,0,0,0,0,0,0],"sum_hessian":[4.41E2,4.38E2,3E0,9E0,4.29E2,6E0,3E0,1.08E2,3.21E2,4E0,2E0,1E0,2E0,1.01E2,7E0,6E0,3.15E2,1E0,1E0,9.7E1,4E0,5E0,2E0,2E0,4E0,2E0,3.13E2,9.3E1,4E0,3E0,1E0,4E0,1E0,1E0,1E0,1E0,1E0,8E0,3.05E2],"tree_param":{"num_deleted":"0","num_feature":"60","num_nodes":"39","size_leaf_vector":"0"}},{"base_weights":[9.641901E-5,-8.673072E-3,3.6131893E-4,-4.669872E-3,-2.0460447E-2,1.5099276E-2,-2.553548E-5,-8.645753E-3,8.43207E-5,-3.2699108E-4,2.3960998E-2,3.1268E-2,-1.7484702E-4,-9.65724E-3,-1.7941594E-3,-1.8469691E-3,2.6312668E-3,-5.3744316E-3,2.278477E-3,3.0705739E-2,4.7327676E-3,-1.4335536E-3,2.2645697E-3,-3.9243698E-4,3.299594E-3,-5.0253264E-4,-5.1980592E-2,3.631374E-2,5.083014E-4,1.5538288E-4,-3.5797883E-2,5.53421E-2,-7.5047812E-3,-8.6193085E-3,2.6226726E-3],"categories":[],"categories_nodes":[],"categories_segments":[],"categories_sizes":[],"default_left":[1,1,1,1,0,1,1,1,1,1,1,0,1,0,0,0,0,0,1,0,0,1,1,0,0,1,0,1,1,0,0,0,0,0,0],"id":91,"left_children":[1,3,5,7,-1,9,11,13,15,17,19,-1,21,-1,-1,-1,-1,-1,23,-1,-1,25,27,-1,-1,29,-1,31,33,-1,-1,-1,-1,-1,-1],"loss_changes":[1.0299162E-3,5.1788613E-4,2.4520063E-3,2.0865217E-4,0E0,1.5115715E-3,1.9679114E-3,2.4255161E-5,3.4373217E-5,7.8000245E-5,7.6250266E-4,0E0,1.2897901E-3,0E0,0E0,8.331572E-7,0E0,0E0,1.2204144E-5,0E0,0E0,1.3009596E-2,8.532866E-3,0E0,0E0,6.3449936E-3,0E0,6.251894E-3,2.6665898E-3,0E0,0E0,0E0,0E0,0E0,0E0],"parents":[2147483647,0,0,1,1,2,2,3,3,5,5,6,6,7,7,8,8,9,9,10,10,12,12,18,18,21,21,22,22,25,25,27,27,28,28],"right_children":[2,4,6,8,-1,10,12,14,16,18,20,-1,22,-1,-1,-1,-1,-1,24,-1,-1,26,28,-1,-1,30,-1,32,34,-1,-1,-1,-1,-1,-1],"split_conditions":[1.51225E0,3.5798001E0,1.67515E0,2.1817E0,-6.1381343E-3,3.3136501E0,1.39595E0,1.69085E0,1.4856E0,1.2795999E0,1.6647999E0,9.3804E-3,9.579E1,-2.897172E-3,-5.3824787E-4,-5.540908E-4,7.893801E-4,-1.6123295E-3,1.7146499E0,9.211722E-3,1.4198304E-3,9.6175E1,9.566E1,-1.177311E-4,9.898782E-4,1.15740005E2,-1.5594178E-2,1.0734E2,9.83E1,4.6614867E-5,-1.0739366E-2,1.6602632E-2,-2.2514344E-3,-2.5857927E-3,7.868018E-4],"split_indices":[4,24,3,18,0,36,58,1,1,14,4,0,12,0,0,0,0,0,9,0,0,11,13,0,0,22,0,0,24,0,0,0,0,0,0],"split_type":[0,0,0,0,0,0,0,0,0,0,0,0,0,0,0,0,0,0,0,0,0,0,0,0,0,0,0,0,0,0,0,0,0,0,0],"sum_hessian":[4.41E2,1.2E1,4.29E2,1E1,2E0,1E1,4.19E2,5E0,5E0,4E0,6E0,1E0,4.18E2,4E0,1E0,3E0,2E0,1E0,3E0,4E0,2E0,2.76E2,1.42E2,1E0,2E0,2.72E2,4E0,6E0,1.36E2,2.68E2,4E0,4E0,2E0,2.5E1,1.11E2],"tree_param":{"num_deleted":"0","num_feature":"60","num_nodes":"35","size_leaf_vector":"0"}},{"base_weights":[5.839556E-5,1.24517875E-2,-1.1189906E-4,2.6744127E-2,-1.07552605E-2,-1.1518518E-2,1.2766148E-4,3.873825E-3,3.3076286E-2,-2.446413E-3,-1.3686478E-2,-1.5664186E-2,1.9942124E-3,5.899945E-4,-4.0363045E-3,-5.258918E-3,-1.877451E-2,3.5719872E-3,-5.8066845E-4,8.225409E-5,1.3176473E-2,-2.1471977E-2,-4.9591064E-5,3.547749E-4,-2.5146484E-2,2.127552E-2,3.4303665E-3,-7.0709228E-3,-3.41053E-2,3.9347773E-3,-6.591797E-3,-1.1297525E-4,1.1432393E-2,-3.5573322E-2,3.0670166E-3,2.9323578E-2,1.058197E-2,8.547974E-3,-3.824234E-3,-1.9378662E-3,-7.86972E-3,-9.281158E-3,8.1214905E-3,-1.4297485E-2,6.0653687E-3],"categories":[],"categories_nodes":[],"categories_segments":[],"categories_sizes":[],"default_left":[1,1,1,1,1,1,1,0,0,0,0,1,1,1,1,0,0,0,0,1,1,1,1,1,1,1,1,1,0,1,1,0,0,0,0,0,0,0,0,0,0,0,0,0,0],"id":92,"left_children":[1,3,5,7,9,11,13,-1,-1,-1,-1,15,17,19,21,-1,-1,-1,-1,23,25,27,29,31,33,35,37,39,-1,41,43,-1,-1,-1,-1,-1,-1,-1,-1,-1,-1,-1,-1,-1,-1],"loss_changes":[9.3424675E-4,2.2777382E-3,1.1956061E-3,4.5114174E-4,3.9582344E-5,5.354113E-4,8.28266E-4,0E0,0E0,0E0,0E0,1.2781261E-4,1.4261886E-5,2.472103E-3,2.9879094E-3,0E0,0E0,0E0,0E0,2.5734291E-3,1.1110299E-3,1.2143098E-3,9.6433336E-4,1.9184679E-3,1.2858144E-3,3.781973E-4,3.2969902E-4,5.250913E-6,0E0,1.3479975E-3,1.4521698E-3,0E0,0E0,0E0,0E0,0E0,0E0,0E0,0E0,0E0,0E0,0E0,0E0,0E0,0E0],"parents":[2147483647,0,0,1,1,2,2,3,3,4,4,5,5,6,6,11,11,12,12,13,13,14,14,19,19,20,20,21,21,22,22,23,23,24,24,25,25,26,26,27,27,29,29,30,30],"right_children":[2,4,6,8,10,12,14,-1,-1,-1,-1,16,18,20,22,-1,-1,-1,-1,24,26,28,30,32,34,36,38,40,-1,42,44,-1,-1,-1,-1,-1,-1,-1,-1,-1,-1,-1,-1,-1,-1],"split_conditions":[1.4384999E0,2.8815E0,1.5659001E0,2.10015E0,2.9625E0,1.6907E0,1.7845999E2,1.1621476E-3,9.922886E-3,-7.339239E-4,-4.1059437E-3,1.61695E0,2.4384499E0,1.65875E2,1.64325E2,-1.5776755E-3,-5.632353E-3,1.0715962E-3,-1.7420054E-4,1.8945999E2,1.47765E2,1.48965E2,1.7873E2,1.6289E2,1.70055E2,1.6906E2,1.5785E2,1.21595E2,-1.0231591E-2,1.91645E2,2.3323E2,-3.3892575E-5,3.429718E-3,-1.0671997E-2,9.20105E-4,8.797074E-3,3.174591E-3,2.5643923E-3,-1.1472702E-3,-5.813599E-4,-2.3609162E-3,-2.7843476E-3,2.4364472E-3,-4.2892457E-3,1.8196107E-3],"split_indices":[38,1,38,0,0,35,14,0,0,0,0,47,0,17,26,0,0,0,0,22,39,26,56,28,3,0,3,0,0,16,33,0,0,0,0,0,0,0,0,0,0,0,0,0,0],"split_type":[0,0,0,0,0,0,0,0,0,0,0,0,0,0,0,0,0,0,0,0,0,0,0,0,0,0,0,0,0,0,0,0,0,0,0,0,0,0,0,0,0,0,0,0,0],"sum_hessian":[4.41E2,5E0,4.36E2,3E0,2E0,8E0,4.28E2,1E0,2E0,1E0,1E0,6E0,2E0,3.86E2,4.2E1,2E0,4E0,1E0,1E0,3.72E2,1.4E1,7E0,3.5E1,3.69E2,3E0,7E0,7E0,4E0,3E0,2.2E1,1.3E1,3.55E2,1.4E1,2E0,1E0,3E0,4E0,4E0,3E0,1E0,3E0,5E0,1.7E1,8E0,5E0],"tree_param":{"num_deleted":"0","num_feature":"60","num_nodes":"45","size_leaf_vector":"0"}},{"base_weights":[1.9530096E-5,-7.0836227E-3,2.6842672E-4,4.215581E-4,-1.2133916E-2,2.1549225E-2,1.1793185E-4,-3.6564767E-3,4.3942034E-3,-1.4082892E-2,-3.5416682E-3,2.6594698E-2,5.729139E-3,3.2582548E-3,-5.1931094E-4,-4.820188E-3,-8.267164E-5,-1.5044709E-2,-4.1559935E-3,6.7173736E-4,3.7783243E-2,-1.4002174E-2,6.332485E-4,2.4797386E-3,-5.88185E-3,4.3418646E-2,7.6208115E-3,1.9993544E-2,-1.8881403E-2,1.3588548E-2,-3.8826113E-4,-3.2360852E-3,6.824901E-3,-1.2392627E-2,3.3294132E-3,4.7385693E-4,2.6342154E-2,-2.2198496E-2,1.284345E-2,-8.733034E-3,2.3293495E-2,-2.3490906E-2,1.5390199E-4],"categories":[],"categories_nodes":[],"categories_segments":[],"categories_sizes":[],"default_left":[1,1,1,1,1,1,1,1,0,1,0,0,0,1,1,0,0,0,0,1,1,1,1,1,1,0,0,1,1,1,1,0,0,0,0,0,0,0,0,0,0,0,0],"id":93,"left_children":[1,3,5,7,9,11,13,15,-1,17,-1,-1,-1,19,21,-1,-1,-1,-1,23,25,27,29,31,33,-1,-1,35,37,39,41,-1,-1,-1,-1,-1,-1,-1,-1,-1,-1,-1,-1],"loss_changes":[7.833357E-4,5.7366566E-4,1.3681933E-3,1.294714E-4,1.0083779E-4,8.7094726E-5,8.541811E-4,1.6237016E-5,0E0,4.309346E-6,0E0,0E0,0E0,6.4041824E-3,5.5254963E-3,0E0,0E0,0E0,0E0,8.2031026E-4,5.190023E-4,5.021946E-3,4.3460154E-3,1.3632397E-3,9.4084744E-4,0E0,0E0,4.8320915E-4,2.9159635E-3,5.402538E-3,3.8238629E-3,0E0,0E0,0E0,0E0,0E0,0E0,0E0,0E0,0E0,0E0,0E0,0E0],"parents":[2147483647,0,0,1,1,2,2,3,3,4,4,5,5,6,6,7,7,9,9,13,13,14,14,19,19,20,20,21,21,22,22,23,23,24,24,27,27,28,28,29,29,30,30],"right_children":[2,4,6,8,10,12,14,16,-1,18,-1,-1,-1,20,22,-1,-1,-1,-1,24,26,28,30,32,34,-1,-1,36,38,40,42,-1,-1,-1,-1,-1,-1,-1,-1,-1,-1,-1,-1],"split_conditions":[1.5659001E0,1.45595E0,1.4354E0,1.41195E0,1.90475E0,3.092E0,3.24875E0,2.41475E0,1.318261E-3,2.98025E0,-1.0625005E-3,7.9784095E-3,1.7187417E-3,3.8184E0,1.42029E1,-1.4460564E-3,-2.4801493E-5,-4.5134127E-3,-1.2467981E-3,3.6282501E0,3.3151999E0,2.6862001E0,1.334245E1,1.98325E0,8.47575E0,1.3025594E-2,2.2862435E-3,3.3645E0,1.4629049E1,1.38308E1,2.45225E1,-9.708256E-4,2.0474703E-3,-3.7177883E-3,9.98824E-4,1.4215708E-4,7.902646E-3,-6.659549E-3,3.853035E-3,-2.6199103E-3,6.988049E-3,-7.047272E-3,4.6170597E-5],"split_indices":[49,51,52,50,43,0,11,0,0,3,0,0,0,31,52,0,0,0,0,41,5,23,10,50,52,0,0,0,42,48,46,0,0,0,0,0,0,0,0,0,0,0,0],"split_type":[0,0,0,0,0,0,0,0,0,0,0,0,0,0,0,0,0,0,0,0,0,0,0,0,0,0,0,0,0,0,0,0,0,0,0,0,0,0,0,0,0,0,0],"sum_hessian":[4.41E2,1.4E1,4.27E2,6E0,8E0,2E0,4.25E2,3E0,3E0,6E0,2E0,1E0,1E0,7.1E1,3.54E2,2E0,1E0,5E0,1E0,6.7E1,4E0,2.7E1,3.27E2,5.3E1,1.4E1,3E0,1E0,3E0,2.4E1,2.3E1,3.04E2,2.3E1,3E1,8E0,6E0,1E0,2E0,2.2E1,2E0,7E0,1.6E1,6E0,2.98E2],"tree_param":{"num_deleted":"0","num_feature":"60","num_nodes":"43","size_leaf_vector":"0"}},{"base_weights":[5.6865258E-5,4.6042123E-4,-4.3728803E-3,6.5220294E-5,2.2977557E-2,-1.9727435E-2,-7.646622E-4,-8.491455E-5,1.4949799E-2,3.3807755E-2,6.4029694E-3,-2.3993174E-2,2.9335022E-3,2.3630315E-3,-7.569122E-3,5.8543956E-4,-4.8577446E-3,1.8920898E-2,1.5182495E-3,-1.6555786E-3,1.3355255E-2,-1.5898133E-2,6.3323975E-4,1.0164613E-4,3.3850096E-2,-2.1468423E-2,-4.8123875E-5,2.4789663E-3,-1.207428E-2,3.5858154E-4,1.5882874E-2,2.1629333E-3,-1.6174316E-3,4.7739004E-4,-1.39791705E-2,-5.390712E-3,-3.9683532E-2,7.1016946E-3,-1.0769844E-2,-5.592346E-3,5.4595945E-3],"categories":[],"categories_nodes":[],"categories_segments":[],"categories_sizes":[],"default_left":[1,1,1,1,1,1,1,1,1,0,0,0,0,1,1,1,1,0,0,1,1,0,1,1,0,1,1,1,0,0,0,0,0,0,0,0,0,0,0,0,0],"id":94,"left_children":[1,3,5,7,9,11,13,15,17,-1,-1,-1,-1,19,21,23,25,-1,-1,27,29,-1,31,33,-1,35,37,39,-1,-1,-1,-1,-1,-1,-1,-1,-1,-1,-1,-1,-1],"loss_changes":[7.9215475E-4,3.6114112E-3,2.0348104E-3,8.95147E-4,1.0400722E-3,7.4704364E-4,6.7763636E-4,1.2730398E-3,1.8462545E-4,0E0,0E0,0E0,0E0,9.939269E-4,6.932429E-4,5.6130937E-3,3.913629E-3,0E0,0E0,7.6223374E-4,1.9140844E-4,0E0,2.4155423E-5,1.8319929E-3,0E0,3.0075079E-3,3.0661598E-3,3.4328052E-4,0E0,0E0,0E0,0E0,0E0,0E0,0E0,0E0,0E0,0E0,0E0,0E0,0E0],"parents":[2147483647,0,0,1,1,2,2,3,3,4,4,5,5,6,6,7,7,8,8,13,13,14,14,15,15,16,16,19,19,20,20,22,22,23,23,25,25,26,26,27,27],"right_children":[2,4,6,8,10,12,14,16,18,-1,-1,-1,-1,20,22,24,26,-1,-1,28,30,-1,32,34,-1,36,38,40,-1,-1,-1,-1,-1,-1,-1,-1,-1,-1,-1,-1,-1],"split_conditions":[1.88965E2,1.7904999E2,1.6726001E2,2.03195E2,1.7786E2,1.9673999E2,1.9408499E2,1.54065E2,1.6692E2,1.0142326E-2,1.9208909E-3,-7.1979524E-3,8.800507E-4,1.91875E2,1.7845999E2,1.5364E2,1.5883499E2,5.6762695E-3,4.5547486E-4,2.2511499E2,2.0197E2,-4.76944E-3,2.39715E2,1.3667499E2,1.015503E-2,1.55355E2,1.595E2,9.3979996E1,-3.622284E-3,1.07574466E-4,4.7648624E-3,6.4888E-4,-4.852295E-4,1.4321702E-4,-4.193751E-3,-1.6172137E-3,-1.190506E-2,2.1305084E-3,-3.2309534E-3,-1.6777039E-3,1.6378785E-3],"split_indices":[0,2,26,16,6,0,34,51,2,0,0,0,0,31,54,27,56,0,0,4,3,0,6,24,0,53,16,54,0,0,0,0,0,0,0,0,0,0,0,0,0],"split_type":[0,0,0,0,0,0,0,0,0,0,0,0,0,0,0,0,0,0,0,0,0,0,0,0,0,0,0,0,0,0,0,0,0,0,0,0,0,0,0,0,0],"sum_hessian":[4.41E2,4.05E2,3.6E1,3.99E2,6E0,6E0,3E1,3.96E2,3E0,3E0,3E0,5E0,1E0,2.1E1,9E0,3.48E2,4.8E1,2E0,1E0,1.6E1,5E0,4E0,5E0,3.44E2,4E0,1E1,3.8E1,1.2E1,4E0,1E0,4E0,3E0,2E0,3.36E2,8E0,6E0,4E0,2.3E1,1.5E1,3E0,9E0],"tree_param":{"num_deleted":"0","num_feature":"60","num_nodes":"41","size_leaf_vector":"0"}},{"base_weights":[3.9359024E-5,1.5581683E-4,-1.705424E-2,-3.904588E-5,8.538818E-3,2.7090282E-4,-7.165697E-3,1.4899118E-2,-4.72641E-3,1.2440763E-4,2.0299276E-2,2.9619006E-3,-1.5563965E-2,6.4315796E-3,1.9641876E-2,-1.8819173E-4,-9.170532E-3,-7.080187E-4,2.3880864E-3,-5.168915E-3,7.888794E-3,-2.3200989E-2,-3.286743E-3,-1.4938177E-4,-2.1219254E-2,2.250906E-2,-2.781839E-4,-6.5307617E-3,-5.41687E-4,7.985433E-4,1.1234283E-2,-6.729126E-3,-2.5149535E-2,8.125305E-4,-9.841919E-3],"categories":[],"categories_nodes":[],"categories_segments":[],"categories_sizes":[],"default_left":[1,1,0,1,1,1,1,1,1,1,0,1,1,0,0,0,0,1,1,1,1,1,1,0,0,0,0,0,0,0,0,0,0,0,0],"id":95,"left_children":[1,3,-1,5,7,9,11,13,15,17,-1,19,21,-1,-1,-1,-1,23,25,27,29,31,33,-1,-1,-1,-1,-1,-1,-1,-1,-1,-1,-1,-1],"loss_changes":[8.825393E-4,7.1908854E-4,0E0,9.539755E-4,9.141277E-4,1.2121757E-3,1.5770758E-3,1.5478802E-4,7.894776E-5,7.780413E-4,0E0,4.0131345E-4,8.613588E-4,0E0,0E0,6.3985743E-7,0E0,3.4572468E-3,5.961185E-3,2.1668675E-5,1.3335107E-4,2.3342669E-5,1.4235415E-4,0E0,0E0,0E0,0E0,0E0,0E0,0E0,0E0,0E0,0E0,0E0,0E0],"parents":[2147483647,0,0,1,1,3,3,4,4,5,5,6,6,7,7,8,8,9,9,11,11,12,12,17,17,18,18,19,19,20,20,21,21,22,22],"right_children":[2,4,-1,6,8,10,12,14,16,18,-1,20,22,-1,-1,-1,-1,24,26,28,30,32,34,-1,-1,-1,-1,-1,-1,-1,-1,-1,-1,-1,-1],"split_conditions":[2.4522E2,2.1993E2,-5.116272E-3,1.95215E2,1.7932E2,2.2578E2,1.6101999E2,1.5479999E2,1.8945999E2,9.374E1,6.0897833E-3,2.05195E2,1.76665E2,1.929474E-3,5.892563E-3,-5.645752E-5,-2.7511597E-3,9.274E1,9.583E1,1.5551E2,1.5636499E2,1.3774E2,1.9791501E2,-4.4814533E-5,-6.3657765E-3,6.7527187E-3,-8.3455176E-5,-1.9592287E-3,-1.6250611E-4,2.3956299E-4,3.3702853E-3,-2.0187378E-3,-7.5448607E-3,2.4375916E-4,-2.952576E-3],"split_indices":[40,59,0,59,0,46,14,6,0,4,0,54,15,0,0,0,0,5,10,0,12,6,0,0,0,0,0,0,0,0,0,0,0,0,0],"split_type":[0,0,0,0,0,0,0,0,0,0,0,0,0,0,0,0,0,0,0,0,0,0,0,0,0,0,0,0,0,0,0,0,0,0,0],"sum_hessian":[4.41E2,4.39E2,2E0,4.3E2,9E0,4.13E2,1.7E1,6E0,3E0,4.11E2,2E0,8E0,9E0,3E0,3E0,2E0,1E0,3.01E2,1.1E2,3E0,5E0,5E0,4E0,2.94E2,7E0,1.2E1,9.8E1,2E0,1E0,2E0,3E0,1E0,4E0,3E0,1E0],"tree_param":{"num_deleted":"0","num_feature":"60","num_nodes":"35","size_leaf_vector":"0"}},{"base_weights":[1.6969254E-5,9.727444E-3,-1.3897178E-4,1.1403322E-3,2.0796815E-2,-6.934601E-3,1.3642028E-4,-1.4939308E-3,3.3944845E-3,-2.0200014E-3,-1.3666885E-2,2.5322412E-3,-5.716881E-4,-2.399683E-3,1.5878677E-4,-4.712701E-3,2.153778E-3,-1.607438E-2,3.8903952E-4,-1.3328431E-4,2.31416E-2,-3.844261E-2,-9.946645E-5,-1.963079E-3,-6.2841475E-3,3.7046275E-4,3.2191675E-3,1.2141739E-3,-2.8059721E-2,3.5165668E-2,-6.6919327E-3,1.2855876E-2,-5.5590656E-4,5.869051E-4,2.6325107E-2,4.428339E-2,5.2083335E-3,1.7828835E-2,-6.348292E-3,-2.1369053E-2,3.4784953E-4],"categories":[],"categories_nodes":[],"categories_segments":[],"categories_sizes":[],"default_left":[1,1,1,1,0,1,1,1,0,1,1,1,1,0,0,1,1,0,0,1,1,0,1,0,0,0,0,1,0,1,0,1,1,0,0,0,0,0,0,0,0],"id":96,"left_children":[1,3,5,7,-1,9,11,13,-1,15,17,19,21,-1,-1,23,25,-1,-1,27,29,-1,31,-1,-1,-1,-1,33,-1,35,-1,37,39,-1,-1,-1,-1,-1,-1,-1,-1],"loss_changes":[6.706554E-4,6.416622E-4,8.1690354E-4,3.4761277E-5,0E0,5.3486304E-4,7.13978E-4,4.871895E-6,0E0,1.3377618E-4,2.4313049E-4,5.2768225E-3,5.8083045E-3,0E0,0E0,1.7909915E-5,8.3070445E-6,0E0,0E0,3.2702242E-3,4.181251E-3,0E0,1.9112414E-3,0E0,0E0,0E0,0E0,1.2919079E-3,0E0,1.9544978E-3,0E0,1.1636997E-3,5.8761556E-3,0E0,0E0,0E0,0E0,0E0,0E0,0E0,0E0],"parents":[2147483647,0,0,1,1,2,2,3,3,5,5,6,6,7,7,9,9,10,10,11,11,12,12,15,15,16,16,19,19,20,20,22,22,27,27,29,29,31,31,32,32],"right_children":[2,4,6,8,-1,10,12,14,-1,16,18,20,22,-1,-1,24,26,-1,-1,28,30,-1,32,-1,-1,-1,-1,34,-1,36,-1,38,40,-1,-1,-1,-1,-1,-1,-1,-1],"split_conditions":[1.4354E0,3.5031E0,1.66115E0,1.51155E0,6.239045E-3,2.2804499E0,1.37283E1,2.00885E0,1.0183454E-3,2.15155E0,3.5651002E0,6.55305E0,3.6282501E0,-7.199049E-4,4.7636033E-5,1.9216E0,1.78995E0,-4.8223143E-3,1.1671186E-4,3.93515E0,1.47726E1,-1.15327835E-2,1.37283E1,-5.889237E-4,-1.8852443E-3,1.1113883E-4,9.6575025E-4,4.5416E0,-8.4179165E-3,1.489205E1,-2.00758E-3,1.6814E1,1.3394449E1,1.7607154E-4,7.897533E-3,1.3285018E-2,1.5625001E-3,5.3486507E-3,-1.9044876E-3,-6.410716E-3,1.0435486E-4],"split_indices":[57,2,59,52,0,31,42,0,0,19,5,28,0,0,0,7,4,0,0,23,38,0,26,0,0,0,0,18,0,29,0,37,5,0,0,0,0,0,0,0,0],"split_type":[0,0,0,0,0,0,0,0,0,0,0,0,0,0,0,0,0,0,0,0,0,0,0,0,0,0,0,0,0,0,0,0,0,0,0,0,0,0,0,0,0],"sum_hessian":[4.41E2,6E0,4.35E2,4E0,2E0,1.6E1,4.19E2,2E0,2E0,1E1,6E0,9.5E1,3.24E2,1E0,1E0,6E0,4E0,5E0,1E0,8.5E1,1E1,3E0,3.21E2,3E0,3E0,2E0,2E0,8.2E1,3E0,7E0,3E0,1E1,3.11E2,8.1E1,1E0,5E0,2E0,8E0,2E0,1.2E1,2.99E2],"tree_param":{"num_deleted":"0","num_feature":"60","num_nodes":"41","size_leaf_vector":"0"}},{"base_weights":[7.94414E-6,-1.0435958E-2,1.513205E-4,1.0967255E-3,-1.296184E-2,9.236649E-3,-1.8060762E-5,-6.901592E-3,-1.8601418E-2,6.936987E-4,2.3243666E-2,1.1113596E-2,-1.486716E-4,-3.3341646E-3,1.0416508E-2,1.6188622E-3,2.4546266E-2,-1.2215686E-2,-5.345209E-6,6.775856E-4,-4.5064986E-3,-3.9693117E-3,4.804691E-3,2.1318197E-3,-1.6335517E-2,9.2612565E-5,-1.3717651E-2,-5.2161217E-3,-1.1888146E-3,-7.911316E-4,1.8469087E-3],"categories":[],"categories_nodes":[],"categories_segments":[],"categories_sizes":[],"default_left":[1,1,1,0,1,1,1,0,0,1,0,1,1,1,0,1,0,1,1,0,1,0,0,0,0,1,0,0,0,0,0],"id":97,"left_children":[1,3,5,-1,7,9,11,-1,-1,13,-1,15,17,19,-1,21,-1,23,25,-1,27,-1,-1,-1,-1,29,-1,-1,-1,-1,-1],"loss_changes":[6.6343386E-4,1.8899678E-4,6.726594E-4,0E0,4.2506785E-5,9.4116584E-4,6.2683574E-4,0E0,0E0,2.6970325E-4,0E0,5.979611E-4,7.3671096E-4,2.6569094E-5,0E0,9.028317E-5,0E0,3.3037097E-4,5.681122E-4,0E0,3.2162206E-6,0E0,0E0,0E0,0E0,6.5260776E-4,0E0,0E0,0E0,0E0,0E0],"parents":[2147483647,0,0,1,1,2,2,4,4,5,5,6,6,9,9,11,11,12,12,13,13,15,15,17,17,18,18,20,20,25,25],"right_children":[2,4,6,-1,8,10,12,-1,-1,14,-1,16,18,20,-1,22,-1,24,26,-1,28,-1,-1,-1,-1,30,-1,-1,-1,-1,-1],"split_conditions":[1.40625E0,1.9100001E0,1.51225E0,3.2901764E-4,2.46565E0,1.5942E0,1.39595E0,-2.0704777E-3,-5.5804253E-3,2.50315E0,6.9731E-3,2.58715E0,1.44225E0,2.1088E0,3.1249525E-3,1.96615E0,7.36388E-3,2.1424E0,2.4522E2,2.0327569E-4,2.5258E0,-1.1907936E-3,1.4414073E-3,6.3954596E-4,-4.9006552E-3,9.579E1,-4.1152956E-3,-1.5648366E-3,-3.566444E-4,-2.3733948E-4,5.540726E-4],"split_indices":[28,5,26,0,2,24,43,0,0,2,0,0,37,2,0,0,0,0,40,0,0,0,0,0,0,12,0,0,0,0,0],"split_type":[0,0,0,0,0,0,0,0,0,0,0,0,0,0,0,0,0,0,0,0,0,0,0,0,0,0,0,0,0,0,0],"sum_hessian":[4.41E2,5E0,4.36E2,1E0,4E0,7E0,4.29E2,3E0,1E0,5E0,2E0,4E0,4.25E2,4E0,1E0,3E0,1E0,4E0,4.21E2,1E0,3E0,1E0,2E0,1E0,3E0,4.19E2,2E0,2E0,1E0,2.79E2,1.4E2],"tree_param":{"num_deleted":"0","num_feature":"60","num_nodes":"31","size_leaf_vector":"0"}},{"base_weights":[7.652319E-6,1.2991951E-3,-1.1776928E-3,1.0531314E-4,2.3105102E-2,-9.421866E-3,2.9298617E-4,1.3975309E-3,-7.651625E-3,3.438632E-2,7.973035E-3,2.7472633E-3,-1.6737591E-2,6.488262E-3,-1.2284524E-3,-5.325596E-4,9.97895E-3,-1.3237544E-2,6.232368E-3,3.7664033E-2,8.998871E-3,1.1339664E-2,8.2651776E-4,-1.6263962E-2,9.410685E-3,6.6079036E-4,-2.6726723E-2,2.8643608E-3,3.7481308E-2,3.867531E-2,-1.7257883E-3,1.0126526E-3,-1.4842919E-2,5.139923E-2,5.50429E-3,-1.6364047E-2,1.0976155E-2,2.5592804E-2,-7.713318E-3,-1.3809204E-3,2.620697E-3,-1.8779755E-2,-4.3582916E-3,-4.855156E-3,1.53672695E-2,-1.1534119E-2,1.2723541E-2,-4.4109346E-3,-3.5211943E-2,-1.5212091E-3,1.8404007E-2,-1.55819785E-2,5.5326636E-5,-6.7072076E-4,7.459252E-3,-3.3989906E-2,-8.8192625E-3,1.2146429E-2,-1.1343638E-2,-7.947286E-6,-2.2204945E-2,1.663208E-3,-9.921265E-3,-7.1907043E-3,1.0757446E-3,1.6576767E-2,3.4503937E-3,-1.6305923E-2,-2.9176075E-3,1.4843464E-2,2.1219254E-3,-7.5445175E-3,4.061699E-3,-9.310405E-3,-4.052353E-2,6.1792484E-3,-1.1474023E-2,3.0721028E-3,2.3002625E-2,9.358724E-3,-1.9284487E-2,3.6218643E-2,-9.932864E-4],"categories":[],"categories_nodes":[],"categories_segments":[],"categories_sizes":[],"default_left":[1,1,1,1,1,1,1,1,1,1,1,1,1,1,1,1,1,1,1,0,0,0,1,1,1,1,1,1,0,0,1,1,1,0,1,1,0,0,1,0,0,0,0,1,1,1,1,1,1,1,1,1,1,0,0,0,0,0,0,0,0,0,0,0,0,0,0,0,0,0,0,0,0,0,0,0,0,0,0,0,0,0,0],"id":98,"left_children":[1,3,5,7,9,11,13,15,17,19,21,23,25,27,29,31,33,35,37,-1,-1,-1,39,41,43,45,47,49,-1,-1,51,53,55,-1,57,59,-1,-1,61,-1,-1,-1,-1,63,65,67,69,71,73,75,77,79,81,-1,-1,-1,-1,-1,-1,-1,-1,-1,-1,-1,-1,-1,-1,-1,-1,-1,-1,-1,-1,-1,-1,-1,-1,-1,-1,-1,-1,-1,-1],"loss_changes":[6.7819847E-4,5.5167065E-3,2.8035278E-3,2.0354714E-3,1.6036257E-3,3.1618928E-3,1.8648398E-3,2.8872618E-3,2.3315921E-3,1.6034301E-4,1.3498557E-4,1.9265723E-3,3.841145E-3,4.2729536E-3,3.2221915E-3,3.177124E-3,5.648017E-3,1.7694028E-3,2.6273564E-3,0E0,0E0,0E0,1.5500593E-5,3.7961174E-5,1.0093432E-3,1.4706921E-3,2.4956437E-3,2.4814038E-3,0E0,0E0,3.9002183E-3,1.4157675E-3,1.3149227E-3,0E0,3.4949733E-3,1.8149749E-3,0E0,0E0,1.4071836E-4,0E0,0E0,0E0,0E0,6.314299E-5,5.8111036E-5,1.5800731E-4,8.087634E-5,1.6339205E-4,9.984924E-4,2.2934962E-3,4.9337815E-4,1.8426548E-3,5.382882E-3,0E0,0E0,0E0,0E0,0E0,0E0,0E0,0E0,0E0,0E0,0E0,0E0,0E0,0E0,0E0,0E0,0E0,0E0,0E0,0E0,0E0,0E0,0E0,0E0,0E0,0E0,0E0,0E0,0E0,0E0],"parents":[2147483647,0,0,1,1,2,2,3,3,4,4,5,5,6,6,7,7,8,8,9,9,10,10,11,11,12,12,13,13,14,14,15,15,16,16,17,17,18,18,22,22,23,23,24,24,25,25,26,26,27,27,30,30,31,31,32,32,34,34,35,35,38,38,43,43,44,44,45,45,46,46,47,47,48,48,49,49,50,50,51,51,52,52],"right_children":[2,4,6,8,10,12,14,16,18,20,22,24,26,28,30,32,34,36,38,-1,-1,-1,40,42,44,46,48,50,-1,-1,52,54,56,-1,58,60,-1,-1,62,-1,-1,-1,-1,64,66,68,70,72,74,76,78,80,82,-1,-1,-1,-1,-1,-1,-1,-1,-1,-1,-1,-1,-1,-1,-1,-1,-1,-1,-1,-1,-1,-1,-1,-1,-1,-1,-1,-1,-1,-1],"split_conditions":[3.3509003E1,3.26517E1,3.8676003E1,4.40195E1,3.15955E1,3.0989E1,8.7634995E1,1.37101E1,7.52715E1,3.3136E1,3.6086998E1,2.835E1,3.0989E1,1.02025E2,4.678E1,1.461345E1,1.3516251E1,2.9953E1,2.9925499E1,1.1299211E-2,2.6996613E-3,3.4018995E-3,3.2453697E1,3.97715E1,3.0989E1,3.43905E1,2.8602E1,1.00770004E2,1.1244393E-2,1.1602593E-2,8.765E1,3.7101998E0,9.03355E0,1.541977E-2,2.741935E1,4.30005E1,3.2928467E-3,7.6778415E-3,2.7989E1,-4.1427615E-4,7.8620913E-4,-5.6339265E-3,-1.3074875E-3,3.94965E1,5.13425E1,3.3105E1,4.56415E1,4.7641E1,3.22465E1,4.1137497E1,9.471E1,4.991E1,8.458E1,-2.0121624E-4,2.2377758E-3,-1.0196973E-2,-2.645779E-3,3.6439288E-3,-3.4030916E-3,-2.3841858E-6,-6.6614836E-3,4.989624E-4,-2.9763796E-3,-2.1572113E-3,3.227234E-4,4.97303E-3,1.0351181E-3,-4.8917774E-3,-8.752823E-4,4.4530393E-3,6.365776E-4,-2.2633553E-3,1.2185097E-3,-2.7931216E-3,-1.2157059E-2,1.8537747E-3,-3.442207E-3,9.216309E-4,6.900788E-3,2.8076172E-3,-5.785346E-3,1.0865593E-2,-2.979859E-4],"split_indices":[0,1,37,48,22,41,25,5,34,0,1,47,35,37,42,41,4,1,4,0,0,0,0,2,7,11,25,9,0,0,37,16,22,0,1,50,0,0,1,0,0,0,0,2,5,1,2,3,2,44,1,40,34,0,0,0,0,0,0,0,0,0,0,0,0,0,0,0,0,0,0,0,0,0,0,0,0,0,0,0,0,0,0],"split_type":[0,0,0,0,0,0,0,0,0,0,0,0,0,0,0,0,0,0,0,0,0,0,0,0,0,0,0,0,0,0,0,0,0,0,0,0,0,0,0,0,0,0,0,0,0,0,0,0,0,0,0,0,0,0,0,0,0,0,0,0,0,0,0,0,0,0,0,0,0,0,0,0,0,0,0,0,0,0,0,0,0,0,0],"sum_hessian":[4.41E2,2.11E2,2.3E2,2.01E2,1E1,3.4E1,1.96E2,1.73E2,2.8E1,5E0,5E0,1.3E1,2.1E1,3.8E1,1.58E2,1.42E2,3.1E1,2E1,8E0,4E0,1E0,3E0,2E0,3E0,1E1,8E0,1.3E1,3.5E1,3E0,1E0,1.57E2,1.29E2,1.3E1,2E0,2.9E1,1.8E1,2E0,3E0,5E0,1E0,1E0,2E0,1E0,3E0,7E0,4E0,4E0,4E0,9E0,2.8E1,7E0,1.7E1,1.4E2,1.03E2,2.6E1,2E0,1.1E1,2.1E1,8E0,5E0,1.3E1,1E0,4E0,2E0,1E0,6E0,1E0,2E0,2E0,3E0,1E0,3E0,1E0,2E0,7E0,1.6E1,1.2E1,2E0,5E0,2E0,1.5E1,3E0,1.37E2],"tree_param":{"num_deleted":"0","num_feature":"60","num_nodes":"83","size_leaf_vector":"0"}},{"base_weights":[1.00888006E-4,5.52413E-4,-2.574563E-3,1.9003778E-4,2.30484E-2,-1.23001905E-2,1.4985126E-3,-1.05918756E-4,1.2204488E-2,2.8987885E-2,7.446289E-3,-2.620152E-2,-3.86869E-3,1.6178131E-2,-6.862733E-4,1.1679128E-4,-2.0290375E-2,1.8009186E-2,4.4631958E-4,4.447937E-3,-1.1632646E-2,5.935669E-3,1.9815445E-2,3.296796E-3,-3.3673095E-3,7.094671E-4,-3.0120981E-3,5.4397583E-3,1.9435119E-2,3.0441284E-3,-1.4343262E-3,-5.4626465E-3,9.5047E-3,-1.679484E-2,-6.208801E-3,-3.1500922E-3,9.377373E-3,4.977635E-3,-6.264536E-3,-1.6975187E-4,8.803939E-3,-1.4721489E-2,3.069951E-3,-6.713867E-3,-1.4801025E-3,1.9683838E-3,-7.63855E-3,1.3759068E-2,-3.9723716E-3,-5.5885315E-4,9.269714E-3,-9.095873E-3,1.3860067E-3],"categories":[],"categories_nodes":[],"categories_segments":[],"categories_sizes":[],"default_left":[1,1,1,1,1,1,1,1,1,0,0,0,1,1,1,1,0,1,1,1,1,0,0,1,1,1,1,0,0,0,0,1,0,0,0,1,1,1,1,0,0,0,0,0,0,0,0,0,0,0,0,0,0],"id":99,"left_children":[1,3,5,7,9,11,13,15,17,-1,-1,-1,19,21,23,25,-1,27,29,31,33,-1,-1,35,37,39,41,-1,-1,-1,-1,43,-1,-1,-1,45,47,49,51,-1,-1,-1,-1,-1,-1,-1,-1,-1,-1,-1,-1,-1,-1],"loss_changes":[5.353728E-4,3.085224E-3,2.5536777E-3,1.3311451E-3,3.401586E-4,2.1256069E-3,1.4864065E-3,1.6476425E-3,6.062358E-4,0E0,0E0,0E0,8.911505E-4,1.0591233E-4,4.489302E-4,6.7529036E-4,0E0,1.8166611E-6,2.3908506E-5,4.0272909E-4,9.171676E-5,0E0,0E0,6.9595326E-4,6.356124E-4,2.1792396E-3,4.1757855E-3,0E0,0E0,0E0,0E0,5.0119124E-6,0E0,0E0,0E0,2.2180215E-4,5.811067E-4,1.7152172E-4,4.2417092E-4,0E0,0E0,0E0,0E0,0E0,0E0,0E0,0E0,0E0,0E0,0E0,0E0,0E0,0E0],"parents":[2147483647,0,0,1,1,2,2,3,3,4,4,5,5,6,6,7,7,8,8,12,12,13,13,14,14,15,15,17,17,18,18,19,19,20,20,23,23,24,24,25,25,26,26,31,31,35,35,36,36,37,37,38,38],"right_children":[2,4,6,8,10,12,14,16,18,-1,-1,-1,20,22,24,26,-1,28,30,32,34,-1,-1,36,38,40,42,-1,-1,-1,-1,44,-1,-1,-1,46,48,50,52,-1,-1,-1,-1,-1,-1,-1,-1,-1,-1,-1,-1,-1,-1],"split_conditions":[1.6017499E2,1.5329001E2,1.7709E2,1.47595E2,1.1655501E2,1.3582501E2,1.613E2,1.5191501E2,1.7625E2,8.696366E-3,2.2338869E-3,-7.860457E-3,1.9854999E2,1.8224E2,1.582E2,9.5995E1,-6.0871127E-3,7.4585E1,1.7932E2,1.442E2,1.9785E2,1.7807008E-3,5.944634E-3,1.48975E2,1.9276001E2,8.3695E1,1.07775E2,1.6319276E-3,5.8305357E-3,9.1323856E-4,-4.3029786E-4,1.37315E2,2.85141E-3,-5.0384523E-3,-1.8626404E-3,2.0013E2,1.9908E2,2.20345E2,2.3323E2,-5.0925566E-5,2.641182E-3,-4.4164467E-3,9.209853E-4,-2.0141602E-3,-4.4403077E-4,5.9051515E-4,-2.291565E-3,4.127721E-3,-1.1917115E-3,-1.6765595E-4,2.7809143E-3,-2.7287619E-3,4.1580203E-4],"split_indices":[32,33,32,32,0,2,41,34,0,0,0,0,3,29,3,49,0,6,0,2,0,0,0,3,32,50,51,0,0,0,0,0,0,0,0,34,14,4,12,0,0,0,0,0,0,0,0,0,0,0,0,0,0],"split_type":[0,0,0,0,0,0,0,0,0,0,0,0,0,0,0,0,0,0,0,0,0,0,0,0,0,0,0,0,0,0,0,0,0,0,0,0,0,0,0,0,0,0,0,0,0,0,0,0,0,0,0,0,0],"sum_hessian":[4.41E2,3.78E2,6.3E1,3.73E2,5E0,1.8E1,4.5E1,3.65E2,8E0,3E0,2E0,6E0,1.2E1,5E0,4E1,3.62E2,3E0,5E0,3E0,6E0,6E0,2E0,3E0,1.6E1,2.4E1,3.05E2,5.7E1,1E0,4E0,1E0,2E0,2E0,4E0,2E0,4E0,8E0,8E0,6E0,1.8E1,2.76E2,2.9E1,1.9E1,3.8E1,1E0,1E0,4E0,4E0,6E0,2E0,3E0,3E0,1.3E1,5E0],"tree_param":{"num_deleted":"0","num_feature":"60","num_nodes":"53","size_leaf_vector":"0"}}]},"name":"gbtree"},"learner_model_param":{"base_score":"5E-1","num_class":"0","num_feature":"60","num_target":"1"},"objective":{"name":"reg:squarederror","reg_loss_param":{"scale_pos_weight":"1"}}},"version":[1,6,1]}