{"learner":{"attributes":{"best_iteration":"99","best_ntree_limit":"100","scikit_learn":"{\"n_estimators\": 100, \"objective\": \"reg:squarederror\", \"max_depth\": null, \"max_leaves\": null, \"max_bin\": null, \"grow_policy\": null, \"learning_rate\": null, \"verbosity\": null, \"booster\": null, \"tree_method\": null, \"gamma\": null, \"min_child_weight\": null, \"max_delta_step\": null, \"subsample\": null, \"sampling_method\": null, \"colsample_bytree\": null, \"colsample_bylevel\": null, \"colsample_bynode\": null, \"reg_alpha\": null, \"reg_lambda\": null, \"scale_pos_weight\": null, \"base_score\": null, \"missing\": NaN, \"num_parallel_tree\": null, \"random_state\": null, \"n_jobs\": null, \"monotone_constraints\": null, \"interaction_constraints\": null, \"importance_type\": null, \"gpu_id\": null, \"validate_parameters\": null, \"predictor\": null, \"enable_categorical\": false, \"max_cat_to_onehot\": null, \"eval_metric\": null, \"early_stopping_rounds\": null, \"callbacks\": null, \"_estimator_type\": \"regressor\"}"},"feature_names":[],"feature_types":[],"gradient_booster":{"model":{"gbtree_model_param":{"num_parallel_tree":"1","num_trees":"100","size_leaf_vector":"0"},"tree_info":[0,0,0,0,0,0,0,0,0,0,0,0,0,0,0,0,0,0,0,0,0,0,0,0,0,0,0,0,0,0,0,0,0,0,0,0,0,0,0,0,0,0,0,0,0,0,0,0,0,0,0,0,0,0,0,0,0,0,0,0,0,0,0,0,0,0,0,0,0,0,0,0,0,0,0,0,0,0,0,0,0,0,0,0,0,0,0,0,0,0,0,0,0,0,0,0,0,0,0,0],"trees":[{"base_weights":[-4.9427074E-1,-5.0618774E-1,5.372616E-1,-4.1415936E-1,-6.111671E-1,8.733737E-1,-3.1404978E-1,-7.3766834E-1,-3.5904437E-1,1.2516354E0,-6.215141E-1,1.1201975E0,4.6991235E-1,-2.9511446E-1,-8.8518417E-1,-1.4368825E-1,-4.2368177E-1,-7.989153E-1,-5.2793187E-1,3.503587E-3,-5.94233E-1,-5.108024E-1,-1.0444553E0,-3.7270528E-1,6.5002985E-2,-1.0711867E0,-3.895359E-1,-9.309669E-1,-5.520134E-1,-4.855244E-1,-1.056665E0,2.27897E-1,-1.09277055E-1,-7.026938E-1,2.8265953E-2,-2.3043638E-1,-7.1819663E-1,-1.1331837E0,-2.9533535E-1,-6.3307524E-1,-6.982764E-4,3.4460428E-1,-2.3273538E-1,-5.9083324E-2,-1.2895337E0,-2.9606605E-1,-6.2446564E-1,-5.922949E-1,-1.0683258E0,-9.832672E-3,-6.53365E-1,-3.4757227E-1,-6.656907E-1,-1.2843664E0,-5.390019E-1],"categories":[],"categories_nodes":[],"categories_segments":[],"categories_sizes":[],"default_left":[1,1,1,1,1,1,0,1,1,0,1,0,0,1,1,1,1,1,1,1,1,1,1,1,1,1,1,1,1,1,1,0,0,0,0,0,0,0,0,0,0,0,0,0,0,0,0,0,0,0,0,0,0,0,0],"id":0,"left_children":[1,3,5,7,9,11,-1,13,15,-1,17,-1,-1,19,21,23,25,27,29,31,33,35,37,39,41,43,45,47,49,51,53,-1,-1,-1,-1,-1,-1,-1,-1,-1,-1,-1,-1,-1,-1,-1,-1,-1,-1,-1,-1,-1,-1,-1,-1],"loss_changes":[8.360626E0,6.0362396E0,2.5633712E0,5.975708E0,6.59877E0,7.110834E-2,0E0,3.0029545E0,4.129059E0,0E0,4.5753098E0,0E0,0E0,1.2525926E0,1.6727333E0,3.41759E0,4.690056E0,2.8116837E0,3.971405E0,2.273618E-1,4.9247956E-1,5.904033E-1,1.3270378E0,3.2927804E0,3.2436268E0,2.3546972E0,4.668022E0,2.3910065E0,2.0817099E0,4.416382E0,9.5794106E-1,0E0,0E0,0E0,0E0,0E0,0E0,0E0,0E0,0E0,0E0,0E0,0E0,0E0,0E0,0E0,0E0,0E0,0E0,0E0,0E0,0E0,0E0,0E0,0E0],"parents":[2147483647,0,0,1,1,2,2,3,3,4,4,5,5,7,7,8,8,10,10,13,13,14,14,15,15,16,16,17,17,18,18,19,19,20,20,21,21,22,22,23,23,24,24,25,25,26,26,27,27,28,28,29,29,30,30],"right_children":[2,4,6,8,10,12,-1,14,16,-1,18,-1,-1,20,22,24,26,28,30,32,34,36,38,40,42,44,46,48,50,52,54,-1,-1,-1,-1,-1,-1,-1,-1,-1,-1,-1,-1,-1,-1,-1,-1,-1,-1,-1,-1,-1,-1,-1,-1],"split_conditions":[1.5952549E0,4.926826E-2,2.6025826E-1,-6.600157E-1,-2.8997092E0,-7.615879E-2,-9.421494E-2,-3.6171347E-1,-4.6459153E-1,3.7549064E-1,-3.605193E-1,3.3605927E-1,1.4097372E-1,1.7450386E-1,-2.4687642E-1,7.169944E-2,-1.2101948E0,1.6431035E-1,9.5841277E-1,-2.3355232E-1,6.469354E-1,-4.396971E-2,-1.6271523E-1,6.7533314E-2,4.4592625E-1,-1.7481633E-1,4.4003886E-1,-2.9869515E-1,-8.4070635E-1,4.9151093E-2,4.1205007E-1,6.8369105E-2,-3.2783117E-2,-2.1080816E-1,8.479786E-3,-6.913092E-2,-2.15459E-1,-3.3995512E-1,-8.8600606E-2,-1.8992259E-1,-2.0948293E-4,1.0338129E-1,-6.982062E-2,-1.7724998E-2,-3.8686013E-1,-8.881982E-2,-1.873397E-1,-1.7768846E-1,-3.2049775E-1,-2.9498017E-3,-1.9600952E-1,-1.0427169E-1,-1.9970722E-1,-3.8530993E-1,-1.6170058E-1],"split_indices":[59,58,9,59,17,0,0,41,39,0,16,0,0,47,11,36,11,27,42,6,2,55,58,4,36,0,44,33,7,59,14,0,0,0,0,0,0,0,0,0,0,0,0,0,0,0,0,0,0,0,0,0,0,0,0],"split_type":[0,0,0,0,0,0,0,0,0,0,0,0,0,0,0,0,0,0,0,0,0,0,0,0,0,0,0,0,0,0,0,0,0,0,0,0,0,0,0,0,0,0,0,0,0,0,0,0,0,0,0,0,0,0,0],"sum_hessian":[6.57E2,6.5E2,7E0,3.49E2,3.01E2,5E0,2E0,4.9E1,3E2,1E0,3E2,2E0,3E0,1.3E1,3.6E1,7E1,2.3E2,1.01E2,1.99E2,7E0,6E0,1.2E1,2.4E1,3.3E1,3.7E1,1E1,2.2E2,6.4E1,3.7E1,1.86E2,1.3E1,2E0,5E0,5E0,1E0,6E0,6E0,2.1E1,3E0,1.9E1,1.4E1,1.9E1,1.8E1,2E0,8E0,1.59E2,6.1E1,2E1,4.4E1,6E0,3.1E1,1.07E2,7.9E1,8E0,5E0],"tree_param":{"num_deleted":"0","num_feature":"60","num_nodes":"55","size_leaf_vector":"0"}},{"base_weights":[-3.4979957E-1,-3.5877052E-1,4.2393538E-1,1.0638901E0,-3.6259598E-1,6.9086707E-1,-2.512398E-1,-2.7810812E-1,-4.3694243E-1,8.9615804E-1,3.6418208E-1,7.2947365E-1,-2.9381704E-1,-1.4308686E0,-4.2400214E-1,1.8634415E-1,8.1867003E-1,3.633117E-1,-3.1058463E-1,-1.4908862E-1,-4.569716E-1,8.200622E-2,4.434125E-1,-3.9917648E-1,-1.9595236E-1,1.764421E-1,-4.210155E-1,-4.8298422E-1,-1.1816574E-1],"categories":[],"categories_nodes":[],"categories_segments":[],"categories_sizes":[],"default_left":[1,1,1,0,1,1,0,1,1,0,0,1,1,0,1,0,0,1,1,1,1,0,0,0,0,0,0,0,0],"id":1,"left_children":[1,3,5,-1,7,9,-1,11,13,-1,-1,15,17,-1,19,-1,-1,21,23,25,27,-1,-1,-1,-1,-1,-1,-1,-1],"loss_changes":[4.7193527E0,3.9287262E0,1.6153786E0,0E0,3.9613724E0,7.602835E-2,0E0,5.073534E0,3.8177414E0,0E0,0E0,8.967137E-2,3.451439E0,0E0,3.022606E0,0E0,0E0,1.438998E-1,2.927803E0,3.438066E0,2.6221504E0,0E0,0E0,0E0,0E0,0E0,0E0,0E0,0E0],"parents":[2147483647,0,0,1,1,2,2,4,4,5,5,7,7,8,8,11,11,12,12,14,14,17,17,18,18,19,19,20,20],"right_children":[2,4,6,-1,8,10,-1,12,14,-1,-1,16,18,-1,20,-1,-1,22,24,26,28,-1,-1,-1,-1,-1,-1,-1,-1],"split_conditions":[1.5952549E0,-2.8997092E0,2.6025826E-1,3.1916705E-1,-2.536747E-2,-7.615879E-2,-7.537194E-2,-1.5250036E0,-2.4169214E-2,2.6884744E-1,1.0925463E-1,-2.211604E-1,-1.4720726E0,-4.292606E-1,-7.207193E-1,5.5903245E-2,2.4560101E-1,-9.4978833E-1,7.108024E-2,-1.283732E-1,9.5375484E-1,2.4601867E-2,1.3302375E-1,-1.1975295E-1,-5.878571E-2,5.293263E-2,-1.2630466E-1,-1.4489527E-1,-3.5449725E-2],"split_indices":[59,17,9,0,23,0,0,25,23,0,0,0,43,0,30,0,0,4,12,38,41,0,0,0,0,0,0,0,0],"split_type":[0,0,0,0,0,0,0,0,0,0,0,0,0,0,0,0,0,0,0,0,0,0,0,0,0,0,0,0,0],"sum_hessian":[6.57E2,6.5E2,7E0,1E0,6.49E2,5E0,2E0,3.06E2,3.43E2,2E0,3E0,4E0,3.02E2,3E0,3.4E2,1E0,3E0,7E0,2.95E2,3.7E1,3.03E2,2E0,5E0,1.65E2,1.3E2,1.7E1,2E1,2.81E2,2.2E1],"tree_param":{"num_deleted":"0","num_feature":"60","num_nodes":"29","size_leaf_vector":"0"}},{"base_weights":[-2.445261E-1,-1.9893257E-1,-3.626777E-1,-1.3421084E-1,-3.5695037E-1,-4.1110745E-1,1.0141062E-1,-1.5410326E-1,4.7476315E-1,-3.9898583E-1,2.898895E-1,9.043066E-1,-4.2464232E-1,-5.3533643E-1,3.8749307E-1,-4.7369627E-3,-2.010961E-1,7.33649E-1,1.7370338E-2,-5.492461E-1,-2.0885496E-1,-5.4586615E-2,7.3413134E-1,-3.227305E-1,-5.6377184E-1,-1.761034E-1,-6.709271E-1,8.053834E-1,1.1227699E-1,-1.6234405E-1,2.4962083E-1,-3.1312165E-1,-9.2722155E-2,9.2845416E-1,3.5543162E-1,1.16926365E-1,-8.79758E-2,-3.9132422E-1,-8.686741E-1,-7.47116E-1,-1.0977252E-1,-4.0632403E-1,9.702567E-2,2.1145558E-1,8.378714E-1,-4.575E-1,-1.2749653E-1,-6.957781E-1,-3.2377023E-1,3.0026582E-1,-9.816724E-2,-3.0570987E-1,1.0951236E-1,9.3039304E-2,5.258564E-1,-3.5042644E-1,1.9834174E-1,3.263341E-2,-2.5671482E-1,3.0470678E-1,-4.4223487E-1,-1.2047694E0,-2.1199587E-1,-8.167747E-1,-9.492315E-2,3.6234674E-1,-2.0603533E-1,1.4052288E-1,-3.8481593E-2,-6.6593386E-2,-5.392548E-1,3.521256E-1,-2.197782E-1,-7.99113E-1,-5.0182443E-2,-4.6500027E-1,-5.3356653E-3,-2.2356737E-1,-1.09253675E-2],"categories":[],"categories_nodes":[],"categories_segments":[],"categories_sizes":[],"default_left":[1,1,1,1,1,1,1,1,1,1,1,0,1,1,1,1,1,1,1,1,1,1,1,1,1,0,0,0,1,1,1,1,1,0,0,0,0,1,1,1,1,0,1,0,0,1,1,1,1,0,1,0,0,0,0,0,0,0,0,0,0,0,0,0,0,0,0,0,0,0,0,0,0,0,0,0,0,0,0],"id":2,"left_children":[1,3,5,7,9,11,13,15,17,19,21,-1,23,25,27,29,31,33,35,37,39,41,43,45,47,-1,-1,-1,49,51,53,55,57,-1,-1,-1,-1,59,61,63,65,-1,67,-1,-1,69,71,73,75,-1,77,-1,-1,-1,-1,-1,-1,-1,-1,-1,-1,-1,-1,-1,-1,-1,-1,-1,-1,-1,-1,-1,-1,-1,-1,-1,-1,-1,-1],"loss_changes":[3.4724655E0,4.8304615E0,4.132267E0,4.1919136E0,3.8679104E0,3.321661E0,3.4863577E0,2.3153658E0,1.289794E0,3.5992718E0,1.4173503E0,0E0,2.1434002E0,1.7409933E-1,1.4047058E0,3.2476118E0,3.0182695E0,1.8574882E-1,6.27259E-2,3.2920818E0,3.064588E0,3.5939014E-1,3.971696E-2,2.4938936E0,1.9290848E0,0E0,0E0,0E0,3.8552678E-1,1.9822246E0,1.2919295E0,2.4163485E0,2.6602812E0,0E0,0E0,0E0,0E0,1.9065208E0,4.8208427E0,3.3134747E-1,2.3924804E0,0E0,3.487849E-2,0E0,0E0,1.7857227E0,1.8920631E0,2.828537E0,1.1668048E0,0E0,5.2258156E-2,0E0,0E0,0E0,0E0,0E0,0E0,0E0,0E0,0E0,0E0,0E0,0E0,0E0,0E0,0E0,0E0,0E0,0E0,0E0,0E0,0E0,0E0,0E0,0E0,0E0,0E0,0E0,0E0],"parents":[2147483647,0,0,1,1,2,2,3,3,4,4,5,5,6,6,7,7,8,8,9,9,10,10,12,12,13,13,14,14,15,15,16,16,17,17,18,18,19,19,20,20,21,21,22,22,23,23,24,24,28,28,29,29,30,30,31,31,32,32,37,37,38,38,39,39,40,40,42,42,45,45,46,46,47,47,48,48,50,50],"right_children":[2,4,6,8,10,12,14,16,18,20,22,-1,24,26,28,30,32,34,36,38,40,42,44,46,48,-1,-1,-1,50,52,54,56,58,-1,-1,-1,-1,60,62,64,66,-1,68,-1,-1,70,72,74,76,-1,78,-1,-1,-1,-1,-1,-1,-1,-1,-1,-1,-1,-1,-1,-1,-1,-1,-1,-1,-1,-1,-1,-1,-1,-1,-1,-1,-1,-1],"split_conditions":[3.336386E-1,3.3617106E-1,7.6966065E-1,1.2827673E0,9.3406326E-1,-2.8997092E0,-5.243143E-1,-4.26481E-1,2.9058427E-1,1.157634E-1,2.8206732E-2,2.71292E-1,1.5053144E-1,-6.419469E-1,-8.063824E-1,1.4005001E-1,-2.6623774E-2,-2.5779337E-1,-1.7886627E-1,4.9619663E-1,-5.0707495E-1,-5.2840248E-2,-5.2934045E-1,1.1755073E-1,2.6882035E-1,-5.283102E-2,-2.0127814E-1,2.4161503E-1,-2.7377576E-1,-6.326366E-1,4.0200758E-1,8.431112E-1,2.2738156E-1,2.7853626E-1,1.0662949E-1,3.507791E-2,-2.6392741E-2,-1.2236059E0,4.038002E-1,1.1803913E0,-4.2201054E-1,-1.2189721E-1,5.5167013E-1,6.343668E-2,2.5136143E-1,-5.190064E-1,-6.7751086E-1,5.98282E-1,5.236826E-1,9.007975E-2,-8.3882654E-1,-9.171297E-2,3.2853708E-2,2.7911792E-2,1.5775692E-1,-1.0512794E-1,5.9502523E-2,9.790023E-3,-7.7014446E-2,9.141204E-2,-1.3267046E-1,-3.6143082E-1,-6.359877E-2,-2.4503243E-1,-2.8476948E-2,1.0870402E-1,-6.18106E-2,4.2156868E-2,-1.1544478E-2,-1.9978017E-2,-1.6177644E-1,1.0563769E-1,-6.593346E-2,-2.397339E-1,-1.50547335E-2,-1.3950008E-1,-1.6006996E-3,-6.7070216E-2,-3.2776103E-3],"split_indices":[58,47,29,19,14,17,33,48,13,9,2,0,54,30,38,0,26,14,4,17,43,0,0,8,27,0,0,0,4,48,56,51,9,0,0,0,0,41,29,0,53,0,0,0,0,31,19,40,54,0,0,0,0,0,0,0,0,0,0,0,0,0,0,0,0,0,0,0,0,0,0,0,0,0,0,0,0,0,0],"split_type":[0,0,0,0,0,0,0,0,0,0,0,0,0,0,0,0,0,0,0,0,0,0,0,0,0,0,0,0,0,0,0,0,0,0,0,0,0,0,0,0,0,0,0,0,0,0,0,0,0,0,0,0,0,0,0,0,0,0,0,0,0,0,0,0,0,0,0,0,0,0,0,0,0,0,0,0,0,0,0],"sum_hessian":[6.57E2,4.76E2,1.81E2,3.39E2,1.37E2,1.64E2,1.7E1,3.29E2,1E1,1.29E2,8E0,1E0,1.63E2,5E0,1.2E1,7.9E1,2.5E2,6E0,4E0,7.1E1,5.8E1,5E0,3E0,9.6E1,6.7E1,2E0,3E0,4E0,8E0,4.9E1,3E1,1.22E2,1.28E2,3E0,3E0,2E0,2E0,4.9E1,2.2E1,8E0,5E1,1E0,4E0,1E0,2E0,5.6E1,4E1,4.2E1,2.5E1,4E0,4E0,3.2E1,1.7E1,2E1,1E1,1.14E2,8E0,7.3E1,5.5E1,3E0,4.6E1,1.4E1,8E0,7E0,1E0,8E0,4.2E1,3E0,1E0,1E1,4.6E1,6E0,3.4E1,3.6E1,6E0,1.7E1,8E0,1E0,3E0],"tree_param":{"num_deleted":"0","num_feature":"60","num_nodes":"79","size_leaf_vector":"0"}},{"base_weights":[-1.716561E-1,-1.6733544E-1,-1.0592228E0,-3.178826E-1,-1.4283521E-1,-2.4374479E-1,-7.082302E-1,1.6463116E-1,-1.6465163E-1,-5.711553E-1,-1.5003955E-1,-4.02561E-1,-1.0486956E0,2.963681E-2,5.396517E-1,-9.837769E-2,-2.3878145E-1,-6.6107243E-1,-1.13656566E-1,3.1469095E-1,-2.2471613E-1,-4.838835E-1,-7.862157E-2,-3.4873822E-1,1.4350587E-1,-1.0596879E-1,6.231616E-1,-5.5905074E-1,-7.212873E-2,-2.0901419E-1,-6.0918266E-1,-6.995707E-1,-8.029746E-2,7.562478E-1,8.049643E-2,-2.8115898E-1,1.3497515E-1,-6.020489E-2,-7.13381E-1,4.707864E-1,7.087447E-2,1.3035165E-1,7.453428E-1,-2.2876266E-2,-7.5194365E-1,-3.324055E-1,-3.527229E-2,-7.2214985E-1,-1.8984042E-1,-1.4056152E0,-3.561885E-1],"categories":[],"categories_nodes":[],"categories_segments":[],"categories_sizes":[],"default_left":[1,1,0,1,1,1,1,1,1,1,1,1,0,1,1,1,1,1,0,1,1,0,0,1,1,0,1,1,1,1,1,0,0,0,0,0,0,0,0,0,0,0,0,0,0,0,0,0,0,0,0],"id":3,"left_children":[1,3,-1,5,7,9,11,13,15,17,19,21,-1,23,25,27,29,31,-1,33,35,-1,-1,37,39,-1,41,43,45,47,49,-1,-1,-1,-1,-1,-1,-1,-1,-1,-1,-1,-1,-1,-1,-1,-1,-1,-1,-1,-1],"loss_changes":[2.3461056E0,2.3742123E0,0E0,2.4608688E0,3.8237305E0,2.3073502E0,1.0348125E0,1.9077812E0,2.5754204E0,6.241932E-1,2.222394E0,1.9904828E-1,0E0,1.2995169E0,6.051929E-1,3.3575826E0,2.618103E0,2.5684977E-1,0E0,8.6981654E-1,1.1342573E0,0E0,0E0,6.935322E-1,5.133627E-1,0E0,4.4475222E-1,1.5341616E0,2.5495727E0,2.1454954E0,3.126206E0,0E0,0E0,0E0,0E0,0E0,0E0,0E0,0E0,0E0,0E0,0E0,0E0,0E0,0E0,0E0,0E0,0E0,0E0,0E0,0E0],"parents":[2147483647,0,0,1,1,3,3,4,4,5,5,6,6,7,7,8,8,9,9,10,10,11,11,13,13,14,14,15,15,16,16,17,17,19,19,20,20,23,23,24,24,26,26,27,27,28,28,29,29,30,30],"right_children":[2,4,-1,6,8,10,12,14,16,18,20,22,-1,24,26,28,30,32,-1,34,36,-1,-1,38,40,-1,42,44,46,48,50,-1,-1,-1,-1,-1,-1,-1,-1,-1,-1,-1,-1,-1,-1,-1,-1,-1,-1,-1,-1],"split_conditions":[2.3499975E0,-6.4519566E-1,-3.1776685E-1,6.1222935E-1,-5.2298725E-1,-6.4503944E-1,3.044502E-1,5.291616E-1,4.926826E-2,5.8005095E-1,-6.608686E-1,2.3884048E-1,-3.146087E-1,-6.4046067E-1,-3.5942328E-1,-1.168888E0,1.0251353E0,1.5186596E0,-3.409697E-2,-1.2355424E-1,7.355783E-1,-1.4516506E-1,-2.358647E-2,-4.376893E-1,-1.0469204E0,-3.1790636E-2,1.3538374E-1,-3.8619024E-1,-6.860713E-1,-1.2444894E0,-3.9429083E-1,-2.0987122E-1,-2.408924E-2,2.2687435E-1,2.414893E-2,-8.4347695E-2,4.0492546E-2,-1.8061468E-2,-2.140143E-1,1.4123592E-1,2.126234E-2,3.9105497E-2,2.2360285E-1,-6.86288E-3,-2.255831E-1,-9.9721655E-2,-1.0581687E-2,-2.1664496E-1,-5.695213E-2,-4.216846E-1,-1.06856555E-1],"split_indices":[44,59,0,51,59,36,47,29,58,30,31,17,0,51,0,11,11,19,0,40,33,0,0,4,41,0,17,10,6,32,27,0,0,0,0,0,0,0,0,0,0,0,0,0,0,0,0,0,0,0,0],"split_type":[0,0,0,0,0,0,0,0,0,0,0,0,0,0,0,0,0,0,0,0,0,0,0,0,0,0,0,0,0,0,0,0,0,0,0,0,0,0,0,0,0,0,0,0,0,0,0,0,0,0,0],"sum_hessian":[6.57E2,6.55E2,2E0,9E1,5.65E2,7.7E1,1.3E1,3.7E1,5.28E2,1.6E1,6.1E1,8E0,5E0,2.8E1,9E0,2.8E2,2.48E2,1.3E1,3E0,8E0,5.3E1,6E0,2E0,6E0,2.2E1,1E0,8E0,1.4E1,2.66E2,2.31E2,1.7E1,1.2E1,1E0,2E0,6E0,4.6E1,7E0,4E0,2E0,3E0,1.9E1,2E0,6E0,4E0,1E1,3.2E1,2.34E2,7E0,2.24E2,3E0,1.4E1],"tree_param":{"num_deleted":"0","num_feature":"60","num_nodes":"51","size_leaf_vector":"0"}},{"base_weights":[-1.2296408E-1,4.6023583E-1,-1.2813441E-1,8.5475974E-2,5.180926E-1,8.6432993E-1,-1.3098226E-1,-1.2571047E-1,-6.7762655E-1,-6.8953134E-2,-1.7644008E-1,-8.9388317E-1,-1.6340892E-1,5.486926E-1,-7.891774E-2,3.556675E-2,-2.1213835E-1,-2.8955571E-2,-2.1615781E-1,1.3251656E-1,6.1960745E-1,-6.26205E-2,-4.3765458E-1,-4.2561658E-2,4.510611E-1,-2.3399559E-1,1.5519875E-1],"categories":[],"categories_nodes":[],"categories_segments":[],"categories_sizes":[],"default_left":[1,1,1,0,0,0,1,1,1,1,1,0,1,1,1,1,1,0,0,0,0,0,0,0,0,0,0],"id":4,"left_children":[1,3,5,-1,-1,-1,7,9,11,13,15,-1,17,19,21,23,25,-1,-1,-1,-1,-1,-1,-1,-1,-1,-1],"loss_changes":[2.043069E0,8.5809946E-2,1.9588404E0,0E0,0E0,0E0,1.793745E0,1.8507261E0,5.211494E-1,1.9327624E0,2.5883284E0,0E0,1.5017815E-2,6.5457106E-2,1.7440591E0,1.6422936E0,2.3807755E0,0E0,0E0,0E0,0E0,0E0,0E0,0E0,0E0,0E0,0E0],"parents":[2147483647,0,0,1,1,2,2,6,6,7,7,8,8,9,9,10,10,12,12,13,13,14,14,15,15,16,16],"right_children":[2,4,6,-1,-1,-1,8,10,12,14,16,-1,18,20,22,24,26,-1,-1,-1,-1,-1,-1,-1,-1,-1,-1],"split_conditions":[-1.870753E0,-4.4106153E-1,-2.8997092E0,2.5642794E-2,1.5542778E-1,2.5929898E-1,1.8459041E0,-2.536747E-2,1.9511023E-1,-1.5250036E0,-6.5317214E-1,-2.6816496E-1,-2.4181628E-1,-2.211604E-1,1.2696421E0,7.827133E-1,1.201086E0,-8.686672E-3,-6.484734E-2,3.975497E-2,1.8588224E-1,-1.8786151E-2,-1.3129638E-1,-1.2768498E-2,1.3531834E-1,-7.019868E-2,4.6559628E-2],"split_indices":[24,0,19,0,0,0,46,23,16,25,2,0,0,0,9,35,2,0,0,0,0,0,0,0,0,0,0],"split_type":[0,0,0,0,0,0,0,0,0,0,0,0,0,0,0,0,0,0,0,0,0,0,0,0,0,0,0],"sum_hessian":[6.57E2,5E0,6.52E2,1E0,4E0,1E0,6.51E2,6.46E2,5E0,3.06E2,3.4E2,3E0,2E0,4E0,3.02E2,4.9E1,2.91E2,1E0,1E0,1E0,3E0,2.9E2,1.2E1,4.2E1,7E0,2.75E2,1.6E1],"tree_param":{"num_deleted":"0","num_feature":"60","num_nodes":"27","size_leaf_vector":"0"}},{"base_weights":[-8.565975E-2,-7.3975615E-2,-3.1959444E-1,-5.0925918E-2,-1.7857446E-1,-4.6376655E-1,2.9543648E-2,-7.072086E-2,1.3497731E-1,-5.508045E-1,-1.1149729E-1,-6.05542E-1,-7.345591E-2,1.5162961E-1,-3.058668E-1,-9.629413E-2,1.01066716E-1,-4.156742E-1,2.342851E-1,-7.8260136E-1,-3.532243E-1,4.0770444E-1,-1.4414634E-1,-6.755394E-1,-2.2666511E-1,-1.0516897E-1,3.8844917E-3,4.113909E-3,2.0011586E-1,-9.438776E-2,-3.6441246E-1,-8.611259E-2,-5.9333414E-1,1.9662727E-1,-2.3378856E-1,-5.1623845E-1,1.4413768E-1,6.421555E-2,5.17264E-1,7.724058E-3,-3.9009154E-1,-4.7200024E-2,5.081253E-1,-2.5288358E-1,4.016527E-2,-7.8453964E-1,-3.44231E-1,-3.047546E-2,-1.1622348E-1,1.8192634E-2,-1.2365896E-2,1.1703409E-2,-5.532546E-3,8.946362E-2,2.3307608E-1,4.9684447E-1,-9.3255706E-2,-2.1175526E-1,-9.219742E-1,3.7673888E-1,-1.5526135E-2,-3.7737772E-1,4.1849756E-1,-1.3484639E-1,-5.5732936E-1,1.4612262E-1,-4.637575E-1,-1.3716564E-1,6.788374E-1,1.5159145E-1,5.593609E-1,-1.5936716E-1,-5.35409E-1,1.9942561E-1,-2.8170252E-1],"categories":[],"categories_nodes":[],"categories_segments":[],"categories_sizes":[],"default_left":[1,1,1,1,1,1,1,1,1,1,1,1,1,1,1,1,1,1,1,0,1,1,1,1,0,1,1,1,1,0,0,1,1,1,1,1,0,1,1,0,0,0,1,1,1,0,0,0,0,0,0,0,0,0,0,0,0,0,0,0,0,0,0,0,0,0,0,0,0,0,0,0,0,0,0],"id":5,"left_children":[1,3,5,7,9,11,13,15,17,19,21,23,25,27,29,31,33,35,37,-1,39,41,43,45,-1,47,49,51,53,-1,-1,55,57,59,61,63,-1,65,67,-1,-1,-1,69,71,73,-1,-1,-1,-1,-1,-1,-1,-1,-1,-1,-1,-1,-1,-1,-1,-1,-1,-1,-1,-1,-1,-1,-1,-1,-1,-1,-1,-1,-1,-1],"loss_changes":[1.7748847E0,1.5049963E0,1.5741165E0,1.9083961E0,2.7599866E0,1.1729221E0,4.558676E-1,2.0613425E0,2.8315854E0,5.0213957E-1,1.7030593E0,2.7120447E-1,1.7577432E-2,5.6396604E-2,2.7474463E-3,2.008583E0,1.9979057E0,5.2478576E-1,2.0362055E0,0E0,1.4939201E-1,2.9807502E-1,1.8539785E0,1.9940233E-1,0E0,5.865358E-4,9.2250685E-4,2.8438497E-4,1.030907E-3,0E0,0E0,1.7119851E0,8.079839E-1,1.8399912E0,1.4691886E0,3.45484E-2,0E0,1.2786176E0,1.7849283E0,0E0,0E0,0E0,6.541848E-3,1.447078E0,1.8503058E0,0E0,0E0,0E0,0E0,0E0,0E0,0E0,0E0,0E0,0E0,0E0,0E0,0E0,0E0,0E0,0E0,0E0,0E0,0E0,0E0,0E0,0E0,0E0,0E0,0E0,0E0,0E0,0E0,0E0,0E0],"parents":[2147483647,0,0,1,1,2,2,3,3,4,4,5,5,6,6,7,7,8,8,9,9,10,10,11,11,12,12,13,13,14,14,15,15,16,16,17,17,18,18,20,20,21,21,22,22,23,23,25,25,26,26,27,27,28,28,31,31,32,32,33,33,34,34,35,35,37,37,38,38,42,42,43,43,44,44],"right_children":[2,4,6,8,10,12,14,16,18,20,22,24,26,28,30,32,34,36,38,-1,40,42,44,46,-1,48,50,52,54,-1,-1,56,58,60,62,64,-1,66,68,-1,-1,-1,70,72,74,-1,-1,-1,-1,-1,-1,-1,-1,-1,-1,-1,-1,-1,-1,-1,-1,-1,-1,-1,-1,-1,-1,-1,-1,-1,-1,-1,-1,-1,-1],"split_conditions":[1.1761951E0,5.716506E-1,1.5747601E-1,6.739062E-1,-7.1450245E-1,9.133262E-1,-5.066213E-2,7.004757E-1,-5.117595E-1,-6.460424E-2,-9.756143E-1,4.6222347E-1,-1.1498645E-2,-1.4353704E-1,-2.7588162E-1,1.4138559E0,4.5550537E-1,5.856369E-1,9.491795E-2,-2.3478042E-1,-4.7788402E-1,-4.600559E-2,2.2077923E-1,1.5281575E0,-6.7999534E-2,-2.1294719E-1,-3.927566E-2,1.8433946E-1,-1.8197209E-2,-2.831633E-2,-1.0932374E-1,-1.4570994E0,4.850824E-1,-4.9026974E-2,6.4281744E-1,-5.583351E-1,4.3241307E-2,1.0775981E0,-9.100841E-1,2.3172174E-3,-1.1702747E-1,-1.4160008E-2,2.926371E-1,2.0348874E-1,3.6054224E-1,-2.353619E-1,-1.0326931E-1,-9.142638E-3,-3.4867045E-2,5.4577906E-3,-3.709769E-3,3.511023E-3,-1.6597639E-3,2.6839087E-2,6.992283E-2,1.4905335E-1,-2.7976712E-2,-6.352658E-2,-2.7659225E-1,1.13021664E-1,-4.657841E-3,-1.1321332E-1,1.2554927E-1,-4.045392E-2,-1.671988E-1,4.3836787E-2,-1.3912725E-1,-4.114969E-2,2.0365123E-1,4.5477435E-2,1.6780828E-1,-4.781015E-2,-1.606227E-1,5.9827685E-2,-8.451076E-2],"split_indices":[45,3,36,45,43,4,7,9,46,22,7,22,16,1,0,17,1,0,3,0,1,0,54,45,0,0,0,0,0,0,0,19,6,27,2,3,0,29,40,0,0,0,0,36,10,0,0,0,0,0,0,0,0,0,0,0,0,0,0,0,0,0,0,0,0,0,0,0,0,0,0,0,0,0,0],"split_type":[0,0,0,0,0,0,0,0,0,0,0,0,0,0,0,0,0,0,0,0,0,0,0,0,0,0,0,0,0,0,0,0,0,0,0,0,0,0,0,0,0,0,0,0,0,0,0,0,0,0,0,0,0,0,0,0,0,0,0,0,0,0,0,0,0,0,0,0,0,0,0,0,0,0,0],"sum_hessian":[6.57E2,6.27E2,3E1,5.15E2,1.12E2,2.1E1,9E0,4.66E2,4.9E1,1.6E1,9.6E1,1.5E1,6E0,7E0,2E0,4.06E2,6E1,7E0,4.2E1,6E0,1E1,5E0,9.1E1,1.2E1,3E0,4E0,2E0,2E0,5E0,1E0,1E0,3.99E2,7E0,4.7E1,1.3E1,6E0,1E0,2.7E1,1.5E1,1E0,9E0,1E0,4E0,5.7E1,3.4E1,8E0,4E0,1E0,3E0,1E0,1E0,1E0,1E0,2E0,3E0,4E0,3.95E2,4E0,3E0,2.5E1,2.2E1,1.1E1,2E0,1E0,5E0,2.4E1,3E0,3E0,1.2E1,1E0,3E0,4.4E1,1.3E1,2.3E1,1.1E1],"tree_param":{"num_deleted":"0","num_feature":"60","num_nodes":"75","size_leaf_vector":"0"}},{"base_weights":[-6.1583318E-2,7.8784525E-1,-6.4075366E-2,-2.799952E-2,-1.3321654E-1,9.720974E-2,-6.589182E-2,-1.5990183E-1,2.2535394E-1,-2.8802177E-1,1.3344494E-1,-2.8576322E-2,-2.0568323E-1,-2.8624752E-1,-9.330621E-2,-3.0243775E-1,3.7041646E-1,-4.011104E-1,-4.638335E-2,9.39281E-2,4.9183235E-1,-1.4267881E-2,-6.4146125E-1,-1.02398135E-1,-4.2637807E-1,-3.4953988E-1,1.4111917E-1,-2.2368476E-2,-2.4099019E-1,-3.5104197E-1,-7.831252E-2,8.7616034E-2,5.362147E-1,-2.9453337E-3,-5.988091E-2,2.2711964E-2,2.7398944E-1,2.733104E-2,5.464786E-1,-2.3353504E-1,2.217675E-2,-7.948481E-1,-2.2312509E-1,-2.3860452E-1,1.0703134E-1,-6.241309E-1,-7.138722E-2,-8.8267976E-1,-2.9843414E-1,-2.2543517E-1,3.304189E-1,-2.0342281E-1,4.1698102E-2,-9.46507E-2,-4.0372816E-1,-2.9724816E-2,1.5371767E-1,2.7390274E-1,7.3005104E-1],"categories":[],"categories_nodes":[],"categories_segments":[],"categories_sizes":[],"default_left":[1,0,1,1,1,1,1,1,1,1,1,1,1,1,1,1,1,0,1,1,1,1,1,1,1,1,1,1,1,0,0,1,1,0,0,0,0,0,0,0,0,0,0,0,0,0,0,0,0,0,0,0,0,0,0,0,0,0,0],"id":6,"left_children":[1,-1,3,5,7,9,11,13,15,17,19,21,23,25,27,29,31,-1,33,35,37,39,41,43,45,47,49,51,53,-1,-1,55,57,-1,-1,-1,-1,-1,-1,-1,-1,-1,-1,-1,-1,-1,-1,-1,-1,-1,-1,-1,-1,-1,-1,-1,-1,-1,-1],"loss_changes":[1.4433453E0,0E0,1.6350422E0,2.0607593E0,2.1889603E0,1.4482882E0,1.7311789E0,1.7402453E0,1.3370328E0,2.2733426E-1,1.2709006E0,2.3059766E0,1.5519538E0,1.9968581E0,1.4508245E0,1.6082764E-2,5.625607E-1,0E0,2.1688594E-3,1.0837553E0,2.1351361E-1,2.0748768E0,2.0765305E-1,1.4232941E0,1.4998546E0,1.4531088E0,7.6837444E-1,1.1104379E0,1.0334616E0,0E0,0E0,5.1107757E-2,2.0680141E-1,0E0,0E0,0E0,0E0,0E0,0E0,0E0,0E0,0E0,0E0,0E0,0E0,0E0,0E0,0E0,0E0,0E0,0E0,0E0,0E0,0E0,0E0,0E0,0E0,0E0,0E0],"parents":[2147483647,0,0,2,2,3,3,4,4,5,5,6,6,7,7,8,8,9,9,10,10,11,11,12,12,13,13,14,14,15,15,16,16,18,18,19,19,20,20,21,21,22,22,23,23,24,24,25,25,26,26,27,27,28,28,31,31,32,32],"right_children":[2,-1,4,6,8,10,12,14,16,18,20,22,24,26,28,30,32,-1,34,36,38,40,42,44,46,48,50,52,54,-1,-1,56,58,-1,-1,-1,-1,-1,-1,-1,-1,-1,-1,-1,-1,-1,-1,-1,-1,-1,-1,-1,-1,-1,-1,-1,-1,-1,-1],"split_conditions":[-2.8997092E0,2.3635359E-1,2.568795E-1,-4.6221423E-1,9.416436E-1,-1.099339E0,3.9314938E-1,-2.7301937E-1,-2.273841E-1,-6.33152E-1,7.9434794E-1,1.2828583E0,3.6240482E-1,5.711235E-1,2.669314E-1,-9.279956E-2,-1.5023409E-1,-1.2033313E-1,-1.6577501E0,3.6194307E-1,-1.4107912E0,-6.405424E-1,6.942448E-2,2.747387E-1,3.379459E-1,-1.2786345E0,-4.774333E-1,-3.673085E-1,1.4276966E-1,-1.0531259E-1,-2.3493757E-2,-1.68695E-2,2.604846E-3,-8.8360015E-4,-1.7964274E-2,6.8135895E-3,8.219683E-2,8.199312E-3,1.6394359E-1,-7.0060514E-2,6.6530253E-3,-2.3845443E-1,-6.693753E-2,-7.1581356E-2,3.2109402E-2,-1.8723927E-1,-2.1416165E-2,-2.6480395E-1,-8.9530244E-2,-6.763055E-2,9.9125676E-2,-6.1026845E-2,1.2509431E-2,-2.8395211E-2,-1.2111845E-1,-8.917445E-3,4.61153E-2,8.217083E-2,2.1901532E-1],"split_indices":[17,0,47,6,14,28,32,36,59,6,54,43,23,42,42,0,34,0,0,39,1,37,0,15,40,4,14,15,51,0,0,0,13,0,0,0,0,0,0,0,0,0,0,0,0,0,0,0,0,0,0,0,0,0,0,0,0,0,0],"split_type":[0,0,0,0,0,0,0,0,0,0,0,0,0,0,0,0,0,0,0,0,0,0,0,0,0,0,0,0,0,0,0,0,0,0,0,0,0,0,0,0,0,0,0,0,0,0,0,0,0,0,0,0,0,0,0,0,0,0,0],"sum_hessian":[6.57E2,1E0,6.56E2,4.32E2,2.24E2,1E2,3.32E2,2.09E2,1.5E1,8E0,9.2E1,2.63E2,6.9E1,7.1E1,1.38E2,3E0,1.2E1,5E0,3E0,8.4E1,8E0,2.58E2,5E0,4.8E1,2.1E1,6.2E1,9E0,9.4E1,4.4E1,2E0,1E0,5E0,7E0,1E0,2E0,6.1E1,2.3E1,1E0,7E0,3.6E1,2.22E2,3E0,2E0,2.9E1,1.9E1,1.3E1,8E0,4E0,5.8E1,3E0,6E0,2.4E1,7E1,2.4E1,2E1,2E0,3E0,4E0,3E0],"tree_param":{"num_deleted":"0","num_feature":"60","num_nodes":"59","size_leaf_vector":"0"}},{"base_weights":[-4.397442E-2,-7.745039E-2,6.279296E-3,-1.1965436E-1,-1.413351E-3,1.0381859E-1,-7.326492E-2,-3.6154453E-2,-1.7544933E-1,9.213986E-2,-1.2018865E-1,-2.7614325E-1,1.5302281E-1,7.1419045E-2,-1.5406263E-1,-2.5139123E-1,1.873864E-2,-4.031031E-1,-1.29615E-1,-2.3794544E-1,1.4821064E-1,1.5590407E-1,-1.8159103E-1,-4.794735E-1,7.4875996E-2,1.1770666E-1,5.709324E-1,-5.116156E-2,2.4647179E-1,-1.0613525E-1,-5.460391E-1,-3.9335185E-1,-5.5899348E-2,2.3326007E-1,-6.2453676E-2,-7.063727E-1,-2.188367E-1,-1.387881E-2,-2.1662338E-1,1.4824392E-1,-3.8314676E-1,2.961434E-1,4.6059962E-2,3.3784357E-1,-1.6637993E-1,-2.1521461E-1,2.7569556E-1,-8.029442E-2,-5.193341E-1,-7.338794E-2,1.6735494E-1,2.0664123E-1,-3.0494671E-2,7.452674E-1,2.1028052E-1,1.5096769E-1,-1.3681942E-1,3.251424E-1,-1.8883166E-1,-2.5321296E-1,1.8166145E-2,-6.630548E-1,-2.0475176E-1,-5.6833214E-1,-1.2364955E-1,9.2866585E-2,-1.3292283E-1,3.406282E-1,2.8395362E-2,-4.5105144E-1,4.7129947E-3,-9.484356E-1,-3.230352E-1,2.3831156E-1,-2.956772E-1,-9.278879E-2,2.5426874E-1,-1.8374129E-1,-6.2707156E-1,2.8992016E-2,1.7833056E-1,-5.257933E-1,-1.6387089E-1,4.310531E-1,1.3044426E-1,1.2258832E-1,-1.8075526E-1,-2.6109034E-1,-1.6209554E-2,-2.888894E-1,-5.9539143E-2,4.055266E-1,-5.6898817E-2,-2.1994263E-3,-1.07882485E-1,6.1026506E-2,3.7023637E-1,6.891023E-2,-2.0582524E-1,2.4322298E-1,5.5726573E-2,-4.7420926E-2,3.588405E-1,5.863538E-2,-2.666572E-1,4.8382396E-1,9.50714E-2,-6.9546807E-1,-1.5172814E-1,-2.3897317E-1,1.0337464E-1,-6.0727417E-2,-2.325174E-1],"categories":[],"categories_nodes":[],"categories_segments":[],"categories_sizes":[],"default_left":[1,1,1,1,1,1,1,1,1,1,1,1,1,1,1,1,1,1,1,1,1,1,1,1,1,1,1,1,1,1,1,1,1,1,1,1,1,1,1,1,1,1,1,0,1,1,1,0,0,1,0,1,1,0,1,1,1,1,0,1,1,0,1,0,0,0,0,0,0,0,0,0,0,0,0,0,0,0,0,0,0,0,0,0,0,0,0,0,0,0,0,0,0,0,0,0,0,0,0,0,0,0,0,0,0,0,0,0,0,0,0,0,0],"id":7,"left_children":[1,3,5,7,9,11,13,15,17,19,21,23,25,27,29,31,33,35,37,39,41,43,45,47,49,51,53,55,57,59,61,63,65,67,69,71,73,75,77,79,81,83,85,-1,87,89,91,-1,-1,93,-1,95,97,-1,99,101,103,105,-1,107,109,-1,111,-1,-1,-1,-1,-1,-1,-1,-1,-1,-1,-1,-1,-1,-1,-1,-1,-1,-1,-1,-1,-1,-1,-1,-1,-1,-1,-1,-1,-1,-1,-1,-1,-1,-1,-1,-1,-1,-1,-1,-1,-1,-1,-1,-1,-1,-1,-1,-1,-1,-1],"loss_changes":[1.1074342E0,1.2674115E0,2.0558994E0,1.1770113E0,1.5889515E0,2.2670476E0,1.7177627E0,1.2216569E0,1.5337744E0,1.5159173E0,1.096334E0,1.0351207E0,1.4972472E0,1.1498877E0,1.707968E0,5.60807E-1,1.4602197E0,1.2424793E0,1.2859559E0,7.297017E-1,1.0290487E0,7.5984466E-1,8.588654E-1,1.0150385E-1,9.45496E-2,1.3111435E0,3.4627867E-1,5.74702E-1,8.148004E-1,1.5585668E0,2.635982E-1,4.9603713E-1,1.2692879E-1,4.9623442E-1,1.5942757E0,5.2874756E-1,6.676312E-1,1.2085264E0,8.70018E-1,9.181388E-3,1.9534826E-1,5.696955E-1,7.51186E-1,0E0,6.6881314E-2,5.447984E-1,1.9579831E-1,0E0,0E0,7.129565E-3,0E0,1.454361E0,6.7647475E-1,0E0,6.811574E-3,4.2941248E-1,5.9931606E-1,6.476548E-1,0E0,1.6448829E0,1.054495E0,0E0,1.8755347E-3,0E0,0E0,0E0,0E0,0E0,0E0,0E0,0E0,0E0,0E0,0E0,0E0,0E0,0E0,0E0,0E0,0E0,0E0,0E0,0E0,0E0,0E0,0E0,0E0,0E0,0E0,0E0,0E0,0E0,0E0,0E0,0E0,0E0,0E0,0E0,0E0,0E0,0E0,0E0,0E0,0E0,0E0,0E0,0E0,0E0,0E0,0E0,0E0,0E0,0E0],"parents":[2147483647,0,0,1,1,2,2,3,3,4,4,5,5,6,6,7,7,8,8,9,9,10,10,11,11,12,12,13,13,14,14,15,15,16,16,17,17,18,18,19,19,20,20,21,21,22,22,23,23,24,24,25,25,26,26,27,27,28,28,29,29,30,30,31,31,32,32,33,33,34,34,35,35,36,36,37,37,38,38,39,39,40,40,41,41,42,42,44,44,45,45,46,46,49,49,51,51,52,52,54,54,55,55,56,56,57,57,59,59,60,60,62,62],"right_children":[2,4,6,8,10,12,14,16,18,20,22,24,26,28,30,32,34,36,38,40,42,44,46,48,50,52,54,56,58,60,62,64,66,68,70,72,74,76,78,80,82,84,86,-1,88,90,92,-1,-1,94,-1,96,98,-1,100,102,104,106,-1,108,110,-1,112,-1,-1,-1,-1,-1,-1,-1,-1,-1,-1,-1,-1,-1,-1,-1,-1,-1,-1,-1,-1,-1,-1,-1,-1,-1,-1,-1,-1,-1,-1,-1,-1,-1,-1,-1,-1,-1,-1,-1,-1,-1,-1,-1,-1,-1,-1,-1,-1,-1,-1],"split_conditions":[1.5879339E-1,2.2627664E-1,-2.1309842E-1,-4.1560283E-1,1.153887E-1,-7.4612975E-1,-2.4634713E-1,-5.201931E-1,-5.933158E-1,-6.461292E-1,-5.509742E-1,2.8313407E-1,8.8843477E-1,4.4562455E-2,8.03609E-1,8.852345E-2,-1.4820585E-1,-1.9256754E-1,-1.0840784E-1,-5.429821E-1,-1.9491684E-1,4.7358423E-1,1.391149E0,2.2747283E-1,-3.4495547E-1,2.1030651E-1,-1.3766134E-1,-2.798782E-1,4.0356E-1,-2.279955E-1,-7.24103E-2,-1.3290058E-1,-9.7615427E-1,3.5115492E-1,-4.7971076E-1,2.902208E-3,-6.289638E-1,5.1628757E-1,1.0251353E0,-2.9267293E-1,3.9043504E-1,3.0668035E-1,4.7504908E-1,1.0135307E-1,-7.479493E-1,2.2053197E-1,2.8322834E-1,-2.4088329E-2,-1.5580022E-1,-2.9621017E-1,5.0206486E-2,8.4783494E-2,3.9039642E-1,2.2358023E-1,4.1238737E-1,1.613022E-2,-7.880412E-2,1.0244115E-1,-5.66495E-2,-5.845977E-1,-4.84623E-1,-1.9891645E-1,-3.8585427E-1,-1.7049965E-1,-3.709487E-2,2.7859977E-2,-3.987685E-2,1.0218847E-1,8.518609E-3,-1.3531543E-1,1.4138984E-3,-2.845307E-1,-9.6910566E-2,7.149347E-2,-8.870317E-2,-2.783664E-2,7.628062E-2,-5.5122387E-2,-1.8812148E-1,8.697605E-3,5.349917E-2,-1.57738E-1,-4.9161267E-2,1.2931594E-1,3.913328E-2,3.6776498E-2,-5.422658E-2,-7.8327104E-2,-4.8628664E-3,-8.666682E-2,-1.7861744E-2,1.2165799E-1,-1.7069645E-2,-6.598279E-4,-3.236475E-2,1.8307952E-2,1.11070916E-1,2.067307E-2,-6.1747573E-2,7.2966896E-2,1.6717972E-2,-1.4226278E-2,1.0765215E-1,1.7590614E-2,-7.999717E-2,1.4514719E-1,2.852142E-2,-2.0864043E-1,-4.5518443E-2,-7.169195E-2,3.1012392E-2,-1.8218227E-2,-6.975523E-2],"split_indices":[12,48,41,48,40,3,3,55,26,43,27,31,40,21,17,22,46,49,32,24,1,19,40,12,7,58,3,32,40,14,20,21,3,25,7,10,11,9,11,1,6,14,34,0,2,21,1,0,0,0,0,8,24,0,0,31,31,38,0,55,2,0,0,0,0,0,0,0,0,0,0,0,0,0,0,0,0,0,0,0,0,0,0,0,0,0,0,0,0,0,0,0,0,0,0,0,0,0,0,0,0,0,0,0,0,0,0,0,0,0,0,0,0],"split_type":[0,0,0,0,0,0,0,0,0,0,0,0,0,0,0,0,0,0,0,0,0,0,0,0,0,0,0,0,0,0,0,0,0,0,0,0,0,0,0,0,0,0,0,0,0,0,0,0,0,0,0,0,0,0,0,0,0,0,0,0,0,0,0,0,0,0,0,0,0,0,0,0,0,0,0,0,0,0,0,0,0,0,0,0,0,0,0,0,0,0,0,0,0,0,0,0,0,0,0,0,0,0,0,0,0,0,0,0,0,0,0,0,0],"sum_hessian":[6.57E2,3.94E2,2.63E2,2.53E2,1.41E2,1.18E2,1.45E2,1.02E2,1.51E2,7.9E1,6.2E1,1.3E1,1.05E2,5.2E1,9.3E1,2E1,8.2E1,2.4E1,1.27E2,1.1E1,6.8E1,1.1E1,5.1E1,8E0,5E0,9.8E1,7E0,3.1E1,2.1E1,8.4E1,9E0,1.1E1,9E0,2.2E1,6E1,8E0,1.6E1,5.5E1,7.2E1,3E0,8E0,2.7E1,4.1E1,7E0,4E0,4.8E1,3E0,1E0,7E0,2E0,3E0,6.1E1,3.7E1,4E0,3E0,9E0,2.2E1,1.8E1,3E0,3.8E1,4.6E1,6E0,3E0,6E0,5E0,3E0,6E0,1.4E1,8E0,8E0,5.2E1,4E0,4E0,2E0,1.4E1,4.3E1,1.2E1,6.8E1,4E0,1E0,2E0,4E0,4E0,1.4E1,1.3E1,3.1E1,1E1,2E0,2E0,3.2E1,1.6E1,2E0,1E0,1E0,1E0,3.3E1,2.8E1,2.4E1,1.3E1,2E0,1E0,5E0,4E0,9E0,1.3E1,1E1,8E0,6E0,3.2E1,1.1E1,3.5E1,1E0,2E0],"tree_param":{"num_deleted":"0","num_feature":"60","num_nodes":"113","size_leaf_vector":"0"}},{"base_weights":[-3.2311827E-2,-1.0718482E-2,-9.472856E-2,1.7553829E-3,-2.1659994E-1,-1.9760631E-1,-1.9990684E-2,2.9528037E-2,-1.0065648E-1,-9.817022E-2,-4.5571044E-1,-3.453814E-1,-7.4446075E-2,7.396236E-2,-1.3437794E-1,-1.7162398E-2,8.3185665E-2,-1.4764585E-1,1.18998215E-1,2.782938E-2,-2.9064828E-1,-5.0443316E-1,-1.9012061E-1,-5.50243E-1,-2.118709E-1,1.2895183E-1,-1.7715439E-1,-1.6088162E-1,1.3632976E-1,1.0647339E-1,-2.2518672E-1,-1.2572654E-1,6.2030457E-2,1.9913036E-1,1.9763438E-2,-3.147003E-1,-9.22691E-2,3.4253561E-1,-2.0324051E-1,1.1857781E-1,-1.4108367E-1,-4.447886E-1,-2.5310831E-2,-1.3586028E-1,-6.7327505E-1,-3.7863973E-1,-1.0144079E-1,-5.8690563E-2,2.3971878E-1,-3.432669E-1,-5.924898E-2,1.5489152E-1,-3.3812964E-1,2.2149421E-1,-2.6551431E-2,2.4237119E-1,-4.46349E-2,-6.401553E-2,-3.267472E-1,-3.1959318E-2,-3.0877072E-1,-3.0324712E-1,1.00069135E-1,2.4379449E-1,-1.7386864E-1,1.4727062E-1,-5.702321E-2,-5.3453785E-1,-8.6238876E-2,-1.8567826E-1,4.78008E-2,1.531811E-1,4.7480088E-1,3.394075E-2,-2.8795773E-1,2.5041573E-2,1.4172508E-1,1.9519068E-2,-7.9900265E-2,3.7149705E-2,-2.0591351E-1,-4.3353894E-1,-1.4262806E-1,-1.7229334E-1,6.055246E-2,-1.0297732E-1,1.992197E-2,1.8442228E-2,3.0030605E-1,-4.7388237E-2,-4.482979E-1,-1.4682025E-1,1.8028611E-1,2.0723955E-1,-2.725029E-2,-4.1722357E-1,-6.723191E-2,3.3393043E-1,3.438204E-2,1.0138594E-1,-3.2829085E-1,1.0865688E-1,3.154927E-1,1.5028664E-1,-1.02169596E-1,-1.5847641E-1,8.834505E-2,-4.873103E-1,-1.7909598E-1],"categories":[],"categories_nodes":[],"categories_segments":[],"categories_sizes":[],"default_left":[1,1,1,1,1,1,1,1,1,1,1,1,1,1,1,1,1,1,1,1,1,0,0,1,1,1,1,1,1,1,1,1,1,1,1,1,1,1,1,1,0,0,1,1,0,1,1,1,1,1,1,1,1,1,1,1,1,1,1,0,0,0,0,0,0,0,0,0,0,0,0,0,0,0,0,0,0,0,0,0,0,0,0,0,0,0,0,0,0,0,0,0,0,0,0,0,0,0,0,0,0,0,0,0,0,0,0,0,0],"id":8,"left_children":[1,3,5,7,9,11,13,15,17,19,21,23,25,27,29,31,33,35,37,39,41,-1,-1,43,45,47,49,51,53,55,57,59,61,63,65,67,69,71,73,75,-1,-1,77,79,-1,81,83,85,87,89,91,93,95,97,99,101,103,105,107,-1,-1,-1,-1,-1,-1,-1,-1,-1,-1,-1,-1,-1,-1,-1,-1,-1,-1,-1,-1,-1,-1,-1,-1,-1,-1,-1,-1,-1,-1,-1,-1,-1,-1,-1,-1,-1,-1,-1,-1,-1,-1,-1,-1,-1,-1,-1,-1,-1,-1],"loss_changes":[8.858279E-1,1.2587676E0,1.2954679E0,1.3198595E0,7.4816096E-1,1.266489E0,1.073895E0,9.158615E-1,1.0393916E0,4.9313182E-1,2.0559192E-2,7.58657E-1,8.584707E-1,8.2749647E-1,1.0081899E0,1.6929096E0,1.2461545E0,7.295394E-1,1.3662006E0,2.1600112E-1,3.1593555E-1,0E0,0E0,5.203166E-1,3.4833282E-1,3.050533E-1,5.08472E-1,7.2401536E-1,6.1623526E-1,2.777769E-1,5.192479E-1,1.414706E0,1.614339E0,1.0419688E0,1.0951822E0,9.5839E-1,8.331557E-1,2.0276463E-1,1.7052019E-1,1.5936956E-2,0E0,0E0,1.1348534E-2,5.612926E-2,0E0,4.181993E-2,1.7111963E-1,2.2940475E-2,1.1512059E-1,3.2059658E-1,3.830683E-1,5.3321153E-2,1.433602E-1,5.9862614E-1,6.5094405E-1,3.416127E-2,9.385799E-2,2.1549022E-1,3.8687134E-1,0E0,0E0,0E0,0E0,0E0,0E0,0E0,0E0,0E0,0E0,0E0,0E0,0E0,0E0,0E0,0E0,0E0,0E0,0E0,0E0,0E0,0E0,0E0,0E0,0E0,0E0,0E0,0E0,0E0,0E0,0E0,0E0,0E0,0E0,0E0,0E0,0E0,0E0,0E0,0E0,0E0,0E0,0E0,0E0,0E0,0E0,0E0,0E0,0E0,0E0],"parents":[2147483647,0,0,1,1,2,2,3,3,4,4,5,5,6,6,7,7,8,8,9,9,10,10,11,11,12,12,13,13,14,14,15,15,16,16,17,17,18,18,19,19,20,20,23,23,24,24,25,25,26,26,27,27,28,28,29,29,30,30,31,31,32,32,33,33,34,34,35,35,36,36,37,37,38,38,39,39,42,42,43,43,45,45,46,46,47,47,48,48,49,49,50,50,51,51,52,52,53,53,54,54,55,55,56,56,57,57,58,58],"right_children":[2,4,6,8,10,12,14,16,18,20,22,24,26,28,30,32,34,36,38,40,42,-1,-1,44,46,48,50,52,54,56,58,60,62,64,66,68,70,72,74,76,-1,-1,78,80,-1,82,84,86,88,90,92,94,96,98,100,102,104,106,108,-1,-1,-1,-1,-1,-1,-1,-1,-1,-1,-1,-1,-1,-1,-1,-1,-1,-1,-1,-1,-1,-1,-1,-1,-1,-1,-1,-1,-1,-1,-1,-1,-1,-1,-1,-1,-1,-1,-1,-1,-1,-1,-1,-1,-1,-1,-1,-1,-1,-1],"split_conditions":[3.846448E-1,9.680197E-1,-8.221597E-2,4.8845857E-1,3.8690367E-1,1.519295E-2,1.01353735E-1,4.0124387E-2,1.23842E0,4.3995044E-1,4.464542E-1,5.676166E-1,-5.235981E-1,-5.0227994E-1,-1.2211771E-1,-1.5784118E-1,-2.8622314E-1,-4.9963224E-1,2.4676755E-1,6.999916E-1,2.8127512E-1,-1.5132995E-1,-5.7036184E-2,-4.0470454E-1,-1.3743015E-1,-5.3239477E-1,-1.3373815E-1,-1.7721656E-1,4.7246766E-1,-4.4457906E-1,-3.941738E-1,-3.825093E-1,-9.8409677E-1,8.177314E-1,-3.7425703E-1,-2.2162297E-1,2.6205656E-1,3.4832075E-2,-3.308875E-1,-3.95671E-1,-4.23251E-2,-1.3343659E-1,-1.3888842E-1,-1.0331019E0,-2.0198253E-1,3.5881348E-2,3.222391E-1,1.06355734E-1,7.1730584E-1,-4.197808E-1,4.2498413E-1,2.444163E-4,3.527886E-1,-8.216799E-2,3.8836384E-1,5.311506E-1,-5.1816136E-1,2.9469955E-1,-2.989062E-1,-9.5877955E-3,-9.263122E-2,-9.097414E-2,3.0020742E-2,7.313835E-2,-5.2160595E-2,4.4181187E-2,-1.7106963E-2,-1.6036136E-1,-2.5871664E-2,-5.570348E-2,1.4340241E-2,4.595433E-2,1.4244027E-1,1.0182226E-2,-8.638732E-2,7.512472E-3,4.2517524E-2,5.8557205E-3,-2.397008E-2,1.1144912E-2,-6.1774056E-2,-1.3006169E-1,-4.278842E-2,-5.1688004E-2,1.816574E-2,-3.0893197E-2,5.9765913E-3,5.532669E-3,9.009182E-2,-1.4216471E-2,-1.3448937E-1,-4.4046074E-2,5.4085836E-2,6.217187E-2,-8.175087E-3,-1.2516707E-1,-2.0169573E-2,1.00179136E-1,1.0314613E-2,3.0415785E-2,-9.848726E-2,3.2597065E-2,9.464781E-2,4.5085996E-2,-3.065088E-2,-4.7542926E-2,2.6503516E-2,-1.4619309E-1,-5.3728797E-2],"split_indices":[7,47,51,18,51,52,23,4,18,44,15,7,14,8,40,15,39,27,21,9,27,0,0,1,23,29,33,17,36,27,2,15,39,38,41,30,36,54,2,0,0,0,0,1,0,4,14,3,7,3,39,0,0,45,42,10,0,4,45,0,0,0,0,0,0,0,0,0,0,0,0,0,0,0,0,0,0,0,0,0,0,0,0,0,0,0,0,0,0,0,0,0,0,0,0,0,0,0,0,0,0,0,0,0,0,0,0,0,0],"split_type":[0,0,0,0,0,0,0,0,0,0,0,0,0,0,0,0,0,0,0,0,0,0,0,0,0,0,0,0,0,0,0,0,0,0,0,0,0,0,0,0,0,0,0,0,0,0,0,0,0,0,0,0,0,0,0,0,0,0,0,0,0,0,0,0,0,0,0,0,0,0,0,0,0,0,0,0,0,0,0,0,0,0,0,0,0,0,0,0,0,0,0,0,0,0,0,0,0,0,0,0,0,0,0,0,0,0,0,0,0],"sum_hessian":[6.57E2,4.89E2,1.68E2,4.62E2,2.7E1,7E1,9.8E1,3.64E2,9.8E1,1.9E1,8E0,3.1E1,3.9E1,5.4E1,4.4E1,1.95E2,1.69E2,8.1E1,1.7E1,1.2E1,7E0,6E0,2E0,1.1E1,2E1,1.3E1,2.6E1,1.1E1,4.3E1,1.2E1,3.2E1,8.2E1,1.13E2,5.9E1,1.1E2,1.9E1,6.2E1,1E1,7E0,8E0,4E0,4E0,3E0,3E0,8E0,7E0,1.3E1,5E0,8E0,1E1,1.6E1,4E0,7E0,2.8E1,1.5E1,6E0,6E0,1.3E1,1.9E1,5.5E1,2.7E1,1E1,1.03E2,5.3E1,6E0,4.1E1,6.9E1,9E0,1E1,3.7E1,2.5E1,5E0,5E0,2E0,5E0,2E0,6E0,2E0,1E0,1E0,2E0,5E0,2E0,9E0,4E0,3E0,2E0,2E0,6E0,3E0,7E0,1.2E1,4E0,3E0,1E0,5E0,2E0,1.7E1,1.1E1,1.1E1,4E0,3E0,3E0,1E0,5E0,8E0,5E0,8E0,1.1E1],"tree_param":{"num_deleted":"0","num_feature":"60","num_nodes":"109","size_leaf_vector":"0"}},{"base_weights":[-2.4499556E-2,3.2256106E-1,-2.7650954E-2,9.224473E-2,3.5017538E-1,2.166207E-1,-3.1786785E-2,3.5473812E-1,-1.1376931E-1,-3.9585263E-2,1.04814924E-1,-1.2963665E-1,-3.3083647E-2,-1.9064373E-1,-3.2792274E-2,5.8698744E-1,2.366404E-2,-2.8857175E-1,1.1638544E-1,-3.1830782E-1,-2.9277738E-2,4.134562E-1,-3.28657E-2,-6.615952E-2,-4.3133327E-1,2.012837E-1,2.3908354E-3,1.6320118E-1,-4.2575952E-1,5.473721E-2,-4.0774334E-2,-3.6287168E-1,2.1249883E-2],"categories":[],"categories_nodes":[],"categories_segments":[],"categories_sizes":[],"default_left":[1,1,1,0,0,1,1,0,1,1,1,0,0,1,1,0,1,1,1,1,1,0,1,0,0,0,0,0,0,0,0,0,0],"id":9,"left_children":[1,3,5,-1,-1,7,9,-1,11,13,15,-1,-1,17,19,-1,21,23,25,27,29,-1,31,-1,-1,-1,-1,-1,-1,-1,-1,-1,-1],"loss_changes":[7.285913E-1,5.8583617E-3,6.66589E-1,0E0,0E0,5.4231703E-1,6.891277E-1,0E0,8.3221495E-4,6.186667E-1,1.355615E0,0E0,0E0,8.1532127E-1,5.7669795E-1,0E0,6.9666886E-1,6.065012E-1,6.726435E-2,4.3165725E-1,5.605141E-1,0E0,5.07748E-1,0E0,0E0,0E0,0E0,0E0,0E0,0E0,0E0,0E0,0E0],"parents":[2147483647,0,0,1,1,2,2,5,5,6,6,8,8,9,9,10,10,13,13,14,14,16,16,17,17,18,18,19,19,20,20,22,22],"right_children":[2,4,6,-1,-1,8,10,-1,12,14,16,-1,-1,18,20,-1,22,24,26,28,30,-1,32,-1,-1,-1,-1,-1,-1,-1,-1,-1,-1],"split_conditions":[-1.870753E0,-4.4106153E-1,-1.5371306E0,2.767342E-2,1.0505262E-1,1.287371E-1,1.0679348E0,1.0642144E-1,1.5946107E-1,-1.2651558E0,-6.522844E-1,-3.8890995E-2,-9.925094E-3,5.562087E-1,-1.8119881E0,1.7609623E-1,1.1371096E0,-1.6080025E-1,-3.637159E-1,-6.1469847E-1,-6.1677235E-1,1.2403686E-1,-4.355644E-1,-1.9847855E-2,-1.2939999E-1,6.038511E-2,7.1725063E-4,4.8960358E-2,-1.2772787E-1,1.6421163E-2,-1.2232301E-2,-1.08861506E-1,6.374965E-3],"split_indices":[24,0,37,0,0,51,53,0,1,10,30,0,0,12,32,0,53,3,25,1,10,0,21,0,0,0,0,0,0,0,0,0,0],"split_type":[0,0,0,0,0,0,0,0,0,0,0,0,0,0,0,0,0,0,0,0,0,0,0,0,0,0,0,0,0,0,0,0,0],"sum_hessian":[6.57E2,5E0,6.52E2,1E0,4E0,1E1,6.42E2,7E0,3E0,6.08E2,3.4E1,2E0,1E0,2.5E1,5.83E2,4E0,3E1,1.9E1,6E0,6E0,5.77E2,3E0,2.7E1,8E0,1.1E1,3E0,3E0,1E0,5E0,6.9E1,5.08E2,3E0,2.4E1],"tree_param":{"num_deleted":"0","num_feature":"60","num_nodes":"33","size_leaf_vector":"0"}},{"base_weights":[-1.6807357E-2,-1.3575046E-2,-2.7773562E-1,-2.0646255E-2,1.11468114E-1,-9.352569E-2,-4.3856412E-1,4.4439463E-3,-7.705657E-2,-7.251838E-2,2.8926194E-1,2.899988E-2,-1.3140705E-1,-4.912388E-2,5.0339986E-2,-9.844494E-2,1.4639239E-1,-1.8312314E-1,8.8627964E-2,1.5949243E-1,7.035821E-1,5.2813042E-2,-1.0166271E-1,2.6399689E-2,2.2296432E-1,-1.1260497E-1,1.4504011E-1,-1.7466728E-1,2.0084484E-1,-1.1095559E-2,-1.9921634E-1,-6.505088E-2,1.9384545E-1,2.0964295E-1,-3.0832188E-2,9.9446744E-2,-1.9787495E-1,-3.401981E-1,-6.5516934E-2,-5.4998923E-2,7.217906E-2,2.1609012E-2,3.3362788E-1,-3.3423223E-2,-1.5994327E-1,2.8763077E-1,-5.5076703E-2,3.1094626E-1,3.0593751E-2,-1.311535E-1,7.0116174E-4,2.5606218E-1,5.278891E-2,-8.902057E-2,7.186648E-2],"categories":[],"categories_nodes":[],"categories_segments":[],"categories_sizes":[],"default_left":[1,1,1,1,1,1,0,1,1,1,1,0,0,1,1,1,1,1,1,1,0,1,1,1,1,1,1,0,1,0,0,1,0,1,1,0,0,0,0,0,0,0,0,0,0,0,0,0,0,0,0,0,0,0,0],"id":10,"left_children":[1,3,5,7,9,11,-1,13,15,17,19,-1,-1,21,23,25,27,29,31,33,-1,35,37,39,41,43,45,-1,47,-1,-1,49,-1,51,53,-1,-1,-1,-1,-1,-1,-1,-1,-1,-1,-1,-1,-1,-1,-1,-1,-1,-1,-1,-1],"loss_changes":[5.511876E-1,5.7791966E-1,1.9599259E-1,8.73611E-1,1.1658851E0,2.7017966E-2,0E0,1.0547328E0,9.2246115E-1,3.3705378E-1,8.5557413E-1,0E0,0E0,1.0657872E0,9.487624E-1,6.1624193E-1,3.322832E-1,2.8242797E-2,1.4196742E-1,1.4963683E-1,0E0,8.146326E-1,1.1071994E0,7.6415074E-1,6.1670613E-1,6.131284E-1,3.0118966E-1,0E0,2.7166033E-1,0E0,0E0,1.7477488E-2,0E0,7.385534E-2,3.0301074E-2,0E0,0E0,0E0,0E0,0E0,0E0,0E0,0E0,0E0,0E0,0E0,0E0,0E0,0E0,0E0,0E0,0E0,0E0,0E0,0E0],"parents":[2147483647,0,0,1,1,2,2,3,3,4,4,5,5,7,7,8,8,9,9,10,10,13,13,14,14,15,15,16,16,17,17,18,18,19,19,21,21,22,22,23,23,24,24,25,25,26,26,28,28,31,31,33,33,34,34],"right_children":[2,4,6,8,10,12,-1,14,16,18,20,-1,-1,22,24,26,28,30,32,34,-1,36,38,40,42,44,46,-1,48,-1,-1,50,-1,52,54,-1,-1,-1,-1,-1,-1,-1,-1,-1,-1,-1,-1,-1,-1,-1,-1,-1,-1,-1,-1],"split_conditions":[1.5952549E0,1.0754328E0,-5.2791502E-2,2.8339872E-1,1.1002086E-4,-8.695844E-1,-1.3156924E-1,-5.5316776E-2,5.7350427E-1,1.3184486E-1,3.3882356E-1,8.699965E-3,-3.9422117E-2,-6.4519566E-1,8.04386E-1,1.0040008E0,-9.586169E-1,-8.7926584E-1,-2.1346717E-1,-6.659715E-2,2.1107464E-1,7.209058E-1,-6.3930154E-1,-3.796187E-1,-3.8186908E-1,-2.1309842E-1,-1.67559E-1,-5.2400187E-2,7.5941674E-2,-3.328668E-3,-5.9764903E-2,-9.7802915E-3,5.8153637E-2,7.0586723E-1,4.536326E-1,2.9834025E-2,-5.9362486E-2,-1.0205943E-1,-1.965508E-2,-1.6499678E-2,2.1653717E-2,6.482704E-3,1.00088365E-1,-1.0026967E-2,-4.7982983E-2,8.6289234E-2,-1.6523011E-2,9.328388E-2,9.178125E-3,-3.934605E-2,2.1034853E-4,7.681866E-2,1.5836673E-2,-2.6706172E-2,2.1559946E-2],"split_indices":[46,41,18,34,21,0,0,30,41,55,6,0,0,30,29,53,36,3,59,54,0,17,17,11,47,8,14,0,37,0,0,0,0,17,0,0,0,0,0,0,0,0,0,0,0,0,0,0,0,0,0,0,0,0,0],"split_type":[0,0,0,0,0,0,0,0,0,0,0,0,0,0,0,0,0,0,0,0,0,0,0,0,0,0,0,0,0,0,0,0,0,0,0,0,0,0,0,0,0,0,0,0,0,0,0,0,0,0,0,0,0,0,0],"sum_hessian":[6.57E2,6.5E2,7E0,6.16E2,3.4E1,4E0,3E0,4.27E2,1.89E2,1.7E1,1.7E1,1E0,3E0,1.97E2,2.3E2,1.73E2,1.6E1,1E1,7E0,1.4E1,3E0,6.7E1,1.3E2,2.03E2,2.7E1,1.64E2,9E0,2E0,1.4E1,1E0,9E0,3E0,4E0,1.1E1,3E0,5.7E1,1E1,1.6E1,1.14E2,7.3E1,1.3E2,1E1,1.7E1,6.2E1,1.02E2,5E0,4E0,8E0,6E0,1E0,2E0,8E0,3E0,2E0,1E0],"tree_param":{"num_deleted":"0","num_feature":"60","num_nodes":"55","size_leaf_vector":"0"}},{"base_weights":[-1.1591111E-2,-3.5656754E-2,2.3562832E-2,6.7543805E-2,-5.0986875E-2,6.085867E-2,-7.322324E-2,1.126846E-1,-1.5563378E-1,-6.644883E-2,8.1856064E-2,-2.9169515E-1,7.366196E-2,7.9210244E-2,-1.3396978E-1,3.5085447E-2,2.4144033E-1,-2.9093775E-1,1.0796966E-2,-1.1492942E-1,-9.6478015E-3,-3.8879428E-2,2.7436036E-1,8.5855566E-2,-2.1142614E-1,2.271275E-1,-4.0665362E-2,-1.8165724E-1,1.2465159E-1,3.1811517E-1,-1.1602728E-2,8.208625E-2,3.0641162E-1,-3.245271E-1,-7.8290164E-2,-3.4269E-2,3.0630708E-2,-1.5969679E-1,1.5798826E-2,-5.449593E-2,1.3441378E-1,1.1664187E-1,-8.8559896E-2,1.1816195E-1,5.3188515E-1,1.5516786E-1,3.646979E-2,1.660166E-2,-3.5156316E-1,3.1630382E-1,1.4287092E-2,1.8023938E-1,-9.721526E-2,-2.1702133E-1,-3.264439E-2,1.602662E-2,2.5642616E-1,-2.3583752E-1,1.8149754E-2,-5.0988145E-2,1.1889876E-1,3.6078304E-1,1.2106587E-1,4.0250435E-2,1.400732E-2,-7.7887855E-2,-2.2472036E-1,1.1428173E-1,-2.2026032E-1,-8.132493E-2,2.9438576E-1,2.5285164E-1,-3.2464266E-2,1.755338E-1,-7.6131773E-4,-1.5006778E-1,5.9467167E-2,1.7160411E-1,-4.9023107E-3,6.0371675E-2,2.5618675E-1,1.8167913E-1,-1.1008509E-3,-7.262593E-2,7.055283E-2,3.6065578E-1,1.3694929E-1,6.0552042E-2,-6.2253878E-2,-4.9968682E-2,-1.6740459E-1,-2.927649E-1,-1.5207046E-1,-1.4079885E-1,6.292506E-2,-1.3511235E-2,5.006822E-2],"categories":[],"categories_nodes":[],"categories_segments":[],"categories_sizes":[],"default_left":[1,1,1,1,1,1,1,1,1,1,1,0,1,1,1,1,1,1,1,1,1,1,1,1,1,1,1,1,1,0,1,1,1,0,0,0,1,1,1,1,1,1,1,1,0,1,1,1,0,1,1,0,1,1,1,1,0,0,0,0,0,0,0,0,0,0,0,0,0,0,0,0,0,0,0,0,0,0,0,0,0,0,0,0,0,0,0,0,0,0,0,0,0,0,0,0,0],"id":11,"left_children":[1,3,5,7,9,11,13,15,17,19,21,-1,23,25,27,29,31,33,35,37,39,41,43,45,47,49,51,53,55,-1,57,59,61,-1,-1,-1,63,65,67,69,71,73,75,77,-1,79,81,83,-1,85,87,-1,89,91,93,95,-1,-1,-1,-1,-1,-1,-1,-1,-1,-1,-1,-1,-1,-1,-1,-1,-1,-1,-1,-1,-1,-1,-1,-1,-1,-1,-1,-1,-1,-1,-1,-1,-1,-1,-1,-1,-1,-1,-1,-1,-1],"loss_changes":[5.575096E-1,6.22036E-1,9.7186065E-1,5.313327E-1,7.058573E-1,8.9717335E-1,7.0509744E-1,4.211564E-1,2.0580992E-1,8.415381E-1,8.4738266E-1,0E0,6.716875E-1,3.9933297E-1,6.886255E-1,3.7368697E-1,1.4050287E-1,1.0306209E-2,5.518818E-3,9.6816206E-1,9.247717E-1,1.8803631E-1,5.003009E-1,6.139116E-1,2.6147756E-1,1.8528414E-1,1.7991985E-1,2.3532188E-1,1.24716416E-1,0E0,1.7106894E-1,3.5455234E-2,6.717408E-2,0E0,0E0,0E0,7.5849006E-5,6.367967E-1,1.0248268E0,1.0441968E0,6.802077E-1,4.1618228E-2,1.7281105E-1,6.660944E-2,0E0,7.02749E-1,5.8395004E-1,2.4379695E-2,0E0,6.2915087E-3,1.7934255E-2,0E0,2.8113276E-2,1.3750458E-1,1.1222242E-1,6.7095784E-3,0E0,0E0,0E0,0E0,0E0,0E0,0E0,0E0,0E0,0E0,0E0,0E0,0E0,0E0,0E0,0E0,0E0,0E0,0E0,0E0,0E0,0E0,0E0,0E0,0E0,0E0,0E0,0E0,0E0,0E0,0E0,0E0,0E0,0E0,0E0,0E0,0E0,0E0,0E0,0E0,0E0],"parents":[2147483647,0,0,1,1,2,2,3,3,4,4,5,5,6,6,7,7,8,8,9,9,10,10,12,12,13,13,14,14,15,15,16,16,17,17,18,18,19,19,20,20,21,21,22,22,23,23,24,24,25,25,26,26,27,27,28,28,30,30,31,31,32,32,36,36,37,37,38,38,39,39,40,40,41,41,42,42,43,43,45,45,46,46,47,47,49,49,50,50,52,52,53,53,54,54,55,55],"right_children":[2,4,6,8,10,12,14,16,18,20,22,-1,24,26,28,30,32,34,36,38,40,42,44,46,48,50,52,54,56,-1,58,60,62,-1,-1,-1,64,66,68,70,72,74,76,78,-1,80,82,84,-1,86,88,-1,90,92,94,96,-1,-1,-1,-1,-1,-1,-1,-1,-1,-1,-1,-1,-1,-1,-1,-1,-1,-1,-1,-1,-1,-1,-1,-1,-1,-1,-1,-1,-1,-1,-1,-1,-1,-1,-1,-1,-1,-1,-1,-1,-1],"split_conditions":[1.5603122E-1,-9.556428E-1,3.6388057E-1,5.301683E-1,7.784459E-1,-1.2441312E0,-4.7186887E-1,2.8532332E-1,-2.7641916E-1,1.2662092E-1,2.8507007E-2,-8.7508544E-2,1.0956197E0,1.8424281E-1,9.4249976E-1,-6.917038E-1,-2.6221603E-1,1.7172699E-1,-6.5231967E-1,3.7907884E-1,3.7607768E-1,-5.907818E-1,4.1931266E-1,-1.8285447E-1,2.5439614E-1,2.9918262E-1,-4.9261373E-1,3.1388116E-1,6.371572E-1,9.5434554E-2,-1.0930182E0,-3.506739E-1,3.3231848E-1,-9.735814E-2,-2.348705E-2,-1.02807E-2,-1.6314787E-1,-6.15701E-2,4.1878176E-1,1.1761951E0,1.2829499E-1,7.436987E-1,2.2926706E-1,2.8071558E-1,1.5956555E-1,-2.4213076E-2,-4.8799002E-1,2.267068E-1,-1.0546895E-1,1.5231584E-1,3.33577E-1,5.4071818E-2,3.181295E-1,-3.2402515E-1,-2.4904944E-1,-2.2851163E-1,7.692785E-2,-7.075126E-2,5.444926E-3,-1.5296444E-2,3.566963E-2,1.0823492E-1,3.6319762E-2,1.2075131E-2,4.202196E-3,-2.3366358E-2,-6.741611E-2,3.428452E-2,-6.60781E-2,-2.439748E-2,8.831573E-2,7.585549E-2,-9.73928E-3,5.266014E-2,-2.2839532E-4,-4.5020334E-2,1.784015E-2,5.1481236E-2,-1.4706933E-3,1.8111503E-2,7.685603E-2,5.4503743E-2,-3.3025528E-4,-2.178778E-2,2.1165852E-2,1.0819674E-1,4.108479E-2,1.8165613E-2,-1.8676164E-2,-1.4990605E-2,-5.022138E-2,-8.782947E-2,-4.562114E-2,-4.223966E-2,1.887752E-2,-4.0533706E-3,1.5020466E-2],"split_indices":[48,48,7,32,41,5,44,55,34,28,21,0,47,18,19,26,6,0,0,27,2,6,6,41,23,16,37,26,2,0,39,2,33,0,0,0,0,57,2,24,45,1,37,3,0,2,31,0,0,1,0,0,19,52,42,10,0,0,0,0,0,0,0,0,0,0,0,0,0,0,0,0,0,0,0,0,0,0,0,0,0,0,0,0,0,0,0,0,0,0,0,0,0,0,0,0,0],"split_type":[0,0,0,0,0,0,0,0,0,0,0,0,0,0,0,0,0,0,0,0,0,0,0,0,0,0,0,0,0,0,0,0,0,0,0,0,0,0,0,0,0,0,0,0,0,0,0,0,0,0,0,0,0,0,0,0,0,0,0,0,0,0,0,0,0,0,0,0,0,0,0,0,0,0,0,0,0,0,0,0,0,0,0,0,0,0,0,0,0,0,0,0,0,0,0,0,0],"sum_hessian":[6.57E2,3.9E2,2.67E2,5E1,3.4E2,1.93E2,7.4E1,4.2E1,8E0,3.05E2,3.5E1,6E0,1.87E2,2.1E1,5.3E1,2.7E1,1.5E1,4E0,4E0,1.64E2,1.41E2,2.2E1,1.3E1,1.8E2,7E0,9E0,1.2E1,4.5E1,8E0,3E0,2.4E1,5E0,1E1,3E0,1E0,1E0,3E0,1.22E2,4.2E1,1.08E2,3.3E1,5E0,1.7E1,9E0,4E0,7.4E1,1.06E2,3E0,4E0,6E0,3E0,2E0,1E1,3.6E1,9E0,5E0,3E0,2E0,2.2E1,1E0,4E0,7E0,3E0,1E0,2E0,5.5E1,6.7E1,3E1,1.2E1,1.01E2,7E0,1.9E1,1.4E1,3E0,2E0,1.2E1,5E0,6E0,3E0,3.9E1,3.5E1,2.1E1,8.5E1,1E0,2E0,4E0,2E0,2E0,1E0,7E0,3E0,1.5E1,2.1E1,4E0,5E0,3E0,2E0],"tree_param":{"num_deleted":"0","num_feature":"60","num_nodes":"97","size_leaf_vector":"0"}},{"base_weights":[-7.586804E-3,-4.9129775E-1,-6.102773E-3,-9.0215225E-3,2.3180851E-1,4.3720877E-1,-1.0382754E-2,5.0803736E-2,3.3025062E-1,-1.5974196E-2,1.0160065E-1,5.755785E-2,1.5270695E-2,1.5000279E-1,4.004149E-1,-1.0539651E-3,-6.024992E-2,2.658863E-1,-4.933379E-2,3.9118495E-2,-2.2938449E-2,-2.4613509E-2,-1.563913E-1,1.2850414E-1,4.5054218E-1,-2.0258574E-1,3.140334E-2],"categories":[],"categories_nodes":[],"categories_segments":[],"categories_sizes":[],"default_left":[1,0,1,1,1,0,1,1,1,1,1,0,0,0,0,1,1,1,1,0,0,0,0,0,0,0,0],"id":12,"left_children":[1,-1,3,5,7,-1,9,11,13,15,17,-1,-1,-1,-1,19,21,23,25,-1,-1,-1,-1,-1,-1,-1,-1],"loss_changes":[4.6934193E-1,0E0,4.5831436E-1,3.993641E-1,1.2576997E-1,0E0,4.079935E-1,8.102879E-5,3.171444E-3,4.0885034E-1,7.8180444E-1,0E0,0E0,0E0,0E0,4.088246E-1,5.306275E-1,3.226298E-1,2.1670496E-1,0E0,0E0,0E0,0E0,0E0,0E0,0E0,0E0],"parents":[2147483647,0,0,2,2,3,3,4,4,6,6,7,7,8,8,9,9,10,10,15,15,16,16,17,17,18,18],"right_children":[2,-1,4,6,8,-1,10,12,14,16,18,-1,-1,-1,-1,20,22,24,26,-1,-1,-1,-1,-1,-1,-1,-1],"split_conditions":[-2.3260856E0,-1.4738934E-1,1.6872079E0,-2.8997092E0,-3.5794127E-1,1.3116264E-1,1.1685851E0,8.536212E-1,3.1353998E-1,3.2668048E-1,-2.5833482E-1,1.7267356E-2,4.581209E-3,4.500084E-2,1.2012448E-1,-2.1090853E-1,3.4671333E-1,-5.4503703E-1,-1.51571E-1,1.1735549E-2,-6.881535E-3,-7.384053E-3,-4.691739E-2,3.8551245E-2,1.3516267E-1,-6.0775723E-2,9.421002E-3],"split_indices":[16,0,57,19,31,0,34,3,1,34,22,0,0,0,0,24,33,22,18,0,0,0,0,0,0,0,0],"split_type":[0,0,0,0,0,0,0,0,0,0,0,0,0,0,0,0,0,0,0,0,0,0,0,0,0,0,0],"sum_hessian":[6.57E2,1E0,6.56E2,6.49E2,7E0,1E0,6.48E2,3E0,4E0,6.18E2,3E1,2E0,1E0,2E0,2E0,4.63E2,1.55E2,1.4E1,1.6E1,1.63E2,3E2,1.14E2,4.1E1,9E0,5E0,5E0,1.1E1],"tree_param":{"num_deleted":"0","num_feature":"60","num_nodes":"27","size_leaf_vector":"0"}},{"base_weights":[-4.9404604E-3,1.1188342E-1,-9.923537E-3,2.766104E-1,-1.286004E-3,-1.6678543E-1,-6.3597406E-3,3.714977E-1,1.6931799E-1,-1.1157828E-1,1.7221414E-1,-5.5723153E-2,-4.3051034E-1,2.9118165E-2,-2.7998567E-2,-1.8232575E-1,1.3785689E-1,2.2473311E-1,2.7277809E-2,2.692941E-2,-1.2908852E-1,-7.810438E-3,9.8116785E-2,-8.001689E-3,-9.742955E-2,-5.208758E-2,-2.1209557E-1,4.5649827E-2,-4.7331136E-3,-1.907581E-2,3.9945617E-2,-1.3727532E-1,2.2049025E-2,1.5841179E-1,8.335245E-3,-1.8941422E-1,3.565192E-3,-1.7024352E-1,-2.0656439E-2,4.546352E-2,8.937001E-3,-2.5622097E-1,-5.0351832E-2,2.2653364E-1,-7.6248753E-3,5.9393566E-2,2.4372047E-1,-9.330366E-2,9.34872E-2,-3.1134003E-1,1.0632743E-1,-2.7520655E-2,8.418587E-2,-2.4906677E-1,-4.255066E-2,-1.02086514E-1,6.1712563E-2],"categories":[],"categories_nodes":[],"categories_segments":[],"categories_sizes":[],"default_left":[1,1,1,1,1,1,1,0,0,1,1,1,0,1,1,1,0,0,1,1,0,1,1,1,1,0,0,0,0,0,1,1,1,1,1,1,1,1,1,0,0,0,0,0,0,0,0,0,0,0,0,0,0,0,0,0,0],"id":13,"left_children":[1,3,5,7,9,11,13,-1,-1,15,17,19,-1,21,23,25,-1,-1,27,29,-1,31,33,35,37,-1,-1,-1,-1,-1,39,41,43,45,47,49,51,53,55,-1,-1,-1,-1,-1,-1,-1,-1,-1,-1,-1,-1,-1,-1,-1,-1,-1,-1],"loss_changes":[3.8415992E-1,5.036913E-1,3.5224238E-1,4.9086332E-2,3.4452268E-1,3.8606906E-1,4.7602174E-1,0E0,0E0,2.1925083E-1,4.7153115E-2,7.017848E-2,0E0,5.995517E-1,5.3375554E-1,2.3846954E-2,0E0,0E0,1.9803813E-3,4.354875E-3,0E0,5.983526E-1,4.4257665E-1,6.301884E-1,4.772367E-1,0E0,0E0,0E0,0E0,0E0,4.4920575E-4,2.8693473E-1,7.6627713E-1,3.9943326E-1,3.0298427E-1,6.821578E-1,7.115608E-1,4.3226933E-1,2.9471454E-1,0E0,0E0,0E0,0E0,0E0,0E0,0E0,0E0,0E0,0E0,0E0,0E0,0E0,0E0,0E0,0E0,0E0,0E0],"parents":[2147483647,0,0,1,1,2,2,3,3,4,4,5,5,6,6,9,9,10,10,11,11,13,13,14,14,15,15,18,18,19,19,21,21,22,22,23,23,24,24,30,30,31,31,32,32,33,33,34,34,35,35,36,36,37,37,38,38],"right_children":[2,4,6,8,10,12,14,-1,-1,16,18,20,-1,22,24,26,-1,-1,28,30,-1,32,34,36,38,-1,-1,-1,-1,-1,40,42,44,46,48,50,52,54,56,-1,-1,-1,-1,-1,-1,-1,-1,-1,-1,-1,-1,-1,-1,-1,-1,-1,-1],"split_conditions":[-1.247604E0,1.5082956E-2,-1.3907732E0,-1.4112109E-1,-3.0165913E-2,4.342879E-1,-1.7694591E-1,1.1144931E-1,5.07954E-2,4.340686E-1,-1.3536342E0,1.18690126E-1,-1.291531E-1,2.5581473E-1,4.7527307E-1,-4.7354096E-1,4.1357066E-2,6.741994E-2,2.8358307E-1,-6.380951E-1,-3.8726557E-2,-7.3944026E-1,1.680403E-1,-1.0286157E0,8.334045E-2,-1.5626274E-2,-6.362867E-2,1.36949485E-2,-1.4199341E-3,-5.7227435E-3,-1.4732623E0,-3.9575568E-1,-6.123582E-1,-5.4362953E-2,-5.964043E-2,3.8504276E-1,2.9245704E-1,1.6948509E-1,1.5424967E-1,1.3639057E-2,2.6811005E-3,-7.686629E-2,-1.510555E-2,6.796009E-2,-2.2874626E-3,1.7818071E-2,7.3116146E-2,-2.79911E-2,2.8046163E-2,-9.340201E-2,3.189823E-2,-8.256197E-3,2.5255762E-2,-7.472003E-2,-1.2765199E-2,-3.0625956E-2,1.8513769E-2],"split_indices":[17,15,3,25,6,26,3,0,0,9,17,25,0,48,36,8,0,0,0,1,0,8,40,22,15,0,0,0,0,0,3,7,46,21,30,16,54,11,5,0,0,0,0,0,0,0,0,0,0,0,0,0,0,0,0,0,0],"split_type":[0,0,0,0,0,0,0,0,0,0,0,0,0,0,0,0,0,0,0,0,0,0,0,0,0,0,0,0,0,0,0,0,0,0,0,0,0,0,0,0,0,0,0,0,0,0,0,0,0,0,0,0,0,0,0,0,0],"sum_hessian":[6.57E2,2.6E1,6.31E2,1E1,1.6E1,1.3E1,6.18E2,4E0,6E0,1E1,6E0,1E1,3E0,2.34E2,3.84E2,8E0,2E0,4E0,2E0,5E0,5E0,1.53E2,8.1E1,2.99E2,8.5E1,2E0,6E0,1E0,1E0,1E0,4E0,2.8E1,1.25E2,4.8E1,3.3E1,1.7E1,2.82E2,4.3E1,4.2E1,3E0,1E0,1.1E1,1.7E1,1.5E1,1.1E2,2.3E1,2.5E1,1.5E1,1.8E1,1.2E1,5E0,2.04E2,7.8E1,2.6E1,1.7E1,2.1E1,2.1E1],"tree_param":{"num_deleted":"0","num_feature":"60","num_nodes":"57","size_leaf_vector":"0"}},{"base_weights":[-3.5079455E-3,-3.008536E-2,1.3929777E-2,-1.1276876E-1,-1.1398966E-2,4.0372323E-2,-5.1492944E-2,6.8885633E-3,-1.8479277E-1,-3.6847748E-2,7.065984E-2,1.5285026E-1,2.6485754E-2,-6.885E-2,1.89264E-1,-1.1441061E-1,8.718063E-2,-7.254675E-2,-2.5559306E-1,-2.7247068E-1,-2.3017913E-2,-7.359495E-2,1.5861097E-1,-1.1976431E-2,2.0142373E-1,8.246268E-2,-5.271076E-3,1.6515025E-1,-8.181264E-2,7.919453E-2,3.4631494E-1,-1.4564867E-1,5.2127935E-2,1.560839E-1,-7.736618E-3,-1.2609719E-1,-8.632494E-3,-2.871647E-2,-3.183638E-1,-9.178678E-3,-4.8126855E-1,-3.2638928E-3,-1.3710578E-1,4.643266E-2,-1.9826584E-1,1.6027138E-2,2.5532478E-1,-6.0122095E-2,8.8307045E-2,-8.712115E-2,2.3161513E-1,1.9929068E-1,2.5521377E-2,-5.916847E-2,6.9011874E-2,2.0036851E-1,-5.4704975E-3,-6.0096588E-2,-2.1557206E-1,1.0609077E-1,-2.7643327E-2,-1.565802E-1,-4.002978E-2,6.5470725E-2,2.076761E-1,-6.747742E-2,1.7707026E-2,-1.3599062E-1,-3.3368297E-2,5.6142386E-2,-4.577092E-2,-7.3849395E-2,7.590762E-2,-1.3895044E-1,-3.5466284E-1,1.2551546E-1,-7.423107E-2,8.204329E-2,-2.9735407E-2,-4.1841802E-1,-5.586014E-2,-7.9492435E-2,1.2974592E-1,-2.4928303E-1,3.8686444E-3,-3.990171E-2,1.2467941E-1,3.4579143E-2,3.11885E-1,-2.1869127E-2,-7.37813E-2,-5.458772E-3,-1.2522295E-1,2.5600684E-1,-8.201311E-3,2.650343E-1,6.1639477E-2,1.0249938E-1,-6.8263166E-2,-8.9861915E-2,8.6946264E-2,2.2126367E-2,2.8987417E-1,-1.780438E-1,-2.3853905E-2,-3.5224874E-3,-2.7308354E-1],"categories":[],"categories_nodes":[],"categories_segments":[],"categories_sizes":[],"default_left":[1,1,1,1,1,1,1,1,1,1,1,1,1,1,1,1,1,1,1,1,1,1,1,1,1,1,1,1,1,1,0,1,0,1,1,1,1,1,1,1,0,1,1,1,1,1,1,1,0,1,1,1,1,1,1,0,0,1,1,0,0,0,0,0,0,0,0,0,0,0,0,0,0,0,0,0,0,0,0,0,0,0,0,0,0,0,0,0,0,0,0,0,0,0,0,0,0,0,0,0,0,0,0,0,0,0,0],"id":14,"left_children":[1,3,5,7,9,11,13,15,17,19,21,23,25,27,29,31,33,35,37,39,41,43,45,47,49,51,53,55,57,59,-1,61,-1,63,65,67,69,71,73,75,-1,77,79,81,83,85,87,89,-1,91,93,95,97,99,101,-1,-1,103,105,-1,-1,-1,-1,-1,-1,-1,-1,-1,-1,-1,-1,-1,-1,-1,-1,-1,-1,-1,-1,-1,-1,-1,-1,-1,-1,-1,-1,-1,-1,-1,-1,-1,-1,-1,-1,-1,-1,-1,-1,-1,-1,-1,-1,-1,-1,-1,-1],"loss_changes":[3.053689E-1,4.0197378E-1,6.905963E-1,4.1494656E-1,4.4949913E-1,4.3954048E-1,4.9359658E-1,1.9502227E-1,2.1986914E-1,5.28143E-1,6.5872884E-1,2.506047E-1,4.5195773E-1,3.411035E-1,1.1086586E-1,4.9211107E-2,7.968886E-2,4.340574E-2,2.4719942E-1,4.9035597E-1,3.5112873E-1,3.0848497E-1,4.371823E-1,4.3934923E-2,2.2925633E-1,6.0692894E-1,6.5667945E-1,3.7149906E-2,2.862317E-1,2.0173918E-2,0E0,1.8141568E-3,0E0,1.912783E-2,1.0314967E-2,1.884073E-3,1.940915E-2,2.921569E-2,4.1894913E-2,5.3128034E-2,0E0,3.0503976E-1,5.023011E-1,1.2571734E-1,1.0408774E-1,9.005007E-2,2.264384E-1,1.521498E-3,0E0,8.65089E-3,1.307894E-1,2.5515413E-1,4.6181577E-1,4.338658E-1,7.0809764E-1,0E0,0E0,3.8047805E-1,1.6977209E-1,0E0,0E0,0E0,0E0,0E0,0E0,0E0,0E0,0E0,0E0,0E0,0E0,0E0,0E0,0E0,0E0,0E0,0E0,0E0,0E0,0E0,0E0,0E0,0E0,0E0,0E0,0E0,0E0,0E0,0E0,0E0,0E0,0E0,0E0,0E0,0E0,0E0,0E0,0E0,0E0,0E0,0E0,0E0,0E0,0E0,0E0,0E0,0E0],"parents":[2147483647,0,0,1,1,2,2,3,3,4,4,5,5,6,6,7,7,8,8,9,9,10,10,11,11,12,12,13,13,14,14,15,15,16,16,17,17,18,18,19,19,20,20,21,21,22,22,23,23,24,24,25,25,26,26,27,27,28,28,29,29,31,31,33,33,34,34,35,35,36,36,37,37,38,38,39,39,41,41,42,42,43,43,44,44,45,45,46,46,47,47,49,49,50,50,51,51,52,52,53,53,54,54,57,57,58,58],"right_children":[2,4,6,8,10,12,14,16,18,20,22,24,26,28,30,32,34,36,38,40,42,44,46,48,50,52,54,56,58,60,-1,62,-1,64,66,68,70,72,74,76,-1,78,80,82,84,86,88,90,-1,92,94,96,98,100,102,-1,-1,104,106,-1,-1,-1,-1,-1,-1,-1,-1,-1,-1,-1,-1,-1,-1,-1,-1,-1,-1,-1,-1,-1,-1,-1,-1,-1,-1,-1,-1,-1,-1,-1,-1,-1,-1,-1,-1,-1,-1,-1,-1,-1,-1,-1,-1,-1,-1,-1,-1],"split_conditions":[-1.8749124E-1,-5.326024E-1,3.536924E-1,-2.2575006E-1,4.8886105E-1,-7.928368E-1,1.0328548E0,-2.3522004E-1,-3.3061993E-1,-1.1170603E0,-1.1798273E-1,-5.203901E-1,1.7857945E-1,-9.560554E-1,3.9584243E-1,2.198832E-1,2.8443313E-1,1.7133074E-1,-5.5489576E-1,-4.2166528E-1,6.977203E-1,-2.935605E-1,-1.5506056E-1,5.9440035E-1,-6.6787255E-1,-3.1678647E-1,6.167358E-1,4.51144E-1,8.704266E-1,4.213664E-1,1.0389449E-1,8.998793E-1,1.5638381E-2,4.4568664E-1,-1.3399743E0,1.1326033E0,3.761217E-1,4.4175392E-1,-5.015635E-1,-3.1122595E-2,-1.4438057E-1,-5.0707495E-1,9.127358E-1,-1.6269629E-1,3.9039642E-1,3.0668035E-1,-4.4352406E-1,-5.350456E-1,2.6492115E-2,-3.5583735E-2,1.4250308E0,4.4361302E-1,-6.504379E-2,5.209657E-1,3.641348E-1,6.0110554E-2,-1.6411493E-3,-5.083897E-1,-5.441829E-1,3.1827234E-2,-8.292998E-3,-4.697406E-2,-1.2008934E-2,1.9641219E-2,6.230283E-2,-2.0243227E-2,5.312108E-3,-4.079719E-2,-1.0010489E-2,1.6842717E-2,-1.3731277E-2,-2.215482E-2,2.2772286E-2,-4.1685134E-2,-1.0639886E-1,3.765464E-2,-2.2269323E-2,2.4612987E-2,-8.920622E-3,-1.2552541E-1,-1.6758043E-2,-2.384773E-2,3.8923778E-2,-7.478491E-2,1.1605934E-3,-1.19705135E-2,3.7403826E-2,1.0373743E-2,9.35655E-2,-6.560738E-3,-2.213439E-2,-1.6376317E-3,-3.7566885E-2,7.680205E-2,-2.4603936E-3,7.951029E-2,1.8491844E-2,3.0749815E-2,-2.047895E-2,-2.6958575E-2,2.6083881E-2,6.6379104E-3,8.696225E-2,-5.341314E-2,-7.156172E-3,-1.0567462E-3,-8.1925064E-2],"split_indices":[26,51,50,13,2,17,25,52,3,21,36,16,26,6,4,3,32,0,8,14,35,3,5,0,1,27,26,4,26,0,0,6,0,9,2,1,0,0,36,0,0,48,35,28,49,29,42,3,0,0,24,36,25,24,55,0,0,5,24,0,0,0,0,0,0,0,0,0,0,0,0,0,0,0,0,0,0,0,0,0,0,0,0,0,0,0,0,0,0,0,0,0,0,0,0,0,0,0,0,0,0,0,0,0,0,0,0],"split_type":[0,0,0,0,0,0,0,0,0,0,0,0,0,0,0,0,0,0,0,0,0,0,0,0,0,0,0,0,0,0,0,0,0,0,0,0,0,0,0,0,0,0,0,0,0,0,0,0,0,0,0,0,0,0,0,0,0,0,0,0,0,0,0,0,0,0,0,0,0,0,0,0,0,0,0,0,0,0,0,0,0,0,0,0,0,0,0,0,0,0,0,0,0,0,0,0,0,0,0,0,0,0,0,0,0,0,0],"sum_hessian":[6.57E2,2.6E2,3.97E2,4.7E1,2.13E2,2.83E2,1.14E2,1.8E1,2.9E1,1.63E2,5E1,3E1,2.53E2,1.07E2,7E0,7E0,1.1E1,1.2E1,1.7E1,8E0,1.55E2,1.9E1,3.1E1,7E0,2.3E1,9.1E1,1.62E2,5E0,1.02E2,5E0,2E0,6E0,1E0,6E0,5E0,6E0,6E0,4E0,1.3E1,4E0,4E0,1.33E2,2.2E1,1E1,9E0,1.3E1,1.8E1,5E0,2E0,2E0,2.1E1,2.9E1,6.2E1,9.4E1,6.8E1,4E0,1E0,8.9E1,1.3E1,4E0,1E0,5E0,1E0,3E0,3E0,1E0,4E0,5E0,1E0,2E0,4E0,3E0,1E0,3E0,1E1,1E0,3E0,3.1E1,1.02E2,4E0,1.8E1,4E0,6E0,7E0,2E0,9E0,4E0,4E0,1.4E1,2E0,3E0,1E0,1E0,1.9E1,2E0,1.9E1,1E1,3.4E1,2.8E1,7.8E1,1.6E1,5.7E1,1.1E1,2E1,6.9E1,3E0,1E1],"tree_param":{"num_deleted":"0","num_feature":"60","num_nodes":"107","size_leaf_vector":"0"}},{"base_weights":[-2.5771062E-3,1.3955587E-3,-9.201191E-2,2.1055625E-1,-9.492741E-4,1.2626468E-1,-1.7078339E-1,3.3808425E-1,9.192822E-2,-3.5309203E-2,1.4948425E-2,-3.162505E-2,2.2732353E-1,-7.289802E-2,-2.7116746E-1,1.18846E-1,-7.871443E-3,-5.5256967E-2,8.7775685E-2,-3.931666E-3,5.8257647E-2,-5.2234072E-2,1.5101008E-2,2.536947E-1,6.0919378E-2,-1.4152712E-1,5.1488124E-2,-1.144248E-1,-3.219965E-1,-7.808127E-2,5.9195887E-2,3.1966446E-3,3.4105614E-1,4.711784E-2,-3.13997E-2,9.705363E-2,-3.145967E-2,-1.8051794E-1,-5.7406783E-2,-1.0478848E-2,9.6292384E-2,-9.756532E-2,7.206907E-2,1.1092904E-1,-9.046978E-2,-1.8907169E-1,5.6426924E-2,3.6766836E-1,9.069142E-2,2.1147666E-2,2.9171973E-1,-6.2977344E-2,2.7176538E-2,1.1129137E-1,-2.4044001E-1,-1.3152534E-1,1.612295E-2],"categories":[],"categories_nodes":[],"categories_segments":[],"categories_sizes":[],"default_left":[1,1,1,1,1,1,1,0,1,1,1,1,1,1,1,0,0,1,1,1,1,0,0,0,0,1,1,0,0,1,1,1,1,1,1,1,1,0,0,0,0,0,0,0,0,0,0,0,0,0,0,0,0,0,0,0,0],"id":15,"left_children":[1,3,5,7,9,11,13,-1,15,17,19,21,23,25,27,-1,-1,29,31,33,35,-1,-1,-1,-1,37,39,-1,-1,41,43,45,47,49,51,53,55,-1,-1,-1,-1,-1,-1,-1,-1,-1,-1,-1,-1,-1,-1,-1,-1,-1,-1,-1,-1],"loss_changes":[2.339122E-1,3.0967185E-1,5.02995E-1,7.48193E-2,3.419302E-1,1.3483834E-1,1.865812E-1,0E0,1.43674165E-2,4.9099332E-1,3.5019696E-1,4.640701E-3,6.4864457E-3,1.0972506E-1,4.2826414E-2,0E0,0E0,4.513266E-1,5.9873194E-1,4.2074612E-1,4.5554063E-1,0E0,0E0,0E0,0E0,1.5876427E-2,1.4890956E-2,0E0,0E0,4.2538327E-1,2.3457336E-1,2.3582767E-1,1.3294935E-2,6.60828E-1,3.6240292E-1,4.6402723E-1,1.9257607E-1,0E0,0E0,0E0,0E0,0E0,0E0,0E0,0E0,0E0,0E0,0E0,0E0,0E0,0E0,0E0,0E0,0E0,0E0,0E0,0E0],"parents":[2147483647,0,0,1,1,2,2,3,3,4,4,5,5,6,6,8,8,9,9,10,10,11,11,12,12,13,13,14,14,17,17,18,18,19,19,20,20,25,25,26,26,29,29,30,30,31,31,32,32,33,33,34,34,35,35,36,36],"right_children":[2,4,6,8,10,12,14,-1,16,18,20,22,24,26,28,-1,-1,30,32,34,36,-1,-1,-1,-1,38,40,-1,-1,42,44,46,48,50,52,54,56,-1,-1,-1,-1,-1,-1,-1,-1,-1,-1,-1,-1,-1,-1,-1,-1,-1,-1,-1,-1],"split_conditions":[1.2090554E0,-1.6459913E0,-3.828302E-1,-3.6530235E-1,-3.137524E-1,-3.0877966E-1,3.1046608E-1,1.0142528E-1,4.4433683E-1,6.4397323E-1,3.1039035E-1,-7.731059E-2,1.2327921E0,1.156877E-1,-4.6205992E-1,3.56538E-2,-2.361433E-3,5.5342865E-1,7.009702E-1,-1.5784118E-1,3.2662937E-1,-1.5670223E-2,4.5303027E-3,7.610842E-2,1.8275814E-2,7.451722E-2,-5.107051E-1,-3.4327444E-2,-9.659896E-2,6.163488E-1,4.515648E-1,-3.126359E-1,7.9907656E-1,8.7595284E-1,2.579861E-1,1.0671389E0,-4.2306495E-1,-5.4155383E-2,-1.7222036E-2,-3.1436544E-3,2.8887717E-2,-2.9269598E-2,2.1620722E-2,3.3278715E-2,-2.7140934E-2,-5.672151E-2,1.6928079E-2,1.1030051E-1,2.7207427E-2,6.3443E-3,8.751592E-2,-1.8893205E-2,8.152962E-3,3.338741E-2,-7.213201E-2,-3.9457604E-2,4.8368853E-3],"split_indices":[33,19,59,0,37,4,9,0,0,53,5,0,1,8,0,0,0,59,24,31,47,0,0,0,0,23,0,0,0,38,52,39,0,57,49,14,19,0,0,0,0,0,0,0,0,0,0,0,0,0,0,0,0,0,0,0,0],"split_type":[0,0,0,0,0,0,0,0,0,0,0,0,0,0,0,0,0,0,0,0,0,0,0,0,0,0,0,0,0,0,0,0,0,0,0,0,0,0,0,0,0,0,0,0,0,0,0,0,0,0,0,0,0,0,0,0,0],"sum_hessian":[6.57E2,6.3E2,2.7E1,6E0,6.24E2,7E0,2E1,2E0,4E0,1.97E2,4.27E2,3E0,4E0,1.1E1,9E0,3E0,1E0,1.7E2,2.7E1,2.98E2,1.29E2,2E0,1E0,3E0,1E0,7E0,4E0,3E0,6E0,1.42E2,2.8E1,2.1E1,6E0,1.04E2,1.94E2,9E1,3.9E1,4E0,3E0,2E0,2E0,1.26E2,1.6E1,2.1E1,7E0,4E0,1.7E1,5E0,1E0,9.5E1,9E0,1.26E2,6.8E1,8.7E1,3E0,1.2E1,2.7E1],"tree_param":{"num_deleted":"0","num_feature":"60","num_nodes":"57","size_leaf_vector":"0"}},{"base_weights":[-1.5800238E-3,-3.3304563E-3,1.6168599E-1,2.3522954E-2,-1.3621001E-2,-4.3679127E-3,2.2898112E-1,6.240154E-2,-2.3133706E-2,2.2469027E-1,-1.665365E-2,-4.5214288E-2,3.866242E-2,-3.6273856E-2,9.274112E-2,4.973768E-2,-7.471258E-2,2.63061E-1,1.6418368E-2,-1.8193753E-1,-1.2638821E-2,-1.0533901E-1,1.4650424E-1,7.2914414E-2,3.5969746E-1,-8.149066E-2,1.3098583E-1,-3.8550735E-2,-2.3114848E-1,-2.0951636E-1,-3.8555194E-2,-1.8379426E-2,8.729401E-2,-5.304111E-4,-1.5769911E-1,2.4886498E-1,7.517433E-3,8.967258E-2,-1.6957957E-1,8.217699E-2,-1.5517542E-1,2.6319203E-1,6.495899E-2,-6.896127E-2,7.723798E-2,-5.788799E-2,-2.7238175E-1,-1.9806921E-3,-5.5852097E-2,-3.1070448E-3,-6.212342E-2,1.886807E-1,7.124177E-3],"categories":[],"categories_nodes":[],"categories_segments":[],"categories_sizes":[],"default_left":[1,1,1,1,1,1,0,1,1,1,1,0,0,1,1,1,1,0,0,1,1,1,1,1,0,1,1,1,1,0,1,1,1,0,0,0,0,0,0,0,0,0,0,0,0,0,0,0,0,0,0,0,0],"id":16,"left_children":[1,3,5,7,9,11,-1,13,15,17,19,-1,-1,21,23,25,27,-1,-1,29,31,33,35,37,-1,39,41,43,45,-1,47,49,51,-1,-1,-1,-1,-1,-1,-1,-1,-1,-1,-1,-1,-1,-1,-1,-1,-1,-1,-1,-1],"loss_changes":[1.8858577E-1,1.8049163E-1,7.9222545E-2,3.2976758E-1,3.4486303E-1,7.0209927E-3,0E0,2.997473E-1,3.1568184E-1,4.3630213E-2,3.075953E-1,0E0,0E0,3.1839895E-1,3.760305E-1,3.8384613E-1,2.6828262E-1,0E0,0E0,3.5419554E-2,2.6377386E-1,9.869653E-2,9.7716734E-2,3.0779696E-1,0E0,1.815892E-1,1.7494479E-1,1.4969552E-1,4.8529238E-2,0E0,1.7872509E-3,2.8908348E-1,2.0185965E-1,0E0,0E0,0E0,0E0,0E0,0E0,0E0,0E0,0E0,0E0,0E0,0E0,0E0,0E0,0E0,0E0,0E0,0E0,0E0,0E0],"parents":[2147483647,0,0,1,1,2,2,3,3,4,4,5,5,7,7,8,8,9,9,10,10,13,13,14,14,15,15,16,16,19,19,20,20,21,21,22,22,23,23,25,25,26,26,27,27,28,28,30,30,31,31,32,32],"right_children":[2,4,6,8,10,12,-1,14,16,18,20,-1,-1,22,24,26,28,-1,-1,30,32,34,36,38,-1,40,42,44,46,-1,48,50,52,-1,-1,-1,-1,-1,-1,-1,-1,-1,-1,-1,-1,-1,-1,-1,-1,-1,-1,-1,-1],"split_conditions":[1.8459041E0,-3.7019846E-1,-5.057772E-1,1.4261934E-1,-1.4784793E0,-8.274095E-1,6.869434E-2,-7.5381637E-1,-1.7566466E-1,7.083843E-1,-1.4248173E0,-1.3564287E-2,1.1598726E-2,3.0348682E-1,1.1138408E0,-3.442592E-1,8.087263E-1,7.89183E-2,4.9255104E-3,4.0611416E-1,9.814004E-1,-5.035409E-1,-1.0209475E0,1.0716102E0,1.0790924E-1,-5.583501E-1,-5.0217426E-1,1.8141052E-1,-5.6004125E-1,-6.285491E-2,1.0945787E0,3.1686464E-1,-1.5186973E-1,-1.5912333E-4,-4.7309734E-2,7.46595E-2,2.25523E-3,2.6901776E-2,-5.0873872E-2,2.4653098E-2,-4.655263E-2,7.895761E-2,1.9487698E-2,-2.0688381E-2,2.3171395E-2,-1.7366398E-2,-8.1714526E-2,-5.9420767E-4,-1.675563E-2,-9.321135E-4,-1.8637028E-2,5.660421E-2,2.1372533E-3],"split_indices":[29,0,0,7,25,0,0,7,3,0,49,0,0,12,54,58,16,0,0,8,53,39,7,52,0,5,56,16,13,0,0,57,5,0,0,0,0,0,0,0,0,0,0,0,0,0,0,0,0,0,0,0,0],"split_type":[0,0,0,0,0,0,0,0,0,0,0,0,0,0,0,0,0,0,0,0,0,0,0,0,0,0,0,0,0,0,0,0,0,0,0,0,0,0,0,0,0,0,0,0,0,0,0,0,0,0,0,0,0],"sum_hessian":[6.57E2,6.51E2,6E0,1.8E2,4.71E2,2E0,4E0,9.8E1,8.2E1,5E0,4.66E2,1E0,1E0,2.3E1,7.5E1,3.4E1,4.8E1,4E0,1E0,1E1,4.56E2,1.7E1,6E0,7.1E1,4E0,1.3E1,2.1E1,4E1,8E0,8E0,2E0,4.32E2,2.4E1,6E0,1.1E1,3E0,3E0,6.7E1,4E0,4E0,9E0,6E0,1.5E1,3.2E1,8E0,2E0,6E0,1E0,1E0,3.21E2,1.11E2,1E1,1.4E1],"tree_param":{"num_deleted":"0","num_feature":"60","num_nodes":"53","size_leaf_vector":"0"}},{"base_weights":[-7.9770276E-4,2.6307316E-3,-8.101892E-2,2.6270768E-1,5.5586605E-4,-1.18336685E-1,4.250853E-2,1.4078545E-2,3.2134533E-1,-2.924152E-2,1.3065478E-2,2.4748536E-2,-1.534596E-1,-8.260347E-3,5.2346732E-2,-5.5951502E-2,2.2548627E-2,2.3574082E-2,-5.8511637E-2,4.637168E-2,-3.087202E-2,-8.589563E-2,-2.3770873E-1,6.0873665E-2,2.3528581E-2,-1.1449109E-1,-9.993085E-3,1.9683324E-1,1.1255081E-3,1.193637E-2,8.680067E-2,-1.1513355E-1,4.4037037E-2,-1.1240056E-1,-3.1609602E-2,-2.6461703E-1,-3.81295E-2,-2.7297238E-1,-8.8994004E-2,-3.3129165E-1,4.3288097E-3,-4.4102322E-2,5.115898E-2,2.37803E-2,-4.860098E-2,-8.7261185E-2,1.15257524E-1,-2.4990138E-2,-1.9921729E-1,-4.309432E-2,1.9101228E-1,-7.746607E-3,-3.5638697E-2],"categories":[],"categories_nodes":[],"categories_segments":[],"categories_sizes":[],"default_left":[1,1,1,1,1,1,1,0,0,1,1,1,1,0,1,1,1,1,1,0,0,1,1,0,0,1,1,0,1,1,1,1,1,0,1,0,0,0,0,0,0,0,0,0,0,0,0,0,0,0,0,0,0],"id":17,"left_children":[1,3,5,7,9,11,13,-1,-1,15,17,19,21,-1,23,25,27,29,31,-1,-1,33,35,-1,-1,37,39,-1,41,43,45,47,49,-1,51,-1,-1,-1,-1,-1,-1,-1,-1,-1,-1,-1,-1,-1,-1,-1,-1,-1,-1],"loss_changes":[1.8118495E-1,3.4089676E-1,1.2949406E-1,6.837106E-2,2.3447141E-1,1.09334856E-1,3.9287237E-3,0E0,0E0,2.5855803E-1,3.3459318E-1,7.445044E-3,7.634935E-2,0E0,4.2112544E-5,3.297735E-1,2.3873651E-1,2.837235E-1,3.360407E-1,0E0,0E0,1.22743845E-2,2.7502656E-2,0E0,0E0,1.939109E-1,3.235464E-1,0E0,1.3350473E-1,2.3633178E-1,3.0725262E-1,2.754665E-1,2.7716076E-1,0E0,2.0465301E-4,0E0,0E0,0E0,0E0,0E0,0E0,0E0,0E0,0E0,0E0,0E0,0E0,0E0,0E0,0E0,0E0,0E0,0E0],"parents":[2147483647,0,0,1,1,2,2,3,3,4,4,5,5,6,6,9,9,10,10,11,11,12,12,14,14,15,15,16,16,17,17,18,18,21,21,22,22,25,25,26,26,28,28,29,29,30,30,31,31,32,32,34,34],"right_children":[2,4,6,8,10,12,14,-1,-1,16,18,20,22,-1,24,26,28,30,32,-1,-1,34,36,-1,-1,38,40,-1,42,44,46,48,50,-1,52,-1,-1,-1,-1,-1,-1,-1,-1,-1,-1,-1,-1,-1,-1,-1,-1,-1,-1],"split_conditions":[1.2245641E0,-1.8058611E0,4.6052405E-1,-3.0921516E-1,-3.5067326E-1,-8.488771E-1,-3.986361E-1,4.2235637E-3,9.6403606E-2,2.836864E-1,6.543652E-1,4.6434197E-1,2.684632E-1,-2.478104E-3,3.2236147E-1,-2.0693529E-1,-1.064326E0,3.52863E-1,1.6440852E-1,1.3911504E-2,-9.261606E-3,3.3787662E-1,7.823945E-1,1.82621E-2,7.058575E-3,-9.70444E-1,-1.1440458E0,5.9049975E-2,1.5176094E-2,6.0079443E-1,-7.561877E-1,-2.7074277E-1,3.0308938E-1,-3.372017E-2,-5.162662E-1,-7.938511E-2,-1.143885E-2,-8.1891716E-2,-2.6698202E-2,-9.93875E-2,1.298643E-3,-1.3230697E-2,1.5347694E-2,7.13409E-3,-1.45802945E-2,-2.6178356E-2,3.4577258E-2,-7.4970415E-3,-5.976519E-2,-1.2928296E-2,5.7303686E-2,-2.3239823E-3,-1.0691609E-2],"split_indices":[8,26,56,0,26,54,1,0,0,8,2,0,43,0,0,42,41,2,21,0,0,25,4,0,0,21,17,0,30,20,14,10,19,0,0,0,0,0,0,0,0,0,0,0,0,0,0,0,0,0,0,0,0],"split_type":[0,0,0,0,0,0,0,0,0,0,0,0,0,0,0,0,0,0,0,0,0,0,0,0,0,0,0,0,0,0,0,0,0,0,0,0,0,0,0,0,0,0,0,0,0,0,0,0,0,0,0,0,0],"sum_hessian":[6.57E2,6.31E2,2.6E1,4E0,6.27E2,2E1,6E0,1E0,3E0,1.85E2,4.42E2,4E0,1.6E1,1E0,5E0,1.22E2,6.3E1,3.86E2,5.6E1,3E0,1E0,1E1,6E0,3E0,2E0,5.3E1,6.9E1,6E0,5.7E1,3.27E2,5.9E1,3.6E1,2E1,6E0,4E0,5E0,1E0,6E0,4.7E1,2E0,6.7E1,3E1,2.7E1,2.74E2,5.3E1,8E0,5.1E1,1.8E1,1.8E1,1.3E1,7E0,1E0,3E0],"tree_param":{"num_deleted":"0","num_feature":"60","num_nodes":"53","size_leaf_vector":"0"}},{"base_weights":[-8.272139E-4,-2.4321412E-3,1.4877847E-1,9.873592E-4,-7.336269E-2,3.5874102E-2,2.2448823E-1,7.958973E-3,-3.599329E-2,-1.2481919E-1,6.0571253E-2,1.1273101E-3,4.7080595E-2,-3.315975E-2,2.0891475E-2,-2.6728696E-1,-1.5489567E-2,-1.9575812E-1,-7.866381E-2,1.0523041E-1,-2.1560302E-2,-4.8797067E-2,7.7396594E-2,-3.422222E-2,3.268596E-2,-4.2951506E-1,2.3199208E-3,-3.2619722E-2,1.0142978E-1,-5.5820815E-2,-2.0777476E-1,-1.4375232E-2,-1.09370574E-1,4.887907E-4,-4.385379E-2,-3.0344944E-2,-1.6486765E-1,1.0418022E-1,-7.339248E-2,1.5114022E-2,-9.836944E-2,5.115479E-2,-2.2010302E-2,-1.2139656E-1,-4.7619554E-1,-7.272192E-2,5.157451E-2,-7.429585E-2,1.1955704E-2,-5.8732677E-2,2.2422192E-1,-2.352564E-2,2.6170567E-3,-1.22054234E-1,-3.9090637E-2,-3.3716336E-3,4.1048196E-3],"categories":[],"categories_nodes":[],"categories_segments":[],"categories_sizes":[],"default_left":[1,1,1,1,1,1,0,1,1,1,1,0,0,1,1,1,1,1,1,0,1,1,1,1,1,1,1,1,1,0,0,1,1,1,0,0,0,0,0,0,0,0,0,0,0,0,0,0,0,0,0,0,0,0,0,0,0],"id":18,"left_children":[1,3,5,7,9,11,-1,13,15,17,19,-1,-1,21,23,25,27,29,31,-1,33,35,37,39,41,43,45,47,49,-1,-1,51,53,55,-1,-1,-1,-1,-1,-1,-1,-1,-1,-1,-1,-1,-1,-1,-1,-1,-1,-1,-1,-1,-1,-1,-1],"loss_changes":[1.5835176E-1,1.5821314E-1,5.1782414E-2,1.6090508E-1,2.1431361E-1,1.5044841E-3,0E0,2.7987093E-1,4.6535558E-1,5.663359E-2,3.5280142E-2,0E0,0E0,2.2160608E-1,2.611337E-1,3.5089892E-1,1.875705E-1,1.8544793E-3,2.8039187E-2,0E0,1.9876398E-3,2.327312E-1,7.226488E-2,2.2618634E-1,3.3448398E-1,1.4107108E-2,1.8535217E-2,1.5136449E-1,2.4916944E-1,0E0,0E0,9.944863E-4,4.1428804E-3,5.571817E-5,0E0,0E0,0E0,0E0,0E0,0E0,0E0,0E0,0E0,0E0,0E0,0E0,0E0,0E0,0E0,0E0,0E0,0E0,0E0,0E0,0E0,0E0,0E0],"parents":[2147483647,0,0,1,1,2,2,3,3,4,4,5,5,7,7,8,8,9,9,10,10,13,13,14,14,15,15,16,16,17,17,18,18,20,20,21,21,22,22,23,23,24,24,25,25,26,26,27,27,28,28,31,31,32,32,33,33],"right_children":[2,4,6,8,10,12,-1,14,16,18,20,-1,-1,22,24,26,28,30,32,-1,34,36,38,40,42,44,46,48,50,-1,-1,52,54,56,-1,-1,-1,-1,-1,-1,-1,-1,-1,-1,-1,-1,-1,-1,-1,-1,-1,-1,-1,-1,-1,-1,-1],"split_conditions":[1.6736261E0,1.1761951E0,-3.6234105E-1,6.037558E-1,1.5747601E-1,2.2395529E-2,6.734647E-2,-4.1219622E-1,6.403781E-1,1.4130943E0,7.365546E-2,3.3819303E-4,1.4124179E-2,7.9434794E-1,-6.216588E-1,-3.2988742E-2,7.995055E-1,-1.6505408E-1,-4.475981E-2,3.1569127E-2,-2.7588162E-1,5.760499E-1,1.4054829E0,1.4134923E-1,3.7046772E-1,-2.890196E-1,-2.8467018E-2,9.9461585E-2,-3.519116E-1,-1.6746245E-2,-6.233243E-2,-1.8897994E-1,5.7209396E-1,-6.6163814E-1,-1.3156137E-2,-9.1034835E-3,-4.94603E-2,3.1254068E-2,-2.2017745E-2,4.534207E-3,-2.9510833E-2,1.5346437E-2,-6.603091E-3,-3.6418967E-2,-1.4285867E-1,-2.1816578E-2,1.5472353E-2,-2.2288755E-2,3.5867111E-3,-1.7619804E-2,6.7266576E-2,-7.0576924E-3,7.8511704E-4,-3.6616273E-2,-1.17271915E-2,-1.0114901E-3,1.2314459E-3],"split_indices":[14,45,13,18,36,0,0,45,18,45,56,0,0,29,16,30,23,0,9,0,0,35,13,54,25,0,0,1,59,0,0,10,42,0,0,0,0,0,0,0,0,0,0,0,0,0,0,0,0,0,0,0,0,0,0,0,0],"split_type":[0,0,0,0,0,0,0,0,0,0,0,0,0,0,0,0,0,0,0,0,0,0,0,0,0,0,0,0,0,0,0,0,0,0,0,0,0,0,0,0,0,0,0,0,0,0,0,0,0,0,0,0,0,0,0,0,0],"sum_hessian":[6.57E2,6.51E2,6E0,6.22E2,2.9E1,3E0,3E0,5.24E2,9.8E1,2.1E1,8E0,1E0,2E0,1.25E2,3.99E2,7E0,9.1E1,7E0,1.4E1,5E0,3E0,1.1E2,1.5E1,7E1,3.29E2,4E0,3E0,8E1,1.1E1,1E0,6E0,5E0,9E0,2E0,1E0,9.6E1,1.4E1,1.3E1,2E0,4E1,3E1,2.46E2,8.3E1,1E0,3E0,1E0,2E0,4.1E1,3.9E1,5E0,6E0,3E0,2E0,7E0,2E0,1E0,1E0],"tree_param":{"num_deleted":"0","num_feature":"60","num_nodes":"57","size_leaf_vector":"0"}},{"base_weights":[-9.642919E-4,2.1112286E-1,-1.9327328E-3,2.5835663E-1,-2.7245586E-3,1.4396328E-1,-4.0744087E-3,2.0539036E-2,2.0054065E-1,-6.0736635E-3,9.435627E-2,2.3541749E-3,2.8454378E-2,2.261232E-1,6.1896503E-2,1.4024782E-1,-7.6847025E-3,-7.2833747E-3,1.8251646E-1,2.3912027E-1,-7.1288876E-2,-5.8846325E-3,-1.9451123E-1,7.2912574E-2,-3.280146E-2,5.2629314E-2,1.9539276E-1],"categories":[],"categories_nodes":[],"categories_segments":[],"categories_sizes":[],"default_left":[1,0,1,0,1,1,1,1,1,1,1,0,0,0,0,1,1,1,1,0,0,0,0,0,0,0,0],"id":19,"left_children":[1,-1,3,-1,5,7,9,11,13,15,17,-1,-1,-1,-1,19,21,23,25,-1,-1,-1,-1,-1,-1,-1,-1],"loss_changes":[1.355572E-1,0E0,1.3590804E-1,0E0,1.3028088E-1,3.7779197E-2,1.2848528E-1,3.6483153E-4,1.912564E-4,1.5147325E-1,1.17816746E-1,0E0,0E0,0E0,0E0,1.6345267E-1,2.1139751E-1,1.6716769E-2,1.4238656E-3,0E0,0E0,0E0,0E0,0E0,0E0,0E0,0E0],"parents":[2147483647,0,0,2,2,4,4,5,5,6,6,7,7,8,8,9,9,10,10,15,15,16,16,17,17,18,18],"right_children":[2,-1,4,-1,6,8,10,12,14,16,18,-1,-1,-1,-1,20,22,24,26,-1,-1,-1,-1,-1,-1,-1,-1],"split_conditions":[-2.2761357E0,6.333686E-2,-2.8997092E0,7.750699E-2,-1.870753E0,-3.5257208E-1,1.4896948E0,-4.4106153E-1,2.2379011E-1,-1.587192E0,-1.0356176E-1,7.0625247E-4,8.536314E-3,6.783696E-2,1.8568952E-2,3.803855E-1,1.7932866E0,1.6654893E0,-3.4303784E-1,7.173608E-2,-2.1386664E-2,-1.7653898E-3,-5.8353372E-2,2.1873772E-2,-9.840438E-3,1.5788795E-2,5.861783E-2],"split_indices":[55,0,20,0,24,0,1,0,0,18,10,0,0,0,0,11,0,1,0,0,0,0,0,0,0,0,0],"split_type":[0,0,0,0,0,0,0,0,0,0,0,0,0,0,0,0,0,0,0,0,0,0,0,0,0,0,0],"sum_hessian":[6.57E2,2E0,6.55E2,1E0,6.54E2,5E0,6.49E2,2E0,3E0,6.37E2,1.2E1,1E0,1E0,2E0,1E0,6E0,6.31E2,6E0,6E0,4E0,2E0,6.26E2,5E0,1E0,5E0,1E0,5E0],"tree_param":{"num_deleted":"0","num_feature":"60","num_nodes":"27","size_leaf_vector":"0"}},{"base_weights":[-1.9907522E-4,8.8621007E-4,-1.7786478E-1,3.4621533E-3,-7.338807E-2,-2.0399013E-1,-4.9744353E-2,1.8801998E-1,1.9919132E-3,-5.3656576E-3,-1.9175658E-1,4.821875E-2,2.109156E-1,-3.113105E-3,4.4935767E-2,2.7703173E-2,-5.95861E-2,-2.3837093E-1,-3.4609035E-2,8.8963345E-2,-6.311529E-3,-1.5419408E-2,8.866306E-2,5.2202817E-2,-2.2096995E-2,-6.6648945E-3,-6.883736E-2,1.3563232E-1,-1.19953394E-1,-1.9228305E-1,-3.8890988E-3,2.2063024E-2,-1.6277924E-1,1.077233E-2,1.3185097E-1,1.5298694E-2,5.580372E-2,1.8409118E-3,-3.0689934E-2],"categories":[],"categories_nodes":[],"categories_segments":[],"categories_sizes":[],"default_left":[1,1,1,1,1,0,0,1,1,1,1,0,0,1,1,1,1,0,0,1,1,1,1,1,1,0,0,0,0,0,0,0,0,0,0,0,0,0,0],"id":20,"left_children":[1,3,5,7,9,-1,-1,11,13,15,17,-1,-1,19,21,23,25,-1,-1,27,29,31,33,35,37,-1,-1,-1,-1,-1,-1,-1,-1,-1,-1,-1,-1,-1,-1],"loss_changes":[1.2703185E-1,1.2557282E-1,3.2414198E-3,1.7165777E-1,1.7610876E-1,0E0,0E0,5.8341026E-3,1.3825426E-1,2.8545825E-2,5.035284E-2,0E0,0E0,1.666592E-1,1.7819141E-1,1.3354387E-2,2.4787318E-3,0E0,0E0,2.0151822E-1,2.452268E-1,1.6377012E-1,1.2977323E-1,7.649325E-5,8.792855E-4,0E0,0E0,0E0,0E0,0E0,0E0,0E0,0E0,0E0,0E0,0E0,0E0,0E0,0E0],"parents":[2147483647,0,0,1,1,2,2,3,3,4,4,7,7,8,8,9,9,10,10,13,13,14,14,15,15,16,16,19,19,20,20,21,21,22,22,23,23,24,24],"right_children":[2,4,6,8,10,-1,-1,12,14,16,18,-1,-1,20,22,24,26,-1,-1,28,30,32,34,36,38,-1,-1,-1,-1,-1,-1,-1,-1,-1,-1,-1,-1,-1,-1],"split_conditions":[2.1060746E0,1.2464424E0,3.108478E-2,-1.7417786E0,2.6470023E-1,-6.1197042E-2,-1.4923306E-2,-1.5590627E-1,7.209058E-1,1.2639029E-2,2.6130129E-2,1.4465625E-2,6.327468E-2,-1.2651558E0,-2.8551245E-1,3.8318598E-1,-9.258001E-1,-7.151128E-2,-1.0382711E-2,6.460348E-1,-1.1614914E0,-4.7550297E-1,-6.5007806E-1,-9.54491E-1,-3.8117334E-2,-1.9994685E-3,-2.0651208E-2,4.06897E-2,-3.598602E-2,-5.7684917E-2,-1.1667297E-3,6.6189077E-3,-4.8833776E-2,3.231699E-3,3.9555293E-2,4.5896084E-3,1.6741117E-2,5.522736E-4,-9.2069805E-3],"split_indices":[26,12,0,55,37,0,0,1,12,3,5,0,0,37,15,6,0,0,0,5,37,15,24,5,0,0,0,0,0,0,0,0,0,0,0,0,0,0,0],"split_type":[0,0,0,0,0,0,0,0,0,0,0,0,0,0,0,0,0,0,0,0,0,0,0,0,0,0,0,0,0,0,0,0,0,0,0,0,0,0,0],"sum_hessian":[6.57E2,6.54E2,3E0,6.33E2,2.1E1,2E0,1E0,4E0,6.29E2,1.4E1,7E0,1E0,3E0,5.63E2,6.6E1,9E0,5E0,5E0,2E0,1.8E1,5.45E2,2.8E1,3.8E1,6E0,3E0,1E0,4E0,1.5E1,3E0,6E0,5.39E2,2.3E1,5E0,1.4E1,2.4E1,1E0,5E0,1E0,2E0],"tree_param":{"num_deleted":"0","num_feature":"60","num_nodes":"39","size_leaf_vector":"0"}},{"base_weights":[-3.579368E-4,1.2750763E-1,-1.7301777E-3,3.0984351E-2,1.5992007E-1,-1.5685972E-2,1.21032465E-2,3.9410263E-2,7.0662647E-3,-6.5658772E-3,-9.618603E-2,2.3197082E-1,9.359944E-3,2.0042598E-2,-2.8809438E-2,-1.9088712E-1,4.1730744E-3,5.4719552E-2,2.7281472E-1,-2.2992106E-2,3.189023E-2,5.9865702E-2,-2.7169162E-2,-6.1354544E-2,1.612445E-2,-2.5196654E-1,7.061263E-2,-3.0625066E-2,1.24923296E-1,-3.5157796E-2,1.1623859E-1,4.172167E-2,-7.1770035E-2,3.5614304E-2,1.9331771E-1,1.5379429E-1,-5.2997135E-2,-5.0919175E-2,-2.041809E-1,-1.0628941E-1,4.699117E-2,-3.273656E-1,-5.07751E-2,-1.9612908E-4,9.428093E-2,-6.414465E-2,2.475849E-2,3.0765623E-2,1.4605398E-1,-4.8609912E-2,6.5834925E-2,6.584851E-2,1.6353698E-1,4.9838323E-2,-8.455885E-2,2.6812822E-2,-1.0416574E-1],"categories":[],"categories_nodes":[],"categories_segments":[],"categories_sizes":[],"default_left":[1,1,1,1,0,1,1,0,0,1,1,1,1,1,1,1,1,0,0,1,1,1,1,1,1,1,1,1,1,1,1,1,1,0,0,0,0,0,0,0,0,0,0,0,0,0,0,0,0,0,0,0,0,0,0,0,0],"id":21,"left_children":[1,3,5,7,-1,9,11,-1,-1,13,15,17,19,21,23,25,27,-1,-1,29,31,33,35,37,39,41,43,45,47,49,51,53,55,-1,-1,-1,-1,-1,-1,-1,-1,-1,-1,-1,-1,-1,-1,-1,-1,-1,-1,-1,-1,-1,-1,-1,-1],"loss_changes":[1.1567483E-1,1.694487E-2,1.2606265E-1,3.2611168E-4,0E0,2.3797306E-1,1.9566637E-1,0E0,0E0,1.7399451E-1,3.1443247E-1,1.4030248E-2,2.3762602E-1,2.535624E-1,2.3496982E-1,2.893203E-1,7.525779E-2,0E0,0E0,2.3106089E-1,1.9866733E-1,2.2937217E-1,2.9793367E-1,1.2821478E-1,2.6193362E-1,1.957531E-1,6.722182E-3,2.75782E-2,3.4650192E-3,1.7166242E-1,1.5448391E-2,1.8460986E-1,5.7085223E-2,0E0,0E0,0E0,0E0,0E0,0E0,0E0,0E0,0E0,0E0,0E0,0E0,0E0,0E0,0E0,0E0,0E0,0E0,0E0,0E0,0E0,0E0,0E0,0E0],"parents":[2147483647,0,0,1,1,2,2,3,3,5,5,6,6,9,9,10,10,11,11,12,12,13,13,14,14,15,15,16,16,19,19,20,20,21,21,22,22,23,23,24,24,25,25,26,26,27,27,28,28,29,29,30,30,31,31,32,32],"right_children":[2,4,6,8,-1,10,12,-1,-1,14,16,18,20,22,24,26,28,-1,-1,30,32,34,36,38,40,42,44,46,48,50,52,54,56,-1,-1,-1,-1,-1,-1,-1,-1,-1,-1,-1,-1,-1,-1,-1,-1,-1,-1,-1,-1,-1,-1,-1,-1],"split_conditions":[-1.8058611E0,-2.2304192E-1,1.2370114E-2,1.6097635E-1,4.797602E-2,8.53179E-1,-1.7307532E0,1.182308E-2,2.1198795E-3,-7.296674E-2,3.7872285E-2,-2.211604E-1,-1.8749124E-1,1.2100678E-2,1.6229069E-1,6.2768054E-1,9.2239785E-1,1.6415866E-2,8.184442E-2,8.3300793E-1,9.023149E-1,-1.9410223E-1,-8.755702E-1,1.3043778E0,-7.769184E-1,2.978899E-1,-4.4542575E-1,4.658385E-2,-2.2574823E-1,8.327879E-1,2.0233905E-1,9.4444805E-1,-4.2729646E-1,1.0684292E-2,5.7995316E-2,4.6138287E-2,-1.589914E-2,-1.5275753E-2,-6.125427E-2,-3.1886823E-2,1.4097352E-2,-9.820969E-2,-1.523253E-2,-5.8838727E-5,2.828428E-2,-1.9243395E-2,7.427547E-3,9.229687E-3,4.3816198E-2,-1.4582974E-2,1.9750478E-2,1.9754553E-2,4.9061097E-2,1.4951497E-2,-2.5367657E-2,8.043847E-3,-3.1249722E-2],"split_indices":[43,9,13,0,0,17,26,0,0,7,20,1,26,47,35,31,14,0,0,36,30,7,37,58,13,41,1,30,0,51,40,45,36,0,0,0,0,0,0,0,0,0,0,0,0,0,0,0,0,0,0,0,0,0,0,0,0],"split_type":[0,0,0,0,0,0,0,0,0,0,0,0,0,0,0,0,0,0,0,0,0,0,0,0,0,0,0,0,0,0,0,0,0,0,0,0,0,0,0,0,0,0,0,0,0,0,0,0,0,0,0,0,0,0,0,0,0],"sum_hessian":[6.57E2,6E0,6.51E2,2E0,4E0,3.24E2,3.27E2,1E0,1E0,2.92E2,3.2E1,3E0,3.24E2,1.33E2,1.59E2,1.6E1,1.6E1,1E0,2E0,1.33E2,1.91E2,7.2E1,6.1E1,9.2E1,6.7E1,1.3E1,3E0,1.3E1,3E0,1.23E2,1E1,1.75E2,1.6E1,6.2E1,1E1,7E0,5.4E1,8.7E1,5E0,1.3E1,5.4E1,9E0,4E0,1E0,2E0,8E0,5E0,1E0,2E0,1.09E2,1.4E1,6E0,4E0,1.65E2,1E1,4E0,1.2E1],"tree_param":{"num_deleted":"0","num_feature":"60","num_nodes":"57","size_leaf_vector":"0"}},{"base_weights":[-5.6415174E-6,-6.703461E-2,2.20065E-3,-1.293061E-1,-9.5554935E-3,6.63579E-2,-4.152003E-4,-1.0656975E-2,-1.5763624E-1,1.851828E-2,-5.2562434E-2,1.4769965E-1,1.1371946E-2,3.09552E-3,-6.436316E-2,-1.3527423E-2,-2.4580397E-3,2.6383191E-2,-1.8268049E-2,-5.5182576E-3,-8.2085796E-2,9.445015E-2,1.8205912E-1,-7.451551E-2,5.7185832E-2,4.7005925E-2,-1.6596765E-3,-1.8417117E-1,-1.675336E-2,2.8618896E-2,6.4844824E-3,-1.7480038E-2,9.202652E-3,-1.6619425E-2,-9.9308684E-2,1.0975844E-1,1.1464568E-2,6.8491995E-2,-6.08278E-2,-7.871419E-3,3.770441E-2,-2.2026938E-1,-3.8551588E-2,3.0139303E-3,-1.5612905E-1,-2.6365748E-2,3.1869844E-2,-1.2532665E-2,9.5848344E-2,1.1681468E-2,-1.3567336E-1,9.124432E-2,-1.1217266E-2,1.6285598E-2,2.0701918E-1,-5.5887967E-2,-1.9394159E-3,3.0234298E-2,-7.461277E-2],"categories":[],"categories_nodes":[],"categories_segments":[],"categories_sizes":[],"default_left":[1,1,1,1,1,1,1,1,0,1,1,1,1,1,1,0,0,1,0,1,0,0,0,1,1,1,1,1,1,0,0,0,0,0,0,0,1,1,1,1,1,0,1,1,0,0,0,0,0,0,0,0,0,0,0,0,0,0,0],"id":22,"left_children":[1,3,5,7,9,11,13,15,-1,17,19,21,23,25,27,-1,-1,29,-1,31,-1,-1,-1,33,35,37,39,41,43,-1,-1,-1,-1,-1,-1,-1,45,47,49,51,53,-1,55,57,-1,-1,-1,-1,-1,-1,-1,-1,-1,-1,-1,-1,-1,-1,-1],"loss_changes":[9.745614E-2,7.3929906E-2,1.071004E-1,3.1933546E-2,1.5461771E-2,1.1013672E-1,1.3804433E-1,3.7352904E-5,0E0,2.7965386E-3,6.491542E-3,1.1007488E-3,6.721864E-2,1.21809945E-1,1.7944361E-1,0E0,0E0,1.2583472E-4,0E0,6.891276E-4,0E0,0E0,0E0,6.962113E-3,2.5182214E-2,1.3623081E-1,1.2915859E-1,3.8817734E-2,6.659247E-2,0E0,0E0,0E0,0E0,0E0,0E0,0E0,6.2438385E-3,1.07595116E-1,5.585483E-2,1.5224504E-1,2.5773808E-1,0E0,1.7957776E-3,4.8742466E-2,0E0,0E0,0E0,0E0,0E0,0E0,0E0,0E0,0E0,0E0,0E0,0E0,0E0,0E0,0E0],"parents":[2147483647,0,0,1,1,2,2,3,3,4,4,5,5,6,6,7,7,9,9,10,10,11,11,12,12,13,13,14,14,17,17,19,19,23,23,24,24,25,25,26,26,27,27,28,28,36,36,37,37,38,38,39,39,40,40,42,42,43,43],"right_children":[2,4,6,8,10,12,14,16,-1,18,20,22,24,26,28,-1,-1,30,-1,32,-1,-1,-1,34,36,38,40,42,44,-1,-1,-1,-1,-1,-1,-1,46,48,50,52,54,-1,56,58,-1,-1,-1,-1,-1,-1,-1,-1,-1,-1,-1,-1,-1,-1,-1],"split_conditions":[-1.3374286E0,9.994305E-2,-1.247604E0,-5.714158E-1,1.450116E-2,1.5082956E-2,1.090332E0,-1.8268548E-1,-4.7290873E-2,9.6570176E-1,2.598269E-1,-3.448294E-2,2.5815043E-1,-7.48026E-1,-4.0588123E-1,-4.058227E-3,-7.3741196E-4,3.243563E-1,-5.4804147E-3,-6.2092113E-1,-2.462574E-2,2.8335048E-2,5.461774E-2,-4.9537656E-1,5.3074074E-1,6.752496E-1,6.843316E-1,8.4633887E-1,1.2010918E0,8.585669E-3,1.9453448E-3,-5.2440115E-3,2.7607956E-3,-4.985828E-3,-2.9792607E-2,3.292753E-2,-1.0603204E-1,-8.283082E-1,-5.8827914E-2,-1.2904724E0,7.87707E-1,-6.6080816E-2,1.4403659E-1,7.621528E-1,-4.6838716E-2,-7.9097245E-3,9.560954E-3,-3.7597998E-3,2.8754504E-2,3.5044407E-3,-4.0702008E-2,2.7373297E-2,-3.36518E-3,4.8856796E-3,6.2105756E-2,-1.6766392E-2,-5.818248E-4,9.070289E-3,-2.2383831E-2],"split_indices":[28,53,17,11,12,15,52,0,0,0,2,6,15,0,37,0,0,8,0,0,0,0,0,3,47,37,14,4,46,0,0,0,0,0,0,0,3,5,12,24,49,0,0,20,0,0,0,0,0,0,0,0,0,0,0,0,0,0,0],"split_type":[0,0,0,0,0,0,0,0,0,0,0,0,0,0,0,0,0,0,0,0,0,0,0,0,0,0,0,0,0,0,0,0,0,0,0,0,0,0,0,0,0,0,0,0,0,0,0,0,0,0,0,0,0,0,0,0,0,0,0],"sum_hessian":[6.57E2,2E1,6.37E2,9E0,1.1E1,2.4E1,6.13E2,2E0,7E0,7E0,4E0,9E0,1.5E1,5.82E2,3.1E1,1E0,1E0,6E0,1E0,2E0,2E0,5E0,4E0,5E0,1E1,5.6E1,5.26E2,8E0,2.3E1,5E0,1E0,1E0,1E0,2E0,3E0,4E0,6E0,4.7E1,9E0,4.55E2,7.1E1,6E0,2E0,2.1E1,2E0,2E0,4E0,1.2E1,3.5E1,5E0,4E0,1.4E1,4.41E2,6.4E1,7E0,1E0,1E0,1.6E1,5E0],"tree_param":{"num_deleted":"0","num_feature":"60","num_nodes":"59","size_leaf_vector":"0"}},{"base_weights":[-8.93261E-5,-2.5300218E-3,6.449114E-2,2.5465198E-2,-7.7482904E-3,-3.2519232E-2,1.2486531E-1,1.450353E-1,5.93133E-3,-2.4692174E-2,5.263792E-3,3.236779E-2,-8.117188E-2,6.6312775E-2,2.0164198E-1,1.9301249E-1,2.0073846E-2,-2.5552085E-2,6.660155E-2,-1.1131785E-2,-8.984275E-2,-8.501263E-2,1.12427715E-2,-9.826406E-3,4.537294E-2,8.177881E-2,-3.6440756E-2,2.4606594E-1,7.519602E-2,2.0705666E-1,3.3307493E-2,3.5416495E-2,-2.0648371E-2,-1.0542753E-1,7.386838E-3,1.4575559E-1,1.9736754E-2,1.8874733E-2,-3.9526656E-2,-1.2893625E-1,-8.03083E-3,-2.2242459E-2,-2.173076E-1,1.7813865E-2,-6.12339E-2,3.236952E-2,9.1271535E-2,4.062776E-2,9.891348E-3,-2.3598235E-2,-1.6034822E-1,-6.6374354E-2,2.9514872E-2,6.1957043E-2,2.3392244E-1,4.343416E-2,-8.591142E-2,5.795212E-2,-4.3947987E-2,6.549575E-3,-7.035331E-2,-2.0200299E-1,-6.607767E-2,2.7866822E-2,-6.0538836E-2,6.6925146E-2,-6.460202E-2,4.1250072E-2,-2.1413448E-3,-1.2924138E-1,3.0887783E-2],"categories":[],"categories_nodes":[],"categories_segments":[],"categories_sizes":[],"default_left":[1,1,1,1,1,1,1,1,1,1,1,1,0,1,1,1,1,1,1,1,1,1,1,0,0,1,0,0,0,0,0,1,0,1,1,1,1,1,1,1,1,1,0,1,1,0,0,0,0,0,0,0,0,0,0,0,0,0,0,0,0,0,0,0,0,0,0,0,0,0,0],"id":23,"left_children":[1,3,5,7,9,11,13,15,17,19,21,23,-1,25,27,29,31,33,35,37,39,41,43,-1,-1,45,-1,-1,-1,-1,-1,47,-1,49,51,53,55,57,59,61,63,65,-1,67,69,-1,-1,-1,-1,-1,-1,-1,-1,-1,-1,-1,-1,-1,-1,-1,-1,-1,-1,-1,-1,-1,-1,-1,-1,-1,-1],"loss_changes":[1.03877954E-1,9.296229E-2,1.4462662E-1,2.3270641E-1,1.18304685E-1,3.4196608E-2,5.406058E-2,8.005968E-2,1.6788101E-1,2.0484775E-1,1.6504312E-1,3.189562E-3,0E0,1.8871982E-2,1.5200213E-2,1.5532702E-2,3.855226E-3,1.5337741E-1,1.08409405E-1,1.6604012E-1,1.2689707E-1,1.529459E-1,1.3729857E-1,0E0,0E0,1.2668408E-3,0E0,0E0,0E0,0E0,0E0,1.3021007E-4,0E0,7.2616115E-2,7.051101E-2,6.677766E-2,5.380325E-2,2.357669E-1,1.4249837E-1,1.1065966E-1,2.8075822E-2,5.7202905E-2,0E0,1.23086706E-1,1.5435109E-1,0E0,0E0,0E0,0E0,0E0,0E0,0E0,0E0,0E0,0E0,0E0,0E0,0E0,0E0,0E0,0E0,0E0,0E0,0E0,0E0,0E0,0E0,0E0,0E0,0E0,0E0],"parents":[2147483647,0,0,1,1,2,2,3,3,4,4,5,5,6,6,7,7,8,8,9,9,10,10,11,11,13,13,14,14,15,15,16,16,17,17,18,18,19,19,20,20,21,21,22,22,25,25,31,31,33,33,34,34,35,35,36,36,37,37,38,38,39,39,40,40,41,41,43,43,44,44],"right_children":[2,4,6,8,10,12,14,16,18,20,22,24,-1,26,28,30,32,34,36,38,40,42,44,-1,-1,46,-1,-1,-1,-1,-1,48,-1,50,52,54,56,58,60,62,64,66,-1,68,70,-1,-1,-1,-1,-1,-1,-1,-1,-1,-1,-1,-1,-1,-1,-1,-1,-1,-1,-1,-1,-1,-1,-1,-1,-1,-1],"split_conditions":[1.23842E0,-6.300956E-1,-1.7634985E-1,-7.718756E-1,-7.880412E-2,-4.24626E-1,6.4610243E-3,4.6284664E-1,3.10746E-1,5.389292E-1,-9.8370945E-1,-2.9308088E-2,-2.4351565E-2,7.543849E-1,-8.744864E-2,9.823581E-1,8.55275E-1,-4.5632362E-1,5.9515797E-4,-2.932014E-2,3.05574E-1,3.8191563E-1,9.035487E-1,-2.9479219E-3,1.3611883E-2,-6.7710835E-1,-1.0932228E-2,7.381979E-2,2.2558806E-2,6.2117E-2,9.992248E-3,-3.2578915E-2,-6.194512E-3,-7.748418E-1,-3.108477E-1,-6.879296E-2,8.020804E-1,1.2612574E-1,-1.7452917E-1,-8.640921E-2,4.405286E-2,-2.1419276E-1,-6.519228E-2,-1.08040184E-1,7.2522625E-2,9.710857E-3,2.7381461E-2,1.2188328E-2,2.9674044E-3,-7.079471E-3,-4.810447E-2,-1.9912306E-2,8.854462E-3,1.8587114E-2,7.0176736E-2,1.3030249E-2,-2.5773428E-2,1.7385637E-2,-1.3184397E-2,1.9648725E-3,-2.1105994E-2,-6.06009E-2,-1.9823302E-2,8.360047E-3,-1.816165E-2,2.0077545E-2,-1.9380607E-2,1.2375022E-2,-6.424035E-4,-3.8772415E-2,9.2663355E-3],"split_indices":[25,25,23,53,24,23,0,24,5,25,31,0,0,7,7,3,3,57,58,34,5,14,33,0,0,0,0,0,0,0,0,0,0,57,12,6,16,7,54,11,38,50,0,27,7,0,0,0,0,0,0,0,0,0,0,0,0,0,0,0,0,0,0,0,0,0,0,0,0,0,0],"split_type":[0,0,0,0,0,0,0,0,0,0,0,0,0,0,0,0,0,0,0,0,0,0,0,0,0,0,0,0,0,0,0,0,0,0,0,0,0,0,0,0,0,0,0,0,0,0,0,0,0,0,0,0,0,0,0,0,0,0,0,0,0,0,0,0,0,0,0,0,0,0,0],"sum_hessian":[6.57E2,6.34E2,2.3E1,9.9E1,5.35E2,9E0,1.4E1,1.3E1,8.6E1,2.32E2,3.03E2,4E0,5E0,9E0,5E0,9E0,4E0,5.7E1,2.9E1,1.93E2,3.9E1,1.8E1,2.85E2,1E0,3E0,8E0,1E0,3E0,2E0,8E0,1E0,3E0,1E0,1.6E1,4.1E1,1E1,1.9E1,9.4E1,9.9E1,2.6E1,1.3E1,1.3E1,5E0,2.62E2,2.3E1,2E0,6E0,2E0,1E0,7E0,9E0,9E0,3.2E1,6E0,4E0,1.6E1,3E0,5.8E1,3.6E1,4E1,5.9E1,1.1E1,1.5E1,8E0,5E0,4E0,9E0,1.2E2,1.42E2,1.3E1,1E1],"tree_param":{"num_deleted":"0","num_feature":"60","num_nodes":"71","size_leaf_vector":"0"}},{"base_weights":[-4.38865E-5,-3.8439695E-2,3.2454478E-3,-8.895625E-3,-1.3617863E-1,-6.520036E-2,5.328124E-3,1.527325E-2,-9.652643E-2,-2.8786707E-1,-5.363058E-2,1.0142692E-1,-1.0528761E-1,-1.9900084E-1,6.0128947E-3,4.642087E-2,-5.124207E-2,-1.8953185E-1,-4.2877477E-2,-7.075896E-2,4.1698225E-2,-1.3794647E-1,1.9010868E-2,8.57676E-3,-4.767114E-2,9.152956E-3,7.982038E-2,3.99631E-2,-9.0439394E-2,6.9387406E-3,-5.2336637E-2,-3.3736113E-2,-8.622544E-2,-2.2209128E-2,-1.5887302E-1,4.7677167E-2,-6.436954E-3,1.1136006E-1,6.89455E-3,-1.5773323E-1,-2.7341159E-2,-2.5158767E-2,3.725544E-2,3.127242E-2,1.4153303E-1,-4.3806583E-3,5.6204572E-2,-2.0474758E-2,-9.750938E-2,-5.6541204E-2,-1.5656903E-2,8.467883E-4,-1.0502219E-2,-1.5225672E-2,1.497025E-1,1.3554648E-1,5.7145967E-3,-1.24017365E-1,-1.291526E-2],"categories":[],"categories_nodes":[],"categories_segments":[],"categories_sizes":[],"default_left":[1,1,1,1,1,1,1,1,1,0,1,0,1,0,1,1,1,0,1,1,0,1,1,1,1,1,1,1,1,0,1,0,0,0,0,0,1,1,1,0,1,0,0,0,0,0,0,0,0,0,0,0,0,0,0,0,0,0,0],"id":24,"left_children":[1,3,5,7,9,11,13,15,17,-1,19,-1,21,-1,23,25,27,-1,29,31,-1,33,35,37,39,41,43,45,47,-1,49,-1,-1,-1,-1,-1,51,53,55,-1,57,-1,-1,-1,-1,-1,-1,-1,-1,-1,-1,-1,-1,-1,-1,-1,-1,-1,-1],"loss_changes":[8.3227955E-2,1.4894408E-1,8.687552E-2,8.8309735E-2,1.3482052E-1,1.3091233E-1,8.3748445E-2,7.07479E-2,3.6780134E-2,0E0,1.7645974E-2,0E0,6.351417E-2,0E0,8.1478015E-2,2.78982E-2,4.293922E-2,0E0,3.6616884E-3,1.671996E-3,0E0,2.5535375E-2,3.2248753E-3,9.6576646E-2,5.6101516E-2,1.2508237E-2,3.15262E-2,3.127045E-3,1.9607097E-3,0E0,4.007481E-5,0E0,0E0,0E0,0E0,0E0,9.772419E-5,4.5961782E-2,8.34762E-2,0E0,3.1869672E-2,0E0,0E0,0E0,0E0,0E0,0E0,0E0,0E0,0E0,0E0,0E0,0E0,0E0,0E0,0E0,0E0,0E0,0E0],"parents":[2147483647,0,0,1,1,2,2,3,3,4,4,5,5,6,6,7,7,8,8,10,10,12,12,14,14,15,15,16,16,18,18,19,19,21,21,22,22,23,23,24,24,25,25,26,26,27,27,28,28,30,30,36,36,37,37,38,38,40,40],"right_children":[2,4,6,8,10,12,14,16,18,-1,20,-1,22,-1,24,26,28,-1,30,32,-1,34,36,38,40,42,44,46,48,-1,50,-1,-1,-1,-1,-1,52,54,56,-1,58,-1,-1,-1,-1,-1,-1,-1,-1,-1,-1,-1,-1,-1,-1,-1,-1,-1,-1],"split_conditions":[-9.312098E-1,5.975598E-1,-1.247604E0,3.40911E-1,-3.5069886E-1,-5.698699E-1,-2.3260856E0,2.8471303E-1,-1.3341396E-1,-8.636013E-2,6.023912E-1,3.0428078E-2,6.415463E-1,-5.9700254E-2,1.2245641E0,-8.303349E-2,1.2622027E-1,-5.6859557E-2,-6.250808E-1,-3.328234E-1,1.2509468E-2,-5.834027E-1,9.3048304E-2,-1.4720726E0,1.2497611E0,2.2203693E-1,-2.962549E-1,-6.580627E-1,-3.863818E-1,2.0816224E-3,3.6149278E-1,-1.0120834E-2,-2.5867634E-2,-6.662739E-3,-4.7661908E-2,1.4303151E-2,3.5847342E-1,-2.6953417E-1,-1.8058611E0,-4.731997E-2,-5.2415675E-1,-7.5476305E-3,1.1176633E-2,9.381726E-3,4.2459913E-2,-1.3141976E-3,1.6861372E-2,-6.1424277E-3,-2.9252814E-2,-1.6962362E-2,-4.6970714E-3,2.540365E-4,-3.150666E-3,-4.567702E-3,4.491075E-2,4.0663943E-2,1.7143791E-3,-3.720521E-2,-3.8745783E-3],"split_indices":[42,18,9,58,55,10,16,21,26,0,1,0,38,0,8,59,35,0,0,9,0,0,0,53,8,0,58,1,3,0,0,0,0,0,0,0,0,13,26,0,11,0,0,0,0,0,0,0,0,0,0,0,0,0,0,0,0,0,0],"split_type":[0,0,0,0,0,0,0,0,0,0,0,0,0,0,0,0,0,0,0,0,0,0,0,0,0,0,0,0,0,0,0,0,0,0,0,0,0,0,0,0,0,0,0,0,0,0,0,0,0,0,0,0,0,0,0,0,0,0,0],"sum_hessian":[6.57E2,5.1E1,6.06E2,4E1,1.1E1,1.7E1,5.89E2,3.2E1,8E0,3E0,8E0,3E0,1.4E1,1E0,5.88E2,2.2E1,1E1,2E0,6E0,7E0,1E0,1.1E1,3E0,5.62E2,2.6E1,1.1E1,1.1E1,3E0,7E0,1E0,5E0,3E0,4E0,2E0,9E0,1E0,2E0,8E0,5.54E2,3E0,2.3E1,5E0,6E0,7E0,4E0,1E0,2E0,1E0,6E0,4E0,1E0,1E0,1E0,2E0,6E0,4E0,5.5E2,2E0,2.1E1],"tree_param":{"num_deleted":"0","num_feature":"60","num_nodes":"59","size_leaf_vector":"0"}},{"base_weights":[-3.7802337E-4,-1.4451572E-3,9.9071875E-2,-3.7777717E-3,4.540424E-2,2.2312272E-1,4.120962E-2,-1.3054061E-1,-2.5389472E-3,-9.133461E-3,1.0418669E-1,5.5222474E-2,8.789271E-3,-1.443536E-1,-3.0737832E-2,-4.4944123E-3,5.9243288E-2,3.1825572E-2,-8.952928E-2,1.4284615E-1,-3.7838355E-2,2.5378317E-3,1.0646075E-2,-1.9053224E-2,4.760895E-3,4.7663334E-3,1.5195145E-1,-2.378536E-3,8.018703E-2,7.333397E-2,2.0013599E-1,5.592957E-3,-5.4179776E-2,-4.0899042E-2,2.2183922E-3,1.5718643E-2,-2.5061278E-2,6.189038E-2,-3.8672492E-2,2.2347376E-1,4.244128E-2,3.3791274E-2,-1.2372976E-2,8.530975E-2,2.892969E-2,2.2494861E-1,3.8036436E-2],"categories":[],"categories_nodes":[],"categories_segments":[],"categories_sizes":[],"default_left":[1,1,1,1,1,0,1,1,1,1,1,0,1,0,0,1,1,1,0,1,1,0,0,1,1,1,1,1,0,1,1,0,0,0,0,0,0,0,0,0,0,0,0,0,0,0,0],"id":25,"left_children":[1,3,5,7,9,-1,11,13,15,17,19,-1,21,-1,-1,23,25,27,-1,29,31,-1,-1,33,35,37,39,41,-1,43,45,-1,-1,-1,-1,-1,-1,-1,-1,-1,-1,-1,-1,-1,-1,-1,-1],"loss_changes":[6.9974326E-2,7.142312E-2,4.1050225E-2,9.734552E-2,1.00333236E-1,0E0,2.2404455E-3,3.834337E-3,7.480789E-2,5.8829214E-2,8.776423E-2,0E0,7.805153E-6,0E0,0E0,8.080374E-2,9.5234446E-2,2.0040654E-2,0E0,3.3111334E-2,3.1419434E-3,0E0,0E0,1.0836487E-1,1.203236E-1,3.4651674E-2,4.534243E-2,3.3100746E-3,0E0,1.2544468E-3,1.5576452E-2,0E0,0E0,0E0,0E0,0E0,0E0,0E0,0E0,0E0,0E0,0E0,0E0,0E0,0E0,0E0,0E0],"parents":[2147483647,0,0,1,1,2,2,3,3,4,4,6,6,7,7,8,8,9,9,10,10,12,12,15,15,16,16,17,17,19,19,20,20,23,23,24,24,25,25,26,26,27,27,29,29,30,30],"right_children":[2,4,6,8,10,-1,12,14,16,18,20,-1,22,-1,-1,24,26,28,-1,30,32,-1,-1,34,36,38,40,42,-1,44,46,-1,-1,-1,-1,-1,-1,-1,-1,-1,-1,-1,-1,-1,-1,-1,-1],"split_conditions":[1.6736261E0,1.1685851E0,-8.536034E-1,-1.870753E0,-1.2487512E-2,6.693682E-2,-6.159246E-4,7.1215206E-1,1.2996497E0,2.9796204E-1,7.7083004E-1,1.6566742E-2,2.2395529E-2,-4.3306082E-2,-9.22135E-3,-1.8749124E-1,1.5402322E-1,2.2268453E-1,-2.6858786E-2,1.7715847E-1,3.1017262E-1,7.613495E-4,3.1938227E-3,2.5905577E-2,3.2668048E-1,-9.869527E-2,-1.21515915E-1,-6.430319E-1,2.405611E-2,3.0652335E-1,9.3982005E-1,1.6778872E-3,-1.6253933E-2,-1.2269713E-2,6.655177E-4,4.715593E-3,-7.5183837E-3,1.8567115E-2,-1.1601748E-2,6.704213E-2,1.2732384E-2,1.0137383E-2,-3.711893E-3,2.5592927E-2,8.6789075E-3,6.748459E-2,1.1410931E-2],"split_indices":[14,34,5,49,33,0,2,1,4,57,24,0,0,0,0,26,28,12,0,6,2,0,0,54,51,53,22,4,0,10,0,0,0,0,0,0,0,0,0,0,0,0,0,0,0,0,0],"split_type":[0,0,0,0,0,0,0,0,0,0,0,0,0,0,0,0,0,0,0,0,0,0,0,0,0,0,0,0,0,0,0,0,0,0,0,0,0,0,0,0,0,0,0,0,0,0,0],"sum_hessian":[6.57E2,6.51E2,6E0,6.21E2,3E1,1E0,5E0,5E0,6.16E2,1.6E1,1.4E1,3E0,2E0,4E0,1E0,5.98E2,1.8E1,1.1E1,5E0,1.1E1,3E0,1E0,1E0,2.32E2,3.66E2,1.2E1,6E0,7E0,4E0,6E0,5E0,1E0,2E0,1.14E2,1.18E2,2.68E2,9.8E1,5E0,7E0,3E0,3E0,1E0,6E0,4E0,2E0,4E0,1E0],"tree_param":{"num_deleted":"0","num_feature":"60","num_nodes":"47","size_leaf_vector":"0"}},{"base_weights":[5.3738055E-5,9.7089045E-2,-9.881345E-4,3.287548E-2,1.3703035E-1,-1.8537836E-3,1.1139762E-1,1.7426848E-1,-2.3953458E-3,1.3052776E-1,1.7438497E-2,1.2413037E-2,-8.764528E-3,1.657267E-2,-1.9035254E-1,-1.2577593E-2,3.8595825E-2,-1.9119384E-3,5.6300465E-2,-2.464614E-2,6.4113983E-3,-2.9905483E-3,1.2582102E-1],"categories":[],"categories_nodes":[],"categories_segments":[],"categories_sizes":[],"default_left":[1,1,1,0,0,1,1,0,1,0,0,1,1,1,0,1,1,0,0,0,0,0,0],"id":26,"left_children":[1,3,5,-1,-1,7,9,-1,11,-1,-1,13,15,17,-1,19,21,-1,-1,-1,-1,-1,-1],"loss_changes":[6.66187E-2,1.3448477E-2,6.363738E-2,0E0,0E0,6.2224433E-2,6.7110583E-3,0E0,6.1132073E-2,0E0,0E0,1.6762352E-1,8.229186E-2,1.4110336E-1,0E0,9.640923E-2,1.2370717E-1,0E0,0E0,0E0,0E0,0E0,0E0],"parents":[2147483647,0,0,1,1,2,2,5,5,6,6,8,8,11,11,12,12,13,13,15,15,16,16],"right_children":[2,4,6,-1,-1,8,10,-1,12,-1,-1,14,16,18,-1,20,22,-1,-1,-1,-1,-1,-1],"split_conditions":[-1.8058611E0,5.4329E-1,1.9165051E0,9.862644E-3,4.1109107E-2,-2.8997092E0,1.9748759E-2,5.228055E-2,-3.0756772E-1,3.915833E-2,5.2315495E-3,1.664028E0,8.9814675E-1,-5.02228E-1,-5.7105765E-2,2.2943324E-1,3.2547748E-1,-5.7358155E-4,1.689014E-2,-7.3938426E-3,1.9234195E-3,-8.971645E-4,3.774631E-2],"split_indices":[43,0,55,0,0,20,1,0,32,0,0,0,53,32,0,48,57,0,0,0,0,0,0],"split_type":[0,0,0,0,0,0,0,0,0,0,0,0,0,0,0,0,0,0,0,0,0,0,0],"sum_hessian":[6.57E2,6E0,6.51E2,3E0,3E0,6.47E2,4E0,1E0,6.46E2,3E0,1E0,1.94E2,4.52E2,1.91E2,3E0,4.19E2,3.3E1,1.31E2,6E1,2.56E2,1.63E2,2.3E1,1E1],"tree_param":{"num_deleted":"0","num_feature":"60","num_nodes":"23","size_leaf_vector":"0"}},{"base_weights":[2.476919E-4,-4.3651707E-2,2.1952917E-3,5.7876524E-2,-7.397198E-2,-8.3735185E-3,1.1678412E-2,8.384432E-3,7.599647E-2,-6.995184E-3,-1.0476147E-1,-2.5231782E-2,2.3014436E-2,-5.7460904E-2,1.7721027E-2,1.0494575E-2,2.0820722E-3,-2.9187053E-2,3.9720282E-2,-2.8948799E-2,-1.2969801E-1,3.8178817E-3,-5.0167855E-2,7.768352E-2,3.0945789E-3,2.1218551E-2,-1.21819034E-1,-5.352436E-3,3.7610628E-2,-1.1705697E-2,-3.5001308E-2,4.941696E-2,1.0163464E-2,-8.583189E-3,-3.966481E-2,-5.336732E-2,2.8776754E-2,-1.8715028E-1,-4.1447233E-2,-7.60934E-2,9.243919E-2,4.193458E-2,-2.3415519E-2,-7.5132415E-2,5.763708E-2,-2.0012361E-1,-2.8287088E-2,4.204438E-2,-1.9395161E-2,-1.03900224E-1,4.268222E-2,1.6189847E-2,-8.716755E-2,5.6553945E-2,-3.9987855E-2,-5.4011494E-2,-2.402168E-1,5.998686E-3,-6.597996E-2,6.2304705E-2,1.5245369E-1,1.1118322E-1,1.0003236E-2,-1.2538171E-1,-8.291408E-3,-1.1280638E-2,-9.265613E-2,-6.2641996E-4,7.228126E-2,-2.338974E-1,-6.586814E-2,1.0791465E-2,-7.006351E-2,8.23734E-2,-3.5395857E-2,1.6382707E-3,-5.9844602E-2,6.3927025E-2,1.4454223E-2],"categories":[],"categories_nodes":[],"categories_segments":[],"categories_sizes":[],"default_left":[1,1,1,1,1,1,1,1,0,1,1,1,1,1,1,0,0,1,1,1,0,1,1,1,1,1,1,1,1,0,0,0,0,0,0,1,1,1,1,0,1,1,1,1,1,1,1,1,1,0,1,0,0,0,0,0,0,0,0,0,0,0,0,0,0,0,0,0,0,0,0,0,0,0,0,0,0,0,0],"id":27,"left_children":[1,3,5,7,9,11,13,15,-1,17,19,21,23,25,27,-1,-1,29,31,33,-1,35,37,39,41,43,45,47,49,-1,-1,-1,-1,-1,-1,51,53,55,57,-1,59,61,63,65,67,69,71,73,75,-1,77,-1,-1,-1,-1,-1,-1,-1,-1,-1,-1,-1,-1,-1,-1,-1,-1,-1,-1,-1,-1,-1,-1,-1,-1,-1,-1,-1,-1],"loss_changes":[5.6353815E-2,9.047541E-2,6.333995E-2,5.6403726E-3,4.463516E-2,1.5879548E-1,1.4013979E-1,1.804618E-5,0E0,9.452946E-3,2.460298E-2,1.4144653E-1,1.1410465E-1,1.3930371E-1,1.4109036E-1,0E0,0E0,2.0013191E-4,3.5756128E-4,7.5074006E-4,0E0,1.3141805E-1,1.1767325E-1,7.056826E-2,8.12948E-2,4.99469E-2,1.04198754E-1,9.599346E-2,1.2285273E-1,0E0,0E0,0E0,0E0,0E0,0E0,6.724058E-2,1.24507084E-1,2.94168E-2,1.1679356E-1,0E0,3.7522554E-2,6.964628E-2,7.144137E-2,3.4304615E-3,8.577488E-3,2.0868152E-2,1.3816583E-2,1.05977625E-1,9.45358E-2,0E0,9.5027715E-2,0E0,0E0,0E0,0E0,0E0,0E0,0E0,0E0,0E0,0E0,0E0,0E0,0E0,0E0,0E0,0E0,0E0,0E0,0E0,0E0,0E0,0E0,0E0,0E0,0E0,0E0,0E0,0E0],"parents":[2147483647,0,0,1,1,2,2,3,3,4,4,5,5,6,6,7,7,9,9,10,10,11,11,12,12,13,13,14,14,17,17,18,18,19,19,21,21,22,22,23,23,24,24,25,25,26,26,27,27,28,28,35,35,36,36,37,37,38,38,40,40,41,41,42,42,43,43,44,44,45,45,46,46,47,47,48,48,50,50],"right_children":[2,4,6,8,10,12,14,16,-1,18,20,22,24,26,28,-1,-1,30,32,34,-1,36,38,40,42,44,46,48,50,-1,-1,-1,-1,-1,-1,52,54,56,58,-1,60,62,64,66,68,70,72,74,76,-1,78,-1,-1,-1,-1,-1,-1,-1,-1,-1,-1,-1,-1,-1,-1,-1,-1,-1,-1,-1,-1,-1,-1,-1,-1,-1,-1,-1,-1],"split_conditions":[-1.2651558E0,-5.7514703E-1,-7.308318E-2,-3.578735E-1,-4.2269993E-1,2.903941E-1,-9.312098E-1,6.081157E-1,2.2798942E-2,2.5339288E-1,-5.1349413E-1,-3.1027678E-1,-2.9999617E-1,-2.1557891E-1,-9.583381E-2,3.1483725E-3,6.246217E-4,-3.3479828E-1,1.1336435E-1,-3.4824914E-1,-3.8909405E-2,-2.6221603E-1,-1.199064E0,-6.804544E-1,-2.4439336E-1,-6.4915884E-1,3.113778E-1,-3.5845643E-1,-1.4248173E0,-3.5117092E-3,-1.0500393E-2,1.4825088E-2,3.0490393E-3,-2.5749567E-3,-1.1899443E-2,-6.527716E-1,2.8586155E-1,1.6336292E-1,-2.0869774E-1,-2.282802E-2,5.98871E-1,-3.6558864E-1,-6.376592E-1,2.6547718E-1,-6.5613496E-1,3.8926038E-1,8.2478166E-2,1.6310218E-1,2.0281583E-1,-3.1170068E-2,1.1783182E-1,4.8569543E-3,-2.6150268E-2,1.6966185E-2,-1.1996357E-2,-1.6203448E-2,-7.206505E-2,1.7996059E-3,-1.9793987E-2,1.8691413E-2,4.5736108E-2,3.3354968E-2,3.000971E-3,-3.7614513E-2,-2.4874227E-3,-3.3841915E-3,-2.779684E-2,-1.87926E-4,2.1684378E-2,-7.0169225E-2,-1.9760443E-2,3.2374396E-3,-2.1019053E-2,2.4712022E-2,-1.0618757E-2,4.914812E-4,-1.7953381E-2,1.9178107E-2,4.3362672E-3],"split_indices":[7,54,29,16,40,0,15,0,0,10,39,0,41,40,36,0,0,0,0,3,0,21,42,13,12,58,50,18,54,0,0,0,0,0,0,30,11,1,58,0,4,14,39,0,5,0,14,43,3,0,53,0,0,0,0,0,0,0,0,0,0,0,0,0,0,0,0,0,0,0,0,0,0,0,0,0,0,0,0],"split_type":[0,0,0,0,0,0,0,0,0,0,0,0,0,0,0,0,0,0,0,0,0,0,0,0,0,0,0,0,0,0,0,0,0,0,0,0,0,0,0,0,0,0,0,0,0,0,0,0,0,0,0,0,0,0,0,0,0,0,0,0,0,0,0,0,0,0,0,0,0,0,0,0,0,0,0,0,0,0,0],"sum_hessian":[6.57E2,2.7E1,6.3E2,6E0,2.1E1,2.98E2,3.32E2,2E0,4E0,7E0,1.4E1,1.94E2,1.04E2,2.6E1,3.06E2,1E0,1E0,5E0,2E0,4E0,1E1,9E1,1.04E2,2.7E1,7.7E1,1.2E1,1.4E1,1.42E2,1.64E2,2E0,3E0,1E0,1E0,2E0,2E0,2.7E1,6.3E1,5E0,9.9E1,2E0,2.5E1,3.1E1,4.6E1,3E0,9E0,7E0,7E0,3.2E1,1.1E2,5E0,1.59E2,9E0,1.8E1,4.5E1,1.8E1,2E0,3E0,3.4E1,6.5E1,1.8E1,7E0,9E0,2.2E1,5E0,4.1E1,1E0,2E0,2E0,7E0,5E0,2E0,4E0,3E0,2.1E1,1.1E1,7.3E1,3.7E1,9E1,6.9E1],"tree_param":{"num_deleted":"0","num_feature":"60","num_nodes":"79","size_leaf_vector":"0"}},{"base_weights":[-1.854341E-4,-1.0838497E-3,9.762304E-2,6.009405E-3,-1.3235013E-2,1.9766927E-1,3.8079944E-2,1.5382302E-2,-1.6214354E-2,-1.3948141E-1,-9.4181625E-3,4.630806E-2,1.7158514E-2,4.16521E-2,1.1986102E-3,-3.597517E-2,4.1104686E-2,-1.8153822E-1,-6.255425E-2,1.217699E-2,-2.9864645E-2,5.0212923E-2,-3.3734087E-2,-1.0970338E-2,4.859557E-2,-4.1180197E-2,8.8830546E-2,-4.129737E-3,9.264568E-2,2.9356254E-2,-6.1778817E-2,-5.4255296E-2,9.692025E-3,4.0339023E-2,1.2714499E-1,-6.982155E-3,-5.4863673E-2,-1.7211502E-2,1.4376658E-1,9.880511E-2,5.3061536E-3,9.70573E-3,-5.3329732E-2,4.735434E-2,-5.0052434E-2,2.5438521E-2,1.6581978E-1,3.6857955E-2,-8.6811714E-2,-7.1884864E-3,-1.398328E-1,-8.470744E-2,-3.0309572E-3,2.4989385E-2,-5.767343E-2],"categories":[],"categories_nodes":[],"categories_segments":[],"categories_sizes":[],"default_left":[1,1,1,1,1,0,1,1,1,1,1,0,0,1,1,1,1,0,0,1,1,1,1,1,1,1,0,1,1,1,1,1,1,0,0,0,0,0,0,0,0,0,0,0,0,0,0,0,0,0,0,0,0,0,0],"id":28,"left_children":[1,3,5,7,9,-1,11,13,15,17,19,-1,-1,21,23,25,27,-1,-1,29,31,33,35,37,39,41,-1,43,45,47,49,51,53,-1,-1,-1,-1,-1,-1,-1,-1,-1,-1,-1,-1,-1,-1,-1,-1,-1,-1,-1,-1,-1,-1],"loss_changes":[5.7926025E-2,5.636245E-2,2.821514E-2,8.627772E-2,1.1481547E-1,0E0,6.614206E-5,1.0837745E-1,1.4079727E-1,1.1291191E-2,1.04126714E-1,0E0,0E0,6.752141E-2,1.10119626E-1,6.3422866E-2,7.498826E-2,0E0,0E0,1.4792182E-1,1.17268205E-1,6.475608E-2,5.834763E-3,1.4926669E-1,8.424385E-2,5.5540994E-2,0E0,4.4927374E-2,6.954914E-2,8.5116714E-2,9.273665E-2,1.16735056E-1,4.9875364E-2,0E0,0E0,0E0,0E0,0E0,0E0,0E0,0E0,0E0,0E0,0E0,0E0,0E0,0E0,0E0,0E0,0E0,0E0,0E0,0E0,0E0,0E0],"parents":[2147483647,0,0,1,1,2,2,3,3,4,4,6,6,7,7,8,8,9,9,10,10,13,13,14,14,15,15,16,16,19,19,20,20,21,21,22,22,23,23,24,24,25,25,27,27,28,28,29,29,30,30,31,31,32,32],"right_children":[2,4,6,8,10,-1,12,14,16,18,20,-1,-1,22,24,26,28,-1,-1,30,32,34,36,38,40,42,-1,44,46,48,50,52,54,-1,-1,-1,-1,-1,-1,-1,-1,-1,-1,-1,-1,-1,-1,-1,-1,-1,-1,-1,-1,-1,-1],"split_conditions":[1.7276504E0,1.7320496E-1,-8.536034E-1,3.01018E-1,-1.338811E0,5.9300784E-2,-6.159246E-4,-2.2365972E-1,5.011693E-1,-2.8241912E-1,-1.4953282E-1,1.3892419E-2,5.1475544E-3,7.434828E-1,4.065879E-1,1.3362631E0,-1.3577288E-1,-5.4461468E-2,-1.8766275E-2,6.5152186E-1,1.1150204E-1,8.9759445E-1,1.2097268E-1,1.3235683E0,-9.7900555E-2,-5.5159944E-1,2.6649164E-2,-4.9545008E-1,-1.243755E-1,1.1729593E0,-7.5941674E-2,2.8057995E-1,4.9675238E-1,1.2101707E-2,3.81435E-2,-2.0946467E-3,-1.6459102E-2,-5.1634507E-3,4.3129977E-2,2.9641533E-2,1.5918461E-3,2.911719E-3,-1.599892E-2,1.4206302E-2,-1.5015731E-2,7.6315566E-3,4.9745936E-2,1.1057387E-2,-2.6043516E-2,-2.156546E-3,-4.194984E-2,-2.5412234E-2,-9.092872E-4,7.4968156E-3,-1.7302029E-2],"split_indices":[14,44,5,37,16,0,2,6,45,6,22,0,0,46,14,10,59,0,0,28,41,20,4,19,7,18,0,10,16,45,56,3,27,0,0,0,0,0,0,0,0,0,0,0,0,0,0,0,0,0,0,0,0,0,0],"split_type":[0,0,0,0,0,0,0,0,0,0,0,0,0,0,0,0,0,0,0,0,0,0,0,0,0,0,0,0,0,0,0,0,0,0,0,0,0,0,0,0,0,0,0,0,0,0,0,0,0,0,0,0,0,0,0],"sum_hessian":[6.57E2,6.52E2,5E0,4.12E2,2.4E2,1E0,4E0,2.9E2,1.22E2,6E0,2.34E2,2E0,2E0,1.01E2,1.89E2,9.1E1,3.1E1,3E0,3E0,1.14E2,1.2E2,9.1E1,1E1,1.51E2,3.8E1,8.8E1,3E0,1.7E1,1.4E1,9.3E1,2.1E1,7.4E1,4.6E1,8.2E1,9E0,5E0,5E0,1.46E2,5E0,1.7E1,2.1E1,1.7E1,7.1E1,8E0,9E0,8E0,6E0,8.8E1,5E0,1.3E1,8E0,4.6E1,2.8E1,3.8E1,8E0],"tree_param":{"num_deleted":"0","num_feature":"60","num_nodes":"55","size_leaf_vector":"0"}},{"base_weights":[-6.832069E-6,-1.7593179E-2,4.232451E-3,-3.3328816E-2,2.5170906E-2,-1.3911156E-2,9.794412E-3,-9.363034E-2,-2.1605669E-2,8.5483536E-2,-2.3734872E-3,5.7967966E-3,-6.6829406E-2,1.5090692E-1,8.019334E-3,-1.563329E-1,-3.4458317E-2,-3.7051715E-2,2.0799898E-2,-2.0563096E-2,9.814451E-2,-4.169781E-2,3.7133414E-2,-9.7457515E-3,7.494014E-2,-1.3881657E-1,-1.5655613E-2,2.5986603E-2,-1.6438008E-3,-5.354615E-2,-1.8673837E-1,1.7358238E-2,-5.1742796E-2,-2.7589738E-2,-1.1603422E-1,8.488891E-2,-3.043279E-3,1.0381214E-1,2.3567915E-2,-7.887692E-2,1.4381233E-3,5.817365E-3,7.269924E-2,-1.2596658E-1,-3.243983E-3,-1.3980147E-2,1.0337562E-1,-2.2872119E-1,-6.345609E-2,4.9977332E-2,-3.4038503E-2,4.5235574E-2,-7.534382E-4,3.4956925E-2,-1.148994E-2,2.7598046E-2,-1.560688E-3,-1.2753133E-2,-5.6115553E-2,-5.7732407E-2,-8.160745E-3,-1.2869644E-1,-2.6361555E-2,3.2035682E-2,-2.0329153E-2,-2.7907366E-2,-9.3683265E-2,1.8421516E-2,-4.4626947E-3,1.6492484E-2,-1.7471993E-2,-3.872505E-2,-1.4213873E-1,-2.7726823E-2,3.082073E-2,-2.6210492E-2,2.9102464E-3,5.5564996E-2,1.4989386E-1,2.341257E-2,-9.1620356E-2,6.627409E-2,1.7021462E-2,1.5303289E-2,-5.5872854E-2,5.9691396E-2,-9.479087E-3,6.572716E-2,-1.8742904E-2,1.0072269E-1,1.1541244E-3,-8.696985E-3,-1.5175635E-1],"categories":[],"categories_nodes":[],"categories_segments":[],"categories_sizes":[],"default_left":[1,1,1,1,1,1,1,1,1,1,1,1,1,0,1,1,1,1,1,0,1,1,1,1,1,1,1,1,1,0,0,1,1,1,1,0,1,0,0,1,1,1,0,1,1,1,1,0,1,1,1,1,1,1,1,0,0,0,0,0,0,0,0,0,0,0,0,0,0,0,0,0,0,0,0,0,0,0,0,0,0,0,0,0,0,0,0,0,0,0,0,0,0],"id":29,"left_children":[1,3,5,7,9,11,13,15,17,19,21,23,25,-1,27,29,31,33,35,-1,37,39,41,43,45,47,49,51,53,-1,-1,55,57,59,61,-1,63,-1,-1,65,67,69,-1,71,73,75,77,-1,79,81,83,85,87,89,91,-1,-1,-1,-1,-1,-1,-1,-1,-1,-1,-1,-1,-1,-1,-1,-1,-1,-1,-1,-1,-1,-1,-1,-1,-1,-1,-1,-1,-1,-1,-1,-1,-1,-1,-1,-1,-1,-1],"loss_changes":[4.9130663E-2,8.697268E-2,5.3721614E-2,6.442788E-2,5.834751E-2,1.307512E-1,1.0073759E-1,5.0266594E-2,5.3170536E-2,1.6787343E-2,4.038794E-2,9.959941E-2,1.23077855E-1,0E0,7.001163E-2,1.1877835E-2,8.9587625E-3,4.0891156E-2,3.3876225E-2,0E0,1.7800927E-3,2.0962253E-2,1.4056239E-2,5.7020072E-2,4.4429563E-2,8.033982E-2,2.7038142E-2,7.2609365E-2,9.51805E-2,0E0,0E0,6.2425045E-4,4.7779642E-4,3.1153515E-2,3.4200922E-3,0E0,1.0959557E-2,0E0,0E0,2.6682615E-3,7.837209E-4,2.27709E-3,0E0,1.3920665E-4,6.1736625E-2,1.1091556E-3,2.0584002E-2,0E0,2.4164397E-2,1.5572868E-3,1.916992E-2,6.542334E-2,7.298895E-2,1.24375515E-1,8.0165766E-2,0E0,0E0,0E0,0E0,0E0,0E0,0E0,0E0,0E0,0E0,0E0,0E0,0E0,0E0,0E0,0E0,0E0,0E0,0E0,0E0,0E0,0E0,0E0,0E0,0E0,0E0,0E0,0E0,0E0,0E0,0E0,0E0,0E0,0E0,0E0,0E0,0E0,0E0],"parents":[2147483647,0,0,1,1,2,2,3,3,4,4,5,5,6,6,7,7,8,8,9,9,10,10,11,11,12,12,14,14,15,15,16,16,17,17,18,18,20,20,21,21,22,22,23,23,24,24,25,25,26,26,27,27,28,28,31,31,32,32,33,33,34,34,36,36,39,39,40,40,41,41,43,43,44,44,45,45,46,46,48,48,49,49,50,50,51,51,52,52,53,53,54,54],"right_children":[2,4,6,8,10,12,14,16,18,20,22,24,26,-1,28,30,32,34,36,-1,38,40,42,44,46,48,50,52,54,-1,-1,56,58,60,62,-1,64,-1,-1,66,68,70,-1,72,74,76,78,-1,80,82,84,86,88,90,92,-1,-1,-1,-1,-1,-1,-1,-1,-1,-1,-1,-1,-1,-1,-1,-1,-1,-1,-1,-1,-1,-1,-1,-1,-1,-1,-1,-1,-1,-1,-1,-1,-1,-1,-1,-1,-1,-1],"split_conditions":[-5.1129043E-1,3.1944436E-1,-4.153703E-1,-6.5601385E-1,-1.889574E-1,-5.475076E-1,-1.587192E0,3.6302034E-2,4.414882E-1,-8.7165236E-1,-9.9634334E-2,5.852035E-1,-2.4399783E-1,4.527208E-2,-2.3820873E-1,-2.857143E-1,4.39255E-2,-5.6330895E-1,-5.740878E-1,-6.168929E-3,1.4035025E0,-4.3766633E-2,4.42107E-3,-1.187233E0,-4.179935E-1,-1.2059817E-2,-1.3603131E-1,1.0443966E-1,-4.236881E-1,-1.6063845E-2,-5.6021515E-2,4.0479368E-1,-5.819493E-1,-2.2182235E-1,5.0390875E-1,2.5466675E-2,-1.6477653E-1,3.1143645E-2,7.0703747E-3,-5.219146E-1,-2.915747E-1,-2.3264435E-1,2.1809774E-2,-9.66012E-2,1.4186507E-1,-1.575393E-2,3.837043E-2,-6.861636E-2,-4.7467518E-1,-4.0691003E-1,-4.0087664E-1,6.7707217E-1,-4.5385502E-2,-2.1007544E-1,1.2912555E0,8.279414E-3,-4.6820642E-4,-3.82594E-3,-1.6834667E-2,-1.7319722E-2,-2.4482235E-3,-3.8608935E-2,-7.908467E-3,9.610705E-3,-6.0987463E-3,-8.37221E-3,-2.8104981E-2,5.526455E-3,-1.3388084E-3,4.9477452E-3,-5.241598E-3,-1.1617515E-2,-4.264162E-2,-8.318047E-3,9.246219E-3,-7.863148E-3,8.7307394E-4,1.6669499E-2,4.496816E-2,7.0237713E-3,-2.7486108E-2,1.9882228E-2,5.106439E-3,4.5909868E-3,-1.6761856E-2,1.790742E-2,-2.8437262E-3,1.9718148E-2,-5.622871E-3,3.021681E-2,3.4623733E-4,-2.6090958E-3,-4.5526907E-2],"split_indices":[42,11,45,19,46,45,18,2,37,4,49,53,48,0,2,0,23,42,38,0,0,23,25,27,51,53,48,32,46,0,0,0,3,46,1,0,46,0,0,1,1,14,0,1,30,0,22,0,26,0,55,0,45,31,26,0,0,0,0,0,0,0,0,0,0,0,0,0,0,0,0,0,0,0,0,0,0,0,0,0,0,0,0,0,0,0,0,0,0,0,0,0,0],"split_type":[0,0,0,0,0,0,0,0,0,0,0,0,0,0,0,0,0,0,0,0,0,0,0,0,0,0,0,0,0,0,0,0,0,0,0,0,0,0,0,0,0,0,0,0,0,0,0,0,0,0,0,0,0,0,0,0,0,0,0,0,0,0,0,0,0,0,0,0,0,0,0,0,0,0,0,0,0,0,0,0,0,0,0,0,0,0,0,0,0,0,0,0,0],"sum_hessian":[6.57E2,1.27E2,5.3E2,9.3E1,3.4E1,1.24E2,4.06E2,1.4E1,7.9E1,1E1,2.4E1,9.1E1,3.3E1,4E0,4.02E2,6E0,8E0,5.8E1,2.1E1,1E0,9E0,1.2E1,1.2E1,7.5E1,1.6E1,1.3E1,2E1,1.4E2,2.62E2,2E0,4E0,2E0,6E0,5.3E1,5E0,5E0,1.6E1,8E0,1E0,6E0,6E0,7E0,5E0,3E0,7.2E1,4E0,1.2E1,5E0,8E0,4E0,1.6E1,8.1E1,5.9E1,5.5E1,2.07E2,1E0,1E0,1E0,5E0,2E1,3.3E1,4E0,1E0,5E0,1.1E1,2E0,4E0,1E0,5E0,5E0,2E0,1E0,2E0,4.2E1,3E1,2E0,2E0,7E0,5E0,2E0,6E0,2E0,2E0,5E0,1.1E1,6.4E1,1.7E1,1.2E1,4.7E1,1.8E1,3.7E1,2.04E2,3E0],"tree_param":{"num_deleted":"0","num_feature":"60","num_nodes":"93","size_leaf_vector":"0"}},{"base_weights":[-1.8572056E-4,-9.462958E-4,8.262117E-2,-3.7982874E-2,6.5009005E-4,1.6784579E-1,3.200709E-2,-5.7714205E-2,8.990082E-2,5.821921E-2,-9.527334E-4,3.8864065E-2,1.4481087E-2,-1.1463284E-1,-3.2372836E-2,1.8470705E-2,1.0755396E-1,8.954759E-2,-6.598492E-2,-1.2126487E-2,5.2321167E-3,-2.0553142E-2,-1.2688726E-1,-7.555935E-2,1.978522E-3,2.2544809E-2,1.3698158E-1,-1.8294767E-2,-7.578338E-2,-9.59136E-3,-1.4535792E-1,1.3428276E-2,-1.0953041E-2,-9.826059E-3,-9.5832765E-2,1.8424928E-2,-4.8020203E-2,-1.3731393E-2,3.9801568E-2,1.2792377E-1,-1.1483163E-2,-2.9446058E-2,-1.7417987E-1,3.8765047E-2,3.6229482E-3,-4.221503E-2,9.637556E-3],"categories":[],"categories_nodes":[],"categories_segments":[],"categories_sizes":[],"default_left":[1,1,1,1,1,0,1,1,1,1,1,0,0,1,1,0,0,1,1,1,1,0,0,1,1,1,0,0,0,1,1,1,1,0,0,0,0,0,0,0,0,0,0,0,0,0,0],"id":30,"left_children":[1,3,5,7,9,-1,11,13,15,17,19,-1,-1,21,23,-1,-1,25,27,29,31,-1,-1,33,35,37,-1,-1,-1,39,41,43,45,-1,-1,-1,-1,-1,-1,-1,-1,-1,-1,-1,-1,-1,-1],"loss_changes":[4.1519597E-2,3.8633104E-2,2.0509139E-2,7.3318064E-2,5.7910725E-2,0E0,3.808271E-5,3.0906513E-2,3.0572675E-3,7.205773E-2,4.228843E-2,0E0,0E0,5.4623187E-3,2.6852774E-2,0E0,0E0,4.14067E-2,4.8272312E-4,7.223719E-2,5.2413605E-2,0E0,0E0,9.719446E-3,9.930061E-3,4.928599E-3,0E0,0E0,0E0,5.7401545E-2,8.234307E-3,6.494962E-2,8.601935E-2,0E0,0E0,0E0,0E0,0E0,0E0,0E0,0E0,0E0,0E0,0E0,0E0,0E0,0E0],"parents":[2147483647,0,0,1,1,2,2,3,3,4,4,6,6,7,7,8,8,9,9,10,10,13,13,14,14,17,17,18,18,19,19,20,20,23,23,24,24,25,25,29,29,30,30,31,31,32,32],"right_children":[2,4,6,8,10,-1,12,14,16,18,20,-1,-1,22,24,-1,-1,26,28,30,32,-1,-1,34,36,38,-1,-1,-1,40,42,44,46,-1,-1,-1,-1,-1,-1,-1,-1,-1,-1,-1,-1,-1,-1],"split_conditions":[1.7276504E0,-1.218123E0,-8.536034E-1,9.6609044E-1,-1.330784E0,5.035374E-2,-6.159246E-4,-6.374233E-1,-3.5063115E-1,6.886516E-2,-2.3820873E-1,1.165922E-2,4.3443264E-3,-9.094467E-1,-3.5304257E-1,5.5412115E-3,3.226619E-2,5.2383445E-2,-3.1515998E-1,1.3329475E0,3.2120767E-1,-6.1659426E-3,-3.806618E-2,-1.1806977E0,5.046582E-1,-3.734894E-1,4.1094474E-2,-5.48843E-3,-2.2735015E-2,-1.7307532E0,-2.3425712E-1,-2.7938944E-1,-1.8823281E-1,-2.947818E-3,-2.8749831E-2,5.5274786E-3,-1.4406062E-2,-4.119418E-3,1.1940471E-2,3.8377132E-2,-3.444949E-3,-8.833818E-3,-5.225396E-2,1.1629514E-2,1.0868845E-3,-1.266451E-2,2.891267E-3],"split_indices":[14,27,5,17,38,0,2,17,0,34,42,0,0,2,48,0,0,45,0,56,17,0,0,8,34,5,0,0,0,26,0,27,18,0,0,0,0,0,0,0,0,0,0,0,0,0,0],"split_type":[0,0,0,0,0,0,0,0,0,0,0,0,0,0,0,0,0,0,0,0,0,0,0,0,0,0,0,0,0,0,0,0,0,0,0,0,0,0,0,0,0,0,0,0,0,0,0],"sum_hessian":[6.57E2,6.52E2,5E0,2.6E1,6.26E2,1E0,4E0,2.3E1,3E0,1.6E1,6.1E2,2E0,2E0,6E0,1.7E1,1E0,2E0,1.3E1,3E0,2.17E2,3.93E2,1E0,5E0,7E0,1E1,6E0,7E0,1E0,2E0,2.14E2,3E0,2.61E2,1.32E2,2E0,5E0,8E0,2E0,2E0,4E0,2E0,2.12E2,1E0,2E0,7.2E1,1.89E2,5.2E1,8E1],"tree_param":{"num_deleted":"0","num_feature":"60","num_nodes":"47","size_leaf_vector":"0"}},{"base_weights":[-1.0441789E-4,7.5036556E-2,-7.946804E-4,4.5285323E-3,1.09158434E-1,-1.5671724E-2,2.8270995E-3,-1.1987135E-2,1.8779933E-2,-6.397665E-2,-6.1339904E-3,3.8289983E-2,-1.0611047E-3,-5.722099E-4,-8.930028E-2,-2.2473892E-2,2.4557248E-2,-7.6643035E-2,4.9464464E-2,-1.5753502E-2,5.702456E-3,1.0846856E-2,-1.941325E-2,-1.8282084E-2,-1.0553133E-1,-3.230854E-2,7.205838E-2,4.7463752E-2,-9.905679E-3,-8.510876E-2,-2.139007E-2,-4.3792725E-2,5.665478E-2,-3.4144636E-2,1.4007342E-2,2.38201E-2,-3.507882E-3,2.5218762E-3,2.2073388E-2,-2.5674159E-2,1.9470714E-3,-2.884029E-2,-1.1798551E-1,2.7729394E-2,-4.3728698E-2,9.986878E-2,1.6882537E-3,1.2195146E-1,3.0193023E-2,3.9098203E-2,-2.422182E-2,2.9504292E-2,7.7195E-2,1.0633919E-2,-5.670543E-2,3.619346E-2,-2.9955953E-2,3.140444E-2,-6.478243E-2,-1.2735391E-2,5.6750983E-2],"categories":[],"categories_nodes":[],"categories_segments":[],"categories_sizes":[],"default_left":[1,1,1,1,0,1,1,0,0,1,1,1,1,1,1,1,1,1,1,1,1,1,0,1,1,1,1,1,1,0,0,0,1,1,1,1,1,0,0,0,0,0,0,0,0,0,0,0,0,0,0,0,0,0,0,0,0,0,0,0,0],"id":31,"left_children":[1,3,5,7,-1,9,11,-1,-1,13,15,17,19,21,23,25,27,29,31,33,35,37,-1,39,41,43,45,47,49,-1,-1,-1,51,53,55,57,59,-1,-1,-1,-1,-1,-1,-1,-1,-1,-1,-1,-1,-1,-1,-1,-1,-1,-1,-1,-1,-1,-1,-1,-1],"loss_changes":[3.4188114E-2,1.3940871E-2,3.5228845E-2,9.3123177E-4,0E0,5.8579672E-2,7.256916E-2,0E0,0E0,3.3667147E-2,5.471302E-2,7.057559E-2,4.729197E-2,1.7166024E-3,1.5361153E-2,6.833619E-2,3.0468317E-2,5.1829964E-4,3.466741E-2,8.257863E-2,5.448306E-2,4.1163695E-4,0E0,6.4813124E-4,8.058757E-3,4.5779355E-2,1.3530545E-2,2.5906429E-2,1.2171774E-2,0E0,0E0,0E0,2.281788E-2,9.4555296E-2,5.7655945E-2,7.595356E-2,1.2138326E-1,0E0,0E0,0E0,0E0,0E0,0E0,0E0,0E0,0E0,0E0,0E0,0E0,0E0,0E0,0E0,0E0,0E0,0E0,0E0,0E0,0E0,0E0,0E0,0E0],"parents":[2147483647,0,0,1,1,2,2,3,3,5,5,6,6,9,9,10,10,11,11,12,12,13,13,14,14,15,15,16,16,17,17,18,18,19,19,20,20,21,21,23,23,24,24,25,25,26,26,27,27,28,28,32,32,33,33,34,34,35,35,36,36],"right_children":[2,4,6,8,-1,10,12,-1,-1,14,16,18,20,22,24,26,28,30,32,34,36,38,-1,40,42,44,46,48,50,-1,-1,-1,52,54,56,58,60,-1,-1,-1,-1,-1,-1,-1,-1,-1,-1,-1,-1,-1,-1,-1,-1,-1,-1,-1,-1,-1,-1,-1,-1],"split_conditions":[-1.8058611E0,-1.5113941E-1,-5.509742E-1,-2.3888773E-1,3.2747533E-2,-6.5124595E-1,-8.04144E-1,-3.5961405E-3,5.63398E-3,-2.7202863E-1,3.1657538E-1,-6.352768E-1,-3.137524E-1,9.496644E-2,-5.571256E-1,8.496578E-1,8.873936E-1,4.4003886E-1,-8.207059E-1,2.4924915E-1,-3.0634597E-1,1.0095574E0,-5.823975E-3,-8.462891E-2,-4.9707603E-1,-7.4353796E-1,6.628982E-1,-4.9189985E-1,-5.398864E-1,-2.5532627E-2,-6.417021E-3,-1.3137818E-2,1.07460976E-1,-2.8691566E-1,2.7077577E-1,1.0201594E0,6.407001E-1,7.565629E-4,6.622017E-3,-7.7022477E-3,5.8412144E-4,-8.652087E-3,-3.5395656E-2,8.318818E-3,-1.311861E-2,2.9960636E-2,5.0647615E-4,3.658544E-2,9.057907E-3,1.1729461E-2,-7.2665466E-3,8.851288E-3,2.3158502E-2,3.1901759E-3,-1.701163E-2,1.0858038E-2,-8.986786E-3,9.421332E-3,-1.9434731E-2,-3.8206175E-3,1.7025296E-2],"split_indices":[25,6,33,0,0,17,17,0,0,20,52,38,13,6,5,56,52,4,39,59,27,0,0,0,3,42,13,13,41,0,0,0,47,39,42,36,57,0,0,0,0,0,0,0,0,0,0,0,0,0,0,0,0,0,0,0,0,0,0,0,0],"split_type":[0,0,0,0,0,0,0,0,0,0,0,0,0,0,0,0,0,0,0,0,0,0,0,0,0,0,0,0,0,0,0,0,0,0,0,0,0,0,0,0,0,0,0,0,0,0,0,0,0,0,0,0,0,0,0,0,0,0,0,0,0],"sum_hessian":[6.57E2,5E0,6.52E2,2E0,3E0,1.27E2,5.25E2,1E0,1E0,2E1,1.07E2,5.1E1,4.74E2,6E0,1.4E1,7E1,3.7E1,4E0,4.7E1,1.49E2,3.25E2,4E0,2E0,3E0,1.1E1,6.4E1,6E0,2.2E1,1.5E1,3E0,1E0,3E0,4.4E1,9.2E1,5.7E1,1.09E2,2.16E2,3E0,1E0,2E0,1E0,2E0,9E0,1E1,5.4E1,4E0,2E0,3E0,1.9E1,3E0,1.2E1,2E1,2.4E1,3.1E1,6.1E1,3.8E1,1.9E1,1.01E2,8E0,1.88E2,2.8E1],"tree_param":{"num_deleted":"0","num_feature":"60","num_nodes":"61","size_leaf_vector":"0"}},{"base_weights":[-1.365335E-5,-5.0586136E-3,8.794064E-3,8.361951E-3,-1.2266542E-2,-2.44531E-3,2.658582E-2,1.5310913E-1,5.3095133E-3,-1.0476321E-1,-9.0788575E-3,6.146956E-3,-3.6446452E-2,1.3249004E-1,1.9062966E-2,4.442082E-2,-5.279704E-3,-5.6044478E-2,-1.516505E-1,-3.8861707E-2,5.975814E-4,8.230964E-2,1.3745159E-3,-3.3904226E-3,-9.3235016E-2,4.5178007E-2,1.6485155E-1,2.8486397E-2,-2.8696831E-2,-4.6482027E-2,5.9609465E-2,4.5572575E-2,-1.3363272E-2,-5.6209974E-2,2.9823887E-3,-5.627669E-3,5.721748E-2,4.5532275E-2,1.161687E-1,-1.6471943E-2,1.919686E-2,-6.389378E-2,1.5728777E-2,4.0166363E-2,-1.1059179E-1,-1.1694448E-2,5.0494656E-2,-6.671747E-2,-8.80592E-3,-5.2990597E-2,-1.0223877E-2,4.608108E-3,8.2525395E-2,9.973878E-2,1.1884415E-2,5.322812E-3,-4.038283E-2,-8.397458E-2,-1.2335289E-2,-5.224227E-2,3.038169E-2,-1.16794845E-2,5.7889886E-2,1.6995214E-2,1.0448967E-1,-2.7052138E-2,5.171327E-2,7.67371E-2,5.321552E-3,-6.599281E-3,-9.989035E-2,-3.7160512E-2,4.3147594E-2,-1.2112905E-1,-4.5628488E-2,-2.7600521E-2,2.953254E-2,2.4741521E-2,9.204202E-2,-3.107448E-2,1.4930292E-2],"categories":[],"categories_nodes":[],"categories_segments":[],"categories_sizes":[],"default_left":[1,1,1,1,1,1,1,0,1,1,1,1,1,1,1,1,1,0,0,1,1,1,1,1,1,0,0,1,1,1,1,1,1,1,1,1,1,0,0,1,1,1,1,0,1,1,1,0,1,0,0,0,0,0,0,0,0,0,0,0,0,0,0,0,0,0,0,0,0,0,0,0,0,0,0,0,0,0,0,0,0],"id":32,"left_children":[1,3,5,7,9,11,13,-1,15,17,19,21,23,25,27,29,31,-1,-1,33,35,37,39,41,43,-1,-1,45,47,49,51,53,55,57,59,61,63,-1,-1,65,67,69,71,-1,73,75,77,-1,79,-1,-1,-1,-1,-1,-1,-1,-1,-1,-1,-1,-1,-1,-1,-1,-1,-1,-1,-1,-1,-1,-1,-1,-1,-1,-1,-1,-1,-1,-1,-1,-1],"loss_changes":[2.9282443E-2,4.063431E-2,4.805737E-2,6.413634E-2,7.9542994E-2,4.346177E-2,7.156762E-2,0E0,6.0287453E-2,1.2059428E-2,7.639408E-2,4.31412E-2,5.6000028E-2,9.50563E-3,4.0422857E-2,4.5572188E-2,4.78818E-2,0E0,0E0,4.735259E-2,7.116908E-2,3.4273043E-3,3.6257636E-2,2.4140486E-2,2.991166E-2,0E0,0E0,6.602948E-2,1.0756469E-2,6.381739E-4,3.365072E-2,2.801082E-2,5.0703917E-2,5.499968E-2,3.1849552E-2,7.0636295E-2,3.6252074E-2,0E0,0E0,4.251949E-2,4.509978E-2,9.652823E-3,2.480597E-2,0E0,1.3184175E-3,1.852062E-2,4.9081534E-2,0E0,6.2782345E-3,0E0,0E0,0E0,0E0,0E0,0E0,0E0,0E0,0E0,0E0,0E0,0E0,0E0,0E0,0E0,0E0,0E0,0E0,0E0,0E0,0E0,0E0,0E0,0E0,0E0,0E0,0E0,0E0,0E0,0E0,0E0,0E0],"parents":[2147483647,0,0,1,1,2,2,3,3,4,4,5,5,6,6,8,8,9,9,10,10,11,11,12,12,13,13,14,14,15,15,16,16,19,19,20,20,21,21,22,22,23,23,24,24,27,27,28,28,29,29,30,30,31,31,32,32,33,33,34,34,35,35,36,36,39,39,40,40,41,41,42,42,44,44,45,45,46,46,48,48],"right_children":[2,4,6,8,10,12,14,-1,16,18,20,22,24,26,28,30,32,-1,-1,34,36,38,40,42,44,-1,-1,46,48,50,52,54,56,58,60,62,64,-1,-1,66,68,70,72,-1,74,76,78,-1,80,-1,-1,-1,-1,-1,-1,-1,-1,-1,-1,-1,-1,-1,-1,-1,-1,-1,-1,-1,-1,-1,-1,-1,-1,-1,-1,-1,-1,-1,-1,-1,-1],"split_conditions":[2.4594375E-1,-2.2023058E-1,1.8142705E-1,-1.3845167E0,-1.9376315E-1,2.873898E-1,2.2003883E-1,4.593274E-2,-4.7598344E-1,1.6313456E-2,-3.0345166E-1,-8.5333145E-1,1.18716106E-1,6.220453E-2,6.7467403E-1,-5.7607484E-1,-5.985827E-1,-1.6813343E-2,-4.5495152E-2,3.1809565E-1,8.9707994E-1,7.9128206E-2,-3.39474E-1,-4.6152404E-1,-9.5039064E-1,1.3553402E-2,4.9455468E-2,-4.3343496E-1,-3.6084497E-1,7.827133E-1,-1.185697E0,-1.5782891E-1,1.7850116E-1,2.202051E-1,-8.649589E-2,9.0352815E-1,6.9982034E-1,1.3659683E-2,3.4850612E-2,6.750115E-1,-6.582284E-1,-6.061728E-1,-5.681839E-1,1.204991E-2,2.2927815E-1,3.1967077E-1,4.9320176E-2,-2.0015242E-2,-1.0603204E-1,-1.5897179E-2,-3.067163E-3,1.3824325E-3,2.475762E-2,2.9921634E-2,3.5653245E-3,1.5968437E-3,-1.2114849E-2,-2.5192374E-2,-3.700587E-3,-1.5672682E-2,9.114508E-3,-3.5038455E-3,1.7366966E-2,5.0985646E-3,3.1346902E-2,-8.115642E-3,1.5513982E-2,2.302113E-2,1.5964657E-3,-1.9797843E-3,-2.9967107E-2,-1.1148154E-2,1.2944278E-2,-3.6338717E-2,-1.3688547E-2,-8.280157E-3,8.859763E-3,7.4224565E-3,2.7612608E-2,-9.322344E-3,4.479088E-3],"split_indices":[45,8,12,35,8,43,12,0,47,2,47,27,2,0,52,31,20,0,0,15,20,13,43,16,3,0,0,20,50,0,47,23,46,25,35,56,54,0,0,55,55,2,58,0,11,52,11,0,18,0,0,0,0,0,0,0,0,0,0,0,0,0,0,0,0,0,0,0,0,0,0,0,0,0,0,0,0,0,0,0,0],"split_type":[0,0,0,0,0,0,0,0,0,0,0,0,0,0,0,0,0,0,0,0,0,0,0,0,0,0,0,0,0,0,0,0,0,0,0,0,0,0,0,0,0,0,0,0,0,0,0,0,0,0,0,0,0,0,0,0,0,0,0,0,0,0,0,0,0,0,0,0,0,0,0,0,0,0,0,0,0,0,0,0,0],"sum_hessian":[6.57E2,4.18E2,2.39E2,1.46E2,2.72E2,1.47E2,9.2E1,2E0,1.44E2,8E0,2.64E2,1.18E2,2.9E1,5E0,8.7E1,3E1,1.14E2,5E0,3E0,6.4E1,2E2,6E0,1.12E2,1.9E1,1E1,2E0,3E0,7.3E1,1.4E1,4E0,2.6E1,1.5E1,9.9E1,4.5E1,1.9E1,1.81E2,1.9E1,4E0,2E0,5.6E1,5.6E1,4E0,1.5E1,1E0,9E0,2.6E1,4.7E1,4E0,1E1,3E0,1E0,8E0,1.8E1,5E0,1E1,5.9E1,4E1,2.7E1,1.8E1,6E0,1.3E1,1.66E2,1.5E1,1.1E1,8E0,4.9E1,7E0,1E1,4.6E1,2E0,2E0,5E0,1E1,7E0,2E0,1.9E1,7E0,3E1,1.7E1,5E0,5E0],"tree_param":{"num_deleted":"0","num_feature":"60","num_nodes":"81","size_leaf_vector":"0"}},{"base_weights":[1.648955E-4,7.98082E-2,-3.2172757E-4,9.354023E-2,1.9306049E-2,-6.6761337E-3,5.5133756E-3,-1.1977805E-1,-5.19998E-3,-8.6457515E-3,1.20853055E-2,-3.2310367E-2,2.4209695E-4,-2.0732903E-3,-9.136392E-2,-1.7854545E-2,1.8164838E-2,-4.515986E-2,2.6173497E-2,6.0172457E-2,-2.1465314E-3,-1.0558898E-2,4.0975858E-2,-2.0224744E-2,-1.574469E-1,-3.5002716E-2,5.511347E-2,-1.5242831E-2,2.3167392E-2,-1.0370295E-2,-6.5391816E-2,-1.6510943E-2,7.2160125E-2,-3.6818832E-2,8.902264E-2,-2.4823701E-2,4.0489924E-3,-2.0094061E-2,3.2413322E-2,6.6712245E-2,-1.7326226E-2,-4.753272E-2,1.382481E-2,4.4539474E-2,-4.444158E-2,1.5220744E-2,9.120101E-2,1.8756641E-2,-3.4345884E-2,1.4712523E-2,4.858432E-2],"categories":[],"categories_nodes":[],"categories_segments":[],"categories_sizes":[],"default_left":[1,1,1,0,0,1,1,0,1,1,1,1,1,1,1,1,1,1,1,1,1,1,1,1,0,1,1,1,1,0,0,0,0,0,0,0,0,0,0,0,0,0,0,0,0,0,0,0,0,0,0],"id":33,"left_children":[1,3,5,-1,-1,7,9,-1,11,13,15,17,19,21,23,25,27,29,31,33,35,37,39,41,-1,43,45,47,49,-1,-1,-1,-1,-1,-1,-1,-1,-1,-1,-1,-1,-1,-1,-1,-1,-1,-1,-1,-1,-1,-1],"loss_changes":[2.5527302E-2,1.5173778E-3,2.4323301E-2,0E0,0E0,5.1801283E-2,3.1928543E-2,0E0,4.589177E-2,5.906973E-2,4.291707E-2,4.025937E-2,3.7348513E-2,3.769307E-2,3.4424394E-2,5.1979832E-2,3.2942265E-2,2.9587887E-2,2.0820566E-2,3.125987E-2,3.5365243E-2,3.5889573E-2,2.6664117E-2,5.3062523E-3,0E0,2.6755415E-2,1.0128895E-2,1.7531049E-2,3.581766E-2,0E0,0E0,0E0,0E0,0E0,0E0,0E0,0E0,0E0,0E0,0E0,0E0,0E0,0E0,0E0,0E0,0E0,0E0,0E0,0E0,0E0,0E0],"parents":[2147483647,0,0,1,1,2,2,5,5,6,6,8,8,9,9,10,10,11,11,12,12,13,13,14,14,15,15,16,16,17,17,18,18,19,19,20,20,21,21,22,22,23,23,25,25,26,26,27,27,28,28],"right_children":[2,4,6,-1,-1,8,10,-1,12,14,16,18,20,22,24,26,28,30,32,34,36,38,40,42,-1,44,46,48,50,-1,-1,-1,-1,-1,-1,-1,-1,-1,-1,-1,-1,-1,-1,-1,-1,-1,-1,-1,-1,-1,-1],"split_conditions":[-2.2519822E0,2.6756752E-1,-1.1938873E-2,2.806207E-2,5.791815E-3,-1.5371306E0,-2.930414E-1,-3.5933416E-2,-6.0087156E-1,-3.1255195E-1,-6.3502735E-1,5.8467895E-1,-1.4017862E0,6.621729E-1,-4.3579543E-1,3.075165E-1,-6.7330706E-1,-1.063986E-1,2.580836E-2,-1.1361422E-1,-4.26481E-1,5.56345E-1,1.3238552E0,-6.2009923E-2,-4.7234073E-2,-1.1103032E0,-5.502699E-2,-3.2361037E-1,4.422496E-1,-3.1110884E-3,-1.9617546E-2,-4.953283E-3,2.1648038E-2,-1.104565E-2,2.6706792E-2,-7.4471105E-3,1.2146977E-3,-6.0282187E-3,9.723997E-3,2.0013675E-2,-5.197868E-3,-1.4259816E-2,4.1474435E-3,1.3361842E-2,-1.3332475E-2,4.5662234E-3,2.7360303E-2,5.6269923E-3,-1.0303766E-2,4.413757E-3,1.4575296E-2],"split_indices":[37,2,13,0,0,20,51,0,34,51,49,53,13,54,16,45,8,38,52,47,27,22,54,0,0,45,26,45,16,0,0,0,0,0,0,0,0,0,0,0,0,0,0,0,0,0,0,0,0,0,0],"split_type":[0,0,0,0,0,0,0,0,0,0,0,0,0,0,0,0,0,0,0,0,0,0,0,0,0,0,0,0,0,0,0,0,0,0,0,0,0,0,0,0,0,0,0,0,0,0,0,0,0,0,0],"sum_hessian":[6.57E2,3E0,6.54E2,2E0,1E0,3.13E2,3.41E2,3E0,3.1E2,1.08E2,2.33E2,5.1E1,2.59E2,1.01E2,7E0,3.9E1,1.94E2,4.2E1,9E0,9E0,2.5E2,8.5E1,1.6E1,4E0,3E0,3.2E1,7E0,2.5E1,1.69E2,1.6E1,2.6E1,5E0,4E0,2E0,7E0,5.3E1,1.97E2,7E1,1.5E1,1.1E1,5E0,2E0,2E0,3E0,2.9E1,4E0,3E0,9E0,1.6E1,1.28E2,4.1E1],"tree_param":{"num_deleted":"0","num_feature":"60","num_nodes":"51","size_leaf_vector":"0"}},{"base_weights":[1.2872404E-4,8.515429E-2,-2.603086E-4,3.9759846E-4,-4.760069E-2,-1.2483133E-3,2.2480557E-2,-6.6788904E-2,-6.9182E-3,-6.749244E-3,5.766964E-3,5.045538E-2,-4.0997188E-3,-1.3317063E-2,-3.4622414E-4,-2.2390414E-2,2.6808426E-4,-1.1534879E-1,7.121435E-3,1.6099906E-2,7.7743284E-2,1.1950837E-2,-3.2178517E-2,1.2885025E-3,-1.8078387E-3,2.4869531E-2,-3.6700394E-2,-7.8606635E-2,1.9741687E-3,-7.0654793E-4,2.3904094E-2,-1.077787E-2,3.299833E-2,3.6344472E-2,1.0212179E-1,3.180432E-2,-7.024573E-3,-2.9382606E-3,-4.0113125E-2],"categories":[],"categories_nodes":[],"categories_segments":[],"categories_sizes":[],"default_left":[1,0,1,1,1,1,1,0,1,1,1,1,1,0,1,1,1,0,1,1,1,1,1,0,0,0,0,0,0,0,0,0,0,0,0,0,0,0,0],"id":34,"left_children":[1,-1,3,5,7,9,11,-1,13,15,17,19,21,-1,23,25,27,-1,29,31,33,35,37,-1,-1,-1,-1,-1,-1,-1,-1,-1,-1,-1,-1,-1,-1,-1,-1],"loss_changes":[2.1787304E-2,0E0,2.045042E-2,2.3580663E-2,6.563559E-3,2.3347616E-2,3.3667885E-2,0E0,1.63602E-4,3.7214383E-2,4.4458155E-2,1.9373097E-2,1.1200888E-2,0E0,9.497425E-6,7.192305E-2,3.177841E-2,0E0,3.4699727E-2,5.351764E-3,8.39933E-3,6.2510595E-3,1.9702269E-3,0E0,0E0,0E0,0E0,0E0,0E0,0E0,0E0,0E0,0E0,0E0,0E0,0E0,0E0,0E0,0E0],"parents":[2147483647,0,0,2,2,3,3,4,4,5,5,6,6,8,8,9,9,10,10,11,11,12,12,14,14,15,15,16,16,18,18,19,19,20,20,21,21,22,22],"right_children":[2,-1,4,6,8,10,12,-1,14,16,18,20,22,-1,24,26,28,-1,30,32,34,36,38,-1,-1,-1,-1,-1,-1,-1,-1,-1,-1,-1,-1,-1,-1,-1,-1],"split_conditions":[-2.3260856E0,2.5546288E-2,1.635274E0,9.454702E-1,1.2335327E-1,7.38973E-2,-7.062147E-2,-2.0036671E-2,-1.7931404E0,-2.8622356E-1,-1.518614E0,7.653061E-2,3.6656153E-1,-3.995119E-3,4.0650135E-1,-3.7912476E-1,-1.587192E0,-3.460464E-2,1.5523279E-1,-2.1346717E-1,-2.3056556E-1,-4.7729275E-1,-9.872339E-1,3.8655076E-4,-5.423516E-4,7.4608596E-3,-1.1010119E-2,-2.3581991E-2,5.922506E-4,-2.1196439E-4,7.1712285E-3,-3.2333613E-3,9.8995E-3,1.0903342E-2,3.063654E-2,9.541296E-3,-2.107372E-3,-8.814782E-4,-1.2033938E-2],"split_indices":[53,0,40,41,27,35,44,0,0,29,15,42,17,0,0,54,10,0,37,59,6,36,15,0,0,0,0,0,0,0,0,0,0,0,0,0,0,0,0],"split_type":[0,0,0,0,0,0,0,0,0,0,0,0,0,0,0,0,0,0,0,0,0,0,0,0,0,0,0,0,0,0,0,0,0,0,0,0,0,0,0],"sum_hessian":[6.57E2,2E0,6.55E2,6.47E2,8E0,6.03E2,4.4E1,5E0,3E0,3.38E2,2.65E2,2.1E1,2.3E1,1E0,2E0,1.04E2,2.34E2,2E0,2.63E2,1E1,1.1E1,1.5E1,8E0,1E0,1E0,2.4E1,8E1,4E0,2.3E2,1.8E2,8.3E1,4E0,6E0,5E0,6E0,7E0,8E0,2E0,6E0],"tree_param":{"num_deleted":"0","num_feature":"60","num_nodes":"39","size_leaf_vector":"0"}},{"base_weights":[7.475616E-5,1.1986836E-3,-2.5256421E-2,4.727347E-2,4.5600432E-4,-5.5338055E-2,-8.094697E-3,-1.980614E-2,6.6519134E-2,3.5683535E-2,-4.733144E-4,-8.623636E-2,1.2568489E-2,-2.598912E-2,7.282077E-3,-3.9026067E-3,-2.5806602E-2,2.7660808E-2,8.430197E-2,5.1069595E-2,1.5284953E-3,-4.5251646E-3,8.308159E-3,-3.7091017E-2,-9.847629E-2,-7.544942E-3,2.1787947E-2,-5.633304E-3,-2.7829435E-2,-9.139609E-3,2.2490082E-2,2.1367114E-2,5.953714E-2,-1.3468091E-2,1.2393812E-2,-1.1560158E-2,7.5185257E-3,3.4285612E-2,1.2264255E-4,9.861249E-4,-1.9594051E-2,2.642834E-2,1.3993979E-3,1.746082E-2,6.305364E-2,3.3834279E-3,1.4269464E-2,-1.750345E-2,1.1234539E-2,3.1918637E-2,-4.1721803E-3,5.8608476E-2,5.087557E-3,5.588634E-3,-3.6995016E-2,1.3018394E-3,1.9490719E-5],"categories":[],"categories_nodes":[],"categories_segments":[],"categories_sizes":[],"default_left":[1,1,1,1,1,1,1,1,1,1,1,1,1,1,1,0,0,0,0,1,1,1,1,0,0,0,0,0,0,1,1,0,1,0,1,1,1,1,1,1,0,0,0,0,0,0,0,0,0,0,0,0,0,0,0,0,0],"id":35,"left_children":[1,3,5,7,9,11,13,15,17,19,21,23,25,27,29,-1,-1,-1,-1,31,33,35,37,-1,-1,-1,-1,-1,-1,39,41,-1,43,-1,45,47,49,51,53,55,-1,-1,-1,-1,-1,-1,-1,-1,-1,-1,-1,-1,-1,-1,-1,-1,-1],"loss_changes":[1.8763803E-2,2.1570498E-2,1.4007131E-2,1.4227405E-2,2.037968E-2,2.2065831E-2,5.417267E-3,1.8557266E-4,3.196232E-3,8.330125E-3,2.1635395E-2,5.5816397E-4,9.061285E-4,1.8037809E-4,2.9527026E-3,0E0,0E0,0E0,0E0,1.4944393E-3,1.1445769E-3,3.5333462E-2,4.082246E-2,0E0,0E0,0E0,0E0,0E0,0E0,6.544756E-4,4.6137976E-4,0E0,8.27238E-5,0E0,1.9321684E-5,3.5826713E-2,4.406237E-2,3.237012E-2,3.003082E-2,1.195348E-6,0E0,0E0,0E0,0E0,0E0,0E0,0E0,0E0,0E0,0E0,0E0,0E0,0E0,0E0,0E0,0E0,0E0],"parents":[2147483647,0,0,1,1,2,2,3,3,4,4,5,5,6,6,7,7,8,8,9,9,10,10,11,11,12,12,13,13,14,14,19,19,20,20,21,21,22,22,29,29,30,30,32,32,34,34,35,35,36,36,37,37,38,38,39,39],"right_children":[2,4,6,8,10,12,14,16,18,20,22,24,26,28,30,-1,-1,-1,-1,32,34,36,38,-1,-1,-1,-1,-1,-1,40,42,-1,44,-1,46,48,50,52,54,56,-1,-1,-1,-1,-1,-1,-1,-1,-1,-1,-1,-1,-1,-1,-1,-1,-1],"split_conditions":[1.2090554E0,-1.4720726E0,-2.7859548E-1,-2.6953417E-1,-1.2269375E0,5.593432E-1,-4.420746E-2,1.675418E-2,-2.3890162E-1,-3.1007752E-2,3.0616263E-1,-2.0502307E-1,-2.4363635E-1,-1.0676793E0,-2.507352E-1,-1.170782E-3,-7.7419807E-3,8.298242E-3,2.5290592E-2,-9.241716E-2,1.375E-1,2.4411981E-1,-4.305722E-1,-1.1127305E-2,-2.9542888E-2,-2.2634827E-3,6.5363846E-3,-1.6899912E-3,-8.348831E-3,5.4824936E-1,5.884923E-1,6.4101345E-3,-4.8545432E-1,-4.0404275E-3,-3.0536422E-1,4.915213E-1,-3.3197355E-1,2.5258434E-1,7.818334E-1,1.0899378E-1,-5.8782157E-3,7.928503E-3,4.1981938E-4,5.238246E-3,1.8916093E-2,1.0150285E-3,4.280839E-3,-5.251035E-3,3.3703616E-3,9.575591E-3,-1.2516541E-3,1.7582543E-2,1.5262672E-3,1.6765903E-3,-1.1098505E-2,3.9055184E-4,5.847216E-6],"split_indices":[8,53,45,13,52,25,18,0,42,5,5,7,1,1,56,0,0,0,0,55,5,0,29,0,0,0,0,0,0,1,0,0,0,0,0,47,41,53,4,0,0,0,0,0,0,0,0,0,0,0,0,0,0,0,0,0,0],"split_type":[0,0,0,0,0,0,0,0,0,0,0,0,0,0,0,0,0,0,0,0,0,0,0,0,0,0,0,0,0,0,0,0,0,0,0,0,0,0,0,0,0,0,0,0,0,0,0,0,0,0,0,0,0,0,0,0,0],"sum_hessian":[6.57E2,6.3E2,2.7E1,9E0,6.21E2,9E0,1.8E1,2E0,7E0,1.5E1,6.06E2,6E0,3E0,8E0,1E1,1E0,1E0,3E0,4E0,1E1,5E0,4.15E2,1.91E2,2E0,4E0,1E0,2E0,1E0,7E0,5E0,5E0,3E0,7E0,2E0,3E0,2.62E2,1.53E2,4.5E1,1.46E2,3E0,2E0,4E0,1E0,1E0,6E0,1E0,2E0,2.08E2,5.4E1,4.9E1,1.04E2,2.4E1,2.1E1,1.28E2,1.8E1,2E0,1E0],"tree_param":{"num_deleted":"0","num_feature":"60","num_nodes":"57","size_leaf_vector":"0"}},{"base_weights":[9.648789E-5,6.992511E-2,-3.3009372E-4,-1.3072005E-2,2.0164857E-3,-3.4958094E-2,1.031418E-3,-7.4674627E-3,6.0584364E-3,-6.502307E-2,-1.8074103E-2,1.5773883E-2,-2.9204652E-2,-2.9272184E-2,5.150985E-3,-3.326267E-2,8.167528E-3,-7.451542E-2,-5.379329E-3,4.4265385E-3,-3.636972E-2,3.0496495E-2,-8.536964E-3,1.5111266E-2,-4.3997828E-2,1.704345E-2,-4.3430958E-2,4.4697735E-2,-5.145244E-3,-8.689167E-2,9.730969E-3,1.1822276E-2,-1.4410014E-2,-3.1685475E-2,-7.9912856E-2,2.6052594E-3,-1.0674253E-2,2.8380943E-2,-1.4092583E-2,8.150743E-3,-4.817906E-2,-1.9399943E-3,4.6822518E-2,1.6035782E-2,-2.3398079E-2,2.3490403E-2,-1.339221E-2,-7.3475175E-2,-2.8049117E-2,3.8798846E-2,-5.2483596E-2,-5.61095E-2,2.539062E-2,-6.0042194E-3,6.408623E-2,8.39679E-3,-3.454653E-2,-5.9165754E-3,-1.0918219E-1,3.6563143E-2,-1.46581745E-2,-1.3672634E-2,1.595118E-2,-5.829256E-3,-7.922429E-2],"categories":[],"categories_nodes":[],"categories_segments":[],"categories_sizes":[],"default_left":[1,0,1,1,1,1,1,1,1,1,1,1,1,1,1,1,1,1,1,1,1,1,1,1,1,1,1,1,1,1,1,1,1,0,0,0,0,0,0,0,0,0,0,0,0,0,0,0,0,0,0,0,0,0,0,0,0,0,0,0,0,0,0,0,0],"id":36,"left_children":[1,-1,3,5,7,9,11,13,15,17,19,21,23,25,27,29,31,33,35,37,39,41,43,45,47,49,51,53,55,57,59,61,63,-1,-1,-1,-1,-1,-1,-1,-1,-1,-1,-1,-1,-1,-1,-1,-1,-1,-1,-1,-1,-1,-1,-1,-1,-1,-1,-1,-1,-1,-1,-1,-1],"loss_changes":[1.9623326E-2,0E0,1.9610798E-2,3.152027E-2,2.1282084E-2,1.9129444E-2,2.8543185E-2,4.5824308E-2,3.2532144E-2,7.525388E-3,1.1275895E-2,1.5650872E-2,1.4431901E-2,4.0742338E-2,4.3391313E-2,4.695966E-2,3.070099E-2,2.4197996E-4,1.5464256E-4,6.16695E-3,8.279057E-3,1.4388926E-2,6.5832394E-3,1.7475955E-3,5.4610968E-3,2.4725126E-2,4.2434856E-2,2.2011548E-2,3.4133106E-2,1.5598804E-2,8.388913E-3,3.379796E-2,2.8458273E-2,0E0,0E0,0E0,0E0,0E0,0E0,0E0,0E0,0E0,0E0,0E0,0E0,0E0,0E0,0E0,0E0,0E0,0E0,0E0,0E0,0E0,0E0,0E0,0E0,0E0,0E0,0E0,0E0,0E0,0E0,0E0,0E0],"parents":[2147483647,0,0,2,2,3,3,4,4,5,5,6,6,7,7,8,8,9,9,10,10,11,11,12,12,13,13,14,14,15,15,16,16,17,17,18,18,19,19,20,20,21,21,22,22,23,23,24,24,25,25,26,26,27,27,28,28,29,29,30,30,31,31,32,32],"right_children":[2,-1,4,6,8,10,12,14,16,18,20,22,24,26,28,30,32,34,36,38,40,42,44,46,48,50,52,54,56,58,60,62,64,-1,-1,-1,-1,-1,-1,-1,-1,-1,-1,-1,-1,-1,-1,-1,-1,-1,-1,-1,-1,-1,-1,-1,-1,-1,-1,-1,-1,-1,-1,-1,-1],"split_conditions":[-2.2519822E0,2.0977532E-2,-6.1677235E-1,-1.5184185E-1,-3.556188E-1,-2.431758E-1,3.7070537E-1,-1.6164964E-1,-1.0841596E0,5.9613097E-1,-4.587865E-1,1.6147506E-1,-5.3786373E-1,-4.719242E-1,-1.0642886E0,-1.1786668E-1,6.036513E-1,-1.1837729E0,1.9856405E-1,-2.938214E-1,-5.1046133E-1,-4.1807973E-1,-3.154755E-1,6.3048804E-1,4.560992E-1,3.571919E-1,8.282821E-1,-4.879436E-1,3.0078155E-1,-2.08579E-1,3.0303395E-1,-6.7229795E-1,7.3146415E-1,-9.505643E-3,-2.3973858E-2,7.8157784E-4,-3.202276E-3,8.514283E-3,-4.227775E-3,2.445223E-3,-1.4453718E-2,-5.819983E-4,1.4046756E-2,4.8107347E-3,-7.019424E-3,7.047121E-3,-4.017663E-3,-2.2042554E-2,-8.414735E-3,1.1639655E-2,-1.574508E-2,-1.683285E-2,7.6171863E-3,-1.8012659E-3,1.922587E-2,2.519037E-3,-1.036396E-2,-1.7749727E-3,-3.2754656E-2,1.0968943E-2,-4.3974523E-3,-4.1017905E-3,4.7853542E-3,-1.7487769E-3,-2.3767287E-2],"split_indices":[37,0,50,53,4,49,47,46,42,22,53,4,40,3,4,29,2,26,0,19,21,56,29,3,47,15,20,0,20,0,4,16,42,0,0,0,0,0,0,0,0,0,0,0,0,0,0,0,0,0,0,0,0,0,0,0,0,0,0,0,0,0,0,0,0],"split_type":[0,0,0,0,0,0,0,0,0,0,0,0,0,0,0,0,0,0,0,0,0,0,0,0,0,0,0,0,0,0,0,0,0,0,0,0,0,0,0,0,0,0,0,0,0,0,0,0,0,0,0,0,0,0,0,0,0,0,0,0,0,0,0,0,0],"sum_hessian":[6.57E2,3E0,6.54E2,1.01E2,5.53E2,3.9E1,6.2E1,1.65E2,3.88E2,1.3E1,2.6E1,4.2E1,2E1,6E1,1.05E2,1.9E1,3.69E2,1.1E1,2E0,1.2E1,1.4E1,2.6E1,1.6E1,5E0,1.5E1,1.4E1,4.6E1,2.1E1,8.4E1,8E0,1.1E1,3.18E2,5.1E1,2E0,9E0,1E0,1E0,5E0,7E0,3E0,1.1E1,9E0,1.7E1,6E0,1E1,4E0,1E0,4E0,1.1E1,1.1E1,3E0,3.9E1,7E0,6E0,1.5E1,5.8E1,2.6E1,2E0,6E0,5E0,6E0,4.4E1,2.74E2,4.6E1,5E0],"tree_param":{"num_deleted":"0","num_feature":"60","num_nodes":"65","size_leaf_vector":"0"}},{"base_weights":[-7.736407E-5,-2.6630402E-2,8.398168E-4,-5.221988E-2,-9.5418293E-4,3.2166947E-2,-1.9122053E-5,-5.226042E-4,-7.1541026E-2,-1.2947415E-2,9.462043E-3,-4.383152E-3,6.514294E-2,-5.8769463E-3,5.763903E-3,-1.5147209E-2,9.4013335E-3,-1.1283413E-2,-7.8537345E-2,-1.4917689E-2,-1.548022E-3,2.4249316E-3,1.4133642E-2,5.111662E-3,-1.7529584E-2,2.6782995E-2,9.047429E-2,5.5294046E-3,-1.5235841E-2,1.3381394E-2,-4.921325E-3,5.538028E-4,2.8640404E-3,-2.3546442E-3,7.0758522E-3,2.8596378E-3,9.558657E-2,-2.1224558E-2,2.3962678E-2,1.9584026E-2,-1.16231525E-2,-2.2621159E-2,1.2323609E-2,3.5597123E-3,1.0570206E-2,6.230125E-3,-6.0625143E-2,1.3140996E-1,-5.941808E-3,-2.6476324E-2,4.05018E-2,8.90735E-3,7.6380394E-2,-7.19784E-2,2.1343358E-2,1.0203186E-2,-4.090792E-2,1.1955394E-2,-3.9395317E-2,6.421768E-3,7.125536E-2],"categories":[],"categories_nodes":[],"categories_segments":[],"categories_sizes":[],"default_left":[1,1,1,1,1,1,1,1,1,1,1,1,1,1,1,0,0,0,0,0,0,1,0,1,0,0,0,1,1,1,1,0,0,0,1,1,1,1,1,1,1,1,1,0,0,0,0,0,0,0,0,0,0,0,0,0,0,0,0,0,0],"id":37,"left_children":[1,3,5,7,9,11,13,15,17,19,21,23,25,27,29,-1,-1,-1,-1,-1,-1,31,-1,33,-1,-1,-1,35,37,39,41,-1,-1,-1,43,45,47,49,51,53,55,57,59,-1,-1,-1,-1,-1,-1,-1,-1,-1,-1,-1,-1,-1,-1,-1,-1,-1,-1],"loss_changes":[1.6047258E-2,1.4405075E-2,1.7141066E-2,1.0949971E-2,1.6215995E-3,2.0775223E-2,2.1070834E-2,7.229387E-4,2.4864785E-3,1.11666624E-4,1.9584887E-4,1.2130117E-3,6.322209E-3,3.3070255E-2,2.5542373E-2,0E0,0E0,0E0,0E0,0E0,0E0,1.700404E-6,0E0,1.046526E-4,0E0,0E0,0E0,3.3387087E-2,4.0415905E-2,2.8609827E-2,4.0264226E-2,0E0,0E0,0E0,2.3806264E-5,2.9692229E-2,1.5329175E-2,4.9049832E-2,1.7470472E-2,2.5216311E-2,2.4067026E-2,3.8170513E-2,2.2845402E-2,0E0,0E0,0E0,0E0,0E0,0E0,0E0,0E0,0E0,0E0,0E0,0E0,0E0,0E0,0E0,0E0,0E0,0E0],"parents":[2147483647,0,0,1,1,2,2,3,3,4,4,5,5,6,6,7,7,8,8,9,9,10,10,11,11,12,12,13,13,14,14,21,21,23,23,27,27,28,28,29,29,30,30,34,34,35,35,36,36,37,37,38,38,39,39,40,40,41,41,42,42],"right_children":[2,4,6,8,10,12,14,16,18,20,22,24,26,28,30,-1,-1,-1,-1,-1,-1,32,-1,34,-1,-1,-1,36,38,40,42,-1,-1,-1,44,46,48,50,52,54,56,58,60,-1,-1,-1,-1,-1,-1,-1,-1,-1,-1,-1,-1,-1,-1,-1,-1,-1,-1],"split_conditions":[-1.3315588E0,-6.2111482E-2,-1.2227134E0,-4.2557755E-1,2.7192336E-1,-4.6983153E-2,-1.1938873E-2,-1.2446502E-1,-2.0985217E0,3.1488353E-1,-1.2863642E-1,-2.380032E-1,-1.5031517E0,-4.787306E-1,1.5116735E-1,-4.544163E-3,2.8204E-3,-3.385024E-3,-2.3561204E-2,-4.475307E-3,-4.6440662E-4,-7.1043885E-1,4.240093E-3,-1.5371306E0,-5.2588754E-3,8.034899E-3,2.7142288E-2,1.3961527E0,8.554748E-1,5.4156363E-1,-2.9554866E-2,1.6614085E-4,8.592122E-4,-7.063933E-4,4.4953427E-1,9.4174457E-1,8.4242105E-1,9.3406326E-1,3.9500654E-1,-1.3679485E0,-1.3619138E-1,-2.8475663E-1,7.486336E-1,1.0679137E-3,3.1710619E-3,1.8690376E-3,-1.8187543E-2,3.942299E-2,-1.7825426E-3,-7.942897E-3,1.215054E-2,2.672205E-3,2.2914119E-2,-2.159352E-2,6.4030075E-3,3.060956E-3,-1.2272377E-2,3.5866185E-3,-1.1818596E-2,1.9265305E-3,2.137661E-2],"split_indices":[28,49,0,48,21,26,30,1,0,5,0,5,0,30,23,0,0,0,0,0,0,1,0,0,0,0,0,26,48,3,59,0,0,0,1,26,1,31,40,41,59,29,57,0,0,0,0,0,0,0,0,0,0,0,0,0,0,0,0,0,0],"split_type":[0,0,0,0,0,0,0,0,0,0,0,0,0,0,0,0,0,0,0,0,0,0,0,0,0,0,0,0,0,0,0,0,0,0,0,0,0,0,0,0,0,0,0,0,0,0,0,0,0,0,0,0,0,0,0,0,0,0,0,0,0],"sum_hessian":[6.57E2,2.1E1,6.36E2,1E1,1.1E1,1.6E1,6.2E2,3E0,7E0,5E0,6E0,8E0,8E0,3.08E2,3.12E2,1E0,2E0,1E0,6E0,4E0,1E0,3E0,3E0,5E0,3E0,4E0,4E0,1.39E2,1.69E2,1.82E2,1.3E2,1E0,2E0,1E0,4E0,1.36E2,3E0,1.47E2,2.2E1,1.46E2,3.6E1,6.4E1,6.6E1,3E0,1E0,1.3E2,6E0,2E0,1E0,1.36E2,1.1E1,1.8E1,4E0,2E0,1.44E2,2.1E1,1.5E1,2.1E1,4.3E1,6.1E1,5E0],"tree_param":{"num_deleted":"0","num_feature":"60","num_nodes":"61","size_leaf_vector":"0"}},{"base_weights":[1.7111659E-5,8.517477E-2,-2.4214623E-4,-2.3090301E-2,5.858061E-4,-4.8512414E-2,1.9689277E-4,4.9715484E-3,-5.3998935E-3,-6.700381E-2,-1.2921977E-2,-1.7242095E-2,4.3745138E-2,-7.167747E-3,1.1502919E-2,1.6317498E-2,-1.1712626E-2,-7.2309345E-2,-1.7585292E-2,5.714774E-3,-1.9009858E-2,-2.9204285E-2,5.6095346E-4,-4.7934473E-2,-1.3832265E-3,1.8870253E-2,-1.8235039E-3,6.682267E-3,7.124525E-2,1.4505907E-2,-1.8995186E-2,-3.2984845E-2,-5.1507354E-3,5.613774E-3,-2.1056952E-3,-9.600458E-2,-9.491945E-3,1.5122999E-2,-1.12219E-2,4.387685E-3,2.7818503E-2,8.61027E-3,-2.913618E-2,2.630208E-2,-8.089927E-3,2.1375448E-2,9.261758E-2,-2.634797E-3,5.3872857E-2,-3.4720603E-2,-8.050308E-3],"categories":[],"categories_nodes":[],"categories_segments":[],"categories_sizes":[],"default_left":[1,0,1,1,1,1,1,1,1,1,1,1,0,1,1,1,1,0,0,0,0,1,1,1,1,1,1,1,1,1,1,0,0,0,0,0,0,0,0,0,0,0,0,0,0,0,0,0,0,0,0],"id":38,"left_children":[1,-1,3,5,7,9,11,13,15,17,19,21,-1,23,25,27,29,-1,-1,-1,-1,31,33,35,37,39,41,43,45,47,49,-1,-1,-1,-1,-1,-1,-1,-1,-1,-1,-1,-1,-1,-1,-1,-1,-1,-1,-1,-1],"loss_changes":[1.4547813E-2,0E0,1.2442115E-2,1.36257745E-2,1.6696697E-2,6.3734613E-3,1.0626942E-2,2.9180497E-2,3.706996E-2,5.6375936E-4,6.759287E-4,2.1460168E-3,0E0,3.0353952E-2,2.3499481E-2,3.1807654E-2,4.018159E-2,0E0,0E0,0E0,0E0,3.7571928E-4,7.9191384E-5,2.8655715E-2,1.8683236E-2,1.9835364E-2,2.475866E-2,1.557365E-2,7.612761E-3,3.1181697E-2,2.7946979E-2,0E0,0E0,0E0,0E0,0E0,0E0,0E0,0E0,0E0,0E0,0E0,0E0,0E0,0E0,0E0,0E0,0E0,0E0,0E0,0E0],"parents":[2147483647,0,0,2,2,3,3,4,4,5,5,6,6,7,7,8,8,9,9,10,10,11,11,13,13,14,14,15,15,16,16,21,21,22,22,23,23,24,24,25,25,26,26,27,27,28,28,29,29,30,30],"right_children":[2,-1,4,6,8,10,12,14,16,18,20,22,-1,24,26,28,30,-1,-1,-1,-1,32,34,36,38,40,42,44,46,48,50,-1,-1,-1,-1,-1,-1,-1,-1,-1,-1,-1,-1,-1,-1,-1,-1,-1,-1,-1,-1],"split_conditions":[-2.8997092E0,2.5552431E-2,-1.2696981E0,-9.329261E-2,1.5349689E-1,1.5659365E-1,6.366899E-1,-2.3870063E-1,-4.7969297E-1,7.266468E-1,5.495783E-1,1.471326E-1,1.3123542E-2,-6.907344E-1,2.640909E-1,5.3477716E-1,-4.5447597E-1,-2.1692805E-2,-5.275588E-3,1.7144323E-3,-5.7029575E-3,2.9124054E-1,-8.660811E-1,-1.1754201E-1,-1.3575126E-1,-1.6993561E-1,3.6435503E-1,1.13410965E-1,-4.3543038E-1,2.4208918E-1,-1.6191123E-1,-9.895454E-3,-1.5452207E-3,1.6841323E-3,-6.317086E-4,-2.8801376E-2,-2.8475835E-3,4.5369E-3,-3.36657E-3,1.3163056E-3,8.345551E-3,2.5830811E-3,-8.740854E-3,7.890625E-3,-2.4269782E-3,6.4126346E-3,2.7785275E-2,-7.9043914E-4,1.6161857E-2,-1.0416182E-2,-2.4150924E-3],"split_indices":[35,0,3,59,31,41,43,42,40,1,0,38,0,58,26,5,21,0,0,0,0,10,0,47,28,21,3,45,41,33,18,0,0,0,0,0,0,0,0,0,0,0,0,0,0,0,0,0,0,0,0],"split_type":[0,0,0,0,0,0,0,0,0,0,0,0,0,0,0,0,0,0,0,0,0,0,0,0,0,0,0,0,0,0,0,0,0,0,0,0,0,0,0,0,0,0,0,0,0,0,0,0,0,0,0],"sum_hessian":[6.57E2,1E0,6.56E2,2.2E1,6.34E2,1E1,1.2E1,3.66E2,2.68E2,6E0,4E0,9E0,3E0,1.28E2,2.38E2,6E1,2.08E2,5E0,1E0,1E0,3E0,5E0,4E0,1.5E1,1.13E2,1.53E2,8.5E1,5.2E1,8E0,4.5E1,1.63E2,4E0,1E0,1E0,3E0,6E0,9E0,4.2E1,7.1E1,5.9E1,9.4E1,6.2E1,2.3E1,2.2E1,3E1,3E0,5E0,3.2E1,1.3E1,6.6E1,9.7E1],"tree_param":{"num_deleted":"0","num_feature":"60","num_nodes":"51","size_leaf_vector":"0"}},{"base_weights":[3.106478E-5,2.6901253E-2,-5.9484184E-4,4.35159E-2,1.6965291E-3,2.5131479E-2,-1.2483018E-3,5.3755272E-2,1.727786E-2,-1.039974E-2,1.3368666E-2,-2.7061775E-3,3.176372E-2,-2.8746719E-2,-5.7557895E-4,-1.277623E-2,-1.6351342E-3,4.1400692E-3,-1.1622459E-2,8.941298E-3,3.7716318E-2,-5.379529E-2,7.565261E-3,2.1679623E-2,-1.7539306E-3,6.5646917E-3,-3.5458803E-4,1.1357265E-3,1.11645805E-2,-5.9943583E-2,-2.1517506E-2,-5.682497E-3,4.3525904E-2,4.2622536E-2,1.9253084E-3,-2.3421414E-2,4.0391288E-4,1.9509792E-3,-9.98698E-3,4.0153167E-3,6.152462E-2,3.2939684E-2,-1.0151398E-2,-5.018999E-2,6.3071093E-3,-2.536199E-2,1.5102527E-3],"categories":[],"categories_nodes":[],"categories_segments":[],"categories_sizes":[],"default_left":[1,1,1,1,1,1,1,0,0,1,0,1,1,1,1,0,0,1,0,1,0,1,1,1,1,0,0,0,0,0,0,1,0,1,1,1,1,0,0,0,0,0,0,0,0,0,0],"id":39,"left_children":[1,3,5,7,9,11,13,-1,-1,15,-1,17,19,21,23,-1,-1,25,-1,27,-1,29,31,33,35,-1,-1,-1,-1,-1,-1,37,-1,39,41,43,45,-1,-1,-1,-1,-1,-1,-1,-1,-1,-1],"loss_changes":[1.1082397E-2,6.207688E-3,1.0857732E-2,1.4891736E-3,1.1273557E-3,3.0399757E-3,1.16192065E-2,0E0,0E0,6.2425155E-5,0E0,2.9229E-4,1.4288519E-3,1.4050424E-2,1.6166063E-2,0E0,0E0,3.50213E-5,0E0,5.6736055E-5,0E0,4.9624406E-4,3.5821209E-3,1.2743039E-2,2.7361156E-2,0E0,0E0,0E0,0E0,0E0,0E0,2.1663337E-4,0E0,1.0699313E-2,6.70176E-3,4.2493433E-2,1.5231919E-2,0E0,0E0,0E0,0E0,0E0,0E0,0E0,0E0,0E0,0E0],"parents":[2147483647,0,0,1,1,2,2,3,3,4,4,5,5,6,6,9,9,11,11,12,12,13,13,14,14,17,17,19,19,21,21,22,22,23,23,24,24,31,31,33,33,34,34,35,35,36,36],"right_children":[2,4,6,8,10,12,14,-1,-1,16,-1,18,20,22,24,-1,-1,26,-1,28,-1,30,32,34,36,-1,-1,-1,-1,-1,-1,38,-1,40,42,44,46,-1,-1,-1,-1,-1,-1,-1,-1,-1,-1],"split_conditions":[-1.4720726E0,2.8253984E-1,-1.2269375E0,-1.4093329E-1,4.6644434E-3,-9.174125E-1,-1.3751466E0,1.6126582E-2,5.1833577E-3,-1.540116E-1,4.0106E-3,3.5763222E-1,-5.803791E-1,1.3139325E-1,-1.1614914E0,-3.8328692E-3,-4.905403E-4,-8.8261366E-2,-3.4867378E-3,-2.4632674E-1,1.1314896E-2,5.299153E-1,-1.518614E0,2.3747329E-2,-6.461651E-1,1.9694075E-3,-1.06376414E-4,3.4071796E-4,3.3493743E-3,-1.7983075E-2,-6.455252E-3,-2.8712943E-1,1.3057772E-2,-5.6157625E-1,-4.8223764E-1,9.9549964E-2,-1.222347E0,5.852938E-4,-2.996094E-3,1.2045951E-3,1.8457387E-2,9.881905E-3,-3.0454197E-3,-1.5056998E-2,1.8921328E-3,-7.6085976E-3,4.5307583E-4],"split_indices":[43,26,52,16,2,49,5,0,0,2,0,0,18,47,58,0,0,0,0,1,0,0,5,24,58,0,0,0,0,0,0,3,0,13,23,48,27,0,0,0,0,0,0,0,0,0,0],"split_type":[0,0,0,0,0,0,0,0,0,0,0,0,0,0,0,0,0,0,0,0,0,0,0,0,0,0,0,0,0,0,0,0,0,0,0,0,0,0,0,0,0,0,0,0,0,0,0],"sum_hessian":[6.57E2,1.4E1,6.43E2,8E0,6E0,1.5E1,6.28E2,5E0,3E0,3E0,3E0,3E0,1.2E1,1.4E1,6.14E2,2E0,1E0,2E0,1E0,3E0,9E0,8E0,6E0,3E1,5.84E2,1E0,1E0,1E0,2E0,6E0,2E0,5E0,1E0,1.4E1,1.6E1,5.2E1,5.32E2,2E0,3E0,5E0,9E0,4E0,1.2E1,2.7E1,2.5E1,2.1E1,5.11E2],"tree_param":{"num_deleted":"0","num_feature":"60","num_nodes":"47","size_leaf_vector":"0"}},{"base_weights":[6.2422296E-5,-7.287109E-2,2.843471E-4,3.3605364E-3,-5.181307E-3,1.0476849E-2,-3.377734E-3,-7.4290507E-3,4.1674983E-2,1.6193042E-2,-1.4268815E-2,-5.7194075E-3,4.099537E-2,-1.2443155E-2,8.104074E-3,1.7610868E-2,7.938446E-2,-2.4341368E-3,2.4174178E-2,-2.8066473E-2,5.2379486E-3,-6.418011E-2,-4.2513143E-3,1.8555954E-2,7.562536E-2,-1.7614901E-2,1.4783499E-2,-6.8353508E-3,3.755639E-2,1.900208E-3,3.2846477E-2,5.1451392E-2,-1.3655895E-2,-8.846896E-3,3.1489693E-2,-4.3149773E-2,-1.3144721E-2,-2.2805631E-2,2.2607686E-2,-8.3550654E-2,-2.34162E-2,-3.233635E-3,-7.101872E-2,-2.7484138E-2,-2.33718E-3,3.7276797E-2,-1.4037751E-2,-2.9007953E-2,1.457039E-2,4.9922237E-4,5.9131473E-2,-4.0508807E-3,4.4007003E-3],"categories":[],"categories_nodes":[],"categories_segments":[],"categories_sizes":[],"default_left":[1,0,1,1,1,1,1,1,1,1,1,1,1,1,1,1,0,1,1,1,1,1,1,0,0,1,1,1,1,1,0,0,0,0,0,0,0,0,0,0,0,0,0,0,0,0,0,0,0,0,0,0,0],"id":40,"left_children":[1,-1,3,5,7,9,11,13,15,17,19,21,23,25,27,29,-1,31,33,35,37,39,41,-1,-1,43,45,47,49,51,-1,-1,-1,-1,-1,-1,-1,-1,-1,-1,-1,-1,-1,-1,-1,-1,-1,-1,-1,-1,-1,-1,-1],"loss_changes":[1.0670948E-2,0E0,1.1063807E-2,2.0223029E-2,2.5270665E-2,2.9228501E-2,2.2782357E-2,1.7780669E-2,8.583868E-3,2.4886072E-2,1.064377E-2,1.7493084E-2,7.1445443E-3,2.4479615E-2,2.4896748E-2,1.8524765E-3,0E0,3.1541824E-2,2.8541833E-2,4.6094023E-3,8.796446E-3,1.9916575E-3,1.3563755E-2,0E0,0E0,2.179879E-2,1.867526E-2,1.8458256E-2,1.5161198E-2,9.222997E-5,0E0,0E0,0E0,0E0,0E0,0E0,0E0,0E0,0E0,0E0,0E0,0E0,0E0,0E0,0E0,0E0,0E0,0E0,0E0,0E0,0E0,0E0,0E0],"parents":[2147483647,0,0,2,2,3,3,4,4,5,5,6,6,7,7,8,8,9,9,10,10,11,11,12,12,13,13,14,14,15,15,17,17,18,18,19,19,20,20,21,21,22,22,25,25,26,26,27,27,28,28,29,29],"right_children":[2,-1,4,6,8,10,12,14,16,18,20,22,24,26,28,30,-1,32,34,36,38,40,42,-1,-1,44,46,48,50,52,-1,-1,-1,-1,-1,-1,-1,-1,-1,-1,-1,-1,-1,-1,-1,-1,-1,-1,-1,-1,-1,-1,-1],"split_conditions":[-2.8997092E0,-2.1861328E-2,1.9928025E-1,-2.4953231E-2,1.2996497E0,5.532388E-1,1.1222976E0,3.855462E-1,2.2017112E-1,-3.692693E-1,1.4793338E-1,-1.5371306E0,5.6796867E-1,6.761986E-1,9.643631E-2,-6.1420508E-2,2.381534E-2,-6.603642E-1,-6.507722E-1,-2.9721838E-1,-2.2838423E-1,-2.6426211E-2,1.3582082E0,5.5667865E-3,2.2687608E-2,-1.2059817E-2,4.56621E-2,2.4431959E-2,2.4157926E-1,-5.5491483E-1,9.853943E-3,1.5435418E-2,-4.096769E-3,-2.6540689E-3,9.446908E-3,-1.2944932E-2,-3.9434168E-3,-6.84169E-3,6.782306E-3,-2.5065197E-2,-7.0248605E-3,-9.7009056E-4,-2.1305617E-2,-8.245242E-3,-7.0115406E-4,1.1183039E-2,-4.211325E-3,-8.702386E-3,4.3711173E-3,1.4976671E-4,1.7739443E-2,-1.2152642E-3,1.3202102E-3],"split_indices":[32,0,3,18,4,35,9,18,14,52,50,20,57,53,59,1,0,41,41,22,12,2,37,0,0,5,7,55,14,1,0,0,0,0,0,0,0,0,0,0,0,0,0,0,0,0,0,0,0,0,0,0,0],"split_type":[0,0,0,0,0,0,0,0,0,0,0,0,0,0,0,0,0,0,0,0,0,0,0,0,0,0,0,0,0,0,0,0,0,0,0,0,0,0,0,0,0,0,0,0,0,0,0,0,0,0,0,0,0],"sum_hessian":[6.57E2,1E0,6.56E2,4.2E2,2.36E2,2.04E2,2.16E2,2.26E2,1E1,1.66E2,3.8E1,2.06E2,1E1,1.71E2,5.5E1,7E0,3E0,5E1,1.16E2,2.2E1,1.6E1,4E0,2.02E2,7E0,3E0,1.44E2,2.7E1,3.7E1,1.8E1,4E0,3E0,8E0,4.2E1,2.1E1,9.5E1,1E1,1.2E1,6E0,1E1,2E0,2E0,2E2,2E0,8.7E1,5.7E1,1.5E1,1.2E1,1.8E1,1.9E1,7E0,1.1E1,1E0,3E0],"tree_param":{"num_deleted":"0","num_feature":"60","num_nodes":"53","size_leaf_vector":"0"}},{"base_weights":[4.152051E-5,8.269333E-3,-1.80905E-3,2.5332582E-3,3.710985E-2,-1.2947058E-2,7.939629E-5,1.0275099E-4,6.2055E-2,6.450509E-2,1.3470931E-2,5.2886194E-4,-4.727344E-2,1.5883068E-2,-2.5547496E-3,5.2469354E-3,-2.3337577E-2,6.436914E-3,7.0959E-2,-3.9318323E-2,2.1844348E-2,-2.9601432E-2,1.102713E-2,-5.5194993E-2,2.1722876E-3,-2.0421892E-2,2.5173377E-2,5.6170143E-2,-3.2972742E-3,1.7215537E-2,-6.008669E-3,-6.8326E-3,-7.9396844E-2,4.3193847E-3,2.7876284E-2,-4.454471E-2,2.2628762E-2,-4.3061725E-3,5.6024574E-2,-2.2961969E-2,-6.2259667E-2,8.4741935E-3,-2.753079E-3,-5.1810812E-2,9.5961485E-3,3.9938893E-2,7.7169284E-4,1.2924138E-2,6.375061E-2,-7.780604E-3,5.7982104E-3,3.8737895E-3,3.0363595E-2,-4.046564E-2,3.023372E-3,-2.7051883E-2,1.42407585E-2,3.0086262E-2,6.2032193E-3,-5.9158776E-2,-1.2253265E-2,2.9162854E-2,1.5132427E-3,2.225288E-2,-1.8597193E-2,1.5383989E-2,6.934179E-2,-7.491981E-2,-3.0782813E-2,-2.9930472E-4,-3.8303137E-3,-2.8983206E-3,-5.947984E-2,2.9601235E-2,-8.327151E-3,5.779034E-2,1.1584049E-2,-2.1477653E-2,2.2950886E-2,-1.2103285E-2,1.1833556E-2,4.8502434E-2,2.2210167E-3],"categories":[],"categories_nodes":[],"categories_segments":[],"categories_sizes":[],"default_left":[1,1,1,1,1,1,1,1,0,1,1,1,1,1,1,1,1,0,0,0,1,1,1,1,1,1,1,1,1,1,1,1,0,0,1,1,1,1,1,0,1,0,1,1,1,1,1,0,0,1,1,0,0,0,0,0,0,0,0,0,0,0,0,0,0,0,0,0,0,0,0,0,0,0,0,0,0,0,0,0,0,0,0],"id":41,"left_children":[1,3,5,7,9,11,13,15,-1,17,19,21,23,25,27,29,31,-1,-1,-1,33,35,37,39,41,43,45,47,49,51,53,55,-1,-1,57,59,61,63,65,-1,67,-1,69,71,73,75,77,-1,-1,79,81,-1,-1,-1,-1,-1,-1,-1,-1,-1,-1,-1,-1,-1,-1,-1,-1,-1,-1,-1,-1,-1,-1,-1,-1,-1,-1,-1,-1,-1,-1,-1,-1],"loss_changes":[1.0033765E-2,1.9923188E-2,1.1317067E-2,1.4749763E-2,1.2082936E-2,3.610621E-2,1.9231629E-2,1.2060007E-2,0E0,2.916146E-3,6.1631994E-3,1.8356426E-2,8.737013E-3,2.2774853E-2,1.7452665E-2,1.1149978E-2,1.6112138E-2,0E0,0E0,0E0,1.0423958E-3,1.2715345E-2,2.9909508E-2,2.896998E-3,1.474869E-4,1.3688458E-2,1.906526E-2,8.152034E-4,1.6030112E-2,6.8991007E-3,1.3504664E-2,6.776563E-3,0E0,5.0556264E-7,1.9654445E-4,4.938025E-3,5.077524E-4,1.2939189E-2,4.8866607E-3,0E0,3.6712773E-3,0E0,6.7834408E-6,2.4533886E-3,3.114951E-3,1.6034327E-2,1.0855854E-2,0E0,0E0,2.2441877E-2,1.9751241E-2,0E0,0E0,0E0,0E0,0E0,0E0,0E0,0E0,0E0,0E0,0E0,0E0,0E0,0E0,0E0,0E0,0E0,0E0,0E0,0E0,0E0,0E0,0E0,0E0,0E0,0E0,0E0,0E0,0E0,0E0,0E0,0E0],"parents":[2147483647,0,0,1,1,2,2,3,3,4,4,5,5,6,6,7,7,9,9,10,10,11,11,12,12,13,13,14,14,15,15,16,16,20,20,21,21,22,22,23,23,24,24,25,25,26,26,27,27,28,28,29,29,30,30,31,31,34,34,35,35,36,36,37,37,38,38,40,40,42,42,43,43,44,44,45,45,46,46,49,49,50,50],"right_children":[2,4,6,8,10,12,14,16,-1,18,20,22,24,26,28,30,32,-1,-1,-1,34,36,38,40,42,44,46,48,50,52,54,56,-1,-1,58,60,62,64,66,-1,68,-1,70,72,74,76,78,-1,-1,80,82,-1,-1,-1,-1,-1,-1,-1,-1,-1,-1,-1,-1,-1,-1,-1,-1,-1,-1,-1,-1,-1,-1,-1,-1,-1,-1,-1,-1,-1,-1,-1,-1],"split_conditions":[-5.4382384E-1,5.562087E-1,-6.251445E-1,1.635274E0,1.3900614E-1,3.643606E-1,-3.9578488E-1,4.7307286E-1,1.8616501E-2,-2.3799643E-1,2.2470234E-1,-3.1360325E-1,6.3694346E-1,-4.5810407E-1,-1.587192E0,-5.8984354E-2,2.5327486E-1,1.9310743E-3,2.1287702E-2,-1.17954975E-2,-6.249454E-1,2.5785446E-1,1.674452E-1,-6.2302274E-1,2.5418967E-1,-2.0096397E-1,1.5135235E-1,-2.6044822E-1,2.721479E-1,-1.209775E-2,1.408888E-1,-6.2288024E-2,-2.3819054E-2,1.2958155E-3,5.63345E-1,4.6722683E-1,7.392302E-1,-2.0286962E-1,-3.402723E-1,-6.8885908E-3,2.2128451E-1,2.5422582E-3,1.3349235E-2,-4.1343647E-1,-1.2945054E-1,3.811139E-1,1.4172003E-1,3.8772416E-3,1.9125184E-2,5.80482E-1,3.2488793E-1,1.1621369E-3,9.109079E-3,-1.2139693E-2,9.070116E-4,-8.115565E-3,4.2722276E-3,9.025879E-3,1.8609659E-3,-1.7747633E-2,-3.6759796E-3,8.748856E-3,4.5397284E-4,6.675864E-3,-5.579158E-3,4.615197E-3,2.0802539E-2,-2.2475945E-2,-9.234845E-3,-8.979142E-5,-1.1490942E-3,-8.694962E-4,-1.7843952E-2,8.880371E-3,-2.4981452E-3,1.7337102E-2,3.4752148E-3,-6.443296E-3,6.885266E-3,-3.6309855E-3,3.5500668E-3,1.4550731E-2,6.66305E-4],"split_indices":[20,27,55,55,2,4,55,51,0,9,2,39,27,46,18,4,53,0,0,0,49,45,2,50,1,23,11,2,51,32,4,4,0,0,0,32,0,29,40,0,51,0,0,3,49,57,15,0,0,49,51,0,0,0,0,0,0,0,0,0,0,0,0,0,0,0,0,0,0,0,0,0,0,0,0,0,0,0,0,0,0,0,0],"split_type":[0,0,0,0,0,0,0,0,0,0,0,0,0,0,0,0,0,0,0,0,0,0,0,0,0,0,0,0,0,0,0,0,0,0,0,0,0,0,0,0,0,0,0,0,0,0,0,0,0,0,0,0,0,0,0,0,0,0,0,0,0,0,0,0,0,0,0,0,0,0,0,0,0,0,0,0,0,0,0,0,0,0,0],"sum_hessian":[6.57E2,1.2E2,5.37E2,1.01E2,1.9E1,7.7E1,4.6E2,9.8E1,3E0,8E0,1.1E1,5.6E1,2.1E1,6.5E1,3.95E2,8.1E1,1.7E1,1E0,7E0,1E0,1E1,1.4E1,4.2E1,1.8E1,3E0,1.3E1,5.2E1,4E0,3.91E2,3.9E1,4.2E1,1.4E1,3E0,3E0,7E0,1.1E1,3E0,3.2E1,1E1,4E0,1.4E1,1E0,2E0,6E0,7E0,3.2E1,2E1,1E0,3E0,2.62E2,1.29E2,2E1,1.9E1,8E0,3.4E1,7E0,7E0,6E0,1E0,7E0,4E0,2E0,1E0,1.1E1,2.1E1,3E0,7E0,9E0,5E0,1E0,1E0,1E0,5E0,3E0,4E0,1.9E1,1.3E1,1E1,1E1,2.15E2,4.7E1,9E0,1.2E2],"tree_param":{"num_deleted":"0","num_feature":"60","num_nodes":"83","size_leaf_vector":"0"}},{"base_weights":[8.629854E-5,-4.585529E-2,3.6672613E-4,1.3336152E-2,-7.003116E-2,-1.8595686E-2,1.0241494E-3,-3.5046063E-2,-1.9665333E-3,1.2600847E-3,-7.4161455E-2,-4.3025244E-2,5.735035E-4,-6.2973853E-3,8.269518E-3,3.7209686E-2,8.5672375E-4,-8.453995E-3,-4.62899E-2,-9.366479E-4,-8.821647E-3,5.872225E-2,6.3946983E-3,-1.8346865E-3,6.096529E-3,-1.850841E-3,9.0296566E-4,1.1468587E-2,8.805394E-4,-3.818667E-2,-9.347985E-4,-6.7683816E-2,6.7638126E-3],"categories":[],"categories_nodes":[],"categories_segments":[],"categories_sizes":[],"default_left":[1,1,1,0,0,1,1,1,1,1,0,1,0,1,0,1,1,0,0,1,0,0,1,1,1,0,0,0,0,0,0,0,0],"id":42,"left_children":[1,3,5,-1,-1,7,9,11,13,15,-1,17,-1,19,-1,21,23,-1,-1,25,-1,-1,27,29,31,-1,-1,-1,-1,-1,-1,-1,-1],"loss_changes":[8.494021E-3,6.6579636E-3,8.184491E-3,0E0,0E0,5.949308E-3,1.1339937E-2,3.1510415E-3,5.840462E-4,9.1470415E-3,0E0,6.2443316E-4,2.801629E-7,1.1352432E-4,0E0,4.264855E-3,8.853431E-3,0E0,0E0,8.398293E-6,0E0,0E0,1.0181438E-4,1.3540078E-2,1.0944309E-2,0E0,0E0,0E0,0E0,0E0,0E0,0E0,0E0],"parents":[2147483647,0,0,1,1,2,2,5,5,6,6,7,7,8,8,9,9,11,11,13,13,15,15,16,16,19,19,22,22,23,23,24,24],"right_children":[2,4,6,-1,-1,8,10,12,14,16,-1,18,-1,20,-1,22,24,-1,-1,26,-1,-1,28,30,32,-1,-1,-1,-1,-1,-1,-1,-1],"split_conditions":[-2.2519822E0,-2.2471431E-1,-1.3315588E0,4.000846E-3,-2.1009348E-2,-6.2111482E-2,2.1684756E0,8.622026E-1,4.0001985E-1,-1.561803E0,-2.2248438E-2,-2.0985217E0,1.7205105E-4,-5.5414486E-1,2.4808554E-3,3.279855E-1,2.4947007E-1,-2.5361986E-3,-1.38869705E-2,1.2655559E-1,-2.6464942E-3,1.7616676E-2,3.5515314E-1,-1.2444894E0,-2.002507E0,-5.552523E-4,2.7088972E-4,3.4405764E-3,2.6416185E-4,-1.1456002E-2,-2.8043956E-4,-2.0305146E-2,2.029144E-3],"split_indices":[7,1,28,0,0,49,12,18,0,23,0,0,0,11,0,0,59,0,0,0,0,0,0,32,26,0,0,0,0,0,0,0,0],"split_type":[0,0,0,0,0,0,0,0,0,0,0,0,0,0,0,0,0,0,0,0,0,0,0,0,0,0,0,0,0,0,0,0,0],"sum_hessian":[6.57E2,3E0,6.54E2,1E0,2E0,2.1E1,6.33E2,1E1,1.1E1,6.32E2,1E0,8E0,2E0,8E0,3E0,6E0,6.26E2,1E0,7E0,3E0,5E0,3E0,3E0,4.14E2,2.12E2,2E0,1E0,1E0,2E0,9E0,4.05E2,1E0,2.11E2],"tree_param":{"num_deleted":"0","num_feature":"60","num_nodes":"33","size_leaf_vector":"0"}},{"base_weights":[-3.784563E-5,-3.8342524E-4,3.2155834E-2,-1.9035146E-4,-6.303723E-2,5.313374E-2,3.1389687E-3,1.6734004E-2,-8.3683897E-4,-1.6715601E-3,8.785278E-3,-2.9652093E-3,4.989549E-2,-1.8723262E-3,1.1714306E-2,-1.8816441E-5,-2.4885237E-3,-2.1988211E-2,2.463411E-2,7.0220135E-2,1.9591749E-2,-8.492867E-3,7.518023E-4,-2.400211E-2,2.0571994E-2,-2.442753E-3,-4.104512E-2,1.0343902E-2,3.276579E-2,-1.189025E-2,1.8239139E-2,-1.8171759E-3,1.6067509E-2,2.4916972E-3,-6.4365745E-2,-2.1404449E-2,2.7374543E-2],"categories":[],"categories_nodes":[],"categories_segments":[],"categories_sizes":[],"default_left":[1,1,1,1,0,0,1,1,1,1,0,1,1,1,1,0,0,1,1,0,0,1,1,1,1,0,0,0,0,0,0,0,0,0,0,0,0],"id":43,"left_children":[1,3,5,7,-1,-1,9,11,13,15,-1,17,19,21,23,-1,-1,25,27,-1,-1,29,31,33,35,-1,-1,-1,-1,-1,-1,-1,-1,-1,-1,-1,-1],"loss_changes":[7.332895E-3,7.87512E-3,4.0942067E-3,7.136845E-3,0E0,0E0,1.2333205E-4,1.5826076E-2,8.183767E-3,4.0038694E-6,0E0,8.942011E-3,4.1674804E-3,1.0100185E-2,1.5679287E-2,0E0,0E0,3.6244965E-3,4.744972E-4,0E0,0E0,1.5201979E-2,1.643636E-2,1.0854244E-2,1.1722263E-2,0E0,0E0,0E0,0E0,0E0,0E0,0E0,0E0,0E0,0E0,0E0,0E0],"parents":[2147483647,0,0,1,1,2,2,3,3,6,6,7,7,8,8,9,9,11,11,12,12,13,13,14,14,17,17,18,18,21,21,22,22,23,23,24,24],"right_children":[2,4,6,8,-1,-1,10,12,14,16,-1,18,20,22,24,-1,-1,26,28,-1,-1,30,32,34,36,-1,-1,-1,-1,-1,-1,-1,-1,-1,-1,-1,-1],"split_conditions":[1.6736261E0,2.1684756E0,-1.9774798E-1,-1.2651558E0,-1.891117E-2,1.5940122E-2,2.2606823E-1,1.4910147E-1,9.680197E-1,2.2395529E-2,2.6355833E-3,1.934832E-1,8.468822E-3,-3.1790674E-1,-5.313828E-1,-5.6449326E-6,-7.4655714E-4,1.5800057E-1,3.3372307E-1,2.1066042E-2,5.877525E-3,8.230784E-1,6.4780354E-1,2.010425E-1,-6.6163814E-1,-7.328259E-4,-1.2313537E-2,3.1031708E-3,9.829737E-3,-3.5670751E-3,5.471742E-3,-5.451528E-4,4.820253E-3,7.475092E-4,-1.9309724E-2,-6.421335E-3,8.212363E-3],"split_indices":[14,12,5,37,0,0,0,43,20,0,0,28,27,37,47,0,0,26,0,0,0,12,6,38,36,0,0,0,0,0,0,0,0,0,0,0,0],"split_type":[0,0,0,0,0,0,0,0,0,0,0,0,0,0,0,0,0,0,0,0,0,0,0,0,0,0,0,0,0,0,0,0,0,0,0,0,0],"sum_hessian":[6.57E2,6.51E2,6E0,6.5E2,1E0,3E0,3E0,2.3E1,6.27E2,2E0,1E0,1.5E1,8E0,5.8E2,4.7E1,1E0,1E0,9E0,6E0,4E0,4E0,1.64E2,4.16E2,9E0,3.8E1,5E0,4E0,3E0,3E0,1.46E2,1.8E1,3.57E2,5.9E1,6E0,3E0,5E0,3.3E1],"tree_param":{"num_deleted":"0","num_feature":"60","num_nodes":"37","size_leaf_vector":"0"}},{"base_weights":[-3.4658785E-6,-2.5322444E-3,4.4113747E-3,-3.3701427E-4,-1.4060364E-2,6.7776786E-3,-1.8208873E-2,-2.1451374E-3,2.83507E-2,-2.3136798E-2,1.894706E-2,1.6438277E-2,9.4595016E-4,-6.4438377E-3,-5.0469164E-2,5.8870753E-3,-7.449312E-3,-1.099136E-2,4.1332055E-2,-4.3712318E-2,-1.0353056E-2,4.203657E-2,-6.510834E-3,9.063608E-3,5.16107E-2,1.3782015E-2,-5.910462E-3,-1.3622124E-2,1.4944131E-2,1.0305636E-2,-2.1166688E-2,1.4189539E-2,-1.0603635E-2,-2.2541009E-2,8.071958E-3,7.2918106E-3,5.6142E-2,-6.1830685E-2,-1.4697571E-2,-4.8616454E-2,-2.0794896E-3,4.8264947E-2,-7.810369E-4,1.08497515E-2,-1.9097136E-2,1.4382857E-2,-2.7996149E-2,1.7131776E-2,6.886213E-2,9.7373803E-4,2.887481E-2,1.9458273E-2,-1.1243653E-2,-2.1510657E-2,-2.6606384E-3,2.2965005E-2,1.9418796E-3,5.324547E-3,3.5193E-2,5.779199E-3,-4.128908E-2,-1.1359748E-2,4.0612653E-2,-4.9935747E-3,-2.6349597E-2,-5.4707974E-3,-2.640748E-2,-1.625667E-3,1.2156966E-2,1.974006E-2,6.732522E-2,-7.1738906E-2,-2.407952E-2,-2.1603856E-2,2.0276353E-2,4.6570394E-3,-6.0202558E-2,-8.048705E-3,3.724028E-2,2.211392E-3,1.2992074E-2,-3.1866953E-3,-2.2278072E-2,3.426682E-3,3.5088588E-2,-5.559187E-2,-1.216996E-2,-2.2462523E-3,2.1456633E-2,8.090365E-2,1.7811203E-2,-8.795444E-3,1.8460892E-2,6.462751E-3,3.890292E-2,2.7070431E-2,-1.0145806E-2,-4.287523E-3,-3.4724124E-2,-1.6475195E-3,-2.7857117E-2,1.1135092E-3,-4.392999E-3,-1.1195242E-3,4.0323436E-3],"categories":[],"categories_nodes":[],"categories_segments":[],"categories_sizes":[],"default_left":[1,1,1,1,1,1,1,1,1,1,1,1,1,1,0,1,1,1,1,1,1,1,1,1,1,1,1,1,1,1,1,1,1,1,0,1,1,1,1,1,1,0,0,1,1,1,1,1,1,1,1,1,1,1,1,0,1,0,0,0,0,0,0,0,0,0,0,0,0,0,0,0,0,0,0,0,0,0,0,0,0,0,0,0,0,0,0,0,0,0,0,0,0,0,0,0,0,0,0,0,0,0,0,0,0],"id":44,"left_children":[1,3,5,7,9,11,13,15,17,19,21,23,25,27,-1,29,31,33,35,37,39,41,43,45,47,49,51,53,55,57,59,61,63,65,-1,67,69,71,73,75,77,-1,-1,79,81,83,85,87,89,91,93,95,97,99,101,-1,103,-1,-1,-1,-1,-1,-1,-1,-1,-1,-1,-1,-1,-1,-1,-1,-1,-1,-1,-1,-1,-1,-1,-1,-1,-1,-1,-1,-1,-1,-1,-1,-1,-1,-1,-1,-1,-1,-1,-1,-1,-1,-1,-1,-1,-1,-1,-1,-1],"loss_changes":[7.3571834E-3,1.0598842E-2,1.2969745E-2,1.8371249E-2,2.0510882E-2,1.2266132E-2,8.404285E-3,1.4231074E-2,1.1179272E-2,1.3488149E-2,9.090847E-3,2.080179E-2,1.2138739E-2,2.9670917E-3,0E0,1.611678E-2,1.3869899E-2,1.5029977E-3,7.65677E-3,9.605233E-3,1.0662445E-2,2.17117E-3,1.9552438E-3,1.4004638E-2,7.1476176E-3,9.250893E-3,1.2395451E-2,1.1533487E-3,4.768517E-4,1.4068722E-2,1.05407145E-2,1.8013734E-2,1.5415523E-2,1.19536184E-4,0E0,2.800727E-4,3.1489953E-3,2.7611218E-3,2.6119063E-3,3.9837584E-3,7.1062734E-3,0E0,0E0,4.529406E-5,1.8205703E-4,1.3717954E-2,3.2540653E-3,5.5104017E-4,4.0915906E-3,4.7749216E-3,4.693093E-3,3.8802666E-3,1.2101109E-2,9.6258987E-4,5.065895E-5,0E0,2.3713572E-5,0E0,0E0,0E0,0E0,0E0,0E0,0E0,0E0,0E0,0E0,0E0,0E0,0E0,0E0,0E0,0E0,0E0,0E0,0E0,0E0,0E0,0E0,0E0,0E0,0E0,0E0,0E0,0E0,0E0,0E0,0E0,0E0,0E0,0E0,0E0,0E0,0E0,0E0,0E0,0E0,0E0,0E0,0E0,0E0,0E0,0E0,0E0,0E0],"parents":[2147483647,0,0,1,1,2,2,3,3,4,4,5,5,6,6,7,7,8,8,9,9,10,10,11,11,12,12,13,13,15,15,16,16,17,17,18,18,19,19,20,20,21,21,22,22,23,23,24,24,25,25,26,26,27,27,28,28,29,29,30,30,31,31,32,32,33,33,35,35,36,36,37,37,38,38,39,39,40,40,43,43,44,44,45,45,46,46,47,47,48,48,49,49,50,50,51,51,52,52,53,53,54,54,56,56],"right_children":[2,4,6,8,10,12,14,16,18,20,22,24,26,28,-1,30,32,34,36,38,40,42,44,46,48,50,52,54,56,58,60,62,64,66,-1,68,70,72,74,76,78,-1,-1,80,82,84,86,88,90,92,94,96,98,100,102,-1,104,-1,-1,-1,-1,-1,-1,-1,-1,-1,-1,-1,-1,-1,-1,-1,-1,-1,-1,-1,-1,-1,-1,-1,-1,-1,-1,-1,-1,-1,-1,-1,-1,-1,-1,-1,-1,-1,-1,-1,-1,-1,-1,-1,-1,-1,-1,-1,-1],"split_conditions":[2.4594375E-1,8.808534E-2,7.6966065E-1,1.0135864E0,6.2502515E-1,-1.8116477E-1,2.6825583E-1,-1.2177388E-1,-2.2617301E-1,-1.5844816E-1,2.9709615E-2,4.1045508E-1,-2.3455164E-1,5.828713E-1,-1.51407495E-2,5.8719873E-1,-5.8920693E-1,4.4809222E-1,-2.1145228E-1,1.6882287E-1,-4.4352406E-1,1.0592748E0,-9.967794E-2,1.0764767E0,-2.4616818E-1,-5.546752E-1,-5.4512495E-1,5.6497175E-2,8.974993E-2,5.0082827E-1,9.403896E-3,2.357594E-1,3.0369383E-1,-2.769368E-1,2.4215875E-3,-3.088727E-1,-4.241619E-1,9.1957355E-1,4.7626966E-1,-7.8636587E-1,5.7118905E-1,1.4479484E-2,-2.3431108E-4,-6.948159E-1,9.869843E-2,1.1149398E-1,4.140948E-1,-5.574049E-1,6.718278E-1,2.7346575E-1,-4.80296E-1,2.742772E-1,4.6805644E-1,-3.196417E-1,2.0605282E-1,6.8895016E-3,-1.2431611E-1,1.5973642E-3,1.05579E-2,1.7337598E-3,-1.2386724E-2,-3.4079247E-3,1.2183797E-2,-1.4980725E-3,-7.90488E-3,-1.6412393E-3,-7.922244E-3,-4.877001E-4,3.64709E-3,5.922018E-3,2.0197567E-2,-2.1521673E-2,-7.223856E-3,-6.481157E-3,6.082906E-3,1.3971119E-3,-1.8060768E-2,-2.4146116E-3,1.1172085E-2,6.634176E-4,3.8976222E-3,-9.560086E-4,-6.683422E-3,1.0280047E-3,1.0526577E-2,-1.6677562E-2,-3.6509882E-3,-6.738757E-4,6.43699E-3,2.4271095E-2,5.3433613E-3,-2.6386334E-3,5.538268E-3,1.9388254E-3,1.1670876E-2,8.12113E-3,-3.043742E-3,-1.2862571E-3,-1.0417238E-2,-4.9425586E-4,-8.357136E-3,3.3405278E-4,-1.3178998E-3,-3.3585727E-4,1.2097032E-3],"split_indices":[45,45,27,24,49,41,40,23,9,22,19,55,25,39,0,54,22,7,53,52,35,3,11,52,50,25,10,19,1,46,56,9,4,0,0,1,45,30,0,0,40,0,0,0,3,34,20,1,0,10,3,34,6,10,3,0,0,0,0,0,0,0,0,0,0,0,0,0,0,0,0,0,0,0,0,0,0,0,0,0,0,0,0,0,0,0,0,0,0,0,0,0,0,0,0,0,0,0,0,0,0,0,0,0,0],"split_type":[0,0,0,0,0,0,0,0,0,0,0,0,0,0,0,0,0,0,0,0,0,0,0,0,0,0,0,0,0,0,0,0,0,0,0,0,0,0,0,0,0,0,0,0,0,0,0,0,0,0,0,0,0,0,0,0,0,0,0,0,0,0,0,0,0,0,0,0,0,0,0,0,0,0,0,0,0,0,0,0,0,0,0,0,0,0,0,0,0,0,0,0,0,0,0,0,0,0,0,0,0,0,0,0,0],"sum_hessian":[6.57E2,4.18E2,2.39E2,3.52E2,6.6E1,2.17E2,2.2E1,3.32E2,2E1,5.2E1,1.4E1,8.1E1,1.36E2,1.7E1,5E0,1.32E2,2E2,5E0,1.5E1,1.9E1,3.3E1,7E0,7E0,6.8E1,1.3E1,4.7E1,8.9E1,1.3E1,4E0,1.14E2,1.8E1,2.5E1,1.75E2,3E0,2E0,5E0,1E1,1.1E1,8E0,5E0,2.8E1,6E0,1E0,3E0,4E0,6E1,8E0,5E0,8E0,2.6E1,2.1E1,1.5E1,7.4E1,7E0,6E0,2E0,2E0,9.6E1,1.8E1,8E0,1E1,1.3E1,1.2E1,1.3E2,4.5E1,1E0,2E0,2E0,3E0,3E0,7E0,8E0,3E0,7E0,1E0,1E0,4E0,2.5E1,3E0,1E0,2E0,1E0,3E0,4E1,2E1,2E0,6E0,1E0,4E0,6E0,2E0,1.7E1,9E0,7E0,1.4E1,1.2E1,3E0,5.8E1,1.6E1,2E0,5E0,2E0,4E0,1E0,1E0],"tree_param":{"num_deleted":"0","num_feature":"60","num_nodes":"105","size_leaf_vector":"0"}},{"base_weights":[2.2503522E-5,-9.797364E-4,8.87778E-3,1.9036605E-3,-5.5262293E-3,5.47967E-3,6.1028093E-2,2.4856094E-4,2.3346737E-2,-3.348359E-2,-3.5591614E-3,2.1007754E-2,-2.0559987E-3,1.5117485E-2,-2.3853409E-3,4.5638572E-2,6.5619294E-3,-4.991813E-3,-5.1923465E-2,-1.2742091E-3,-2.8622847E-2,3.471779E-2,-1.1372006E-2,-4.3547573E-3,4.8395306E-2,-1.552252E-2,2.117894E-2,-5.4390572E-2,-1.6470732E-3,1.1896624E-2,5.6804724E-2,3.581208E-2,-2.9428808E-3,4.4202455E-3,-9.640685E-3,-6.76493E-2,-1.5353844E-2,-4.116514E-3,1.5529528E-2,-2.9809717E-3,-4.883825E-2,4.931834E-2,1.0985975E-2,6.264011E-3,-1.9679215E-2,2.7553272E-2,-7.436691E-3,-2.2809045E-2,6.653545E-3,1.0357205E-2,4.535547E-2,-1.64562E-2,-8.409685E-2,-1.2361261E-2,1.387191E-3,9.825215E-3,-1.2151092E-2,2.7978271E-3,-1.2396406E-2,2.2958372E-2,-6.8409834E-3,-2.422053E-2,1.1675563E-2,-6.401188E-2,-1.0074843E-2,1.5731528E-2,5.666721E-2,1.9344758E-2,-6.607324E-3,-1.505971E-3,1.0901988E-2,3.8734496E-2,1.0914698E-2,-2.2105977E-3,-1.9446691E-2],"categories":[],"categories_nodes":[],"categories_segments":[],"categories_sizes":[],"default_left":[1,1,1,1,1,1,0,1,1,1,1,1,1,1,1,1,1,1,1,1,1,1,1,1,0,1,1,1,1,0,0,0,1,0,0,0,0,1,1,1,1,1,1,1,0,1,1,0,0,0,0,0,0,0,0,0,0,0,0,0,0,0,0,0,0,0,0,0,0,0,0,0,0,0,0],"id":45,"left_children":[1,3,5,7,9,11,-1,13,15,17,19,21,23,25,27,29,31,33,35,37,39,41,43,45,-1,47,49,51,53,-1,-1,-1,55,-1,-1,-1,-1,57,59,61,63,65,67,69,-1,71,73,-1,-1,-1,-1,-1,-1,-1,-1,-1,-1,-1,-1,-1,-1,-1,-1,-1,-1,-1,-1,-1,-1,-1,-1,-1,-1,-1,-1],"loss_changes":[5.8485214E-3,7.771251E-3,1.1538821E-2,1.2877222E-2,1.2529453E-2,7.5321198E-3,0E0,1.3273251E-2,9.428792E-3,7.621579E-3,1.2333703E-2,9.717293E-3,5.313665E-3,9.800625E-3,1.0967824E-2,3.4686606E-3,4.553665E-3,3.489024E-4,4.1371156E-3,9.568436E-3,9.18491E-3,4.6556517E-3,1.1488133E-3,4.4334577E-3,0E0,1.606039E-3,1.0780418E-2,3.123642E-3,9.2824055E-3,0E0,0E0,0E0,1.6478143E-3,0E0,8.0189784E-7,0E0,0E0,9.824432E-3,4.9764826E-3,3.0844733E-3,5.236905E-3,1.329964E-3,1.1572273E-3,1.2452906E-4,0E0,3.2138312E-4,2.4676265E-3,0E0,0E0,0E0,0E0,0E0,0E0,0E0,0E0,0E0,0E0,0E0,0E0,0E0,0E0,0E0,0E0,0E0,0E0,0E0,0E0,0E0,0E0,0E0,0E0,0E0,0E0,0E0,0E0],"parents":[2147483647,0,0,1,1,2,2,3,3,4,4,5,5,7,7,8,8,9,9,10,10,11,11,12,12,13,13,14,14,15,15,16,16,17,17,18,18,19,19,20,20,21,21,22,22,23,23,25,25,26,26,27,27,28,28,32,32,37,37,38,38,39,39,40,40,41,41,42,42,43,43,45,45,46,46],"right_children":[2,4,6,8,10,12,-1,14,16,18,20,22,24,26,28,30,32,34,36,38,40,42,44,46,-1,48,50,52,54,-1,-1,-1,56,-1,-1,-1,-1,58,60,62,64,66,68,70,-1,72,74,-1,-1,-1,-1,-1,-1,-1,-1,-1,-1,-1,-1,-1,-1,-1,-1,-1,-1,-1,-1,-1,-1,-1,-1,-1,-1,-1,-1],"split_conditions":[8.640013E-1,1.3448365E-1,1.2828583E0,7.108024E-2,-1.0340519E0,-2.871445E-1,1.8308429E-2,-6.405424E-1,-6.1852593E-2,-2.5816154E-1,6.1835533E-1,3.761952E-1,1.1241786E0,-6.501674E-1,-1.5599079E0,-4.5473105E-1,-8.634304E-1,1.8930414E-1,1.9062175E-1,5.769749E-1,-3.5613215E-1,1.0769157E-1,-1.6990596E-1,-1.0052603E0,1.45185925E-2,1.6088131E-1,3.3127046E-1,2.2403361E-1,-3.566335E-1,3.5689874E-3,1.7041419E-2,1.07436245E-2,2.2594693E-1,1.3260737E-3,-2.8922057E-3,-2.029479E-2,-4.6061534E-3,6.8054885E-2,1.769112E-1,-2.612565E-1,3.9287586E-2,-9.461854E-1,5.1950526E-1,-3.860813E-1,-5.9037646E-3,1.7883822E-2,2.9227838E-1,-6.842714E-3,1.9960636E-3,3.1071615E-3,1.3606641E-2,-4.93686E-3,-2.5229055E-2,-3.7083784E-3,4.1615733E-4,2.9475645E-3,-3.6453279E-3,8.393482E-4,-3.7189221E-3,6.887512E-3,-2.052295E-3,-7.266159E-3,3.502669E-3,-1.9203564E-2,-3.022453E-3,4.7194585E-3,1.7000163E-2,5.8034277E-3,-1.9821972E-3,-4.517913E-4,3.2705965E-3,1.1620349E-2,3.2744096E-3,-6.631793E-4,-5.8340076E-3],"split_indices":[51,3,26,3,45,1,0,36,19,51,51,42,8,35,15,21,45,2,15,38,34,11,0,52,0,7,59,2,13,0,0,0,53,0,0,0,0,6,19,1,30,1,6,0,0,0,59,0,0,0,0,0,0,0,0,0,0,0,0,0,0,0,0,0,0,0,0,0,0,0,0,0,0,0,0],"split_type":[0,0,0,0,0,0,0,0,0,0,0,0,0,0,0,0,0,0,0,0,0,0,0,0,0,0,0,0,0,0,0,0,0,0,0,0,0,0,0,0,0,0,0,0,0,0,0,0,0,0,0,0,0,0,0,0,0,0,0,0,0,0,0,0,0,0,0,0,0,0,0,0,0,0,0],"sum_hessian":[6.57E2,5.91E2,6.6E1,3.62E2,2.29E2,6.3E1,3E0,3.37E2,2.5E1,1.4E1,2.15E2,2E1,4.3E1,5E1,2.87E2,1E1,1.5E1,6E0,8E0,1.98E2,1.7E1,1.4E1,6E0,4.2E1,1E0,8E0,4.2E1,3E0,2.84E2,3E0,7E0,3E0,1.2E1,2E0,4E0,5E0,3E0,1.7E2,2.8E1,8E0,9E0,8E0,6E0,2E0,4E0,3E0,3.9E1,6E0,2E0,3E1,1.2E1,2E0,1E0,6.2E1,2.22E2,5E0,7E0,9.3E1,7.7E1,2.1E1,7E0,3E0,5E0,6E0,3E0,2E0,6E0,4E0,2E0,1E0,1E0,1E0,2E0,2.8E1,1.1E1],"tree_param":{"num_deleted":"0","num_feature":"60","num_nodes":"75","size_leaf_vector":"0"}},{"base_weights":[4.9557228E-5,-5.199927E-2,2.0792572E-4,3.2362726E-2,-1.3814423E-4,3.9561726E-2,9.576823E-3,-5.1521122E-2,2.0169775E-5,7.5965864E-4,-1.0982473E-2,2.793021E-4,2.6891863E-2,-1.8629866E-2,1.8278241E-2,2.808562E-3,-4.7554406E-3,3.273191E-2,4.0777028E-4,-3.4718424E-2,-6.4363824E-3,3.6906924E-3,3.5590004E-2],"categories":[],"categories_nodes":[],"categories_segments":[],"categories_sizes":[],"default_left":[1,0,1,1,1,0,0,0,1,1,1,1,1,1,1,0,0,0,0,0,0,0,0],"id":46,"left_children":[1,-1,3,5,7,-1,-1,-1,9,11,13,15,17,19,21,-1,-1,-1,-1,-1,-1,-1,-1],"loss_changes":[5.4346365E-3,0E0,7.3154424E-3,7.693735E-4,5.296693E-3,0E0,0E0,0E0,5.2969586E-3,7.6496815E-3,9.515015E-3,7.6538594E-3,1.6880045E-3,6.250332E-3,2.141474E-3,0E0,0E0,0E0,0E0,0E0,0E0,0E0,0E0],"parents":[2147483647,0,0,2,2,3,3,4,4,8,8,9,9,10,10,11,11,12,12,13,13,14,14],"right_children":[2,-1,4,6,8,-1,-1,-1,10,12,14,16,18,20,22,-1,-1,-1,-1,-1,-1,-1,-1],"split_conditions":[-2.3260856E0,-1.5599782E-2,-1.6678432E0,1.0120594E-1,-2.8997092E0,1.1868519E-2,2.8730468E-3,-1.54563375E-2,1.0509411E0,1.4896948E0,5.336361E-1,2.4187608E-1,4.7913602E-1,-2.7859548E-1,-4.3665874E-1,8.4256864E-4,-1.4266323E-3,9.819573E-3,1.2233108E-4,-1.0415528E-2,-1.9309148E-3,1.1072077E-3,1.0677001E-2],"split_indices":[16,0,16,3,32,0,0,0,8,1,37,37,41,45,4,0,0,0,0,0,0,0,0],"split_type":[0,0,0,0,0,0,0,0,0,0,0,0,0,0,0,0,0,0,0,0,0,0,0],"sum_hessian":[6.57E2,1E0,6.56E2,6E0,6.5E2,4E0,2E0,1E0,6.49E2,6.09E2,4E1,5.99E2,1E1,3.2E1,8E0,3.99E2,2E2,8E0,2E0,1.3E1,1.9E1,5E0,3E0],"tree_param":{"num_deleted":"0","num_feature":"60","num_nodes":"23","size_leaf_vector":"0"}},{"base_weights":[2.3261438E-5,5.036986E-2,-1.3003606E-4,3.3459582E-3,-2.4294816E-3,-6.4823974E-4,1.1967761E-2,-1.2410671E-2,1.7650895E-4,1.5021829E-2,-3.1553132E-3,-8.28955E-3,2.0842284E-2,-5.92888E-2,-8.596653E-3,-1.0319004E-2,2.6357053E-3,6.0916687E-3,4.9524136E-2,3.8481732E-3,-8.900572E-3,-1.4866063E-2,4.7085743E-2,2.573287E-2,-5.205806E-3,-3.0098557E-3,-6.9942616E-2,1.9464227E-4,-2.6890332E-2,-2.3477772E-2,2.7481583E-3,-6.0555814E-3,7.2243293E-3,-1.802701E-2,9.579267E-3,1.3684332E-2,5.5063E-2,-5.9470115E-3,1.2037735E-2,1.3595791E-2,-1.2381315E-2,-4.657345E-2,-6.1959145E-3,5.8366597E-2,1.2262017E-2,8.686397E-3,3.164725E-2,-2.2321098E-2,5.318048E-3,-1.7314777E-2,1.1331102E-2,1.8645775E-2,-3.645177E-2,-3.1145161E-2,1.5006931E-3,-8.148631E-3,2.3301287E-2,-2.8244613E-3,-4.3502353E-2,-2.549097E-2,9.23646E-3],"categories":[],"categories_nodes":[],"categories_segments":[],"categories_sizes":[],"default_left":[1,0,1,1,1,1,1,1,1,1,1,1,1,1,1,1,1,1,1,1,1,1,1,1,1,0,0,1,1,1,1,1,1,0,0,0,0,0,0,0,0,0,0,0,0,0,0,0,0,0,0,0,0,0,0,0,0,0,0,0,0],"id":47,"left_children":[1,-1,3,5,7,9,11,13,15,17,19,21,23,25,27,29,31,33,35,37,39,41,43,45,47,-1,-1,49,51,53,55,57,59,-1,-1,-1,-1,-1,-1,-1,-1,-1,-1,-1,-1,-1,-1,-1,-1,-1,-1,-1,-1,-1,-1,-1,-1,-1,-1,-1,-1],"loss_changes":[5.0849984E-3,0E0,5.259438E-3,9.030301E-3,1.0302502E-2,7.1188807E-3,1.5094014E-2,1.4151428E-2,8.157514E-3,7.401093E-3,6.311198E-3,1.0168565E-2,7.5226016E-3,3.3869948E-3,1.238877E-2,1.0381386E-2,1.0253296E-2,1.939127E-3,2.3905933E-4,5.767086E-3,6.902483E-3,6.3092206E-3,4.628324E-4,4.665248E-3,1.9198931E-3,0E0,0E0,1.0530821E-2,1.1564439E-2,5.792329E-3,7.13273E-3,1.0645686E-2,1.1294455E-2,0E0,0E0,0E0,0E0,0E0,0E0,0E0,0E0,0E0,0E0,0E0,0E0,0E0,0E0,0E0,0E0,0E0,0E0,0E0,0E0,0E0,0E0,0E0,0E0,0E0,0E0,0E0,0E0],"parents":[2147483647,0,0,2,2,3,3,4,4,5,5,6,6,7,7,8,8,9,9,10,10,11,11,12,12,13,13,14,14,15,15,16,16,17,17,18,18,19,19,20,20,21,21,22,22,23,23,24,24,27,27,28,28,29,29,30,30,31,31,32,32],"right_children":[2,-1,4,6,8,10,12,14,16,18,20,22,24,26,28,30,32,34,36,38,40,42,44,46,48,-1,-1,50,52,54,56,58,60,-1,-1,-1,-1,-1,-1,-1,-1,-1,-1,-1,-1,-1,-1,-1,-1,-1,-1,-1,-1,-1,-1,-1,-1,-1,-1,-1,-1],"split_conditions":[-2.8997092E0,1.5110958E-2,-1.5476032E-1,3.348031E-1,2.4313673E-2,-9.46616E-1,-3.7352514E-1,-1.0746186E0,-5.609896E-1,7.598299E-1,-3.864898E-2,8.798815E-1,9.3151516E-1,-2.6959547E-1,3.9597073E-1,-5.1095657E-2,-2.3590039E-1,-5.1675713E-1,1.5980148E-1,-1.1396104E-1,-5.960567E-1,-3.3391845E-1,-4.4150499E-1,-3.5273612E-1,6.334141E-1,-9.0295676E-4,-2.0982785E-2,-1.9848338E-1,-7.057637E-1,2.2820453E-1,2.4609864E-1,-2.7456743E-1,-1.0460813E0,-5.408103E-3,2.8737802E-3,4.1052997E-3,1.6518902E-2,-1.7841036E-3,3.6113209E-3,4.0787375E-3,-3.7143948E-3,-1.3972036E-2,-1.8587745E-3,1.750998E-2,3.6786052E-3,2.6059193E-3,9.494175E-3,-6.6963295E-3,1.5954145E-3,-5.194433E-3,3.3993307E-3,5.5937325E-3,-1.0935532E-2,-9.343549E-3,4.5020797E-4,-2.4445895E-3,6.990386E-3,-8.473384E-4,-1.3050706E-2,-7.6472913E-3,2.770938E-3],"split_indices":[35,0,2,55,2,7,13,40,48,26,21,19,19,3,20,22,33,29,5,50,18,11,0,52,55,0,0,1,0,56,57,33,10,0,0,0,0,0,0,0,0,0,0,0,0,0,0,0,0,0,0,0,0,0,0,0,0,0,0,0,0],"split_type":[0,0,0,0,0,0,0,0,0,0,0,0,0,0,0,0,0,0,0,0,0,0,0,0,0,0,0,0,0,0,0,0,0,0,0,0,0,0,0,0,0,0,0,0,0,0,0,0,0,0,0,0,0,0,0,0,0,0,0,0,0],"sum_hessian":[6.57E2,1E0,6.56E2,2.61E2,3.95E2,1.79E2,8.2E1,8.1E1,3.14E2,2.4E1,1.55E2,2.5E1,5.7E1,5E0,7.6E1,5.9E1,2.55E2,2E1,4E0,7E1,8.5E1,2.3E1,2E0,4.8E1,9E0,1E0,4E0,5.2E1,2.4E1,2.9E1,3E1,8.8E1,1.67E2,2E0,1.8E1,1E0,3E0,3.2E1,3.8E1,1.1E1,7.4E1,4E0,1.9E1,1E0,1E0,1.3E1,3.5E1,3E0,6E0,2E1,3.2E1,4E0,2E1,2.2E1,7E0,2E1,1E1,8.2E1,6E0,9E0,1.58E2],"tree_param":{"num_deleted":"0","num_feature":"60","num_nodes":"61","size_leaf_vector":"0"}},{"base_weights":[9.602189E-6,8.87813E-3,-7.3431974E-4,-1.0042607E-2,1.630875E-2,-3.5504196E-2,-3.8713304E-4,-2.3975752E-3,-3.0467048E-2,2.2650674E-2,-9.512061E-3,-4.203055E-2,-1.4362037E-3,-3.3906214E-3,2.931658E-3,-7.74284E-3,1.0228664E-2,4.523954E-2,1.6323319E-2,-1.7674187E-2,3.068611E-3,-1.7821323E-3,-2.0600982E-2,2.6672378E-2,1.5243668E-3,-1.4823517E-3,-1.5197862E-2,1.1653761E-2,2.9766858E-3,1.46606015E-2,5.686386E-2,4.047654E-3,2.2975402E-2,-1.9792546E-2,-4.600376E-3,5.4083862E-3,-1.9753575E-3,6.3600396E-3,-5.228897E-3,8.526435E-3,-3.331392E-2,4.9563006E-2,3.3615555E-3,-4.4328435E-3,8.462347E-3,1.577037E-3,-3.4063053E-3,1.9085314E-4,9.785142E-3,1.4924971E-2,3.1193817E-2,-9.3276723E-4,1.7755672E-2,-1.4389624E-2,1.1213481E-3,-8.38193E-3,2.3729514E-2,-4.9944974E-2,-9.2855245E-3,1.4536033E-2,5.881599E-2,2.2112722E-2,-5.154881E-3,1.478671E-2,-1.0126106E-2,1.6367791E-2,-7.177643E-3],"categories":[],"categories_nodes":[],"categories_segments":[],"categories_sizes":[],"default_left":[1,1,1,1,1,1,1,1,0,1,1,0,0,1,1,1,1,1,1,1,1,1,1,1,1,1,0,0,0,0,0,1,1,0,0,0,0,1,1,1,1,1,1,1,1,0,0,0,0,0,0,0,0,0,0,0,0,0,0,0,0,0,0,0,0,0,0],"id":48,"left_children":[1,3,5,7,9,11,13,15,-1,17,19,-1,-1,21,23,25,27,29,31,33,35,37,39,41,43,45,-1,-1,-1,-1,-1,47,49,-1,-1,-1,-1,51,53,55,57,59,61,63,65,-1,-1,-1,-1,-1,-1,-1,-1,-1,-1,-1,-1,-1,-1,-1,-1,-1,-1,-1,-1,-1,-1],"loss_changes":[4.347669E-3,7.3340144E-3,7.3258104E-3,2.2691353E-3,6.274339E-3,1.2736754E-3,6.020614E-3,8.89086E-4,0E0,3.5493746E-3,8.757154E-4,0E0,0E0,8.738696E-3,9.548041E-3,3.9752014E-4,6.6494977E-6,1.2990972E-3,1.9484726E-3,4.7421898E-5,5.789051E-5,8.199925E-3,1.0282014E-2,8.370982E-3,1.1279547E-2,4.0688603E-5,0E0,0E0,0E0,0E0,0E0,2.1941595E-4,5.930215E-4,0E0,0E0,0E0,0E0,7.246797E-3,1.1941573E-2,2.512432E-3,7.128967E-3,1.7378796E-3,1.5512265E-3,1.6234763E-2,1.5696254E-2,0E0,0E0,0E0,0E0,0E0,0E0,0E0,0E0,0E0,0E0,0E0,0E0,0E0,0E0,0E0,0E0,0E0,0E0,0E0,0E0,0E0,0E0],"parents":[2147483647,0,0,1,1,2,2,3,3,4,4,5,5,6,6,7,7,9,9,10,10,13,13,14,14,15,15,16,16,17,17,18,18,19,19,20,20,21,21,22,22,23,23,24,24,25,25,31,31,32,32,37,37,38,38,39,39,40,40,41,41,42,42,43,43,44,44],"right_children":[2,4,6,8,10,12,14,16,-1,18,20,-1,-1,22,24,26,28,30,32,34,36,38,40,42,44,46,-1,-1,-1,-1,-1,48,50,-1,-1,-1,-1,52,54,56,58,60,62,64,66,-1,-1,-1,-1,-1,-1,-1,-1,-1,-1,-1,-1,-1,-1,-1,-1,-1,-1,-1,-1,-1,-1],"split_conditions":[-9.556428E-1,-4.1554382E-1,-9.1746753E-1,8.397453E-2,2.7408487E-1,1.557682E0,3.0648902E-2,8.794549E-2,-9.140115E-3,-4.649734E-1,2.7365732E-1,-1.2609166E-2,-4.3086114E-4,-2.4625253E-2,7.989839E-2,5.221714E-1,6.453133E-2,-6.1292046E-1,1.2671059E-2,1.8444313E-1,1.4401414E-2,-3.8640246E-1,-3.209107E-1,-1.3432412E-1,6.8556555E-2,1.7833398E-1,-4.5593586E-3,3.4961286E-3,8.9300575E-4,4.3981806E-3,1.7059159E-2,2.999718E-1,3.390326E-1,-5.937764E-3,-1.3801128E-3,1.622516E-3,-5.926073E-4,-5.816784E-1,-1.0603078E-1,-2.3719332E-1,1.3891274E-1,-7.283282E-1,-6.7130643E-1,-5.4335E-1,2.6415616E-1,4.7311114E-4,-1.0218916E-3,5.7255944E-5,2.9355427E-3,4.4774916E-3,9.358145E-3,-2.798302E-4,5.326702E-3,-4.3168874E-3,3.3640445E-4,-2.514579E-3,7.1188547E-3,-1.4983493E-2,-2.7856575E-3,4.3608104E-3,1.7644798E-2,6.6338168E-3,-1.5464644E-3,4.4360133E-3,-3.037832E-3,4.9103377E-3,-2.153293E-3],"split_indices":[48,15,48,1,14,2,53,36,0,2,20,0,0,53,53,31,0,2,56,0,2,6,43,38,21,5,0,0,0,0,0,8,55,0,0,0,0,6,42,8,10,2,17,7,26,0,0,0,0,0,0,0,0,0,0,0,0,0,0,0,0,0,0,0,0,0,0],"split_type":[0,0,0,0,0,0,0,0,0,0,0,0,0,0,0,0,0,0,0,0,0,0,0,0,0,0,0,0,0,0,0,0,0,0,0,0,0,0,0,0,0,0,0,0,0,0,0,0,0,0,0,0,0,0,0,0,0,0,0,0,0,0,0,0,0,0,0],"sum_hessian":[6.57E2,5E1,6.07E2,1.4E1,3.6E1,5E0,6.02E2,1.1E1,3E0,2.9E1,7E0,4E0,1E0,3.16E2,2.86E2,8E0,3E0,5E0,2.4E1,4E0,3E0,2.9E2,2.6E1,1.5E1,2.71E2,5E0,3E0,2E0,1E0,2E0,3E0,9E0,1.5E1,3E0,1E0,2E0,1E0,8.6E1,2.04E2,8E0,1.8E1,7E0,8E0,1.46E2,1.25E2,2E0,3E0,6E0,3E0,9E0,6E0,5.3E1,3.3E1,8.3E1,1.21E2,4E0,4E0,1E1,8E0,2E0,5E0,2E0,6E0,3.3E1,1.13E2,8.3E1,4.2E1],"tree_param":{"num_deleted":"0","num_feature":"60","num_nodes":"67","size_leaf_vector":"0"}},{"base_weights":[4.9649356E-5,-4.251039E-2,1.791325E-4,-1.0937507E-2,6.54521E-4,8.4633444E-4,-3.9029922E-2,-4.0261935E-2,8.4863044E-4,-1.6123073E-2,9.270585E-3,-1.9052163E-2,-6.5975465E-2,-3.4382113E-3,2.6425582E-3,-2.6259695E-3,-2.099672E-2,1.4259699E-2,-2.5617587E-3,-2.3239564E-2,-7.1182414E-3,6.908097E-3,-7.7231256E-3,4.111463E-3,-7.82136E-3,3.6583345E-3,1.6452748E-2,-7.921939E-3,7.5877085E-4,-2.7293244E-2,1.0125716E-2,-3.3918083E-2,-5.530665E-3,1.5172707E-2,2.5146431E-3,-1.631415E-2,3.8282527E-3],"categories":[],"categories_nodes":[],"categories_segments":[],"categories_sizes":[],"default_left":[1,0,1,1,1,1,1,0,1,1,1,1,0,1,1,0,0,1,1,0,0,1,1,1,1,0,0,0,0,0,0,0,0,0,0,0,0],"id":49,"left_children":[1,-1,3,5,7,9,11,-1,13,15,17,19,-1,21,23,-1,-1,25,27,-1,-1,29,31,33,35,-1,-1,-1,-1,-1,-1,-1,-1,-1,-1,-1,-1],"loss_changes":[3.6337269E-3,0E0,3.4792216E-3,8.97102E-3,5.04574E-3,3.0085612E-3,3.049518E-3,0E0,4.8462744E-3,4.0532404E-4,8.629906E-4,1.3440801E-4,0E0,8.299299E-3,6.8566594E-3,0E0,0E0,1.7230352E-4,9.5004114E-5,0E0,0E0,6.328943E-3,7.3933573E-3,6.8503437E-3,5.50403E-3,0E0,0E0,0E0,0E0,0E0,0E0,0E0,0E0,0E0,0E0,0E0,0E0],"parents":[2147483647,0,0,2,2,3,3,4,4,5,5,6,6,8,8,9,9,10,10,11,11,13,13,14,14,17,17,18,18,21,21,22,22,23,23,24,24],"right_children":[2,-1,4,6,8,10,12,-1,14,16,18,20,-1,22,24,-1,-1,26,28,-1,-1,30,32,34,36,-1,-1,-1,-1,-1,-1,-1,-1,-1,-1,-1,-1],"split_conditions":[-2.3260856E0,-1.2753118E-2,-1.2690312E0,3.66278E-1,-2.2519822E0,-3.574536E-1,2.2777104E-1,-1.2078581E-2,-3.556188E-1,-5.587399E-1,3.924744E-1,2.017718E-1,-1.979264E-2,-3.8378048E-1,7.7540755E-1,-7.8779086E-4,-6.299016E-3,-6.824895E-1,-4.856474E-1,-6.9718696E-3,-2.1354726E-3,-9.139444E-1,-8.6381847E-1,-1.8748346E-1,9.128254E-2,1.0975004E-3,4.935825E-3,-2.3765818E-3,2.2763126E-4,-8.187974E-3,3.037715E-3,-1.0175426E-2,-1.6591996E-3,4.551812E-3,7.54393E-4,-4.8942454E-3,1.1484758E-3],"split_indices":[16,0,51,17,7,18,4,0,4,8,34,10,0,53,13,0,0,12,0,0,0,38,58,4,52,0,0,0,0,0,0,0,0,0,0,0,0],"split_type":[0,0,0,0,0,0,0,0,0,0,0,0,0,0,0,0,0,0,0,0,0,0,0,0,0,0,0,0,0,0,0,0,0,0,0,0,0],"sum_hessian":[6.57E2,1E0,6.56E2,2.6E1,6.3E2,1.9E1,7E0,2E0,6.28E2,6E0,1.3E1,5E0,2E0,1.85E2,4.43E2,2E0,4E0,9E0,4E0,3E0,2E0,5.4E1,1.31E2,3.89E2,5.4E1,2E0,7E0,1E0,3E0,4E0,5E1,9E0,1.22E2,4.8E1,3.41E2,3.1E1,2.3E1],"tree_param":{"num_deleted":"0","num_feature":"60","num_nodes":"37","size_leaf_vector":"0"}},{"base_weights":[-7.521201E-5,-4.0534377E-2,4.8065835E-5,3.637378E-3,-1.3453551E-3,-1.429037E-3,1.5860766E-2,-1.8927088E-2,-6.898205E-4,-6.7633875E-3,6.065036E-3,2.1728674E-2,5.664431E-4,-6.553317E-3,-3.5667717E-2,3.739198E-3,-3.103326E-3,-1.9722616E-2,-1.5370794E-4,-4.1969195E-3,1.5410132E-2,3.1673558E-2,6.995673E-3,6.843221E-3,-1.4611113E-2,1.0527992E-3,-2.012722E-2,-4.429568E-2,-9.39854E-3,5.479017E-3,-1.8465126E-2,-3.446797E-2,-2.338186E-3,-2.8487084E-2,3.558321E-3,5.33651E-3,-1.0820592E-2,-1.7708374E-2,7.7928025E-3,3.3291604E-2,4.2466405E-3,4.0057674E-2,6.787349E-3,-6.828301E-3,1.5156777E-2,1.2055057E-2,-2.8643608E-3,-1.6951218E-2,-2.6253462E-3,-3.377879E-3,9.5632225E-3,-1.1238635E-2,-2.8591752E-3,2.1745055E-3,1.7699715E-2,-3.352432E-2,-6.744989E-3,-5.576238E-2,-4.5565665E-3,3.270098E-4,-1.0301743E-2],"categories":[],"categories_nodes":[],"categories_segments":[],"categories_sizes":[],"default_left":[1,0,1,1,1,1,1,1,1,1,1,1,1,1,1,1,1,1,1,1,1,1,1,1,1,1,0,0,1,1,1,1,1,0,0,0,0,0,0,0,0,0,0,0,0,0,0,0,0,0,0,0,0,0,0,0,0,0,0,0,0],"id":50,"left_children":[1,-1,3,5,7,9,11,13,15,17,19,21,23,25,27,29,31,33,35,37,39,41,43,45,47,49,-1,-1,51,53,55,57,59,-1,-1,-1,-1,-1,-1,-1,-1,-1,-1,-1,-1,-1,-1,-1,-1,-1,-1,-1,-1,-1,-1,-1,-1,-1,-1,-1,-1],"loss_changes":[3.283867E-3,0E0,3.2908283E-3,1.14175575E-2,5.449999E-3,5.277878E-3,4.833959E-3,3.287719E-3,4.907377E-3,6.5925075E-3,5.3391177E-3,5.492624E-3,1.6242454E-3,1.1568815E-3,1.170231E-3,6.3594747E-3,7.046919E-3,5.406536E-3,3.103047E-3,4.5119594E-3,5.6475927E-3,4.527036E-3,2.0214163E-3,6.416619E-4,9.5736934E-5,3.3395897E-4,0E0,0E0,3.96595E-6,6.059411E-3,1.8918281E-3,4.204534E-3,6.17968E-3,0E0,0E0,0E0,0E0,0E0,0E0,0E0,0E0,0E0,0E0,0E0,0E0,0E0,0E0,0E0,0E0,0E0,0E0,0E0,0E0,0E0,0E0,0E0,0E0,0E0,0E0,0E0,0E0],"parents":[2147483647,0,0,2,2,3,3,4,4,5,5,6,6,7,7,8,8,9,9,10,10,11,11,12,12,13,13,14,14,15,15,16,16,17,17,18,18,19,19,20,20,21,21,22,22,23,23,24,24,25,25,28,28,29,29,30,30,31,31,32,32],"right_children":[2,-1,4,6,8,10,12,14,16,18,20,22,24,26,28,30,32,34,36,38,40,42,44,46,48,50,-1,-1,52,54,56,58,60,-1,-1,-1,-1,-1,-1,-1,-1,-1,-1,-1,-1,-1,-1,-1,-1,-1,-1,-1,-1,-1,-1,-1,-1,-1,-1,-1,-1],"split_conditions":[-2.8997092E0,-1.2160313E-2,-4.000534E-1,3.154165E-1,-3.5457063E-1,-6.251445E-1,3.5580656E-1,1.3396992E-1,-2.1309842E-1,-2.544953E-1,5.1617656E-2,1.1129661E-1,4.5996737E-1,2.0169148E-1,1.1818668E0,1.0719583E0,-1.9571304E-1,1.0083649E-1,3.491456E-1,-1.5523368E-1,-1.5613596E-1,2.7939624E-1,-5.7474397E-2,2.164602E-1,1.2198837E0,-3.6131388E-1,-6.038166E-3,-1.3288705E-2,-3.39474E-1,-3.1790674E-1,-9.5648813E-1,-1.3297965E-1,4.32383E-1,-8.546126E-3,1.0674964E-3,1.600953E-3,-3.2461777E-3,-5.3125126E-3,2.3378409E-3,9.987482E-3,1.2739922E-3,1.2017303E-2,2.0362048E-3,-2.0484903E-3,4.547033E-3,3.6165172E-3,-8.593083E-4,-5.085366E-3,-7.876039E-4,-1.0133637E-3,2.868967E-3,-3.3715905E-3,-8.577526E-4,6.5235165E-4,5.3099147E-3,-1.0057297E-2,-2.023497E-3,-1.6728714E-2,-1.36697E-3,9.8102944E-5,-3.090523E-3],"split_indices":[32,0,3,48,3,3,13,2,8,41,54,45,8,37,2,13,8,25,5,18,18,53,40,28,4,3,0,0,0,8,50,6,19,0,0,0,0,0,0,0,0,0,0,0,0,0,0,0,0,0,0,0,0,0,0,0,0,0,0,0,0],"split_type":[0,0,0,0,0,0,0,0,0,0,0,0,0,0,0,0,0,0,0,0,0,0,0,0,0,0,0,0,0,0,0,0,0,0,0,0,0,0,0,0,0,0,0,0,0,0,0,0,0,0,0,0,0,0,0,0,0,0,0,0,0],"sum_hessian":[6.57E2,1E0,6.56E2,1.83E2,4.73E2,1.3E2,5.3E1,1.6E1,4.57E2,7.6E1,5.4E1,3.8E1,1.5E1,1E1,6E0,1.61E2,2.96E2,2.5E1,5.1E1,2.6E1,2.8E1,2.2E1,1.6E1,1.1E1,4E0,7E0,3E0,4E0,2E0,1.5E2,1.1E1,6E0,2.9E2,1.8E1,7E0,3.4E1,1.7E1,1.2E1,1.4E1,1E1,1.8E1,1.6E1,6E0,6E0,1E1,7E0,4E0,3E0,1E0,5E0,2E0,1E0,1E0,1.19E2,3.1E1,4E0,7E0,3E0,3E0,2.18E2,7.2E1],"tree_param":{"num_deleted":"0","num_feature":"60","num_nodes":"61","size_leaf_vector":"0"}},{"base_weights":[-1.26311E-4,-5.305291E-4,1.057389E-2,-7.7499315E-4,2.1512102E-2,-5.6411587E-3,2.472825E-2,-2.7164558E-2,-3.9128773E-4,3.1604573E-2,6.041607E-3,9.166207E-3,-1.1595415E-2,7.2898925E-3,3.4715988E-2,-4.329676E-2,-5.599444E-3,-3.7545608E-3,1.311655E-3,1.7210171E-3,6.9081313E-3,2.1306574E-3,1.5136428E-2,-1.465966E-2,-5.803704E-4,1.0653423E-2,3.7522116E-4,4.048793E-2,1.1600107E-2,-8.6369915E-3,-6.9541484E-4,-1.3833081E-3,-2.3847332E-2,1.993821E-2,3.130054E-4,-3.3357665E-3,-1.5991015E-2,-2.6970208E-3,1.8264651E-3,1.8423274E-2,-2.718312E-3,-4.268518E-2,-7.522269E-3,3.2865986E-2,-5.177671E-3,-2.1602379E-3,4.604657E-3],"categories":[],"categories_nodes":[],"categories_segments":[],"categories_sizes":[],"default_left":[1,1,1,1,1,1,1,1,1,0,1,1,1,1,1,0,1,1,1,0,0,0,0,1,1,0,0,0,0,0,0,1,1,1,1,0,0,0,0,0,0,0,0,0,0,0,0],"id":51,"left_children":[1,3,5,7,9,11,13,15,17,-1,19,21,23,25,27,-1,29,31,33,-1,-1,-1,-1,35,37,-1,-1,-1,-1,-1,-1,39,41,43,45,-1,-1,-1,-1,-1,-1,-1,-1,-1,-1,-1,-1],"loss_changes":[2.8516012E-3,3.4384527E-3,5.647823E-3,6.3585113E-3,9.0200617E-4,1.1642881E-3,2.0111306E-3,2.888597E-3,3.5616786E-3,0E0,3.086563E-6,1.3576463E-4,2.952672E-4,1.3554885E-4,5.977247E-4,0E0,6.847482E-5,9.924825E-3,7.6761385E-3,0E0,0E0,0E0,0E0,5.2190502E-5,2.0209303E-5,0E0,0E0,0E0,0E0,0E0,0E0,5.021151E-3,6.44455E-3,6.9887107E-3,4.1813664E-3,0E0,0E0,0E0,0E0,0E0,0E0,0E0,0E0,0E0,0E0,0E0,0E0],"parents":[2147483647,0,0,1,1,2,2,3,3,4,4,5,5,6,6,7,7,8,8,10,10,11,11,12,12,13,13,14,14,16,16,17,17,18,18,23,23,24,24,31,31,32,32,33,33,34,34],"right_children":[2,4,6,8,10,12,14,16,18,-1,20,22,24,26,28,-1,30,32,34,-1,-1,-1,-1,36,38,-1,-1,-1,-1,-1,-1,40,42,44,46,-1,-1,-1,-1,-1,-1,-1,-1,-1,-1,-1,-1],"split_conditions":[1.2696421E0,1.6488559E0,-2.1346717E-1,-1.5625197E0,-4.065341E-1,-1.0676849E0,4.067245E-2,-1.8927622E-1,-2.802071E-1,9.481372E-3,-4.8642388E-1,-5.6038108E-2,7.8871703E-1,2.4339767E-1,4.8250906E-2,-1.2989029E-2,4.9272127E-2,-3.293321E-1,-2.1829005E-1,5.1630515E-4,2.0724395E-3,6.3919724E-4,4.5409286E-3,-8.9748275E-1,6.553965E-1,3.1960271E-3,1.12566355E-4,1.214638E-2,3.4800323E-3,-2.5910975E-3,-2.0862446E-4,-1.2777191E0,-5.514718E-2,2.1515085E-1,2.2632034E-1,-1.00073E-3,-4.797305E-3,-8.091063E-4,5.4793956E-4,5.5269822E-3,-8.1549364E-4,-1.2805555E-2,-2.2566807E-3,9.859797E-3,-1.5533014E-3,-6.480714E-4,1.3813972E-3],"split_indices":[34,35,52,49,16,52,42,48,14,0,1,1,6,8,1,0,0,14,14,0,0,0,0,1,0,0,0,0,0,0,0,17,49,23,30,0,0,0,0,0,0,0,0,0,0,0,0],"split_type":[0,0,0,0,0,0,0,0,0,0,0,0,0,0,0,0,0,0,0,0,0,0,0,0,0,0,0,0,0,0,0,0,0,0,0,0,0,0,0,0,0,0,0,0,0,0,0],"sum_hessian":[6.57E2,6.34E2,2.3E1,6.28E2,6E0,1.1E1,1.2E1,8E0,6.2E2,3E0,3E0,3E0,8E0,5E0,7E0,4E0,4E0,2.08E2,4.12E2,1E0,2E0,2E0,1E0,6E0,2E0,3E0,2E0,5E0,2E0,2E0,2E0,1.87E2,2.1E1,2E1,3.92E2,1E0,5E0,1E0,1E0,1.1E1,1.76E2,9E0,1.2E1,1.3E1,7E0,2.49E2,1.43E2],"tree_param":{"num_deleted":"0","num_feature":"60","num_nodes":"47","size_leaf_vector":"0"}},{"base_weights":[-6.862042E-5,-1.1797333E-2,3.1754194E-4,-2.1012815E-2,-3.1346541E-3,2.3640571E-2,5.8714817E-5,-2.5063828E-2,-3.2058407E-3,-5.778184E-3,6.721997E-3,3.6968984E-2,4.402015E-3,-3.1079195E-2,2.0689738E-4,4.0701032E-4,-5.2157715E-3,-8.883377E-4,-6.8896036E-3,8.337235E-3,1.7457604E-3,2.1146238E-4,5.7283784E-3,-9.412706E-3,-3.7206087E-2,1.1152119E-3,-4.7353324E-3,-8.4445914E-5,1.198163E-2,-2.5402514E-2,-1.8302575E-3,-1.1774093E-3,7.6041375E-3,-2.5257189E-2,1.5536986E-2,-3.1941924E-2,4.8630238E-3,1.2724338E-3,-2.338271E-2],"categories":[],"categories_nodes":[],"categories_segments":[],"categories_sizes":[],"default_left":[1,1,1,1,1,1,1,0,1,1,1,0,1,1,1,0,0,0,0,0,0,0,0,0,0,1,1,1,1,1,1,0,0,0,0,0,0,0,0],"id":52,"left_children":[1,3,5,7,9,11,13,-1,15,17,19,-1,21,23,25,-1,-1,-1,-1,-1,-1,-1,-1,-1,-1,27,29,31,33,35,37,-1,-1,-1,-1,-1,-1,-1,-1],"loss_changes":[2.9839515E-3,1.610578E-3,3.8499834E-3,6.4101256E-4,3.5151714E-4,1.6321978E-3,2.9225384E-3,0E0,2.3907614E-5,4.8226415E-5,9.5586E-6,0E0,2.1021442E-5,4.8034824E-5,2.8334132E-3,0E0,0E0,4.9255755E-7,0E0,0E0,0E0,0E0,0E0,0E0,0E0,6.949191E-3,5.837398E-3,4.05096E-3,7.409476E-3,2.5303601E-3,5.8474955E-3,0E0,0E0,0E0,0E0,0E0,0E0,0E0,0E0],"parents":[2147483647,0,0,1,1,2,2,3,3,4,4,5,5,6,6,8,8,9,9,10,10,12,12,13,13,14,14,25,25,26,26,27,27,28,28,29,29,30,30],"right_children":[2,4,6,8,10,12,14,-1,16,18,20,-1,22,24,26,-1,-1,-1,-1,-1,-1,-1,-1,-1,-1,28,30,32,34,36,38,-1,-1,-1,-1,-1,-1,-1,-1],"split_conditions":[-1.3374286E0,-6.2111482E-2,-1.561803E0,8.622026E-1,5.2856886E-1,3.279855E-1,-2.2761357E0,-7.5191488E-3,-1.1944085E0,-4.4980335E-1,7.3157895E-1,1.1090696E-2,1.8187329E-1,3.8072053E-1,5.8972883E-1,1.221031E-4,-1.5647315E-3,-2.665013E-4,-2.0668812E-3,2.5011706E-3,5.2372814E-4,6.343872E-5,1.7185136E-3,-2.823812E-3,-1.1161827E-2,3.9292383E-1,-7.8900945E-1,6.6113186E-1,-8.2580423E-1,6.2768054E-1,7.719921E-1,-3.532228E-4,2.2812414E-3,-7.577157E-3,4.6610963E-3,-9.582577E-3,1.4589072E-3,3.8173015E-4,-7.0148134E-3],"split_indices":[28,49,23,18,16,0,9,0,0,9,0,0,2,0,2,0,0,0,0,0,0,0,0,0,0,2,19,56,14,16,4,0,0,0,0,0,0,0,0],"split_type":[0,0,0,0,0,0,0,0,0,0,0,0,0,0,0,0,0,0,0,0,0,0,0,0,0,0,0,0,0,0,0,0,0,0,0,0,0,0,0],"sum_hessian":[6.57E2,2E1,6.37E2,9E0,1.1E1,6E0,6.31E2,7E0,2E0,9E0,2E0,3E0,3E0,2E0,6.29E2,1E0,1E0,2E0,7E0,1E0,1E0,1E0,2E0,1E0,1E0,5.32E2,9.7E1,4.8E2,5.2E1,1.1E1,8.6E1,4.21E2,5.9E1,4E0,4.8E1,9E0,2E0,7.6E1,1E1],"tree_param":{"num_deleted":"0","num_feature":"60","num_nodes":"39","size_leaf_vector":"0"}},{"base_weights":[-8.622297E-5,-3.669697E-2,2.535651E-5,6.0351426E-3,-6.673398E-4,-5.87058E-3,1.4018682E-2,2.169546E-2,-9.342443E-4,1.008754E-2,-2.0373454E-2,3.192096E-3,2.5226992E-2,3.154788E-2,-1.9570626E-3,6.735763E-3,-1.7284257E-3,1.5951104E-2,-1.672923E-2,-3.860552E-2,-1.023402E-2,-9.826836E-3,1.1333403E-2,-6.6747605E-3,3.36196E-2,4.9356017E-3,-7.871196E-3,-3.6085942E-3,1.2749927E-2,-2.593403E-3,7.011417E-3,2.8048689E-2,6.3962266E-3,-4.2542783E-3,-1.6558852E-2,5.9795827E-3,-1.2550087E-2,1.6962787E-2,-2.1920442E-3,8.190642E-3,-1.9315243E-2,1.2949496E-2,4.472672E-2,1.1959016E-2,-1.0632906E-2,2.3584391E-3,2.2433085E-2,-3.044759E-3,1.5376045E-2,-2.523664E-3,2.0486712E-2],"categories":[],"categories_nodes":[],"categories_segments":[],"categories_sizes":[],"default_left":[1,0,1,1,1,1,1,1,1,1,1,1,1,0,1,1,1,1,0,0,1,1,1,1,1,0,0,1,1,1,1,0,0,0,0,0,0,0,0,0,0,0,0,0,0,0,0,0,0,0,0],"id":53,"left_children":[1,-1,3,5,7,9,11,13,15,17,19,21,23,-1,25,27,29,31,-1,-1,33,35,37,39,41,-1,-1,43,45,47,49,-1,-1,-1,-1,-1,-1,-1,-1,-1,-1,-1,-1,-1,-1,-1,-1,-1,-1,-1,-1],"loss_changes":[2.6888659E-3,0E0,2.73909E-3,6.545685E-3,3.5418214E-3,6.6857995E-3,4.8947297E-3,1.6929833E-3,3.5690065E-3,2.4682358E-3,2.3778533E-3,2.4431762E-3,5.579183E-3,0E0,1.611415E-4,3.4677053E-3,4.024859E-3,1.2076853E-3,0E0,0E0,3.4558366E-4,4.6244776E-4,1.1031422E-3,1.0977335E-3,3.0941758E-3,0E0,0E0,2.4235458E-3,3.4688776E-3,3.9642435E-3,6.219127E-3,0E0,0E0,0E0,0E0,0E0,0E0,0E0,0E0,0E0,0E0,0E0,0E0,0E0,0E0,0E0,0E0,0E0,0E0,0E0,0E0],"parents":[2147483647,0,0,2,2,3,3,4,4,5,5,6,6,7,7,8,8,9,9,10,10,11,11,12,12,14,14,15,15,16,16,17,17,20,20,21,21,22,22,23,23,24,24,27,27,28,28,29,29,30,30],"right_children":[2,-1,4,6,8,10,12,14,16,18,20,22,24,-1,26,28,30,32,-1,-1,34,36,38,40,42,-1,-1,44,46,48,50,-1,-1,-1,-1,-1,-1,-1,-1,-1,-1,-1,-1,-1,-1,-1,-1,-1,-1,-1,-1],"split_conditions":[-2.3260856E0,-1.10090915E-2,-8.0989265E-1,-1.0203959E-1,-1.609044E0,-1.7364663E-1,-5.0126523E-2,9.253814E-1,-7.48026E-1,8.4294295E-1,-2.4852848E-1,-2.3652017E-1,-2.1377449E-1,9.4643645E-3,-3.622257E-1,-1.5718783E-1,9.4092786E-1,9.935324E-2,-5.0187693E-3,-1.1581656E-2,2.8362796E-1,-9.0691984E-1,5.033716E-1,-1.2890317E-1,7.5941674E-2,1.4806805E-3,-2.3613588E-3,-4.0087652E-1,8.7987155E-2,1.4138559E0,1.5470448E-1,8.414607E-3,1.918868E-3,-1.2762835E-3,-4.967656E-3,1.7938749E-3,-3.765026E-3,5.0888364E-3,-6.576133E-4,2.4571926E-3,-5.794573E-3,3.884849E-3,1.3418016E-2,3.587705E-3,-3.189872E-3,7.0753176E-4,6.729926E-3,-9.1342774E-4,4.6128137E-3,-7.570992E-4,6.146014E-3],"split_indices":[16,0,22,13,26,2,0,11,0,24,10,36,44,0,0,51,20,52,0,0,18,1,57,3,20,0,0,4,8,35,28,0,0,0,0,0,0,0,0,0,0,0,0,0,0,0,0,0,0,0,0],"split_type":[0,0,0,0,0,0,0,0,0,0,0,0,0,0,0,0,0,0,0,0,0,0,0,0,0,0,0,0,0,0,0,0,0,0,0,0,0,0,0,0,0,0,0,0,0,0,0,0,0,0,0],"sum_hessian":[6.57E2,1E0,6.56E2,6.7E1,5.89E2,2.7E1,4E1,6E0,5.83E2,1.3E1,1.4E1,2.1E1,1.9E1,4E0,2E0,5.4E1,5.29E2,1.1E1,2E0,4E0,1E1,8E0,1.3E1,4E0,1.5E1,1E0,1E0,2E1,3.4E1,4.82E2,4.7E1,4E0,7E0,6E0,4E0,1E0,7E0,9E0,4E0,2E0,2E0,6E0,9E0,6E0,1.4E1,1.7E1,1.7E1,4.71E2,1.1E1,2.8E1,1.9E1],"tree_param":{"num_deleted":"0","num_feature":"60","num_nodes":"51","size_leaf_vector":"0"}},{"base_weights":[-3.2371732E-5,2.926297E-2,-1.6629498E-4,-3.1713935E-4,2.4500621E-2,-3.4978264E-5,-1.3193279E-2,-4.9302634E-3,6.831762E-4,1.700473E-3,-2.8329955E-2,-5.1933765E-2,-3.7088154E-3,2.903617E-3,-1.899974E-3,-2.6076084E-3,1.5928522E-2,2.1476E-3,-3.376748E-2,-1.2081843E-3,-2.3579624E-2,2.5542201E-2,1.9568356E-3,-2.062812E-2,-3.3137837E-4,-5.5268835E-3,9.635687E-4],"categories":[],"categories_nodes":[],"categories_segments":[],"categories_sizes":[],"default_left":[1,0,1,1,0,1,1,1,1,1,1,0,1,1,1,1,0,0,0,0,0,0,0,0,0,0,0],"id":54,"left_children":[1,-1,3,5,-1,7,9,11,13,15,17,-1,19,21,23,25,-1,-1,-1,-1,-1,-1,-1,-1,-1,-1,-1],"loss_changes":[2.5864155E-3,0E0,2.448658E-3,2.3719824E-3,0E0,2.2533336E-3,3.2043608E-3,4.5151976E-3,3.211791E-3,5.3190003E-4,1.2325766E-3,0E0,3.996366E-3,6.401591E-3,7.6017776E-3,7.830227E-5,0E0,0E0,0E0,0E0,0E0,0E0,0E0,0E0,0E0,0E0,0E0],"parents":[2147483647,0,0,2,2,3,3,5,5,6,6,7,7,8,8,9,9,10,10,12,12,13,13,14,14,15,15],"right_children":[2,-1,4,6,-1,8,10,12,14,16,18,-1,20,22,24,26,-1,-1,-1,-1,-1,-1,-1,-1,-1,-1,-1],"split_conditions":[-2.2761357E0,8.7788915E-3,1.7500527E0,1.2960474E0,7.350187E-3,-6.3790226E-1,-1.2465719E-2,-1.4945434E0,5.2803908E-2,1.5640213E0,-5.017532E-1,-1.558013E-2,9.1400087E-1,-1.151892E0,9.725101E-2,-4.1982192E-1,4.7785565E-3,6.4428005E-4,-1.0130244E-2,-3.624553E-4,-7.073887E-3,7.662661E-3,5.870507E-4,-6.1884364E-3,-9.941351E-5,-1.6580651E-3,2.8907062E-4],"split_indices":[37,0,58,58,0,9,43,15,47,0,0,0,23,4,47,5,0,0,0,0,0,0,0,0,0,0,0],"split_type":[0,0,0,0,0,0,0,0,0,0,0,0,0,0,0,0,0,0,0,0,0,0,0,0,0,0,0],"sum_hessian":[6.57E2,2E0,6.55E2,6.52E2,3E0,6.39E2,1.3E1,8.1E1,5.58E2,7E0,6E0,1E0,8E1,3E2,2.58E2,6E0,1E0,1E0,5E0,7.2E1,8E0,1.1E1,2.89E2,1.9E1,2.39E2,3E0,3E0],"tree_param":{"num_deleted":"0","num_feature":"60","num_nodes":"27","size_leaf_vector":"0"}},{"base_weights":[-3.937983E-5,-2.377334E-4,1.6106565E-2,3.6956328E-3,-1.1335894E-3,2.3247521E-2,3.1537283E-3,1.2655539E-3,1.5904253E-2,-1.3993233E-3,1.8958392E-2,-1.442194E-3,5.1664338E-3,3.9329757E-3,-1.1400915E-2,3.326928E-3,3.090688E-2,-8.342471E-4,-1.1790942E-2,2.7974691E-2,-2.388239E-3,-9.029164E-3,5.78165E-3,-4.2621964E-3,-3.5320878E-2,-1.7379642E-2,9.206206E-3,3.814439E-3,3.810266E-2,2.3369038E-2,-1.1265253E-3,-1.764916E-2,1.7515048E-2,-4.428208E-3,8.458495E-4,-2.3736373E-2,-5.469138E-4,-6.492843E-3,8.222709E-3,-1.2730704E-2,4.739085E-3,1.3357315E-2,2.3836337E-3,-6.623268E-4,6.3839853E-3,-4.1119824E-3,1.2659366E-3,-2.3034243E-2,-2.049793E-3,2.3524165E-2,-3.2607093E-3],"categories":[],"categories_nodes":[],"categories_segments":[],"categories_sizes":[],"default_left":[1,1,1,1,1,0,1,1,1,1,1,0,0,1,1,1,1,1,1,0,1,1,1,1,0,0,1,1,0,0,1,1,1,0,0,0,0,0,0,0,0,0,0,0,0,0,0,0,0,0,0],"id":55,"left_children":[1,3,5,7,9,-1,11,13,15,17,19,-1,-1,21,23,25,27,29,31,-1,33,35,37,39,-1,-1,41,43,-1,-1,45,47,49,-1,-1,-1,-1,-1,-1,-1,-1,-1,-1,-1,-1,-1,-1,-1,-1,-1,-1],"loss_changes":[2.1111437E-3,2.2981376E-3,6.666486E-4,3.5696898E-3,2.8616015E-3,0E0,4.445195E-5,3.491095E-3,3.6710338E-3,3.0729934E-3,1.4140836E-3,0E0,0E0,2.089039E-3,2.9230972E-3,1.6208767E-3,1.6092202E-3,3.5562988E-3,4.94451E-3,0E0,2.3537916E-5,1.3592709E-3,2.3005963E-3,1.2037433E-3,0E0,0E0,2.513735E-4,3.873806E-5,0E0,0E0,3.5336462E-3,1.884874E-3,7.0092524E-4,0E0,0E0,0E0,0E0,0E0,0E0,0E0,0E0,0E0,0E0,0E0,0E0,0E0,0E0,0E0,0E0,0E0,0E0],"parents":[2147483647,0,0,1,1,2,2,3,3,4,4,6,6,7,7,8,8,9,9,10,10,13,13,14,14,15,15,16,16,17,17,18,18,20,20,21,21,22,22,23,23,26,26,27,27,30,30,31,31,32,32],"right_children":[2,4,6,8,10,-1,12,14,16,18,20,-1,-1,22,24,26,28,30,32,-1,34,36,38,40,-1,-1,42,44,-1,-1,46,48,50,-1,-1,-1,-1,-1,-1,-1,-1,-1,-1,-1,-1,-1,-1,-1,-1,-1,-1],"split_conditions":[1.6872079E0,-5.4382384E-1,-7.6458186E-2,5.562087E-1,1.5991962E0,6.9742566E-3,-8.222338E-1,4.7307286E-1,-1.1965301E-1,9.633618E-1,3.5821453E-1,-4.326582E-4,1.5499302E-3,-8.940135E-1,2.5327486E-1,-1.2726831E0,-5.121673E-1,-1.587192E0,8.907926E-1,8.392408E-3,5.9218657E-1,1.5006565E-1,-5.205297E-1,-6.2288024E-2,-1.0596264E-2,-5.2138926E-3,5.082114E-1,4.4646847E-1,1.1430798E-2,7.010712E-3,-9.790994E-2,2.7184913E-1,3.8907793E-1,-1.3284624E-3,2.5375487E-4,-7.120912E-3,-1.6407415E-4,-1.9478529E-3,2.466813E-3,-3.8192112E-3,1.4217256E-3,4.0071947E-3,7.1509014E-4,-1.9869805E-4,1.9151956E-3,-1.2335947E-3,3.79781E-4,-6.9102733E-3,-6.149379E-4,7.05725E-3,-9.782128E-4],"split_indices":[57,20,0,27,18,0,4,51,55,57,0,0,0,21,53,5,10,18,50,0,0,22,39,4,0,0,2,0,0,0,29,55,0,0,0,0,0,0,0,0,0,0,0,0,0,0,0,0,0,0,0],"split_type":[0,0,0,0,0,0,0,0,0,0,0,0,0,0,0,0,0,0,0,0,0,0,0,0,0,0,0,0,0,0,0,0,0,0,0,0,0,0,0,0,0,0,0,0,0,0,0,0,0,0,0],"sum_hessian":[6.57E2,6.5E2,7E0,1.2E2,5.3E2,4E0,3E0,1.01E2,1.9E1,5.24E2,6E0,1E0,2E0,8.4E1,1.7E1,1.1E1,8E0,4.98E2,2.6E1,4E0,2E0,1E1,7.4E1,1.4E1,3E0,2E0,9E0,2E0,6E0,5E0,4.93E2,2.2E1,4E0,1E0,1E0,3E0,7E0,1.2E1,6.2E1,7E0,7E0,5E0,4E0,1E0,1E0,2.19E2,2.74E2,1.6E1,6E0,3E0,1E0],"tree_param":{"num_deleted":"0","num_feature":"60","num_nodes":"51","size_leaf_vector":"0"}},{"base_weights":[-7.787599E-6,-3.1675875E-2,8.8626344E-5,2.279008E-3,-1.3516212E-3,-2.030041E-3,5.9606815E-3,-3.1185423E-3,4.377056E-3,4.2943405E-3,-6.8584783E-3,3.0043165E-3,1.6354095E-2,-7.0640966E-3,1.2566798E-3,9.4137015E-3,-4.788016E-3,1.7483208E-3,2.8386464E-2,4.2698174E-3,-1.2515448E-2,-2.2608494E-2,4.173099E-3,2.0727413E-2,-5.322629E-3,-9.992108E-3,1.6779862E-3,-1.398717E-2,2.9925657E-3,2.1245928E-2,2.194345E-3,4.8436993E-3,-1.5926426E-2,-1.1916993E-3,2.301708E-2,8.46535E-3,3.1250406E-2,2.4726748E-2,-1.0579063E-3,-1.5273655E-2,8.418203E-3,-2.487433E-2,-6.7725778E-3,2.8330892E-2,3.2038274E-3,2.4570728E-2,-6.553501E-3,1.335159E-3,-1.242547E-2,-2.8345096E-3,-1.6210716E-2,2.4800709E-2,-2.9945008E-3,7.658247E-4,-2.6991768E-2,-3.8248594E-3,7.976556E-3,8.697715E-3,3.6688834E-2,-2.395113E-3,1.5743284E-2,-1.9391617E-2,1.0599798E-2,-3.3276659E-3,-2.5355723E-2],"categories":[],"categories_nodes":[],"categories_segments":[],"categories_sizes":[],"default_left":[1,0,1,1,1,1,1,1,1,1,1,1,1,1,1,1,1,1,1,1,1,1,1,1,1,1,1,1,1,1,1,1,1,0,0,0,0,0,0,0,0,0,0,0,0,0,0,0,0,0,0,0,0,0,0,0,0,0,0,0,0,0,0,0,0],"id":56,"left_children":[1,-1,3,5,7,9,11,13,15,17,19,21,23,25,27,29,31,33,35,37,39,41,43,45,47,49,51,53,55,57,59,61,63,-1,-1,-1,-1,-1,-1,-1,-1,-1,-1,-1,-1,-1,-1,-1,-1,-1,-1,-1,-1,-1,-1,-1,-1,-1,-1,-1,-1,-1,-1,-1,-1],"loss_changes":[2.0118428E-3,0E0,2.0757131E-3,4.1527385E-3,4.032132E-3,3.7244149E-3,4.283335E-3,5.256732E-3,4.3842276E-3,3.2013396E-3,4.3971566E-3,3.4172223E-3,3.049099E-3,4.1122725E-3,3.8787876E-3,5.164064E-3,3.7247306E-3,3.091428E-3,2.0719133E-5,2.6418918E-3,2.7845865E-3,1.0944204E-5,2.4146875E-3,2.8871028E-3,3.0032522E-4,5.295287E-3,4.5039314E-3,2.8985227E-3,4.481625E-3,4.137852E-3,2.462816E-3,2.8560634E-3,1.816384E-3,0E0,0E0,0E0,0E0,0E0,0E0,0E0,0E0,0E0,0E0,0E0,0E0,0E0,0E0,0E0,0E0,0E0,0E0,0E0,0E0,0E0,0E0,0E0,0E0,0E0,0E0,0E0,0E0,0E0,0E0,0E0,0E0],"parents":[2147483647,0,0,2,2,3,3,4,4,5,5,6,6,7,7,8,8,9,9,10,10,11,11,12,12,13,13,14,14,15,15,16,16,17,17,18,18,19,19,20,20,21,21,22,22,23,23,24,24,25,25,26,26,27,27,28,28,29,29,30,30,31,31,32,32],"right_children":[2,-1,4,6,8,10,12,14,16,18,20,22,24,26,28,30,32,34,36,38,40,42,44,46,48,50,52,54,56,58,60,62,64,-1,-1,-1,-1,-1,-1,-1,-1,-1,-1,-1,-1,-1,-1,-1,-1,-1,-1,-1,-1,-1,-1,-1,-1,-1,-1,-1,-1,-1,-1,-1,-1],"split_conditions":[-2.3260856E0,-9.502763E-3,-1.5476032E-1,-1.5476032E-1,3.6051404E-1,-1.3542503E-1,4.378628E-1,5.3245097E-2,1.6440852E-1,7.577162E-1,-2.8774023E-1,-1.4196005E0,5.791055E-1,5.136554E-1,-8.7384534E-1,-3.717678E-2,3.5848007E-2,-2.2715333E-1,-1.1000628E0,-5.0324607E-1,8.688094E-1,8.050673E-1,-1.2301943E0,8.423927E-1,-2.478234E-1,-1.9578412E-1,-1.0642886E0,1.2129893E-2,-1.2976506E-1,2.4943877E-2,-1.2465719E-2,-1.0460813E0,-1.0808192E-1,-3.575098E-4,6.9051245E-3,2.539605E-3,9.375122E-3,7.418025E-3,-3.1737192E-4,-4.582097E-3,2.5254611E-3,-7.462299E-3,-2.0317733E-3,8.499268E-3,9.6114824E-4,7.3712184E-3,-1.9660504E-3,4.005477E-4,-3.7276412E-3,-8.503529E-4,-4.863215E-3,7.4402126E-3,-8.9835026E-4,2.2974741E-4,-8.09753E-3,-1.1474579E-3,2.392967E-3,2.6093144E-3,1.10066505E-2,-7.1853393E-4,4.7229854E-3,-5.817485E-3,3.1799395E-3,-9.982998E-4,-7.6067173E-3],"split_indices":[16,0,2,50,39,25,6,48,55,3,23,16,5,6,43,33,40,25,1,4,25,1,54,16,2,6,4,3,29,24,55,4,38,0,0,0,0,0,0,0,0,0,0,0,0,0,0,0,0,0,0,0,0,0,0,0,0,0,0,0,0,0,0,0,0],"split_type":[0,0,0,0,0,0,0,0,0,0,0,0,0,0,0,0,0,0,0,0,0,0,0,0,0,0,0,0,0,0,0,0,0,0,0,0,0,0,0,0,0,0,0,0,0,0,0,0,0,0,0,0,0,0,0,0,0,0,0,0,0,0,0,0,0],"sum_hessian":[6.57E2,1E0,6.56E2,2.6E2,3.96E2,1.2E2,1.4E2,3.03E2,9.3E1,5.2E1,6.8E1,1.1E2,3E1,1.59E2,1.44E2,6E1,3.3E1,4.8E1,4E0,2.3E1,4.5E1,4E0,1.06E2,2.5E1,5E0,1.19E2,4E1,1.4E1,1.3E2,2.2E1,3.8E1,1.8E1,1.5E1,4.3E1,5E0,1E0,3E0,4E0,1.9E1,4E1,5E0,3E0,1E0,3E0,1.03E2,2.2E1,3E0,3E0,2E0,5.6E1,6.3E1,6E0,3.4E1,7E0,7E0,5.5E1,7.5E1,1.3E1,9E0,2.9E1,9E0,3E0,1.5E1,7E0,8E0],"tree_param":{"num_deleted":"0","num_feature":"60","num_nodes":"65","size_leaf_vector":"0"}},{"base_weights":[1.9825724E-5,5.997181E-3,-4.815969E-4,9.220553E-3,-6.562402E-3,-1.1497842E-3,4.6703257E-3,-1.2744794E-3,1.26471585E-2,-1.3807414E-2,4.8930943E-3,1.1485388E-3,-2.9984333E-3,1.6662E-2,1.6430665E-3,-5.177146E-3,6.8494733E-3,1.5756248E-2,3.296468E-3,-5.308792E-3,-1.6145105E-2,-7.432298E-4,8.898388E-3,2.0227947E-3,-1.2158438E-2,-5.602073E-3,2.6515091E-3,2.62757E-2,-5.3554866E-4,-1.7783286E-3,9.154885E-3,-7.4607455E-3,1.1157691E-3,8.7211654E-4,8.55122E-3,1.1987757E-2,3.0659646E-2,5.1809466E-3,-2.199471E-3,1.398843E-4,-1.254729E-3,5.638518E-3,-1.6748244E-3,9.647177E-4,-2.7294146E-2,-8.579738E-3,1.0921562E-3,-1.0201076E-2,8.740411E-3,3.605957E-3,3.223763E-2,6.111001E-3,-5.3865737E-3,-7.150979E-3,4.536231E-3,1.997697E-2,3.455855E-3,-1.7170608E-4,1.8453598E-3,1.5037616E-2,5.533266E-3,-2.5710464E-4,-3.0421019E-3,-1.345219E-3,9.1025075E-3,1.1337727E-3,-9.483068E-3,9.080812E-3,-1.1450604E-2,-4.6203453E-3,-1.8560683E-2,6.0366094E-3,-1.00874705E-2,-4.509918E-2,-6.2391665E-3,6.387379E-3,4.302731E-2,-2.005592E-3,7.4145272E-3,-3.2397243E-3,-1.506942E-2,-4.5363384E-4,2.3361633E-2,2.1656243E-2,5.7903007E-3,-5.5398964E-3,5.595073E-3],"categories":[],"categories_nodes":[],"categories_segments":[],"categories_sizes":[],"default_left":[1,1,1,1,1,1,1,1,1,1,1,1,1,1,1,1,1,1,1,0,0,1,0,1,1,1,1,1,1,1,1,0,1,0,0,1,0,0,1,0,0,1,1,1,0,1,1,1,1,1,0,0,0,1,1,1,1,0,0,0,0,0,0,0,0,0,0,0,0,0,0,0,0,0,0,0,0,0,0,0,0,0,0,0,0,0,0],"id":57,"left_children":[1,3,5,7,9,11,13,15,17,19,21,23,25,27,29,31,33,35,37,-1,-1,39,-1,41,43,45,47,49,51,53,55,-1,57,-1,-1,59,-1,-1,61,-1,-1,63,65,67,-1,69,71,73,75,77,-1,-1,-1,79,81,83,85,-1,-1,-1,-1,-1,-1,-1,-1,-1,-1,-1,-1,-1,-1,-1,-1,-1,-1,-1,-1,-1,-1,-1,-1,-1,-1,-1,-1,-1,-1],"loss_changes":[1.9750332E-3,2.1252031E-3,2.098379E-3,1.4905748E-3,9.805083E-4,2.293543E-3,2.513757E-3,3.8421658E-4,8.4929634E-4,5.3358963E-5,1.19489196E-4,2.8283168E-3,4.413267E-3,2.328721E-3,1.4812317E-3,1.2328847E-4,3.3230128E-5,9.242161E-4,1.04608145E-4,0E0,0E0,1.5306535E-6,0E0,3.0443356E-3,3.005755E-3,4.0956717E-3,7.5236843E-3,1.1001518E-3,2.2637282E-4,1.3894753E-3,1.0411196E-3,0E0,3.1348493E-6,0E0,0E0,3.1049852E-4,0E0,0E0,4.1279563E-6,0E0,0E0,2.7942786E-3,2.4888657E-3,1.0108561E-3,0E0,5.5258675E-3,3.5986311E-3,4.004776E-3,4.9692504E-3,7.898646E-5,0E0,0E0,0E0,6.325423E-4,1.7953855E-3,1.7543556E-5,2.811665E-4,0E0,0E0,0E0,0E0,0E0,0E0,0E0,0E0,0E0,0E0,0E0,0E0,0E0,0E0,0E0,0E0,0E0,0E0,0E0,0E0,0E0,0E0,0E0,0E0,0E0,0E0,0E0,0E0,0E0,0E0],"parents":[2147483647,0,0,1,1,2,2,3,3,4,4,5,5,6,6,7,7,8,8,9,9,10,10,11,11,12,12,13,13,14,14,15,15,16,16,17,17,18,18,21,21,23,23,24,24,25,25,26,26,27,27,28,28,29,29,30,30,32,32,35,35,38,38,41,41,42,42,43,43,45,45,46,46,47,47,48,48,49,49,53,53,54,54,55,55,56,56],"right_children":[2,4,6,8,10,12,14,16,18,20,22,24,26,28,30,32,34,36,38,-1,-1,40,-1,42,44,46,48,50,52,54,56,-1,58,-1,-1,60,-1,-1,62,-1,-1,64,66,68,-1,70,72,74,76,78,-1,-1,-1,80,82,84,86,-1,-1,-1,-1,-1,-1,-1,-1,-1,-1,-1,-1,-1,-1,-1,-1,-1,-1,-1,-1,-1,-1,-1,-1,-1,-1,-1,-1,-1,-1],"split_conditions":[-9.556428E-1,4.8351163E-1,8.282821E-1,-5.7539535E-1,2.783727E-3,-1.013239E-1,-5.310576E-1,-4.070843E-2,3.6233553E-1,-8.688587E-1,-2.9512957E-1,1.0329862E0,3.6275777E-1,2.6423448E-1,3.590033E-1,7.378113E-1,-9.5701075E-1,-1.064326E0,2.4033767E-1,-1.5926376E-3,-4.8435316E-3,-5.7303196E-1,2.6695165E-3,5.674117E-2,-2.768062E-2,3.7199327E-1,-3.2825172E-1,-4.453851E-1,-3.2044223E-1,1.4037839E-1,-1.8913026E-1,-2.2382238E-3,7.047001E-1,2.6163497E-4,2.5653662E-3,1.2289643E-1,9.1978945E-3,1.554284E-3,-9.6669E-2,4.1965293E-5,-3.7641873E-4,-2.8177837E-1,3.68722E-1,-1.8623117E-1,-8.188244E-3,3.731693E-1,3.326844E-1,-9.9474466E-1,9.951836E-1,-5.968723E-2,9.6712895E-3,1.8333005E-3,-1.6159721E-3,2.2050938E-1,1.019294E0,1.1702316E-1,-1.1294552E0,-5.1511826E-5,5.5360794E-4,4.511285E-3,1.6599798E-3,-7.713139E-5,-9.126306E-4,-4.035657E-4,2.7307523E-3,3.401318E-4,-2.8449206E-3,2.7242438E-3,-3.4351812E-3,-1.3861037E-3,-5.5682054E-3,1.8109829E-3,-3.0262412E-3,-1.3529754E-2,-1.87175E-3,1.9162138E-3,1.2908194E-2,-6.0167763E-4,2.2243583E-3,-9.7191735E-4,-4.5208265E-3,-1.3609015E-4,7.00849E-3,6.496873E-3,1.7370903E-3,-1.661969E-3,1.678522E-3],"split_indices":[48,53,51,15,44,44,54,36,41,5,0,0,24,34,19,6,0,48,1,0,0,0,0,48,37,48,53,8,1,41,37,0,0,0,0,35,0,0,0,0,0,59,40,14,0,14,56,10,29,0,0,0,0,10,54,1,29,0,0,0,0,0,0,0,0,0,0,0,0,0,0,0,0,0,0,0,0,0,0,0,0,0,0,0,0,0,0],"split_type":[0,0,0,0,0,0,0,0,0,0,0,0,0,0,0,0,0,0,0,0,0,0,0,0,0,0,0,0,0,0,0,0,0,0,0,0,0,0,0,0,0,0,0,0,0,0,0,0,0,0,0,0,0,0,0,0,0,0,0,0,0,0,0,0,0,0,0,0,0,0,0,0,0,0,0,0,0,0,0,0,0,0,0,0,0,0,0],"sum_hessian":[6.57E2,5E1,6.07E2,4E1,1E1,5.38E2,6.9E1,1E1,3E1,6E0,4E0,2.4E2,2.98E2,1.3E1,5.6E1,7E0,3E0,2.2E1,8E0,2E0,4E0,2E0,2E0,2.26E2,1.4E1,2.04E2,9.4E1,8E0,5E0,3.9E1,1.7E1,5E0,2E0,1E0,2E0,1.9E1,3E0,6E0,2E0,1E0,1E0,1.14E2,1.12E2,8E0,6E0,1.41E2,6.3E1,3E1,6.4E1,2E0,6E0,2E0,3E0,2.1E1,1.8E1,5E0,1.2E1,1E0,1E0,1.2E1,7E0,1E0,1E0,3.8E1,7.6E1,8.3E1,2.9E1,5E0,3E0,1.02E2,3.9E1,4.4E1,1.9E1,2E0,2.8E1,6.1E1,3E0,1E0,1E0,1.5E1,6E0,1.5E1,3E0,4E0,1E0,2E0,1E1],"tree_param":{"num_deleted":"0","num_feature":"60","num_nodes":"87","size_leaf_vector":"0"}},{"base_weights":[3.8563838E-5,-7.2892406E-3,3.6366677E-4,-1.2091637E-3,-1.8112462E-2,-9.921184E-3,6.4737216E-4,-3.6304859E-3,1.2914717E-2,-2.5303202E-2,-1.0005534E-3,-1.7721288E-2,3.7534353E-3,7.399812E-6,5.325989E-3,4.1741454E-3,-7.2302613E-3,-3.6877792E-3,3.530562E-3,-1.9787282E-3,-2.3377407E-2,-2.621375E-3,9.189887E-3,3.01126E-4,-1.29906E-2,1.4899726E-2,-1.1748583E-3,7.2297305E-3,-1.2913495E-3,-9.931722E-3,-1.4618725E-3,5.813205E-3,-6.5137744E-3,4.7583878E-4,-3.8123925E-3,9.113045E-3,-1.3398075E-4,-2.441068E-3,-4.382551E-2,1.756758E-2,-6.833218E-3,1.3362798E-2,-4.679292E-3,7.5398386E-4,-2.6910082E-3,-1.6862452E-3,-1.0868754E-2,-2.175834E-3,6.969869E-4,3.4755978E-3,2.6385698E-2,1.6343016E-2,-3.9734473E-4,3.1670928E-3,-4.238995E-3,1.2615851E-2,3.279599E-2,-3.5879263E-4,1.7334508E-2,5.4510306E-3,-9.759888E-3],"categories":[],"categories_nodes":[],"categories_segments":[],"categories_sizes":[],"default_left":[1,1,1,1,1,1,1,1,0,0,1,1,1,1,1,1,1,0,0,1,0,1,0,1,1,1,1,0,1,1,1,0,0,0,0,1,1,1,0,1,0,1,1,0,0,0,0,0,0,0,0,0,0,0,0,0,0,0,0,0,0],"id":58,"left_children":[1,3,5,7,9,11,13,15,-1,-1,17,19,21,23,25,27,29,-1,-1,31,-1,33,-1,35,37,39,41,-1,43,45,47,-1,-1,-1,-1,49,51,53,-1,55,-1,57,59,-1,-1,-1,-1,-1,-1,-1,-1,-1,-1,-1,-1,-1,-1,-1,-1,-1,-1],"loss_changes":[1.5701981E-3,1.8206676E-3,1.8475968E-3,6.9665763E-4,1.2051554E-3,1.8797946E-3,1.8413845E-3,5.0779385E-4,0E0,0E0,6.172445E-5,9.332022E-4,2.6668457E-4,2.0731883E-3,4.623073E-3,1.0953781E-4,1.7247797E-4,0E0,0E0,1.79213E-4,0E0,1.6569425E-5,0E0,2.037142E-3,3.7965456E-3,1.8594526E-3,2.35511E-3,0E0,1.0617283E-5,4.348287E-5,9.223241E-6,0E0,0E0,0E0,0E0,2.342636E-3,2.2065938E-3,1.14255905E-4,0E0,1.6222382E-3,0E0,4.967032E-4,1.9575204E-3,0E0,0E0,0E0,0E0,0E0,0E0,0E0,0E0,0E0,0E0,0E0,0E0,0E0,0E0,0E0,0E0,0E0,0E0],"parents":[2147483647,0,0,1,1,2,2,3,3,4,4,5,5,6,6,7,7,10,10,11,11,12,12,13,13,14,14,15,15,16,16,19,19,21,21,23,23,24,24,25,25,26,26,28,28,29,29,30,30,35,35,36,36,37,37,39,39,41,41,42,42],"right_children":[2,4,6,8,10,12,14,16,-1,-1,18,20,22,24,26,28,30,-1,-1,32,-1,34,-1,36,38,40,42,-1,44,46,48,-1,-1,-1,-1,50,52,54,-1,56,-1,58,60,-1,-1,-1,-1,-1,-1,-1,-1,-1,-1,-1,-1,-1,-1,-1,-1,-1,-1],"split_conditions":[-1.2651558E0,-1.3610724E-1,-1.3751466E0,3.825732E-1,1.0140283E-1,1.00054674E-1,6.725696E-1,-5.946946E-1,3.8744153E-3,-7.5909607E-3,-2.0990701E-1,1.447369E-2,3.0853648E-2,1.3365498E0,-1.6225919E-1,3.803855E-1,1.2111821E-1,-1.1063338E-3,1.0591686E-3,-1.8162207E-1,-7.0132227E-3,-7.6949075E-2,2.7569663E-3,-9.556428E-1,3.6257517E-1,6.0653543E-1,-7.6195806E-1,2.1689192E-3,6.297518E-1,-5.568454E-1,3.6906865E-1,1.7439616E-3,-1.9541325E-3,1.4275164E-4,-1.1437178E-3,7.404692E-1,-1.4345737E0,-1.1984663E0,-1.3147654E-2,4.8474762E-1,-2.0499656E-3,-5.057287E-1,-4.1974276E-1,2.2619516E-4,-8.073025E-4,-5.058736E-4,-3.2606265E-3,-6.5275026E-4,2.0909608E-4,1.0426794E-3,7.91571E-3,4.902905E-3,-1.19203425E-4,9.501279E-4,-1.2716985E-3,3.7847555E-3,9.838798E-3,-1.07637796E-4,5.2003525E-3,1.6353092E-3,-2.9279664E-3],"split_indices":[7,2,2,10,16,55,32,54,0,0,0,31,11,38,57,0,38,0,0,0,0,1,0,7,1,41,6,0,0,1,1,0,0,0,0,26,25,17,0,42,0,21,55,0,0,0,0,0,0,0,0,0,0,0,0,0,0,0,0,0,0],"split_type":[0,0,0,0,0,0,0,0,0,0,0,0,0,0,0,0,0,0,0,0,0,0,0,0,0,0,0,0,0,0,0,0,0,0,0,0,0,0,0,0,0,0,0,0,0,0,0,0,0,0,0,0,0,0,0,0,0,0,0,0,0],"sum_hessian":[6.57E2,2.7E1,6.3E2,1.8E1,9E0,1.6E1,6.14E2,1.6E1,2E0,6E0,3E0,1E1,6E0,5.41E2,7.3E1,5E0,1.1E1,2E0,1E0,3E0,7E0,3E0,3E0,5.3E2,1.1E1,2.9E1,4.4E1,3E0,2E0,7E0,4E0,1E0,2E0,1E0,2E0,2.4E1,5.06E2,9E0,2E0,2.6E1,3E0,8E0,3.6E1,1E0,1E0,1E0,6E0,3E0,1E0,1.9E1,5E0,7E0,4.99E2,2E0,7E0,2.1E1,5E0,2E0,6E0,1.2E1,2.4E1],"tree_param":{"num_deleted":"0","num_feature":"60","num_nodes":"61","size_leaf_vector":"0"}},{"base_weights":[3.276253E-5,1.01127215E-2,-1.8607808E-4,2.3245312E-2,2.5351546E-3,4.723836E-4,-4.099446E-3,6.06933E-3,-2.212887E-3,-9.933903E-4,3.7526118E-3,-1.27560785E-2,-9.0357265E-4,6.716761E-3,1.4160872E-3,4.9068313E-4,-3.0114502E-3,9.310893E-3,-1.6168733E-3,6.1544883E-3,-1.7110842E-3,-2.3304146E-2,6.1300566E-4,-2.6394824E-2,2.513128E-4,1.7416E-2,2.3599719E-3,-3.093763E-3,3.627835E-3,-1.7627222E-3,8.497178E-3,-2.0513786E-2,6.749013E-4,2.581294E-3,-3.391645E-2,-6.940551E-3,6.999911E-3,-3.2260865E-2,-7.3313713E-3,1.2993561E-2,-1.2150323E-3,7.935563E-3,2.2413699E-2,-7.949333E-4,7.566807E-3,-4.627492E-3,4.7059706E-3,-7.263567E-3,6.6820793E-3,-5.294234E-3,6.2809405E-3,2.2182835E-2,6.5576723E-3,-5.2423477E-3,-2.2519605E-2,2.1991357E-3,-2.292166E-2,6.259501E-3,9.686686E-5,-4.6290293E-2,-1.228455E-2,-8.630853E-3,-2.373298E-3,8.310271E-3,2.4826725E-3,3.2498683E-3,-5.1019136E-3],"categories":[],"categories_nodes":[],"categories_segments":[],"categories_sizes":[],"default_left":[1,1,1,0,1,1,1,1,1,1,1,1,1,0,0,0,0,1,1,1,1,1,1,1,1,1,1,1,1,1,1,1,1,1,1,1,1,0,0,0,1,0,0,0,0,0,0,0,0,0,0,0,0,0,0,0,0,0,0,0,0,0,0,0,0,0,0],"id":59,"left_children":[1,3,5,-1,7,9,11,13,15,17,19,21,23,-1,-1,-1,-1,25,27,29,31,33,35,37,39,41,43,45,47,49,51,53,55,57,59,61,63,-1,-1,-1,65,-1,-1,-1,-1,-1,-1,-1,-1,-1,-1,-1,-1,-1,-1,-1,-1,-1,-1,-1,-1,-1,-1,-1,-1,-1,-1],"loss_changes":[1.4533668E-3,1.3342529E-3,1.6639744E-3,0E0,1.8123485E-4,2.6625923E-3,2.561366E-3,8.564413E-6,1.2272527E-5,2.4756554E-3,2.2545848E-3,3.5397355E-3,2.0379573E-3,0E0,0E0,0E0,9.529322E-8,1.1983339E-3,2.8152238E-3,2.222138E-3,2.3915821E-3,3.9334074E-3,6.2750943E-4,9.8964665E-5,1.2676513E-3,2.9593823E-4,2.1956702E-4,3.4072143E-3,2.7097357E-3,8.2862895E-4,2.2965255E-3,6.573484E-5,1.7768092E-3,4.5084842E-5,2.1080421E-3,2.5836634E-5,2.0802836E-5,0E0,0E0,0E0,1.0752075E-3,0E0,0E0,0E0,0E0,0E0,0E0,0E0,0E0,0E0,0E0,0E0,0E0,0E0,0E0,0E0,0E0,0E0,0E0,0E0,0E0,0E0,0E0,0E0,0E0,0E0,0E0],"parents":[2147483647,0,0,1,1,2,2,4,4,5,5,6,6,7,7,8,8,9,9,10,10,11,11,12,12,17,17,18,18,19,19,20,20,21,21,22,22,23,23,24,24,25,25,26,26,27,27,28,28,29,29,30,30,31,31,32,32,33,33,34,34,35,35,36,36,40,40],"right_children":[2,4,6,-1,8,10,12,14,16,18,20,22,24,-1,-1,-1,-1,26,28,30,32,34,36,38,40,42,44,46,48,50,52,54,56,58,60,62,64,-1,-1,-1,66,-1,-1,-1,-1,-1,-1,-1,-1,-1,-1,-1,-1,-1,-1,-1,-1,-1,-1,-1,-1,-1,-1,-1,-1,-1,-1],"split_conditions":[-1.3315588E0,-4.9964324E-1,6.3030756E-1,6.973594E-3,4.2921826E-2,1.2911618E-1,-4.1126326E-1,9.073007E-2,-1.8527669E-1,-1.0482774E0,4.056667E-1,-7.907222E-2,-1.2736566E0,2.0150284E-3,4.2482617E-4,1.4720495E-4,-9.034351E-4,-2.3326145E-1,5.260358E-1,-3.673085E-1,-9.9886405E-1,-3.856306E-1,-3.0584356E-1,3.335948E-1,-1.1301367E0,5.4308895E-2,-3.842311E-4,5.713726E-1,-6.107563E-1,4.8259994E-1,-6.530954E-1,-1.0850976E0,5.8536804E-1,7.633548E-1,-3.659429E-2,-1.4233233E-1,1.3870114E-1,-9.6782595E-3,-2.1994114E-3,3.8980686E-3,-1.5401545E-1,2.3806691E-3,6.72411E-3,-2.3848E-4,2.2700422E-3,-1.3882476E-3,1.4117912E-3,-2.1790701E-3,2.0046239E-3,-1.5882703E-3,1.8842822E-3,6.6548507E-3,1.9673018E-3,-1.5727044E-3,-6.755882E-3,6.5974076E-4,-6.8764985E-3,1.8778504E-3,2.906006E-5,-1.3887089E-2,-3.6853652E-3,-2.589256E-3,-7.119894E-4,2.4930816E-3,7.448018E-4,9.749605E-4,-1.5305742E-3],"split_indices":[52,5,35,0,59,35,26,1,1,6,48,51,23,0,0,0,0,15,24,42,5,3,37,0,16,21,50,5,42,29,25,1,35,1,53,5,11,0,0,0,14,0,0,0,0,0,0,0,0,0,0,0,0,0,0,0,0,0,0,0,0,0,0,0,0,0,0],"split_type":[0,0,0,0,0,0,0,0,0,0,0,0,0,0,0,0,0,0,0,0,0,0,0,0,0,0,0,0,0,0,0,0,0,0,0,0,0,0,0,0,0,0,0,0,0,0,0,0,0,0,0,0,0,0,0,0,0,0,0,0,0,0,0,0,0,0,0],"sum_hessian":[6.57E2,1.3E1,6.44E2,4E0,9E0,5.52E2,9.2E1,5E0,4E0,3.82E2,1.7E2,2.4E1,6.8E1,4E0,1E0,1E0,3E0,2.1E1,3.61E2,1.18E2,5.2E1,1.3E1,1.1E1,2E0,6.6E1,9E0,1.2E1,2.82E2,7.9E1,2.7E1,9.1E1,5E0,4.7E1,4E0,9E0,5E0,6E0,1E0,1E0,6E0,6E1,4E0,5E0,8E0,4E0,2.36E2,4.6E1,1.7E1,6.2E1,1.9E1,8E0,1E1,8.1E1,1E0,4E0,4.5E1,2E0,1E0,3E0,5E0,4E0,3E0,2E0,4E0,2E0,2.8E1,3.2E1],"tree_param":{"num_deleted":"0","num_feature":"60","num_nodes":"67","size_leaf_vector":"0"}},{"base_weights":[7.3560095E-6,-2.5346696E-2,8.45261E-5,-1.7508183E-3,1.110727E-3,-4.5949323E-4,-1.5674155E-2,1.8015135E-3,-8.312743E-3,-6.2206537E-3,9.587319E-4,-3.032371E-2,2.0077715E-3,4.2640744E-3,-3.7646404E-4,-2.8443323E-2,-1.8246213E-3,-1.0059192E-3,-2.1299344E-2,-5.9212674E-4,6.9632176E-3,-3.6070417E-3,-4.5075085E-2,1.5183856E-2,-3.1842317E-3,6.2532662E-3,-5.0877556E-3,3.1061114E-3,-4.2383582E-3,-3.781174E-2,-1.1964075E-2,6.223632E-3,-9.720823E-3,-1.3334353E-2,1.671814E-3,-2.8920308E-2,-7.3258206E-4,-7.398319E-3,1.2527192E-3,3.1444282E-4,1.4375704E-2,-6.671717E-3,6.599805E-4,-4.8206262E-2,-1.3144016E-2,2.277871E-3,-5.384578E-3,7.610232E-3,-1.1955767E-2,2.3865835E-3,-1.144896E-2,-1.3768686E-3,8.806553E-3,-7.9268105E-3,1.9882433E-3,2.32044E-3,1.3449905E-2,-1.1949857E-2,9.495641E-4],"categories":[],"categories_nodes":[],"categories_segments":[],"categories_sizes":[],"default_left":[1,0,1,1,1,1,1,1,1,1,1,1,1,1,1,1,1,1,1,1,1,1,1,0,1,1,1,1,1,0,0,1,1,0,0,0,0,0,0,0,0,0,0,0,0,0,0,0,0,0,0,0,0,0,0,0,0,0,0],"id":60,"left_children":[1,-1,3,5,7,9,11,13,15,17,19,21,23,25,27,29,31,33,35,37,39,41,43,-1,45,47,49,51,53,-1,-1,55,57,-1,-1,-1,-1,-1,-1,-1,-1,-1,-1,-1,-1,-1,-1,-1,-1,-1,-1,-1,-1,-1,-1,-1,-1,-1,-1],"loss_changes":[1.2895685E-3,0E0,1.2393595E-3,4.2359727E-3,2.7620296E-3,1.7789891E-3,5.2415296E-3,2.1147858E-3,3.7357819E-3,3.3597231E-3,1.633742E-3,4.172597E-3,7.324516E-4,3.473293E-3,2.8375261E-3,6.2830886E-4,1.5221632E-3,1.1116969E-3,1.7029373E-3,1.7671608E-3,1.7697021E-3,6.978838E-5,6.624777E-5,0E0,1.0841351E-4,3.8714688E-3,1.5963351E-3,2.848727E-3,2.312413E-3,0E0,0E0,3.0725665E-4,2.9676303E-4,0E0,0E0,0E0,0E0,0E0,0E0,0E0,0E0,0E0,0E0,0E0,0E0,0E0,0E0,0E0,0E0,0E0,0E0,0E0,0E0,0E0,0E0,0E0,0E0,0E0,0E0],"parents":[2147483647,0,0,2,2,3,3,4,4,5,5,6,6,7,7,8,8,9,9,10,10,11,11,12,12,13,13,14,14,15,15,16,16,17,17,18,18,19,19,20,20,21,21,22,22,24,24,25,25,26,26,27,27,28,28,31,31,32,32],"right_children":[2,-1,4,6,8,10,12,14,16,18,20,22,24,26,28,30,32,34,36,38,40,42,44,-1,46,48,50,52,54,-1,-1,56,58,-1,-1,-1,-1,-1,-1,-1,-1,-1,-1,-1,-1,-1,-1,-1,-1,-1,-1,-1,-1,-1,-1,-1,-1,-1,-1],"split_conditions":[-2.8997092E0,-7.604009E-3,-2.4972686E-1,-2.9999617E-1,9.570254E-1,-5.378121E-1,-3.26353E-2,-2.3998689E-2,-4.7563756E-1,4.886973E-1,5.026401E-1,-3.6304393E-1,-4.3625832E-1,5.8004487E-1,5.1074006E-2,-8.7969586E-2,-1.3558385E-1,-4.843772E-1,2.595087E-1,-3.92636E-1,2.6130129E-2,-8.7025315E-1,6.2083435E-1,4.555157E-3,-4.4148988E-1,8.1882966E-1,-6.3123584E-2,9.038699E-2,1.616463E-1,-1.1343523E-2,-3.5892227E-3,2.907577E-1,1.1890942E0,-4.000306E-3,5.015442E-4,-8.676093E-3,-2.1977462E-4,-2.2194958E-3,3.7581578E-4,9.433285E-5,4.3127113E-3,-2.0015151E-3,1.9799416E-4,-1.446188E-2,-3.943205E-3,6.833613E-4,-1.6153734E-3,2.2830698E-3,-3.5867302E-3,7.1597507E-4,-3.434688E-3,-4.130606E-4,2.6419659E-3,-2.3780433E-3,5.96473E-4,6.96132E-4,4.034972E-3,-3.5849572E-3,2.8486925E-4],"split_indices":[32,0,33,33,11,14,45,46,4,8,30,1,0,50,23,36,59,7,22,46,22,1,2,0,7,42,36,17,14,0,0,0,20,0,0,0,0,0,0,0,0,0,0,0,0,0,0,0,0,0,0,0,0,0,0,0,0,0,0],"split_type":[0,0,0,0,0,0,0,0,0,0,0,0,0,0,0,0,0,0,0,0,0,0,0,0,0,0,0,0,0,0,0,0,0,0,0,0,0,0,0,0,0,0,0,0,0,0,0,0,0,0,0,0,0,0,0,0,0,0,0],"sum_hessian":[6.57E2,1E0,6.56E2,2.35E2,4.21E2,2.16E2,1.9E1,3.93E2,2.8E1,4.2E1,1.74E2,1E1,9E0,1.84E2,2.09E2,6E0,2.2E1,3.2E1,1E1,1.39E2,3.5E1,4E0,6E0,2E0,7E0,1.52E2,3.2E1,1.1E2,9.9E1,3E0,3E0,1.1E1,1.1E1,5E0,2.7E1,7E0,3E0,2.9E1,1.1E2,1.9E1,1.6E1,2E0,2E0,5E0,1E0,2E0,5E0,1.42E2,1E1,1.5E1,1.7E1,6.2E1,4.8E1,6.2E1,3.7E1,8E0,3E0,9E0,2E0],"tree_param":{"num_deleted":"0","num_feature":"60","num_nodes":"59","size_leaf_vector":"0"}},{"base_weights":[-7.2509145E-5,2.5018215E-2,-1.4877846E-4,9.936404E-3,-3.2001222E-4,-8.256175E-3,2.6472917E-2,-2.5466077E-3,4.1674735E-4,-1.6828755E-2,2.3730472E-4,-1.1806892E-3,-1.2117299E-2,1.1224412E-2,1.6664031E-4,-3.5566937E-3,5.80965E-3,7.566889E-3,-3.3002675E-3,-1.6159853E-2,8.632739E-6,1.9256845E-2,-2.2658757E-3,6.60726E-4,-5.247764E-3,1.8703166E-2,-1.9542668E-3,-7.195096E-3,2.092667E-3,-2.0978637E-2,-7.65572E-3,-4.766211E-3,6.3722134E-3,2.1075534E-2,4.172355E-3,5.386427E-3,-5.5255583E-3,2.828693E-3,-1.3302513E-3,-1.6447905E-2,-1.4655321E-3],"categories":[],"categories_nodes":[],"categories_segments":[],"categories_sizes":[],"default_left":[1,0,1,1,1,1,0,1,1,0,1,1,1,1,1,0,0,1,1,1,1,1,1,1,1,0,0,0,0,0,0,0,0,0,0,0,0,0,0,0,0],"id":61,"left_children":[1,-1,3,5,7,9,-1,11,13,-1,15,17,19,21,23,-1,-1,25,27,29,31,33,35,37,39,-1,-1,-1,-1,-1,-1,-1,-1,-1,-1,-1,-1,-1,-1,-1,-1],"loss_changes":[1.2629054E-3,0E0,1.1377686E-3,3.5278248E-3,1.0624424E-3,4.4085976E-4,0E0,2.0904117E-3,1.3145263E-3,0E0,1.0522902E-4,2.6578198E-3,9.805341E-4,1.2355917E-3,1.2795279E-3,0E0,0E0,3.005397E-3,2.430581E-3,4.5408728E-4,2.1268193E-4,1.0410347E-4,1.5448341E-4,1.8943344E-3,1.6703565E-3,0E0,0E0,0E0,0E0,0E0,0E0,0E0,0E0,0E0,0E0,0E0,0E0,0E0,0E0,0E0,0E0],"parents":[2147483647,0,0,2,2,3,3,4,4,5,5,7,7,8,8,10,10,11,11,12,12,13,13,14,14,17,17,18,18,19,19,20,20,21,21,22,22,23,23,24,24],"right_children":[2,-1,4,6,8,10,-1,12,14,-1,16,18,20,22,24,-1,-1,26,28,30,32,34,36,38,40,-1,-1,-1,-1,-1,-1,-1,-1,-1,-1,-1,-1,-1,-1,-1,-1],"split_conditions":[-2.8997092E0,7.505465E-3,-1.609044E0,-3.0165913E-2,-4.0734768E-1,-3.2072932E-1,7.941876E-3,6.310853E-1,-1.2845187E0,-5.0486266E-3,2.902284E-1,-5.204371E-1,3.672834E-1,4.9788773E-1,9.4092786E-1,-1.0670081E-3,1.742895E-3,8.488804E-2,2.88327E-1,9.739102E-2,-9.1145836E-2,4.6965566E-1,-7.897569E-1,-5.0894715E-2,-6.2067276E-1,5.6109503E-3,-5.862801E-4,-2.158529E-3,6.278001E-4,-6.2935916E-3,-2.2967162E-3,-1.4298633E-3,1.911664E-3,6.3226605E-3,1.2517065E-3,1.6159281E-3,-1.6576676E-3,8.486079E-4,-3.9907542E-4,-4.934372E-3,-4.3965966E-4],"split_indices":[35,0,17,6,35,0,0,42,34,0,1,51,29,7,28,0,0,45,51,59,6,0,0,3,55,0,0,0,0,0,0,0,0,0,0,0,0,0,0,0,0],"split_type":[0,0,0,0,0,0,0,0,0,0,0,0,0,0,0,0,0,0,0,0,0,0,0,0,0,0,0,0,0,0,0,0,0,0,0,0,0,0,0,0,0],"sum_hessian":[6.57E2,1E0,6.56E2,1E1,6.46E2,5E0,5E0,1.6E2,4.86E2,2E0,3E0,1.41E2,1.9E1,1E1,4.76E2,2E0,1E0,2.7E1,1.14E2,1.4E1,5E0,6E0,4E0,4.37E2,3.9E1,1.2E1,1.5E1,6.6E1,4.8E1,8E0,6E0,3E0,2E0,5E0,1E0,1E0,3E0,2.09E2,2.28E2,9E0,3E1],"tree_param":{"num_deleted":"0","num_feature":"60","num_nodes":"41","size_leaf_vector":"0"}},{"base_weights":[-3.6976307E-5,-2.2609517E-2,3.179395E-5,-6.8656625E-3,2.591327E-4,-2.3470798E-3,-1.1601395E-2,1.3181707E-2,1.1536543E-4,4.7581684E-4,-8.111827E-3,-4.183576E-3,-1.2932903E-2,2.0293683E-2,2.7743038E-3,-7.7978433E-3,3.0755793E-4,-1.0537474E-3,3.8861942E-3,-7.688403E-4,4.211632E-3,-1.4267373E-2,4.284347E-3,1.4829963E-4,1.1049863E-2,-2.7224422E-4,-1.3118997E-3,4.8128534E-3,1.016438E-3,-2.0507896E-2,-6.689042E-3,-3.7720501E-3,6.6500367E-3,9.036231E-4,-2.6146641E-3,1.8904302E-3,1.5314507E-2],"categories":[],"categories_nodes":[],"categories_segments":[],"categories_sizes":[],"default_left":[1,0,1,1,1,1,1,1,1,1,0,0,0,0,1,1,1,1,1,0,0,1,1,1,1,0,0,0,0,0,0,0,0,0,0,0,0],"id":62,"left_children":[1,-1,3,5,7,9,11,13,15,17,-1,-1,-1,-1,19,21,23,25,27,-1,-1,29,31,33,35,-1,-1,-1,-1,-1,-1,-1,-1,-1,-1,-1,-1],"loss_changes":[1.022145E-3,0E0,1.0319939E-3,4.2214547E-4,1.1819254E-3,1.9913918E-4,4.4663087E-5,4.6181958E-4,9.6206047E-4,5.104259E-5,0E0,0E0,0E0,0E0,2.3608714E-5,1.2336178E-3,1.0539256E-3,1.0550712E-6,3.08589E-6,0E0,0E0,3.3574947E-4,1.3943788E-4,1.2733039E-3,3.2260444E-4,0E0,0E0,0E0,0E0,0E0,0E0,0E0,0E0,0E0,0E0,0E0,0E0],"parents":[2147483647,0,0,2,2,3,3,4,4,5,5,6,6,7,7,8,8,9,9,14,14,15,15,16,16,17,17,18,18,21,21,22,22,23,23,24,24],"right_children":[2,-1,4,6,8,10,12,14,16,18,-1,-1,-1,-1,20,22,24,26,28,-1,-1,30,32,34,36,-1,-1,-1,-1,-1,-1,-1,-1,-1,-1,-1,-1],"split_conditions":[-2.8997092E0,-6.7828554E-3,-1.3374286E0,2.1611951E-1,-1.561803E0,3.8995245E-1,-2.7484244E-1,3.279855E-1,-1.3718452E0,3.0768618E-1,-2.4335482E-3,-1.2550729E-3,-3.879871E-3,6.088105E-3,1.8187329E-1,9.746589E-2,1.6488559E0,-3.987211E-1,7.3157895E-1,-2.306521E-4,1.2634897E-3,-7.877572E-2,-7.485455E-1,4.7117776E-1,-2.0843178E-1,-8.1673265E-5,-3.9356994E-4,1.443856E-3,3.0493143E-4,-6.152369E-3,-2.0067126E-3,-1.1316151E-3,1.995011E-3,2.7108696E-4,-7.843993E-4,5.671291E-4,4.5943526E-3],"split_indices":[41,0,28,35,23,53,37,0,27,0,0,0,0,0,2,46,18,13,0,0,0,40,0,18,27,0,0,0,0,0,0,0,0,0,0,0,0],"split_type":[0,0,0,0,0,0,0,0,0,0,0,0,0,0,0,0,0,0,0,0,0,0,0,0,0,0,0,0,0,0,0,0,0,0,0,0,0],"sum_hessian":[6.57E2,1E0,6.56E2,2E1,6.36E2,1.1E1,9E0,6E0,6.3E2,8E0,3E0,2E0,7E0,3E0,3E0,1.4E1,6.16E2,6E0,2E0,1E0,2E0,9E0,5E0,6.08E2,8E0,2E0,4E0,1E0,1E0,4E0,5E0,1E0,4E0,4.78E2,1.3E2,3E0,5E0],"tree_param":{"num_deleted":"0","num_feature":"60","num_nodes":"37","size_leaf_vector":"0"}},{"base_weights":[-3.8957365E-5,-2.1460414E-2,2.6311842E-5,-1.7480211E-2,1.0645422E-4,-3.8083792E-3,-2.2411939E-2,6.190159E-4,-2.7111515E-3,1.3112249E-3,-3.1196629E-3,4.6272003E-3,-5.1859673E-3,6.585647E-4,7.930924E-3,3.405198E-5,-9.766207E-3,9.2311E-3,-5.0947317E-3,6.063575E-3,-6.982316E-3,1.2822937E-3,-5.5956114E-3,1.7786346E-2,2.3679861E-3,3.742137E-3,-3.3274642E-3,-1.4109144E-2,1.3033134E-2,1.9565742E-2,5.8597885E-3,-1.2113608E-2,6.707266E-3,1.7276222E-2,-2.811683E-3,-1.6872743E-2,-4.9148686E-3],"categories":[],"categories_nodes":[],"categories_segments":[],"categories_sizes":[],"default_left":[1,0,1,1,1,0,0,1,1,1,1,1,1,1,1,1,1,1,1,1,1,0,0,0,0,0,0,0,0,0,0,0,0,0,0,0,0],"id":63,"left_children":[1,-1,3,5,7,-1,-1,9,11,13,15,17,19,21,23,25,27,29,31,33,35,-1,-1,-1,-1,-1,-1,-1,-1,-1,-1,-1,-1,-1,-1,-1,-1],"loss_changes":[9.20555E-4,0E0,9.2364143E-4,1.1692406E-4,9.4762706E-4,0E0,0E0,1.4404013E-3,1.8582643E-3,2.0210512E-3,1.8239662E-3,1.2107587E-3,1.5781533E-3,1.6767652E-3,2.2605364E-3,7.6033914E-4,2.9563375E-3,5.1249226E-4,8.2678E-4,1.1432417E-3,1.2666364E-3,0E0,0E0,0E0,0E0,0E0,0E0,0E0,0E0,0E0,0E0,0E0,0E0,0E0,0E0,0E0,0E0],"parents":[2147483647,0,0,2,2,3,3,4,4,7,7,8,8,9,9,10,10,11,11,12,12,13,13,14,14,15,15,16,16,17,17,18,18,19,19,20,20],"right_children":[2,-1,4,6,8,-1,-1,10,12,14,16,18,20,22,24,26,28,30,32,34,36,-1,-1,-1,-1,-1,-1,-1,-1,-1,-1,-1,-1,-1,-1,-1,-1],"split_conditions":[-2.8997092E0,-6.4381245E-3,-2.2761357E0,3.8072053E-1,6.0223234E-1,-1.1425138E-3,-6.723582E-3,6.351541E-1,-3.7144256E-1,4.2453268E-1,2.6744515E-1,2.7799E-1,-7.4115825E-1,8.941562E-1,-2.4479654E-1,-1.7565641E-1,8.11096E-1,-6.34591E-1,2.299766E-1,8.8033175E-1,-8.327459E-1,3.8468812E-4,-1.6786834E-3,5.335904E-3,7.1039586E-4,1.1226411E-3,-9.982393E-4,-4.2327433E-3,3.9099404E-3,5.869723E-3,1.7579367E-3,-3.6340826E-3,2.01218E-3,5.182867E-3,-8.4350497E-4,-5.061823E-3,-1.4744607E-3],"split_indices":[32,0,9,0,2,0,0,35,41,2,57,9,43,26,17,6,6,37,5,2,11,0,0,0,0,0,0,0,0,0,0,0,0,0,0,0,0],"split_type":[0,0,0,0,0,0,0,0,0,0,0,0,0,0,0,0,0,0,0,0,0,0,0,0,0,0,0,0,0,0,0,0,0,0,0,0,0],"sum_hessian":[6.57E2,1E0,6.56E2,2E0,6.54E2,1E0,1E0,5.54E2,1E2,4.68E2,8.6E1,2.5E1,7.5E1,4.27E2,4.1E1,5.9E1,2.7E1,1.7E1,8E0,1E1,6.5E1,3.89E2,3.8E1,1.4E1,2.7E1,2.8E1,3.1E1,2.3E1,4E0,3E0,1.4E1,5E0,3E0,4E0,6E0,1E1,5.5E1],"tree_param":{"num_deleted":"0","num_feature":"60","num_nodes":"37","size_leaf_vector":"0"}},{"base_weights":[-3.629838E-5,-3.4787116E-4,4.1165366E-3,-1.5668257E-3,9.044151E-4,7.5309877E-3,-3.4420614E-3,-2.7996446E-3,4.096897E-3,-1.4161204E-3,3.158804E-3,3.6274104E-3,1.7103752E-2,-4.4415594E-4,-7.864893E-3,-5.0534667E-3,7.6685235E-4,7.1920203E-3,-2.3089764E-3,5.938763E-3,-3.1528047E-3,5.3029726E-3,-3.7647279E-3,6.0702264E-3,-3.172319E-3,4.0465198E-3,-2.0726398E-3,-3.676188E-3,-1.6960973E-2,2.4183895E-3,-8.054867E-3,2.444622E-4,1.0794972E-2,-6.88531E-3,4.8441463E-3,-5.0351867E-3,8.434802E-3,-1.812705E-2,-2.2220071E-3,8.960577E-3,-3.0400346E-5,1.1057324E-2,-6.9902E-3,8.779517E-3,1.5861737E-3,-7.594964E-3,5.256196E-3,-2.541701E-3,-4.4363737E-4,-9.242031E-3,-8.25276E-4,-2.1964338E-2,3.5402067E-3,5.2744146E-3,-3.2785698E-3,-1.4678261E-2,-3.7098455E-3,-1.7241604E-3,5.5970587E-3,4.201471E-3,1.7587809E-2,-9.091443E-3,-2.0018406E-4,1.3637114E-3,6.659665E-3,-1.673301E-4,-7.4272826E-3,2.1241307E-3,1.27907E-2,-3.3968925E-2,-9.82525E-3,4.7600083E-3,-4.6040583E-3,1.0543972E-2,-1.3732362E-2,-1.9181851E-2,1.6356041E-3,-2.419293E-3,1.3706642E-2,-1.6457513E-2,-2.9816777E-3,1.0078222E-2,1.9568999E-3,3.2781423E-3,-9.2533045E-4],"categories":[],"categories_nodes":[],"categories_segments":[],"categories_sizes":[],"default_left":[1,1,1,1,1,1,1,1,1,1,1,1,0,1,0,1,1,1,1,1,1,1,1,1,1,0,1,1,1,1,1,1,1,1,1,1,1,1,1,1,1,1,1,1,1,0,0,0,0,0,0,0,0,0,0,0,0,0,0,0,0,0,0,0,0,0,0,0,0,0,0,0,0,0,0,0,0,0,0,0,0,0,0,0,0],"id":64,"left_children":[1,3,5,7,9,11,13,15,17,19,21,23,-1,25,-1,27,29,31,33,35,37,39,41,43,45,-1,47,49,51,53,55,57,59,61,63,65,67,69,71,73,75,77,79,81,83,-1,-1,-1,-1,-1,-1,-1,-1,-1,-1,-1,-1,-1,-1,-1,-1,-1,-1,-1,-1,-1,-1,-1,-1,-1,-1,-1,-1,-1,-1,-1,-1,-1,-1,-1,-1,-1,-1,-1,-1],"loss_changes":[8.528251E-4,9.371493E-4,1.2131114E-3,2.182979E-3,1.5895843E-3,1.1337344E-3,1.9539526E-4,2.0616667E-3,1.1269164E-3,1.9346904E-3,2.306128E-3,4.1790842E-4,0E0,8.1516904E-5,0E0,2.512441E-3,1.4764194E-3,9.4856624E-4,6.5531995E-4,8.368215E-4,1.6601565E-3,2.3021419E-3,1.8461931E-3,2.04749E-4,3.0085494E-4,0E0,4.985224E-6,2.2455899E-3,1.7189565E-3,1.4002984E-3,4.060067E-4,1.5717161E-4,1.0458201E-3,1.7515937E-4,4.1468506E-5,6.862347E-5,6.3255837E-4,5.8685965E-4,1.9511716E-3,2.6600268E-3,1.5947877E-3,2.8308725E-4,1.127377E-3,7.774413E-5,3.7028454E-5,0E0,0E0,0E0,8.390828E-9,0E0,0E0,0E0,0E0,0E0,0E0,0E0,0E0,0E0,0E0,0E0,0E0,0E0,0E0,0E0,0E0,0E0,0E0,0E0,0E0,0E0,0E0,0E0,0E0,0E0,0E0,0E0,0E0,0E0,0E0,0E0,0E0,0E0,0E0,0E0,0E0],"parents":[2147483647,0,0,1,1,2,2,3,3,4,4,5,5,6,6,7,7,8,8,9,9,10,10,11,11,13,13,15,15,16,16,17,17,18,18,19,19,20,20,21,21,22,22,23,23,24,24,26,26,27,27,28,28,29,29,30,30,31,31,32,32,33,33,34,34,35,35,36,36,37,37,38,38,39,39,40,40,41,41,42,42,43,43,44,44],"right_children":[2,4,6,8,10,12,14,16,18,20,22,24,-1,26,-1,28,30,32,34,36,38,40,42,44,46,-1,48,50,52,54,56,58,60,62,64,66,68,70,72,74,76,78,80,82,84,-1,-1,-1,-1,-1,-1,-1,-1,-1,-1,-1,-1,-1,-1,-1,-1,-1,-1,-1,-1,-1,-1,-1,-1,-1,-1,-1,-1,-1,-1,-1,-1,-1,-1,-1,-1,-1,-1,-1,-1],"split_conditions":[9.806232E-1,-1.1938873E-2,3.1089965E-1,5.665577E-1,-6.718344E-2,3.685824E-1,4.658385E-2,9.768461E-2,4.6000493E-1,-5.4512495E-1,5.109594E-1,1.9855127E-1,5.131126E-3,-2.3343883E-1,-2.359468E-3,4.1714665E-1,5.513165E-1,-1.7477779E-1,4.508564E-1,-5.8237886E-1,-1.174256E0,2.5658953E-1,-4.300931E-1,1.7570524E-1,3.8347438E-1,1.2139559E-3,5.402882E-1,-2.839252E-1,1.4849046E-1,4.5003635E-1,2.684632E-1,3.092383E-1,-1.9612214E-1,7.2815573E-1,-3.1880018E-1,-1.288394E0,4.7417216E-2,-1.1974528E-1,-5.38846E-1,9.410107E-1,-8.5376966E-1,-1.3738859E0,-5.2549195E-1,3.038004E-1,4.4549498E-1,-2.2784893E-3,1.5768589E-3,-7.6251035E-4,-1.3309122E-4,-2.7726092E-3,-2.4758282E-4,-6.5893014E-3,1.0620621E-3,1.5823244E-3,-9.835709E-4,-4.4034785E-3,-1.1129536E-3,-5.172481E-4,1.6791177E-3,1.2604413E-3,5.276343E-3,-2.727433E-3,-6.005522E-5,4.0911345E-4,1.9978997E-3,-5.0199033E-5,-2.2281848E-3,6.3723925E-4,3.8372104E-3,-1.0190678E-2,-2.9475752E-3,1.4280025E-3,-1.3812175E-3,3.1631917E-3,-4.1197087E-3,-5.7545556E-3,4.9068127E-4,-7.257879E-4,4.1119927E-3,-4.937254E-3,-8.945033E-4,3.0234666E-3,5.8707E-4,9.834428E-4,-2.7759915E-4],"split_indices":[41,26,48,1,28,21,16,10,39,10,12,18,0,10,0,1,32,54,47,3,51,56,37,30,17,0,4,45,50,28,41,18,3,12,30,3,15,15,42,11,4,2,48,3,1,0,0,0,0,0,0,0,0,0,0,0,0,0,0,0,0,0,0,0,0,0,0,0,0,0,0,0,0,0,0,0,0,0,0,0,0,0,0,0,0],"split_type":[0,0,0,0,0,0,0,0,0,0,0,0,0,0,0,0,0,0,0,0,0,0,0,0,0,0,0,0,0,0,0,0,0,0,0,0,0,0,0,0,0,0,0,0,0,0,0,0,0,0,0,0,0,0,0,0,0,0,0,0,0,0,0,0,0,0,0,0,0,0,0,0,0,0,0,0,0,0,0,0,0,0,0,0,0],"sum_hessian":[6.57E2,6.12E2,4.5E1,3.1E2,3.02E2,3.1E1,1.4E1,2.55E2,5.5E1,1.49E2,1.53E2,2.3E1,8E0,9E0,5E0,1.56E2,9.9E1,3.7E1,1.8E1,2.8E1,1.21E2,1.17E2,3.6E1,1.7E1,6E0,2E0,7E0,1.41E2,1.5E1,8.4E1,1.5E1,1.3E1,2.4E1,1.1E1,7E0,5E0,2.3E1,6E0,1.15E2,6.9E1,4.8E1,6E0,3E1,1E1,7E0,4E0,2E0,5E0,2E0,4.7E1,9.4E1,1.2E1,3E0,5.6E1,2.8E1,5E0,1E1,1E1,3E0,1.3E1,1.1E1,8E0,3E0,3E0,4E0,2E0,3E0,1E1,1.3E1,1E0,5E0,2.9E1,8.6E1,6.5E1,4E0,3E0,4.5E1,1E0,5E0,8E0,2.2E1,8E0,2E0,4E0,3E0],"tree_param":{"num_deleted":"0","num_feature":"60","num_nodes":"85","size_leaf_vector":"0"}},{"base_weights":[-5.4289976E-5,1.4284331E-2,-1.4177119E-4,2.16322E-2,-3.8796365E-3,1.09621035E-2,-2.4405039E-4,2.0480652E-3,1.4907107E-2,-1.196023E-4,-9.094231E-3,-4.2891502E-4,3.501013E-3,1.0546514E-2,-2.1988031E-4,-2.0345375E-3,-1.4335078E-2,-1.5006661E-3,1.3256083E-2,-1.3570457E-5,-6.583861E-3,1.6935207E-3,-3.3899322E-3,-2.9267574E-4,5.878029E-3,2.6718155E-3,-1.0741423E-2],"categories":[],"categories_nodes":[],"categories_segments":[],"categories_sizes":[],"default_left":[1,1,1,0,0,1,1,1,0,1,1,0,0,1,1,1,0,0,0,1,1,0,0,0,0,0,0],"id":65,"left_children":[1,3,5,-1,-1,7,9,11,-1,13,15,-1,-1,17,19,21,-1,-1,-1,23,25,-1,-1,-1,-1,-1,-1],"loss_changes":[8.27394E-4,6.1779085E-4,7.465558E-4,0E0,0E0,1.8046476E-4,7.148145E-4,1.2298406E-5,0E0,6.8898743E-4,3.0382368E-4,0E0,0E0,2.1574897E-4,8.36261E-4,3.1005868E-5,0E0,0E0,0E0,1.017945E-3,7.983202E-4,0E0,0E0,0E0,0E0,0E0,0E0],"parents":[2147483647,0,0,1,1,2,2,5,5,6,6,7,7,9,9,10,10,13,13,14,14,15,15,19,19,20,20],"right_children":[2,4,6,-1,-1,8,10,12,-1,14,16,-1,-1,18,20,22,-1,-1,-1,24,26,-1,-1,-1,-1,-1,-1],"split_conditions":[-2.2761357E0,9.237669E-2,-1.6678432E0,6.48966E-3,-1.163891E-3,-5.3224564E-1,1.6488559E0,4.218822E-1,4.4721323E-3,-1.8058611E0,-9.324178E-4,-1.2867451E-4,1.0503039E-3,-4.5112878E-1,1.2659395E0,-8.721558E-1,-4.3005235E-3,-4.5019985E-4,3.976825E-3,1.0679348E0,-3.0235142E-1,5.0805626E-4,-1.0169797E-3,-8.780273E-5,1.7634088E-3,8.015447E-4,-3.222427E-3],"split_indices":[46,0,34,0,0,5,44,0,0,4,30,0,0,0,16,0,0,0,0,46,10,0,0,0,0,0,0],"split_type":[0,0,0,0,0,0,0,0,0,0,0,0,0,0,0,0,0,0,0,0,0,0,0,0,0,0,0],"sum_hessian":[6.57E2,3E0,6.54E2,2E0,1E0,5E0,6.49E2,2E0,3E0,6.41E2,8E0,1E0,1E0,5E0,6.36E2,4E0,4E0,1E0,4E0,6.17E2,1.9E1,1E0,3E0,5.9E2,2.7E1,6E0,1.3E1],"tree_param":{"num_deleted":"0","num_feature":"60","num_nodes":"27","size_leaf_vector":"0"}},{"base_weights":[-2.4792727E-5,-2.573105E-3,3.9921817E-4,-1.4520738E-3,-1.4442682E-2,2.0995252E-3,-6.830558E-4,1.173545E-3,-5.386523E-3,-1.971373E-2,-4.2432025E-3,-2.911216E-3,3.707193E-3,1.5042004E-2,-9.1095705E-4,3.4738055E-3,-4.8853685E-3,5.612552E-3,-8.336741E-3,5.5280556E-3,-6.003163E-3,5.598418E-3,-1.3892555E-3,3.2292902E-3,1.718786E-2,-1.3698994E-3,6.1695366E-3,-6.8107055E-4,6.393766E-3,2.436592E-3,-1.0037408E-2,1.55415535E-2,-2.8737387E-4,-3.764445E-3,-1.3322893E-2,1.4070025E-2,1.1427917E-3,-7.4259005E-3,8.657951E-3,3.1757776E-3,1.1529673E-2,-3.922776E-3,9.462193E-3,5.2774902E-3,-1.8988875E-3,-2.3651705E-4,9.389457E-3,2.7197187E-3,-4.006185E-3,5.3922005E-4,9.480243E-3,-2.8046072E-3,5.093993E-3,-2.389151E-3,-1.5678184E-2,-2.7639717E-3,3.1105478E-3,-1.4580304E-3,-1.0319181E-2,-1.8291116E-2,-4.478114E-3,-3.0169724E-3,3.950796E-3,-1.971622E-3,-1.1963456E-2,2.4678707E-3,9.898688E-3,-1.6576568E-2,3.8278853E-3,1.9139886E-2,4.8650196E-3,1.5531362E-3,-7.561551E-3,-1.0172546E-2,1.652534E-2,1.0652363E-2,-4.864227E-3,-8.652152E-3,-1.2780493E-3,6.724322E-3,-3.6775172E-3,1.1097597E-2,-5.7291985E-4],"categories":[],"categories_nodes":[],"categories_segments":[],"categories_sizes":[],"default_left":[1,1,1,1,1,1,1,1,1,0,0,1,1,1,1,1,1,1,1,1,1,1,1,0,0,1,1,1,1,1,1,0,1,1,1,0,1,1,1,1,1,1,1,1,1,1,1,0,0,0,0,0,0,0,0,0,0,0,0,0,0,0,0,0,0,0,0,0,0,0,0,0,0,0,0,0,0,0,0,0,0,0,0],"id":66,"left_children":[1,3,5,7,9,11,13,15,17,-1,-1,19,21,23,25,27,29,31,33,35,37,39,41,-1,-1,43,45,47,49,51,53,-1,55,57,59,-1,61,63,65,67,69,71,73,75,77,79,81,-1,-1,-1,-1,-1,-1,-1,-1,-1,-1,-1,-1,-1,-1,-1,-1,-1,-1,-1,-1,-1,-1,-1,-1,-1,-1,-1,-1,-1,-1,-1,-1,-1,-1,-1,-1],"loss_changes":[7.1200426E-4,1.2298079E-3,1.0411461E-3,9.05063E-4,3.464463E-4,1.783026E-3,1.253684E-3,7.556361E-4,1.1825284E-3,0E0,0E0,1.4422497E-3,1.6174123E-3,7.123733E-5,1.1197935E-3,4.7750547E-4,5.903026E-4,4.7310925E-4,5.8819517E-4,5.458027E-4,8.986497E-4,1.7164382E-3,1.301767E-3,0E0,0E0,1.1422988E-3,4.3538737E-4,2.0313195E-4,4.1049614E-4,1.1178243E-4,3.5082136E-4,0E0,5.9089176E-5,2.2684134E-4,4.8934715E-4,0E0,1.4040642E-4,8.921288E-4,6.2923355E-6,1.1969509E-3,1.6820645E-3,7.689174E-4,1.4162522E-3,1.3600662E-3,1.2425547E-3,2.163468E-4,2.445979E-4,0E0,0E0,0E0,0E0,0E0,0E0,0E0,0E0,0E0,0E0,0E0,0E0,0E0,0E0,0E0,0E0,0E0,0E0,0E0,0E0,0E0,0E0,0E0,0E0,0E0,0E0,0E0,0E0,0E0,0E0,0E0,0E0,0E0,0E0,0E0,0E0],"parents":[2147483647,0,0,1,1,2,2,3,3,4,4,5,5,6,6,7,7,8,8,11,11,12,12,13,13,14,14,15,15,16,16,17,17,18,18,19,19,20,20,21,21,22,22,25,25,26,26,27,27,28,28,29,29,30,30,32,32,33,33,34,34,36,36,37,37,38,38,39,39,40,40,41,41,42,42,43,43,44,44,45,45,46,46],"right_children":[2,4,6,8,10,12,14,16,18,-1,-1,20,22,24,26,28,30,32,34,36,38,40,42,-1,-1,44,46,48,50,52,54,-1,56,58,60,-1,62,64,66,68,70,72,74,76,78,80,82,-1,-1,-1,-1,-1,-1,-1,-1,-1,-1,-1,-1,-1,-1,-1,-1,-1,-1,-1,-1,-1,-1,-1,-1,-1,-1,-1,-1,-1,-1,-1,-1,-1,-1,-1,-1],"split_conditions":[-6.7229795E-1,9.139803E-1,-1.497193E-1,1.7382668E-1,-2.006953E-1,-4.6445575E-1,-1.3067014E0,4.5551512E-1,-1.5107613E0,-5.914119E-3,-1.2729608E-3,-4.0630692E-1,2.679659E-1,7.1708925E-2,9.951836E-1,-1.5875344E-1,-1.1157374E-1,-4.507442E-1,2.9658008E-1,-3.9650193E-1,7.185786E-1,-9.899893E-2,6.012604E-1,9.687871E-4,5.1563582E-3,-8.262651E-1,-1.6035251E-1,-2.784997E-1,-1.04344696E-1,8.291456E-2,-2.3881412E-1,4.6624662E-3,1.9148074E-1,5.5994177E-1,3.509304E-1,4.2210077E-3,-7.6178014E-2,-2.2675753E-1,-4.6499825E-1,-1.4758675E0,2.5009144E-2,-1.8483086E-1,-6.9498163E-1,1.3426423E-2,-5.612767E-1,-1.5048598E-1,1.0509411E0,8.1591564E-4,-1.2018556E-3,1.6176602E-4,2.8440729E-3,-8.413822E-4,1.528198E-3,-7.167453E-4,-4.7034556E-3,-8.2919153E-4,9.331644E-4,-4.3740915E-4,-3.0957544E-3,-5.487335E-3,-1.3434343E-3,-9.0509176E-4,1.1852388E-3,-5.9148663E-4,-3.5890369E-3,7.403612E-4,2.9696065E-3,-4.9729706E-3,1.1483657E-3,5.741966E-3,1.4595059E-3,4.6594086E-4,-2.2684655E-3,-3.0517639E-3,4.957602E-3,3.195709E-3,-1.4592682E-3,-2.5956456E-3,-3.8341482E-4,2.0172969E-3,-1.1032552E-3,3.3292791E-3,-1.7187596E-4],"split_indices":[16,58,32,33,6,10,36,9,16,0,0,7,36,0,0,21,0,5,44,17,36,36,17,0,0,37,52,40,6,6,29,0,2,11,52,0,19,47,0,37,39,56,45,45,37,2,18,0,0,0,0,0,0,0,0,0,0,0,0,0,0,0,0,0,0,0,0,0,0,0,0,0,0,0,0,0,0,0,0,0,0,0,0],"split_type":[0,0,0,0,0,0,0,0,0,0,0,0,0,0,0,0,0,0,0,0,0,0,0,0,0,0,0,0,0,0,0,0,0,0,0,0,0,0,0,0,0,0,0,0,0,0,0,0,0,0,0,0,0,0,0,0,0,0,0,0,0,0,0,0,0,0,0,0,0,0,0,0,0,0,0,0,0,0,0,0,0,0,0],"sum_hessian":[6.57E2,9.3E1,5.64E2,8.6E1,7E0,2.19E2,3.45E2,5.2E1,3.4E1,4E0,3E0,5.3E1,1.66E2,4E0,3.41E2,3.8E1,1.4E1,7E0,2.7E1,1.4E1,3.9E1,1.21E2,4.5E1,1E0,3E0,3.21E2,2E1,1.6E1,2.2E1,6E0,8E0,2E0,5E0,1.5E1,1.2E1,4E0,1E1,3.6E1,3E0,8.7E1,3.4E1,3.7E1,8E0,2.3E1,2.98E2,7E0,1.3E1,8E0,8E0,8E0,1.4E1,2E0,4E0,4E0,4E0,3E0,2E0,1.2E1,3E0,7E0,5E0,4E0,6E0,1.7E1,1.9E1,1E0,2E0,2E0,8.5E1,1.5E1,1.9E1,1.5E1,2.2E1,2E0,6E0,1.5E1,8E0,2.4E1,2.74E2,2E0,5E0,1.1E1,2E0],"tree_param":{"num_deleted":"0","num_feature":"60","num_nodes":"83","size_leaf_vector":"0"}},{"base_weights":[-1.4972924E-5,-1.8378139E-2,4.094991E-5,1.8397857E-4,-6.092942E-3,-8.356557E-6,5.6134546E-3,-1.1903645E-2,2.248382E-3,5.585053E-4,-2.3361389E-3,4.006074E-4,9.92411E-3,-1.4986129E-2,-4.3040067E-3,-1.1406317E-3,7.1472772E-3,2.4255041E-3,-4.5115815E-4,7.415617E-3,-3.3693365E-3,-1.1716402E-3,4.9838144E-3,3.361895E-3,1.4131135E-2,-6.8703294E-4,-5.2806535E-3,-1.7281771E-3,-1.7287582E-4,3.698879E-3,-3.4202724E-3,-1.2751517E-2,-1.4127092E-4,2.5576975E-3,1.6492032E-2,-1.6604348E-4,-6.627852E-3,3.8779774E-4,-3.2178871E-3,2.1899615E-4,4.8785955E-3,1.7080396E-2,7.64909E-3],"categories":[],"categories_nodes":[],"categories_segments":[],"categories_sizes":[],"default_left":[1,0,1,1,1,1,1,1,1,1,1,1,1,0,1,1,0,1,1,1,1,1,0,1,1,0,0,0,0,0,0,0,0,0,0,0,0,0,0,0,0,0,0],"id":67,"left_children":[1,-1,3,5,7,9,11,13,15,17,19,21,23,-1,25,27,-1,29,31,33,35,37,-1,39,41,-1,-1,-1,-1,-1,-1,-1,-1,-1,-1,-1,-1,-1,-1,-1,-1,-1,-1],"loss_changes":[6.7646615E-4,0E0,5.775217E-4,6.7151827E-4,7.537982E-4,8.220531E-4,4.903816E-4,1.463315E-4,1.2436937E-4,9.454995E-4,1.2541956E-3,8.510453E-5,2.8378144E-4,0E0,1.05020445E-5,2.5442423E-6,0E0,1.3227713E-3,1.2408207E-3,4.8692827E-4,1.1575153E-3,2.9966846E-5,0E0,2.7532624E-5,3.1712698E-6,0E0,0E0,0E0,0E0,0E0,0E0,0E0,0E0,0E0,0E0,0E0,0E0,0E0,0E0,0E0,0E0,0E0,0E0],"parents":[2147483647,0,0,2,2,3,3,4,4,5,5,6,6,7,7,8,8,9,9,10,10,11,11,12,12,14,14,15,15,17,17,18,18,19,19,20,20,21,21,23,23,24,24],"right_children":[2,-1,4,6,8,10,12,14,16,18,20,22,24,-1,26,28,-1,30,32,34,36,38,-1,40,42,-1,-1,-1,-1,-1,-1,-1,-1,-1,-1,-1,-1,-1,-1,-1,-1,-1,-1],"split_conditions":[-2.8997092E0,-5.5134417E-3,1.340991E0,1.2696421E0,2.4106152E-1,4.6610403E-1,4.067245E-2,2.8625333E-1,7.187413E-1,-2.1090853E-1,-9.931867E-1,6.4665663E-1,-9.329582E-2,-4.4958387E-3,-6.30412E-1,-4.3304324E-1,2.1441833E-3,4.8935735E-1,-1.8917315E-1,-2.123769E-1,-1.4992687E-1,-2.1314043E-1,1.4951444E-3,3.772077E-1,-1.8005872E-1,-2.061099E-4,-1.5841961E-3,-5.1845313E-4,-5.186275E-5,1.1096637E-3,-1.0260817E-3,-3.8254552E-3,-4.2381278E-5,7.673093E-4,4.9476097E-3,-4.9813047E-5,-1.9883558E-3,1.16339324E-4,-9.653662E-4,6.569885E-5,1.4635787E-3,5.124119E-3,2.2947271E-3],"split_indices":[41,0,30,34,8,34,42,16,1,24,19,20,53,0,1,6,0,49,24,44,47,20,0,10,18,0,0,0,0,0,0,0,0,0,0,0,0,0,0,0,0,0,0],"split_type":[0,0,0,0,0,0,0,0,0,0,0,0,0,0,0,0,0,0,0,0,0,0,0,0,0,0,0,0,0,0,0,0,0,0,0,0,0,0,0,0,0,0,0],"sum_hessian":[6.57E2,1E0,6.56E2,6.42E2,1.4E1,6.21E2,2.1E1,8E0,6E0,5E2,1.21E2,1E1,1.1E1,5E0,3E0,4E0,2E0,1.75E2,3.25E2,1.1E1,1.1E2,8E0,2E0,5E0,6E0,1E0,2E0,2E0,2E0,1.44E2,3.1E1,7E0,3.18E2,8E0,3E0,5.6E1,5.4E1,5E0,3E0,2E0,3E0,3E0,3E0],"tree_param":{"num_deleted":"0","num_feature":"60","num_nodes":"43","size_leaf_vector":"0"}},{"base_weights":[-1.1600876E-5,-1.1165764E-2,5.6533863E-5,-1.3945873E-2,-1.4127195E-3,6.3509466E-3,-7.081279E-5,2.8959224E-3,1.6902387E-2,-2.4598967E-3,2.7303552E-4,3.798143E-3,-3.0631423E-3,-3.4700005E-4,-8.886881E-3,9.808091E-3,1.0042976E-4,4.9608336E-3,2.1962104E-3,-3.1307426E-3,5.237009E-3,3.1348232E-3,-1.3103104E-2,3.922254E-4,1.6019965E-2,7.258937E-4,-1.9658343E-3,-1.6267607E-2,-1.31982E-3,1.8181329E-3,8.815959E-3,-1.3282821E-3,4.2931004E-3,-2.1606388E-2,-5.0335396E-3,-3.3092846E-3,3.9629936E-3,-3.437153E-3,1.2760964E-3,-1.549259E-3,-2.764374E-2],"categories":[],"categories_nodes":[],"categories_segments":[],"categories_sizes":[],"default_left":[1,1,1,0,0,1,1,1,0,1,1,1,0,1,1,1,1,0,0,1,1,1,1,1,0,1,1,0,0,0,0,0,0,0,0,0,0,0,0,0,0],"id":68,"left_children":[1,3,5,-1,-1,7,9,11,-1,13,15,17,-1,19,21,23,25,-1,-1,27,29,31,33,35,-1,37,39,-1,-1,-1,-1,-1,-1,-1,-1,-1,-1,-1,-1,-1,-1],"loss_changes":[5.0070207E-4,8.875644E-5,5.2547967E-4,0E0,0E0,4.2497326E-4,5.288849E-4,7.077456E-5,0E0,1.0968602E-3,9.256036E-4,7.730501E-6,0E0,9.801512E-4,1.0547998E-3,5.786182E-4,7.1740197E-4,0E0,6.878072E-7,9.777033E-4,2.4092715E-4,3.671953E-5,9.205104E-4,7.920084E-5,0E0,9.801475E-4,1.3370577E-3,0E0,0E0,0E0,0E0,0E0,0E0,0E0,0E0,0E0,0E0,0E0,0E0,0E0,0E0],"parents":[2147483647,0,0,1,1,2,2,5,5,6,6,7,7,9,9,10,10,11,11,13,13,14,14,15,15,16,16,19,19,20,20,21,21,22,22,23,23,25,25,26,26],"right_children":[2,4,6,-1,-1,8,10,12,-1,14,16,18,-1,20,22,24,26,-1,-1,28,30,32,34,36,-1,38,40,-1,-1,-1,-1,-1,-1,-1,-1,-1,-1,-1,-1,-1,-1],"split_conditions":[-1.870753E0,-3.7529524E-2,-1.3315588E0,-4.1837622E-3,-4.2381586E-4,-1.3638238E0,-6.3790226E-1,4.0750098E-1,5.070716E-3,3.446176E-1,-1.609044E0,-1.778147E-1,-9.1894274E-4,4.5697188E-1,-6.3602483E-1,-5.6818184E-2,4.6426424E-1,1.4882501E-3,6.5886317E-4,-5.7882684E-1,-1.2118515E-1,-6.586143E-1,-4.6357967E-2,3.148248E-2,4.8059896E-3,-6.2985086E-1,1.3582082E0,-4.880282E-3,-3.95946E-4,5.454399E-4,2.6447878E-3,-3.9848464E-4,1.2879302E-3,-6.4819166E-3,-1.5100619E-3,-9.927854E-4,1.1888981E-3,-1.0311459E-3,3.8282896E-4,-4.647777E-4,-8.293122E-3],"split_indices":[3,1,52,0,0,52,9,0,0,56,17,5,0,48,53,6,18,0,0,22,30,1,25,0,0,52,37,0,0,0,0,0,0,0,0,0,0,0,0,0,0],"split_type":[0,0,0,0,0,0,0,0,0,0,0,0,0,0,0,0,0,0,0,0,0,0,0,0,0,0,0,0,0,0,0,0,0,0,0,0,0,0,0,0,0],"sum_hessian":[6.57E2,3E0,6.54E2,2E0,1E0,1.2E1,6.42E2,1E1,2E0,8E1,5.62E2,9E0,1E0,6.1E1,1.9E1,9E0,5.53E2,4E0,5E0,4.1E1,2E1,5E0,1.4E1,4E0,5E0,4.25E2,1.28E2,4E0,3.7E1,1.1E1,9E0,1E0,4E0,6E0,8E0,2E0,2E0,4.9E1,3.76E2,1.27E2,1E0],"tree_param":{"num_deleted":"0","num_feature":"60","num_nodes":"41","size_leaf_vector":"0"}},{"base_weights":[-2.6206575E-5,-1.5812844E-2,2.1890048E-5,2.2931126E-4,-3.362927E-3,-2.530151E-3,5.79462E-4,-1.1700209E-3,-1.2907222E-2,-4.44564E-4,-7.7218907E-3,-2.2213252E-3,1.0254291E-3,-3.5062602E-3,9.538059E-3,-3.490921E-3,-1.9096717E-2,-4.2115785E-3,2.5583978E-3,-1.4541346E-2,-4.479316E-3,-3.2247126E-3,8.129881E-3,-4.914816E-3,1.2967443E-3,-6.1448915E-3,3.041029E-4,1.0410577E-2,2.5877357E-3,-7.8380853E-4,-9.456575E-3,-2.8345566E-3,6.0115675E-3,-2.0449832E-3,-1.6631622E-2,-5.6152013E-3,1.9359589E-3,-4.3932195E-3,6.380368E-3,1.4059331E-2,2.9462338E-3,-2.1005193E-2,-2.1155556E-3,-4.75839E-4,2.4758903E-3,-3.1863481E-3,-1.0544739E-2,-2.4913123E-3,3.514737E-3],"categories":[],"categories_nodes":[],"categories_segments":[],"categories_sizes":[],"default_left":[1,0,1,1,1,1,1,1,1,1,1,1,1,1,1,0,0,1,1,1,1,1,1,1,1,1,1,0,0,0,0,0,0,0,0,0,0,0,0,0,0,0,0,0,0,0,0,0,0],"id":69,"left_children":[1,-1,3,5,7,9,11,13,15,17,19,21,23,25,27,-1,-1,29,31,33,35,37,39,41,43,45,47,-1,-1,-1,-1,-1,-1,-1,-1,-1,-1,-1,-1,-1,-1,-1,-1,-1,-1,-1,-1,-1,-1],"loss_changes":[4.99955E-4,0E0,4.620396E-4,6.0052733E-4,7.802285E-4,7.5451477E-4,6.9050933E-4,8.3397527E-4,3.4130993E-4,5.8769714E-4,3.771165E-4,8.1557286E-4,7.7353226E-4,2.7333052E-4,9.445881E-6,0E0,0E0,4.0609657E-4,5.57101E-4,1.2271362E-4,1.2017603E-4,8.1368256E-4,1.7373121E-4,9.014266E-4,9.5427944E-4,1.7467496E-4,1.1645697E-4,0E0,0E0,0E0,0E0,0E0,0E0,0E0,0E0,0E0,0E0,0E0,0E0,0E0,0E0,0E0,0E0,0E0,0E0,0E0,0E0,0E0,0E0],"parents":[2147483647,0,0,2,2,3,3,4,4,5,5,6,6,7,7,8,8,9,9,10,10,11,11,12,12,13,13,14,14,17,17,18,18,19,19,20,20,21,21,22,22,23,23,24,24,25,25,26,26],"right_children":[2,-1,4,6,8,10,12,14,16,18,20,22,24,26,28,-1,-1,30,32,34,36,38,40,42,44,46,48,-1,-1,-1,-1,-1,-1,-1,-1,-1,-1,-1,-1,-1,-1,-1,-1,-1,-1,-1,-1,-1,-1],"split_conditions":[-2.8997092E0,-4.7438536E-3,1.0251353E0,-7.925863E-1,6.226951E-1,2.9552513E-1,-6.7229795E-1,9.0443456E-1,4.159942E-1,-2.7435753E-2,-3.452073E-1,8.6562264E-1,-1.2690312E0,-1.4723204E-2,4.5040393E-1,-1.0472764E-3,-5.7290155E-3,-9.128572E-1,-1.5202832E-1,-6.9889593E-1,6.052891E-1,1.0310938E0,-3.784535E-1,-3.2183024E-1,-1.829451E-1,2.7634257E-1,6.669308E-2,3.1231733E-3,7.7632075E-4,-2.3514256E-4,-2.8369725E-3,-8.50367E-4,1.8034703E-3,-6.13495E-4,-4.9894867E-3,-1.6845604E-3,5.8078766E-4,-1.3179659E-3,1.9141105E-3,4.2177998E-3,8.838702E-4,-6.301558E-3,-6.346667E-4,-1.4275171E-4,7.427671E-4,-9.559045E-4,-3.1634218E-3,-7.4739376E-4,1.0544211E-3],"split_indices":[41,0,30,33,5,47,16,21,3,52,18,18,51,41,0,0,0,33,29,0,31,53,2,55,26,45,21,0,0,0,0,0,0,0,0,0,0,0,0,0,0,0,0,0,0,0,0,0,0],"split_type":[0,0,0,0,0,0,0,0,0,0,0,0,0,0,0,0,0,0,0,0,0,0,0,0,0,0,0,0,0,0,0,0,0,0,0,0,0,0,0,0,0,0,0,0,0,0,0,0,0],"sum_hessian":[6.57E2,1E0,6.56E2,6.19E2,3.7E1,6.9E1,5.5E2,3.1E1,6E0,5E1,1.9E1,7.5E1,4.75E2,2.6E1,5E0,3E0,3E0,2.2E1,2.8E1,5E0,1.4E1,6.9E1,6E0,2E1,4.55E2,1.5E1,1.1E1,4E0,1E0,1.4E1,8E0,1.1E1,1.7E1,1E0,4E0,1.2E1,2E0,6.2E1,7E0,2E0,4E0,2E0,1.8E1,1.82E2,2.73E2,1E1,5E0,6E0,5E0],"tree_param":{"num_deleted":"0","num_feature":"60","num_nodes":"49","size_leaf_vector":"0"}},{"base_weights":[-5.0107737E-5,-5.950364E-3,6.870563E-5,5.192619E-3,-1.3563805E-2,-1.180892E-3,6.0370174E-4,-1.4750039E-3,8.895181E-3,-1.7298657E-2,-5.504288E-3,1.4856036E-3,-2.9866875E-3,-4.5923684E-3,9.699244E-4,2.3004212E-3,-7.2240084E-3,-6.1885975E-3,9.361225E-4,1.03673054E-4,-1.3994819E-2,2.6735128E-3,-2.034514E-4,-3.6856145E-4,5.208704E-3,1.805683E-3,-1.1197021E-2,-2.849733E-4,-8.8655865E-3,5.860324E-3,-4.9308076E-4,5.4846476E-3,-3.6295918E-3,-2.0914411E-2,-2.8923452E-3,1.816264E-3,1.2279675E-2,5.888304E-3,-1.1805523E-3,9.311855E-3,-1.1434989E-3,9.551928E-3,2.8200627E-3,3.0750185E-3,-3.6649406E-4,-1.2402672E-2,-3.1872094E-3,-6.064644E-3,3.0380508E-3,-1.1708507E-2,-1.1856585E-3,9.9057555E-3,2.5993886E-3,1.8771994E-3,-3.7577432E-3,1.14114E-3,1.3791283E-2,-6.035128E-3,1.8272176E-4,-5.5109956E-3,6.9042045E-4,1.692202E-2,1.4198355E-3,1.7801397E-2,-1.2197036E-3,5.8897474E-4,1.1464714E-2,1.337318E-4,-4.5654103E-3],"categories":[],"categories_nodes":[],"categories_segments":[],"categories_sizes":[],"default_left":[1,1,1,1,1,1,1,0,0,0,0,1,1,1,1,1,1,1,1,1,1,1,1,1,1,1,1,1,1,1,1,1,1,0,1,1,1,1,1,0,0,0,0,0,0,0,0,0,0,0,0,0,0,0,0,0,0,0,0,0,0,0,0,0,0,0,0,0,0],"id":70,"left_children":[1,3,5,7,9,11,13,-1,-1,-1,-1,15,17,19,21,23,25,27,29,31,33,35,37,39,41,43,45,47,49,51,53,55,57,-1,59,61,63,65,67,-1,-1,-1,-1,-1,-1,-1,-1,-1,-1,-1,-1,-1,-1,-1,-1,-1,-1,-1,-1,-1,-1,-1,-1,-1,-1,-1,-1,-1,-1],"loss_changes":[4.6168608E-4,1.1733053E-3,4.3258324E-4,1.6124417E-4,1.4559214E-4,9.3857525E-4,8.6647633E-4,0E0,0E0,0E0,0E0,5.772611E-4,1.4628095E-3,1.3260797E-3,8.4809854E-4,5.685571E-4,2.7134383E-4,1.0089255E-3,3.758869E-4,4.417677E-4,7.0775417E-4,1.4023294E-3,1.506921E-3,3.0321509E-4,3.3616717E-4,9.398641E-6,8.755305E-6,4.2175042E-4,9.467886E-4,1.3255377E-4,3.3205695E-4,3.089816E-4,1.203213E-4,0E0,5.0714956E-5,9.3411E-4,1.06527E-3,1.0275408E-3,9.704196E-4,0E0,0E0,0E0,0E0,0E0,0E0,0E0,0E0,0E0,0E0,0E0,0E0,0E0,0E0,0E0,0E0,0E0,0E0,0E0,0E0,0E0,0E0,0E0,0E0,0E0,0E0,0E0,0E0,0E0,0E0],"parents":[2147483647,0,0,1,1,2,2,3,3,4,4,5,5,6,6,11,11,12,12,13,13,14,14,15,15,16,16,17,17,18,18,19,19,20,20,21,21,22,22,23,23,24,24,25,25,26,26,27,27,28,28,29,29,30,30,31,31,32,32,34,34,35,35,36,36,37,37,38,38],"right_children":[2,4,6,8,10,12,14,-1,-1,-1,-1,16,18,20,22,24,26,28,30,32,34,36,38,40,42,44,46,48,50,52,54,56,58,-1,60,62,64,66,68,-1,-1,-1,-1,-1,-1,-1,-1,-1,-1,-1,-1,-1,-1,-1,-1,-1,-1,-1,-1,-1,-1,-1,-1,-1,-1,-1,-1,-1,-1],"split_conditions":[-1.5145562E0,-1.6298378E-1,-3.43452E-1,8.6281136E-2,6.6575444E-1,-1.7566466E-1,-9.273495E-1,-4.425012E-4,2.6685544E-3,-5.1895976E-3,-1.6512864E-3,6.8847036E-1,5.522835E-2,3.1654096E-1,-1.158651E-1,6.1180882E-2,-3.6558434E-1,-2.7907118E-1,-5.4382384E-1,-1.320959E-1,-1.7658377E-1,1.0033602E0,-1.875546E-1,-8.968457E-1,-1.2355424E-1,-5.0662756E-1,4.8207015E-1,-1.4878392E-1,5.577395E-1,-4.0755647E-1,1.9462225E-1,4.5056325E-1,1.0268019E-1,-6.2743234E-3,3.5637674E-1,-1.3040112E0,2.3134108E-1,-1.472356E-1,2.0630604E-1,2.7935565E-3,-3.430497E-4,2.8655785E-3,8.4601884E-4,9.2250557E-4,-1.09948225E-4,-3.7208018E-3,-9.5616287E-4,-1.8193932E-3,9.1141526E-4,-3.5125522E-3,-3.5569756E-4,2.9717267E-3,7.798166E-4,5.631598E-4,-1.127323E-3,3.42342E-4,4.137385E-3,-1.8105385E-3,5.481653E-5,-1.6532987E-3,2.0712614E-4,5.076606E-3,4.2595065E-4,5.3404192E-3,-3.6591108E-4,1.7669243E-4,3.4394143E-3,4.011954E-5,-1.3696231E-3],"split_indices":[49,30,4,3,20,3,42,0,0,0,0,27,15,39,15,57,0,42,18,32,29,24,4,46,12,0,1,22,50,39,27,15,48,0,1,38,38,50,2,0,0,0,0,0,0,0,0,0,0,0,0,0,0,0,0,0,0,0,0,0,0,0,0,0,0,0,0,0,0],"split_type":[0,0,0,0,0,0,0,0,0,0,0,0,0,0,0,0,0,0,0,0,0,0,0,0,0,0,0,0,0,0,0,0,0,0,0,0,0,0,0,0,0,0,0,0,0,0,0,0,0,0,0,0,0,0,0,0,0,0,0,0,0,0,0,0,0,0,0,0,0],"sum_hessian":[6.57E2,1.2E1,6.45E2,5E0,7E0,1.93E2,4.52E2,2E0,3E0,4E0,3E0,7.8E1,1.15E2,2.9E1,4.23E2,7.2E1,6E0,6.3E1,5.2E1,2E1,9E0,1.72E2,2.51E2,3.8E1,3.4E1,2E0,4E0,2E1,4.3E1,1.1E1,4.1E1,8E0,1.2E1,5E0,4E0,1.59E2,1.3E1,3.4E1,2.17E2,2E0,3.6E1,1.1E1,2.3E1,1E0,1E0,3E0,1E0,7E0,1.3E1,3.1E1,1.2E1,4E0,7E0,2.4E1,1.7E1,6E0,2E0,7E0,5E0,2E0,2E0,3E0,1.56E2,9E0,4E0,1.8E1,1.6E1,1.57E2,6E1],"tree_param":{"num_deleted":"0","num_feature":"60","num_nodes":"69","size_leaf_vector":"0"}},{"base_weights":[-2.9208622E-5,-4.3619275E-3,1.13450165E-4,-5.5408566E-3,2.0337347E-3,6.7565064E-3,-3.089752E-6,-6.640136E-3,-3.3345073E-5,-3.2940134E-4,2.9312472E-3,1.6525454E-3,1.981622E-2,-5.520203E-3,1.3169818E-4,-7.955538E-3,-4.0003136E-3,3.6818278E-3,-3.6332954E-3,1.2055011E-3,-1.1555882E-2,5.9834127E-3,-1.4814179E-5,5.0586043E-3,1.3845945E-3,-4.8398376E-3,-6.101057E-4,3.9951624E-3,-2.5829505E-3,-1.6617637E-2,-5.195302E-3,2.3463399E-3,1.5398778E-2,-6.1293147E-3,1.3104243E-4,9.847283E-4,5.6738756E-3,-4.917346E-4,-3.116111E-3,3.2417916E-3,-3.7518144E-3,3.2673269E-3,-1.0214704E-2,2.3550873E-3,-2.0936258E-4],"categories":[],"categories_nodes":[],"categories_segments":[],"categories_sizes":[],"default_left":[1,1,1,1,1,1,1,1,0,0,0,1,0,1,1,0,0,1,1,1,1,1,1,0,0,0,0,1,1,0,0,1,0,1,1,0,0,0,0,0,0,0,0,0,0],"id":71,"left_children":[1,3,5,7,9,11,13,15,-1,-1,-1,17,-1,19,21,-1,-1,23,25,27,29,31,33,-1,-1,-1,-1,35,37,-1,-1,39,-1,41,43,-1,-1,-1,-1,-1,-1,-1,-1,-1,-1],"loss_changes":[4.0720493E-4,1.696093E-4,4.9394846E-4,1.08755834E-4,9.449333E-6,7.004718E-4,4.6773313E-4,2.0261738E-5,3.605182E-7,0E0,0E0,1.09915345E-4,0E0,6.228435E-4,5.2650063E-4,0E0,0E0,1.5135323E-5,7.990002E-6,9.4867275E-5,1.7123204E-4,4.7753484E-4,5.359074E-4,0E0,0E0,0E0,0E0,1.968105E-5,2.9275143E-6,0E0,0E0,7.768984E-5,0E0,5.7082E-4,4.4489672E-4,0E0,0E0,0E0,0E0,0E0,0E0,0E0,0E0,0E0,0E0],"parents":[2147483647,0,0,1,1,2,2,3,3,4,4,5,5,6,6,7,7,11,11,13,13,14,14,17,17,18,18,19,19,20,20,21,21,22,22,27,27,28,28,31,31,33,33,34,34],"right_children":[2,4,6,8,10,12,14,16,-1,-1,-1,18,-1,20,22,-1,-1,24,26,28,30,32,34,-1,-1,-1,-1,36,38,-1,-1,40,-1,42,44,-1,-1,-1,-1,-1,-1,-1,-1,-1,-1],"split_conditions":[-1.3374286E0,6.347003E-1,-1.4720726E0,4.8975983E-1,2.7365732E-1,4.9978068E-1,-1.1664953E0,2.5658745E-1,-1.0003522E-5,-9.8820405E-5,8.793742E-4,8.4385115E-1,5.944866E-3,5.092214E-2,-9.9150056E-1,-2.3866615E-3,-1.2000941E-3,8.1380755E-2,1.891756E-2,8.948056E-2,3.1613433E-1,3.252383E-1,-8.5735464E-1,1.5175814E-3,4.1537837E-4,-1.4519513E-3,-1.8303172E-4,-1.2984818E-1,-1.6555503E-1,-4.9852915E-3,-1.5585907E-3,1.0396118E0,4.619634E-3,-6.1926425E-1,-6.2479734E-1,2.9541852E-4,1.7021628E-3,-1.4752039E-4,-9.3483337E-4,9.725375E-4,-1.1255443E-3,9.801982E-4,-3.0644115E-3,7.065262E-4,-6.280878E-5],"split_indices":[28,19,23,9,0,27,23,21,0,0,0,12,0,52,23,0,0,15,0,3,29,21,23,0,0,0,0,0,0,0,0,7,0,9,0,0,0,0,0,0,0,0,0,0,0],"split_type":[0,0,0,0,0,0,0,0,0,0,0,0,0,0,0,0,0,0,0,0,0,0,0,0,0,0,0,0,0,0,0,0,0,0,0,0,0,0,0,0,0,0,0,0,0],"sum_hessian":[6.57E2,2E1,6.37E2,1.7E1,3E0,1E1,6.27E2,1.4E1,3E0,1E0,2E0,8E0,2E0,1.4E1,6.13E2,8E0,6E0,6E0,2E0,7E0,7E0,1.4E1,5.99E2,3E0,3E0,1E0,1E0,4E0,3E0,3E0,4E0,1.1E1,3E0,1.3E1,5.86E2,2E0,2E0,1E0,2E0,1E1,1E0,4E0,9E0,7.7E1,5.09E2],"tree_param":{"num_deleted":"0","num_feature":"60","num_nodes":"45","size_leaf_vector":"0"}},{"base_weights":[-1.9187419E-5,-4.3996437E-3,1.1088736E-4,3.4961875E-3,-8.312811E-3,-3.4181376E-3,3.0224744E-4,5.671967E-3,-1.295507E-3,-1.5033853E-2,-3.6552532E-3,-1.4184569E-2,-9.889685E-4,-9.419527E-3,3.6602406E-4,1.498878E-3,6.3405195E-3,-1.7138049E-2,-3.3085346E-3,4.3152273E-4,-4.8845494E-3,-4.7815144E-3,-1.7690718E-2,7.551649E-4,-1.164256E-2,-1.3224706E-3,-1.1677722E-2,7.912583E-5,2.748269E-3,4.58592E-3,-2.5822797E-3,-7.2166603E-3,2.0217076E-4,1.4352138E-3,1.07589215E-2,7.302546E-3,-6.7786576E-4,9.96314E-4,-4.681089E-3,8.69371E-5,-1.08829485E-2,7.0290877E-3,7.150027E-5,8.2115E-3,-1.8126203E-4,1.4661193E-2,4.7048656E-3],"categories":[],"categories_nodes":[],"categories_segments":[],"categories_sizes":[],"default_left":[1,1,1,1,1,1,1,1,0,1,1,1,1,1,1,0,0,0,0,0,0,0,0,1,0,0,0,1,1,1,1,1,1,1,1,0,0,0,0,0,0,0,0,0,0,0,0],"id":72,"left_children":[1,3,5,7,9,11,13,15,-1,17,19,21,23,25,27,-1,-1,-1,-1,-1,-1,-1,-1,29,-1,-1,-1,31,33,35,37,39,41,43,45,-1,-1,-1,-1,-1,-1,-1,-1,-1,-1,-1,-1],"loss_changes":[3.7540763E-4,6.161196E-4,4.332344E-4,8.032776E-5,3.5199476E-4,8.4903673E-4,3.8042103E-4,4.445974E-6,0E0,6.6659995E-5,4.7322515E-5,1.1322275E-4,5.2906806E-4,5.769549E-5,4.1327695E-4,0E0,0E0,0E0,0E0,0E0,0E0,0E0,0E0,3.3146542E-4,5.859183E-7,0E0,0E0,4.8711986E-4,6.682565E-4,1.7654698E-4,1.0981483E-4,2.4193994E-4,4.7497428E-4,6.258496E-4,1.4364219E-4,0E0,0E0,0E0,0E0,0E0,0E0,0E0,0E0,0E0,0E0,0E0,0E0],"parents":[2147483647,0,0,1,1,2,2,3,3,4,4,5,5,6,6,7,7,9,9,10,10,11,11,12,12,13,13,14,14,23,23,27,27,28,28,29,29,30,30,31,31,32,32,33,33,34,34],"right_children":[2,4,6,8,10,12,14,16,-1,18,20,22,24,26,28,-1,-1,-1,-1,-1,-1,-1,-1,30,-1,-1,-1,32,34,36,38,40,42,44,46,-1,-1,-1,-1,-1,-1,-1,-1,-1,-1,-1,-1],"split_conditions":[-1.3751466E0,-5.339166E-1,-1.0952996E0,1.6931808E-1,-2.3452008E-1,-7.189894E-1,-2.0485632E0,-3.7942713E-1,-3.8865212E-4,7.266468E-1,8.800842E-2,-3.9472476E-1,6.338144E-1,1.6782044E-1,6.761986E-1,4.496634E-4,1.9021559E-3,-5.1414147E-3,-9.925604E-4,1.2945682E-4,-1.4653649E-3,-1.4344543E-3,-5.3072157E-3,3.8774457E-2,-3.4927682E-3,-3.967412E-4,-3.5033168E-3,-1.4706507E0,5.418987E-1,3.742447E-1,5.6497175E-2,-9.776796E-2,-1.2059705E0,-5.6828E-1,-6.759868E-1,2.1907638E-3,-2.0335974E-4,2.988942E-4,-1.4043268E-3,2.608113E-5,-3.2648847E-3,2.1087264E-3,2.1450081E-5,2.4634502E-3,-5.4378612E-5,4.398358E-3,1.4114598E-3],"split_indices":[2,30,49,1,29,48,29,0,0,0,56,18,50,0,31,0,0,0,0,0,0,0,0,0,0,0,0,40,5,46,5,15,40,22,40,0,0,0,0,0,0,0,0,0,0,0,0],"split_type":[0,0,0,0,0,0,0,0,0,0,0,0,0,0,0,0,0,0,0,0,0,0,0,0,0,0,0,0,0,0,0,0,0,0,0,0,0,0,0,0,0,0,0,0,0,0,0],"sum_hessian":[6.57E2,1.8E1,6.39E2,6E0,1.2E1,3.2E1,6.07E2,4E0,2E0,4E0,8E0,5E0,2.7E1,3E0,6.04E2,1E0,3E0,3E0,1E0,2E0,6E0,2E0,3E0,2.4E1,3E0,1E0,2E0,5.4E2,6.4E1,1.1E1,1.3E1,8E0,5.32E2,5.6E1,8E0,7E0,4E0,5E0,8E0,3E0,5E0,9E0,5.23E2,1E1,4.6E1,4E0,4E0],"tree_param":{"num_deleted":"0","num_feature":"60","num_nodes":"47","size_leaf_vector":"0"}},{"base_weights":[-3.1138603E-5,1.1076182E-2,-8.188681E-5,3.4565628E-3,1.315771E-2,2.9016174E-3,-2.5471172E-4,1.5441358E-2,1.7098282E-3,-3.718836E-3,-7.257539E-5,5.907018E-3,-8.4804907E-4,-1.5224059E-2,-2.4004048E-3,-1.579062E-4,7.06901E-3,1.2503411E-2,2.213465E-4,-6.033628E-3,1.4736447E-3,-6.4995023E-3,4.656826E-4,-1.4365538E-3,3.0634247E-4,9.942383E-3,-7.6281525E-5,-1.590757E-3,2.4311393E-3,-2.635164E-3,4.2024464E-3,-8.1270235E-3,-2.5955676E-3,1.8342363E-3,-4.7828145E-3,-2.5155486E-3,2.3655586E-3,7.600283E-3,6.072734E-5,5.422361E-3,1.4011234E-2,1.7871149E-3,-1.9015372E-3],"categories":[],"categories_nodes":[],"categories_segments":[],"categories_sizes":[],"default_left":[1,1,1,0,0,1,1,0,1,1,1,1,1,0,1,1,1,0,1,0,1,1,1,1,1,1,1,0,0,0,0,0,0,0,0,0,0,0,0,0,0,0,0],"id":73,"left_children":[1,3,5,-1,-1,7,9,-1,11,13,15,17,19,-1,21,23,25,-1,27,-1,29,31,33,35,37,39,41,-1,-1,-1,-1,-1,-1,-1,-1,-1,-1,-1,-1,-1,-1,-1,-1],"loss_changes":[3.718062E-4,2.100889E-6,3.3898832E-4,0E0,0E0,5.116082E-4,3.9154562E-4,0E0,3.700299E-4,4.336903E-4,3.6126998E-4,4.847964E-4,2.737566E-4,0E0,3.4372948E-4,3.4770218E-4,1.4447604E-4,0E0,3.590234E-5,0E0,1.9046811E-4,5.5150536E-5,1.3806412E-4,6.459344E-4,7.698843E-4,1.5982485E-5,1.360179E-5,0E0,0E0,0E0,0E0,0E0,0E0,0E0,0E0,0E0,0E0,0E0,0E0,0E0,0E0,0E0,0E0],"parents":[2147483647,0,0,1,1,2,2,5,5,6,6,8,8,9,9,10,10,11,11,12,12,14,14,15,15,16,16,18,18,20,20,21,21,22,22,23,23,24,24,25,25,26,26],"right_children":[2,4,6,-1,-1,8,10,-1,12,14,16,18,20,-1,22,24,26,-1,28,-1,30,32,34,36,38,40,42,-1,-1,-1,-1,-1,-1,-1,-1,-1,-1,-1,-1,-1,-1,-1,-1],"split_conditions":[-2.2761357E0,1.4717262E-2,-1.1534305E0,1.0369689E-3,3.9473134E-3,-1.2512827E0,-8.0056715E-1,4.632408E-3,-3.9518693E-1,-9.000349E-1,1.6872079E0,-1.1647933E-1,-2.3367256E-1,-4.567218E-3,-2.4914303E-1,-3.8640246E-1,5.4726068E-2,3.7510234E-3,-2.1447138E-1,-1.8100884E-3,7.9057224E-2,3.878808E-1,8.79357E-1,4.7164208E-1,-1.2696981E0,3.030826E-1,-7.0164055E-2,-4.7722712E-4,7.293418E-4,-7.905492E-4,1.2607339E-3,-2.438107E-3,-7.786703E-4,5.502709E-4,-1.4348445E-3,-7.546646E-4,7.096676E-4,2.2800849E-3,1.8218203E-5,1.6267084E-3,4.2033703E-3,5.3613447E-4,-5.7046115E-4],"split_indices":[30,0,24,0,0,11,24,0,12,5,13,0,40,0,35,49,6,0,3,0,31,59,53,42,17,0,0,0,0,0,0,0,0,0,0,0,0,0,0,0,0,0,0],"split_type":[0,0,0,0,0,0,0,0,0,0,0,0,0,0,0,0,0,0,0,0,0,0,0,0,0,0,0,0,0,0,0,0,0,0,0,0,0,0,0,0,0,0,0],"sum_hessian":[6.57E2,2E0,6.55E2,1E0,1E0,3.5E1,6.2E2,2E0,3.3E1,3E1,5.9E2,1.2E1,2.1E1,2E0,2.8E1,5.84E2,6E0,5E0,7E0,6E0,1.5E1,1.1E1,1.7E1,1.55E2,4.29E2,4E0,2E0,4E0,3E0,6E0,9E0,7E0,4E0,1.4E1,3E0,1.21E2,3.4E1,1.3E1,4.16E2,3E0,1E0,1E0,1E0],"tree_param":{"num_deleted":"0","num_feature":"60","num_nodes":"43","size_leaf_vector":"0"}},{"base_weights":[-4.078644E-6,-4.553325E-3,1.1639062E-4,-1.4521735E-3,-1.4269024E-2,4.2978856E-3,-1.111706E-5,-4.4574407E-3,3.2977562E-3,5.7524146E-4,1.460624E-2,-1.0748521E-3,4.361604E-4,-2.2261057E-3,-8.178075E-3,7.430017E-4,5.604843E-3,-4.3299263E-3,4.326456E-3,-4.8694917E-4,-6.1856373E-3,-1.8296646E-3,9.142713E-4,-2.6605427E-3,1.9025803E-4,-7.5318664E-4,-6.824184E-3,-1.9972723E-3,6.41856E-3,3.4358704E-3,-1.2680349E-3,-9.44025E-3,7.423056E-4,-6.711234E-3,5.0748436E-4,2.3303623E-3,-5.6230515E-4,-7.843971E-5,-2.9174685E-3,6.8811974E-3,1.8213689E-3,5.3190733E-3,-1.9370206E-3,-6.574958E-4,-6.3120276E-3,-1.4322064E-2,-3.2098293E-3,2.9170774E-3,-1.6180426E-3,-1.4919688E-2,-3.3338438E-3,-1.7921805E-3,3.3609201E-3,3.7065642E-3,-2.3325088E-3,2.9067236E-3,-1.9672052E-3],"categories":[],"categories_nodes":[],"categories_segments":[],"categories_sizes":[],"default_left":[1,1,1,1,0,1,1,1,1,1,0,1,1,1,0,0,0,1,1,1,1,1,1,0,0,0,0,1,1,1,1,1,1,1,1,1,1,0,0,0,0,0,0,0,0,0,0,0,0,0,0,0,0,0,0,0,0],"id":74,"left_children":[1,3,5,7,-1,9,11,13,15,17,-1,19,21,23,-1,-1,-1,25,27,29,31,33,35,-1,-1,-1,-1,37,39,41,43,45,47,49,51,53,55,-1,-1,-1,-1,-1,-1,-1,-1,-1,-1,-1,-1,-1,-1,-1,-1,-1,-1,-1,-1],"loss_changes":[3.6114317E-4,4.914864E-4,3.4234466E-4,2.1454686E-4,0E0,7.2071014E-4,2.9735843E-4,5.6512567E-5,3.1199845E-5,2.9473827E-4,0E0,5.528473E-4,4.783317E-4,7.8544945E-6,0E0,3.257935E-7,0E0,5.73093E-5,1.318887E-4,5.160545E-4,4.3541513E-4,8.818954E-4,7.624222E-4,0E0,0E0,7.146725E-7,0E0,5.068262E-6,2.3546163E-6,2.93614E-4,4.2698756E-4,3.494334E-4,4.0652485E-5,6.433388E-4,3.5380654E-4,1.2022173E-3,8.7809935E-4,0E0,0E0,0E0,0E0,0E0,0E0,0E0,0E0,0E0,0E0,0E0,0E0,0E0,0E0,0E0,0E0,0E0,0E0,0E0,0E0],"parents":[2147483647,0,0,1,1,2,2,3,3,5,5,6,6,7,7,8,8,9,9,11,11,12,12,13,13,17,17,18,18,19,19,20,20,21,21,22,22,27,27,28,28,29,29,30,30,31,31,32,32,33,33,34,34,35,35,36,36],"right_children":[2,4,6,8,-1,10,12,14,16,18,-1,20,22,24,-1,-1,-1,26,28,30,32,34,36,-1,-1,-1,-1,38,40,42,44,46,48,50,52,54,56,-1,-1,-1,-1,-1,-1,-1,-1,-1,-1,-1,-1,-1,-1,-1,-1,-1,-1,-1,-1],"split_conditions":[-1.3605225E0,6.42715E-1,-1.1444936E0,-1.3496984E-2,-4.2807073E-3,5.2455294E-1,-3.39474E-1,-1.5427706E-1,-2.4095541E-1,6.226887E-2,4.3818722E-3,9.2239785E-1,-5.5193526E-1,4.443885E-1,-2.4534226E-3,2.2290052E-4,1.681453E-3,-2.0337014E-1,-6.0094905E-1,-5.497799E-1,7.6542646E-2,-3.096239E-1,1.2100678E-2,-7.9816283E-4,5.707741E-5,-2.25956E-4,-2.0472554E-3,8.687456E-1,5.119191E-1,5.136295E-1,8.920058E-1,-1.07077345E-1,8.1834197E-4,-2.7753872E-1,1.5398404E-1,3.9314938E-1,-4.7858796E-1,-2.3531915E-5,-8.752406E-4,2.0643594E-3,5.464107E-4,1.595722E-3,-5.811062E-4,-1.9724875E-4,-1.8936084E-3,-4.2966194E-3,-9.6294883E-4,8.7512325E-4,-4.854128E-4,-4.4759065E-3,-1.0001531E-3,-5.3765415E-4,1.0082761E-3,1.1119694E-3,-6.9975265E-4,8.720171E-4,-5.901616E-4],"split_indices":[3,10,3,7,0,58,4,7,12,18,0,23,19,4,0,0,0,49,10,18,57,13,7,0,0,0,0,0,2,53,11,32,0,29,46,35,22,0,0,0,0,0,0,0,0,0,0,0,0,0,0,0,0,0,0,0,0],"split_type":[0,0,0,0,0,0,0,0,0,0,0,0,0,0,0,0,0,0,0,0,0,0,0,0,0,0,0,0,0,0,0,0,0,0,0,0,0,0,0,0,0,0,0,0,0,0,0,0,0,0,0,0,0,0,0,0,0],"sum_hessian":[6.57E2,1.6E1,6.41E2,1.3E1,3E0,1.8E1,6.23E2,8E0,5E0,1.4E1,4E0,1.84E2,4.39E2,6E0,2E0,3E0,2E0,6E0,8E0,1.66E2,1.8E1,7.6E1,3.63E2,5E0,1E0,3E0,3E0,2E0,6E0,2.7E1,1.39E2,1.2E1,6E0,2.4E1,5.2E1,1.85E2,1.78E2,1E0,1E0,5E0,1E0,2E1,7E0,1.25E2,1.4E1,6E0,6E0,3E0,3E0,6E0,1.8E1,2.9E1,2.3E1,1.43E2,4.2E1,5.1E1,1.27E2],"tree_param":{"num_deleted":"0","num_feature":"60","num_nodes":"57","size_leaf_vector":"0"}},{"base_weights":[-2.1104644E-5,9.54328E-3,-6.481203E-5,9.4070835E-3,-1.0816199E-4,1.1329353E-2,2.781272E-3,2.1366754E-3,-2.8949676E-4,4.666754E-3,-2.8096148E-4,-1.274991E-2,-2.478268E-4,1.0971258E-2,2.430239E-3,-1.7296181E-3,8.119054E-3,-5.0046097E-4,1.8229348E-3,4.207304E-3,-5.391382E-4,-4.260472E-3,2.0167907E-4,-4.2014875E-4,-1.1157259E-2,-6.289022E-4,7.106819E-3],"categories":[],"categories_nodes":[],"categories_segments":[],"categories_sizes":[],"default_left":[1,0,1,1,1,0,0,1,1,1,1,0,1,0,1,1,0,1,1,0,0,0,0,0,0,0,0],"id":75,"left_children":[1,-1,3,5,7,-1,-1,9,11,13,15,-1,17,-1,19,21,-1,23,25,-1,-1,-1,-1,-1,-1,-1,-1],"loss_changes":[2.7568507E-4,0E0,2.7037523E-4,6.699789E-6,2.6684042E-4,0E0,0E0,3.010349E-4,3.1149053E-4,3.1174003E-4,3.3043005E-4,0E0,3.174151E-4,0E0,1.0252707E-4,1.1327938E-4,0E0,4.574826E-4,8.5951434E-4,0E0,0E0,0E0,0E0,0E0,0E0,0E0,0E0],"parents":[2147483647,0,0,2,2,3,3,4,4,7,7,8,8,9,9,10,10,12,12,14,14,15,15,17,17,18,18],"right_children":[2,-1,4,6,8,-1,-1,10,12,14,16,-1,18,-1,20,22,-1,24,26,-1,-1,-1,-1,-1,-1,-1,-1],"split_conditions":[-2.3260856E0,2.862984E-3,-2.2761357E0,-1.801223E-1,-9.585208E-1,3.398806E-3,8.343816E-4,-1.5757957E-2,-2.3260856E0,-1.3863692E-1,5.526279E-1,-3.8249732E-3,7.356467E-1,3.2913776E-3,2.182908E-1,-5.558016E-2,2.4357163E-3,7.1971786E-1,2.596255E-1,1.2621913E-3,-1.6174147E-4,-1.2781416E-3,6.0503724E-5,-1.2604463E-4,-3.347178E-3,-1.8867067E-4,2.1320458E-3],"split_indices":[14,0,37,0,48,0,0,41,20,46,46,0,54,0,35,16,0,54,49,0,0,0,0,0,0,0,0],"split_type":[0,0,0,0,0,0,0,0,0,0,0,0,0,0,0,0,0,0,0,0,0,0,0,0,0,0,0],"sum_hessian":[6.57E2,2E0,6.55E2,2E0,6.53E2,1E0,1E0,4.8E1,6.05E2,2.3E1,2.5E1,1E0,6.04E2,5E0,1.8E1,2.2E1,3E0,5.39E2,6.5E1,1.1E1,7E0,9E0,1.3E1,5.36E2,3E0,4.5E1,2E1],"tree_param":{"num_deleted":"0","num_feature":"60","num_nodes":"27","size_leaf_vector":"0"}},{"base_weights":[-3.6017348E-6,-1.1401892E-2,3.110174E-5,9.273872E-3,-1.1279043E-5,-5.0411015E-3,6.6599445E-5,4.6751648E-4,-7.468726E-3,-3.3825755E-3,1.8220021E-4,-8.421441E-4,2.198249E-3,-3.6944821E-3,-9.375788E-3,-4.235428E-3,1.936376E-4,7.398485E-3,1.1218424E-4,-1.7587505E-3,-5.793227E-3,5.0156564E-4,-5.1903725E-4,1.37400925E-2,3.3821452E-3,6.7857974E-3,3.604201E-5],"categories":[],"categories_nodes":[],"categories_segments":[],"categories_sizes":[],"default_left":[1,0,1,0,1,1,1,1,1,1,1,0,0,0,0,1,1,1,1,0,0,0,0,0,0,0,0],"id":76,"left_children":[1,-1,3,-1,5,7,9,11,13,15,17,-1,-1,-1,-1,19,21,23,25,-1,-1,-1,-1,-1,-1,-1,-1],"loss_changes":[2.6063327E-4,0E0,2.5746188E-4,0E0,2.5690906E-4,1.3722031E-4,2.5819408E-4,1.0917932E-5,1.5745318E-5,6.4869746E-5,3.154597E-4,4.4711032E-7,0E0,0E0,0E0,5.5399985E-5,1.357594E-6,1.06349326E-4,3.1531273E-4,0E0,0E0,0E0,0E0,0E0,0E0,0E0,0E0],"parents":[2147483647,0,0,2,2,4,4,5,5,6,6,7,7,8,8,9,9,10,10,15,15,16,16,17,17,18,18],"right_children":[2,-1,4,-1,6,8,10,12,14,16,18,-1,-1,-1,-1,20,22,24,26,-1,-1,-1,-1,-1,-1,-1,-1],"split_conditions":[-2.8997092E0,-3.4205676E-3,-2.2761357E0,2.7821616E-3,-1.587192E0,-3.4369305E-1,-1.3374286E0,7.785737E-2,-8.7470315E-2,4.199872E-1,-1.587192E0,-2.5264322E-4,6.5947475E-4,-1.1083446E-3,-2.8127367E-3,-5.537895E-1,6.681715E-1,-2.4826216E-2,-1.222347E0,-5.276252E-4,-1.7379682E-3,1.504697E-4,-1.5571118E-4,4.122028E-3,1.0146436E-3,2.0357394E-3,1.0812603E-5],"split_indices":[32,0,30,0,30,27,28,0,4,43,23,0,0,0,0,24,0,2,28,0,0,0,0,0,0,0,0],"split_type":[0,0,0,0,0,0,0,0,0,0,0,0,0,0,0,0,0,0,0,0,0,0,0,0,0,0,0],"sum_hessian":[6.57E2,1E0,6.56E2,2E0,6.54E2,9E0,6.45E2,3E0,6E0,2E1,6.25E2,2E0,1E0,3E0,3E0,1.6E1,4E0,5E0,6.2E2,7E0,9E0,3E0,1E0,1E0,4E0,6E0,6.14E2],"tree_param":{"num_deleted":"0","num_feature":"60","num_nodes":"27","size_leaf_vector":"0"}},{"base_weights":[-1.3653278E-6,-1.1130393E-2,3.251507E-5,3.4669898E-3,-1.0882806E-4,1.2343147E-2,1.8698527E-4,-8.0371666E-4,5.4176745E-4,1.789964E-2,3.7008673E-3,4.8325434E-3,-2.6862032E-3,-1.8749856E-4,-4.2826124E-3,-2.275042E-3,1.107272E-3,4.941523E-3,-1.0550022E-5,7.2427243E-3,-1.5986661E-3,-5.4522217E-3,-2.7591386E-4,-2.1753083E-3,7.6815864E-4,1.1417518E-4,-6.8639764E-3,-5.41769E-3,-1.746505E-4,-6.4731133E-4,2.1576511E-3,8.486301E-3,3.170381E-3,-2.7772188E-3,3.7921965E-4,-1.8866478E-3,5.754388E-4,-1.1123281E-3,-1.1027993E-2,-1.6836168E-3,2.35016E-3,6.9436715E-3,-2.333086E-3,-1.6464334E-3,-9.523397E-3,-9.392378E-3,-1.3227524E-3,-3.1385864E-3,2.634325E-3,9.015806E-3,-1.2323256E-3,-4.357627E-3,2.721298E-3],"categories":[],"categories_nodes":[],"categories_segments":[],"categories_sizes":[],"default_left":[1,0,1,1,1,1,1,1,1,0,1,1,1,1,1,1,1,0,0,1,1,0,1,1,1,1,1,1,1,1,1,0,0,0,0,0,0,0,0,0,0,0,0,0,0,0,0,0,0,0,0,0,0],"id":77,"left_children":[1,-1,3,5,7,9,11,13,15,-1,17,19,21,23,25,27,29,-1,-1,31,33,-1,35,37,39,41,43,45,47,49,51,-1,-1,-1,-1,-1,-1,-1,-1,-1,-1,-1,-1,-1,-1,-1,-1,-1,-1,-1,-1,-1,-1],"loss_changes":[2.4846464E-4,0E0,3.1931102E-4,7.546518E-4,2.8615718E-4,2.6990112E-4,2.799325E-4,6.5518706E-4,5.2340346E-4,0E0,1.8470499E-5,1.3558172E-4,8.516542E-5,4.974835E-4,5.2287034E-4,3.6209734E-4,5.0452957E-4,0E0,0E0,3.4808181E-6,8.046303E-6,0E0,1.2056071E-5,7.876026E-4,6.904887E-4,3.170443E-4,3.86714E-4,3.4565042E-4,2.913393E-4,5.933756E-4,6.398247E-4,0E0,0E0,0E0,0E0,0E0,0E0,0E0,0E0,0E0,0E0,0E0,0E0,0E0,0E0,0E0,0E0,0E0,0E0,0E0,0E0,0E0,0E0],"parents":[2147483647,0,0,2,2,3,3,4,4,5,5,6,6,7,7,8,8,10,10,11,11,12,12,13,13,14,14,15,15,16,16,19,19,20,20,22,22,23,23,24,24,25,25,26,26,27,27,28,28,29,29,30,30],"right_children":[2,-1,4,6,8,10,12,14,16,-1,18,20,22,24,26,28,30,-1,-1,32,34,-1,36,38,40,42,44,46,48,50,52,-1,-1,-1,-1,-1,-1,-1,-1,-1,-1,-1,-1,-1,-1,-1,-1,-1,-1,-1,-1,-1,-1],"split_conditions":[-2.8997092E0,-3.3391179E-3,-1.222347E0,-1.3622329E-1,-2.3998689E-2,1.7281106E-1,-4.7425854E-1,-1.4343885E-1,-6.9324064E-1,5.3698923E-3,-2.9085928E-1,3.942726E-1,-4.6141654E-2,-2.4837783E-1,-4.2653427E-2,-9.26324E-2,-2.3384012E-1,1.482457E-3,-3.1650068E-6,2.2481877E-1,1.1852057E-1,-1.6356666E-3,-3.2749563E-1,-2.9999617E-1,-3.146028E-1,-4.93686E-1,-2.523569E-1,-1.314227E-1,-1.4343885E-1,-1.0952996E0,-1.113064E0,2.5458904E-3,9.5111434E-4,-8.3316566E-4,1.137659E-4,-5.6599436E-4,1.7263164E-4,-3.3369847E-4,-3.308398E-3,-5.0508505E-4,7.05048E-4,2.0831015E-3,-6.999258E-4,-4.9393E-4,-2.8570192E-3,-2.8177134E-3,-3.9682575E-4,-9.4157597E-4,7.902976E-4,2.704742E-3,-3.696977E-4,-1.3072882E-3,8.1638945E-4],"split_indices":[41,0,41,44,30,35,30,30,11,0,0,6,58,33,28,49,42,0,0,1,0,0,11,33,53,2,21,35,37,14,29,0,0,0,0,0,0,0,0,0,0,0,0,0,0,0,0,0,0,0,0,0,0],"split_type":[0,0,0,0,0,0,0,0,0,0,0,0,0,0,0,0,0,0,0,0,0,0,0,0,0,0,0,0,0,0,0,0,0,0,0,0,0,0,0,0,0,0,0,0,0,0,0,0,0,0,0,0,0],"sum_hessian":[6.57E2,1E0,6.56E2,2.5E1,6.31E2,6E0,1.9E1,3.05E2,3.26E2,3E0,3E0,7E0,1.2E1,2.6E2,4.5E1,5.4E1,2.72E2,2E0,1E0,5E0,2E0,5E0,7E0,8.4E1,1.76E2,1.7E1,2.8E1,2.1E1,3.3E1,1.02E2,1.7E2,3E0,2E0,1E0,1E0,2E0,5E0,7.6E1,8E0,6.9E1,1.07E2,4E0,1.3E1,1E1,1.8E1,1E1,1.1E1,1.6E1,1.7E1,5E0,9.7E1,1.3E1,1.57E2],"tree_param":{"num_deleted":"0","num_feature":"60","num_nodes":"53","size_leaf_vector":"0"}},{"base_weights":[-5.0166186E-6,-1.0942161E-2,2.8285216E-5,6.184089E-3,-2.8406666E-5,3.1468133E-4,1.1948603E-2,8.665065E-3,-6.848668E-5,-4.7302525E-4,7.3492527E-4,7.428631E-3,-1.1473086E-4,1.16629405E-2,-2.637148E-3,-8.5786154E-4,3.584602E-4,9.0006326E-4,-2.3880636E-3,7.0438616E-4,-3.2296441E-3],"categories":[],"categories_nodes":[],"categories_segments":[],"categories_sizes":[],"default_left":[1,0,1,1,1,1,0,0,1,0,0,1,1,0,0,1,1,0,0,0,0],"id":78,"left_children":[1,-1,3,5,7,9,-1,-1,11,-1,-1,13,15,-1,-1,17,19,-1,-1,-1,-1],"loss_changes":[2.3997085E-4,0E0,2.2945824E-4,1.992457E-4,2.277727E-4,1.6717539E-6,0E0,0E0,2.2620604E-4,0E0,0E0,2.0124337E-4,2.2782042E-4,0E0,0E0,6.800244E-4,4.937974E-4,0E0,0E0,0E0,0E0],"parents":[2147483647,0,0,2,2,3,3,4,4,5,5,8,8,11,11,12,12,15,15,16,16],"right_children":[2,-1,4,6,8,10,-1,-1,12,-1,-1,14,16,-1,-1,18,20,-1,-1,-1,-1],"split_conditions":[-2.3260856E0,-3.2826485E-3,-1.8119881E0,4.8922986E-2,-2.2761357E0,-1.8438505E-1,3.5845812E-3,2.5995197E-3,-2.2761357E0,-1.4190759E-4,2.204776E-4,9.237669E-2,-1.9376315E-1,3.4988823E-3,-7.911444E-4,-1.2405628E-1,9.1400087E-1,2.70019E-4,-7.164191E-4,2.1131586E-4,-9.688933E-4],"split_indices":[16,0,11,0,55,0,0,0,46,0,0,0,55,0,0,11,23,0,0,0,0],"split_type":[0,0,0,0,0,0,0,0,0,0,0,0,0,0,0,0,0,0,0,0,0],"sum_hessian":[6.57E2,1E0,6.56E2,5E0,6.51E2,3E0,2E0,2E0,6.49E2,1E0,2E0,3E0,6.46E2,2E0,1E0,2.51E2,3.95E2,1.17E2,1.34E2,3.61E2,3.4E1],"tree_param":{"num_deleted":"0","num_feature":"60","num_nodes":"21","size_leaf_vector":"0"}},{"base_weights":[3.3054237E-6,1.0371894E-2,-2.8263043E-5,-1.1388418E-4,3.6439141E-3,3.265565E-5,-2.3842102E-3,-8.7619823E-4,5.99159E-3,8.704531E-3,-3.954407E-5,2.3188272E-3,-4.3146475E-3,1.7738491E-3,-4.1175284E-3,7.193276E-3,2.3907423E-3,1.07424855E-2,3.7650664E-3,-3.2187492E-4,1.8859527E-3,-5.103946E-4,6.3818167E-3,-5.918459E-3,1.3422823E-3,2.9030591E-3,4.297594E-4,-1.3678116E-3,5.369793E-4,4.1489997E-3,-1.2571705E-3,-2.044928E-3,1.535371E-3,1.1943579E-3,7.3800916E-3,-7.4223275E-3,6.791592E-4,3.6280255E-3,-2.9762014E-4],"categories":[],"categories_nodes":[],"categories_segments":[],"categories_sizes":[],"default_left":[1,0,1,1,1,1,1,1,1,1,1,1,1,1,0,0,0,0,0,1,1,1,1,1,1,0,0,0,0,0,0,0,0,0,0,0,0,0,0],"id":79,"left_children":[1,-1,3,5,7,9,11,13,15,17,19,21,23,25,-1,-1,-1,-1,-1,27,29,31,33,35,37,-1,-1,-1,-1,-1,-1,-1,-1,-1,-1,-1,-1,-1,-1],"loss_changes":[2.1566998E-4,0E0,2.069863E-4,2.139996E-4,1.6442622E-4,3.7913892E-4,3.6408275E-4,5.8841953E-5,2.6073627E-5,9.885844E-6,3.2732697E-4,1.4119843E-4,2.6197842E-4,4.8234206E-6,0E0,0E0,0E0,0E0,0E0,4.7234577E-4,5.529197E-4,2.8254088E-5,1.7078084E-5,2.2332394E-4,2.7318543E-5,0E0,2.7519746E-7,0E0,0E0,0E0,0E0,0E0,0E0,0E0,0E0,0E0,0E0,0E0,0E0],"parents":[2147483647,0,0,2,2,3,3,4,4,5,5,6,6,7,7,8,8,9,9,10,10,11,11,12,12,13,13,19,19,20,20,21,21,22,22,23,23,24,24],"right_children":[2,-1,4,6,8,10,12,14,16,18,20,22,24,26,-1,-1,-1,-1,-1,28,30,32,34,36,38,-1,-1,-1,-1,-1,-1,-1,-1,-1,-1,-1,-1,-1,-1],"split_conditions":[-2.8997092E0,3.1115683E-3,1.3784544E0,1.0390301E0,-3.49329E-1,-1.8058611E0,-4.797755E-1,1.1325161E-1,1.0403788E0,-3.5058743E-1,5.5615515E-1,3.5739344E-1,5.1809394E-1,-7.7352536E-1,-1.2352585E-3,2.157983E-3,7.172227E-4,3.2227458E-3,1.12952E-3,-9.348998E-2,1.8775749E-1,2.750873E-1,-3.5133633E-1,1.6974351E0,1.235879E0,8.7091775E-4,1.2892783E-4,-4.103435E-4,1.6109379E-4,1.2446999E-3,-3.7715115E-4,-6.134784E-4,4.606113E-4,3.5830738E-4,2.2140276E-3,-2.2266984E-3,2.0374777E-4,1.0884077E-3,-8.928604E-5],"split_indices":[35,0,39,8,51,26,21,3,5,2,8,20,59,1,0,0,0,0,0,29,24,11,0,8,8,0,0,0,0,0,0,0,0,0,0,0,0,0,0],"split_type":[0,0,0,0,0,0,0,0,0,0,0,0,0,0,0,0,0,0,0,0,0,0,0,0,0,0,0,0,0,0,0,0,0,0,0,0,0,0,0],"sum_hessian":[6.57E2,1E0,6.56E2,6.42E2,1.4E1,6.04E2,3.8E1,5E0,9E0,4E0,6E2,1.1E1,2.7E1,3E0,2E0,6E0,3E0,2E0,2E0,5.24E2,7.6E1,7E0,4E0,2.1E1,6E0,1E0,2E0,2.36E2,2.88E2,4.4E1,3.2E1,4E0,3E0,1E0,3E0,1.7E1,4E0,2E0,4E0],"tree_param":{"num_deleted":"0","num_feature":"60","num_nodes":"39","size_leaf_vector":"0"}},{"base_weights":[2.07271E-5,-1.3743811E-3,2.5279692E-4,1.4770188E-3,-2.7340534E-3,1.3345927E-2,2.0591916E-4,7.0017674E-3,8.5456145E-4,-4.5457482E-3,8.864486E-5,8.529994E-4,-4.6760082E-4,1.9498072E-3,-1.7959633E-3,-1.4693816E-2,-3.6000737E-3,2.1782613E-3,-2.1685301E-3,4.9524294E-4,5.378035E-3,2.7179546E-4,-2.3916406E-3,3.220251E-3,-5.1719556E-4,-2.3064865E-3,1.1441112E-3,-6.7639835E-3,-8.6738134E-4,-3.7209856E-4,5.6407577E-3,-4.6468377E-3,-9.603541E-4,1.0260949E-3,-2.5562656E-3,2.9459926E-3,1.257137E-2,-4.9334536E-3,7.1809755E-4,6.65965E-4,-4.252818E-3,4.0494213E-3,9.178609E-4,-2.215439E-3,9.448383E-4,-2.486296E-3,-5.239099E-4,-9.7578885E-3,-2.1761043E-3,1.6208906E-3,-2.2272952E-3,-1.1905705E-3,9.48634E-4,5.7613757E-4,-1.7011559E-3,-5.373259E-4,2.401696E-3,-5.2313256E-4,-7.868785E-3,7.064508E-3,6.412358E-4,-1.443788E-3,-1.5041504E-2,-8.508979E-4,1.9365693E-3,5.6199557E-3,-5.4963125E-4,-6.0747536E-3,1.6042341E-4],"categories":[],"categories_nodes":[],"categories_segments":[],"categories_sizes":[],"default_left":[1,1,1,1,1,0,1,0,1,1,1,1,1,1,1,0,1,1,1,1,1,1,1,1,1,1,0,1,1,1,0,0,1,1,1,1,0,1,1,1,1,0,0,0,0,0,0,0,0,0,0,0,0,0,0,0,0,0,0,0,0,0,0,0,0,0,0,0,0],"id":80,"left_children":[1,3,5,7,9,-1,11,-1,13,15,17,19,21,23,25,-1,27,29,31,33,35,37,39,41,43,45,-1,47,49,51,-1,-1,53,55,57,59,-1,61,63,65,67,-1,-1,-1,-1,-1,-1,-1,-1,-1,-1,-1,-1,-1,-1,-1,-1,-1,-1,-1,-1,-1,-1,-1,-1,-1,-1,-1,-1],"loss_changes":[2.1338317E-4,3.6847335E-4,3.440356E-4,1.006231E-4,3.2769048E-4,0E0,2.462022E-4,0E0,8.768808E-5,3.2137515E-4,1.27356E-4,4.6356846E-4,3.947179E-4,6.748346E-5,1.6147664E-5,0E0,3.1403473E-4,1.2572747E-4,3.4462406E-5,4.3675594E-4,3.3034926E-4,4.7048857E-4,4.4101974E-4,2.3010216E-5,2.1956346E-5,1.2615965E-6,0E0,2.1227234E-4,7.4670745E-5,1.0858258E-5,0E0,0E0,1.2362459E-5,4.937879E-4,4.27926E-4,1.5683698E-4,0E0,5.4266275E-4,3.5723828E-4,1.8375048E-4,3.869253E-4,0E0,0E0,0E0,0E0,0E0,0E0,0E0,0E0,0E0,0E0,0E0,0E0,0E0,0E0,0E0,0E0,0E0,0E0,0E0,0E0,0E0,0E0,0E0,0E0,0E0,0E0,0E0,0E0],"parents":[2147483647,0,0,1,1,2,2,3,3,4,4,6,6,8,8,9,9,10,10,11,11,12,12,13,13,14,14,16,16,17,17,18,18,19,19,20,20,21,21,22,22,23,23,24,24,25,25,27,27,28,28,29,29,32,32,33,33,34,34,35,35,37,37,38,38,39,39,40,40],"right_children":[2,4,6,8,10,-1,12,-1,14,16,18,20,22,24,26,-1,28,30,32,34,36,38,40,42,44,46,-1,48,50,52,-1,-1,54,56,58,60,-1,62,64,66,68,-1,-1,-1,-1,-1,-1,-1,-1,-1,-1,-1,-1,-1,-1,-1,-1,-1,-1,-1,-1,-1,-1,-1,-1,-1,-1,-1,-1],"split_conditions":[-6.7229795E-1,-2.8771785E-1,-6.656394E-1,-8.8651216E-1,1.3774636E-1,4.003778E-3,3.0563377E-2,2.1005303E-3,1.8421109E-1,-1.0750549E0,2.294806E-1,9.432155E-1,3.609111E-1,3.026812E-1,1.1618671E0,-4.408145E-3,1.2370114E-2,3.7144497E-1,-3.9941844E-1,6.1787224E-1,2.9227838E-1,-7.9374784E-1,-2.2579044E-1,2.7584174E-1,-2.131289E-1,7.199896E-1,3.4323335E-4,3.7508187E-1,-2.5163162E-1,2.783198E-2,1.6922274E-3,-1.3940514E-3,-2.3703212E-1,-1.5669188E-1,2.1959975E-1,-1.9190735E-1,3.7714113E-3,4.3639672E-1,-9.2197046E-2,-6.2027705E-1,4.2923865E-1,1.2148265E-3,2.7535827E-4,-6.646317E-4,2.834515E-4,-7.4588886E-4,-1.5717298E-4,-2.9273666E-3,-6.5283134E-4,4.8626718E-4,-6.6818856E-4,-3.5717117E-4,2.845902E-4,1.7284128E-4,-5.103468E-4,-1.6119778E-4,7.2050886E-4,-1.5693977E-4,-2.3606357E-3,2.1193523E-3,1.9237075E-4,-4.331364E-4,-4.5124516E-3,-2.5526938E-4,5.8097084E-4,1.6859868E-3,-1.6488938E-4,-1.8224261E-3,4.8127025E-5],"split_indices":[16,44,16,47,47,0,56,0,11,17,59,22,48,1,1,0,1,55,18,18,30,9,51,18,4,0,0,13,40,21,0,0,28,18,27,43,0,27,51,35,32,0,0,0,0,0,0,0,0,0,0,0,0,0,0,0,0,0,0,0,0,0,0,0,0,0,0,0,0],"split_type":[0,0,0,0,0,0,0,0,0,0,0,0,0,0,0,0,0,0,0,0,0,0,0,0,0,0,0,0,0,0,0,0,0,0,0,0,0,0,0,0,0,0,0,0,0,0,0,0,0,0,0,0,0,0,0,0,0,0,0,0,0,0,0,0,0,0,0,0,0],"sum_hessian":[6.57E2,9.3E1,5.64E2,3E1,6.3E1,1E0,5.63E2,2E0,2.8E1,3.8E1,2.5E1,2.87E2,2.76E2,2E1,8E0,2E0,3.6E1,1.3E1,1.2E1,2.67E2,2E1,2E2,7.6E1,1.3E1,7E0,7E0,1E0,1.6E1,2E1,8E0,5E0,3E0,9E0,2.28E2,3.9E1,1.6E1,4E0,1.5E1,1.85E2,2.9E1,4.7E1,9E0,4E0,3E0,4E0,6E0,1E0,9E0,7E0,7E0,1.3E1,5E0,3E0,3E0,6E0,1.07E2,1.21E2,2.9E1,1E1,5E0,1.1E1,1.2E1,3E0,8.1E1,1.04E2,5E0,2.4E1,3.3E1,1.4E1],"tree_param":{"num_deleted":"0","num_feature":"60","num_nodes":"69","size_leaf_vector":"0"}},{"base_weights":[1.0895288E-5,-1.565279E-4,1.6520128E-3,-1.9338535E-4,1.0923684E-2,1.5054489E-4,4.306863E-3,-4.4784544E-4,1.1730111E-3,-6.8291463E-4,3.5697473E-3,1.2698571E-2,2.8327636E-3,-1.1639934E-4,-2.9945448E-3,-5.2194315E-4,4.9900445E-3,4.3924854E-4,-2.6833043E-3,5.1980866E-3,6.4188614E-4,6.8227E-4,4.91503E-3,-6.7307294E-4,1.3889616E-3,1.2563396E-3,-5.8238786E-3,5.9299646E-3,-1.6447E-3,1.1373004E-2,1.5490626E-3,-1.935208E-3,1.4506202E-3,-4.189752E-3,-1.715627E-3,2.103572E-3,-8.527438E-4,6.1141145E-3,1.5878752E-3,-1.5613307E-4,-3.1719045E-3,2.1655776E-3,-3.4894883E-3,2.468941E-3,-2.7929551E-3,-1.0616286E-3,-8.948158E-3,1.0455325E-3,9.011998E-3,-2.60491E-3,4.5621996E-3,5.655383E-3,1.595955E-2,2.497993E-3,-1.0814406E-3,-2.7985075E-3,1.4869373E-4,-1.6425382E-3,2.290775E-3,2.3917735E-3,3.3128262E-4,9.7592674E-5,-1.3523102E-3,1.9392371E-3,2.668947E-4],"categories":[],"categories_nodes":[],"categories_segments":[],"categories_sizes":[],"default_left":[1,1,1,1,0,1,1,1,1,1,1,0,1,1,1,1,1,1,1,0,0,1,1,1,1,1,1,1,1,1,1,1,1,0,0,1,1,0,1,0,0,0,0,0,0,0,0,0,0,0,0,0,0,0,0,0,0,0,0,0,0,0,0,0,0],"id":81,"left_children":[1,3,5,7,-1,9,11,13,15,17,19,-1,21,23,25,27,29,31,33,-1,-1,35,37,39,41,43,45,47,49,51,53,55,57,-1,-1,59,61,-1,63,-1,-1,-1,-1,-1,-1,-1,-1,-1,-1,-1,-1,-1,-1,-1,-1,-1,-1,-1,-1,-1,-1,-1,-1,-1,-1],"loss_changes":[1.810514E-4,2.4632868E-4,2.4250813E-4,2.0809827E-4,0E0,1.16428506E-4,2.3617261E-4,4.2507457E-4,6.107561E-4,7.525583E-5,3.4803845E-5,0E0,8.620466E-5,3.755185E-4,7.048927E-4,4.8785194E-4,6.193283E-4,5.5639328E-5,1.03050115E-5,0E0,4.850774E-7,2.579271E-5,3.0186944E-5,4.2190554E-4,4.6598737E-4,1.2473998E-4,5.112513E-4,1.4111749E-4,3.5159994E-4,1.7198396E-4,5.262472E-5,1.3009341E-5,4.5342404E-5,0E0,5.816655E-7,2.2723034E-6,2.9805128E-6,0E0,1.3389972E-6,0E0,0E0,0E0,0E0,0E0,0E0,0E0,0E0,0E0,0E0,0E0,0E0,0E0,0E0,0E0,0E0,0E0,0E0,0E0,0E0,0E0,0E0,0E0,0E0,0E0,0E0],"parents":[2147483647,0,0,1,1,2,2,3,3,5,5,6,6,7,7,8,8,9,9,10,10,12,12,13,13,14,14,15,15,16,16,17,17,18,18,21,21,22,22,23,23,24,24,25,25,26,26,27,27,28,28,29,29,30,30,31,31,32,32,35,35,36,36,38,38],"right_children":[2,4,6,8,-1,10,12,14,16,18,20,-1,22,24,26,28,30,32,34,-1,-1,36,38,40,42,44,46,48,50,52,54,56,58,-1,-1,60,62,-1,64,-1,-1,-1,-1,-1,-1,-1,-1,-1,-1,-1,-1,-1,-1,-1,-1,-1,-1,-1,-1,-1,-1,-1,-1,-1,-1],"split_conditions":[8.8823664E-1,1.9165051E0,1.5688923E-1,6.1998075E-1,3.2771053E-3,4.530102E-1,-8.7587875E-1,4.208954E-1,4.911965E-1,2.7799833E-1,5.0079817E-1,3.8095715E-3,4.5620438E-2,3.3617106E-1,-1.6671307E-1,6.6113186E-1,-3.0146283E-1,-3.8300747E-1,-4.3841785E-1,1.5594261E-3,1.9256586E-4,-1.5910271E-1,9.898565E-1,4.7620285E-1,6.771237E-1,2.6612753E-1,-3.869596E-1,-1.0974741E-1,4.6704054E-1,1.2472941E-1,2.2485764E-1,1.0719583E0,9.7878706E-1,-1.2569256E-3,-5.1468814E-4,5.2722466E-1,3.8865525E-1,1.8342345E-3,3.935809E-1,-4.6839923E-5,-9.515714E-4,6.496733E-4,-1.0468465E-3,7.4068236E-4,-8.378866E-4,-3.1848857E-4,-2.6844474E-3,3.1365978E-4,2.7035994E-3,-7.81473E-4,1.3686599E-3,1.696615E-3,4.787865E-3,7.493979E-4,-3.2443219E-4,-8.3955226E-4,4.4608118E-5,-4.927615E-4,6.8723253E-4,7.1753206E-4,9.9384786E-5,2.9277804E-5,-4.0569308E-4,5.8177114E-4,8.0068414E-5],"split_indices":[41,48,36,26,0,6,46,26,57,22,10,0,16,40,44,26,30,33,19,0,0,50,36,57,45,46,7,7,45,14,33,7,41,0,0,6,5,0,1,0,0,0,0,0,0,0,0,0,0,0,0,0,0,0,0,0,0,0,0,0,0,0,0,0,0],"split_type":[0,0,0,0,0,0,0,0,0,0,0,0,0,0,0,0,0,0,0,0,0,0,0,0,0,0,0,0,0,0,0,0,0,0,0,0,0,0,0,0,0,0,0,0,0,0,0,0,0,0,0,0,0,0,0,0,0,0,0,0,0,0,0,0,0],"sum_hessian":[6.57E2,5.97E2,6E1,5.96E2,1E0,3.9E1,2.1E1,5.03E2,9.3E1,3.2E1,7E0,2E0,1.9E1,4.46E2,5.7E1,6.5E1,2.8E1,2.1E1,1.1E1,4E0,3E0,1E1,9E0,3.26E2,1.2E2,2.3E1,3.4E1,9E0,5.6E1,9E0,1.9E1,6E0,1.5E1,3E0,8E0,5E0,5E0,6E0,3E0,2.71E2,5.5E1,1.04E2,1.6E1,1.8E1,5E0,1.4E1,2E1,4E0,5E0,4.9E1,7E0,5E0,4E0,1.4E1,5E0,4E0,2E0,3E0,1.2E1,4E0,1E0,2E0,3E0,2E0,1E0],"tree_param":{"num_deleted":"0","num_feature":"60","num_nodes":"65","size_leaf_vector":"0"}},{"base_weights":[3.1064366E-5,6.695006E-3,-9.678886E-6,6.61398E-4,1.2397915E-2,-7.5237206E-3,2.4856801E-5,-4.4544786E-4,1.4375448E-3,-2.3093885E-3,1.3312601E-4,-1.4967918E-2,-1.3227295E-3,-6.368352E-5,2.2153838E-3,-5.3820043E-4,-7.6810718E-3,2.995105E-5,-4.4357926E-3,6.9153385E-4,7.491231E-3,-2.7843162E-3,1.2945721E-3,-4.2822454E-4,8.526945E-4,-1.2144446E-2,-5.1685836E-4,8.8921385E-3,7.462288E-5,1.1380244E-2,-2.2943616E-4],"categories":[],"categories_nodes":[],"categories_segments":[],"categories_sizes":[],"default_left":[1,1,1,1,0,0,1,0,0,1,1,0,1,1,1,1,0,1,1,1,1,0,0,0,0,0,0,0,0,0,0],"id":82,"left_children":[1,3,5,7,-1,-1,9,-1,-1,11,13,-1,15,17,19,21,-1,23,25,27,29,-1,-1,-1,-1,-1,-1,-1,-1,-1,-1],"loss_changes":[1.7871882E-4,1.2943652E-4,1.701612E-4,3.2175762E-6,0E0,0E0,1.6533809E-4,0E0,0E0,3.4240138E-4,2.5627122E-4,0E0,1.3553858E-4,2.3429852E-4,4.2895792E-4,1.10636596E-4,0E0,2.1184026E-4,3.562395E-4,2.1687528E-4,3.6292034E-4,0E0,0E0,0E0,0E0,0E0,0E0,0E0,0E0,0E0,0E0],"parents":[2147483647,0,0,1,1,2,2,3,3,6,6,9,9,10,10,12,12,13,13,14,14,15,15,17,17,18,18,19,19,20,20],"right_children":[2,4,6,8,-1,-1,10,-1,-1,12,14,-1,16,18,20,22,-1,24,26,28,30,-1,-1,-1,-1,-1,-1,-1,-1,-1,-1],"split_conditions":[-2.2519822E0,-6.616899E-2,-2.3226771E0,-4.9136898E-1,3.7193748E-3,-2.2571164E-3,-1.2651558E0,-1.3363437E-4,4.3126347E-4,-1.1945577E0,9.4741845E-1,-4.4903755E-3,7.259649E-1,1.3282964E0,6.04136E-1,-5.9829473E-1,-2.3043216E-3,1.9572529E-1,-6.7628846E-2,-1.1979377E0,1.2091142E0,-8.352949E-4,3.8837167E-4,-1.2846736E-4,2.5580835E-4,-3.6433341E-3,-1.5505751E-4,2.6676417E-3,2.2386866E-5,3.4140733E-3,-6.883085E-5],"split_indices":[22,0,40,0,0,0,10,0,0,4,24,0,39,23,54,5,0,16,21,37,54,0,0,0,0,0,0,0,0,0,0],"split_type":[0,0,0,0,0,0,0,0,0,0,0,0,0,0,0,0,0,0,0,0,0,0,0,0,0,0,0,0,0,0,0],"sum_hessian":[6.57E2,3E0,6.54E2,2E0,1E0,2E0,6.52E2,1E0,1E0,2.8E1,6.24E2,1E0,2.7E1,5.71E2,5.3E1,2.5E1,2E0,5.6E2,1.1E1,4.2E1,1.1E1,1.1E1,1.4E1,3.6E2,2E2,3E0,8E0,2E0,4E1,7E0,4E0],"tree_param":{"num_deleted":"0","num_feature":"60","num_nodes":"31","size_leaf_vector":"0"}},{"base_weights":[1.7003897E-5,-2.772525E-3,9.979146E-5,1.9805017E-4,-6.881822E-3,1.1433637E-3,-2.3324041E-4,-1.4420673E-3,2.7826282E-3,-1.01275E-2,-2.9089153E-3,-1.9468194E-3,1.6691595E-3,9.644515E-4,-7.0138485E-4,-4.4247508E-4,-1.9533276E-3,4.0616095E-4,3.2752047E-3,1.0147691E-4,-3.6868826E-3,-3.289212E-3,8.098868E-3,2.675856E-3,-2.2981405E-4,1.8776499E-3,-1.8572275E-3,-1.228692E-3,1.1841158E-3,-4.5811343E-3,3.3467412E-3,1.1767792E-3,4.669831E-3,-2.7365468E-3,1.4204528E-3,3.3378793E-4,4.911727E-3,4.3348037E-4,-4.1734343E-3,1.5396078E-3,-1.7794042E-3,6.366354E-4,1.44764185E-2,-1.4441179E-3,-6.9463355E-3,-2.306216E-3,1.978045E-3,5.6575807E-3,-4.8935004E-3,-3.7263993E-3,1.9069994E-3,1.332805E-4,5.446811E-3,-4.0829089E-4,5.408799E-3,1.7770358E-3,8.5231075E-3,-9.127824E-4,3.2781363E-3,3.7130062E-4,-5.1738275E-3,-5.8666617E-3,3.2532082E-3,-2.668312E-3,-1.2228475E-4,-1.8889118E-4,7.574032E-3],"categories":[],"categories_nodes":[],"categories_segments":[],"categories_sizes":[],"default_left":[1,1,1,1,1,1,1,1,1,0,1,1,1,1,1,0,0,0,0,0,0,1,0,1,1,1,1,1,1,1,0,1,1,1,1,1,1,1,1,1,1,1,0,0,0,0,0,0,0,0,0,0,0,0,0,0,0,0,0,0,0,0,0,0,0,0,0],"id":83,"left_children":[1,3,5,7,9,11,13,15,17,-1,19,21,23,25,27,-1,-1,-1,-1,-1,-1,29,-1,31,33,35,37,39,41,43,-1,45,47,49,51,53,55,57,59,61,63,65,-1,-1,-1,-1,-1,-1,-1,-1,-1,-1,-1,-1,-1,-1,-1,-1,-1,-1,-1,-1,-1,-1,-1,-1,-1],"loss_changes":[1.5223408E-4,2.3329549E-4,2.2269409E-4,5.488088E-5,7.3698146E-5,2.550944E-4,2.7317315E-4,3.224115E-6,4.522699E-6,0E0,1.2084067E-5,3.3679977E-4,2.5486972E-4,3.5650234E-4,3.4943823E-4,0E0,0E0,0E0,0E0,0E0,0E0,1.953677E-4,0E0,2.5455822E-4,1.9831571E-4,4.855169E-4,1.8220469E-4,4.2046257E-4,5.511339E-4,1.235228E-4,0E0,1.4689288E-4,3.7719402E-4,9.443832E-5,1.4956994E-4,2.6583244E-4,3.810739E-4,7.1926E-5,7.9211924E-5,6.028893E-4,3.369967E-4,4.3095608E-4,0E0,0E0,0E0,0E0,0E0,0E0,0E0,0E0,0E0,0E0,0E0,0E0,0E0,0E0,0E0,0E0,0E0,0E0,0E0,0E0,0E0,0E0,0E0,0E0,0E0],"parents":[2147483647,0,0,1,1,2,2,3,3,4,4,5,5,6,6,7,7,8,8,10,10,11,11,12,12,13,13,14,14,21,21,23,23,24,24,25,25,26,26,27,27,28,28,29,29,31,31,32,32,33,33,34,34,35,35,36,36,37,37,38,38,39,39,40,40,41,41],"right_children":[2,4,6,8,10,12,14,16,18,-1,20,22,24,26,28,-1,-1,-1,-1,-1,-1,30,-1,32,34,36,38,40,42,44,-1,46,48,50,52,54,56,58,60,62,64,66,-1,-1,-1,-1,-1,-1,-1,-1,-1,-1,-1,-1,-1,-1,-1,-1,-1,-1,-1,-1,-1,-1,-1,-1,-1],"split_conditions":[-1.3751466E0,-1.609044E0,-4.0734768E-1,3.2996988E-1,1.3275252E-1,-6.263988E-1,-3.796187E-1,-7.9744816E-2,-3.7942713E-1,-3.0382501E-3,3.66437E-1,1.2208068E0,2.956872E-1,4.863636E-1,4.9117827E-1,-1.3274253E-4,-5.859983E-4,1.2184829E-4,9.825615E-4,3.0443074E-5,-1.1060648E-3,-4.306655E-1,2.4296604E-3,5.4275356E-2,-4.1876048E-2,2.3997948E-1,3.1026993E-2,-6.258994E-1,1.0772538E0,1.2466878E-1,1.0040224E-3,-3.9102513E-1,4.2200372E-1,8.666137E-1,3.493113E-1,8.241353E-1,1.7399651E-1,4.498594E-1,-3.2044664E-1,-4.443545E-1,1.8965098E-1,9.004946E-1,4.3429257E-3,-4.3323537E-4,-2.0839009E-3,-6.918648E-4,5.9341354E-4,1.6972743E-3,-1.4680502E-3,-1.1179198E-3,5.720998E-4,3.9984152E-5,1.6340434E-3,-1.2248727E-4,1.6226397E-3,5.3311075E-4,2.5569324E-3,-2.7383474E-4,9.834409E-4,1.1139019E-4,-1.5521484E-3,-1.7599986E-3,9.759625E-4,-8.0049364E-4,-3.6685426E-5,-5.6667355E-5,2.2722096E-3],"split_indices":[2,2,2,19,18,46,53,5,0,0,0,19,40,55,24,0,0,0,0,0,0,2,0,54,6,30,7,18,9,14,0,4,3,18,50,28,42,0,12,49,35,21,0,0,0,0,0,0,0,0,0,0,0,0,0,0,0,0,0,0,0,0,0,0,0,0,0],"split_type":[0,0,0,0,0,0,0,0,0,0,0,0,0,0,0,0,0,0,0,0,0,0,0,0,0,0,0,0,0,0,0,0,0,0,0,0,0,0,0,0,0,0,0,0,0,0,0,0,0,0,0,0,0,0,0,0,0,0,0,0,0,0,0,0,0,0,0],"sum_hessian":[6.57E2,1.8E1,6.39E2,1.1E1,7E0,1.54E2,4.85E2,7E0,4E0,3E0,4E0,2.2E1,1.32E2,1.36E2,3.49E2,3E0,4E0,1E0,3E0,1E0,3E0,2E1,2E0,8.6E1,4.6E1,1.03E2,3.3E1,2.73E2,7.6E1,1.7E1,3E0,5E1,3.6E1,1.8E1,2.8E1,6.9E1,3.4E1,1.7E1,1.6E1,4.5E1,2.28E2,7.4E1,2E0,8E0,9E0,9E0,4.1E1,3.3E1,3E0,1.5E1,3E0,2.2E1,6E0,6.1E1,8E0,1.9E1,1.5E1,1.2E1,5E0,3E0,1.3E1,8E0,3.7E1,1.48E2,8E1,6.7E1,7E0],"tree_param":{"num_deleted":"0","num_feature":"60","num_nodes":"67","size_leaf_vector":"0"}},{"base_weights":[2.2908136E-5,4.6414286E-3,-1.956358E-5,9.899139E-4,5.173749E-3,-1.2199031E-3,1.5015206E-4,-4.7858246E-3,1.908783E-4,2.3911507E-3,8.774095E-6,-5.714353E-3,3.3091505E-3,5.542049E-3,-6.360495E-4,4.6377326E-3,-3.4644196E-3,-3.7518921E-3,1.0134964E-4,-7.790404E-3,-2.0806855E-3,9.7999275E-3,1.0273367E-3,-2.542114E-3,1.2229772E-3,1.2168955E-3,6.4858976E-3,-6.188765E-3,4.9767894E-4,-7.3122485E-3,-1.3570392E-3,2.634328E-3,-4.5765813E-5,-2.7423918E-3,-9.729255E-3,-2.9048622E-3,-3.2424927E-4,1.4241524E-3,-2.7996302E-4,-3.352715E-3,1.5329544E-3,-1.0521952E-3,2.0718973E-3,-3.924171E-4,1.6682758E-3,3.0454881E-3,1.0474212E-2,-8.6158514E-4,1.0528913E-3,1.7618624E-3,-2.4998486E-3,4.3983236E-3,-3.537989E-3,-1.4723019E-3,3.1454896E-4],"categories":[],"categories_nodes":[],"categories_segments":[],"categories_sizes":[],"default_left":[1,1,1,0,0,1,1,1,1,1,1,1,0,1,1,1,1,1,1,1,1,0,1,1,1,1,1,0,1,0,1,1,1,0,0,0,0,0,0,0,0,0,0,0,0,0,0,0,0,0,0,0,0,0,0],"id":84,"left_children":[1,3,5,-1,-1,7,9,11,13,15,17,19,-1,21,23,25,27,29,31,33,35,-1,37,39,41,43,45,-1,47,-1,49,51,53,-1,-1,-1,-1,-1,-1,-1,-1,-1,-1,-1,-1,-1,-1,-1,-1,-1,-1,-1,-1,-1,-1],"loss_changes":[1.2916178E-4,6.541086E-6,1.3320998E-4,0E0,0E0,4.0840305E-4,1.8152136E-4,1.9178726E-4,2.646019E-4,4.633377E-4,1.8837892E-4,1.4220783E-4,0E0,1.4371696E-4,1.8736703E-4,1.5016412E-4,1.1102128E-4,1.0092188E-4,1.9687462E-4,1.00554025E-4,1.2086621E-5,0E0,2.992495E-6,9.1024194E-5,5.4328913E-5,7.91878E-6,1.876438E-4,0E0,4.6805562E-6,0E0,3.648318E-5,3.313115E-4,2.5746413E-4,0E0,0E0,0E0,0E0,0E0,0E0,0E0,0E0,0E0,0E0,0E0,0E0,0E0,0E0,0E0,0E0,0E0,0E0,0E0,0E0,0E0,0E0],"parents":[2147483647,0,0,1,1,2,2,5,5,6,6,7,7,8,8,9,9,10,10,11,11,13,13,14,14,15,15,16,16,17,17,18,18,19,19,20,20,22,22,23,23,24,24,25,25,26,26,28,28,30,30,31,31,32,32],"right_children":[2,4,6,-1,-1,8,10,12,14,16,18,20,-1,22,24,26,28,30,32,34,36,-1,38,40,42,44,46,-1,48,-1,50,52,54,-1,-1,-1,-1,-1,-1,-1,-1,-1,-1,-1,-1,-1,-1,-1,-1,-1,-1,-1,-1,-1,-1],"split_conditions":[-1.6678432E0,-9.111009E-1,-6.902232E-1,2.969742E-4,1.5521247E-3,-4.093808E-1,-5.558363E-1,5.233101E-1,-3.021996E-1,5.1678056E-1,-1.4345737E0,1.89919E-1,9.927452E-4,-4.4191843E-1,1.09736785E-1,-4.135534E-1,1.25142485E-2,2.1282798E-1,-1.1170603E0,-1.1242042E0,1.2927973E-1,2.9399784E-3,4.6564835E-1,5.3792E-1,-5.32701E-1,-4.9398217E-1,-2.841588E-1,-1.8566296E-3,7.5798884E-2,-2.1936747E-3,-3.3018103E-1,3.8186747E-1,-5.147655E-1,-8.2271756E-4,-2.9187766E-3,-8.714587E-4,-9.727479E-5,4.2724574E-4,-8.398891E-5,-1.0058145E-3,4.5988633E-4,-3.1565857E-4,6.215692E-4,-1.1772513E-4,5.0048274E-4,9.136465E-4,3.1422635E-3,-2.5847554E-4,3.158674E-4,5.2855874E-4,-7.499546E-4,1.3194971E-3,-1.0613968E-3,-4.416906E-4,9.4364696E-5],"split_indices":[34,5,12,0,0,35,12,29,35,47,49,45,0,8,48,6,49,51,54,7,36,0,0,20,11,46,21,0,0,0,2,25,58,0,0,0,0,0,0,0,0,0,0,0,0,0,0,0,0,0,0,0,0,0,0],"split_type":[0,0,0,0,0,0,0,0,0,0,0,0,0,0,0,0,0,0,0,0,0,0,0,0,0,0,0,0,0,0,0,0,0,0,0,0,0,0,0,0,0,0,0,0,0,0,0,0,0,0,0,0,0,0,0],"sum_hessian":[6.57E2,5E0,6.52E2,1E0,4E0,8E1,5.72E2,2.2E1,5.8E1,3.3E1,5.39E2,2E1,2E0,7E0,5.1E1,2.4E1,9E0,1.2E1,5.27E2,1.2E1,8E0,3E0,4E0,2.5E1,2.6E1,9E0,1.5E1,5E0,4E0,4E0,8E0,2.8E1,4.99E2,4E0,8E0,5E0,3E0,3E0,1E0,2.1E1,4E0,7E0,1.9E1,2E0,7E0,9E0,6E0,1E0,3E0,2E0,6E0,2.2E1,6E0,1E2,3.99E2],"tree_param":{"num_deleted":"0","num_feature":"60","num_nodes":"55","size_leaf_vector":"0"}},{"base_weights":[1.8025577E-5,3.0968518E-3,-4.8829606E-5,7.0170863E-3,8.2704925E-4,-7.024228E-4,2.7732205E-4,1.604327E-3,-2.7109386E-4,-2.0772571E-4,-5.26259E-3,4.9261046E-3,1.0943463E-4,2.8242916E-4,1.8122208E-3,-6.5837367E-3,-5.284704E-6,-9.244734E-3,-1.5055872E-3,1.3579704E-2,1.6310625E-3,2.1894401E-4,-4.879318E-3,-1.7300341E-3,-1.0860761E-2,-1.0149409E-3,1.1519087E-3,-4.44425E-3,-1.5334398E-2,1.088202E-3,-3.5137513E-3,-1.0361274E-3,3.6842164E-3,8.975744E-4,-5.679909E-4,-7.44308E-3,1.8615462E-4,-2.6493855E-3,-5.4045516E-4,-3.6301576E-3,2.8842597E-4,1.4985293E-3,-9.2840595E-3,1.9109398E-3,-3.7151575E-4,-7.045716E-4,-3.8645193E-3,-1.4443934E-3,5.0260127E-4,1.5007034E-3,4.946675E-3,5.598861E-3,6.7051075E-4,4.175665E-4,-1.9885036E-3,-2.0805746E-3,-8.099467E-3,-1.3379455E-3,1.1401698E-3],"categories":[],"categories_nodes":[],"categories_segments":[],"categories_sizes":[],"default_left":[1,1,1,0,1,1,1,1,0,1,1,1,1,0,0,1,1,1,1,0,1,1,1,1,0,1,1,0,0,1,1,1,1,1,1,1,1,0,0,0,0,0,0,0,0,0,0,0,0,0,0,0,0,0,0,0,0,0,0],"id":85,"left_children":[1,3,5,-1,7,9,11,13,-1,15,17,19,21,-1,-1,23,25,27,29,-1,31,33,35,37,-1,39,41,-1,-1,43,45,47,49,51,53,55,57,-1,-1,-1,-1,-1,-1,-1,-1,-1,-1,-1,-1,-1,-1,-1,-1,-1,-1,-1,-1,-1,-1],"loss_changes":[1.3559096E-4,1.1877074E-4,1.3768977E-4,0E0,8.970545E-6,4.8392566E-4,3.3584438E-4,1.1370612E-6,4.9134667E-7,2.5166458E-4,3.0026067E-4,4.0556028E-4,2.2888178E-4,0E0,0E0,1.0576693E-4,2.2315893E-4,2.2418343E-4,6.632872E-5,0E0,6.953113E-5,2.1893134E-4,1.1826558E-4,2.9426901E-6,0E0,3.487229E-4,3.358541E-4,0E0,0E0,7.915734E-6,4.1747626E-6,4.495217E-6,1.1872675E-5,2.3109403E-4,2.6682974E-4,4.2676984E-6,7.341543E-6,0E0,0E0,0E0,0E0,0E0,0E0,0E0,0E0,0E0,0E0,0E0,0E0,0E0,0E0,0E0,0E0,0E0,0E0,0E0,0E0,0E0,0E0],"parents":[2147483647,0,0,1,1,2,2,4,4,5,5,6,6,7,7,9,9,10,10,11,11,12,12,15,15,16,16,17,17,18,18,20,20,21,21,22,22,23,23,25,25,26,26,29,29,30,30,31,31,32,32,33,33,34,34,35,35,36,36],"right_children":[2,4,6,-1,8,10,12,14,-1,16,18,20,22,-1,-1,24,26,28,30,-1,32,34,36,38,-1,40,42,-1,-1,44,46,48,50,52,54,56,58,-1,-1,-1,-1,-1,-1,-1,-1,-1,-1,-1,-1,-1,-1,-1,-1,-1,-1,-1,-1,-1,-1],"split_conditions":[-1.3315588E0,-4.9964324E-1,-2.8177837E-1,2.105126E-3,3.5096878E-1,-3.293321E-1,-2.3881412E-1,-3.0536422E-1,-8.132816E-5,-1.2026904E0,-5.514718E-2,-1.086694E-1,1.2464424E0,8.472875E-5,5.4366625E-4,1.6877222E-1,6.877278E-2,1.17452E-1,3.2978123E-1,4.0739113E-3,-5.0982162E-2,5.722679E-2,8.149031E-2,-5.1468015E-2,-3.2582283E-3,-1.4729704E-1,1.3159163E0,-1.333275E-3,-4.6003195E-3,8.225788E-2,-4.194851E-1,7.173166E-1,-1.727401E-1,-1.2998133E0,6.1493605E-2,-4.7162318E-1,-3.4512E-1,-7.9481566E-4,-1.6213655E-4,-1.0890473E-3,8.65278E-5,4.495588E-4,-2.785218E-3,5.7328196E-4,-1.1145473E-4,-2.1137149E-4,-1.1593559E-3,-4.3331806E-4,1.5078038E-4,4.5021102E-4,1.4840026E-3,1.6796583E-3,2.0115323E-4,1.2526996E-4,-5.965511E-4,-6.241724E-4,-2.4298402E-3,-4.0138364E-4,3.4205095E-4],"split_indices":[52,5,14,0,29,14,14,0,0,27,49,7,12,0,0,1,44,34,34,0,6,44,6,0,0,1,56,0,0,8,5,5,0,20,18,4,0,0,0,0,0,0,0,0,0,0,0,0,0,0,0,0,0,0,0,0,0,0,0],"split_type":[0,0,0,0,0,0,0,0,0,0,0,0,0,0,0,0,0,0,0,0,0,0,0,0,0,0,0,0,0,0,0,0,0,0,0,0,0,0,0,0,0,0,0,0,0,0,0,0,0,0,0,0,0,0,0,0,0,0,0],"sum_hessian":[6.57E2,1.3E1,6.44E2,4E0,9E0,2.14E2,4.3E2,5E0,4E0,1.94E2,2E1,1.4E1,4.16E2,1E0,4E0,5E0,1.89E2,9E0,1.1E1,3E0,1.1E1,4.08E2,8E0,3E0,2E0,1.01E2,8.8E1,6E0,3E0,5E0,6E0,5E0,6E0,2.19E2,1.89E2,5E0,3E0,1E0,2E0,3.3E1,6.8E1,8.6E1,2E0,3E0,2E0,1E0,5E0,4E0,1E0,3E0,3E0,9E0,2.1E2,1.12E2,7.7E1,1E0,4E0,1E0,2E0],"tree_param":{"num_deleted":"0","num_feature":"60","num_nodes":"59","size_leaf_vector":"0"}},{"base_weights":[8.79804E-7,2.3757985E-3,-8.114389E-5,1.6754636E-4,5.008946E-3,-2.5273778E-3,6.353339E-6,1.3988928E-3,-2.0823865E-3,9.212176E-3,2.806617E-3,4.967302E-5,-8.056725E-3,-9.8900564E-5,1.868836E-3,3.9105365E-4,2.5609285E-3,-2.4512634E-3,-3.034398E-4,3.3388536E-3,8.066048E-4,-2.234796E-3,2.074793E-3,-9.804617E-3,1.2153089E-3,-2.6851502E-4,1.2834123E-3,4.4407086E-3,5.5755617E-4,-3.2943324E-3,-3.5167672E-4,-8.98771E-4,3.71137E-3,-1.1342523E-4,-2.803037E-3,2.479217E-3,-1.9102672E-3,1.9651651E-4,6.007716E-3,-1.3139204E-3,1.8544997E-3,4.8573315E-4,-7.927244E-4,1.4378875E-4,-1.2942204E-3,-1.7078927E-4,6.927684E-3,-5.0512194E-3,1.2711565E-4,2.9748073E-3,-2.2787035E-3,-1.0157563E-4,-4.737986E-3,-5.185753E-4,6.077389E-4,7.2282553E-3,2.980113E-3,-2.495572E-4,-2.328372E-3,-4.1011572E-4,2.8013573E-3],"categories":[],"categories_nodes":[],"categories_segments":[],"categories_sizes":[],"default_left":[1,1,1,1,1,1,1,1,1,0,1,1,1,1,1,0,0,0,0,0,0,1,1,0,0,1,1,1,1,0,1,1,0,1,1,1,1,1,1,1,1,0,0,0,0,0,0,0,0,0,0,0,0,0,0,0,0,0,0,0,0],"id":86,"left_children":[1,3,5,7,9,11,13,15,17,-1,19,21,23,25,27,-1,-1,-1,-1,-1,-1,29,31,-1,-1,33,35,37,39,-1,41,43,-1,45,47,49,51,53,55,57,59,-1,-1,-1,-1,-1,-1,-1,-1,-1,-1,-1,-1,-1,-1,-1,-1,-1,-1,-1,-1],"loss_changes":[1.283709E-4,1.2708319E-4,1.3635869E-4,3.8928847E-5,6.6713896E-5,3.1388723E-4,1.20941506E-4,9.538844E-6,2.53725E-6,0E0,5.8227015E-6,7.865792E-5,1.253612E-4,1.372694E-4,1.08814726E-4,3.9993557E-7,0E0,0E0,0E0,0E0,0E0,1.4803329E-5,4.7133875E-5,8.161296E-7,0E0,2.0447595E-4,2.4915306E-4,7.197689E-5,5.826225E-5,0E0,1.8624032E-6,1.8352137E-6,0E0,1.9990513E-4,1.9826762E-4,1.1760375E-4,9.157922E-5,1.4914054E-6,8.021452E-6,1.0216387E-5,3.1168645E-5,0E0,0E0,0E0,0E0,0E0,0E0,0E0,0E0,0E0,0E0,0E0,0E0,0E0,0E0,0E0,0E0,0E0,0E0,0E0,0E0],"parents":[2147483647,0,0,1,1,2,2,3,3,4,4,5,5,6,6,7,7,8,8,10,10,11,11,12,12,13,13,14,14,21,21,22,22,25,25,26,26,27,27,28,28,30,30,31,31,33,33,34,34,35,35,36,36,37,37,38,38,39,39,40,40],"right_children":[2,4,6,8,10,12,14,16,18,-1,20,22,24,26,28,-1,-1,-1,-1,-1,-1,30,32,-1,-1,34,36,38,40,-1,42,44,-1,46,48,50,52,54,56,58,60,-1,-1,-1,-1,-1,-1,-1,-1,-1,-1,-1,-1,-1,-1,-1,-1,-1,-1,-1,-1],"split_conditions":[-1.2696981E0,1.1666301E-1,-1.064326E0,-1.8500406E-1,-3.2105497E-1,2.4231976E-1,1.090332E0,-3.5273105E-1,7.039275E-1,2.763653E-3,4.022267E-1,-2.3463672E-1,3.811396E-1,8.640013E-1,1.2336481E0,1.173161E-4,7.6827855E-4,-7.3537906E-4,-9.103194E-5,1.0016562E-3,2.4198146E-4,3.1397948E-1,-3.29585E-1,-2.9413851E-3,3.6459268E-4,6.1569166E-1,3.761952E-1,5.262398E-2,-2.2141427E-1,-9.882997E-4,-1.9080478E-1,-1.7041761E0,1.113411E-3,5.9135866E-1,1.2370114E-2,9.88994E-1,8.139592E-3,-1.5390666E-1,9.874493E-1,2.7317226E-1,-7.616146E-2,1.4571995E-4,-2.3781732E-4,4.3136628E-5,-3.8826614E-4,-5.123678E-5,2.0783052E-3,-1.5153659E-3,3.8134698E-5,8.9244224E-4,-6.836111E-4,-3.047269E-5,-1.4213958E-3,-1.555726E-4,1.8232167E-4,2.1684766E-3,8.9403393E-4,-7.486716E-5,-6.9851166E-4,-1.2303473E-4,8.404072E-4],"split_indices":[38,58,38,34,11,43,7,48,5,0,50,42,1,51,7,0,0,0,0,0,0,35,0,0,0,51,42,46,52,0,1,0,0,51,30,9,30,1,22,8,56,0,0,0,0,0,0,0,0,0,0,0,0,0,0,0,0,0,0,0,0],"split_type":[0,0,0,0,0,0,0,0,0,0,0,0,0,0,0,0,0,0,0,0,0,0,0,0,0,0,0,0,0,0,0,0,0,0,0,0,0,0,0,0,0,0,0,0,0,0,0,0,0,0,0,0,0,0,0,0,0,0,0,0,0],"sum_hessian":[6.57E2,2.1E1,6.36E2,1.2E1,9E0,2.1E1,6.15E2,8E0,4E0,2E0,7E0,1.5E1,6E0,5.83E2,3.2E1,5E0,3E0,3E0,1E0,5E0,2E0,7E0,8E0,5E0,1E0,5.2E2,6.3E1,1E1,2.2E1,4E0,3E0,3E0,5E0,4.91E2,2.9E1,4.6E1,1.7E1,3E0,7E0,9E0,1.3E1,1E0,2E0,1E0,2E0,4.88E2,3E0,1.6E1,1.3E1,4.2E1,4E0,1.1E1,6E0,1E0,2E0,4E0,3E0,5E0,4E0,4E0,9E0],"tree_param":{"num_deleted":"0","num_feature":"60","num_nodes":"61","size_leaf_vector":"0"}},{"base_weights":[5.9676627E-6,5.456882E-4,-3.0117325E-4,1.1398646E-3,-4.506689E-4,-4.3043606E-3,-1.42279E-4,2.0103208E-3,-2.3677686E-4,-5.6027826E-3,5.135012E-5,1.8552939E-3,-7.2728666E-3,-1.1532264E-3,4.259541E-4,2.519339E-3,-1.2767396E-3,-1.1891376E-3,2.6360904E-3,-7.322341E-3,-2.9607117E-4,-1.974953E-3,6.4286415E-4,2.450937E-3,-5.6146085E-4,-6.8167364E-4,-9.659355E-3,-7.3314235E-3,-8.821455E-4,7.645096E-4,-3.2713518E-3,-6.4269156E-4,3.1998106E-3,4.0578205E-4,-2.77687E-3,7.726392E-4,-2.29814E-3,3.6773086E-4,4.107471E-3,-2.649481E-4,-4.8685404E-3,-4.2151616E-4,1.8238463E-3,-1.3037814E-3,5.923249E-4,-5.466814E-3,-1.2485191E-2,-2.0788945E-3,-1.1890988E-2,-1.4756877E-4,-3.0205618E-3,1.8511856E-3,-4.2330785E-4,-7.1080746E-3,-6.838415E-5,-3.052324E-3,1.8472774E-3,1.2829743E-3,4.41368E-3,-1.4817417E-3,9.673263E-4,-9.3359995E-4,-3.327458E-3,3.911639E-3,9.3329945E-5,-4.2483222E-4,-4.9165897E-3,-4.452467E-4,1.6001165E-3,1.9014155E-3,5.4920325E-3,-1.4494546E-3,1.3585519E-3,-6.653032E-3,-2.715414E-4,9.1408374E-4,-1.8894504E-3,3.8054385E-4,3.337999E-3,5.464554E-4,-3.1361629E-3,-1.0387365E-3,2.2544537E-3,-5.1419046E-3,-8.5189124E-4,1.326034E-3,6.2735667E-3,-6.005216E-3,1.6549499E-4,-1.8131792E-3,-1.0335808E-2,-3.5192668E-3,8.789824E-4],"categories":[],"categories_nodes":[],"categories_segments":[],"categories_sizes":[],"default_left":[1,1,1,1,1,1,1,1,1,1,1,1,1,1,1,1,1,1,1,0,0,1,1,0,0,1,1,1,1,1,1,1,1,1,1,1,1,1,1,1,1,1,1,0,0,0,0,1,0,1,1,1,1,1,1,0,0,0,0,0,0,0,0,0,0,0,0,0,0,0,0,0,0,0,0,0,0,0,0,0,0,0,0,0,0,0,0,0,0,0,0,0,0],"id":87,"left_children":[1,3,5,7,9,11,13,15,17,19,21,23,25,27,29,31,33,35,37,-1,-1,39,41,-1,-1,43,45,47,49,51,53,55,57,59,61,63,65,67,69,71,73,75,77,-1,-1,-1,-1,79,-1,81,83,85,87,89,91,-1,-1,-1,-1,-1,-1,-1,-1,-1,-1,-1,-1,-1,-1,-1,-1,-1,-1,-1,-1,-1,-1,-1,-1,-1,-1,-1,-1,-1,-1,-1,-1,-1,-1,-1,-1,-1,-1],"loss_changes":[1.0924118E-4,1.4200452E-4,2.665426E-4,1.8022193E-4,2.3306903E-4,3.0605288E-4,2.3314498E-4,1.5714855E-4,1.6455901E-4,7.083369E-5,1.0075232E-4,1.0013246E-5,1.664433E-4,2.3805216E-4,3.2795424E-4,1.7419027E-4,3.3938828E-5,9.9678306E-5,4.8553877E-5,0E0,0E0,9.2723014E-5,8.247469E-5,0E0,0E0,3.94252E-6,2.6525231E-5,1.1897535E-4,2.210414E-4,3.0927832E-4,2.6986963E-4,9.563714E-5,1.4790538E-4,8.852824E-6,3.997662E-6,3.5884907E-5,1.4016096E-4,7.725759E-6,1.7047132E-5,2.696876E-5,5.561656E-5,7.034716E-5,6.647655E-5,2.2470749E-7,0E0,0E0,0E0,1.2816572E-5,0E0,2.2924592E-4,1.6123746E-4,2.819836E-4,3.7895783E-4,1.5216443E-4,4.5593635E-5,0E0,0E0,0E0,0E0,0E0,0E0,0E0,0E0,0E0,0E0,0E0,0E0,0E0,0E0,0E0,0E0,0E0,0E0,0E0,0E0,0E0,0E0,0E0,0E0,0E0,0E0,0E0,0E0,0E0,0E0,0E0,0E0,0E0,0E0,0E0,0E0,0E0,0E0],"parents":[2147483647,0,0,1,1,2,2,3,3,4,4,5,5,6,6,7,7,8,8,9,9,10,10,11,11,12,12,13,13,14,14,15,15,16,16,17,17,18,18,21,21,22,22,25,25,26,26,27,27,28,28,29,29,30,30,31,31,32,32,33,33,34,34,35,35,36,36,37,37,38,38,39,39,40,40,41,41,42,42,47,47,49,49,50,50,51,51,52,52,53,53,54,54],"right_children":[2,4,6,8,10,12,14,16,18,20,22,24,26,28,30,32,34,36,38,-1,-1,40,42,-1,-1,44,46,48,50,52,54,56,58,60,62,64,66,68,70,72,74,76,78,-1,-1,-1,-1,80,-1,82,84,86,88,90,92,-1,-1,-1,-1,-1,-1,-1,-1,-1,-1,-1,-1,-1,-1,-1,-1,-1,-1,-1,-1,-1,-1,-1,-1,-1,-1,-1,-1,-1,-1,-1,-1,-1,-1,-1,-1,-1,-1],"split_conditions":[-2.1340498E-1,2.2045031E-1,-1.6939053E-1,3.2338095E-1,-8.804912E-1,-2.1908149E-1,-2.2149158E-1,7.045231E-1,5.220169E-1,3.5337377E-1,-5.739273E-1,7.7553415E-1,4.7857545E-2,-1.0414191E0,7.5022924E-1,-6.3274574E-1,-5.273987E-1,-1.5858746E-1,-6.5007806E-1,-2.1967024E-3,-8.8821354E-5,2.9805726E-1,-9.826167E-2,7.352811E-4,-1.6843826E-4,9.7889686E-1,1.3093156E-1,5.428938E-2,3.6388057E-1,-6.0052343E-2,-3.018038E-1,-1.379691E-2,-2.1924612E-1,-2.516601E-1,-5.822435E-1,-9.2280287E-1,-4.70586E-1,2.104076E-2,-1.5114272E-1,-3.3930874E-1,-4.0750864E-1,1.738815E-2,1.23355E-1,-3.9113444E-4,1.7769747E-4,-1.6400443E-3,-3.7455575E-3,-9.5549655E-1,-3.5672965E-3,8.299751E-2,6.983273E-2,-1.159109E-1,1.22129945E-2,-3.370965E-1,-4.1095355E-1,-9.1569725E-4,5.5418327E-4,3.848923E-4,1.3241041E-3,-4.445225E-4,2.901979E-4,-2.8007998E-4,-9.982374E-4,1.1734918E-3,2.7998985E-5,-1.2744968E-4,-1.474977E-3,-1.3357401E-4,4.8003497E-4,5.7042466E-4,1.6476099E-3,-4.348364E-4,4.075656E-4,-1.9959097E-3,-8.146242E-5,2.7422514E-4,-5.668351E-4,1.1416316E-4,1.0013998E-3,1.6393662E-4,-9.408489E-4,-3.1162097E-4,6.763361E-4,-1.5425715E-3,-2.5556737E-4,3.9781022E-4,1.8820701E-3,-1.8015648E-3,4.9648497E-5,-5.439538E-4,-3.1007424E-3,-1.0557801E-3,2.6369473E-4],"split_indices":[20,25,20,23,19,44,48,49,29,9,11,0,24,36,7,38,29,51,16,0,0,28,39,0,0,2,17,1,4,3,49,35,22,5,16,14,20,14,22,44,6,58,41,0,0,0,0,1,0,4,1,3,3,5,36,0,0,0,0,0,0,0,0,0,0,0,0,0,0,0,0,0,0,0,0,0,0,0,0,0,0,0,0,0,0,0,0,0,0,0,0,0,0],"split_type":[0,0,0,0,0,0,0,0,0,0,0,0,0,0,0,0,0,0,0,0,0,0,0,0,0,0,0,0,0,0,0,0,0,0,0,0,0,0,0,0,0,0,0,0,0,0,0,0,0,0,0,0,0,0,0,0,0,0,0,0,0,0,0,0,0,0,0,0,0,0,0,0,0,0,0,0,0,0,0,0,0,0,0,0,0,0,0,0,0,0,0,0,0],"sum_hessian":[6.57E2,2.38E2,4.19E2,1.49E2,8.9E1,1.5E1,4.04E2,9.1E1,5.8E1,7E0,8.2E1,5E0,1E1,1.45E2,2.59E2,7.9E1,1.2E1,4.4E1,1.4E1,5E0,2E0,1.8E1,6.4E1,4E0,1E0,3E0,7E0,5E0,1.4E2,2.38E2,2.1E1,1.4E1,6.5E1,6E0,6E0,1.6E1,2.8E1,6E0,8E0,1.2E1,6E0,3.4E1,3E1,2E0,1E0,4E0,3E0,3E0,2E0,1.05E2,3.5E1,1.24E2,1.14E2,9E0,1.2E1,7E0,7E0,2.6E1,3.9E1,1E0,5E0,2E0,4E0,2E0,1.4E1,1.7E1,1.1E1,4E0,2E0,4E0,4E0,7E0,5E0,4E0,2E0,1.8E1,1.6E1,1.6E1,1.4E1,1E0,2E0,7.7E1,2.8E1,1.7E1,1.8E1,1.12E2,1.2E1,1E1,1.04E2,4E0,5E0,2E0,1E1],"tree_param":{"num_deleted":"0","num_feature":"60","num_nodes":"93","size_leaf_vector":"0"}},{"base_weights":[-2.0453332E-5,7.429242E-3,-4.3100117E-5,5.395804E-4,-3.1997272E-4,1.6638376E-3,-3.530225E-4,-3.795302E-4,5.0089033E-3,2.6687789E-3,-8.0026605E-4,-4.873272E-3,-2.6995565E-5,2.1823815E-3,-4.997635E-4,3.7293367E-3,1.6806487E-4,4.289329E-3,-1.5825906E-3,3.4928918E-3,-8.244142E-3,-7.196943E-3,1.6879386E-4,-2.0322272E-4,4.5883083E-3,-8.157079E-3,-4.4401127E-4,5.1123914E-3,7.301431E-4,1.5751688E-3,-1.5372664E-3,5.066308E-4,-3.2603096E-3,-3.3807084E-3,-1.1980672E-2,2.2667435E-3,-3.2260315E-4,1.2447825E-3,-3.0484274E-3,7.1267663E-3,1.7082081E-3,-6.179532E-4,1.6897812E-3],"categories":[],"categories_nodes":[],"categories_segments":[],"categories_sizes":[],"default_left":[1,0,1,1,1,1,1,1,0,1,1,1,1,1,1,1,1,0,1,0,1,0,1,1,1,0,1,0,0,0,0,0,0,0,0,0,0,0,0,0,0,0,0],"id":88,"left_children":[1,-1,3,5,7,9,11,13,-1,15,17,19,21,23,25,27,29,-1,31,-1,33,-1,35,37,39,-1,41,-1,-1,-1,-1,-1,-1,-1,-1,-1,-1,-1,-1,-1,-1,-1,-1],"loss_changes":[1.1133247E-4,0E0,1.0616533E-4,2.1333259E-4,1.4345003E-4,2.3490601E-4,1.752415E-4,1.372387E-4,0E0,1.7706736E-4,1.1827628E-4,2.544059E-4,1.584404E-4,1.1572423E-4,1.7696228E-4,1.9122555E-4,5.28126E-5,0E0,8.927994E-5,0E0,6.853108E-5,7.248309E-7,1.1413313E-4,4.9113212E-5,6.093613E-5,0E0,1.5730086E-4,0E0,0E0,0E0,0E0,0E0,0E0,0E0,0E0,0E0,0E0,0E0,0E0,0E0,0E0,0E0,0E0],"parents":[2147483647,0,0,2,2,3,3,4,4,5,5,6,6,7,7,9,9,10,10,11,11,12,12,13,13,14,14,15,15,16,16,18,18,20,20,22,22,23,23,24,24,26,26],"right_children":[2,-1,4,6,8,10,12,14,-1,16,18,20,22,24,26,28,30,-1,32,-1,34,-1,36,38,40,-1,42,-1,-1,-1,-1,-1,-1,-1,-1,-1,-1,-1,-1,-1,-1,-1,-1],"split_conditions":[-2.8997092E0,2.2287727E-3,-2.837157E-1,-1.0437181E-1,1.6872079E0,3.1217492E-1,-5.9380792E-2,-1.1505828E0,1.502671E-3,3.1801653E-1,-1.35914E0,-1.8043487E-1,-1.30071E0,1.00737825E-1,-1.5883646E0,1.7700957E-1,-1.0901724E-1,1.2867987E-3,2.691344E-1,1.0478676E-3,1.7377847E-1,-2.159083E-3,-5.345403E-1,5.1605217E-2,-3.3083332E-1,-2.4471239E-3,9.633618E-1,1.5337175E-3,2.1904294E-4,4.7255066E-4,-4.6117994E-4,1.5198925E-4,-9.780929E-4,-1.0142126E-3,-3.5942018E-3,6.8002305E-4,-9.6780954E-5,3.7343477E-4,-9.1452827E-4,2.13803E-3,5.1246246E-4,-1.8538597E-4,5.0693436E-4],"split_indices":[35,0,27,35,18,43,35,54,0,51,31,2,4,22,40,37,54,0,9,0,1,0,0,5,49,0,9,0,0,0,0,0,0,0,0,0,0,0,0,0,0,0,0],"split_type":[0,0,0,0,0,0,0,0,0,0,0,0,0,0,0,0,0,0,0,0,0,0,0,0,0,0,0,0,0,0,0,0,0,0,0,0,0,0,0,0,0,0,0],"sum_hessian":[6.57E2,1E0,6.56E2,2.11E2,4.45E2,9.3E1,1.18E2,4.41E2,4E0,6.6E1,2.7E1,7E0,1.11E2,1.9E1,4.22E2,4.6E1,2E1,3E0,2.4E1,2E0,5E0,2E0,1.09E2,1E1,9E0,2E0,4.2E2,3.1E1,1.5E1,1.1E1,9E0,1.1E1,1.3E1,3E0,2E0,2E1,8.9E1,7E0,3E0,4E0,5E0,3.89E2,3.1E1],"tree_param":{"num_deleted":"0","num_feature":"60","num_nodes":"43","size_leaf_vector":"0"}},{"base_weights":[-1.3096649E-5,2.7995259E-3,-6.5242515E-5,6.4553693E-4,5.686003E-3,-1.6148238E-3,4.2261872E-5,-7.9298764E-4,1.6672492E-3,1.5914108E-3,-2.6665037E-3,7.821202E-3,3.5547803E-6,5.1443875E-3,2.3026185E-4,-4.8150748E-4,-4.1361586E-3,-2.3673598E-3,8.042137E-5,1.2990385E-3,-5.206329E-4,2.1044076E-3,-1.7263142E-3,-5.122804E-3,-3.4899116E-4,-3.9187847E-3,-5.791987E-4,5.763161E-3,3.14624E-5,-1.0682953E-3,2.0272098E-5,2.6107654E-3,3.9488077E-5,-2.1952707E-3,1.2471471E-3,-3.1604904E-3,-6.9139493E-3,3.4606457E-4,-9.277165E-4,-1.4546275E-3,-5.3191185E-3,-1.8360664E-3,5.647242E-4,3.645384E-3,-3.8091097E-5],"categories":[],"categories_nodes":[],"categories_segments":[],"categories_sizes":[],"default_left":[1,1,1,1,0,1,1,0,0,1,1,0,1,0,1,1,1,1,1,0,1,1,1,1,1,1,1,0,1,0,0,0,0,0,0,0,0,0,0,0,0,0,0,0,0],"id":89,"left_children":[1,3,5,7,-1,9,11,-1,-1,13,15,-1,17,-1,19,21,23,25,27,-1,29,31,33,35,37,39,41,-1,43,-1,-1,-1,-1,-1,-1,-1,-1,-1,-1,-1,-1,-1,-1,-1,-1],"loss_changes":[9.6689284E-5,7.093875E-5,1.078499E-4,1.3080173E-5,4.4926128E-7,1.4586467E-4,1.8243889E-4,3.209957E-7,4.3138334E-7,5.201288E-5,1.0076651E-4,0E0,1.1026583E-4,0E0,7.899172E-6,4.8698374E-5,6.9207395E-5,5.044001E-5,1.6285623E-4,0E0,1.7990565E-6,5.124846E-6,1.6682065E-5,3.0870375E-5,2.3322814E-6,2.6769092E-5,1.5414469E-5,7.227791E-7,1.464309E-4,0E0,0E0,0E0,0E0,0E0,0E0,0E0,0E0,0E0,0E0,0E0,0E0,0E0,0E0,0E0,0E0],"parents":[2147483647,0,0,1,1,2,2,3,3,5,5,6,6,9,9,10,10,12,12,14,14,15,15,16,16,17,17,18,18,20,20,21,21,22,22,23,23,24,24,25,25,26,26,28,28],"right_children":[2,4,6,8,-1,10,12,-1,-1,14,16,-1,18,-1,20,22,24,26,28,-1,30,32,34,36,38,40,42,-1,44,-1,-1,-1,-1,-1,-1,-1,-1,-1,-1,-1,-1,-1,-1,-1,-1],"split_conditions":[-1.4085875E0,3.317617E-1,-1.0952996E0,2.472113E-2,1.7058009E-3,-5.6237423E-1,-1.0635519E0,-2.378963E-4,5.001748E-4,-4.1130102E-1,-9.26324E-2,2.3463608E-3,-1.3252782E0,1.5433163E-3,-3.340493E-1,-2.4105287E-1,6.700078E-1,2.4023764E-1,-1.222347E0,3.8971158E-4,-4.6552232E-1,2.8722554E-1,6.6162413E-1,9.145335E-2,1.5537839E-1,-4.2924523E-1,-5.4080033E-1,1.7289483E-3,-1.4720726E0,-3.2048862E-4,6.0816296E-6,7.8322965E-4,1.1846424E-5,-6.5858127E-4,3.7414415E-4,-9.4814715E-4,-2.0741848E-3,1.0381937E-4,-2.7831495E-4,-4.3638828E-4,-1.5957357E-3,-5.508199E-4,1.6941727E-4,1.0936152E-3,-1.142733E-5],"split_indices":[0,20,7,9,0,28,7,0,0,34,45,0,28,0,0,46,54,21,28,0,5,0,9,42,1,21,0,0,23,0,0,0,0,0,0,0,0,0,0,0,0,0,0,0,0],"split_type":[0,0,0,0,0,0,0,0,0,0,0,0,0,0,0,0,0,0,0,0,0,0,0,0,0,0,0,0,0,0,0,0,0,0,0,0,0,0,0,0,0,0,0,0,0],"sum_hessian":[6.57E2,1.1E1,6.46E2,7E0,4E0,4.1E1,6.05E2,3E0,4E0,1E1,3.1E1,2E0,6.03E2,2E0,8E0,1.3E1,1.8E1,1.8E1,5.85E2,3E0,5E0,4E0,9E0,1.4E1,4E0,9E0,9E0,4E0,5.81E2,2E0,3E0,3E0,1E0,8E0,1E0,8E0,6E0,2E0,2E0,4E0,5E0,4E0,5E0,1E1,5.71E2],"tree_param":{"num_deleted":"0","num_feature":"60","num_nodes":"45","size_leaf_vector":"0"}},{"base_weights":[-3.625169E-6,-2.6571464E-3,4.5595665E-5,3.1263975E-4,-4.823085E-3,-3.8991566E-3,7.619934E-5,1.3608505E-3,-5.5167824E-4,-2.3843497E-3,-6.056049E-3,6.4652506E-4,-5.1972084E-3,5.102607E-3,5.2555937E-5,-8.533399E-6,-1.0905564E-3,2.8440356E-4,7.369507E-3,4.3644197E-3,2.5439935E-5,7.0335966E-4,7.6738E-3,3.877876E-4,-3.0345298E-4,1.8855644E-4,3.5428735E-3,-1.141051E-3,4.2715303E-5],"categories":[],"categories_nodes":[],"categories_segments":[],"categories_sizes":[],"default_left":[1,1,1,1,1,1,1,0,1,0,0,0,0,1,1,0,0,0,0,1,1,0,0,1,1,0,0,0,0],"id":90,"left_children":[1,3,5,7,9,11,13,-1,15,-1,-1,-1,-1,17,19,-1,-1,-1,-1,21,23,-1,-1,25,27,-1,-1,-1,-1],"loss_changes":[8.606157E-5,7.869638E-5,7.84055E-5,6.186676E-6,6.6083594E-6,3.2862772E-5,7.614685E-5,0E0,1.1614495E-6,0E0,0E0,0E0,0E0,3.0671246E-5,7.483502E-5,2.9469316E-8,0E0,0E0,0E0,4.306592E-5,7.6150405E-5,0E0,0E0,1.9042374E-4,9.718194E-5,0E0,0E0,0E0,0E0],"parents":[2147483647,0,0,1,1,2,2,3,3,4,4,5,5,6,6,8,8,13,13,14,14,19,19,20,20,23,23,24,24],"right_children":[2,4,6,8,10,12,14,-1,16,-1,-1,-1,-1,18,20,-1,-1,-1,-1,22,24,-1,-1,26,28,-1,-1,-1,-1],"split_conditions":[-1.3748368E0,-9.776796E-2,-1.7417786E0,-2.099835E-1,-2.1067368E-2,-5.376273E-1,-2.2761357E0,4.0825517E-4,7.77033E-1,-7.153049E-4,-1.8168148E-3,1.9395753E-4,-1.5591626E-3,1.4717262E-2,-2.2519822E0,-2.5600198E-6,-3.2716693E-4,8.532107E-5,2.2108522E-3,-6.616899E-2,-2.3998689E-2,2.1100791E-4,2.30214E-3,-5.0674997E-2,2.4187608E-1,5.6566936E-5,1.0628621E-3,-3.423153E-4,1.2814591E-5],"split_indices":[45,20,50,2,10,1,30,0,1,0,0,0,0,0,22,0,0,0,0,0,45,0,0,45,45,0,0,0,0],"split_type":[0,0,0,0,0,0,0,0,0,0,0,0,0,0,0,0,0,0,0,0,0,0,0,0,0,0,0,0,0],"sum_hessian":[6.57E2,1.1E1,6.46E2,5E0,6E0,4E0,6.42E2,2E0,3E0,3E0,3E0,1E0,3E0,2E0,6.4E2,2E0,1E0,1E0,1E0,3E0,6.37E2,2E0,1E0,3.03E2,3.34E2,2.86E2,1.7E1,9.7E1,2.37E2],"tree_param":{"num_deleted":"0","num_feature":"60","num_nodes":"29","size_leaf_vector":"0"}},{"base_weights":[1.6880912E-7,-2.6735079E-5,4.405638E-3,4.084718E-4,-2.9638986E-4,-2.9916284E-4,1.9247803E-3,-5.7728315E-4,1.2971277E-3,5.9280987E-4,-1.2406677E-3,6.136985E-3,1.2353656E-3,2.6777722E-3,-7.965237E-4,-5.609245E-4,2.7891374E-3,1.4519364E-4,4.1144583E-3,-1.8076727E-3,2.3120015E-3,9.011782E-3,8.848727E-4,7.6521735E-4,7.19425E-3,6.593111E-3,1.4414128E-3,-8.479356E-4,7.904768E-3,1.0970668E-3,-3.223008E-3,-5.842736E-4,3.6853652E-3,1.2127017E-3,-1.6744098E-3,5.772974E-3,1.8344214E-4,-6.011618E-3,-1.4101529E-3,5.7503954E-3,-1.259949E-4,1.0896638E-2,4.87398E-3,2.1555822E-3,-6.807943E-4,3.150908E-3,6.2321604E-5,2.4841316E-3,9.506285E-3,8.6960895E-3,2.2924293E-3,2.6752239E-3,-4.3525384E-4,-1.0899255E-3,7.9704256E-4,4.5166686E-3,1.120352E-4,-5.3064275E-4,-3.762351E-3,1.6163588E-3,-1.5872108E-3,4.5383195E-3,-9.752974E-4],"categories":[],"categories_nodes":[],"categories_segments":[],"categories_sizes":[],"default_left":[1,1,0,1,1,1,1,1,1,1,1,1,1,1,1,1,1,1,1,1,1,1,1,1,1,1,1,1,0,1,1,1,1,0,0,0,0,0,0,0,0,0,0,0,0,0,0,0,0,0,0,0,0,0,0,0,0,0,0,0,0,0,0],"id":91,"left_children":[1,3,-1,5,7,9,11,13,15,17,19,21,23,25,27,29,31,33,35,37,39,41,43,45,47,49,51,53,-1,55,57,59,61,-1,-1,-1,-1,-1,-1,-1,-1,-1,-1,-1,-1,-1,-1,-1,-1,-1,-1,-1,-1,-1,-1,-1,-1,-1,-1,-1,-1,-1,-1],"loss_changes":[7.810674E-5,7.6988996E-5,4.7890353E-8,2.698969E-4,1.820302E-4,1.451805E-4,2.2473506E-4,2.4833874E-4,1.7067065E-4,1.3969748E-4,1.7338734E-4,1.5811203E-4,1.9060398E-4,9.699345E-5,1.5164424E-4,1.2711977E-4,1.04947016E-4,1.5742586E-4,6.413751E-5,1.13516726E-4,1.0131802E-4,1.4841207E-6,1.1415046E-5,1.1047849E-4,3.0834955E-5,2.5286019E-5,4.2842537E-5,1.2944473E-4,0E0,6.012546E-5,1.3976729E-5,2.0222273E-5,1.11760164E-4,0E0,0E0,0E0,0E0,0E0,0E0,0E0,0E0,0E0,0E0,0E0,0E0,0E0,0E0,0E0,0E0,0E0,0E0,0E0,0E0,0E0,0E0,0E0,0E0,0E0,0E0,0E0,0E0,0E0,0E0],"parents":[2147483647,0,0,1,1,3,3,4,4,5,5,6,6,7,7,8,8,9,9,10,10,11,11,12,12,13,13,14,14,15,15,16,16,17,17,18,18,19,19,20,20,21,21,22,22,23,23,24,24,25,25,26,26,27,27,29,29,30,30,31,31,32,32],"right_children":[2,4,-1,6,8,10,12,14,16,18,20,22,24,26,28,30,32,34,36,38,40,42,44,46,48,50,52,54,-1,56,58,60,62,-1,-1,-1,-1,-1,-1,-1,-1,-1,-1,-1,-1,-1,-1,-1,-1,-1,-1,-1,-1,-1,-1,-1,-1,-1,-1,-1,-1,-1,-1],"split_conditions":[1.8619573E0,-2.1647966E-1,1.3216916E-3,2.8500068E-1,5.6226796E-1,8.490802E-2,3.416781E-1,-9.5721954E-1,-5.4362953E-2,-2.5202996E-1,4.838122E-1,-1.0976305E-1,8.8952756E-1,-4.0946776E-1,1.9004519E0,1.4214125E-1,-3.97776E-1,3.7234753E-1,1.0311128E-1,-1.0483216E0,8.6035883E-1,7.930214E-2,3.1584537E-1,-4.338475E-1,-1.647695E-1,-6.125643E-1,2.9962415E-1,7.798588E-1,2.3714304E-3,-2.6848763E-1,-4.7949827E-1,-5.255522E-1,4.2502165E-1,3.638105E-4,-5.02323E-4,1.7318922E-3,5.5032644E-5,-1.8034854E-3,-4.230459E-4,1.7251187E-3,-3.7798472E-5,3.2689916E-3,1.462194E-3,6.4667466E-4,-2.042383E-4,9.4527245E-4,1.8696483E-5,7.452395E-4,2.8518857E-3,2.6088268E-3,6.877288E-4,8.0256717E-4,-1.3057615E-4,-3.2697766E-4,2.3911278E-4,1.3550007E-3,3.3610562E-5,-1.5919283E-4,-1.1287053E-3,4.8490765E-4,-4.7616326E-4,1.3614959E-3,-2.9258925E-4],"split_indices":[57,41,0,0,46,1,0,6,3,41,11,55,16,46,24,32,51,15,58,42,11,2,0,47,2,1,59,48,0,27,22,5,38,0,0,0,0,0,0,0,0,0,0,0,0,0,0,0,0,0,0,0,0,0,0,0,0,0,0,0,0,0,0],"split_type":[0,0,0,0,0,0,0,0,0,0,0,0,0,0,0,0,0,0,0,0,0,0,0,0,0,0,0,0,0,0,0,0,0,0,0,0,0,0,0,0,0,0,0,0,0,0,0,0,0,0,0,0,0,0,0,0,0,0,0,0,0,0,0],"sum_hessian":[6.57E2,6.54E2,3E0,2.5E2,4.04E2,1.71E2,7.9E1,3.44E2,6E1,8.8E1,8.3E1,1E1,6.9E1,2.1E1,3.23E2,2.7E1,3.3E1,7.9E1,9E0,7.2E1,1.1E1,6E0,4E0,6.5E1,4E0,4E0,1.7E1,3.22E2,1E0,1.7E1,1E1,7E0,2.6E1,5E1,2.9E1,6E0,3E0,5E0,6.7E1,4E0,7E0,3E0,3E0,2E0,2E0,1.4E1,5.1E1,2E0,2E0,2E0,2E0,1E1,7E0,2.81E2,4.1E1,3E0,1.4E1,2E0,8E0,2E0,5E0,2.2E1,4E0],"tree_param":{"num_deleted":"0","num_feature":"60","num_nodes":"63","size_leaf_vector":"0"}},{"base_weights":[2.9903096E-5,2.170716E-3,-1.6610518E-5,5.144272E-4,3.753515E-3,-3.250542E-4,3.1775623E-4,-1.3333187E-4,9.29749E-4,-1.3718351E-4,-2.7616571E-3,1.2582911E-3,-1.2950086E-4,-1.1930155E-3,2.745439E-4,-4.474104E-3,5.895433E-4,-1.8509232E-3,1.8725572E-3,-4.5349385E-4,2.193276E-3,-2.0058709E-4,-3.2051774E-3,-7.6034465E-3,3.788271E-4,-6.118683E-4,-6.7302585E-3,-1.0953404E-3,2.1565184E-3,-6.9320984E-3,-2.6695005E-4,3.1510063E-3,1.6341906E-4,-3.912357E-5,-2.7903288E-3,5.792146E-3,1.0605857E-3,5.889651E-4,-2.6085079E-3,-6.8468917E-3,-2.5216376E-3,-1.7226338E-3,-9.682536E-3,1.1066246E-3,-3.8549607E-4,-1.7457798E-3,1.4819404E-3,-2.565451E-3,-8.148683E-3,-1.9756872E-3,-3.813319E-4,2.8957997E-3,6.983976E-4,-1.1903206E-3,3.5155155E-3,4.8863045E-3,1.3590796E-3,8.004048E-4,-3.261075E-3,-1.8796035E-3,4.3941944E-4,-4.3185796E-3,-6.947642E-4,7.793933E-3,1.192381E-3,3.5230853E-3,2.7393375E-4],"categories":[],"categories_nodes":[],"categories_segments":[],"categories_sizes":[],"default_left":[1,1,1,1,0,1,1,0,0,1,1,1,1,1,1,1,1,1,1,1,1,1,1,1,1,1,1,1,1,0,1,1,1,1,1,1,1,0,0,0,0,0,0,0,0,0,0,0,0,0,0,0,0,0,0,0,0,0,0,0,0,0,0,0,0,0,0],"id":92,"left_children":[1,3,5,7,-1,9,11,-1,-1,13,15,17,19,21,23,25,27,29,31,33,35,37,39,41,43,45,47,49,51,-1,53,55,57,59,61,63,65,-1,-1,-1,-1,-1,-1,-1,-1,-1,-1,-1,-1,-1,-1,-1,-1,-1,-1,-1,-1,-1,-1,-1,-1,-1,-1,-1,-1,-1,-1],"loss_changes":[6.555769E-5,3.4771103E-5,6.662427E-5,2.2761933E-6,0E0,1.534306E-4,1.3056782E-4,4.8651906E-8,2.2395261E-7,1.3639334E-4,1.4036773E-4,1.9445445E-4,1.5978552E-4,1.750866E-4,1.8854883E-4,1.3530278E-4,2.6123658E-5,1.3497306E-4,1.8302893E-4,1.7999743E-4,9.984347E-5,1.15607065E-4,5.492309E-5,2.0000749E-5,1.2503164E-4,1.9206498E-5,3.8169586E-5,2.3894831E-6,3.3673878E-6,0E0,5.3081232E-5,1.4261642E-4,8.332027E-5,1.40865E-4,8.667096E-5,4.5953173E-5,3.971464E-5,0E0,0E0,0E0,0E0,0E0,0E0,0E0,0E0,0E0,0E0,0E0,0E0,0E0,0E0,0E0,0E0,0E0,0E0,0E0,0E0,0E0,0E0,0E0,0E0,0E0,0E0,0E0,0E0,0E0,0E0],"parents":[2147483647,0,0,1,1,2,2,3,3,5,5,6,6,9,9,10,10,11,11,12,12,13,13,14,14,15,15,16,16,17,17,18,18,19,19,20,20,21,21,22,22,23,23,24,24,25,25,26,26,27,27,28,28,30,30,31,31,32,32,33,33,34,34,35,35,36,36],"right_children":[2,4,6,8,-1,10,12,-1,-1,14,16,18,20,22,24,26,28,30,32,34,36,38,40,42,44,46,48,50,52,-1,54,56,58,60,62,64,66,-1,-1,-1,-1,-1,-1,-1,-1,-1,-1,-1,-1,-1,-1,-1,-1,-1,-1,-1,-1,-1,-1,-1,-1,-1,-1,-1,-1,-1,-1],"split_conditions":[-1.3315588E0,7.949126E-2,2.4589079E-2,2.4481463E-1,1.1260546E-3,-2.4625253E-2,2.8071558E-1,-3.9999562E-5,2.789247E-4,-4.0469313E-1,2.7268493E-1,-5.035591E-1,7.970378E-1,2.8071558E-1,-1.5824823E0,-2.860469E-1,-6.285556E-2,1.2575103E-1,1.972693E-1,6.5053487E-1,-3.9799875E-1,-5.4495025E-1,-9.66473E-1,-4.114124E-2,2.6961885E-2,-7.715751E-2,-1.7616573E-1,-5.6527936E-1,8.681387E-2,-2.0796296E-3,9.886935E-1,-6.1447307E-2,8.697059E-1,-4.210413E-1,1.3535463E-2,4.8527047E-1,-8.7999845E-1,1.7668953E-4,-7.825524E-4,-2.0540676E-3,-7.564913E-4,-5.167902E-4,-2.904761E-3,3.319874E-4,-1.1564882E-4,-5.2373396E-4,4.4458214E-4,-7.696353E-4,-2.444605E-3,-5.927062E-4,-1.1439957E-4,8.6873997E-4,2.0951928E-4,-3.570962E-4,1.0546547E-3,1.4658914E-3,4.077239E-4,2.4012146E-4,-9.783225E-4,-5.6388107E-4,1.3182584E-4,-1.2955739E-3,-2.0842926E-4,2.33818E-3,3.577143E-4,1.0569256E-3,8.218013E-5],"split_indices":[52,20,53,26,0,53,53,0,0,59,21,34,23,13,15,27,8,53,34,14,44,59,49,0,25,4,0,2,0,0,18,35,11,49,56,5,50,0,0,0,0,0,0,0,0,0,0,0,0,0,0,0,0,0,0,0,0,0,0,0,0,0,0,0,0,0,0],"split_type":[0,0,0,0,0,0,0,0,0,0,0,0,0,0,0,0,0,0,0,0,0,0,0,0,0,0,0,0,0,0,0,0,0,0,0,0,0,0,0,0,0,0,0,0,0,0,0,0,0,0,0,0,0,0,0,0,0,0,0,0,0,0,0,0,0,0,0],"sum_hessian":[6.57E2,1.3E1,6.44E2,7E0,6E0,3.35E2,3.09E2,3E0,4E0,3.12E2,2.3E1,9.9E1,2.1E2,8.7E1,2.25E2,1.5E1,8E0,1.6E1,8.3E1,1.85E2,2.5E1,5.9E1,2.8E1,2E0,2.23E2,6E0,9E0,4E0,4E0,3E0,1.3E1,4.7E1,3.6E1,1.58E2,2.7E1,5E0,2E1,4.5E1,1.4E1,3E0,2.5E1,1E0,1E0,1.14E2,1.09E2,4E0,2E0,3E0,6E0,1E0,3E0,2E0,2E0,1.1E1,2E0,2.3E1,2.4E1,3.1E1,5E0,3.2E1,1.26E2,1.5E1,1.2E1,3E0,2E0,4E0,1.6E1],"tree_param":{"num_deleted":"0","num_feature":"60","num_nodes":"67","size_leaf_vector":"0"}},{"base_weights":[1.1012167E-5,-4.469725E-3,3.1486557E-5,-5.815029E-4,-6.1230846E-3,2.2345248E-3,-9.549017E-6,5.2284994E-3,1.1128798E-3,1.171224E-4,-7.6266454E-4,-4.839897E-5,1.8951321E-3,5.599778E-4,-2.2674978E-4,-7.226467E-3,-5.4119126E-4,-3.9140868E-4,1.1359219E-3,-6.1590876E-4,1.0331927E-3,-5.028121E-3,-3.3108998E-4,3.103725E-3,-8.554948E-4,-1.056329E-3,1.6217857E-3,-9.289791E-3,-5.03514E-4,-1.0970948E-3,1.9555662E-3,-1.056999E-3,-5.9994957E-3,2.761794E-4,-1.5143501E-3],"categories":[],"categories_nodes":[],"categories_segments":[],"categories_sizes":[],"default_left":[1,1,1,0,0,1,1,0,1,1,1,0,0,1,1,0,1,1,1,1,1,1,1,0,0,0,0,0,0,0,0,0,0,0,0],"id":93,"left_children":[1,3,5,-1,-1,7,9,-1,11,13,15,-1,-1,17,19,-1,21,23,25,27,29,31,33,-1,-1,-1,-1,-1,-1,-1,-1,-1,-1,-1,-1],"loss_changes":[6.0505892E-5,1.5725298E-5,5.9325663E-5,0E0,0E0,3.4479435E-5,6.162118E-5,0E0,9.175854E-6,8.434093E-5,1.2922416E-4,9.651837E-7,0E0,1.3304743E-4,1.5361555E-4,0E0,8.412181E-5,1.5188317E-4,1.6254853E-4,2.2832328E-4,1.4754958E-4,9.088319E-6,6.365131E-5,0E0,0E0,0E0,0E0,0E0,0E0,0E0,0E0,0E0,0E0,0E0,0E0],"parents":[2147483647,0,0,1,1,2,2,5,5,6,6,8,8,9,9,10,10,13,13,14,14,16,16,17,17,18,18,19,19,20,20,21,21,22,22],"right_children":[2,4,6,-1,-1,8,10,-1,12,14,16,-1,-1,18,20,-1,22,24,26,28,30,32,34,-1,-1,-1,-1,-1,-1,-1,-1,-1,-1,-1,-1],"split_conditions":[-2.2761357E0,3.8072053E-1,-1.4085875E0,-1.7445088E-4,-1.8369254E-3,-5.4027593E-1,6.3030756E-1,1.5685499E-3,-1.2253674E-1,-9.203319E-2,-1.4945434E0,-1.4519692E-5,5.6853966E-4,-2.2832066E-1,3.7880066E-1,-2.1679401E-3,-1.2736566E0,-9.74661E-1,-5.133505E-1,-1.587192E0,-3.5385826E-1,1.08593345E-1,2.8331587E-1,9.311175E-4,-2.5664846E-4,-3.1689872E-4,4.8653572E-4,-2.7869374E-3,-1.510542E-4,-3.2912847E-4,5.866699E-4,-3.170997E-4,-1.7998487E-3,8.2853825E-5,-4.5430503E-4],"split_indices":[9,0,0,0,0,29,35,0,35,37,15,0,0,59,8,0,23,43,31,17,47,0,33,0,0,0,0,0,0,0,0,0,0,0,0],"split_type":[0,0,0,0,0,0,0,0,0,0,0,0,0,0,0,0,0,0,0,0,0,0,0,0,0,0,0,0,0,0,0,0,0,0,0],"sum_hessian":[6.57E2,2E0,6.55E2,1E0,1E0,1.1E1,6.44E2,2E0,9E0,5.52E2,9.2E1,4E0,5E0,2.41E2,3.11E2,2E0,9E1,9.1E1,1.5E2,2.38E2,7.3E1,3E0,8.7E1,1E1,8.1E1,2.7E1,1.23E2,2E0,2.36E2,2.2E1,5.1E1,1E0,2E0,5.8E1,2.9E1],"tree_param":{"num_deleted":"0","num_feature":"60","num_nodes":"35","size_leaf_vector":"0"}},{"base_weights":[-1.9903923E-6,3.6481582E-3,-2.4278337E-5,8.5336715E-4,4.2952993E-3,3.6125109E-3,-4.655269E-5,6.460786E-3,5.0949055E-4,3.1910036E-4,-2.5614034E-4,1.2248158E-3,-4.6058E-4,2.6333274E-3,1.8456916E-4,-9.1488665E-4,1.6928175E-4,3.71117E-3,1.6654543E-4,5.9245323E-4,-7.142264E-4,-1.8184121E-3,2.2395859E-4,5.245245E-4,-1.3588283E-3,1.3952017E-3,4.6366206E-3,8.063419E-4,-1.9498914E-4,2.238857E-4,1.8147926E-3,-6.2900013E-3,-4.614503E-4,-2.6657926E-3,8.027907E-4,-3.972657E-3,5.909547E-4,-2.5736363E-4,1.2790774E-3,1.3400182E-3,-2.5095304E-3],"categories":[],"categories_nodes":[],"categories_segments":[],"categories_sizes":[],"default_left":[1,1,1,0,0,1,1,0,1,1,1,0,0,1,1,1,1,1,1,1,1,1,1,1,1,0,0,0,0,0,0,0,0,0,0,0,0,0,0,0,0],"id":94,"left_children":[1,3,5,-1,-1,7,9,-1,11,13,15,-1,-1,17,19,21,23,25,27,29,31,33,35,37,39,-1,-1,-1,-1,-1,-1,-1,-1,-1,-1,-1,-1,-1,-1,-1,-1],"loss_changes":[5.3619704E-5,3.5690318E-6,5.3227843E-5,0E0,0E0,3.2061307E-5,5.0048642E-5,0E0,2.6458738E-6,7.361188E-5,1.1645664E-4,0E0,0E0,3.394635E-5,8.3275736E-5,1.6813027E-4,1.3805379E-4,1.2820805E-5,1.3137707E-6,6.987398E-5,9.716648E-5,2.0426529E-4,1.14778E-4,1.2186423E-4,1.5243009E-4,0E0,0E0,0E0,0E0,0E0,0E0,0E0,0E0,0E0,0E0,0E0,0E0,0E0,0E0,0E0,0E0],"parents":[2147483647,0,0,1,1,2,2,5,5,6,6,8,8,9,9,10,10,13,13,14,14,15,15,16,16,17,17,18,18,19,19,20,20,21,21,22,22,23,23,24,24],"right_children":[2,4,6,-1,-1,8,10,-1,12,14,16,-1,-1,18,20,22,24,26,28,30,32,34,36,38,40,-1,-1,-1,-1,-1,-1,-1,-1,-1,-1,-1,-1,-1,-1,-1,-1],"split_conditions":[-2.0534272E0,-9.081714E-1,-2.2761357E0,2.5601016E-4,1.2885898E-3,-1.3274223E-1,-2.1340498E-1,1.9382358E-3,9.237669E-2,-1.0446644E0,1.9264355E-1,3.6744477E-4,-1.38174E-4,5.303323E-1,3.4402972E-1,1.54369E-1,5.710936E-1,-4.2507607E-1,-9.1226906E-1,3.25298E-1,-1.1618071E0,4.7763383E-1,-7.719972E-1,-1.2159533E-2,-4.4063008E-1,4.1856052E-4,1.3909863E-3,2.4190257E-4,-5.8496746E-5,6.716571E-5,5.444378E-4,-1.8870005E-3,-1.384351E-4,-7.997378E-4,2.4083721E-4,-1.1917972E-3,1.772864E-4,-7.720909E-5,3.8372324E-4,4.0200548E-4,-7.5285917E-4],"split_indices":[56,0,46,0,0,0,20,0,0,41,20,0,0,53,8,15,15,7,1,4,5,6,11,30,22,0,0,0,0,0,0,0,0,0,0,0,0,0,0,0,0],"split_type":[0,0,0,0,0,0,0,0,0,0,0,0,0,0,0,0,0,0,0,0,0,0,0,0,0,0,0,0,0,0,0,0,0,0,0,0,0,0,0,0,0],"sum_hessian":[6.57E2,3E0,6.54E2,1E0,2E0,3E0,6.51E2,1E0,2E0,2.37E2,4.14E2,1E0,1E0,1.2E1,2.25E2,1.62E2,2.52E2,8E0,4E0,1.55E2,7E1,9E1,7.2E1,2.05E2,4.7E1,3E0,5E0,1E0,3E0,1.2E2,3.5E1,2E0,6.8E1,6.8E1,2.2E1,5E0,6.7E1,1.01E2,1.04E2,1.4E1,3.3E1],"tree_param":{"num_deleted":"0","num_feature":"60","num_nodes":"41","size_leaf_vector":"0"}},{"base_weights":[2.669684E-6,-2.0689967E-3,4.1089046E-5,-6.873487E-4,-3.8658343E-3,2.6622075E-3,1.2401188E-5,3.9065065E-4,-1.4122784E-3,3.7534833E-3,-4.3988228E-5,2.7500896E-3,-1.3445561E-5,7.2428584E-4,-7.902682E-4,5.764533E-4,3.6927946E-3,-1.3487117E-4,6.2357547E-4,-2.98809E-3,-9.686096E-5,1.2300212E-3,-9.454094E-4,1.572419E-3,-5.126777E-3,8.821779E-4,-2.4809167E-4,3.1104365E-3,6.1462657E-4,1.3562556E-3,-2.0489716E-3],"categories":[],"categories_nodes":[],"categories_segments":[],"categories_sizes":[],"default_left":[1,1,1,1,0,1,1,0,0,0,1,1,1,0,0,0,0,1,1,1,1,1,1,0,0,0,0,0,0,0,0],"id":95,"left_children":[1,3,5,7,-1,9,11,-1,-1,-1,13,15,17,-1,-1,-1,-1,19,21,23,25,27,29,-1,-1,-1,-1,-1,-1,-1,-1],"loss_changes":[5.2456617E-5,2.7133985E-5,4.861768E-5,6.8034974E-6,0E0,2.0837557E-5,4.539436E-5,2.9879004E-8,0E0,0E0,2.2924228E-6,1.0165859E-5,4.927913E-5,0E0,0E0,0E0,0E0,5.7732097E-5,9.8216304E-5,7.633597E-5,7.8543E-5,8.372086E-5,7.643981E-5,0E0,0E0,0E0,0E0,0E0,0E0,0E0,0E0],"parents":[2147483647,0,0,1,1,2,2,3,3,5,5,6,6,10,10,11,11,12,12,17,17,18,18,19,19,20,20,21,21,22,22],"right_children":[2,4,6,8,-1,10,12,-1,-1,-1,14,16,18,-1,-1,-1,-1,20,22,24,26,28,30,-1,-1,-1,-1,-1,-1,-1,-1],"split_conditions":[-1.3748368E0,2.41911E-1,-1.5625197E0,-4.372152E-2,-1.1597504E-3,4.742832E-1,-1.8119881E0,1.17195195E-4,-4.2368352E-4,1.126045E-3,2.933362E-1,-3.496059E-1,6.1244667E-1,2.1728576E-4,-2.3708046E-4,1.72936E-4,1.1078385E-3,-1.587192E0,3.2695472E-1,-1.864626E0,-6.3790226E-1,-3.601159E-1,-2.3634592E-1,4.717257E-4,-1.5380332E-3,2.6465338E-4,-7.44275E-5,9.3313097E-4,1.8438797E-4,4.068767E-4,-6.146915E-4],"split_indices":[45,20,31,32,0,24,11,0,0,0,0,3,26,0,0,0,0,15,50,15,15,30,5,0,0,0,0,0,0,0,0],"split_type":[0,0,0,0,0,0,0,0,0,0,0,0,0,0,0,0,0,0,0,0,0,0,0,0,0,0,0,0,0,0,0],"sum_hessian":[6.57E2,1.1E1,6.46E2,7E0,4E0,6E0,6.4E2,3E0,4E0,4E0,2E0,5E0,6.35E2,1E0,1E0,2E0,3E0,5.34E2,1.01E2,6E0,5.28E2,7.3E1,2.8E1,2E0,4E0,7E1,4.58E2,1.7E1,5.6E1,9E0,1.9E1],"tree_param":{"num_deleted":"0","num_feature":"60","num_nodes":"31","size_leaf_vector":"0"}},{"base_weights":[3.317255E-6,-1.6208769E-5,3.1998744E-3,3.1264499E-3,-3.5464025E-5,3.7896533E-3,7.152688E-4,5.528882E-3,4.826784E-4,1.786166E-4,-3.4093426E-4,1.0783076E-3,-3.5429E-4,1.921508E-3,3.082686E-5,-2.6191035E-3,-1.8650813E-4,-2.7944628E-4,3.6210287E-3,-1.2337796E-3,2.1370938E-4,9.3696825E-4,-3.785354E-3,1.9385682E-3,-3.096938E-4,6.529114E-4,-1.6314083E-3,1.5910988E-3,7.0773833E-3,-3.0101766E-3,-1.4989925E-4,-3.7982176E-5,1.4680574E-3,1.2572049E-3,-1.719892E-4,-1.2866491E-3,-6.486068E-3,-6.539561E-4,3.4515213E-3,-4.4129565E-3,-2.3913369E-4],"categories":[],"categories_nodes":[],"categories_segments":[],"categories_sizes":[],"default_left":[1,1,1,1,1,0,0,0,1,1,1,0,0,1,1,1,1,1,1,1,1,1,1,1,1,0,0,0,0,0,0,0,0,0,0,0,0,0,0,0,0],"id":96,"left_children":[1,3,5,7,9,-1,-1,-1,11,13,15,-1,-1,17,19,21,23,25,27,29,31,33,35,37,39,-1,-1,-1,-1,-1,-1,-1,-1,-1,-1,-1,-1,-1,-1,-1,-1],"loss_changes":[4.1121628E-5,3.974669E-5,3.1508534E-6,2.2737258E-5,4.2698604E-5,0E0,0E0,0E0,1.8776022E-6,9.885205E-5,9.414811E-5,0E0,0E0,1.1322889E-4,8.236608E-5,7.4050346E-5,6.683043E-5,1.8712335E-5,1.08013846E-4,8.619186E-5,9.8241195E-5,1.9918698E-6,7.938246E-5,5.7170295E-5,6.843111E-5,0E0,0E0,0E0,0E0,0E0,0E0,0E0,0E0,0E0,0E0,0E0,0E0,0E0,0E0,0E0,0E0],"parents":[2147483647,0,0,1,1,2,2,3,3,4,4,8,8,9,9,10,10,13,13,14,14,15,15,16,16,17,17,18,18,19,19,20,20,21,21,22,22,23,23,24,24],"right_children":[2,4,6,8,10,-1,-1,-1,12,14,16,-1,-1,18,20,22,24,26,28,30,32,34,36,38,40,-1,-1,-1,-1,-1,-1,-1,-1,-1,-1,-1,-1,-1,-1,-1,-1],"split_conditions":[1.8619573E0,-2.2761357E0,-2.4424323E-1,-1.3274223E-1,1.2305904E-1,1.1368961E-3,2.1458064E-4,1.6586647E-3,9.237669E-2,-9.491718E-1,-1.0510728E0,3.234923E-4,-1.0628701E-4,-1.17868245E-1,-7.258769E-1,-2.7436346E-1,-1.1702654E0,8.744464E-2,1.557807E-1,-1.5393905E-1,5.3711003E-1,3.6946923E-1,-5.1599585E-2,-3.1824663E-2,-1.556113E0,1.9587342E-4,-4.894225E-4,4.7732968E-4,2.123215E-3,-9.0305303E-4,-4.4969776E-5,-1.13946535E-5,4.4041724E-4,3.771615E-4,-5.1596762E-5,-3.8599476E-4,-1.9458205E-3,-1.9618684E-4,1.0354564E-3,-1.323887E-3,-7.174011E-5],"split_indices":[57,46,0,0,3,0,0,0,0,36,36,0,0,25,58,58,17,20,44,7,27,0,11,39,13,0,0,0,0,0,0,0,0,0,0,0,0,0,0,0,0],"split_type":[0,0,0,0,0,0,0,0,0,0,0,0,0,0,0,0,0,0,0,0,0,0,0,0,0,0,0,0,0,0,0,0,0,0,0,0,0,0,0,0,0],"sum_hessian":[6.57E2,6.54E2,3E0,3E0,6.51E2,2E0,1E0,1E0,2E0,3.83E2,2.68E2,1E0,1E0,2.9E1,3.54E2,1.6E1,2.52E2,1.3E1,1.6E1,4.4E1,3.1E2,4E0,1.2E1,1.3E1,2.39E2,8E0,5E0,1.1E1,5E0,1.6E1,2.8E1,2.59E2,5.1E1,3E0,1E0,7E0,5E0,5E0,8E0,3E0,2.36E2],"tree_param":{"num_deleted":"0","num_feature":"60","num_nodes":"41","size_leaf_vector":"0"}},{"base_weights":[6.05243E-6,1.7830903E-3,-2.6915897E-5,3.7358205E-3,1.0189622E-3,-1.6782997E-4,4.291585E-4,1.3615255E-3,1.6473606E-4,-2.813805E-4,1.1670525E-3,-1.3632263E-4,1.7073994E-3,-1.9443544E-4,-2.275459E-3,-1.0440424E-3,1.6833559E-3,-4.238266E-3,1.4932021E-4,2.4321037E-3,-8.8546023E-4,1.8317807E-3,-2.95524E-4,-3.2354435E-3,1.0595858E-3,-2.2134185E-4,-2.3414295E-3,2.6179769E-3,2.9470204E-4,-5.116536E-3,-1.3617277E-3,-2.4655202E-4,2.267801E-3,5.2288007E-3,1.4802974E-3,-2.385279E-3,1.391378E-3,5.897363E-3,1.0934371E-3,1.7045603E-4,-6.904078E-4,-1.6690658E-3,-4.7871512E-3,-4.2766333E-5,1.8087426E-3,-5.3092244E-4,6.632805E-4,4.020337E-3,1.4649055E-3,-3.7679612E-4,2.8824608E-3,-5.024978E-5,-4.2581856E-3,-1.0336439E-5,4.5472304E-3,6.4198375E-3,7.067819E-4,4.859455E-3,9.0349256E-4,-2.3346643E-4,-3.1993107E-3,1.6512424E-3,1.7596036E-4],"categories":[],"categories_nodes":[],"categories_segments":[],"categories_sizes":[],"default_left":[1,1,1,0,1,1,1,0,0,1,1,1,1,1,1,1,1,1,1,1,1,1,1,1,1,1,0,1,1,0,0,1,1,1,1,1,1,0,0,0,0,0,0,0,0,0,0,0,0,0,0,0,0,0,0,0,0,0,0,0,0,0,0],"id":97,"left_children":[1,3,5,-1,7,9,11,-1,-1,13,15,17,19,21,23,25,27,29,31,33,35,37,39,41,43,45,-1,47,49,-1,-1,51,53,55,57,59,61,-1,-1,-1,-1,-1,-1,-1,-1,-1,-1,-1,-1,-1,-1,-1,-1,-1,-1,-1,-1,-1,-1,-1,-1,-1,-1],"loss_changes":[3.8597558E-5,1.4098969E-5,4.165297E-5,0E0,2.7019723E-6,7.535881E-5,1.1082439E-4,0E0,2.5835305E-7,7.879006E-5,4.6279732E-5,1.2600378E-4,9.0469184E-5,9.04605E-5,6.425845E-5,8.020633E-6,4.0760147E-5,1.0717311E-5,8.5262545E-5,9.075062E-5,4.0882118E-5,5.6589335E-5,7.721702E-5,2.8468334E-5,4.2065267E-6,1.9953218E-6,0E0,2.4833993E-5,2.5413552E-5,0E0,0E0,6.7510395E-5,8.3132654E-5,4.393558E-5,5.2133844E-5,1.1514574E-5,1.2886658E-6,0E0,0E0,0E0,0E0,0E0,0E0,0E0,0E0,0E0,0E0,0E0,0E0,0E0,0E0,0E0,0E0,0E0,0E0,0E0,0E0,0E0,0E0,0E0,0E0,0E0,0E0],"parents":[2147483647,0,0,1,1,2,2,4,4,5,5,6,6,9,9,10,10,11,11,12,12,13,13,14,14,15,15,16,16,17,17,18,18,19,19,20,20,21,21,22,22,23,23,24,24,25,25,27,27,28,28,31,31,32,32,33,33,34,34,35,35,36,36],"right_children":[2,4,6,-1,8,10,12,-1,-1,14,16,18,20,22,24,26,28,30,32,34,36,38,40,42,44,46,-1,48,50,-1,-1,52,54,56,58,60,62,-1,-1,-1,-1,-1,-1,-1,-1,-1,-1,-1,-1,-1,-1,-1,-1,-1,-1,-1,-1,-1,-1,-1,-1,-1,-1],"split_conditions":[-1.4085875E0,-5.4027593E-1,4.6222347E-1,1.1207463E-3,1.3035259E-1,9.1400087E-1,3.6754972E-1,4.0845768E-4,4.942082E-5,1.1626842E0,-6.876209E-1,-1.0820546E0,5.027558E-1,-1.1753764E0,5.8961916E-1,1.9933163E-1,5.4054055E-2,3.9237565E-1,8.282821E-1,-4.258262E-1,4.360365E-1,-8.43014E-1,-7.845403E-2,3.167165E-1,-4.3903083E-2,3.3032444E-1,-7.0242886E-4,-3.582477E-1,5.1764095E-1,-1.5349608E-3,-4.0851833E-4,1.4130943E0,-2.1448082E-1,9.8470676E-1,-6.33152E-1,-5.230561E-1,-1.6895711E-1,1.769209E-3,3.2803114E-4,5.113681E-5,-2.0712236E-4,-5.0071976E-4,-1.4361454E-3,-1.2829901E-5,5.426228E-4,-1.5927674E-4,1.9898415E-4,1.2061012E-3,4.3947165E-4,-1.1303884E-4,8.647383E-4,-1.5074934E-5,-1.2774557E-3,-3.100932E-6,1.3641692E-3,1.9259513E-3,2.1203459E-4,1.4578365E-3,2.710478E-4,-7.003993E-5,-9.597933E-4,4.9537275E-4,5.278811E-5],"split_indices":[0,29,52,0,18,22,13,0,0,16,41,25,57,41,25,3,45,21,14,17,24,42,37,42,0,2,0,11,16,0,0,55,16,3,18,3,0,0,0,0,0,0,0,0,0,0,0,0,0,0,0,0,0,0,0,0,0,0,0,0,0,0,0],"split_type":[0,0,0,0,0,0,0,0,0,0,0,0,0,0,0,0,0,0,0,0,0,0,0,0,0,0,0,0,0,0,0,0,0,0,0,0,0,0,0,0,0,0,0,0,0,0,0,0,0,0,0,0,0,0,0,0,0,0,0,0,0,0,0],"sum_hessian":[6.57E2,1.1E1,6.46E2,2E0,9E0,4.94E2,1.52E2,6E0,3E0,4.56E2,3.8E1,1.06E2,4.6E1,4.38E2,1.8E1,7E0,3.1E1,6E0,1E2,3.6E1,1E1,2E1,4.18E2,1.4E1,4E0,5E0,2E0,1.8E1,1.3E1,4E0,2E0,8.5E1,1.5E1,8E0,2.8E1,6E0,4E0,2E0,1.8E1,1.92E2,2.26E2,8E0,6E0,2E0,2E0,4E0,1E0,7E0,1.1E1,1.1E1,2E0,8.2E1,3E0,8E0,7E0,6E0,2E0,3E0,2.5E1,2E0,4E0,3E0,1E0],"tree_param":{"num_deleted":"0","num_feature":"60","num_nodes":"63","size_leaf_vector":"0"}},{"base_weights":[1.2376315E-5,-4.2518377E-3,2.5338342E-5,-1.5580901E-3,5.7213118E-5,-2.9762057E-3,8.2609906E-5,-3.2876108E-3,7.2729854E-5,1.1220971E-3,-5.576044E-4,-5.482733E-4,-4.383143E-3,2.0692582E-4,-3.07925E-4,4.8532838E-4,-2.57716E-4,3.636778E-4,-1.2084465E-3,2.870882E-4,2.016161E-3,8.9541695E-4,-5.5427686E-4,8.2849077E-4,-1.5881065E-3,-6.967167E-3,-9.4438065E-4],"categories":[],"categories_nodes":[],"categories_segments":[],"categories_sizes":[],"default_left":[1,0,1,1,1,0,1,1,1,0,0,0,0,1,1,1,1,1,1,0,0,0,0,0,0,0,0],"id":98,"left_children":[1,-1,3,5,7,-1,9,11,13,-1,-1,-1,-1,15,17,19,21,23,25,-1,-1,-1,-1,-1,-1,-1,-1],"loss_changes":[3.647728E-5,0E0,3.3248867E-5,3.0493E-5,3.3715085E-5,4.996109E-7,5.2841488E-6,6.5999375E-6,3.2909666E-5,0E0,7.5911487E-7,0E0,0E0,6.169923E-5,1.0204466E-4,8.9856E-5,6.170967E-5,8.9315545E-5,1.02909406E-4,0E0,0E0,0E0,0E0,0E0,0E0,0E0,0E0],"parents":[2147483647,0,0,2,2,3,3,4,4,6,6,7,7,8,8,13,13,14,14,15,15,16,16,17,17,18,18],"right_children":[2,-1,4,6,8,-1,10,12,14,-1,-1,-1,-1,16,18,20,22,24,26,-1,-1,-1,-1,-1,-1,-1,-1],"split_conditions":[-2.8997092E0,-1.2755514E-3,-1.5081496E0,1.15554385E-1,-2.2761357E0,-8.9286175E-4,-4.21018E-1,3.8072053E-1,3.846448E-1,3.3662916E-4,-1.6728134E-4,-1.64482E-4,-1.314943E-3,1.8242832E-1,7.326565E-2,7.130436E-1,-5.0262034E-1,7.356455E-1,-1.4851732E0,8.6126456E-5,6.048484E-4,2.686251E-4,-1.6628306E-4,2.4854724E-4,-4.7643197E-4,-2.0901503E-3,-2.833142E-4],"split_indices":[32,0,7,58,9,0,10,0,7,0,0,0,0,6,25,16,52,16,17,0,0,0,0,0,0,0,0],"split_type":[0,0,0,0,0,0,0,0,0,0,0,0,0,0,0,0,0,0,0,0,0,0,0,0,0,0,0],"sum_hessian":[6.57E2,1E0,6.56E2,1.2E1,6.44E2,6E0,6E0,2E0,6.42E2,2E0,4E0,1E0,1E0,4.75E2,1.67E2,2.97E2,1.78E2,9.6E1,7.1E1,2.64E2,3.3E1,3.6E1,1.42E2,7.8E1,1.8E1,2E0,6.9E1],"tree_param":{"num_deleted":"0","num_feature":"60","num_nodes":"27","size_leaf_vector":"0"}},{"base_weights":[6.3158745E-7,-2.4564838E-4,2.115287E-4,-2.0386723E-3,-9.853775E-5,1.7193122E-3,1.0189519E-4,-6.9275725E-4,-3.7190863E-3,-1.43867E-3,1.2891662E-4,-6.997122E-4,2.9725563E-3,2.612015E-4,-1.1753093E-3,2.0175593E-4,-1.9190675E-3,-4.952785E-3,8.1047293E-4,-2.7217192E-3,5.3279474E-4,7.3209236E-4,-4.415126E-4,2.556791E-4,-1.957871E-3,5.1638234E-4,4.042055E-3,-2.1605254E-3,3.4467212E-4,-3.2041327E-3,-5.051465E-4,-9.6861523E-4,6.7452126E-4,-6.0993885E-3,-1.0086497E-3,-4.5882352E-4,1.6745329E-3,-5.1325294E-3,-1.6902776E-3,-3.7664318E-4,2.7907745E-3,1.1272653E-3,-2.0565793E-3,-9.364464E-4,8.080862E-4,-3.6186972E-4,6.5492094E-4,-2.3954858E-4,9.54235E-4,1.361688E-3,4.4863936E-3,-2.6288256E-3,-1.9154946E-4,-1.6235211E-4,8.088366E-4,-7.0718303E-4,-4.3347436E-3,-1.6147053E-3,4.97289E-4,-6.043207E-3,1.6576797E-4,-7.403374E-4,-3.2129842E-3,-1.6894037E-3,9.899235E-4,-4.2053163E-3,1.3272956E-3,-4.8104823E-3,-9.6723E-4,-1.8855789E-3,-6.667261E-5,1.5323757E-3,-3.0687575E-3,1.3268123E-4,-3.2712591E-3,-3.1018462E-3,9.3722413E-4,2.1269917E-4,-1.0847101E-3,1.3284013E-4,-2.1033848E-3,1.0080108E-3,-8.2790107E-4],"categories":[],"categories_nodes":[],"categories_segments":[],"categories_sizes":[],"default_left":[1,1,1,1,1,1,1,1,1,1,1,1,1,1,1,1,0,1,1,1,1,1,1,1,0,1,1,1,1,1,1,0,0,0,0,0,0,1,1,1,0,1,1,1,1,0,0,0,0,0,0,0,0,1,1,1,0,1,1,0,0,0,0,0,0,0,0,0,0,0,0,0,0,0,0,0,0,0,0,0,0,0,0],"id":99,"left_children":[1,3,5,7,9,11,13,15,17,19,21,23,25,27,29,31,-1,33,35,37,39,41,43,45,-1,47,49,51,53,55,57,-1,-1,-1,-1,-1,-1,59,61,63,-1,65,67,69,71,-1,-1,-1,-1,-1,-1,-1,-1,73,75,77,-1,79,81,-1,-1,-1,-1,-1,-1,-1,-1,-1,-1,-1,-1,-1,-1,-1,-1,-1,-1,-1,-1,-1,-1,-1,-1],"loss_changes":[3.422831E-5,7.998607E-5,5.8507598E-5,4.9442555E-5,8.614441E-5,7.4839016E-5,6.785795E-5,1.5744492E-5,5.9895217E-5,1.0515905E-4,8.358795E-5,1.1318893E-5,3.994275E-5,6.0579005E-5,4.8688198E-5,5.63315E-6,0E0,3.0026727E-5,4.0585596E-6,5.3489857E-5,3.5960496E-5,1.3235518E-4,7.806531E-5,1.716304E-6,0E0,2.2145036E-6,6.9918315E-6,8.717172E-6,6.767466E-5,2.2342247E-5,3.305855E-5,0E0,8.522188E-7,0E0,0E0,0E0,0E0,3.4777055E-5,2.5104433E-5,2.4994053E-5,0E0,1.16516225E-4,4.034659E-5,7.417204E-5,1.0578897E-4,0E0,1.3104568E-8,2.5307716E-7,0E0,0E0,0E0,7.569906E-8,7.2316055E-9,1.2701194E-4,7.821956E-5,1.6198392E-6,0E0,1.2235272E-5,1.1663387E-5,0E0,0E0,0E0,0E0,0E0,0E0,0E0,0E0,0E0,0E0,0E0,0E0,0E0,0E0,0E0,0E0,0E0,0E0,0E0,0E0,0E0,0E0,0E0,0E0],"parents":[2147483647,0,0,1,1,2,2,3,3,4,4,5,5,6,6,7,7,8,8,9,9,10,10,11,11,12,12,13,13,14,14,15,15,17,17,18,18,19,19,20,20,21,21,22,22,23,23,25,25,26,26,27,27,28,28,29,29,30,30,37,37,38,38,39,39,41,41,42,42,43,43,44,44,53,53,54,54,55,55,57,57,58,58],"right_children":[2,4,6,8,10,12,14,16,18,20,22,24,26,28,30,32,-1,34,36,38,40,42,44,46,-1,48,50,52,54,56,58,-1,-1,-1,-1,-1,-1,60,62,64,-1,66,68,70,72,-1,-1,-1,-1,-1,-1,-1,-1,74,76,78,-1,80,82,-1,-1,-1,-1,-1,-1,-1,-1,-1,-1,-1,-1,-1,-1,-1,-1,-1,-1,-1,-1,-1,-1,-1,-1],"split_conditions":[-5.2780725E-2,-8.869476E-1,-1.0681108E0,1.4629689E-1,-6.332284E-1,-8.553994E-2,9.827186E-1,3.9215647E-2,3.95603E-1,1.7023459E-1,1.0974885E-1,4.1203433E-1,-1.2595169E-1,-8.940135E-1,-4.191559E-1,-6.125092E-1,-5.757203E-4,5.659645E-1,-8.846128E-1,-1.730028E-1,6.0591143E-1,9.2621064E-1,3.1969845E-1,-3.0270064E-1,-5.8736134E-4,-4.4911474E-1,-6.359835E-1,9.2802316E-1,-5.8558874E-2,8.443398E-3,-2.2719324E-1,-2.9058458E-4,2.0235639E-4,-1.8298166E-3,-3.025949E-4,-1.3764706E-4,5.023599E-4,1.0257399E0,3.1408843E-1,3.806181E-1,8.372324E-4,-1.3605225E0,-4.495648E-1,-7.176248E-2,9.336666E-1,-1.0856092E-4,1.9647629E-4,-7.1864575E-5,2.8627052E-4,4.0850643E-4,1.3459182E-3,-7.8864774E-4,-5.746484E-5,-1.1848374E-1,-1.2430136E0,-4.3501288E-2,-1.3004232E-3,-6.6266716E-1,4.3833947E-1,-1.8129621E-3,4.973039E-5,-2.2210124E-4,-9.638953E-4,-5.0682115E-4,2.9697706E-4,-1.2615949E-3,3.9818868E-4,-1.4431447E-3,-2.90169E-4,-5.656737E-4,-2.0001784E-5,4.5971273E-4,-9.2062727E-4,3.980437E-5,-9.813778E-4,-9.305539E-4,2.8116725E-4,6.3809755E-5,-3.2541304E-4,3.985204E-5,-6.3101546E-4,3.0240326E-4,-2.4837034E-4],"split_indices":[30,45,4,3,42,58,30,5,37,2,42,6,33,4,55,15,0,33,0,29,19,55,33,14,0,7,11,9,6,15,41,0,0,0,0,0,0,0,44,31,0,4,45,34,17,0,0,0,0,0,0,0,0,6,9,0,0,10,11,0,0,0,0,0,0,0,0,0,0,0,0,0,0,0,0,0,0,0,0,0,0,0,0],"split_type":[0,0,0,0,0,0,0,0,0,0,0,0,0,0,0,0,0,0,0,0,0,0,0,0,0,0,0,0,0,0,0,0,0,0,0,0,0,0,0,0,0,0,0,0,0,0,0,0,0,0,0,0,0,0,0,0,0,0,0,0,0,0,0,0,0,0,0,0,0,0,0,0,0,0,0,0,0,0,0,0,0,0,0],"sum_hessian":[6.57E2,3.03E2,3.54E2,2.2E1,2.81E2,2.3E1,3.31E2,1.3E1,9E0,4E1,2.41E2,8E0,1.5E1,2.95E2,3.6E1,8E0,5E0,7E0,2E0,2.4E1,1.6E1,1.17E2,1.24E2,5E0,3E0,5E0,1E1,9E0,2.86E2,8E0,2.8E1,2E0,6E0,5E0,2E0,1E0,1E0,6E0,1.8E1,1.2E1,4E0,1.03E2,1.4E1,8.9E1,3.5E1,2E0,3E0,2E0,3E0,2E0,8E0,7E0,2E0,1.37E2,1.49E2,3E0,5E0,1.3E1,1.5E1,5E0,1E0,1.2E1,6E0,6E0,6E0,3E0,1E2,3E0,1.1E1,4.2E1,4.7E1,3E1,5E0,1.26E2,1.1E1,4E0,1.45E2,1E0,2E0,3E0,1E1,1.1E1,4E0],"tree_param":{"num_deleted":"0","num_feature":"60","num_nodes":"83","size_leaf_vector":"0"}}]},"name":"gbtree"},"learner_model_param":{"base_score":"5E-1","num_class":"0","num_feature":"60","num_target":"1"},"objective":{"name":"reg:squarederror","reg_loss_param":{"scale_pos_weight":"1"}}},"version":[1,6,1]}